{
  "token_to_id": {
    "<pad>": 0,
    "<unk>": 1,
    "<bos>": 2,
    "<eos>": 3,
    "<byte_00>": 4,
    "<byte_01>": 5,
    "<byte_02>": 6,
    "<byte_03>": 7,
    "<byte_04>": 8,
    "<byte_05>": 9,
    "<byte_06>": 10,
    "<byte_07>": 11,
    "<byte_08>": 12,
    "<byte_09>": 13,
    "<byte_0a>": 14,
    "<byte_0b>": 15,
    "<byte_0c>": 16,
    "<byte_0d>": 17,
    "<byte_0e>": 18,
    "<byte_0f>": 19,
    "<byte_10>": 20,
    "<byte_11>": 21,
    "<byte_12>": 22,
    "<byte_13>": 23,
    "<byte_14>": 24,
    "<byte_15>": 25,
    "<byte_16>": 26,
    "<byte_17>": 27,
    "<byte_18>": 28,
    "<byte_19>": 29,
    "<byte_1a>": 30,
    "<byte_1b>": 31,
    "<byte_1c>": 32,
    "<byte_1d>": 33,
    "<byte_1e>": 34,
    "<byte_1f>": 35,
    "<byte_20>": 36,
    "<byte_21>": 37,
    "<byte_22>": 38,
    "<byte_23>": 39,
    "<byte_24>": 40,
    "<byte_25>": 41,
    "<byte_26>": 42,
    "<byte_27>": 43,
    "<byte_28>": 44,
    "<byte_29>": 45,
    "<byte_2a>": 46,
    "<byte_2b>": 47,
    "<byte_2c>": 48,
    "<byte_2d>": 49,
    "<byte_2e>": 50,
    "<byte_2f>": 51,
    "<byte_30>": 52,
    "<byte_31>": 53,
    "<byte_32>": 54,
    "<byte_33>": 55,
    "<byte_34>": 56,
    "<byte_35>": 57,
    "<byte_36>": 58,
    "<byte_37>": 59,
    "<byte_38>": 60,
    "<byte_39>": 61,
    "<byte_3a>": 62,
    "<byte_3b>": 63,
    "<byte_3c>": 64,
    "<byte_3d>": 65,
    "<byte_3e>": 66,
    "<byte_3f>": 67,
    "<byte_40>": 68,
    "<byte_41>": 69,
    "<byte_42>": 70,
    "<byte_43>": 71,
    "<byte_44>": 72,
    "<byte_45>": 73,
    "<byte_46>": 74,
    "<byte_47>": 75,
    "<byte_48>": 76,
    "<byte_49>": 77,
    "<byte_4a>": 78,
    "<byte_4b>": 79,
    "<byte_4c>": 80,
    "<byte_4d>": 81,
    "<byte_4e>": 82,
    "<byte_4f>": 83,
    "<byte_50>": 84,
    "<byte_51>": 85,
    "<byte_52>": 86,
    "<byte_53>": 87,
    "<byte_54>": 88,
    "<byte_55>": 89,
    "<byte_56>": 90,
    "<byte_57>": 91,
    "<byte_58>": 92,
    "<byte_59>": 93,
    "<byte_5a>": 94,
    "<byte_5b>": 95,
    "<byte_5c>": 96,
    "<byte_5d>": 97,
    "<byte_5e>": 98,
    "<byte_5f>": 99,
    "<byte_60>": 100,
    "<byte_61>": 101,
    "<byte_62>": 102,
    "<byte_63>": 103,
    "<byte_64>": 104,
    "<byte_65>": 105,
    "<byte_66>": 106,
    "<byte_67>": 107,
    "<byte_68>": 108,
    "<byte_69>": 109,
    "<byte_6a>": 110,
    "<byte_6b>": 111,
    "<byte_6c>": 112,
    "<byte_6d>": 113,
    "<byte_6e>": 114,
    "<byte_6f>": 115,
    "<byte_70>": 116,
    "<byte_71>": 117,
    "<byte_72>": 118,
    "<byte_73>": 119,
    "<byte_74>": 120,
    "<byte_75>": 121,
    "<byte_76>": 122,
    "<byte_77>": 123,
    "<byte_78>": 124,
    "<byte_79>": 125,
    "<byte_7a>": 126,
    "<byte_7b>": 127,
    "<byte_7c>": 128,
    "<byte_7d>": 129,
    "<byte_7e>": 130,
    "<byte_7f>": 131,
    "<byte_80>": 132,
    "<byte_81>": 133,
    "<byte_82>": 134,
    "<byte_83>": 135,
    "<byte_84>": 136,
    "<byte_85>": 137,
    "<byte_86>": 138,
    "<byte_87>": 139,
    "<byte_88>": 140,
    "<byte_89>": 141,
    "<byte_8a>": 142,
    "<byte_8b>": 143,
    "<byte_8c>": 144,
    "<byte_8d>": 145,
    "<byte_8e>": 146,
    "<byte_8f>": 147,
    "<byte_90>": 148,
    "<byte_91>": 149,
    "<byte_92>": 150,
    "<byte_93>": 151,
    "<byte_94>": 152,
    "<byte_95>": 153,
    "<byte_96>": 154,
    "<byte_97>": 155,
    "<byte_98>": 156,
    "<byte_99>": 157,
    "<byte_9a>": 158,
    "<byte_9b>": 159,
    "<byte_9c>": 160,
    "<byte_9d>": 161,
    "<byte_9e>": 162,
    "<byte_9f>": 163,
    "<byte_a0>": 164,
    "<byte_a1>": 165,
    "<byte_a2>": 166,
    "<byte_a3>": 167,
    "<byte_a4>": 168,
    "<byte_a5>": 169,
    "<byte_a6>": 170,
    "<byte_a7>": 171,
    "<byte_a8>": 172,
    "<byte_a9>": 173,
    "<byte_aa>": 174,
    "<byte_ab>": 175,
    "<byte_ac>": 176,
    "<byte_ad>": 177,
    "<byte_ae>": 178,
    "<byte_af>": 179,
    "<byte_b0>": 180,
    "<byte_b1>": 181,
    "<byte_b2>": 182,
    "<byte_b3>": 183,
    "<byte_b4>": 184,
    "<byte_b5>": 185,
    "<byte_b6>": 186,
    "<byte_b7>": 187,
    "<byte_b8>": 188,
    "<byte_b9>": 189,
    "<byte_ba>": 190,
    "<byte_bb>": 191,
    "<byte_bc>": 192,
    "<byte_bd>": 193,
    "<byte_be>": 194,
    "<byte_bf>": 195,
    "<byte_c0>": 196,
    "<byte_c1>": 197,
    "<byte_c2>": 198,
    "<byte_c3>": 199,
    "<byte_c4>": 200,
    "<byte_c5>": 201,
    "<byte_c6>": 202,
    "<byte_c7>": 203,
    "<byte_c8>": 204,
    "<byte_c9>": 205,
    "<byte_ca>": 206,
    "<byte_cb>": 207,
    "<byte_cc>": 208,
    "<byte_cd>": 209,
    "<byte_ce>": 210,
    "<byte_cf>": 211,
    "<byte_d0>": 212,
    "<byte_d1>": 213,
    "<byte_d2>": 214,
    "<byte_d3>": 215,
    "<byte_d4>": 216,
    "<byte_d5>": 217,
    "<byte_d6>": 218,
    "<byte_d7>": 219,
    "<byte_d8>": 220,
    "<byte_d9>": 221,
    "<byte_da>": 222,
    "<byte_db>": 223,
    "<byte_dc>": 224,
    "<byte_dd>": 225,
    "<byte_de>": 226,
    "<byte_df>": 227,
    "<byte_e0>": 228,
    "<byte_e1>": 229,
    "<byte_e2>": 230,
    "<byte_e3>": 231,
    "<byte_e4>": 232,
    "<byte_e5>": 233,
    "<byte_e6>": 234,
    "<byte_e7>": 235,
    "<byte_e8>": 236,
    "<byte_e9>": 237,
    "<byte_ea>": 238,
    "<byte_eb>": 239,
    "<byte_ec>": 240,
    "<byte_ed>": 241,
    "<byte_ee>": 242,
    "<byte_ef>": 243,
    "<byte_f0>": 244,
    "<byte_f1>": 245,
    "<byte_f2>": 246,
    "<byte_f3>": 247,
    "<byte_f4>": 248,
    "<byte_f5>": 249,
    "<byte_f6>": 250,
    "<byte_f7>": 251,
    "<byte_f8>": 252,
    "<byte_f9>": 253,
    "<byte_fa>": 254,
    "<byte_fb>": 255,
    "<byte_fc>": 256,
    "<byte_fd>": 257,
    "<byte_fe>": 258,
    "<byte_ff>": 259,
    "ऀ": 260,
    "ँ": 261,
    "ं": 262,
    "ः": 263,
    "ऄ": 264,
    "अ": 265,
    "आ": 266,
    "इ": 267,
    "ई": 268,
    "उ": 269,
    "ऊ": 270,
    "ऋ": 271,
    "ऌ": 272,
    "ऍ": 273,
    "ऎ": 274,
    "ए": 275,
    "ऐ": 276,
    "ऑ": 277,
    "ऒ": 278,
    "ओ": 279,
    "औ": 280,
    "क": 281,
    "ख": 282,
    "ग": 283,
    "घ": 284,
    "ङ": 285,
    "च": 286,
    "छ": 287,
    "ज": 288,
    "झ": 289,
    "ञ": 290,
    "ट": 291,
    "ठ": 292,
    "ड": 293,
    "ढ": 294,
    "ण": 295,
    "त": 296,
    "थ": 297,
    "द": 298,
    "ध": 299,
    "न": 300,
    "ऩ": 301,
    "प": 302,
    "फ": 303,
    "ब": 304,
    "भ": 305,
    "म": 306,
    "य": 307,
    "र": 308,
    "ऱ": 309,
    "ल": 310,
    "ळ": 311,
    "ऴ": 312,
    "व": 313,
    "श": 314,
    "ष": 315,
    "स": 316,
    "ह": 317,
    "ऺ": 318,
    "ऻ": 319,
    "़": 320,
    "ऽ": 321,
    "ा": 322,
    "ि": 323,
    "ी": 324,
    "ु": 325,
    "ू": 326,
    "ृ": 327,
    "ॄ": 328,
    "ॅ": 329,
    "ॆ": 330,
    "े": 331,
    "ै": 332,
    "ॉ": 333,
    "ॊ": 334,
    "ो": 335,
    "ौ": 336,
    "्": 337,
    "ॎ": 338,
    "ॏ": 339,
    "ॐ": 340,
    "॑": 341,
    "॒": 342,
    "॓": 343,
    "॔": 344,
    "ॕ": 345,
    "ॖ": 346,
    "ॗ": 347,
    "क़": 348,
    "ख़": 349,
    "ग़": 350,
    "ज़": 351,
    "ड़": 352,
    "ढ़": 353,
    "फ़": 354,
    "य़": 355,
    "ॠ": 356,
    "ॡ": 357,
    "ॢ": 358,
    "ॣ": 359,
    "।": 360,
    "॥": 361,
    "०": 362,
    "१": 363,
    "२": 364,
    "३": 365,
    "४": 366,
    "५": 367,
    "६": 368,
    "७": 369,
    "८": 370,
    "९": 371,
    "॰": 372,
    "ॱ": 373,
    "ॲ": 374,
    "ॳ": 375,
    "ॴ": 376,
    "ॵ": 377,
    "ॶ": 378,
    "ॷ": 379,
    "ॸ": 380,
    "ॹ": 381,
    "ॺ": 382,
    "ॻ": 383,
    "ॼ": 384,
    "ॽ": 385,
    "ॾ": 386,
    "ॿ": 387,
    "꣠": 388,
    "꣡": 389,
    "꣢": 390,
    "꣣": 391,
    "꣤": 392,
    "꣥": 393,
    "꣦": 394,
    "꣧": 395,
    "꣨": 396,
    "꣩": 397,
    "꣪": 398,
    "꣫": 399,
    "꣬": 400,
    "꣭": 401,
    "꣮": 402,
    "꣯": 403,
    "꣰": 404,
    "꣱": 405,
    "ꣲ": 406,
    "ꣳ": 407,
    "ꣴ": 408,
    "ꣵ": 409,
    "ꣶ": 410,
    "ꣷ": 411,
    "꣸": 412,
    "꣹": 413,
    "꣺": 414,
    "ꣻ": 415,
    "꣼": 416,
    "ꣽ": 417,
    "ꣾ": 418,
    "ꣿ": 419,
    "᳐": 420,
    "᳑": 421,
    "᳒": 422,
    "᳓": 423,
    "᳔": 424,
    "᳕": 425,
    "᳖": 426,
    "᳗": 427,
    "᳘": 428,
    "᳙": 429,
    "᳚": 430,
    "᳛": 431,
    "᳜": 432,
    "᳝": 433,
    "᳞": 434,
    "᳟": 435,
    "᳠": 436,
    "᳡": 437,
    "᳢": 438,
    "᳣": 439,
    "᳤": 440,
    "᳥": 441,
    "᳦": 442,
    "᳧": 443,
    "᳨": 444,
    "ᳩ": 445,
    "ᳪ": 446,
    "ᳫ": 447,
    "ᳬ": 448,
    "᳭": 449,
    "ᳮ": 450,
    "ᳯ": 451,
    "ᳰ": 452,
    "ᳱ": 453,
    "ᳲ": 454,
    "ᳳ": 455,
    "᳴": 456,
    "ᳵ": 457,
    "ᳶ": 458,
    "᳷": 459,
    "᳸": 460,
    "᳹": 461,
    "ᳺ": 462,
    "᳻": 463,
    "᳼": 464,
    "᳽": 465,
    "᳾": 466,
    "᳿": 467,
    " ": 468,
    "!": 469,
    "\"": 470,
    "#": 471,
    "$": 472,
    "%": 473,
    "&": 474,
    "'": 475,
    "(": 476,
    ")": 477,
    "*": 478,
    "+": 479,
    ",": 480,
    "-": 481,
    ".": 482,
    "/": 483,
    "0": 484,
    "1": 485,
    "2": 486,
    "3": 487,
    "4": 488,
    "5": 489,
    "6": 490,
    "7": 491,
    "8": 492,
    "9": 493,
    ":": 494,
    ";": 495,
    "<": 496,
    "=": 497,
    ">": 498,
    "?": 499,
    "@": 500,
    "A": 501,
    "B": 502,
    "C": 503,
    "D": 504,
    "E": 505,
    "F": 506,
    "G": 507,
    "H": 508,
    "I": 509,
    "J": 510,
    "K": 511,
    "L": 512,
    "M": 513,
    "N": 514,
    "O": 515,
    "P": 516,
    "Q": 517,
    "R": 518,
    "S": 519,
    "T": 520,
    "U": 521,
    "V": 522,
    "W": 523,
    "X": 524,
    "Y": 525,
    "Z": 526,
    "[": 527,
    "\\": 528,
    "]": 529,
    "^": 530,
    "_": 531,
    "`": 532,
    "a": 533,
    "b": 534,
    "c": 535,
    "d": 536,
    "e": 537,
    "f": 538,
    "g": 539,
    "h": 540,
    "i": 541,
    "j": 542,
    "k": 543,
    "l": 544,
    "m": 545,
    "n": 546,
    "o": 547,
    "p": 548,
    "q": 549,
    "r": 550,
    "s": 551,
    "t": 552,
    "u": 553,
    "v": 554,
    "w": 555,
    "x": 556,
    "y": 557,
    "z": 558,
    "{": 559,
    "|": 560,
    "}": 561,
    "~": 562,
    "in": 563,
    " a": 564,
    " t": 565,
    "on": 566,
    " s": 567,
    "ha": 568,
    "re": 569,
    "he": 570,
    "**": 571,
    "ti": 572,
    " k": 573,
    "  ": 574,
    " c": 575,
    "te": 576,
    "ar": 577,
    " क": 578,
    "or": 579,
    "al": 580,
    "an": 581,
    " p": 582,
    " b": 583,
    "en": 584,
    "es": 585,
    "er": 586,
    " m": 587,
    " ha": 588,
    " ह": 589,
    " the": 590,
    "ing": 591,
    "is": 592,
    "nd": 593,
    " f": 594,
    " d": 595,
    "tion": 596,
    "le": 597,
    " w": 598,
    "ou": 599,
    "it": 600,
    " to": 601,
    "ho": 602,
    " and": 603,
    "hi": 604,
    " o": 605,
    " in": 606,
    "ra": 607,
    " स": 608,
    "ta": 609,
    " l": 610,
    "ro": 611,
    "\n\n": 612,
    "ur": 613,
    " hai": 614,
    " e": 615,
    "us": 616,
    " n": 617,
    "as": 618,
    "ic": 619,
    " y": 620,
    " प": 621,
    " re": 622,
    "ed": 623,
    "ें": 624,
    " kar": 625,
    " **": 626,
    " of": 627,
    ":**": 628,
    "ch": 629,
    "om": 630,
    " ho": 631,
    "ve": 632,
    " me": 633,
    "il": 634,
    " ब": 635,
    "ent": 636,
    "at": 637,
    "am": 638,
    " म": 639,
    "ation": 640,
    "ge": 641,
    "ab": 642,
    " I": 643,
    "ec": 644,
    "ad": 645,
    "im": 646,
    "ce": 647,
    " hain": 648,
    " ज": 649,
    " g": 650,
    "ate": 651,
    " j": 652,
    "id": 653,
    " se": 654,
    " य": 655,
    "un": 656,
    "ly": 657,
    "ol": 658,
    "ul": 659,
    " आ": 660,
    " ल": 661,
    "ay": 662,
    " T": 663,
    "ut": 664,
    " mein": 665,
    "um": 666,
    " aur": 667,
    "ak": 668,
    " कर": 669,
    "se": 670,
    " (": 671,
    "ts": 672,
    " pro": 673,
    " अ": 674,
    "ri": 675,
    " \"": 676,
    " ke": 677,
    " us": 678,
    "st": 679,
    " र": 680,
    " is": 681,
    " you": 682,
    " for": 683,
    " A": 684,
    "et": 685,
    " ka": 686,
    "hat": 687,
    " त": 688,
    " li": 689,
    "el": 690,
    "ैं": 691,
    "ter": 692,
    " ba": 693,
    " con": 694,
    " S": 695,
    " de": 696,
    "lo": 697,
    " इ": 698,
    "eh": 699,
    "od": 700,
    " आप": 701,
    "ers": 702,
    " C": 703,
    "for": 704,
    "ir": 705,
    "**:": 706,
    "ess": 707,
    "ity": 708,
    "ction": 709,
    " st": 710,
    "ment": 711,
    " ra": 712,
    "ith": 713,
    "ig": 714,
    " ko": 715,
    " na": 716,
    "ure": 717,
    "ye": 718,
    " bhi": 719,
    " ex": 720,
    " toh": 721,
    "ct": 722,
    "na": 723,
    "pp": 724,
    "ga": 725,
    " on": 726,
    "if": 727,
    "ck": 728,
    " com": 729,
    " cha": 730,
    " *": 731,
    " can": 732,
    "और": 733,
    " v": 734,
    "ne": 735,
    " और": 736,
    " with": 737,
    " फ": 738,
    " or": 739,
    "qu": 740,
    " that": 741,
    "ै।": 742,
    " न": 743,
    " le": 744,
    "ata": 745,
    " it": 746,
    " P": 747,
    "\n ": 748,
    " as": 749,
    "si": 750,
    "ke": 751,
    " he": 752,
    " an": 753,
    " H": 754,
    "res": 755,
    "ap": 756,
    "th": 757,
    "ver": 758,
    "'s": 759,
    " be": 760,
    "oc": 761,
    "ow": 762,
    " h": 763,
    "imp": 764,
    " ए": 765,
    " ki": 766,
    " द": 767,
    "ren": 768,
    " B": 769,
    "ant": 770,
    " al": 771,
    " su": 772,
    "ine": 773,
    " व": 774,
    "di": 775,
    " आपक": 776,
    " ja": 777,
    "ise": 778,
    "form": 779,
    " ya": 780,
    "age": 781,
    " च": 782,
    "ort": 783,
    "10": 784,
    "tic": 785,
    "ag": 786,
    " sak": 787,
    "ally": 788,
    " po": 789,
    " karo": 790,
    "ud": 791,
    " en": 792,
    " ne": 793,
    "tive": 794,
    "og": 795,
    "and": 796,
    "ist": 797,
    " M": 798,
    " ट": 799,
    "ten": 800,
    " are": 801,
    " sa": 802,
    "ide": 803,
    "gh": 804,
    "out": 805,
    "his": 806,
    "her": 807,
    " yeh": 808,
    " पर": 809,
    " sp": 810,
    "iz": 811,
    "ya": 812,
    "oh": 813,
    "per": 814,
    " imp": 815,
    " D": 816,
    " The": 817,
    "ill": 818,
    "est": 819,
    " एक": 820,
    " mo": 821,
    " -": 822,
    " E": 823,
    " liye": 824,
    "our": 825,
    " comp": 826,
    "ds": 827,
    " use": 828,
    "are": 829,
    " भ": 830,
    "ust": 831,
    " F": 832,
    "ों": 833,
    " sab": 834,
    " ड": 835,
    "   ": 836,
    " R": 837,
    "hut": 838,
    " pl": 839,
    "fe": 840,
    "ble": 841,
    "ain": 842,
    " ac": 843,
    "िं": 844,
    "ot": 845,
    " bahut": 846,
    "hin": 847,
    "du": 848,
    "ted": 849,
    " z": 850,
    "pl": 851,
    "शन": 852,
    " ख": 853,
    "ld": 854,
    "ime": 855,
    " wor": 856,
    " करन": 857,
    " उ": 858,
    " K": 859,
    "ies": 860,
    " सक": 861,
    " hi": 862,
    "ek": 863,
    " '": 864,
    " u": 865,
    " un": 866,
    "ys": 867,
    "ations": 868,
    "os": 869,
    "ru": 870,
    "पन": 871,
    " we": 872,
    "ै,": 873,
    "ion": 874,
    "ial": 875,
    "ीं": 876,
    "ry": 877,
    " your": 878,
    " te": 879,
    "ance": 880,
    "tions": 881,
    " ग": 882,
    " fe": 883,
    " pe": 884,
    "\":": 885,
    "ac": 886,
    " =": 887,
    "one": 888,
    " W": 889,
    " ek": 890,
    " In": 891,
    " सकत": 892,
    " sc": 893,
    "all": 894,
    "gar": 895,
    " रह": 896,
    " res": 897,
    " L": 898,
    " ban": 899,
    "ual": 900,
    "lp": 901,
    "rom": 902,
    " इस": 903,
    "Yeh": 904,
    "ach": 905,
    "ada": 906,
    " data": 907,
    "ect": 908,
    "uch": 909,
    " sakte": 910,
    " help": 911,
    "end": 912,
    "able": 913,
    " r": 914,
    " karna": 915,
    " app": 916,
    "ms": 917,
    "ame": 918,
    " नह": 919,
    " ad": 920,
    "\",": 921,
    " karte": 922,
    " fun": 923,
    "ll": 924,
    " par": 925,
    "oo": 926,
    " woh": 927,
    "``": 928,
    "igh": 929,
    " ab": 930,
    "ence": 931,
    " time": 932,
    " che": 933,
    " do": 934,
    "ning": 935,
    "ff": 936,
    " jo": 937,
    " G": 938,
    " their": 939,
    " inc": 940,
    "cess": 941,
    "ैं।": 942,
    "iti": 943,
    "ple": 944,
    "han": 945,
    " nahi": 946,
    "pe": 947,
    "ome": 948,
    "\n  ": 949,
    "ass": 950,
    " tum": 951,
    " function": 952,
    " aap": 953,
    " ar": 954,
    "ces": 955,
    " prov": 956,
    "low": 957,
    " di": 958,
    "ous": 959,
    " N": 960,
    "formation": 961,
    "ents": 962,
    "ps": 963,
    "red": 964,
    " from": 965,
    " इन": 966,
    " अपन": 967,
    "me": 968,
    "har": 969,
    "gu": 970,
    " hota": 971,
    "ans": 972,
    " rahe": 973,
    "ो।": 974,
    " U": 975,
    " करत": 976,
    "rent": 977,
    "In": 978,
    "ks": 979,
    "int": 980,
    " pa": 981,
    " cl": 982,
    "ign": 983,
    "ult": 984,
    "sion": 985,
    " kya": 986,
    " tra": 987,
    "टर": 988,
    "ia": 989,
    "tiv": 990,
    " qu": 991,
    " nahin": 992,
    "to": 993,
    "ong": 994,
    "oun": 995,
    "ind": 996,
    "rac": 997,
    " whi": 998,
    "ough": 999,
    "ther": 1000,
    "xt": 1001,
    "):**": 1002,
    " mat": 1003,
    "ni": 1004,
    "ue": 1005,
    "line": 1006,
    " kuch": 1007,
    "ko": 1008,
    "yada": 1009,
    "mp": 1010,
    " {": 1011,
    "aye": 1012,
    "ो,": 1013,
    "ful": 1014,
    "गर": 1015,
    "aj": 1016,
    "ast": 1017,
    " like": 1018,
    "hiye": 1019,
    " खर": 1020,
    "इन": 1021,
    "ode": 1022,
    "wor": 1023,
    "ath": 1024,
    "kh": 1025,
    " chahiye": 1026,
    " by": 1027,
    " कम": 1028,
    " 10": 1029,
    " karne": 1030,
    "art": 1031,
    "ric": 1032,
    "ish": 1033,
    " comm": 1034,
    " have": 1035,
    "vi": 1036,
    "ress": 1037,
    " import": 1038,
    " zyada": 1039,
    "get": 1040,
    "ific": 1041,
    "ould": 1042,
    "hen": 1043,
    "ities": 1044,
    "ा।": 1045,
    "mo": 1046,
    "ated": 1047,
    "--": 1048,
    "de": 1049,
    "enti": 1050,
    "ace": 1051,
    " at": 1052,
    "ors": 1053,
    "ake": 1054,
    " This": 1055,
    "ility": 1056,
    " O": 1057,
    "yste": 1058,
    " श": 1059,
    " cre": 1060,
    " information": 1061,
    "put": 1062,
    " dis": 1063,
    " per": 1064,
    "ight": 1065,
    " inte": 1066,
    "duc": 1067,
    "\n    ": 1068,
    "tain": 1069,
    " more": 1070,
    " lear": 1071,
    "ound": 1072,
    "ile": 1073,
    " rel": 1074,
    " 1": 1075,
    " this": 1076,
    " th": 1077,
    "ary": 1078,
    "ory": 1079,
    " spec": 1080,
    " go": 1081,
    " lo": 1082,
    " such": 1083,
    " pad": 1084,
    "ore": 1085,
    " बह": 1086,
    " सब": 1087,
    "nder": 1088,
    " provide": 1089,
    "tes": 1090,
    " अगर": 1091,
    " man": 1092,
    " ro": 1093,
    " ap": 1094,
    " hote": 1095,
    " ऐ": 1096,
    "da": 1097,
    "king": 1098,
    "ber": 1099,
    " उस": 1100,
    " important": 1101,
    "_for": 1102,
    " 2": 1103,
    "so": 1104,
    " but": 1105,
    "_for_": 1106,
    " dif": 1107,
    "ven": 1108,
    " about": 1109,
    "ical": 1110,
    "les": 1111,
    "act": 1112,
    " J": 1113,
    " need": 1114,
    "ail": 1115,
    " which": 1116,
    " बन": 1117,
    "alth": 1118,
    "ां": 1119,
    " val": 1120,
    "ari": 1121,
    " log": 1122,
    "ings": 1123,
    "ase": 1124,
    " will": 1125,
    "ard": 1126,
    " sta": 1127,
    "तन": 1128,
    " up": 1129,
    "aro": 1130,
    "dition": 1131,
    "ew": 1132,
    " plan": 1133,
    "Action": 1134,
    " mod": 1135,
    "ular": 1136,
    "hir": 1137,
    " tr": 1138,
    "velo": 1139,
    "ments": 1140,
    " kam": 1141,
    "ased": 1142,
    "ाँ": 1143,
    "lud": 1144,
    "कर": 1145,
    "tern": 1146,
    " Y": 1147,
    "hy": 1148,
    " लग": 1149,
    "lic": 1150,
    "now": 1151,
    "ree": 1152,
    " user": 1153,
    "pec": 1154,
    "यर": 1155,
    "ram": 1156,
    "ty": 1157,
    " mil": 1158,
    "eg": 1159,
    " rec": 1160,
    " chan": 1161,
    " op": 1162,
    "aan": 1163,
    "ocial": 1164,
    " feel": 1165,
    "PI": 1166,
    " ऑ": 1167,
    "velop": 1168,
    "ा,": 1169,
    " des": 1170,
    "angu": 1171,
    "ैं,": 1172,
    "pt": 1173,
    " `": 1174,
    "als": 1175,
    "ice": 1176,
    " syste": 1177,
    "ack": 1178,
    " bet": 1179,
    "ene": 1180,
    " out": 1181,
    "li": 1182,
    " new": 1183,
    "?**": 1184,
    " other": 1185,
    "ell": 1186,
    "ges": 1187,
    "kho": 1188,
    " code": 1189,
    " col": 1190,
    "सर": 1191,
    "00": 1192,
    " cont": 1193,
    " includ": 1194,
    " some": 1195,
    " co": 1196,
    " diffe": 1197,
    " रख": 1198,
    "arch": 1199,
    "ures": 1200,
    " under": 1201,
    " bad": 1202,
    "ount": 1203,
    "Agar": 1204,
    "ite": 1205,
    " sakta": 1206,
    "erson": 1207,
    "ener": 1208,
    "),": 1209,
    "```": 1210,
    " not": 1211,
    "ters": 1212,
    "ub": 1213,
    "इम": 1214,
    " dec": 1215,
    " hon": 1216,
    "lish": 1217,
    "ural": 1218,
    " using": 1219,
    " wal": 1220,
    "..": 1221,
    " exper": 1222,
    " so": 1223,
    "stand": 1224,
    " Ind": 1225,
    "cy": 1226,
    " pre": 1227,
    " सम": 1228,
    "ark": 1229,
    " phir": 1230,
    "pport": 1231,
    "dum": 1232,
    " learning": 1233,
    " exam": 1234,
    " sk": 1235,
    "ily": 1236,
    "ues": 1237,
    "pon": 1238,
    "che": 1239,
    "con": 1240,
    "ctions": 1241,
    " ज़": 1242,
    "ere": 1243,
    " sam": 1244,
    " sen": 1245,
    " sha": 1246,
    "lab": 1247,
    "ating": 1248,
    "ood": 1249,
    "we": 1250,
    " kaise": 1251,
    " tho": 1252,
    "लत": 1253,
    " class": 1254,
    " kaam": 1255,
    "ze": 1256,
    "av": 1257,
    "vel": 1258,
    " ser": 1259,
    " health": 1260,
    "ize": 1261,
    " over": 1262,
    " was": 1263,
    "row": 1264,
    " inv": 1265,
    "़ा": 1266,
    " तर": 1267,
    " know": 1268,
    "ality": 1269,
    "aal": 1270,
    " develop": 1271,
    "isa": 1272,
    "aya": 1273,
    "aking": 1274,
    "'t": 1275,
    "its": 1276,
    "vers": 1277,
    "ep": 1278,
    " थ": 1279,
    " has": 1280,
    "cha": 1281,
    "टम": 1282,
    " requ": 1283,
    "The": 1284,
    " call": 1285,
    "कल": 1286,
    " cons": 1287,
    " main": 1288,
    " online": 1289,
    " जब": 1290,
    " num": 1291,
    " eff": 1292,
    "anguage": 1293,
    " ph": 1294,
    "ci": 1295,
    " पह": 1296,
    "ocus": 1297,
    " them": 1298,
    " process": 1299,
    "wer": 1300,
    " they": 1301,
    " V": 1302,
    " cur": 1303,
    " समझ": 1304,
    " sh": 1305,
    "!**": 1306,
    " It": 1307,
    "vid": 1308,
    "ower": 1309,
    "'m": 1310,
    "led": 1311,
    "ka": 1312,
    "gi": 1313,
    "\n\t": 1314,
    " chee": 1315,
    " acc": 1316,
    "लग": 1317,
    "ills": 1318,
    " lek": 1319,
    " agar": 1320,
    "ting": 1321,
    "नक": 1322,
    " med": 1323,
    " set": 1324,
    " eas": 1325,
    " bana": 1326,
    " proble": 1327,
    " don": 1328,
    " understand": 1329,
    "ruct": 1330,
    " commun": 1331,
    " my": 1332,
    "gan": 1333,
    "ving": 1334,
    "ates": 1335,
    " Con": 1336,
    "eve": 1337,
    " baat": 1338,
    "urn": 1339,
    " अक": 1340,
    " exp": 1341,
    " ret": 1342,
    " stud": 1343,
    "ints": 1344,
    "े,": 1345,
    " tech": 1346,
    " karta": 1347,
    "lf": 1348,
    " ekdum": 1349,
    "lex": 1350,
    "tent": 1351,
    "omm": 1352,
    "ki": 1353,
    "aroor": 1354,
    " deta": 1355,
    "rate": 1356,
    "hool": 1357,
    "ience": 1358,
    "यल": 1359,
    " may": 1360,
    " बच": 1361,
    " social": 1362,
    " specific": 1363,
    " no": 1364,
    " har": 1365,
    "ness": 1366,
    " sec": 1367,
    " सबस": 1368,
    "abhi": 1369,
    "ought": 1370,
    "ption": 1371,
    "erg": 1372,
    " raha": 1373,
    " trans": 1374,
    "swer": 1375,
    "ative": 1376,
    " koi": 1377,
    " gener": 1378,
    " ev": 1379,
    "What": 1380,
    "ajh": 1381,
    "irf": 1382,
    "cri": 1383,
    "hip": 1384,
    " all": 1385,
    " lead": 1386,
    " ऐप": 1387,
    " best": 1388,
    "ati": 1389,
    " prog": 1390,
    " hum": 1391,
    "ip": 1392,
    "ital": 1393,
    "ana": 1394,
    "यद": 1395,
    "isi": 1396,
    "fic": 1397,
    "ook": 1398,
    " each": 1399,
    " its": 1400,
    " ty": 1401,
    " av": 1402,
    " how": 1403,
    " ass": 1404,
    "ght": 1405,
    " person": 1406,
    ");": 1407,
    "ety": 1408,
    " Ad": 1409,
    "Con": 1410,
    " saath": 1411,
    "ft": 1412,
    "plain": 1413,
    " hoga": 1414,
    " reg": 1415,
    "वर": 1416,
    " API": 1417,
    "ear": 1418,
    "text": 1419,
    "ai": 1420,
    " zaroor": 1421,
    " lekin": 1422,
    " make": 1423,
    " check": 1424,
    " if": 1425,
    " cal": 1426,
    "ses": 1427,
    " अच": 1428,
    "olog": 1429,
    " different": 1430,
    "ices": 1431,
    " inf": 1432,
    "po": 1433,
    "ves": 1434,
    " impro": 1435,
    " मत": 1436,
    " पहल": 1437,
    "ays": 1438,
    "tim": 1439,
    "ision": 1440,
    " work": 1441,
    " Can": 1442,
    "be": 1443,
    "af": 1444,
    " cho": 1445,
    "ollow": 1446,
    " used": 1447,
    "bs": 1448,
    " sol": 1449,
    "े।": 1450,
    " jaise": 1451,
    "नल": 1452,
    "und": 1453,
    "ane": 1454,
    " ins": 1455,
    " system": 1456,
    " add": 1457,
    ").": 1458,
    " lag": 1459,
    "़्": 1460,
    " ✅": 1461,
    "ern": 1462,
    " list": 1463,
    "anc": 1464,
    " sm": 1465,
    " create": 1466,
    "own": 1467,
    "ring": 1468,
    " also": 1469,
    " fam": 1470,
    "bility": 1471,
    " fi": 1472,
    " seek": 1473,
    "दम": 1474,
    " rakh": 1475,
    " disc": 1476,
    " anal": 1477,
    "aise": 1478,
    "em": 1479,
    "ian": 1480,
    " la": 1481,
    " vari": 1482,
    "here": 1483,
    " language": 1484,
    "lu": 1485,
    " kare": 1486,
    "ord": 1487,
    " life": 1488,
    " get": 1489,
    "enge": 1490,
    " example": 1491,
    " into": 1492,
    "arket": 1493,
    " am": 1494,
    " cle": 1495,
    " bo": 1496,
    " gr": 1497,
    " tas": 1498,
    "jec": 1499,
    "टल": 1500,
    " follow": 1501,
    "ized": 1502,
    "tical": 1503,
    "ustom": 1504,
    " मह": 1505,
    " skills": 1506,
    " want": 1507,
    " samajh": 1508,
    "asic": 1509,
    "egin": 1510,
    " आस": 1511,
    "ax": 1512,
    " words": 1513,
    "up": 1514,
    "hai": 1515,
    "ramm": 1516,
    " apne": 1517,
    "lect": 1518,
    " En": 1519,
    " Th": 1520,
    "ject": 1521,
    " [": 1522,
    "imple": 1523,
    "iron": 1524,
    " कह": 1525,
    "very": 1526,
    "ually": 1527,
    " सह": 1528,
    "ो:**": 1529,
    "ization": 1530,
    " respon": 1531,
    " model": 1532,
    " bre": 1533,
    "tation": 1534,
    "ducation": 1535,
    " reh": 1536,
    " sign": 1537,
    " indi": 1538,
    "gor": 1539,
    " our": 1540,
    " form": 1541,
    " एकदम": 1542,
    " cult": 1543,
    " im": 1544,
    "vidual": 1545,
    " hona": 1546,
    "let": 1547,
    " thoda": 1548,
    " focus": 1549,
    "St": 1550,
    " kha": 1551,
    "nec": 1552,
    "cept": 1553,
    " including": 1554,
    "Ex": 1555,
    " 3": 1556,
    " Re": 1557,
    " St": 1558,
    "ages": 1559,
    "ructure": 1560,
    "reat": 1561,
    " read": 1562,
    "gg": 1563,
    "ehle": 1564,
    " off": 1565,
    "inglish": 1566,
    "ature": 1567,
    " Pl": 1568,
    " compan": 1569,
    " try": 1570,
    " perform": 1571,
    "Begin": 1572,
    " 5": 1573,
    " Here": 1574,
    "igital": 1575,
    " would": 1576,
    " rep": 1577,
    " bach": 1578,
    "ien": 1579,
    " fri": 1580,
    " any": 1581,
    "tra": 1582,
    " Input": 1583,
    " alag": 1584,
    "iness": 1585,
    "Re": 1586,
    "ween": 1587,
    " sirf": 1588,
    " top": 1589,
    "ved": 1590,
    "rong": 1591,
    "fin": 1592,
    " id": 1593,
    " points": 1594,
    " Thought": 1595,
    " improve": 1596,
    " just": 1597,
    " dekho": 1598,
    "viron": 1599,
    "com": 1600,
    " इसक": 1601,
    " current": 1602,
    " tool": 1603,
    " individual": 1604,
    "*.": 1605,
    " between": 1606,
    " these": 1607,
    "ension": 1608,
    " relations": 1609,
    " problem": 1610,
    " matlab": 1611,
    " organ": 1612,
    "atform": 1613,
    "ability": 1614,
    " change": 1615,
    " हर": 1616,
    "name": 1617,
    " India": 1618,
    "ution": 1619,
    " bu": 1620,
    " –": 1621,
    " provid": 1622,
    "rap": 1623,
    " ghar": 1624,
    " inst": 1625,
    " dete": 1626,
    " kit": 1627,
    "Ind": 1628,
    "02": 1629,
    " Pro": 1630,
    "',": 1631,
    "ater": 1632,
    " hoti": 1633,
    " To": 1634,
    " easy": 1635,
    " tak": 1636,
    "----": 1637,
    " ste": 1638,
    " support": 1639,
    " chal": 1640,
    "ive": 1641,
    "urity": 1642,
    "ism": 1643,
    "rol": 1644,
    "work": 1645,
    " fl": 1646,
    " met": 1647,
    " ob": 1648,
    "ding": 1649,
    "Toh": 1650,
    "ss": 1651,
    " emp": 1652,
    " cour": 1653,
    " tumha": 1654,
    "kha": 1655,
    "लब": 1656,
    " manage": 1657,
    "ards": 1658,
    " By": 1659,
    "rough": 1660,
    "list": 1661,
    "vironment": 1662,
    "ining": 1663,
    " |": 1664,
    " number": 1665,
    "ason": 1666,
    " sho": 1667,
    "ire": 1668,
    " high": 1669,
    " often": 1670,
    " ques": 1671,
    "पर": 1672,
    "ayega": 1673,
    "ources": 1674,
    " &": 1675,
    "ilk": 1676,
    "ging": 1677,
    "rest": 1678,
    " school": 1679,
    " mus": 1680,
    " prac": 1681,
    "irst": 1682,
    "fect": 1683,
    "tence": 1684,
    " ide": 1685,
    "ils": 1686,
    " अलग": 1687,
    "elu": 1688,
    " fin": 1689,
    " one": 1690,
    "...": 1691,
    " cheez": 1692,
    " pr": 1693,
    " complex": 1694,
    "ery": 1695,
    " AI": 1696,
    " jaata": 1697,
    "eed": 1698,
    " power": 1699,
    "ergy": 1700,
    "elugu": 1701,
    "cul": 1702,
    "ekho": 1703,
    " retri": 1704,
    " way": 1705,
    "ication": 1706,
    "ute": 1707,
    " ens": 1708,
    " uni": 1709,
    " value": 1710,
    "pr": 1711,
    "ah": 1712,
    "ner": 1713,
    " De": 1714,
    " bata": 1715,
    " बढ": 1716,
    "ational": 1717,
    "bers": 1718,
    "cl": 1719,
    " Addition": 1720,
    " pop": 1721,
    "ration": 1722,
    "ially": 1723,
    " zaroori": 1724,
    "tivity": 1725,
    " Hai": 1726,
    " चल": 1727,
    "der": 1728,
    " aut": 1729,
    "ulti": 1730,
    "chan": 1731,
    " market": 1732,
    "yle": 1733,
    "aus": 1734,
    " grow": 1735,
    " apps": 1736,
    "sitive": 1737,
    " better": 1738,
    " conf": 1739,
    " dist": 1740,
    " mis": 1741,
    "ech": 1742,
    " allow": 1743,
    "ditional": 1744,
    " custom": 1745,
    " kisi": 1746,
    "ilkul": 1747,
    " family": 1748,
    ",\"": 1749,
    "tics": 1750,
    " through": 1751,
    " effec": 1752,
    " identi": 1753,
    " education": 1754,
    "ople": 1755,
    "usiness": 1756,
    " बत": 1757,
    " explain": 1758,
    "back": 1759,
    "ा:**": 1760,
    "अल": 1761,
    " Ex": 1762,
    " been": 1763,
    ")।": 1764,
    " em": 1765,
    " मतलब": 1766,
    " 0": 1767,
    "रत": 1768,
    " food": 1769,
    " emo": 1770,
    "gum": 1771,
    " play": 1772,
    " ri": 1773,
    " dekh": 1774,
    "लर": 1775,
    " prof": 1776,
    " media": 1777,
    "uring": 1778,
    "view": 1779,
    " students": 1780,
    "wn": 1781,
    " sub": 1782,
    " bec": 1783,
    " kabhi": 1784,
    "कम": 1785,
    " web": 1786,
    "ex": 1787,
    " access": 1788,
    " decision": 1789,
    " who": 1790,
    "fy": 1791,
    " dep": 1792,
    "vices": 1793,
    "मर": 1794,
    " platform": 1795,
    " loc": 1796,
    " personal": 1797,
    " aapko": 1798,
    "asual": 1799,
    " hand": 1800,
    " content": 1801,
    " daal": 1802,
    " than": 1803,
    " sahi": 1804,
    " छ": 1805,
    " An": 1806,
    " answer": 1807,
    "ession": 1808,
    " find": 1809,
    " hoon": 1810,
    " jab": 1811,
    " bol": 1812,
    "rib": 1813,
    "tional": 1814,
    " Additionally": 1815,
    " You": 1816,
    "rect": 1817,
    " tare": 1818,
    " where": 1819,
    " experience": 1820,
    " आज": 1821,
    " pol": 1822,
    "eli": 1823,
    " es": 1824,
    " point": 1825,
    ".\"": 1826,
    "resh": 1827,
    "ani": 1828,
    " should": 1829,
    " Hinglish": 1830,
    " down": 1831,
    "orm": 1832,
    " ind": 1833,
    " key": 1834,
    " appro": 1835,
    "ै?": 1836,
    " design": 1837,
    " incre": 1838,
    " ऐस": 1839,
    "ines": 1840,
    "ology": 1841,
    "ends": 1842,
    " pri": 1843,
    " gaya": 1844,
    " pata": 1845,
    "sive": 1846,
    "no": 1847,
    "Is": 1848,
    "heck": 1849,
    " रखन": 1850,
    " level": 1851,
    " argum": 1852,
    "tis": 1853,
    "ins": 1854,
    " concept": 1855,
    " avail": 1856,
    "oud": 1857,
    "ames": 1858,
    "'re": 1859,
    "pro": 1860,
    " chall": 1861,
    "tice": 1862,
    "ples": 1863,
    " thin": 1864,
    " based": 1865,
    "atures": 1866,
    " start": 1867,
    "val": 1868,
    "nline": 1869,
    " rakho": 1870,
    "ware": 1871,
    "()": 1872,
    " gu": 1873,
    " jaate": 1874,
    "ond": 1875,
    "set": 1876,
    " when": 1877,
    "ental": 1878,
    "etch": 1879,
    "hips": 1880,
    "तर": 1881,
    "par": 1882,
    " sun": 1883,
    ".**": 1884,
    "//": 1885,
    " strong": 1886,
    " environment": 1887,
    "term": 1888,
    "oci": 1889,
    "search": 1890,
    "ी,": 1891,
    " people": 1892,
    "op": 1893,
    " पड": 1894,
    " pehle": 1895,
    "haan": 1896,
    " what": 1897,
    "vice": 1898,
    "पल": 1899,
    " ज़र": 1900,
    " net": 1901,
    "que": 1902,
    "ants": 1903,
    "ens": 1904,
    "ron": 1905,
    " mem": 1906,
    " seekh": 1907,
    " care": 1908,
    " ध": 1909,
    " ach": 1910,
    " retrieve": 1911,
    "yun": 1912,
    "ena": 1913,
    "iting": 1914,
    "uture": 1915,
    " aise": 1916,
    " पत": 1917,
    "yn": 1918,
    "ma": 1919,
    " break": 1920,
    "इल": 1921,
    " understanding": 1922,
    " pay": 1923,
    "चर": 1924,
    " word": 1925,
    "Aur": 1926,
    "kay": 1927,
    "Jab": 1928,
    "andom": 1929,
    "Ek": 1930,
    " कई": 1931,
    "==": 1932,
    "लन": 1933,
    " Haan": 1934,
    " why": 1935,
    "ather": 1936,
    " connec": 1937,
    " +": 1938,
    " development": 1939,
    "_s": 1940,
    " partic": 1941,
    " search": 1942,
    "bo": 1943,
    " tumhe": 1944,
    "gorith": 1945,
    "ublic": 1946,
    " sabse": 1947,
    "hic": 1948,
    " rahega": 1949,
    " see": 1950,
    " seed": 1951,
    " iss": 1952,
    "ें।": 1953,
    " there": 1954,
    "En": 1955,
    " common": 1956,
    "wa": 1957,
    " systems": 1958,
    "ick": 1959,
    " real": 1960,
    " min": 1961,
    " techn": 1962,
    "ै:**": 1963,
    "ी।": 1964,
    "atural": 1965,
    " आत": 1966,
    "*,": 1967,
    " grou": 1968,
    " बड": 1969,
    "Pro": 1970,
    "ient": 1971,
    " sur": 1972,
    "sible": 1973,
    " available": 1974,
    " invest": 1975,
    " well": 1976,
    " business": 1977,
    " energy": 1978,
    " aa": 1979,
    " ris": 1980,
    " pur": 1981,
    " रहत": 1982,
    " ch": 1983,
    " part": 1984,
    "ade": 1985,
    " cor": 1986,
    " style": 1987,
    " control": 1988,
    "tit": 1989,
    " pos": 1990,
    " discus": 1991,
    " type": 1992,
    "jects": 1993,
    " intern": 1994,
    " long": 1995,
    " fetch": 1996,
    " produ": 1997,
    " inter": 1998,
    "ekin": 1999,
    "फर": 2000,
    " ful": 2001,
    "ccess": 2002,
    " bada": 2003,
    "ics": 2004,
    " multi": 2005,
    "़ी": 2006,
    "oid": 2007,
    " ma": 2008,
    "ooking": 2009,
    "vern": 2010,
    "time": 2011,
    "oss": 2012,
    " Use": 2013,
    " algorith": 2014,
    " yaar": 2015,
    " Plan": 2016,
    " back": 2017,
    "बल": 2018,
    " making": 2019,
    " chi": 2020,
    " count": 2021,
    " free": 2022,
    "ody": 2023,
    " lim": 2024,
    "rammar": 2025,
    "hes": 2026,
    "table": 2027,
    "ify": 2028,
    "co": 2029,
    "ious": 2030,
    " gra": 2031,
    " lage": 2032,
    " team": 2033,
    "An": 2034,
    " blo": 2035,
    " cap": 2036,
    "gah": 2037,
    " Se": 2038,
    "ired": 2039,
    " fact": 2040,
    "pes": 2041,
    " even": 2042,
    " human": 2043,
    " उन": 2044,
    "err": 2045,
    "ructions": 2046,
    " text": 2047,
    "ange": 2048,
    " उनक": 2049,
    "ights": 2050,
    " beha": 2051,
    "**,": 2052,
    "ob": 2053,
    "acher": 2054,
    "day": 2055,
    " self": 2056,
    "(\"": 2057,
    "rence": 2058,
    " तरह": 2059,
    " values": 2060,
    " बज": 2061,
    " phone": 2062,
    " metho": 2063,
    "Can": 2064,
    " ref": 2065,
    " while": 2066,
    " invol": 2067,
    " details": 2068,
    " mind": 2069,
    "रक": 2070,
    " every": 2071,
    " buil": 2072,
    "How": 2073,
    " Karo": 2074,
    "asically": 2075,
    " interest": 2076,
    "por": 2077,
    " own": 2078,
    "Dekho": 2079,
    "hot": 2080,
    " ve": 2081,
    " इसस": 2082,
    " simple": 2083,
    "ix": 2084,
    " good": 2085,
    "enef": 2086,
    "ries": 2087,
    " first": 2088,
    ".*": 2089,
    "api": 2090,
    " Go": 2091,
    " defin": 2092,
    "025": 2093,
    "cks": 2094,
    " dono": 2095,
    "mes": 2096,
    " produc": 2097,
    " analy": 2098,
    " fund": 2099,
    " Al": 2100,
    " rele": 2101,
    " digital": 2102,
    "**.": 2103,
    " tw": 2104,
    " calcul": 2105,
    " clear": 2106,
    " vi": 2107,
    "aning": 2108,
    " enga": 2109,
    "ips": 2110,
    "ases": 2111,
    "ik": 2112,
    "Po": 2113,
    "एग": 2114,
    "ret": 2115,
    " apni": 2116,
    " बड़": 2117,
    " company": 2118,
    "br": 2119,
    "Har": 2120,
    " most": 2121,
    "oring": 2122,
    " jagah": 2123,
    " could": 2124,
    " pric": 2125,
    " planning": 2126,
    "ression": 2127,
    "word": 2128,
    " kh": 2129,
    "rain": 2130,
    " tha": 2131,
    "़े": 2132,
    "ancial": 2133,
    " charac": 2134,
    "zein": 2135,
    "self": 2136,
    "ults": 2137,
    "ysis": 2138,
    " Yeh": 2139,
    "pecially": 2140,
    "tenti": 2141,
    " learn": 2142,
    "_d": 2143,
    "lement": 2144,
    " sense": 2145,
    " options": 2146,
    " tri": 2147,
    " tar": 2148,
    " signific": 2149,
    " behavi": 2150,
    "To": 2151,
    " logon": 2152,
    " तक": 2153,
    " Indian": 2154,
    " fil": 2155,
    " super": 2156,
    " $": 2157,
    "chi": 2158,
    " badh": 2159,
    " उसक": 2160,
    " space": 2161,
    "achine": 2162,
    "els": 2163,
    " bilkul": 2164,
    " jis": 2165,
    "udi": 2166,
    " <": 2167,
    " hist": 2168,
    " include": 2169,
    "ger": 2170,
    " karke": 2171,
    " हम": 2172,
    " For": 2173,
    " ensure": 2174,
    " individuals": 2175,
    "by": 2176,
    " prote": 2177,
    " features": 2178,
    " proper": 2179,
    " challen": 2180,
    "ाँ,": 2181,
    "cription": 2182,
    "ential": 2183,
    " popular": 2184,
    " pat": 2185,
    "bal": 2186,
    " impact": 2187,
    " reason": 2188,
    "tives": 2189,
    "read": 2190,
    " training": 2191,
    " table": 2192,
    "Lekin": 2193,
    " लगत": 2194,
    " Ka": 2195,
    "rans": 2196,
    " colle": 2197,
    " ter": 2198,
    " websi": 2199,
    " world": 2200,
    " karen": 2201,
    " vide": 2202,
    " यह": 2203,
    " घ": 2204,
    " game": 2205,
    " influ": 2206,
    " effective": 2207,
    "ars": 2208,
    " adv": 2209,
    " pres": 2210,
    " tools": 2211,
    "ose": 2212,
    "eke": 2213,
    " equ": 2214,
    " mon": 2215,
    "chon": 2216,
    "verse": 2217,
    " growth": 2218,
    " hone": 2219,
    "ws": 2220,
    "redic": 2221,
    "ency": 2222,
    " aaj": 2223,
    " bal": 2224,
    "pect": 2225,
    " cheezein": 2226,
    "itely": 2227,
    "gth": 2228,
    "ties": 2229,
    " stor": 2230,
    " karenge": 2231,
    " अम": 2232,
    " ऑप": 2233,
    "ider": 2234,
    "इस": 2235,
    " ess": 2236,
    " right": 2237,
    " resources": 2238,
    "ling": 2239,
    " security": 2240,
    " banao": 2241,
    " state": 2242,
    "ilities": 2243,
    " healthy": 2244,
    " input": 2245,
    " tension": 2246,
    " upd": 2247,
    " bi": 2248,
    "ause": 2249,
    "ein": 2250,
    " kyun": 2251,
    " enc": 2252,
    " performance": 2253,
    " structure": 2254,
    " tre": 2255,
    " br": 2256,
    " phys": 2257,
    "ledge": 2258,
    " kal": 2259,
    "ser": 2260,
    " करक": 2261,
    " 4": 2262,
    "pa": 2263,
    "ray": 2264,
    " redu": 2265,
    "usion": 2266,
    "ination": 2267,
    "rateg": 2268,
    "conom": 2269,
    "ied": 2270,
    " request": 2271,
    " friends": 2272,
    " karein": 2273,
    " mar": 2274,
    " baad": 2275,
    " quality": 2276,
    "'ve": 2277,
    " pass": 2278,
    " sto": 2279,
    " laga": 2280,
    " err": 2281,
    "cc": 2282,
    "old": 2283,
    "pportun": 2284,
    " We": 2285,
    " If": 2286,
    " bas": 2287,
    " late": 2288,
    "fa": 2289,
    "yth": 2290,
    " भर": 2291,
    " raho": 2292,
    " share": 2293,
    " बजट": 2294,
    "मरज": 2295,
    " sentence": 2296,
    " Po": 2297,
    "rents": 2298,
    " action": 2299,
    "_c": 2300,
    " tareeke": 2301,
    "ega": 2302,
    " book": 2303,
    " others": 2304,
    "oura": 2305,
    " role": 2306,
    "अलग": 2307,
    " sum": 2308,
    " various": 2309,
    "Ap": 2310,
    " platforms": 2311,
    "tific": 2312,
    "सप": 2313,
    "reen": 2314,
    " achi": 2315,
    "aldi": 2316,
    "Un": 2317,
    " experien": 2318,
    "jo": 2319,
    " communication": 2320,
    " जव": 2321,
    " unko": 2322,
    "ways": 2323,
    " rakhna": 2324,
    " potenti": 2325,
    "ulation": 2326,
    " tasks": 2327,
    " same": 2328,
    " techni": 2329,
    " bl": 2330,
    " Z": 2331,
    " इमरज": 2332,
    " natural": 2333,
    " two": 2334,
    "fore": 2335,
    "redit": 2336,
    " job": 2337,
    " address": 2338,
    "och": 2339,
    "Com": 2340,
    "kes": 2341,
    " compu": 2342,
    "glish": 2343,
    "बर": 2344,
    " effic": 2345,
    " इनकम": 2346,
    " courses": 2347,
    " then": 2348,
    " significant": 2349,
    " feed": 2350,
    " assist": 2351,
    " wale": 2352,
    "Kuch": 2353,
    "गह": 2354,
    "enefits": 2355,
    " safe": 2356,
    " stress": 2357,
    "isaab": 2358,
    "hone": 2359,
    " goals": 2360,
    " management": 2361,
    " गय": 2362,
    " identify": 2363,
    " output": 2364,
    " जगह": 2365,
    "ced": 2366,
    "gr": 2367,
    " mess": 2368,
    "ython": 2369,
    " research": 2370,
    "of": 2371,
    " vis": 2372,
    "vernment": 2373,
    " Ke": 2374,
    "go": 2375,
    " activ": 2376,
    " risk": 2377,
    " indust": 2378,
    "ogle": 2379,
    " soft": 2380,
    "कस": 2381,
    " i": 2382,
    " padh": 2383,
    "ink": 2384,
    " inform": 2385,
    "ons": 2386,
    "बस": 2387,
    " असर": 2388,
    " context": 2389,
    " random": 2390,
    "print": 2391,
    "thing": 2392,
    " maintain": 2393,
    "hoda": 2394,
    "ush": 2395,
    "India": 2396,
    "ूँ": 2397,
    " {}": 2398,
    " act": 2399,
    " jayega": 2400,
    " बढ़": 2401,
    "ffor": 2402,
    "vant": 2403,
    " community": 2404,
    "rences": 2405,
    "vious": 2406,
    "izing": 2407,
    " mile": 2408,
    " question": 2409,
    " relationships": 2410,
    "Sab": 2411,
    "ैं?": 2412,
    "oi": 2413,
    " helps": 2414,
    " might": 2415,
    " supp": 2416,
    "mem": 2417,
    " sim": 2418,
    " They": 2419,
    " modern": 2420,
    "Online": 2421,
    " dem": 2422,
    "cho": 2423,
    " conc": 2424,
    " pattern": 2425,
    "ateri": 2426,
    " dikha": 2427,
    " generate": 2428,
    " rahi": 2429,
    "ommun": 2430,
    " car": 2431,
    " बस": 2432,
    "ques": 2433,
    " useful": 2434,
    " services": 2435,
    " bhai": 2436,
    " ready": 2437,
    " lab": 2438,
    "ffic": 2439,
    " analysis": 2440,
    " hisaab": 2441,
    " machine": 2442,
    "su": 2443,
    " cer": 2444,
    " fa": 2445,
    " approach": 2446,
    " behavior": 2447,
    " track": 2448,
    " applic": 2449,
    " needs": 2450,
    " relationship": 2451,
    "Data": 2452,
    "sions": 2453,
    " int": 2454,
    "ें,": 2455,
    " cultural": 2456,
    " strateg": 2457,
    "Pl": 2458,
    " fresh": 2459,
    "ym": 2460,
    " Q": 2461,
    "MI": 2462,
    "utions": 2463,
    " small": 2464,
    " hu": 2465,
    " ऑनल": 2466,
    "Jaise": 2467,
    "ules": 2468,
    " body": 2469,
    " fac": 2470,
    "rite": 2471,
    " great": 2472,
    " आजकल": 2473,
    " \\": 2474,
    " Information": 2475,
    "acy": 2476,
    " अप": 2477,
    "ularly": 2478,
    "सल": 2479,
    " extra": 2480,
    " issues": 2481,
    "De": 2482,
    " opportun": 2483,
    " future": 2484,
    " App": 2485,
    "Check": 2486,
    "12": 2487,
    " her": 2488,
    " Res": 2489,
    "lease": 2490,
    " many": 2491,
    " इसम": 2492,
    " definitely": 2493,
    " essential": 2494,
    "इट": 2495,
    " let": 2496,
    "ream": 2497,
    "ible": 2498,
    " positive": 2499,
    "वल": 2500,
    " jaaye": 2501,
    "ife": 2502,
    "Telugu": 2503,
    "str": 2504,
    " perfect": 2505,
    " order": 2506,
    " being": 2507,
    "rency": 2508,
    "vation": 2509,
    "ीं।": 2510,
    "ances": 2511,
    "sa": 2512,
    " name": 2513,
    " fiel": 2514,
    "la": 2515,
    " especially": 2516,
    " 6": 2517,
    " sor": 2518,
    "erc": 2519,
    "ogni": 2520,
    "ressure": 2521,
    " intera": 2522,
    " year": 2523,
    " ite": 2524,
    "ash": 2525,
    "lets": 2526,
    " tips": 2527,
    " open": 2528,
    " take": 2529,
    "play": 2530,
    " Cha": 2531,
    "!*": 2532,
    "des": 2533,
    " helpful": 2534,
    " problems": 2535,
    "000": 2536,
    "ables": 2537,
    " friend": 2538,
    "tab": 2539,
    "इज": 2540,
    " related": 2541,
    " sti": 2542,
    "It": 2543,
    "?\"": 2544,
    " econom": 2545,
    " आपन": 2546,
    "labor": 2547,
    "डर": 2548,
    " contin": 2549,
    "cle": 2550,
    " paas": 2551,
    " saw": 2552,
    " sakti": 2553,
    " fra": 2554,
    " jaldi": 2555,
    "load": 2556,
    " ID": 2557,
    " UPI": 2558,
    "ooks": 2559,
    " event": 2560,
    " unique": 2561,
    "मन": 2562,
    "So": 2563,
    " leading": 2564,
    " culture": 2565,
    " areas": 2566,
    " aapke": 2567,
    " result": 2568,
    " बद": 2569,
    "isten": 2570,
    "ource": 2571,
    " return": 2572,
    "Te": 2573,
    " paani": 2574,
    "ormal": 2575,
    " char": 2576,
    " feedback": 2577,
    "til": 2578,
    "ions": 2579,
    " financial": 2580,
    "mote": 2581,
    "hel": 2582,
    " instructions": 2583,
    " Based": 2584,
    "ords": 2585,
    " repres": 2586,
    " potential": 2587,
    "ost": 2588,
    " पड़": 2589,
    "ones": 2590,
    "pan": 2591,
    "},": 2592,
    "itu": 2593,
    " gi": 2594,
    " aff": 2595,
    " const": 2596,
    " pas": 2597,
    " end": 2598,
    " lar": 2599,
    " pooch": 2600,
    " unke": 2601,
    "racy": 2602,
    "ocum": 2603,
    " music": 2604,
    "sing": 2605,
    "essional": 2606,
    " sal": 2607,
    "entation": 2608,
    " activities": 2609,
    " experiences": 2610,
    " results": 2611,
    "member": 2612,
    "यरम": 2613,
    " customer": 2614,
    " interes": 2615,
    " lagta": 2616,
    "aries": 2617,
    "ands": 2618,
    "ommend": 2619,
    "utri": 2620,
    "asy": 2621,
    "room": 2622,
    "log": 2623,
    " arguments": 2624,
    " अब": 2625,
    "za": 2626,
    " baar": 2627,
    "ang": 2628,
    " traditional": 2629,
    " possible": 2630,
    " think": 2631,
    "लक": 2632,
    " Sc": 2633,
    " happ": 2634,
    " network": 2635,
    " multiple": 2636,
    " trust": 2637,
    ".,": 2638,
    "Koi": 2639,
    "olution": 2640,
    "words": 2641,
    " trend": 2642,
    "just": 2643,
    " Is": 2644,
    "atic": 2645,
    "ao": 2646,
    "care": 2647,
    "inal": 2648,
    " project": 2649,
    " were": 2650,
    "ator": 2651,
    "ctor": 2652,
    " predic": 2653,
    "lobal": 2654,
    " oper": 2655,
    " success": 2656,
    " explo": 2657,
    " dri": 2658,
    " range": 2659,
    " handle": 2660,
    " seedha": 2661,
    " without": 2662,
    " Com": 2663,
    "ending": 2664,
    "essary": 2665,
    " nec": 2666,
    " mental": 2667,
    "pre": 2668,
    " questions": 2669,
    " saare": 2670,
    "This": 2671,
    "ograp": 2672,
    " does": 2673,
    " move": 2674,
    "oding": 2675,
    " teacher": 2676,
    "ina": 2677,
    " FD": 2678,
    "े-": 2679,
    "nect": 2680,
    "ral": 2681,
    "less": 2682,
    " baare": 2683,
    "No": 2684,
    " Telugu": 2685,
    " ag": 2686,
    " tumhare": 2687,
    " test": 2688,
    "lation": 2689,
    " materi": 2690,
    " previous": 2691,
    " companies": 2692,
    " rate": 2693,
    " reduce": 2694,
    "Ya": 2695,
    "pping": 2696,
    " wr": 2697,
    "hing": 2698,
    " English": 2699,
    "irt": 2700,
    "ystem": 2701,
    " idea": 2702,
    " kitna": 2703,
    " motiv": 2704,
    "खत": 2705,
    "नन": 2706,
    " contain": 2707,
    " kiya": 2708,
    " nik": 2709,
    "):": 2710,
    " algorithm": 2711,
    "atch": 2712,
    "ersonal": 2713,
    "ocho": 2714,
    " emotional": 2715,
    "_name": 2716,
    " comb": 2717,
    " wa": 2718,
    " knowledge": 2719,
    "App": 2720,
    "],": 2721,
    " decisions": 2722,
    " product": 2723,
    "omet": 2724,
    " always": 2725,
    " challenges": 2726,
    " fit": 2727,
    "ats": 2728,
    " How": 2729,
    " only": 2730,
    "anta": 2731,
    "हर": 2732,
    " aata": 2733,
    "Basically": 2734,
    "Cl": 2735,
    "bt": 2736,
    "change": 2737,
    " technology": 2738,
    " water": 2739,
    " website": 2740,
    "requ": 2741,
    "anguages": 2742,
    " \\\"": 2743,
    "mer": 2744,
    "सकर": 2745,
    " Sta": 2746,
    "ditions": 2747,
    " khar": 2748,
    "ustain": 2749,
    "--------": 2750,
    "sition": 2751,
    " situ": 2752,
    "the": 2753,
    "ets": 2754,
    " techniques": 2755,
    " ent": 2756,
    " avoid": 2757,
    "chen": 2758,
    "mein": 2759,
    "ale": 2760,
    " khud": 2761,
    "ude": 2762,
    "खन": 2763,
    " cate": 2764,
    " jata": 2765,
    " saf": 2766,
    " factors": 2767,
    " sche": 2768,
    "Kya": 2769,
    " offer": 2770,
    "Here": 2771,
    "ited": 2772,
    " numbers": 2773,
    "Imp": 2774,
    " types": 2775,
    " Su": 2776,
    " optim": 2777,
    " achieve": 2778,
    " convers": 2779,
    " changes": 2780,
    "hte": 2781,
    "rop": 2782,
    " hy": 2783,
    "rams": 2784,
    " scene": 2785,
    " accu": 2786,
    " He": 2787,
    " relevant": 2788,
    " lena": 2789,
    " file": 2790,
    " following": 2791,
    " internet": 2792,
    " users": 2793,
    "hile": 2794,
    " benefits": 2795,
    " bachchon": 2796,
    " practice": 2797,
    "जन": 2798,
    " No": 2799,
    " beli": 2800,
    " light": 2801,
    " meet": 2802,
    " pers": 2803,
    "एक": 2804,
    "udget": 2805,
    "ank": 2806,
    "unga": 2807,
    "cep": 2808,
    " 20": 2809,
    " direct": 2810,
    " et": 2811,
    " recommend": 2812,
    " Aur": 2813,
    " Cl": 2814,
    " calling": 2815,
    " usko": 2816,
    "tention": 2817,
    "tep": 2818,
    " news": 2819,
    " soci": 2820,
    "face": 2821,
    "mesha": 2822,
    "ef": 2823,
    " both": 2824,
    " software": 2825,
    " events": 2826,
    " task": 2827,
    "afi": 2828,
    " products": 2829,
    " एड": 2830,
    " Li": 2831,
    " patterns": 2832,
    "loye": 2833,
    "ी-": 2834,
    " Kar": 2835,
    " air": 2836,
    " pressure": 2837,
    " response": 2838,
    "indi": 2839,
    "ibility": 2840,
    " connection": 2841,
    " wala": 2842,
    " Mein": 2843,
    " clo": 2844,
    "ified": 2845,
    " program": 2846,
    "app": 2847,
    "tend": 2848,
    " compare": 2849,
    " opportunities": 2850,
    "Haan": 2851,
    "vis": 2852,
    " physical": 2853,
    " works": 2854,
    " apna": 2855,
    "ences": 2856,
    " store": 2857,
    "इफ": 2858,
    " his": 2859,
    "gs": 2860,
    "light": 2861,
    " el": 2862,
    " fas": 2863,
    " jaati": 2864,
    "man": 2865,
    "tations": 2866,
    "orts": 2867,
    " cost": 2868,
    " ideas": 2869,
    " require": 2870,
    ")**": 2871,
    " badha": 2872,
    " prior": 2873,
    " analyze": 2874,
    " public": 2875,
    " New": 2876,
    " theek": 2877,
    "ross": 2878,
    "top": 2879,
    "'ll": 2880,
    " padta": 2881,
    "ा-": 2882,
    " aisa": 2883,
    " group": 2884,
    " storage": 2885,
    " Man": 2886,
    " expl": 2887,
    "base": 2888,
    "mis": 2889,
    " Google": 2890,
    " account": 2891,
    " classes": 2892,
    " band": 2893,
    " contrib": 2894,
    "imate": 2895,
    " did": 2896,
    " models": 2897,
    " schools": 2898,
    "Sc": 2899,
    " autom": 2900,
    " bachche": 2901,
    " industry": 2902,
    " speed": 2903,
    " जल": 2904,
    "type": 2905,
    "vent": 2906,
    " day": 2907,
    " hogi": 2908,
    "ches": 2909,
    "iled": 2910,
    "ork": 2911,
    " latest": 2912,
    " smart": 2913,
    "irtual": 2914,
    " compe": 2915,
    " priv": 2916,
    "ically": 2917,
    "सस": 2918,
    "Res": 2919,
    " polic": 2920,
    "Ad": 2921,
    " EMI": 2922,
    " spe": 2923,
    "ji": 2924,
    " ₹": 2925,
    " method": 2926,
    " audi": 2927,
    "\")": 2928,
    " Ho": 2929,
    " argument": 2930,
    " necessary": 2931,
    " {\"": 2932,
    "Im": 2933,
    "ecurity": 2934,
    " step": 2935,
    " area": 2936,
    " lagega": 2937,
    "ीं,": 2938,
    " allows": 2939,
    "loc": 2940,
    "By": 2941,
    "return": 2942,
    "He": 2943,
    "ameters": 2944,
    " image": 2945,
    " सव": 2946,
    "enc": 2947,
    "come": 2948,
    " must": 2949,
    "tire": 2950,
    " aate": 2951,
    "ava": 2952,
    "erfect": 2953,
    " course": 2954,
    " rates": 2955,
    " rem": 2956,
    "11": 2957,
    " inde": 2958,
    " tim": 2959,
    "idation": 2960,
    "rat": 2961,
    "yad": 2962,
    " Python": 2963,
    " choose": 2964,
    " mast": 2965,
    " padega": 2966,
    "works": 2967,
    " local": 2968,
    "hor": 2969,
    "tices": 2970,
    " ऊ": 2971,
    " travel": 2972,
    " transa": 2973,
    "IN": 2974,
    " during": 2975,
    "ris": 2976,
    " tal": 2977,
    " ver": 2978,
    "ier": 2979,
    " hamesha": 2980,
    " tem": 2981,
    " \n": 2982,
    " kaun": 2983,
    "uru": 2984,
    " honge": 2985,
    "Let": 2986,
    "ouch": 2987,
    "ruc": 2988,
    " घर": 2989,
    " naya": 2990,
    "reate": 2991,
    "दन": 2992,
    " 7": 2993,
    " artic": 2994,
    "ouble": 2995,
    " tumhara": 2996,
    " emotions": 2997,
    " engage": 2998,
    " men": 2999,
    "Okay": 3000,
    "air": 3001,
    "itation": 3002,
    " stand": 3003,
    "ume": 3004,
    "For": 3005,
    " mista": 3006,
    " meas": 3007,
    " elect": 3008,
    "aily": 3009,
    " date": 3010,
    "istic": 3011,
    "ists": 3012,
    " As": 3013,
    "Go": 3014,
    " groups": 3015,
    " शब": 3016,
    "Explain": 3017,
    " ear": 3018,
    "Social": 3019,
    "Apne": 3020,
    "gine": 3021,
    "Jo": 3022,
    "ramming": 3023,
    "versity": 3024,
    " What": 3025,
    " si": 3026,
    "kil": 3027,
    " ge": 3028,
    " because": 3029,
    " languages": 3030,
    " option": 3031,
    "anced": 3032,
    " ed": 3033,
    "zing": 3034,
    " Sab": 3035,
    " credit": 3036,
    "place": 3037,
    " cri": 3038,
    " consider": 3039,
    " chale": 3040,
    " kyunki": 3041,
    "mart": 3042,
    " around": 3043,
    " easily": 3044,
    " naye": 3045,
    " sure": 3046,
    " safety": 3047,
    "based": 3048,
    " These": 3049,
    " कभ": 3050,
    "ayenge": 3051,
    " review": 3052,
    "!\"": 3053,
    "gain": 3054,
    "====": 3055,
    " 8": 3056,
    " effor": 3057,
    " found": 3058,
    " hua": 3059,
    "ined": 3060,
    "gative": 3061,
    "mon": 3062,
    " ओ": 3063,
    " jao": 3064,
    "ilar": 3065,
    "ories": 3066,
    "rast": 3067,
    "tal": 3068,
    " card": 3069,
    " made": 3070,
    " Val": 3071,
    " doos": 3072,
    "earning": 3073,
    "odern": 3074,
    " padhai": 3075,
    "gory": 3076,
    " history": 3077,
    " comple": 3078,
    " next": 3079,
    " show": 3080,
    "!:**": 3081,
    " cam": 3082,
    " line": 3083,
    " really": 3084,
    " she": 3085,
    "riend": 3086,
    " email": 3087,
    " rules": 3088,
    "इड": 3089,
    "ourage": 3090,
    "pen": 3091,
    "मल": 3092,
    " involves": 3093,
    " projects": 3094,
    "do": 3095,
    " too": 3096,
    " ऊपर": 3097,
    " basic": 3098,
    "ternal": 3099,
    "ength": 3100,
    "fault": 3101,
    " feelings": 3102,
    " special": 3103,
    "सनल": 3104,
    " wallet": 3105,
    "सक": 3106,
    " called": 3107,
    "gra": 3108,
    " yaad": 3109,
    "ward": 3110,
    "ender": 3111,
    " location": 3112,
    " calculate": 3113,
    "sol": 3114,
    " Grammar": 3115,
    "gether": 3116,
    "ever": 3117,
    " character": 3118,
    " payment": 3119,
    " limit": 3120,
    "point": 3121,
    "Ab": 3122,
    " Imp": 3123,
    " casual": 3124,
    "टफ": 3125,
    " less": 3126,
    "arm": 3127,
    "urant": 3128,
    " had": 3129,
    " parents": 3130,
    " slow": 3131,
    " Also": 3132,
    " adjust": 3133,
    " art": 3134,
    " cloud": 3135,
    " meaning": 3136,
    " thinking": 3137,
    " week": 3138,
    "ML": 3139,
    " 2025": 3140,
    " इक": 3141,
    " jisse": 3142,
    "('": 3143,
    "wards": 3144,
    "data": 3145,
    " tone": 3146,
    "ls": 3147,
    " non": 3148,
    " sever": 3149,
    "import": 3150,
    "other": 3151,
    "हत": 3152,
    " difference": 3153,
    " karega": 3154,
    "Checklist": 3155,
    " sorry": 3156,
    "aar": 3157,
    " games": 3158,
    " समझन": 3159,
    "fer": 3160,
    "way": 3161,
    " mix": 3162,
    "Isse": 3163,
    " bha": 3164,
    " price": 3165,
    " study": 3166,
    "ners": 3167,
    "ा?": 3168,
    " gather": 3169,
    "xi": 3170,
    " Check": 3171,
    " yourself": 3172,
    "avor": 3173,
    "ayi": 3174,
    "ich": 3175,
    "perature": 3176,
    "reak": 3177,
    "Cha": 3178,
    "Simple": 3179,
    " error": 3180,
    "SE": 3181,
    "aces": 3182,
    "ouse": 3183,
    "reness": 3184,
    " descri": 3185,
    "redi": 3186,
    " brain": 3187,
    " balance": 3188,
    " overall": 3189,
    " things": 3190,
    " reduc": 3191,
    " reasons": 3192,
    "Time": 3193,
    "rue": 3194,
    " efficient": 3195,
    " story": 3196,
    "fine": 3197,
    "मत": 3198,
    " given": 3199,
    " अन": 3200,
    " comfor": 3201,
    "akes": 3202,
    " full": 3203,
    "wareness": 3204,
    "हतर": 3205,
    " mas": 3206,
    " Tra": 3207,
    "20": 3208,
    "`,": 3209,
    " government": 3210,
    " guid": 3211,
    "bit": 3212,
    " give": 3213,
    "Answer": 3214,
    "riv": 3215,
    "नर": 3216,
    "2025": 3217,
    "num": 3218,
    " phot": 3219,
    " door": 3220,
    " format": 3221,
    "ires": 3222,
    "Kabhi": 3223,
    "entiment": 3224,
    " increase": 3225,
    " नए": 3226,
    "ounds": 3227,
    " But": 3228,
    " programs": 3229,
    "Reg": 3230,
    "Tra": 3231,
    "ele": 3232,
    "ैं:": 3233,
    " gaye": 3234,
    " computer": 3235,
    " nutri": 3236,
    " several": 3237,
    " actually": 3238,
    "_api": 3239,
    " mush": 3240,
    "joy": 3241,
    "med": 3242,
    "mpt": 3243,
    "utes": 3244,
    "verage": 3245,
    "    ": 3246,
    "hega": 3247,
    " block": 3248,
    "tam": 3249,
    " pain": 3250,
    " steps": 3251,
    " those": 3252,
    "rust": 3253,
    " adap": 3254,
    " writing": 3255,
    " connect": 3256,
    " suno": 3257,
    "fill": 3258,
    "ogn": 3259,
    " known": 3260,
    " ways": 3261,
    "bile": 3262,
    "vide": 3263,
    " now": 3264,
    " seems": 3265,
    "ken": 3266,
    " video": 3267,
    "aching": 3268,
    " Pay": 3269,
    " okay": 3270,
    "\".": 3271,
    " provides": 3272,
    "den": 3273,
    "uro": 3274,
    " inno": 3275,
    " solve": 3276,
    "xiety": 3277,
    "ification": 3278,
    " before": 3279,
    " chho": 3280,
    " collabor": 3281,
    " karti": 3282,
    " science": 3283,
    "You": 3284,
    "Casual": 3285,
    "urrent": 3286,
    " milta": 3287,
    " pack": 3288,
    " perspec": 3289,
    " टर": 3290,
    " home": 3291,
    " pak": 3292,
    "date": 3293,
    "ractive": 3294,
    "reci": 3295,
    " lene": 3296,
    " sustain": 3297,
    "sp": 3298,
    " creating": 3299,
    " deep": 3300,
    " negative": 3301,
    "sequ": 3302,
    " Sp": 3303,
    " flow": 3304,
    " summ": 3305,
    " wallets": 3306,
    "izations": 3307,
    "ounts": 3308,
    " again": 3309,
    " query": 3310,
    "aste": 3311,
    "iency": 3312,
    "यह": 3313,
    "Tum": 3314,
    " milega": 3315,
    " quick": 3316,
    " together": 3317,
    "sta": 3318,
    " ut": 3319,
    " fix": 3320,
    " professional": 3321,
    "new": 3322,
    " array": 3323,
    " waste": 3324,
    " इम": 3325,
    "ficult": 3326,
    "ggest": 3327,
    "sop": 3328,
    " ask": 3329,
    " practices": 3330,
    "llig": 3331,
    " dost": 3332,
    " service": 3333,
    "nderstand": 3334,
    "omething": 3335,
    " mushkil": 3336,
    "itual": 3337,
    " past": 3338,
    " clean": 3339,
    "ums": 3340,
    " explore": 3341,
    "hilo": 3342,
    "use": 3343,
    "ayda": 3344,
    "ी:**": 3345,
    " methods": 3346,
    "ST": 3347,
    "sy": 3348,
    " ga": 3349,
    " large": 3350,
    " object": 3351,
    " pati": 3352,
    " still": 3353,
    "hilosop": 3354,
    " mobile": 3355,
    "elf": 3356,
    " Agar": 3357,
    " uses": 3358,
    " सर": 3359,
    " child": 3360,
    " providing": 3361,
    " rehte": 3362,
    "ators": 3363,
    " My": 3364,
    " lay": 3365,
    "over": 3366,
    " term": 3367,
    "50": 3368,
    "Point": 3369,
    " ru": 3370,
    " short": 3371,
    " बदल": 3372,
    " Time": 3373,
    "iya": 3374,
    "raw": 3375,
    " cool": 3376,
    " dikh": 3377,
    " discuss": 3378,
    " programming": 3379,
    "Al": 3380,
    "cer": 3381,
    " ele": 3382,
    " keep": 3383,
    " जर": 3384,
    "tings": 3385,
    " feature": 3386,
    " Har": 3387,
    " Inst": 3388,
    " able": 3389,
    " bina": 3390,
    "omen": 3391,
    " size": 3392,
    "Sabse": 3393,
    " Un": 3394,
    "ference": 3395,
    " Online": 3396,
    " daalo": 3397,
    " something": 3398,
    " within": 3399,
    " marketing": 3400,
    "sc": 3401,
    " frame": 3402,
    "amily": 3403,
    "eka": 3404,
    " Java": 3405,
    " message": 3406,
    " bacha": 3407,
    " dom": 3408,
    "ols": 3409,
    "tead": 3410,
    " become": 3411,
    " videos": 3412,
    " असल": 3413,
    " कन": 3414,
    " Be": 3415,
    " बल": 3416,
    " din": 3417,
    " fore": 3418,
    " goal": 3419,
    " certain": 3420,
    " fulfill": 3421,
    "_f": 3422,
    " algorithms": 3423,
    " nikal": 3424,
    " ability": 3425,
    " vers": 3426,
    " ऑफर": 3427,
    " Hain": 3428,
    " fast": 3429,
    "aly": 3430,
    " suggest": 3431,
    "oot": 3432,
    " last": 3433,
    " means": 3434,
    "_id": 3435,
    "textual": 3436,
    " Bhi": 3437,
    "lear": 3438,
    " love": 3439,
    " libr": 3440,
    " secure": 3441,
    " इसल": 3442,
    "oney": 3443,
    " feeling": 3444,
    " associ": 3445,
    " build": 3446,
    " chahte": 3447,
    " examples": 3448,
    "respon": 3449,
    " cry": 3450,
    " countries": 3451,
    " jaye": 3452,
    "19": 3453,
    " applications": 3454,
    " daily": 3455,
    " hig": 3456,
    " respect": 3457,
    "pare": 3458,
    "दद": 3459,
    " banane": 3460,
    " lite": 3461,
    " progress": 3462,
    "Thoda": 3463,
    " वर": 3464,
    " Hindi": 3465,
    " competi": 3466,
    " docum": 3467,
    " match": 3468,
    " उतन": 3469,
    "Use": 3470,
    "itna": 3471,
    " Ch": 3472,
    " decide": 3473,
    " plants": 3474,
    "ahi": 3475,
    "antum": 3476,
    "ering": 3477,
    "lying": 3478,
    "uck": 3479,
    "vised": 3480,
    "एशन": 3481,
    "दत": 3482,
    " importance": 3483,
    " upar": 3484,
    "Su": 3485,
    " age": 3486,
    "agine": 3487,
    "uil": 3488,
    " Kya": 3489,
    "icate": 3490,
    "शनल": 3491,
    " cooking": 3492,
    " karoge": 3493,
    " regular": 3494,
    "Sirf": 3495,
    "ince": 3496,
    "ें:**": 3497,
    " stay": 3498,
    " cy": 3499,
    " field": 3500,
    " गलत": 3501,
    "ON": 3502,
    " Ar": 3503,
    " Pe": 3504,
    "iv": 3505,
    "ulations": 3506,
    "सम": 3507,
    " beech": 3508,
    " career": 3509,
    "aut": 3510,
    "fter": 3511,
    "rab": 3512,
    " actions": 3513,
    " low": 3514,
    " room": 3515,
    "ately": 3516,
    "tle": 3517,
    "जर": 3518,
    " Do": 3519,
    " dho": 3520,
    " milte": 3521,
    "New": 3522,
    " party": 3523,
    "ghts": 3524,
    "idence": 3525,
    " difficult": 3526,
    " place": 3527,
    "Log": 3528,
    " influence": 3529,
    " run": 3530,
    " समझत": 3531,
    "'.": 3532,
    "Ke": 3533,
    "riendly": 3534,
    " relax": 3535,
    "pos": 3536,
    "odes": 3537,
    " color": 3538,
    "andi": 3539,
    " US": 3540,
    " matter": 3541,
    " rehta": 3542,
    " strategies": 3543,
    "asing": 3544,
    "ura": 3545,
    "ymb": 3546,
    " achha": 3547,
    " minim": 3548,
    " saaf": 3549,
    "alu": 3550,
    "aram": 3551,
    " oil": 3552,
    " song": 3553,
    " serious": 3554,
    "रह": 3555,
    " processing": 3556,
    "ady": 3557,
    "़ि": 3558,
    " loss": 3559,
    " visual": 3560,
    "athy": 3561,
    "pose": 3562,
    " When": 3563,
    " country": 3564,
    " shuru": 3565,
    "cious": 3566,
    " abhi": 3567,
    " obs": 3568,
    " particip": 3569,
    " view": 3570,
    "inci": 3571,
    "kar": 3572,
    " else": 3573,
    " मदद": 3574,
    "ctive": 3575,
    "ergency": 3576,
    " determ": 3577,
    " gen": 3578,
    "aling": 3579,
    "orical": 3580,
    "au": 3581,
    "ferences": 3582,
    " compre": 3583,
    " nature": 3584,
    " working": 3585,
    "cre": 3586,
    "free": 3587,
    "get_": 3588,
    "शब": 3589,
    " paise": 3590,
    " similar": 3591,
    " trip": 3592,
    "right": 3593,
    " anxiety": 3594,
    " flex": 3595,
    " Fin": 3596,
    " hard": 3597,
    " side": 3598,
    "_data": 3599,
    "ged": 3600,
    " expec": 3601,
    " topic": 3602,
    "Col": 3603,
    " accurate": 3604,
    "string": 3605,
    "wit": 3606,
    "कत": 3607,
    "ample": 3608,
    "ipes": 3609,
    " batata": 3610,
    " external": 3611,
    " occ": 3612,
    "))": 3613,
    "ift": 3614,
    " employe": 3615,
    " month": 3616,
    " syn": 3617,
    " memory": 3618,
    " tareeka": 3619,
    "Don": 3620,
    " responsi": 3621,
    "Bach": 3622,
    " face": 3623,
    " here": 3624,
    "kal": 3625,
    "uous": 3626,
    " Rec": 3627,
    " cent": 3628,
    "formative": 3629,
    "tus": 3630,
    " bade": 3631,
    " promote": 3632,
    " exchange": 3633,
    " kaafi": 3634,
    " वग": 3635,
    "ayde": 3636,
    " engine": 3637,
    " treat": 3638,
    "etter": 3639,
    "अपन": 3640,
    " city": 3641,
    "Tech": 3642,
    "description": 3643,
    " ==": 3644,
    " rather": 3645,
    "ested": 3646,
    "ph": 3647,
    "urs": 3648,
    " 19": 3649,
    " enjoy": 3650,
    " shayad": 3651,
    "Aaj": 3652,
    "ativity": 3653,
    "making": 3654,
    "ynam": 3655,
    " gre": 3656,
    "zed": 3657,
    " रखत": 3658,
    "tering": 3659,
    " andar": 3660,
    "Over": 3661,
    " pet": 3662,
    " reducing": 3663,
    "eche": 3664,
    " exerc": 3665,
    " vac": 3666,
    "being": 3667,
    " 9": 3668,
    " rece": 3669,
    "aging": 3670,
    " score": 3671,
    " student": 3672,
    "आप": 3673,
    " global": 3674,
    " valu": 3675,
    "ै:": 3676,
    " That": 3677,
    " /": 3678,
    "ense": 3679,
    " comprehen": 3680,
    " implement": 3681,
    " touch": 3682,
    "Indian": 3683,
    "Personal": 3684,
    " conver": 3685,
    " gal": 3686,
    "ium": 3687,
    "rucial": 3688,
    " Reg": 3689,
    " screen": 3690,
    " teachers": 3691,
    " amount": 3692,
    " complete": 3693,
    " loo": 3694,
    "gories": 3695,
    " books": 3696,
    " chalta": 3697,
    " string": 3698,
    " vol": 3699,
    " जह": 3700,
    " पढ": 3701,
    "Ar": 3702,
    "lligence": 3703,
    "ooth": 3704,
    "ours": 3705,
    "ptions": 3706,
    " sy": 3707,
    "Why": 3708,
    "orpor": 3709,
    "unch": 3710,
    " coding": 3711,
    " investment": 3712,
    "ids": 3713,
    " doosre": 3714,
    " Im": 3715,
    "era": 3716,
    "super": 3717,
    " aaya": 3718,
    " cra": 3719,
    "istance": 3720,
    "liye": 3721,
    " Lo": 3722,
    " activity": 3723,
    "Woh": 3724,
    "arc": 3725,
    "io": 3726,
    "loy": 3727,
    " affect": 3728,
    " star": 3729,
    " Cons": 3730,
    " crucial": 3731,
    "Sta": 3732,
    "ney": 3733,
    " budget": 3734,
    "_v": 3735,
    "ommunication": 3736,
    "utely": 3737,
    " interesting": 3738,
    " rest": 3739,
    " region": 3740,
    "clusion": 3741,
    " chalega": 3742,
    "We": 3743,
    "duct": 3744,
    "istent": 3745,
    "rength": 3746,
    " desired": 3747,
    "abard": 3748,
    "rics": 3749,
    " Yes": 3750,
    " गई": 3751,
    "tect": 3752,
    "uj": 3753,
    " banana": 3754,
    " नय": 3755,
    " conditions": 3756,
    " database": 3757,
    "Ekdum": 3758,
    "hical": 3759,
    "hink": 3760,
    " ing": 3761,
    " temperature": 3762,
    " total": 3763,
    "cted": 3764,
    "dule": 3765,
    "redients": 3766,
    " cell": 3767,
    " images": 3768,
    "ipe": 3769,
    "lection": 3770,
    " kitchen": 3771,
    "fun": 3772,
    " virtual": 3773,
    " Develop": 3774,
    " पक": 3775,
    " पड़त": 3776,
    " summary": 3777,
    "cepts": 3778,
    "चन": 3779,
    " Learning": 3780,
    " effort": 3781,
    " issue": 3782,
    "ali": 3783,
    "hold": 3784,
    "आई": 3785,
    "गल": 3786,
    "ै?**": 3787,
    " ई": 3788,
    " active": 3789,
    " much": 3790,
    " powerful": 3791,
    " sources": 3792,
    " कहत": 3793,
    " Inte": 3794,
    " Ra": 3795,
    " articles": 3796,
    " depend": 3797,
    " insp": 3798,
    " mechan": 3799,
    " prices": 3800,
    "Se": 3801,
    "ype": 3802,
    " Par": 3803,
    " compon": 3804,
    "anti": 3805,
    "sequences": 3806,
    " dena": 3807,
    ")**:": 3808,
    "AT": 3809,
    "abardast": 3810,
    " Ko": 3811,
    " devices": 3812,
    "BI": 3813,
    "lling": 3814,
    " chala": 3815,
    " thought": 3816,
    " चलत": 3817,
    "++": 3818,
    " 100": 3819,
    " <<": 3820,
    " Dis": 3821,
    " prevent": 3822,
    "ton": 3823,
    "ull": 3824,
    "vest": 3825,
    " concern": 3826,
    "ognition": 3827,
    " bro": 3828,
    " solutions": 3829,
    "Ba": 3830,
    "tact": 3831,
    " Jab": 3832,
    " consum": 3833,
    " itna": 3834,
    " makes": 3835,
    " sing": 3836,
    " usually": 3837,
    " years": 3838,
    "default": 3839,
    "iritual": 3840,
    " bar": 3841,
    " bank": 3842,
    " customers": 3843,
    " effectively": 3844,
    " solid": 3845,
    "_m": 3846,
    "abilities": 3847,
    "kills": 3848,
    " Liye": 3849,
    " atta": 3850,
    " flight": 3851,
    "ala": 3852,
    "obile": 3853,
    "quality": 3854,
    " गए": 3855,
    "\\\":": 3856,
    "atically": 3857,
    "vie": 3858,
    " jaisa": 3859,
    " shar": 3860,
    " परफ": 3861,
    " dum": 3862,
    " sci": 3863,
    "pend": 3864,
    "son": 3865,
    " reli": 3866,
    " true": 3867,
    "TP": 3868,
    "lot": 3869,
    " Well": 3870,
    " due": 3871,
    " society": 3872,
    " takes": 3873,
    " weight": 3874,
    "Us": 3875,
    "henge": 3876,
    " dekhte": 3877,
    " etc": 3878,
    " provided": 3879,
    "fit": 3880,
    "टमर": 3881,
    " anim": 3882,
    "Digital": 3883,
    " While": 3884,
    " कस": 3885,
    "iction": 3886,
    "rugg": 3887,
    "uk": 3888,
    " However": 3889,
    " Why": 3890,
    " chill": 3891,
    "oting": 3892,
    " characters": 3893,
    " loan": 3894,
    " And": 3895,
    " update": 3896,
    " allowing": 3897,
    " initi": 3898,
    " philosop": 3899,
    " recogn": 3900,
    "tirement": 3901,
    " appreci": 3902,
    " head": 3903,
    " mor": 3904,
    " specially": 3905,
    " cos": 3906,
    "();": 3907,
    " discussions": 3908,
    " associated": 3909,
    "15": 3910,
    " done": 3911,
    " functions": 3912,
    " levels": 3913,
    " एन": 3914,
    "ube": 3915,
    " building": 3916,
    "icro": 3917,
    " Col": 3918,
    "Pa": 3919,
    " x": 3920,
    " vo": 3921,
    " Uni": 3922,
    " income": 3923,
    " jour": 3924,
    " Data": 3925,
    " page": 3926,
    "ave": 3927,
    "ented": 3928,
    " X": 3929,
    " environmental": 3930,
    " kahin": 3931,
    "hed": 3932,
    " distrib": 3933,
    " sawaal": 3934,
    " trends": 3935,
    "oup": 3936,
    " diya": 3937,
    " ठ": 3938,
    " Toh": 3939,
    " normal": 3940,
    " processes": 3941,
    "eleb": 3942,
    "ison": 3943,
    "ognitive": 3944,
    "ruction": 3945,
    "अगर": 3946,
    " Te": 3947,
    " attention": 3948,
    "ests": 3949,
    "acked": 3950,
    "edu": 3951,
    " audience": 3952,
    " correct": 3953,
    " whe": 3954,
    "As": 3955,
    "col": 3956,
    "prise": 3957,
    " Des": 3958,
    " diet": 3959,
    " effects": 3960,
    "*!": 3961,
    "book": 3962,
    "ture": 3963,
    " scienti": 3964,
    "bon": 3965,
    "ox": 3966,
    " weak": 3967,
    "gin": 3968,
    "umn": 3969,
    " Your": 3970,
    "rastructure": 3971,
    " brand": 3972,
    " specifically": 3973,
    "Ghar": 3974,
    " climate": 3975,
    " रहन": 3976,
    "denti": 3977,
    "itor": 3978,
    " फ़": 3979,
    " Answer": 3980,
    " orig": 3981,
    " rehna": 3982,
    "tt": 3983,
    " bhar": 3984,
    " differences": 3985,
    " materials": 3986,
    " weather": 3987,
    "SON": 3988,
    "tem": 3989,
    " informative": 3990,
    " evalu": 3991,
    " grammar": 3992,
    " privacy": 3993,
    "board": 3994,
    "fulness": 3995,
    "ूं": 3996,
    " reality": 3997,
    "Ka": 3998,
    "aches": 3999,
    " Kam": 4000,
    " interested": 4001,
    " samj": 4002,
    "That": 4003,
    "जह": 4004,
    " listen": 4005,
    " target": 4006,
    "aper": 4007,
    " live": 4008,
    " limited": 4009,
    "Fi": 4010,
    "althy": 4011,
    "class": 4012,
    " dam": 4013,
    "QL": 4014,
    "amajh": 4015,
    "meric": 4016,
    "ortant": 4017,
    " communities": 4018,
    "uting": 4019,
    " seekhne": 4020,
    " theory": 4021,
    "hyan": 4022,
    " intro": 4023,
    "\"}": 4024,
    "Perfect": 4025,
    "sh": 4026,
    " princi": 4027,
    "Val": 4028,
    " 30": 4029,
    " deg": 4030,
    " healthcare": 4031,
    " skin": 4032,
    "ER": 4033,
    "tability": 4034,
    " Set": 4035,
    " diverse": 4036,
    " economic": 4037,
    " partner": 4038,
    " phra": 4039,
    " taste": 4040,
    "cel": 4041,
    " aapka": 4042,
    " एस": 4043,
    "fully": 4044,
    "ground": 4045,
    "cing": 4046,
    "iod": 4047,
    "leep": 4048,
    "ulate": 4049,
    "ैं:**": 4050,
    "10x": 4051,
    "friendly": 4052,
    "parameters": 4053,
    " boss": 4054,
    " caus": 4055,
    "Be": 4056,
    "cast": 4057,
    "urrency": 4058,
    " Bad": 4059,
    " case": 4060,
    " strugg": 4061,
    "aw": 4062,
    "sha": 4063,
    "yaan": 4064,
    " times": 4065,
    "heere": 4066,
    "min": 4067,
    "my": 4068,
    "\n \n ": 4069,
    " bir": 4070,
    " बचत": 4071,
    "ping": 4072,
    " Le": 4073,
    " cut": 4074,
    " solution": 4075,
    "zz": 4076,
    " tax": 4077,
    "cin": 4078,
    "ract": 4079,
    " cheezon": 4080,
    " haan": 4081,
    " interests": 4082,
    " please": 4083,
    " situation": 4084,
    "hol": 4085,
    " concepts": 4086,
    " likely": 4087,
    " maan": 4088,
    " three": 4089,
    "zer": 4090,
    "ba": 4091,
    "down": 4092,
    "idge": 4093,
    "oms": 4094,
    " famil": 4095,
    " names": 4096,
    " अभ": 4097,
    " Social": 4098,
    "ng": 4099,
    "ological": 4100,
    " engaging": 4101,
    " identity": 4102,
    " networks": 4103,
    " नई": 4104,
    "ese": 4105,
    " elements": 4106,
    " jaayega": 4107,
    " tarah": 4108,
    " zaroorat": 4109,
    "All": 4110,
    "_p": 4111,
    "सफर": 4112,
    " insights": 4113,
    " valuable": 4114,
    "anted": 4115,
    "rim": 4116,
    "sycho": 4117,
    "लम": 4118,
    " fees": 4119,
    " sentiment": 4120,
    " skill": 4121,
    " batao": 4122,
    " symb": 4123,
    "Think": 4124,
    " valid": 4125,
    "Me": 4126,
    " historical": 4127,
    "orted": 4128,
    "ug": 4129,
    " wants": 4130,
    "Sp": 4131,
    "ident": 4132,
    "ides": 4133,
    "ography": 4134,
    "pecific": 4135,
    " members": 4136,
    " Fe": 4137,
    " creative": 4138,
    " enter": 4139,
    " exist": 4140,
    " expen": 4141,
    " gold": 4142,
    " nu": 4143,
    " strength": 4144,
    "bsol": 4145,
    "अब": 4146,
    " Cont": 4147,
    " aaye": 4148,
    " fail": 4149,
    " imm": 4150,
    "cript": 4151,
    "size": 4152,
    "ujhe": 4153,
    "ula": 4154,
    "़ें": 4155,
    " Di": 4156,
    " :": 4157,
    " gain": 4158,
    "But": 4159,
    "Pe": 4160,
    "amples": 4161,
    " Ro": 4162,
    " conflic": 4163,
    " shi": 4164,
    " struct": 4165,
    "indow": 4166,
    "sets": 4167,
    "teri": 4168,
    " max": 4169,
    " returns": 4170,
    " say": 4171,
    "ises": 4172,
    "पस": 4173,
    " dim": 4174,
    " items": 4175,
    " photos": 4176,
    " properties": 4177,
    "Fin": 4178,
    "entence": 4179,
    " Mat": 4180,
    " fundam": 4181,
    " present": 4182,
    "Socho": 4183,
    "dis": 4184,
    "istics": 4185,
    "outine": 4186,
    " Let": 4187,
    " Sure": 4188,
    " organizations": 4189,
    "ा)": 4190,
    "---": 4191,
    "urb": 4192,
    " designed": 4193,
    " distance": 4194,
    " prioriti": 4195,
    "']": 4196,
    "public": 4197,
    "ractice": 4198,
    "यम": 4199,
    " 50": 4200,
    " dik": 4201,
    "ership": 4202,
    "mos": 4203,
    "ready": 4204,
    " 12": 4205,
    " On": 4206,
    " Some": 4207,
    " few": 4208,
    " remember": 4209,
    " though": 4210,
    " transactions": 4211,
    "sel": 4212,
    " resta": 4213,
    "ham": 4214,
    "onom": 4215,
    " bound": 4216,
    " higher": 4217,
    "trans": 4218,
    "var": 4219,
    "yal": 4220,
    " uske": 4221,
    " wo": 4222,
    " khatam": 4223,
    " look": 4224,
    " mistakes": 4225,
    " requires": 4226,
    "adem": 4227,
    "ball": 4228,
    "met": 4229,
    " flo": 4230,
    " वह": 4231,
    "Ho": 4232,
    " coun": 4233,
    " pasand": 4234,
    " soch": 4235,
    "reed": 4236,
    " comfortable": 4237,
    " expression": 4238,
    " honi": 4239,
    " jahaan": 4240,
    "gram": 4241,
    "uff": 4242,
    " .": 4243,
    " measure": 4244,
    "Pehle": 4245,
    "hers": 4246,
    "sycholog": 4247,
    "ultural": 4248,
    " HT": 4249,
    " York": 4250,
    "?:**": 4251,
    "Information": 4252,
    "ams": 4253,
    " Language": 4254,
    " attend": 4255,
    " efficiency": 4256,
    " today": 4257,
    "Trans": 4258,
    " cen": 4259,
    " cir": 4260,
    "मम": 4261,
    " aage": 4262,
    " another": 4263,
    " appli": 4264,
    "Long": 4265,
    "itable": 4266,
    "iture": 4267,
    "reg": 4268,
    "urther": 4269,
    "आपक": 4270,
    " #": 4271,
    " dou": 4272,
    " objects": 4273,
    " typ": 4274,
    "String": 4275,
    " money": 4276,
    " sabko": 4277,
    "ert": 4278,
    " shape": 4279,
    " stories": 4280,
    "')": 4281,
    "Focus": 4282,
    "count": 4283,
    "hao": 4284,
    " integ": 4285,
    " someone": 4286,
    " very": 4287,
    "tered": 4288,
    " dh": 4289,
    " required": 4290,
    "Main": 4291,
    "bsolutely": 4292,
    " protect": 4293,
    " तब": 4294,
    "odel": 4295,
    " Ear": 4296,
    " Rak": 4297,
    " asar": 4298,
    " mom": 4299,
    " इतन": 4300,
    "30": 4301,
    "arden": 4302,
    "zes": 4303,
    " 😉": 4304,
    " unki": 4305,
    "\"},": 4306,
    "Contextual": 4307,
    "gges": 4308,
    " frequ": 4309,
    " kharab": 4310,
    " obtain": 4311,
    "force": 4312,
    " mag": 4313,
    "_by": 4314,
    "chitect": 4315,
    "ulture": 4316,
    " post": 4317,
    " पढ़": 4318,
    "aani": 4319,
    "dated": 4320,
    " formal": 4321,
    " modify": 4322,
    " old": 4323,
    " reading": 4324,
    "ffec": 4325,
    "urniture": 4326,
    " Cho": 4327,
    "eedha": 4328,
    " offers": 4329,
    "Sun": 4330,
    " consequences": 4331,
    " critical": 4332,
    " policies": 4333,
    " websites": 4334,
    "kets": 4335,
    "?*": 4336,
    "rection": 4337,
    "यड": 4338,
    " big": 4339,
    " demand": 4340,
    " war": 4341,
    "dden": 4342,
    "नस": 4343,
    " businesses": 4344,
    " fields": 4345,
    "izza": 4346,
    "tage": 4347,
    "uniya": 4348,
    " chann": 4349,
    " display": 4350,
    " towards": 4351,
    " comprehensive": 4352,
    "Li": 4353,
    "rel": 4354,
    " across": 4355,
    "_parameters": 4356,
    " ढ": 4357,
    " sustainable": 4358,
    "Impro": 4359,
    "Real": 4360,
    "cate": 4361,
    "hentic": 4362,
    "nology": 4363,
    " Focus": 4364,
    " electric": 4365,
    "cket": 4366,
    "hoto": 4367,
    " dest": 4368,
    " paisa": 4369,
    " pi": 4370,
    "Bilkul": 4371,
    "Inte": 4372,
    " univers": 4373,
    "':": 4374,
    "usive": 4375,
    " basically": 4376,
    " challenge": 4377,
    " variable": 4378,
    "ET": 4379,
    " organization": 4380,
    " personalized": 4381,
    "Do": 4382,
    "ajah": 4383,
    "vies": 4384,
    " Americ": 4385,
    " increasing": 4386,
    " international": 4387,
    " lekar": 4388,
    " surprise": 4389,
    "Ch": 4390,
    "gal": 4391,
    " There": 4392,
    "Aap": 4393,
    "otes": 4394,
    " karni": 4395,
    " obser": 4396,
    " terms": 4397,
    "osti": 4398,
    "tenance": 4399,
    " Ab": 4400,
    " material": 4401,
    " movie": 4402,
    "ori": 4403,
    " Instructions": 4404,
    " Sha": 4405,
    " dig": 4406,
    " generally": 4407,
    "ommon": 4408,
    " average": 4409,
    " तय": 4410,
    " ingredients": 4411,
    " status": 4412,
    "option": 4413,
    " JSON": 4414,
    " Trans": 4415,
    " stock": 4416,
    " wajah": 4417,
    " खत": 4418,
    "lem": 4419,
    " automatically": 4420,
    " dry": 4421,
    " updates": 4422,
    "sole": 4423,
    " del": 4424,
    " intelligence": 4425,
    "gen": 4426,
    "uted": 4427,
    " dynam": 4428,
    "va": 4429,
    " after": 4430,
    " dise": 4431,
    " dhoond": 4432,
    " अपड": 4433,
    "bits": 4434,
    "ury": 4435,
    " Med": 4436,
    "location": 4437,
    "ove": 4438,
    " cleaning": 4439,
    " complexity": 4440,
    " dhyan": 4441,
    " fundamental": 4442,
    " mention": 4443,
    " wide": 4444,
    "['": 4445,
    "hema": 4446,
    " college": 4447,
    " detailed": 4448,
    "ently": 4449,
    "mission": 4450,
    " needed": 4451,
    " variables": 4452,
    " interact": 4453,
    " remain": 4454,
    "urance": 4455,
    " sugges": 4456,
    "Des": 4457,
    " Please": 4458,
    " cover": 4459,
    " session": 4460,
    "times": 4461,
    " Haanji": 4462,
    " neural": 4463,
    "Cons": 4464,
    "Future": 4465,
    " empha": 4466,
    "13": 4467,
    "IY": 4468,
    "aps": 4469,
    "elp": 4470,
    "ओग": 4471,
    " constant": 4472,
    " everyday": 4473,
    " led": 4474,
    " organizing": 4475,
    " population": 4476,
    "clud": 4477,
    "lock": 4478,
    "port": 4479,
    "udents": 4480,
    " independ": 4481,
    " sabke": 4482,
    " single": 4483,
    "Bas": 4484,
    "estiv": 4485,
    "Word": 4486,
    "ection": 4487,
    "inte": 4488,
    "ाँ।": 4489,
    " anything": 4490,
    " author": 4491,
    " connections": 4492,
    "Em": 4493,
    "irm": 4494,
    "tablish": 4495,
    "uel": 4496,
    " Me": 4497,
    " errors": 4498,
    " general": 4499,
    " innovation": 4500,
    " sequ": 4501,
    " taking": 4502,
    " tumhari": 4503,
    "mical": 4504,
    " lete": 4505,
    " prom": 4506,
    " sort": 4507,
    "mit": 4508,
    "paign": 4509,
    " Ne": 4510,
    " System": 4511,
    " capability": 4512,
    " living": 4513,
    " sugar": 4514,
    " tell": 4515,
    "AR": 4516,
    "Key": 4517,
    "Ne": 4518,
    "atory": 4519,
    "mar": 4520,
    " Dekho": 4521,
    " bolte": 4522,
    "_l": 4523,
    "aming": 4524,
    " deb": 4525,
    " effect": 4526,
    " आए": 4527,
    "ज़न": 4528,
    " challenging": 4529,
    " wanted": 4530,
    "Tube": 4531,
    "hote": 4532,
    " cities": 4533,
    " incorpor": 4534,
    "\";": 4535,
    "inary": 4536,
    "jective": 4537,
    "ommunity": 4538,
    " =>": 4539,
    " Ins": 4540,
    " dataset": 4541,
    " directly": 4542,
    " night": 4543,
    " situations": 4544,
    " spiritual": 4545,
    "()`": 4546,
    "ante": 4547,
    "round": 4548,
    "{\"": 4549,
    " Ser": 4550,
    " assistant": 4551,
    " radi": 4552,
    " recipes": 4553,
    " starting": 4554,
    " wohi": 4555,
    "!)": 4556,
    "alag": 4557,
    " aati": 4558,
    " choice": 4559,
    " ensuring": 4560,
    " interactions": 4561,
    "Qu": 4562,
    "hood": 4563,
    " jismein": 4564,
    " season": 4565,
    " sens": 4566,
    " protein": 4567,
    " source": 4568,
    "My": 4569,
    " Dec": 4570,
    " bill": 4571,
    " employees": 4572,
    " reviews": 4573,
    " समय": 4574,
    "motional": 4575,
    "rice": 4576,
    " Create": 4577,
    " get_": 4578,
    " particularly": 4579,
    " requirements": 4580,
    "Dis": 4581,
    "अप": 4582,
    "खर": 4583,
    " awareness": 4584,
    " medical": 4585,
    " pizza": 4586,
    " smooth": 4587,
    "add": 4588,
    "athroom": 4589,
    "itam": 4590,
    " Bo": 4591,
    " Qu": 4592,
    " certific": 4593,
    " contact": 4594,
    "Try": 4595,
    "afety": 4596,
    " application": 4597,
    " fru": 4598,
    " informed": 4599,
    " involve": 4600,
    " sample": 4601,
    "Rel": 4602,
    "\\\",": 4603,
    "actly": 4604,
    "onds": 4605,
    "undi": 4606,
    " Aap": 4607,
    " rich": 4608,
    " requested": 4609,
    "RL": 4610,
    "Script": 4611,
    "bi": 4612,
    " tit": 4613,
    " testing": 4614,
    " आदत": 4615,
    "नत": 4616,
    "✅]": 4617,
    " heat": 4618,
    " jahan": 4619,
    " practical": 4620,
    " इनक": 4621,
    "hag": 4622,
    " Wi": 4623,
    " column": 4624,
    " ext": 4625,
    " repe": 4626,
    " ऑट": 4627,
    "Step": 4628,
    "fficient": 4629,
    " architect": 4630,
    " costs": 4631,
    " increased": 4632,
    " vs": 4633,
    " वजह": 4634,
    "alt": 4635,
    " Sa": 4636,
    " dekhna": 4637,
    " economy": 4638,
    " password": 4639,
    "Sha": 4640,
    "cipl": 4641,
    "ekh": 4642,
    "like": 4643,
    "ructured": 4644,
    " aapki": 4645,
    " concerns": 4646,
    " files": 4647,
    " kahan": 4648,
    " payments": 4649,
    "astic": 4650,
    "oost": 4651,
    " along": 4652,
    " banate": 4653,
    " hue": 4654,
    " literacy": 4655,
    "Rec": 4656,
    "aki": 4657,
    "onst": 4658,
    "outh": 4659,
    "terna": 4660,
    " advanta": 4661,
    " period": 4662,
    " talk": 4663,
    "pects": 4664,
    "नम": 4665,
    " compar": 4666,
    " poli": 4667,
    " universe": 4668,
    "uality": 4669,
    "uts": 4670,
    " Power": 4671,
    " Pre": 4672,
    " extract": 4673,
    " funda": 4674,
    " happy": 4675,
    " simp": 4676,
    " schedule": 4677,
    " sikha": 4678,
    " sports": 4679,
    " typically": 4680,
    " आम": 4681,
    "tm": 4682,
    " link": 4683,
    " thoughts": 4684,
    "Intern": 4685,
    "une": 4686,
    " ec": 4687,
    " explan": 4688,
    "_n": 4689,
    "action": 4690,
    "alse": 4691,
    "ero": 4692,
    "ologies": 4693,
    " download": 4694,
    " gl": 4695,
    "PS": 4696,
    " cards": 4697,
    " quantum": 4698,
    " subs": 4699,
    "cts": 4700,
    "ocal": 4701,
    "दर": 4702,
    " risks": 4703,
    " scal": 4704,
    " ओवर": 4705,
    "Imagine": 4706,
    "comes": 4707,
    "iment": 4708,
    "random": 4709,
    "ror": 4710,
    "कन": 4711,
    "ै!": 4712,
    " collaboration": 4713,
    " engagement": 4714,
    "cap": 4715,
    "चल": 4716,
    "पय": 4717,
    " 15": 4718,
    " So": 4719,
    " exec": 4720,
    " sound": 4721,
    "blem": 4722,
    "zy": 4723,
    " library": 4724,
    " seekhna": 4725,
    "14": 4726,
    " additional": 4727,
    " confidence": 4728,
    " sach": 4729,
    " statis": 4730,
    " ऑफ": 4731,
    " फर": 4732,
    "100": 4733,
    " bat": 4734,
    " empathy": 4735,
    " sales": 4736,
    " stream": 4737,
    "Incre": 4738,
    "tery": 4739,
    " Ya": 4740,
    " damage": 4741,
    " lif": 4742,
    "tences": 4743,
    " artis": 4744,
    " cook": 4745,
    "Family": 4746,
    "hance": 4747,
    "isms": 4748,
    "ups": 4749,
    "ustomer": 4750,
    "yeh": 4751,
    " Casual": 4752,
    " bul": 4753,
    " believe": 4754,
    " dus": 4755,
    " expectations": 4756,
    " infrastructure": 4757,
    " prob": 4758,
    " satis": 4759,
    "dentify": 4760,
    "ky": 4761,
    "late": 4762,
    "urally": 4763,
    " incl": 4764,
    " mathema": 4765,
    " thode": 4766,
    "fact": 4767,
    " becom": 4768,
    " categories": 4769,
    " motivation": 4770,
    "Ro": 4771,
    " element": 4772,
    " rakhne": 4773,
    " remo": 4774,
    "Overall": 4775,
    " already": 4776,
    " foot": 4777,
    " quickly": 4778,
    " दर": 4779,
    " bel": 4780,
    " degree": 4781,
    " instead": 4782,
    " rights": 4783,
    " कब": 4784,
    "xtra": 4785,
    "सवर": 4786,
    " Ban": 4787,
    " Point": 4788,
    " Words": 4789,
    " patient": 4790,
    "case": 4791,
    "ores": 4792,
    "सबस": 4793,
    " att": 4794,
    " minutes": 4795,
    " mood": 4796,
    "olve": 4797,
    "ott": 4798,
    " Context": 4799,
    " trying": 4800,
    "outs": 4801,
    "थल": 4802,
    " HTML": 4803,
    " least": 4804,
    "head": 4805,
    "hod": 4806,
    "zi": 4807,
    " Ready": 4808,
    " recognition": 4809,
    "cies": 4810,
    "izes": 4811,
    " SQL": 4812,
    " brow": 4813,
    " drive": 4814,
    "cles": 4815,
    "chain": 4816,
    "hics": 4817,
    "rgan": 4818,
    " bolo": 4819,
    " conscious": 4820,
    " interactive": 4821,
    " lower": 4822,
    "real": 4823,
    " Points": 4824,
    " bait": 4825,
    " instit": 4826,
    " looking": 4827,
    "Cloud": 4828,
    "ording": 4829,
    " Euro": 4830,
    " cognitive": 4831,
    " jud": 4832,
    " saal": 4833,
    " women": 4834,
    "cons": 4835,
    "खकर": 4836,
    " gayi": 4837,
    " jobs": 4838,
    " kharcha": 4839,
    " prim": 4840,
    " production": 4841,
    "aa": 4842,
    "uzz": 4843,
    "vig": 4844,
    " Absolutely": 4845,
    " Wor": 4846,
    " doing": 4847,
    " hours": 4848,
    " meditation": 4849,
    " outcomes": 4850,
    " strategy": 4851,
    " teams": 4852,
    "_list": 4853,
    "mosp": 4854,
    "आत": 4855,
    " dr": 4856,
    " going": 4857,
    " mostly": 4858,
    " sleep": 4859,
    " settings": 4860,
    "ctually": 4861,
    " consistent": 4862,
    " domain": 4863,
    " responsible": 4864,
    "nowledge": 4865,
    " crypt": 4866,
    " checklist": 4867,
    " length": 4868,
    " maar": 4869,
    "Inf": 4870,
    "step": 4871,
    " >": 4872,
    " Co": 4873,
    " cat": 4874,
    "ajor": 4875,
    "dom": 4876,
    "raph": 4877,
    "tables": 4878,
    " attra": 4879,
    " device": 4880,
    " optimize": 4881,
    " version": 4882,
    "AI": 4883,
    "inks": 4884,
    " Kaise": 4885,
    " campaign": 4886,
    " creativity": 4887,
    " कवर": 4888,
    "========": 4889,
    "void": 4890,
    "venue": 4891,
    " ```": 4892,
    " fascin": 4893,
    " psycholog": 4894,
    "Emp": 4895,
    " Ac": 4896,
    " Finally": 4897,
    " commit": 4898,
    " duniya": 4899,
    " likh": 4900,
    " liya": 4901,
    " particular": 4902,
    "!**:": 4903,
    "ception": 4904,
    "ypes": 4905,
    " 10x": 4906,
    " aajkal": 4907,
    " families": 4908,
    "iring": 4909,
    "nge": 4910,
    "़ों": 4911,
    " components": 4912,
    " mean": 4913,
    "[✅]": 4914,
    "rum": 4915,
    "tificial": 4916,
    " accessible": 4917,
    " routine": 4918,
    " sty": 4919,
    " symbol": 4920,
    " contribute": 4921,
    " encourage": 4922,
    " regularly": 4923,
    "lications": 4924,
    " flights": 4925,
    " improvement": 4926,
    " und": 4927,
    "Phone": 4928,
    "Pre": 4929,
    "aves": 4930,
    "iffe": 4931,
    "ighb": 4932,
    " At": 4933,
    " Sabse": 4934,
    " colors": 4935,
    " determine": 4936,
    " perspective": 4937,
    " rou": 4938,
    " retirement": 4939,
    " seen": 4940,
    "NA": 4941,
    "Value": 4942,
    "adi": 4943,
    "erm": 4944,
    "ned": 4945,
    "pri": 4946,
    " cash": 4947,
    " diversity": 4948,
    " heart": 4949,
    "iles": 4950,
    "pot": 4951,
    " Earth": 4952,
    " Manage": 4953,
    " choices": 4954,
    " conclusion": 4955,
    "earch": 4956,
    " 202": 4957,
    " Na": 4958,
    " Tech": 4959,
    " celeb": 4960,
    " condition": 4961,
    " convert": 4962,
    " greater": 4963,
    " house": 4964,
    " navig": 4965,
    " transaction": 4966,
    "fee": 4967,
    "range": 4968,
    " draw": 4969,
    " far": 4970,
    " report": 4971,
    " swe": 4972,
    "hinglish": 4973,
    "ilit": 4974,
    "not": 4975,
    "rates": 4976,
    "कभ": 4977,
    "जस": 4978,
    " achcha": 4979,
    " chey": 4980,
    " karunga": 4981,
    " original": 4982,
    " responsibility": 4983,
    " waal": 4984,
    "डल": 4985,
    " encoura": 4986,
    " load": 4987,
    " path": 4988,
    " properly": 4989,
    " thi": 4990,
    "cen": 4991,
    "hys": 4992,
    " Bana": 4993,
    " Chi": 4994,
    " Respon": 4995,
    " Tension": 4996,
    " against": 4997,
    " hope": 4998,
    " naam": 4999,
    "Self": 5000,
    "nderstanding": 5001,
    " boundaries": 5002,
    " port": 5003,
    " supply": 5004,
    " आग": 5005,
    "ID": 5006,
    "elines": 5007,
    " aw": 5008,
    " dheere": 5009,
    " khel": 5010,
    " laws": 5011,
    " preferences": 5012,
    " second": 5013,
    "`.": 5014,
    "aster": 5015,
    "utation": 5016,
    "umber": 5017,
    " Ki": 5018,
    " Out": 5019,
    " aayega": 5020,
    " bhe": 5021,
    " chat": 5022,
    " close": 5023,
    " garam": 5024,
    " journey": 5025,
    " policy": 5026,
    " states": 5027,
    " vege": 5028,
    "Start": 5029,
    "py": 5030,
    "मस": 5031,
    " purpose": 5032,
    " आन": 5033,
    "Smart": 5034,
    " CS": 5035,
    "Class": 5036,
    "lim": 5037,
    " combination": 5038,
    " songs": 5039,
    " win": 5040,
    " Jo": 5041,
    " Pa": 5042,
    " URL": 5043,
    " exc": 5044,
    " kos": 5045,
    " sawal": 5046,
    "cking": 5047,
    "imum": 5048,
    "value": 5049,
    " JavaScript": 5050,
    " belief": 5051,
    " jaana": 5052,
    " lack": 5053,
    " rahenge": 5054,
    " series": 5055,
    " एप": 5056,
    "Mobile": 5057,
    " All": 5058,
    " player": 5059,
    "inf": 5060,
    "ulner": 5061,
    "working": 5062,
    "ऑल": 5063,
    " deli": 5064,
    "Mo": 5065,
    "const": 5066,
    "selves": 5067,
    " appreciate": 5068,
    " dog": 5069,
    " gir": 5070,
    " includes": 5071,
    " photo": 5072,
    "Type": 5073,
    " Define": 5074,
    " Support": 5075,
    " advanced": 5076,
    " aspects": 5077,
    " kab": 5078,
    " lot": 5079,
    " assign": 5080,
    " come": 5081,
    " doubt": 5082,
    " everyone": 5083,
    " promoting": 5084,
    " rule": 5085,
    " traffic": 5086,
    " सरक": 5087,
    "portation": 5088,
    " describe": 5089,
    " detail": 5090,
    " dishes": 5091,
    " padho": 5092,
    " perspectives": 5093,
    " structures": 5094,
    "gener": 5095,
    " Up": 5096,
    " anti": 5097,
    " apply": 5098,
    " category": 5099,
    " everything": 5100,
    " jus": 5101,
    " statement": 5102,
    "cent": 5103,
    "coming": 5104,
    "ryp": 5105,
    " Cour": 5106,
    " Sw": 5107,
    " detect": 5108,
    " favor": 5109,
    " gas": 5110,
    " operations": 5111,
    " replace": 5112,
    " road": 5113,
    "rive": 5114,
    "vings": 5115,
    "जव": 5116,
    "टरन": 5117,
    "ो-": 5118,
    " fascinating": 5119,
    " law": 5120,
    "aptop": 5121,
    "key": 5122,
    "solving": 5123,
    " Validation": 5124,
    " bahar": 5125,
    " cultures": 5126,
    " direction": 5127,
    " garden": 5128,
    "**।": 5129,
    "Regular": 5130,
    "achers": 5131,
    "bies": 5132,
    "gage": 5133,
    " One": 5134,
    " States": 5135,
    " dene": 5136,
    " existing": 5137,
    " peh": 5138,
    " rahegi": 5139,
    "apan": 5140,
    " ign": 5141,
    " United": 5142,
    " got": 5143,
    "Free": 5144,
    "category": 5145,
    "iss": 5146,
    "sure": 5147,
    "े!": 5148,
    " Analy": 5149,
    " Rakho": 5150,
    " align": 5151,
    " assess": 5152,
    " fayda": 5153,
    " phen": 5154,
    " utna": 5155,
    "MS": 5156,
    "Remember": 5157,
    "STR": 5158,
    "orms": 5159,
    "ा:": 5160,
    " 24": 5161,
    " gender": 5162,
    " galat": 5163,
    " jaan": 5164,
    "Di": 5165,
    "Get": 5166,
    "ING": 5167,
    "ache": 5168,
    "ffective": 5169,
    "ordin": 5170,
    "test": 5171,
    "इक": 5172,
    " Exper": 5173,
    " didn": 5174,
    " mistake": 5175,
    " सप": 5176,
    "User": 5177,
    "life": 5178,
    "rivate": 5179,
    "ule": 5180,
    "volution": 5181,
    " Mon": 5182,
    " Net": 5183,
    " adapt": 5184,
    " implem": 5185,
    " matches": 5186,
    " padhne": 5187,
    " parameters": 5188,
    "lines": 5189,
    " boring": 5190,
    " flexible": 5191,
    " position": 5192,
    " record": 5193,
    " select": 5194,
    " separ": 5195,
    " until": 5196,
    " आर": 5197,
    "Break": 5198,
    "Hope": 5199,
    "LE": 5200,
    "aturally": 5201,
    "hish": 5202,
    "how": 5203,
    "ryption": 5204,
    " Ass": 5205,
    " loop": 5206,
    "jectives": 5207,
    "mpor": 5208,
    " +=": 5209,
    " Sto": 5210,
    " furniture": 5211,
    " join": 5212,
    "**\"": 5213,
    "Kit": 5214,
    "dit": 5215,
    "vidence": 5216,
    " demonst": 5217,
    " exercise": 5218,
    " guidance": 5219,
    " jin": 5220,
    " refers": 5221,
    " respond": 5222,
    " write": 5223,
    "yd": 5224,
    "जल": 5225,
    " exams": 5226,
    " hob": 5227,
    " kind": 5228,
    "AB": 5229,
    "iew": 5230,
    "ifferent": 5231,
    "rime": 5232,
    " early": 5233,
    " private": 5234,
    "aybe": 5235,
    "pped": 5236,
    "urt": 5237,
    "world": 5238,
    " begin": 5239,
    " guide": 5240,
    " shared": 5241,
    " validation": 5242,
    "asta": 5243,
    " architecture": 5244,
    " chote": 5245,
    " easier": 5246,
    " ones": 5247,
    "ternative": 5248,
    " document": 5249,
    " emergency": 5250,
    " plant": 5251,
    " players": 5252,
    " transpa": 5253,
    " आएग": 5254,
    "45": 5255,
    " Phone": 5256,
    " conversation": 5257,
    " property": 5258,
    " tour": 5259,
    "18": 5260,
    "overy": 5261,
    "इसक": 5262,
    " Cal": 5263,
    " Enc": 5264,
    " Per": 5265,
    " Than": 5266,
    " index": 5267,
    "इज़": 5268,
    " Chan": 5269,
    " Cloud": 5270,
    " cause": 5271,
    " continue": 5272,
    " recei": 5273,
    " train": 5274,
    "akers": 5275,
    "nection": 5276,
    "titude": 5277,
    " Better": 5278,
    " Ja": 5279,
    " participate": 5280,
    " sequence": 5281,
    " standards": 5282,
    "Es": 5283,
    "List": 5284,
    "STRING": 5285,
    "UR": 5286,
    "];": 5287,
    "ervation": 5288,
    "rand": 5289,
    "wise": 5290,
    " Class": 5291,
    " banta": 5292,
    " chances": 5293,
    " confusion": 5294,
    " happen": 5295,
    " represent": 5296,
    "\");": 5297,
    "Fe": 5298,
    "atein": 5299,
    "रम": 5300,
    " Easy": 5301,
    " Planning": 5302,
    " advice": 5303,
    "202": 5304,
    "arity": 5305,
    "hus": 5306,
    "istence": 5307,
    "orage": 5308,
    " Management": 5309,
    " voc": 5310,
    "Isliye": 5311,
    "fessional": 5312,
    "oga": 5313,
    "ump": 5314,
    " prepare": 5315,
    " seedhe": 5316,
    " unka": 5317,
    "pi": 5318,
    "rative": 5319,
    "zon": 5320,
    "लकर": 5321,
    " She": 5322,
    " calm": 5323,
    " further": 5324,
    " reflect": 5325,
    " sil": 5326,
    " topics": 5327,
    " transfer": 5328,
    " पहच": 5329,
    ".)": 5330,
    "imal": 5331,
    " atmosp": 5332,
    " base": 5333,
    " samajhte": 5334,
    " scientific": 5335,
    " server": 5336,
    " करव": 5337,
    "Government": 5338,
    "Language": 5339,
    "eper": 5340,
    "pass": 5341,
    "ridge": 5342,
    "tate": 5343,
    "timately": 5344,
    " enough": 5345,
    " influenc": 5346,
    " pah": 5347,
    "Increased": 5348,
    "Out": 5349,
    "htt": 5350,
    "unte": 5351,
    "उन": 5352,
    " Inf": 5353,
    " Perfect": 5354,
    " badal": 5355,
    " define": 5356,
    "Unko": 5357,
    "ying": 5358,
    " %": 5359,
    " conven": 5360,
    " contains": 5361,
    " continuous": 5362,
    " je": 5363,
    " land": 5364,
    " lives": 5365,
    " messages": 5366,
    " paper": 5367,
    " tag": 5368,
    "Modern": 5369,
    "abling": 5370,
    "ceed": 5371,
    " posts": 5372,
    " principles": 5373,
    " signal": 5374,
    "ancy": 5375,
    "lam": 5376,
    "otal": 5377,
    " save": 5378,
    "itoring": 5379,
    "kkar": 5380,
    "nipp": 5381,
    " connected": 5382,
    " fayde": 5383,
    " humans": 5384,
    " prioritize": 5385,
    " spread": 5386,
    " zabardast": 5387,
    "Net": 5388,
    "hta": 5389,
    "उट": 5390,
    " Europe": 5391,
    " blood": 5392,
    " cou": 5393,
    " predictions": 5394,
    " productivity": 5395,
    " vibe": 5396,
    " अगल": 5397,
    "Current": 5398,
    "antic": 5399,
    "fol": 5400,
    " <-": 5401,
    " Em": 5402,
    " authentic": 5403,
    " background": 5404,
    " subject": 5405,
    " successful": 5406,
    " उठ": 5407,
    " एज": 5408,
    "ama": 5409,
    "bl": 5410,
    "gue": 5411,
    "supervised": 5412,
    " ir": 5413,
    " Acc": 5414,
    " Useful": 5415,
    " ang": 5416,
    " bring": 5417,
    " denge": 5418,
    " deal": 5419,
    " meeting": 5420,
    "[]": 5421,
    "arian": 5422,
    "itiz": 5423,
    "ok": 5424,
    " created": 5425,
    " forms": 5426,
    " samajhna": 5427,
    " usage": 5428,
    "://": 5429,
    "clude": 5430,
    "tech": 5431,
    " Off": 5432,
    " bus": 5433,
    " flu": 5434,
    " inten": 5435,
    " movies": 5436,
    " nar": 5437,
    " near": 5438,
    "esome": 5439,
    "most": 5440,
    " Add": 5441,
    " School": 5442,
    " collect": 5443,
    " doctor": 5444,
    " kitne": 5445,
    " parts": 5446,
    " shows": 5447,
    " technical": 5448,
    " एडजस": 5449,
    "And": 5450,
    " booking": 5451,
    " factor": 5452,
    " jayenge": 5453,
    " rice": 5454,
    " smaller": 5455,
    " therap": 5456,
    " variety": 5457,
    "alls": 5458,
    "ector": 5459,
    "site": 5460,
    "tist": 5461,
    "जब": 5462,
    " communicate": 5463,
    " fos": 5464,
    " having": 5465,
    " puzz": 5466,
    " seekhte": 5467,
    " Informative": 5468,
    " Tone": 5469,
    " chemical": 5470,
    " ment": 5471,
    " updated": 5472,
    "Bachchon": 5473,
    "CT": 5474,
    "Lack": 5475,
    "].": 5476,
    "prene": 5477,
    "rove": 5478,
    " among": 5479,
    " purana": 5480,
    " sw": 5481,
    "Just": 5482,
    "Write": 5483,
    "इमर": 5484,
    "़ु": 5485,
    " birth": 5486,
    " black": 5487,
    " dega": 5488,
    " technique": 5489,
    "ager": 5490,
    "ects": 5491,
    "phone": 5492,
    " bit": 5493,
    " cases": 5494,
    " correspon": 5495,
    " du": 5496,
    " habits": 5497,
    " labels": 5498,
    "eled": 5499,
    "inations": 5500,
    "mptoms": 5501,
    "pper": 5502,
    "reprene": 5503,
    " Education": 5504,
    " developed": 5505,
    " enabling": 5506,
    " indic": 5507,
    " अव": 5508,
    ")?": 5509,
    "Line": 5510,
    "OM": 5511,
    "def": 5512,
    "fitting": 5513,
    " evidence": 5514,
    " fire": 5515,
    " pic": 5516,
    "arr": 5517,
    "bilities": 5518,
    "order": 5519,
    " den": 5520,
    " def": 5521,
    " hair": 5522,
    " jitna": 5523,
    " koshish": 5524,
    " math": 5525,
    " pakka": 5526,
    " print": 5527,
    "Lo": 5528,
    "School": 5529,
    "dle": 5530,
    "mat": 5531,
    "plit": 5532,
    "views": 5533,
    "xy": 5534,
    " bed": 5535,
    " force": 5536,
    " ground": 5537,
    " naturally": 5538,
    " partners": 5539,
    "'d": 5540,
    "Parents": 5541,
    "alysis": 5542,
    "eved": 5543,
    " Emp": 5544,
    " Skills": 5545,
    " accuracy": 5546,
    " baking": 5547,
    " ecos": 5548,
    " highlight": 5549,
    " kharid": 5550,
    " plans": 5551,
    " snipp": 5552,
    " sensitive": 5553,
    "CI": 5554,
    "Samajh": 5555,
    "rame": 5556,
    "yaar": 5557,
    "थड": 5558,
    " Jaise": 5559,
    " bole": 5560,
    " norms": 5561,
    " सस": 5562,
    "Conf": 5563,
    "_for_c": 5564,
    "avy": 5565,
    "ohn": 5566,
    "sis": 5567,
    " days": 5568,
    " notes": 5569,
    " purcha": 5570,
    " species": 5571,
    "eedback": 5572,
    "fi": 5573,
    "ports": 5574,
    "urric": 5575,
    "using": 5576,
    " ine": 5577,
    " organize": 5578,
    " sharing": 5579,
    " tel": 5580,
    " won": 5581,
    "Positive": 5582,
    "url": 5583,
    "user": 5584,
    " aim": 5585,
    " creates": 5586,
    " failed": 5587,
    " kis": 5588,
    " scen": 5589,
    "Co": 5590,
    "Security": 5591,
    "tains": 5592,
    "ubs": 5593,
    " Aut": 5594,
    " Apps": 5595,
    " Ba": 5596,
    " Thoda": 5597,
    " chance": 5598,
    " characteristics": 5599,
    " organized": 5600,
    " recipe": 5601,
    "ginal": 5602,
    " Informational": 5603,
    " appropri": 5604,
    " discussion": 5605,
    " sna": 5606,
    " turn": 5607,
    " सबक": 5608,
    "80": 5609,
    "ered": 5610,
    "faction": 5611,
    "usted": 5612,
    "witch": 5613,
    " enti": 5614,
    " maintenance": 5615,
    " presence": 5616,
    " savings": 5617,
    " बनत": 5618,
    "box": 5619,
    "news": 5620,
    "peti": 5621,
    "rivacy": 5622,
    " //": 5623,
    " debt": 5624,
    " distribution": 5625,
    " hold": 5626,
    " profile": 5627,
    " scri": 5628,
    " tumne": 5629,
    "::": 5630,
    "Haanji": 5631,
    "UPI": 5632,
    "bad": 5633,
    "hops": 5634,
    "reedom": 5635,
    " dil": 5636,
    " promo": 5637,
    " technologies": 5638,
    "IP": 5639,
    "ader": 5640,
    "kill": 5641,
    "urants": 5642,
    "ें?": 5643,
    " :=": 5644,
    " Modern": 5645,
    " educational": 5646,
    " info": 5647,
    " involved": 5648,
    " moment": 5649,
    " sentences": 5650,
    " signs": 5651,
    " भरन": 5652,
    "LP": 5653,
    "hysical": 5654,
    "ished": 5655,
    " TV": 5656,
    " aas": 5657,
    " agree": 5658,
    " box": 5659,
    " grav": 5660,
    " innov": 5661,
    "Set": 5662,
    "optional": 5663,
    "टव": 5664,
    " Main": 5665,
    " bohot": 5666,
    " express": 5667,
    " hal": 5668,
    " improving": 5669,
    " lam": 5670,
    " rakhte": 5671,
    " एडव": 5672,
    "Chi": 5673,
    "Plus": 5674,
    "Text": 5675,
    "idity": 5676,
    "ln": 5677,
    " Control": 5678,
    " dhyaan": 5679,
    " item": 5680,
    " mark": 5681,
    " poor": 5682,
    " vary": 5683,
    " उसम": 5684,
    "Hum": 5685,
    "_v2": 5686,
    "adhai": 5687,
    "hee": 5688,
    " Over": 5689,
    " kiye": 5690,
    " protection": 5691,
    "*?": 5692,
    "----------------": 5693,
    "IT": 5694,
    " Digital": 5695,
    " Identify": 5696,
    " enables": 5697,
    " gene": 5698,
    " harm": 5699,
    " joke": 5700,
    "Yes": 5701,
    "fford": 5702,
    "iling": 5703,
    "vention": 5704,
    " beh": 5705,
    " beliefs": 5706,
    " forums": 5707,
    " framework": 5708,
    " layer": 5709,
    " mer": 5710,
    " manip": 5711,
    " profession": 5712,
    " smell": 5713,
    " specified": 5714,
    "FC": 5715,
    "cken": 5716,
    "taint": 5717,
    "tyle": 5718,
    "चत": 5719,
    " breath": 5720,
    " festiv": 5721,
    " spend": 5722,
    " white": 5723,
    "Aut": 5724,
    "Gener": 5725,
    "alance": 5726,
    "antity": 5727,
    "packed": 5728,
    "response": 5729,
    " nam": 5730,
    " occur": 5731,
    "ece": 5732,
    "ficial": 5733,
    "oration": 5734,
    "sw": 5735,
    " artists": 5736,
    " dosti": 5737,
    " facilit": 5738,
    " movement": 5739,
    " pan": 5740,
    " predict": 5741,
    " revenue": 5742,
    " resume": 5743,
    "At": 5744,
    "active": 5745,
    "aving": 5746,
    "estyle": 5747,
    "python": 5748,
    "डक": 5749,
    " academ": 5750,
    " computing": 5751,
    " mode": 5752,
    " section": 5753,
    "eving": 5754,
    "entral": 5755,
    "ystems": 5756,
    "रन": 5757,
    " Key": 5758,
    " With": 5759,
    " prec": 5760,
    "Improved": 5761,
    "ffee": 5762,
    "process": 5763,
    "rix": 5764,
    " Nor": 5765,
    " accept": 5766,
    " dal": 5767,
    "Cont": 5768,
    "Grammar": 5769,
    "eness": 5770,
    "hion": 5771,
    "pany": 5772,
    "शल": 5773,
    " DIY": 5774,
    " Japan": 5775,
    " abs": 5776,
    " aspect": 5777,
    " cryptoc": 5778,
    " currency": 5779,
    " false": 5780,
    " govern": 5781,
    " parent": 5782,
    " ran": 5783,
    " release": 5784,
    " कट": 5785,
    "_for_s": 5786,
    "item": 5787,
    "ote": 5788,
    " झ": 5789,
    " AR": 5790,
    " away": 5791,
    " accoun": 5792,
    " foods": 5793,
    " foundation": 5794,
    " getting": 5795,
    " note": 5796,
    " खतर": 5797,
    "Phir": 5798,
    "Words": 5799,
    "idered": 5800,
    "itten": 5801,
    "soft": 5802,
    " bhool": 5803,
    " behaviors": 5804,
    " biases": 5805,
    " description": 5806,
    " enhance": 5807,
    " milti": 5808,
    "($": 5809,
    "Dec": 5810,
    "Market": 5811,
    "coin": 5812,
    "इमरज": 5813,
    " badi": 5814,
    " competition": 5815,
    " dikhao": 5816,
    " equal": 5817,
    " final": 5818,
    " suitable": 5819,
    " voice": 5820,
    "Content": 5821,
    "gate": 5822,
    "nesses": 5823,
    "xts": 5824,
    "यन": 5825,
    " \"\",": 5826,
    " Life": 5827,
    " Rep": 5828,
    " Woh": 5829,
    " diag": 5830,
    " gad": 5831,
    " miss": 5832,
    " util": 5833,
    " vulner": 5834,
    "])": 5835,
    "lege": 5836,
    " First": 5837,
    " fair": 5838,
    " mentioned": 5839,
    " padhna": 5840,
    " roles": 5841,
    " seem": 5842,
    " vegetables": 5843,
    " whether": 5844,
    "Sa": 5845,
    "erve": 5846,
    "lip": 5847,
    "बज": 5848,
    " Chal": 5849,
    " YouTube": 5850,
    " [{\"": 5851,
    " atmosphere": 5852,
    " computers": 5853,
    " जम": 5854,
    "Food": 5855,
    "hna": 5856,
    "kehold": 5857,
    "year": 5858,
    " dra": 5859,
    " pow": 5860,
    " trained": 5861,
    " unse": 5862,
    "_for_b": 5863,
    "aced": 5864,
    "ifying": 5865,
    "json": 5866,
    "nife": 5867,
    "plement": 5868,
    "valu": 5869,
    "ें:": 5870,
    " aid": 5871,
    " calls": 5872,
    " der": 5873,
    " dusre": 5874,
    " quiz": 5875,
    "Id": 5876,
    "Le": 5877,
    "enefit": 5878,
    "tail": 5879,
    " Gener": 5880,
    " Value": 5881,
    " baatein": 5882,
    " built": 5883,
    " cells": 5884,
    " flavor": 5885,
    " mindfulness": 5886,
    " reach": 5887,
    " shopping": 5888,
    " studi": 5889,
    " अलर": 5890,
    " एग": 5891,
    " नमस": 5892,
    "Med": 5893,
    " rom": 5894,
    " Nahi": 5895,
    " divid": 5896,
    " finding": 5897,
    " jhag": 5898,
    " major": 5899,
    " numer": 5900,
    " सच": 5901,
    "**'": 5902,
    "erts": 5903,
    "tainty": 5904,
    "tool": 5905,
    " Gu": 5906,
    " Process": 5907,
    " entertain": 5908,
    " listening": 5909,
    " themselves": 5910,
    " treatment": 5911,
    "Bahut": 5912,
    "Education": 5913,
    "reet": 5914,
    "utter": 5915,
    "इवर": 5916,
    " appear": 5917,
    " burn": 5918,
    " opin": 5919,
    " peeche": 5920,
    "Practice": 5921,
    "cient": 5922,
    "je": 5923,
    "uilding": 5924,
    "utor": 5925,
    "ो:": 5926,
    " 25": 5927,
    " coffee": 5928,
    " considered": 5929,
    " uncer": 5930,
    "High": 5931,
    "System": 5932,
    "atives": 5933,
    "ran": 5934,
    "ufact": 5935,
    " Apple": 5936,
    " Tips": 5937,
    " boost": 5938,
    " cand": 5939,
    " office": 5940,
    " personality": 5941,
    " turant": 5942,
    " ओवरऑल": 5943,
    "Seedha": 5944,
    "ara": 5945,
    "icy": 5946,
    " **\"": 5947,
    " American": 5948,
    " children": 5949,
    " critic": 5950,
    " deeper": 5951,
    " enable": 5952,
    " limitations": 5953,
    " samajhne": 5954,
    "eah": 5955,
    "roc": 5956,
    "seed": 5957,
    "tise": 5958,
    "vision": 5959,
    " }": 5960,
    " OTP": 5961,
    " Super": 5962,
    " hidden": 5963,
    " justice": 5964,
    " ligh": 5965,
    " padha": 5966,
    "On": 5967,
    "ading": 5968,
    "iration": 5969,
    "े:": 5970,
    " peace": 5971,
    " sounds": 5972,
    " tough": 5973,
    "_of": 5974,
    "aim": 5975,
    "ecure": 5976,
    "flow": 5977,
    "level": 5978,
    "े:**": 5979,
    " ill": 5980,
    " achhe": 5981,
    " appropriate": 5982,
    " command": 5983,
    " distin": 5984,
    " fixed": 5985,
    " recognize": 5986,
    " strengths": 5987,
    "25": 5988,
    "artment": 5989,
    "duce": 5990,
    "ont": 5991,
    "ै)": 5992,
    " Security": 5993,
    " green": 5994,
    " hyd": 5995,
    " khana": 5996,
    " speaking": 5997,
    " trade": 5998,
    "hein": 5999,
    "tein": 6000,
    "uine": 6001,
    " aapne": 6002,
    " accom": 6003,
    " conflict": 6004,
    " editing": 6005,
    " explanation": 6006,
    " jayegi": 6007,
    " opp": 6008,
    " remote": 6009,
    " surface": 6010,
    "These": 6011,
    "acts": 6012,
    "dri": 6013,
    "hop": 6014,
    "ipment": 6015,
    " Fl": 6016,
    " bhej": 6017,
    " emb": 6018,
    " expenses": 6019,
    " maybe": 6020,
    " sessions": 6021,
    " styles": 6022,
    "Community": 6023,
    "Easy": 6024,
    "llen": 6025,
    "oge": 6026,
    "pet": 6027,
    "rature": 6028,
    " 18": 6029,
    " corresponding": 6030,
    " dream": 6031,
    " efficiently": 6032,
    " label": 6033,
    " started": 6034,
    " symptoms": 6035,
    "ny": 6036,
    " circ": 6037,
    " colleges": 6038,
    " lect": 6039,
    " title": 6040,
    "Like": 6041,
    "Traditional": 6042,
    "ria": 6043,
    " Banao": 6044,
    " Content": 6045,
    " appe": 6046,
    " mann": 6047,
    " od": 6048,
    " आई": 6049,
    "Important": 6050,
    "Off": 6051,
    "kin": 6052,
    "panies": 6053,
    "rencies": 6054,
    " Fr": 6055,
    " Kuch": 6056,
    " decor": 6057,
    " itself": 6058,
    " national": 6059,
    " snippet": 6060,
    " threat": 6061,
    "ler": 6062,
    " Raho": 6063,
    " capital": 6064,
    " consumption": 6065,
    " experts": 6066,
    " isko": 6067,
    " metrics": 6068,
    " pen": 6069,
    " script": 6070,
    "GB": 6071,
    "https": 6072,
    "indows": 6073,
    " Best": 6074,
    " Consider": 6075,
    " Yaar": 6076,
    " him": 6077,
    " kada": 6078,
    " rati": 6079,
    " transform": 6080,
    " उम": 6081,
    "eline": 6082,
    "timate": 6083,
    " Karna": 6084,
    " baal": 6085,
    " collection": 6086,
    " young": 6087,
    "Kyun": 6088,
    "pected": 6089,
    " dish": 6090,
    " phrases": 6091,
    " relig": 6092,
    " reliable": 6093,
    " whole": 6094,
    "ched": 6095,
    "medi": 6096,
    "ots": 6097,
    " changing": 6098,
    " coordin": 6099,
    " developers": 6100,
    " flexibility": 6101,
    " investments": 6102,
    " jati": 6103,
    " libraries": 6104,
    " measures": 6105,
    " overview": 6106,
    " restaurant": 6107,
    " row": 6108,
    "ATL": 6109,
    "ition": 6110,
    "idth": 6111,
    "inuous": 6112,
    "ocument": 6113,
    "pective": 6114,
    "बजट": 6115,
    " diye": 6116,
    " structured": 6117,
    " tests": 6118,
    " unsupervised": 6119,
    " बचन": 6120,
    "17": 6121,
    "roup": 6122,
    "रग": 6123,
    " Mo": 6124,
    " Many": 6125,
    " fuel": 6126,
    " famous": 6127,
    " implications": 6128,
    " industries": 6129,
    " lines": 6130,
    "60": 6131,
    "Communication": 6132,
    "Technology": 6133,
    "allet": 6134,
    "ials": 6135,
    "istency": 6136,
    "ulum": 6137,
    " accounts": 6138,
    " advantage": 6139,
    " channels": 6140,
    " fear": 6141,
    " fruits": 6142,
    " generation": 6143,
    " letter": 6144,
    " physics": 6145,
    " prime": 6146,
    " since": 6147,
    " sorted": 6148,
    " thodi": 6149,
    " आपस": 6150,
    ".\",": 6151,
    "Yahaan": 6152,
    "rated": 6153,
    "ी'": 6154,
    " QR": 6155,
    " approaches": 6156,
    " waise": 6157,
    " उध": 6158,
    "assion": 6159,
    "ped": 6160,
    "px": 6161,
    "utual": 6162,
    "जम": 6163,
    "बड": 6164,
    "ज़र": 6165,
    " carbon": 6166,
    " seekho": 6167,
    " transportation": 6168,
    "Man": 6169,
    "Name": 6170,
    "View": 6171,
    "_b": 6172,
    "auty": 6173,
    "ml": 6174,
    "ony": 6175,
    " abilities": 6176,
    " capabilities": 6177,
    " competitive": 6178,
    " moral": 6179,
    " repair": 6180,
    " spl": 6181,
    " wood": 6182,
    "function": 6183,
    "izer": 6184,
    "ressive": 6185,
    "roll": 6186,
    "रल": 6187,
    " according": 6188,
    " kho": 6189,
    " never": 6190,
    " resource": 6191,
    " token": 6192,
    " अर": 6193,
    "ATLAB": 6194,
    "cus": 6195,
    "sv": 6196,
    "tails": 6197,
    " Examples": 6198,
    " String": 6199,
    " empty": 6200,
    " honest": 6201,
    " recent": 6202,
    "cipline": 6203,
    "hesis": 6204,
    "jaise": 6205,
    "rench": 6206,
    " Simple": 6207,
    " behind": 6208,
    " brands": 6209,
    " comments": 6210,
    " existence": 6211,
    " forecast": 6212,
    " jaoge": 6213,
    " sets": 6214,
    " tap": 6215,
    "ague": 6216,
    "encies": 6217,
    "ona": 6218,
    " Since": 6219,
    " Web": 6220,
    " board": 6221,
    " faster": 6222,
    " fiber": 6223,
    " instant": 6224,
    " remind": 6225,
    "Example": 6226,
    "isk": 6227,
    "lar": 6228,
    "off": 6229,
    "veness": 6230,
    " Style": 6231,
    " khush": 6232,
    " milke": 6233,
    " representation": 6234,
    " setting": 6235,
    " shift": 6236,
    "Dono": 6237,
    "Fresh": 6238,
    "best": 6239,
    "lies": 6240,
    " Help": 6241,
    " Important": 6242,
    " MATLAB": 6243,
    " electron": 6244,
    " inj": 6245,
    " itne": 6246,
    "Emotional": 6247,
    "When": 6248,
    "oli": 6249,
    "rint": 6250,
    "repreneurs": 6251,
    " **'": 6252,
    " Fresh": 6253,
    " filter": 6254,
    " ignore": 6255,
    " records": 6256,
    " str": 6257,
    " traditions": 6258,
    "Internet": 6259,
    "_re": 6260,
    "bes": 6261,
    "plate": 6262,
    "sts": 6263,
    " Design": 6264,
    " Es": 6265,
    " High": 6266,
    " assum": 6267,
    " bac": 6268,
    " banks": 6269,
    " claim": 6270,
    " ensures": 6271,
    " exactly": 6272,
    " focused": 6273,
    " maza": 6274,
    " meta": 6275,
    " thing": 6276,
    "16": 6277,
    "Cour": 6278,
    "Per": 6279,
    "acebook": 6280,
    "ationship": 6281,
    "lean": 6282,
    " Cre": 6283,
    " Health": 6284,
    " comparison": 6285,
    " medic": 6286,
    " outdated": 6287,
    "Ac": 6288,
    "GET": 6289,
    "Inst": 6290,
    "Par": 6291,
    "peed": 6292,
    "sitions": 6293,
    " ul": 6294,
    " Log": 6295,
    " VR": 6296,
    " atte": 6297,
    " nutrients": 6298,
    " providers": 6299,
    "actions": 6300,
    "hand": 6301,
    "ilet": 6302,
    "ket": 6303,
    "lexibility": 6304,
    "luten": 6305,
    "nam": 6306,
    "position": 6307,
    "uth": 6308,
    " chhote": 6309,
    " depending": 6310,
    " push": 6311,
    " regions": 6312,
    " roz": 6313,
    " उसस": 6314,
    " मन": 6315,
    "Actually": 6316,
    "ardi": 6317,
    "cape": 6318,
    "quare": 6319,
    "rating": 6320,
    "usic": 6321,
    "इनल": 6322,
    " Us": 6323,
    " dates": 6324,
    " dek": 6325,
    "Apps": 6326,
    "udy": 6327,
    " Are": 6328,
    " central": 6329,
    " double": 6330,
    " evaluate": 6331,
    " particles": 6332,
    " philosophy": 6333,
    " rehti": 6334,
    " sakein": 6335,
    " universities": 6336,
    "ders": 6337,
    "eb": 6338,
    "ocation": 6339,
    "ondon": 6340,
    "ractical": 6341,
    "roid": 6342,
    " Bac": 6343,
    " Sh": 6344,
    " expos": 6345,
    " favorite": 6346,
    " interaction": 6347,
    " left": 6348,
    " neeche": 6349,
    " stakehold": 6350,
    " surround": 6351,
    "SD": 6352,
    "_search": 6353,
    "`:": 6354,
    "cra": 6355,
    "cience": 6356,
    "gon": 6357,
    "rial": 6358,
    " Swift": 6359,
    " article": 6360,
    " satisfaction": 6361,
    " speech": 6362,
    "grade": 6363,
    "land": 6364,
    "more": 6365,
    "tivation": 6366,
    "ा!": 6367,
    " frust": 6368,
    " insurance": 6369,
    " mid": 6370,
    " marks": 6371,
    " planet": 6372,
    " rese": 6373,
    " supervised": 6374,
    " पस": 6375,
    "hne": 6376,
    "isual": 6377,
    "main": 6378,
    "mall": 6379,
    "whel": 6380,
    " blockchain": 6381,
    " citiz": 6382,
    " fats": 6383,
    " highly": 6384,
    " responses": 6385,
    " struggle": 6386,
    "Ser": 6387,
    "loyment": 6388,
    "method": 6389,
    "organ": 6390,
    " Smart": 6391,
    " lagte": 6392,
    " recommendations": 6393,
    " serve": 6394,
    " tick": 6395,
    " tu": 6396,
    " taki": 6397,
    " themes": 6398,
    "map": 6399,
    "ming": 6400,
    "rend": 6401,
    "ों।": 6402,
    " Cer": 6403,
    " Micro": 6404,
    " formula": 6405,
    " institutions": 6406,
    " lights": 6407,
    "fined": 6408,
    "llenges": 6409,
    "nected": 6410,
    "ो?": 6411,
    " chain": 6412,
    " meal": 6413,
    " milenge": 6414,
    " tab": 6415,
    " texture": 6416,
    "01": 6417,
    "estern": 6418,
    " [],": 6419,
    " becomes": 6420,
    " bias": 6421,
    " initial": 6422,
    " marginal": 6423,
    " mindset": 6424,
    " ratio": 6425,
    " soil": 6426,
    "Exper": 6427,
    "Inter": 6428,
    "OS": 6429,
    "ameter": 6430,
    "aru": 6431,
    "hest": 6432,
    "ili": 6433,
    "levant": 6434,
    "query": 6435,
    "urban": 6436,
    "ऐप": 6437,
    "पह": 6438,
    " RBI": 6439,
    " Start": 6440,
    " dark": 6441,
    " documents": 6442,
    " efforts": 6443,
    " monitor": 6444,
    " vehic": 6445,
    " भल": 6446,
    "Mat": 6447,
    "_des": 6448,
    "ictionary": 6449,
    "reme": 6450,
    " appliances": 6451,
    " dial": 6452,
    " jaane": 6453,
    " lagao": 6454,
    " phrase": 6455,
    " rak": 6456,
    " rein": 6457,
    " underlying": 6458,
    "_pro": 6459,
    "cout": 6460,
    "ractions": 6461,
    "tax": 6462,
    "umb": 6463,
    " Men": 6464,
    " State": 6465,
    " [\"": 6466,
    " alternative": 6467,
    " hear": 6468,
    " laptop": 6469,
    " minimize": 6470,
    " missing": 6471,
    " months": 6472,
    " node": 6473,
    " opportunity": 6474,
    " pha": 6475,
    "123": 6476,
    "Access": 6477,
    "live": 6478,
    "udd": 6479,
    "witter": 6480,
    " artist": 6481,
    " compared": 6482,
    " conversations": 6483,
    " hypot": 6484,
    "Kaise": 6485,
    "पट": 6486,
    " Fun": 6487,
    " Tum": 6488,
    " developing": 6489,
    " keywords": 6490,
    " spices": 6491,
    "Cultural": 6492,
    "forcement": 6493,
    "icious": 6494,
    " bante": 6495,
    " decre": 6496,
    " habit": 6497,
    " jokes": 6498,
    " lit": 6499,
    " probability": 6500,
    " एल": 6501,
    "\"]": 6502,
    "Redu": 6503,
    "Students": 6504,
    "Zyada": 6505,
    "mazon": 6506,
    "mporary": 6507,
    "stal": 6508,
    "title": 6509,
    "े?": 6510,
    " breakdown": 6511,
    " dead": 6512,
    " fish": 6513,
    " mill": 6514,
    " receive": 6515,
    " teaching": 6516,
    " tracking": 6517,
    " अट": 6518,
    "PR": 6519,
    "door": 6520,
    "emp": 6521,
    "elling": 6522,
    "fric": 6523,
    "getarian": 6524,
    "related": 6525,
    "ी**": 6526,
    " Communication": 6527,
    " PIN": 6528,
    " ack": 6529,
    " afford": 6530,
    " exercises": 6531,
    " flour": 6532,
    "First": 6533,
    "Informative": 6534,
    "Plan": 6535,
    "check": 6536,
    "double": 6537,
    "efficient": 6538,
    "earn": 6539,
    "hart": 6540,
    "\n\n    ": 6541,
    " outs": 6542,
    " Lekin": 6543,
    " scenari": 6544,
    " willing": 6545,
    " ऐड": 6546,
    "Healthy": 6547,
    "vey": 6548,
    " Don": 6549,
    " Int": 6550,
    " political": 6551,
    "Cost": 6552,
    "fied": 6553,
    "inked": 6554,
    "unk": 6555,
    " cris": 6556,
    " frequency": 6557,
    " generates": 6558,
    " legal": 6559,
    " डर": 6560,
    "cloud": 6561,
    "echo": 6562,
    "gment": 6563,
    "inger": 6564,
    "irect": 6565,
    "power": 6566,
    "required": 6567,
    "stagram": 6568,
    "ung": 6569,
    " Market": 6570,
    " Open": 6571,
    " Rel": 6572,
    " offline": 6573,
    " regulations": 6574,
    " samjha": 6575,
    " sometimes": 6576,
    "enced": 6577,
    "pu": 6578,
    "tee": 6579,
    " London": 6580,
    " Ste": 6581,
    " ancient": 6582,
    " analytics": 6583,
    " attract": 6584,
    " cu": 6585,
    " literature": 6586,
    " warm": 6587,
    " इनम": 6588,
    "Open": 6589,
    "_description": 6590,
    "category_name": 6591,
    "file": 6592,
    "rief": 6593,
    "ू-": 6594,
    "ै)।": 6595,
    "ों,": 6596,
    " Mind": 6597,
    " animals": 6598,
    " freedom": 6599,
    " gap": 6600,
    " guidelines": 6601,
    " kitni": 6602,
    " produce": 6603,
    " sus": 6604,
    " saari": 6605,
    "Especially": 6606,
    "Google": 6607,
    "Int": 6608,
    "Learning": 6609,
    "culate": 6610,
    "lution": 6611,
    "rror": 6612,
    "rict": 6613,
    "yalty": 6614,
    " beauty": 6615,
    " depression": 6616,
    " expect": 6617,
    " nodes": 6618,
    " regional": 6619,
    " socho": 6620,
    "Bachche": 6621,
    "Develop": 6622,
    "Pur": 6623,
    "arty": 6624,
    "yon": 6625,
    " bachcha": 6626,
    " clus": 6627,
    " emerg": 6628,
    " miti": 6629,
    " meaningful": 6630,
    " pets": 6631,
    " professionals": 6632,
    " लगन": 6633,
    "AN": 6634,
    "alk": 6635,
    "api_description": 6636,
    "api_name": 6637,
    "city": 6638,
    "distance": 6639,
    "optional_parameters": 6640,
    "required_parameters": 6641,
    "rowth": 6642,
    "tiveness": 6643,
    "tool_name": 6644,
    " Mil": 6645,
    " Research": 6646,
    " disease": 6647,
    " minute": 6648,
    " pace": 6649,
    " phones": 6650,
    " quotes": 6651,
    " represents": 6652,
    " seekha": 6653,
    "++)": 6654,
    "Pay": 6655,
    "aged": 6656,
    "folio": 6657,
    "hird": 6658,
    "include": 6659,
    "लच": 6660,
    " Each": 6661,
    " backup": 6662,
    " dynamic": 6663,
    " layers": 6664,
    " proof": 6665,
    " puzzle": 6666,
    " recur": 6667,
    " इनफ": 6668,
    "FT": 6669,
    "Kam": 6670,
    "iet": 6671,
    "inter": 6672,
    "sentence": 6673,
    "thoda": 6674,
    " \n\n": 6675,
    " Good": 6676,
    " Red": 6677,
    " artificial": 6678,
    " kamaal": 6679,
    " nutrition": 6680,
    " tree": 6681,
    " vitam": 6682,
    "Sub": 6683,
    "_and": 6684,
    "fast": 6685,
    "length": 6686,
    "udent": 6687,
    "सन": 6688,
    " Call": 6689,
    " Free": 6690,
    " PhonePe": 6691,
    " badhta": 6692,
    " center": 6693,
    " consciousness": 6694,
    " emphasi": 6695,
    " expensive": 6696,
    " influenced": 6697,
    " mari": 6698,
    " mathematical": 6699,
    " navigate": 6700,
    "FD": 6701,
    "ooper": 6702,
    "rama": 6703,
    "ा)।": 6704,
    " Bl": 6705,
    " Done": 6706,
    " autonom": 6707,
    " genuine": 6708,
    " hui": 6709,
    " install": 6710,
    " markets": 6711,
    " tric": 6712,
    "*:**": 6713,
    "Sh": 6714,
    "ahine": 6715,
    "flo": 6716,
    "ingu": 6717,
    "jli": 6718,
    "llab": 6719,
    "plan": 6720,
    "लरल": 6721,
    " Met": 6722,
    " advance": 6723,
    " candid": 6724,
    " chicken": 6725,
    " comfort": 6726,
    " regul": 6727,
    " stakeholders": 6728,
    " translation": 6729,
    "auti": 6730,
    "illing": 6731,
    "interest": 6732,
    "rations": 6733,
    "rior": 6734,
    "rich": 6735,
    "़ो": 6736,
    " Fund": 6737,
    " expertise": 6738,
    " khe": 6739,
    " labeled": 6740,
    " larger": 6741,
    " misu": 6742,
    " pal": 6743,
    " supported": 6744,
    " wali": 6745,
    "');": 6746,
    "Th": 6747,
    "ales": 6748,
    "erce": 6749,
    "llabus": 6750,
    "tension": 6751,
    "utral": 6752,
    " Organ": 6753,
    " ama": 6754,
    " chepp": 6755,
    " friendly": 6756,
    " hor": 6757,
    " lifestyle": 6758,
    " primary": 6759,
    " restaurants": 6760,
    " significance": 6761,
    " tend": 6762,
    " tablet": 6763,
    " uncertainty": 6764,
    "cont": 6765,
    "formance": 6766,
    "specific": 6767,
    "toc": 6768,
    "इप": 6769,
    "समझ": 6770,
    " Development": 6771,
    " USD": 6772,
    " constantly": 6773,
    " cycle": 6774,
    " helping": 6775,
    " ju": 6776,
    " neur": 6777,
    "Stress": 6778,
    "UM": 6779,
    "else": 6780,
    " awesome": 6781,
    " bur": 6782,
    " dust": 6783,
    " map": 6784,
    " sele": 6785,
    " statistics": 6786,
    " unhe": 6787,
    " vacation": 6788,
    " उत": 6789,
    "Cho": 6790,
    "ded": 6791,
    "from": 6792,
    " Invest": 6793,
    " Name": 6794,
    " World": 6795,
    " detection": 6796,
    " funds": 6797,
    " seriously": 6798,
    "\"}],": 6799,
    "vance": 6800,
    " Access": 6801,
    " Real": 6802,
    " Word": 6803,
    " academic": 6804,
    " audio": 6805,
    " educ": 6806,
    " manufact": 6807,
    " maximum": 6808,
    " reputation": 6809,
    " trending": 6810,
    " wahaan": 6811,
    "Ins": 6812,
    "code": 6813,
    "cker": 6814,
    "going": 6815,
    "ients": 6816,
    "image": 6817,
    "information": 6818,
    "rypt": 6819,
    "ww": 6820,
    " Implement": 6821,
    " Mar": 6822,
    " Space": 6823,
    " agric": 6824,
    " bano": 6825,
    " hobbies": 6826,
    " meals": 6827,
    " playing": 6828,
    " studies": 6829,
    " vision": 6830,
    "Kitchen": 6831,
    "_de": 6832,
    "cal": 6833,
    "cribe": 6834,
    "illed": 6835,
    "zyada": 6836,
    "इव": 6837,
    " urban": 6838,
    " amazing": 6839,
    " lik": 6840,
    " mechanisms": 6841,
    " overfitting": 6842,
    " remove": 6843,
    "78": 6844,
    "Emergency": 6845,
    "asts": 6846,
    "asure": 6847,
    "husi": 6848,
    "kens": 6849,
    "max": 6850,
    "nt": 6851,
    "✔️": 6852,
    " Ek": 6853,
    " Every": 6854,
    " God": 6855,
    " Provide": 6856,
    " attrib": 6857,
    " bache": 6858,
    " cross": 6859,
    " expand": 6860,
    " lighting": 6861,
    " novel": 6862,
    " relative": 6863,
    " researc": 6864,
    "Element": 6865,
    "HP": 6866,
    "Make": 6867,
    "None": 6868,
    "anger": 6869,
    "connected": 6870,
    "itude": 6871,
    "mt": 6872,
    " 16": 6873,
    " South": 6874,
    " accompl": 6875,
    " bolna": 6876,
    " breakup": 6877,
    " buy": 6878,
    " equipment": 6879,
    " flav": 6880,
    " interpre": 6881,
    " rehne": 6882,
    " wrong": 6883,
    "?)": 6884,
    "Apna": 6885,
    "Local": 6886,
    "hara": 6887,
    "ideo": 6888,
    "ommod": 6889,
    "ा**": 6890,
    " baith": 6891,
    " codes": 6892,
    " centers": 6893,
    " concent": 6894,
    " faayda": 6895,
    " forward": 6896,
    " kap": 6897,
    " labor": 6898,
    " mahine": 6899,
    " overwhel": 6900,
    " packed": 6901,
    " tran": 6902,
    "Ass": 6903,
    "Enc": 6904,
    "aur": 6905,
    "easy": 6906,
    "house": 6907,
    "plete": 6908,
    " Response": 6909,
    " bright": 6910,
    " chip": 6911,
    " chart": 6912,
    " creation": 6913,
    " enthusi": 6914,
    " fig": 6915,
    " inclusive": 6916,
    " knife": 6917,
    " micro": 6918,
    " overcome": 6919,
    " put": 6920,
    "Some": 6921,
    "Teachers": 6922,
    "abul": 6923,
    "car": 6924,
    "icated": 6925,
    "issions": 6926,
    "long": 6927,
    "sub": 6928,
    "uries": 6929,
    " divide": 6930,
    " diseases": 6931,
    " generated": 6932,
    " incorporate": 6933,
    " shel": 6934,
    " visi": 6935,
    " watch": 6936,
    " workshops": 6937,
    " परस": 6938,
    "Soft": 6939,
    "hud": 6940,
    "itage": 6941,
    "numbers": 6942,
    "ossible": 6943,
    "raction": 6944,
    "result": 6945,
    "ustry": 6946,
    "\n\n ": 6947,
    " Bank": 6948,
    " SE": 6949,
    " achche": 6950,
    " addition": 6951,
    " bataata": 6952,
    " facts": 6953,
    " inflation": 6954,
    " innovative": 6955,
    " learners": 6956,
    " nikaal": 6957,
    " stuff": 6958,
    " बदलत": 6959,
    "0000": 6960,
    "Suno": 6961,
    "[\"": 6962,
    "duction": 6963,
    "erv": 6964,
    "ographic": 6965,
    "tifications": 6966,
    "नद": 6967,
    "पहल": 6968,
    " 😎": 6969,
    " bra": 6970,
    " badhega": 6971,
    " cul": 6972,
    " copy": 6973,
    " ded": 6974,
    " mu": 6975,
    " vast": 6976,
    " vegan": 6977,
    "_news": 6978,
    "areer": 6979,
    "lectric": 6980,
    "onym": 6981,
    "owered": 6982,
    "rocery": 6983,
    " Encourage": 6984,
    " Facebook": 6985,
    " Sun": 6986,
    " dikhega": 6987,
    " grap": 6988,
    " kids": 6989,
    " plays": 6990,
    " reward": 6991,
    " solar": 6992,
    " visit": 6993,
    "Who": 6994,
    "abulary": 6995,
    "eration": 6996,
    "ie": 6997,
    "number": 6998,
    "pace": 6999,
    "सपर": 7000,
    " aware": 7001,
    " barri": 7002,
    " doesn": 7003,
    " entire": 7004,
    " implementing": 7005,
    " integration": 7006,
    " spaces": 7007,
    " throughout": 7008,
    " wall": 7009,
    " आमत": 7010,
    " ईम": 7011,
    "Create": 7012,
    "Dost": 7013,
    "Health": 7014,
    "acity": 7015,
    "gy": 7016,
    "pid": 7017,
    "ीं:**": 7018,
    " Lim": 7019,
    " checks": 7020,
    " counter": 7021,
    " dikhate": 7022,
    " jaayenge": 7023,
    " leg": 7024,
    "Yaar": 7025,
    "cell": 7026,
    "color": 7027,
    "hite": 7028,
    "ild": 7029,
    "plot": 7030,
    "rupt": 7031,
    "telling": 7032,
    " catch": 7033,
    " passion": 7034,
    " remains": 7035,
    " split": 7036,
    " worth": 7037,
    " अल": 7038,
    " तरफ": 7039,
    "sen": 7040,
    "weight": 7041,
    "yu": 7042,
    " Current": 7043,
    " Ensure": 7044,
    " King": 7045,
    " Paytm": 7046,
    " benefit": 7047,
    " classification": 7048,
    " exploring": 7049,
    " implementation": 7050,
    " repl": 7051,
    " void": 7052,
    "Examples": 7053,
    "Naye": 7054,
    "PA": 7055,
    "While": 7056,
    "aon": 7057,
    "abe": 7058,
    "ancing": 7059,
    "hum": 7060,
    "orn": 7061,
    " AS": 7062,
    " Ap": 7063,
    " discrim": 7064,
    " egg": 7065,
    " kuchh": 7066,
    " potentially": 7067,
    "Up": 7068,
    "_of_": 7069,
    "gets": 7070,
    "ottom": 7071,
    "tection": 7072,
    "ी)": 7073,
    " Afric": 7074,
    " experim": 7075,
    " expert": 7076,
    " modified": 7077,
    " monitoring": 7078,
    " rapid": 7079,
    " standard": 7080,
    "estion": 7081,
    "hamak": 7082,
    "ropy": 7083,
    "yes": 7084,
    "रण": 7085,
    " Just": 7086,
    " depth": 7087,
    " romantic": 7088,
    " stop": 7089,
    " waale": 7090,
    " शर": 7091,
    "Paani": 7092,
    "Physical": 7093,
    "There": 7094,
    " adult": 7095,
    " cup": 7096,
    " infin": 7097,
    " relaxation": 7098,
    " wise": 7099,
    " zone": 7100,
    "99": 7101,
    "Apni": 7102,
    "Environment": 7103,
    "actually": 7104,
    "aroori": 7105,
    "cending": 7106,
    "pecial": 7107,
    "tification": 7108,
    " banata": 7109,
    " switch": 7110,
    "Fun": 7111,
    "Financial": 7112,
    "SS": 7113,
    "mic": 7114,
    "smart": 7115,
    "एम": 7116,
    " Avoid": 7117,
    " Inter": 7118,
    " List": 7119,
    " Mobile": 7120,
    " bataunga": 7121,
    " chakkar": 7122,
    " distinct": 7123,
    " film": 7124,
    " hol": 7125,
    " khaana": 7126,
    " mazaa": 7127,
    " red": 7128,
    " resulting": 7129,
    " viol": 7130,
    "Skills": 7131,
    "az": 7132,
    "aker": 7133,
    "cony": 7134,
    "estic": 7135,
    "gest": 7136,
    "gger": 7137,
    "inst": 7138,
    "orders": 7139,
    "predic": 7140,
    "paration": 7141,
    " IT": 7142,
    " War": 7143,
    " analyzing": 7144,
    " heavy": 7145,
    " locations": 7146,
    " magic": 7147,
    " mole": 7148,
    "24": 7149,
    "BSE": 7150,
    "Packed": 7151,
    "atience": 7152,
    "ister": 7153,
    "pite": 7154,
    " Break": 7155,
    " Gre": 7156,
    " Test": 7157,
    " Tools": 7158,
    " breaks": 7159,
    " establish": 7160,
    " five": 7161,
    " gest": 7162,
    " genetic": 7163,
    " motivated": 7164,
    " suggests": 7165,
    "Cre": 7166,
    "Job": 7167,
    "NS": 7168,
    "Quality": 7169,
    "_st": 7170,
    "apas": 7171,
    "elt": 7172,
    "essage": 7173,
    "nown": 7174,
    "vironments": 7175,
    "एस": 7176,
    " iron": 7177,
    " 80": 7178,
    " bathroom": 7179,
    " curric": 7180,
    " expressions": 7181,
    " pair": 7182,
    " rob": 7183,
    " static": 7184,
    "atar": 7185,
    "centage": 7186,
    "hetic": 7187,
    "ticip": 7188,
    "with": 7189,
    "बह": 7190,
    "े)": 7191,
    " Connection": 7192,
    " Contextual": 7193,
    " Intern": 7194,
    " added": 7195,
    " dikhta": 7196,
    " discover": 7197,
    " eye": 7198,
    " emails": 7199,
    " employee": 7200,
    " engineering": 7201,
    " entrepreneurs": 7202,
    " fashion": 7203,
    " improved": 7204,
    " independent": 7205,
    " kaisa": 7206,
    " lad": 7207,
    " len": 7208,
    " race": 7209,
    " scores": 7210,
    " sweet": 7211,
    " tail": 7212,
    " wind": 7213,
    "Keep": 7214,
    "_t": 7215,
    "ctu": 7216,
    "gn": 7217,
    "hal": 7218,
    "via": 7219,
    "टन": 7220,
    " Dep": 7221,
    " Game": 7222,
    " component": 7223,
    " cream": 7224,
    " festivals": 7225,
    " inspiration": 7226,
    " phenomen": 7227,
    " prompt": 7228,
    " तभ": 7229,
    "Code": 7230,
    "ask": 7231,
    "hist": 7232,
    "riteria": 7233,
    "ux": 7234,
    "टनर": 7235,
    "यत": 7236,
    " Food": 7237,
    " channel": 7238,
    " dimension": 7239,
    " four": 7240,
    " finance": 7241,
    " informational": 7242,
    " longer": 7243,
    " mass": 7244,
    " snacks": 7245,
    " taraf": 7246,
    " बर": 7247,
    "English": 7248,
    "Enhan": 7249,
    "Ver": 7250,
    "acc": 7251,
    "bed": 7252,
    "effective": 7253,
    "ilience": 7254,
    "vanta": 7255,
    " APIs": 7256,
    " Choose": 7257,
    " Kare": 7258,
    " Make": 7259,
    " ast": 7260,
    " floor": 7261,
    " leads": 7262,
    " stores": 7263,
    " talking": 7264,
    " सल": 7265,
    "Global": 7266,
    "Structured": 7267,
    "_count": 7268,
    "comm": 7269,
    "conf": 7270,
    "country": 7271,
    "net": 7272,
    "titution": 7273,
    "vere": 7274,
    "xic": 7275,
    "इफस": 7276,
    " Amazon": 7277,
    " Karne": 7278,
    " conflicts": 7279,
    " height": 7280,
    " optimization": 7281,
    " resolution": 7282,
    " soc": 7283,
    " trading": 7284,
    " written": 7285,
    "eral": 7286,
    "giveness": 7287,
    "ivil": 7288,
    "olving": 7289,
    "pop": 7290,
    "सह": 7291,
    " DNA": 7292,
    " eating": 7293,
    " instance": 7294,
    " integr": 7295,
    " mal": 7296,
    " pun": 7297,
    " phenomenon": 7298,
    " secret": 7299,
    " uska": 7300,
    "75": 7301,
    "Console": 7302,
    "Wor": 7303,
    "bly": 7304,
    "fresh": 7305,
    "hotos": 7306,
    "ians": 7307,
    "orien": 7308,
    "ुं": 7309,
    " Mod": 7310,
    " absol": 7311,
    " campaigns": 7312,
    " commonly": 7313,
    " continues": 7314,
    " ecosystem": 7315,
    " environments": 7316,
    " hotels": 7317,
    " investing": 7318,
    " investors": 7319,
    " neighb": 7320,
    " paint": 7321,
    " researchers": 7322,
    " stored": 7323,
    " sustainability": 7324,
    " walk": 7325,
    " आय": 7326,
    "arante": 7327,
    "ev": 7328,
    "eld": 7329,
    "igning": 7330,
    "oman": 7331,
    "ried": 7332,
    "tential": 7333,
    " Chin": 7334,
    " Hum": 7335,
    " Hota": 7336,
    " PHP": 7337,
    " adver": 7338,
    " busy": 7339,
    " cannot": 7340,
    " farm": 7341,
    " immedi": 7342,
    "If": 7343,
    "grounds": 7344,
    "ocon": 7345,
    "safe": 7346,
    "ूँ।": 7347,
    " Car": 7348,
    " Instagram": 7349,
    " Maybe": 7350,
    " Understanding": 7351,
    " accountability": 7352,
    " contrast": 7353,
    " tables": 7354,
    " zero": 7355,
    "Add": 7356,
    "atforms": 7357,
    "clear": 7358,
    "itti": 7359,
    "proof": 7360,
    "reot": 7361,
    "weather": 7362,
    " accomplish": 7363,
    " achchi": 7364,
    " adding": 7365,
    " availability": 7366,
    " coordinates": 7367,
    " dekhne": 7368,
    " dimag": 7369,
    " gift": 7370,
    " growing": 7371,
    " interface": 7372,
    " lock": 7373,
    " pyaar": 7374,
    " proceed": 7375,
    " seeds": 7376,
    "Balance": 7377,
    "Safety": 7378,
    "eries": 7379,
    "ior": 7380,
    "ored": 7381,
    "osing": 7382,
    "stood": 7383,
    " Deli": 7384,
    " fraud": 7385,
    " isol": 7386,
    " lands": 7387,
    " limits": 7388,
    " maintaining": 7389,
    " ni": 7390,
    " pahunch": 7391,
    " rahoge": 7392,
    " react": 7393,
    "Multi": 7394,
    "Personalized": 7395,
    "arily": 7396,
    "bu": 7397,
    " Boss": 7398,
    " Clear": 7399,
    " Load": 7400,
    " Not": 7401,
    " balanced": 7402,
    " completely": 7403,
    " leadership": 7404,
    " little": 7405,
    " statements": 7406,
    " widely": 7407,
    " zam": 7408,
    "90": 7409,
    "AM": 7410,
    "Flexibility": 7411,
    "Rep": 7412,
    "awareness": 7413,
    "aby": 7414,
    "achines": 7415,
    "char": 7416,
    "clusive": 7417,
    "daar": 7418,
    "is_id": 7419,
    "oint": 7420,
    "oconut": 7421,
    "println": 7422,
    "water": 7423,
    " XML": 7424,
    " aane": 7425,
    " compati": 7426,
    " domin": 7427,
    " gluten": 7428,
    " pakad": 7429,
    " profit": 7430,
    " yahaan": 7431,
    "Acc": 7432,
    "Chhote": 7433,
    "rees": 7434,
    "ुँ": 7435,
    " Establish": 7436,
    " IP": 7437,
    " Self": 7438,
    " encryption": 7439,
    " fall": 7440,
    " frameworks": 7441,
    " linear": 7442,
    " medium": 7443,
    " plot": 7444,
    " peer": 7445,
    " scale": 7446,
    " इफ": 7447,
    "Bl": 7448,
    "Dekh": 7449,
    "Mon": 7450,
    "PN": 7451,
    "entralized": 7452,
    "func": 7453,
    "imilar": 7454,
    "modern": 7455,
    "nel": 7456,
    "ogue": 7457,
    "person": 7458,
    "tify": 7459,
    "uming": 7460,
    "कसद": 7461,
    " Chill": 7462,
    " Get": 7463,
    " actual": 7464,
    " fully": 7465,
    " heritage": 7466,
    " integra": 7467,
    " isliye": 7468,
    " khao": 7469,
    " picture": 7470,
    " root": 7471,
    " sector": 7472,
    " weaknesses": 7473,
    "break": 7474,
    "erman": 7475,
    "riends": 7476,
    " Play": 7477,
    " Prog": 7478,
    " Safety": 7479,
    " Seedha": 7480,
    " king": 7481,
    " matrix": 7482,
    " neuro": 7483,
    " outcome": 7484,
    " pollution": 7485,
    " stocks": 7486,
    " tutor": 7487,
    " upcoming": 7488,
    "500": 7489,
    "PU": 7490,
    "Problem": 7491,
    "ensity": 7492,
    "focus": 7493,
    "index": 7494,
    "ptim": 7495,
    "vo": 7496,
    "एबल": 7497,
    "गत": 7498,
    "\n        ": 7499,
    " La": 7500,
    " Ma": 7501,
    " criteria": 7502,
    " click": 7503,
    " fan": 7504,
    " named": 7505,
    " yoga": 7506,
    "ela": 7507,
    "private": 7508,
    "uce": 7509,
    "yam": 7510,
    " \"\"},": 7511,
    " death": 7512,
    " fake": 7513,
    " football": 7514,
    " guess": 7515,
    " humor": 7516,
    " kaunsa": 7517,
    " paid": 7518,
    " regression": 7519,
    " responsibilities": 7520,
    " square": 7521,
    " significantly": 7522,
    "Clear": 7523,
    "Finally": 7524,
    "Life": 7525,
    "aane": 7526,
    "agues": 7527,
    "dient": 7528,
    "driven": 7529,
    "igen": 7530,
    "odies": 7531,
    "online": 7532,
    "ussa": 7533,
    "yan": 7534,
    "बत": 7535,
    "मतलब": 7536,
    " Level": 7537,
    " User": 7538,
    " badhti": 7539,
    " celebrate": 7540,
    " mir": 7541,
    " playlist": 7542,
    " roti": 7543,
    " spending": 7544,
    " theme": 7545,
    "Good": 7546,
    "awa": 7547,
    "brid": 7548,
    "finitely": 7549,
    "ita": 7550,
    "personal": 7551,
    "tude": 7552,
    "tian": 7553,
    "urg": 7554,
    " Rub": 7555,
    " citizens": 7556,
    " parameter": 7557,
    " restric": 7558,
    " sake": 7559,
    " volunte": 7560,
    " wait": 7561,
    "Competi": 7562,
    "Team": 7563,
    "Unke": 7564,
    "append": 7565,
    "ekdum": 7566,
    "email": 7567,
    "iter": 7568,
    "mium": 7569,
    "ortive": 7570,
    "where": 7571,
    "zation": 7572,
    " 60": 7573,
    " Zabardast": 7574,
    " Zyada": 7575,
    " assignments": 7576,
    " calculates": 7577,
    " conversion": 7578,
    " encourages": 7579,
    " leak": 7580,
    " loyalty": 7581,
    " motion": 7582,
    " outputs": 7583,
    " rural": 7584,
    " regar": 7585,
    " subjects": 7586,
    " unit": 7587,
    "API": 7588,
    "Breakup": 7589,
    "FA": 7590,
    "One": 7591,
    "TF": 7592,
    "agar": 7593,
    "amine": 7594,
    "ict": 7595,
    "riting": 7596,
    "racter": 7597,
    "tas": 7598,
    "width": 7599,
    "ऑनल": 7600,
    " 40": 7601,
    " backgrounds": 7602,
    " boards": 7603,
    " driving": 7604,
    " expected": 7605,
    " friendship": 7606,
    " identifying": 7607,
    " outside": 7608,
    " vector": 7609,
    ":*": 7610,
    "NoneType": 7611,
    "WriteLine": 7612,
    "erals": 7613,
    "etal": 7614,
    "lights": 7615,
    "lamm": 7616,
    "ront": 7617,
    " Pehle": 7618,
    " acha": 7619,
    " bore": 7620,
    " containers": 7621,
    " hardware": 7622,
    " profound": 7623,
    " quantity": 7624,
    "Body": 7625,
    "Che": 7626,
    "LECT": 7627,
    "PF": 7628,
    "Tension": 7629,
    "_to": 7630,
    "ised": 7631,
    "leaning": 7632,
    "mind": 7633,
    "orp": 7634,
    "template": 7635,
    " Pol": 7636,
    " Samajh": 7637,
    " emotion": 7638,
    " ethical": 7639,
    " experiment": 7640,
    " suggestions": 7641,
    "'**": 7642,
    "Energy": 7643,
    "Lim": 7644,
    "Natural": 7645,
    "Padhai": 7646,
    "Relationship": 7647,
    "ailable": 7648,
    "ariety": 7649,
    "ayein": 7650,
    "backs": 7651,
    "ino": 7652,
    "ising": 7653,
    "nal": 7654,
    "oster": 7655,
    "web": 7656,
    "टवर": 7657,
    "ैं?**": 7658,
    " Alag": 7659,
    " Instead": 7660,
    " Personal": 7661,
    " Remember": 7662,
    " Regular": 7663,
    " Regularly": 7664,
    " applied": 7665,
    " dynamics": 7666,
    " feels": 7667,
    " lessons": 7668,
    " moist": 7669,
    " myself": 7670,
    " noise": 7671,
    " places": 7672,
    " sell": 7673,
    " separate": 7674,
    " आईड": 7675,
    "_response": 7676,
    "asting": 7677,
    "engi": 7678,
    "kele": 7679,
    " CO": 7680,
    " Family": 7681,
    " John": 7682,
    " Microsoft": 7683,
    " ST": 7684,
    " adults": 7685,
    " causes": 7686,
    " electrical": 7687,
    " gaon": 7688,
    " internal": 7689,
    " possi": 7690,
    "ived": 7691,
    "mark": 7692,
    "oriented": 7693,
    "rip": 7694,
    "swers": 7695,
    " Karte": 7696,
    " Thank": 7697,
    " accommod": 7698,
    " blog": 7699,
    " capture": 7700,
    " haath": 7701,
    " likho": 7702,
    " member": 7703,
    " memories": 7704,
    " therapy": 7705,
    " आख": 7706,
    " इश": 7707,
    ")?**": 7708,
    "Age": 7709,
    "Support": 7710,
    "loyee": 7711,
    "nderstandings": 7712,
    "seling": 7713,
    "toh": 7714,
    " asked": 7715,
    " assistance": 7716,
    " cryptocurrency": 7717,
    " facilities": 7718,
    " highest": 7719,
    " kharche": 7720,
    " luck": 7721,
    " meat": 7722,
    " numerous": 7723,
    " perpet": 7724,
    "Number": 7725,
    "Privacy": 7726,
    "ellow": 7727,
    "hoti": 7728,
    "important": 7729,
    "mony": 7730,
    "netic": 7731,
    "novation": 7732,
    "opt": 7733,
    "phones": 7734,
    "rome": 7735,
    " !": 7736,
    " Japanese": 7737,
    " Ruby": 7738,
    " []": 7739,
    " bon": 7740,
    " facilitate": 7741,
    " fitness": 7742,
    " neend": 7743,
    " perce": 7744,
    "Work": 7745,
    "_tra": 7746,
    "alities": 7747,
    "bersecurity": 7748,
    "iry": 7749,
    "ker": 7750,
    "kya": 7751,
    "lob": 7752,
    "sum": 7753,
    "tising": 7754,
    "vert": 7755,
    "yond": 7756,
    "छल": 7757,
    "ै.": 7758,
    " Bhai": 7759,
    " Kha": 7760,
    " accordingly": 7761,
    " attacks": 7762,
    " baaki": 7763,
    " birthday": 7764,
    " cooper": 7765,
    " dol": 7766,
    " goods": 7767,
    " invent": 7768,
    " keh": 7769,
    " pade": 7770,
    " resistance": 7771,
    " tumko": 7772,
    "Full": 7773,
    "_g": 7774,
    "bots": 7775,
    "expected": 7776,
    "fort": 7777,
    "lete": 7778,
    "ounter": 7779,
    " Feel": 7780,
    " Okay": 7781,
    " Twitter": 7782,
    " Work": 7783,
    " ago": 7784,
    " button": 7785,
    " exploration": 7786,
    " minimum": 7787,
    " percentage": 7788,
    " rac": 7789,
    " threats": 7790,
    " transparency": 7791,
    "Different": 7792,
    "Error": 7793,
    "amesha": 7794,
    "eds": 7795,
    "plo": 7796,
    "racts": 7797,
    "rooms": 7798,
    "uild": 7799,
    "मह": 7800,
    "वन": 7801,
    " Inc": 7802,
    " Light": 7803,
    " Min": 7804,
    " ads": 7805,
    " dance": 7806,
    " gho": 7807,
    " neurons": 7808,
    " ownership": 7809,
    " passwords": 7810,
    " pot": 7811,
    " weekend": 7812,
    "Light": 7813,
    "OO": 7814,
    "Of": 7815,
    "aneous": 7816,
    "chron": 7817,
    "chedule": 7818,
    "ckers": 7819,
    "inkedIn": 7820,
    "newable": 7821,
    "oda": 7822,
    "puts": 7823,
    "start": 7824,
    "इजर": 7825,
    " Mis": 7826,
    " Once": 7827,
    " accurately": 7828,
    " chhod": 7829,
    " danger": 7830,
    " filters": 7831,
    " inputs": 7832,
    " jhagde": 7833,
    " menu": 7834,
    " milk": 7835,
    " priority": 7836,
    " rise": 7837,
    " salary": 7838,
    " scientists": 7839,
    " worry": 7840,
    " ओक": 7841,
    "Credit": 7842,
    "Kisi": 7843,
    "YC": 7844,
    "ban": 7845,
    "faces": 7846,
    "ifier": 7847,
    "itement": 7848,
    "mi": 7849,
    "ousing": 7850,
    "puter": 7851,
    "teria": 7852,
    " Aaj": 7853,
    " Using": 7854,
    " camera": 7855,
    " contract": 7856,
    " gradu": 7857,
    " independence": 7858,
    " initiatives": 7859,
    " instruction": 7860,
    " lagti": 7861,
    " proced": 7862,
    " respective": 7863,
    " rock": 7864,
    " send": 7865,
    " visually": 7866,
    " एफ": 7867,
    "Budget": 7868,
    "IM": 7869,
    "Trust": 7870,
    "books": 7871,
    "ku": 7872,
    "laboration": 7873,
    "romise": 7874,
    " Ag": 7875,
    " Calculate": 7876,
    " Karein": 7877,
    " Model": 7878,
    " Practice": 7879,
    " Ret": 7880,
    " badhane": 7881,
    " baithe": 7882,
    " deti": 7883,
    " evolution": 7884,
    " gaming": 7885,
    " happiness": 7886,
    " jaa": 7887,
    " running": 7888,
    "Lab": 7889,
    "Ob": 7890,
    "amb": 7891,
    "amj": 7892,
    "atitude": 7893,
    "gation": 7894,
    "gging": 7895,
    "known": 7896,
    "uests": 7897,
    "used": 7898,
    " Analysis": 7899,
    " Rate": 7900,
    " Training": 7901,
    " above": 7902,
    " actively": 7903,
    " angle": 7904,
    " extreme": 7905,
    " fight": 7906,
    " lectures": 7907,
    " memes": 7908,
    " movements": 7909,
    " opinions": 7910,
    " piece": 7911,
    " recovery": 7912,
    " reson": 7913,
    " shor": 7914,
    " survi": 7915,
    " texts": 7916,
    " vacc": 7917,
    "Enter": 7918,
    "Pol": 7919,
    "inder": 7920,
    "jeeb": 7921,
    "ltimately": 7922,
    "sed": 7923,
    " Natural": 7924,
    " Structure": 7925,
    " destination": 7926,
    " ep": 7927,
    " ideal": 7928,
    " jaake": 7929,
    " letters": 7930,
    " ongoing": 7931,
    " prepared": 7932,
    " radio": 7933,
    " seedhi": 7934,
    " stable": 7935,
    "2022": 7936,
    "Challenges": 7937,
    "Public": 7938,
    "float": 7939,
    "powered": 7940,
    "renti": 7941,
    "rypto": 7942,
    "template_response": 7943,
    "ं।": 7944,
    " French": 7945,
    " Nahin": 7946,
    " authority": 7947,
    " bhara": 7948,
    " categor": 7949,
    " drain": 7950,
    " gut": 7951,
    " hier": 7952,
    " occurs": 7953,
    " rewards": 7954,
    " बढ़त": 7955,
    " हफ": 7956,
    "->": 7957,
    "200": 7958,
    "Supp": 7959,
    "Wa": 7960,
    "rectly": 7961,
    "seedha": 7962,
    "ैं)": 7963,
    " 👍": 7964,
    " Pres": 7965,
    " allocation": 7966,
    " century": 7967,
    " emissions": 7968,
    " hyper": 7969,
    " kud": 7970,
    " servers": 7971,
    " signals": 7972,
    " trivia": 7973,
    " usse": 7974,
    " मकसद": 7975,
    "IC": 7976,
    "SA": 7977,
    "hamaka": 7978,
    "ither": 7979,
    "rypted": 7980,
    "आउट": 7981,
    " Impact": 7982,
    " Improve": 7983,
    " adds": 7984,
    " commitment": 7985,
    " edge": 7986,
    " gravity": 7987,
    " interconnected": 7988,
    " learned": 7989,
    " moun": 7990,
    " milegi": 7991,
    " poocho": 7992,
    " specifying": 7993,
    " tight": 7994,
    " vocational": 7995,
    " workers": 7996,
    " ye": 7997,
    "Uni": 7998,
    "cling": 7999,
    "entle": 8000,
    "hegi": 8001,
    "ided": 8002,
    "lice": 8003,
    " accel": 8004,
    " bran": 8005,
    " curriculum": 8006,
    " dar": 8007,
    " linked": 8008,
    " logic": 8009,
    " narrative": 8010,
    " scan": 8011,
    " sharp": 8012,
    " shelves": 8013,
    " stereot": 8014,
    "';": 8015,
    "33": 8016,
    "Non": 8017,
    "Ready": 8018,
    "_by_": 8019,
    "ench": 8020,
    "flection": 8021,
    "icon": 8022,
    " CV": 8023,
    " CSV": 8024,
    " Ver": 8025,
    " agriculture": 8026,
    " alb": 8027,
    " answers": 8028,
    " belong": 8029,
    " continu": 8030,
    " discrimination": 8031,
    " links": 8032,
    " mitigate": 8033,
    " nuts": 8034,
    " portfolio": 8035,
    " seeking": 8036,
    " हट": 8037,
    "Enti": 8038,
    "Organ": 8039,
    "conomic": 8040,
    "high": 8041,
    "liance": 8042,
    "nic": 8043,
    " Form": 8044,
    " Kit": 8045,
    " NB": 8046,
    " Sub": 8047,
    " Storage": 8048,
    " asset": 8049,
    " blocks": 8050,
    " charge": 8051,
    " containing": 8052,
    " equation": 8053,
    " hurt": 8054,
    " inspire": 8055,
    " jam": 8056,
    " lately": 8057,
    " poochho": 8058,
    " prefer": 8059,
    " salt": 8060,
    "Bo": 8061,
    "endar": 8062,
    "eting": 8063,
    "mm": 8064,
    "plex": 8065,
    "unt": 8066,
    "कट": 8067,
    "सभ": 8068,
    " Engage": 8069,
    " Ghar": 8070,
    " Mom": 8071,
    " achievements": 8072,
    " adopt": 8073,
    " asli": 8074,
    " cab": 8075,
    " hotel": 8076,
    " ly": 8077,
    " once": 8078,
    " quizzes": 8079,
    " traits": 8080,
    " vitamins": 8081,
    "Gra": 8082,
    "Take": 8083,
    "lements": 8084,
    "ronic": 8085,
    " Bach": 8086,
    " Excel": 8087,
    " Systems": 8088,
    " absor": 8089,
    " careful": 8090,
    " columns": 8091,
    " conte": 8092,
    " jaayein": 8093,
    " maang": 8094,
    " managing": 8095,
    " reduction": 8096,
    " shown": 8097,
    " tujhe": 8098,
    " verify": 8099,
    " wri": 8100,
    "Alag": 8101,
    "Inko": 8102,
    "autiful": 8103,
    "gration": 8104,
    "hats": 8105,
    "ios": 8106,
    "itary": 8107,
    "ora": 8108,
    "sem": 8109,
    "tivities": 8110,
    " এ": 8111,
    " 😊": 8112,
    " City": 8113,
    " Touch": 8114,
    " deliver": 8115,
    " fridge": 8116,
    " impacts": 8117,
    " kahaan": 8118,
    " networking": 8119,
    " purane": 8120,
    " transparent": 8121,
    " yet": 8122,
    "Benefits": 8123,
    "Hy": 8124,
    "Types": 8125,
    "hishing": 8126,
    "idents": 8127,
    "irus": 8128,
    "pres": 8129,
    "press": 8130,
    "rance": 8131,
    "sort": 8132,
    "zar": 8133,
    "কদ": 8134,
    "কদম": 8135,
    " Hi": 8136,
    " conservation": 8137,
    " constra": 8138,
    " daalte": 8139,
    " entry": 8140,
    " fer": 8141,
    " interview": 8142,
    " mujhe": 8143,
    " manager": 8144,
    " package": 8145,
    " padte": 8146,
    " readers": 8147,
    " syllabus": 8148,
    " vegetarian": 8149,
    " wonder": 8150,
    " एयर": 8151,
    "NT": 8152,
    "alle": 8153,
    "fmt": 8154,
    "lished": 8155,
    "open": 8156,
    "try": 8157,
    "teem": 8158,
    "uko": 8159,
    " Long": 8160,
    " Mem": 8161,
    " ajeeb": 8162,
    " conduct": 8163,
    " dictionary": 8164,
    " default": 8165,
    " purchase": 8166,
    " reports": 8167,
    " tracks": 8168,
    "Best": 8169,
    "NN": 8170,
    "SELECT": 8171,
    "Super": 8172,
    "asty": 8173,
    "faceted": 8174,
    "ulated": 8175,
    " aad": 8176,
    " chota": 8177,
    " client": 8178,
    " convenient": 8179,
    " descriptions": 8180,
    " gadbad": 8181,
    " genre": 8182,
    " mechanics": 8183,
    " noun": 8184,
    " patience": 8185,
    " pron": 8186,
    " que": 8187,
    " simpl": 8188,
    " unable": 8189,
    " बदलन": 8190,
    " একদম": 8191,
    "Double": 8192,
    "_me": 8193,
    "aana": 8194,
    "abric": 8195,
    "egative": 8196,
    "pha": 8197,
    "plic": 8198,
    "positive": 8199,
    "total": 8200,
    "ओवर": 8201,
    " Chris": 8202,
    " Change": 8203,
    " Western": 8204,
    " binary": 8205,
    " blue": 8206,
    " clients": 8207,
    " considering": 8208,
    " cuis": 8209,
    " genres": 8210,
    " inventory": 8211,
    " mazed": 8212,
    " mentors": 8213,
    " pros": 8214,
    " reduced": 8215,
    " refle": 8216,
    " shaping": 8217,
    " station": 8218,
    "Ear": 8219,
    "_time": 8220,
    "atable": 8221,
    "ggies": 8222,
    "ifts": 8223,
    "onyms": 8224,
    "ructive": 8225,
    " 200": 8226,
    " Aapne": 8227,
    " Kabhi": 8228,
    " arr": 8229,
    " confident": 8230,
    " dunga": 8231,
    " employ": 8232,
    " generations": 8233,
    " inequality": 8234,
    " perception": 8235,
    " plastic": 8236,
    " wapas": 8237,
    "================": 8238,
    "Web": 8239,
    "esti": 8240,
    "ilter": 8241,
    "nical": 8242,
    "ortion": 8243,
    "umes": 8244,
    " Bano": 8245,
    " Conf": 8246,
    " UI": 8247,
    " affects": 8248,
    " ann": 8249,
    " fat": 8250,
    " increases": 8251,
    " instrum": 8252,
    " introduce": 8253,
    " leaders": 8254,
    " ratings": 8255,
    " ऑथ": 8256,
    "EMI": 8257,
    "End": 8258,
    "cean": 8259,
    "equ": 8260,
    "econd": 8261,
    "ividual": 8262,
    "ixed": 8263,
    "missions": 8264,
    "osed": 8265,
    " 14": 8266,
    " SMS": 8267,
    " attempt": 8268,
    " balki": 8269,
    " bijli": 8270,
    " datasets": 8271,
    " galti": 8272,
    " iske": 8273,
    " kapde": 8274,
    " marginalized": 8275,
    " objectives": 8276,
    " pura": 8277,
    " refine": 8278,
    " scheme": 8279,
    " stage": 8280,
    " supportive": 8281,
    "AC": 8282,
    "Customer": 8283,
    "ES": 8284,
    "Min": 8285,
    "Professional": 8286,
    "_words": 8287,
    "agers": 8288,
    "atin": 8289,
    "atil": 8290,
    "bra": 8291,
    "ceptions": 8292,
    "egi": 8293,
    "epend": 8294,
    "itations": 8295,
    "tivate": 8296,
    "ulu": 8297,
    "while": 8298,
    " ud": 8299,
    " Code": 8300,
    " Mentee": 8301,
    " Top": 8302,
    " coll": 8303,
    " density": 8304,
    " dinner": 8305,
    " entertainment": 8306,
    " exposure": 8307,
    " harmful": 8308,
    " leave": 8309,
    " meetings": 8310,
    " oven": 8311,
    " offering": 8312,
    " processed": 8313,
    " psychological": 8314,
    "Chill": 8315,
    "Feedback": 8316,
    "_ex": 8317,
    "acha": 8318,
    "fficiency": 8319,
    "istant": 8320,
    "outer": 8321,
    " Customer": 8322,
    " Machine": 8323,
    " More": 8324,
    " Media": 8325,
    " bonds": 8326,
    " baalon": 8327,
    " classical": 8328,
    " drama": 8329,
    " distractions": 8330,
    " dumdaar": 8331,
    " perpetu": 8332,
    " protoc": 8333,
    " psychology": 8334,
    " reve": 8335,
    " teamwork": 8336,
    " veggies": 8337,
    "Bathroom": 8338,
    "Os": 8339,
    "Pass": 8340,
    "Visual": 8341,
    "atility": 8342,
    "onomic": 8343,
    "ritis": 8344,
    "उनल": 8345,
    "लव": 8346,
    " &&": 8347,
    " NLP": 8348,
    " Take": 8349,
    " aana": 8350,
    " addresses": 8351,
    " affordable": 8352,
    " beyond": 8353,
    " consult": 8354,
    " excitement": 8355,
    " influencers": 8356,
    " iska": 8357,
    " machines": 8358,
    " rating": 8359,
    " resilience": 8360,
    " subst": 8361,
    " third": 8362,
    " units": 8363,
    " wel": 8364,
    " window": 8365,
    "Invest": 8366,
    "ROM": 8367,
    "herit": 8368,
    "igu": 8369,
    "inegar": 8370,
    "ional": 8371,
    "source": 8372,
    "urrencies": 8373,
    "vector": 8374,
    " NA": 8375,
    " Store": 8376,
    " aayenge": 8377,
    " arrange": 8378,
    " bene": 8379,
    " bow": 8380,
    " becoming": 8381,
    " causing": 8382,
    " digestion": 8383,
    " follows": 8384,
    " grains": 8385,
    " hot": 8386,
    " misunderstandings": 8387,
    " powder": 8388,
    " rhy": 8389,
    " saste": 8390,
    " schemes": 8391,
    " selection": 8392,
    " tabhi": 8393,
    " ऑन": 8394,
    "Better": 8395,
    "Patience": 8396,
    "agraph": 8397,
    "gl": 8398,
    "heat": 8399,
    "iny": 8400,
    "kaafi": 8401,
    "nowled": 8402,
    "ongi": 8403,
    " Et": 8404,
    " Feedback": 8405,
    " Gold": 8406,
    " Hy": 8407,
    " Keep": 8408,
    " decl": 8409,
    " discipline": 8410,
    " keyword": 8411,
    " liter": 8412,
    " pred": 8413,
    " physically": 8414,
    " stim": 8415,
    " scre": 8416,
    " परम": 8417,
    "OT": 8418,
    "Power": 8419,
    "][": 8420,
    "casts": 8421,
    "document": 8422,
    "illboard": 8423,
    "isdom": 8424,
    "sity": 8425,
    "tho": 8426,
    "though": 8427,
    "ा'": 8428,
    "ी?": 8429,
    " ->": 8430,
    " DNS": 8431,
    " admission": 8432,
    " balcony": 8433,
    " banda": 8434,
    " coaching": 8435,
    " equi": 8436,
    " funny": 8437,
    " generating": 8438,
    " humanity": 8439,
    " khol": 8440,
    " mutual": 8441,
    " objective": 8442,
    " penal": 8443,
    " reasoning": 8444,
    " samjho": 8445,
    " starts": 8446,
    " thank": 8447,
    " transl": 8448,
    " uski": 8449,
    "Specific": 8450,
    "angle": 8451,
    "bles": 8452,
    "ocra": 8453,
    "ownload": 8454,
    "sm": 8455,
    "umer": 8456,
    "ustainable": 8457,
    " ($": 8458,
    " Char": 8459,
    " ML": 8460,
    " either": 8461,
    " evaluation": 8462,
    " extend": 8463,
    " hata": 8464,
    " halka": 8465,
    " hosp": 8466,
    " integrate": 8467,
    " jump": 8468,
    " karoon": 8469,
    " leaves": 8470,
    " motivate": 8471,
    " pages": 8472,
    " press": 8473,
    " pub": 8474,
    "Active": 8475,
    "Car": 8476,
    "_text": 8477,
    "acing": 8478,
    "fts": 8479,
    "help": 8480,
    "info": 8481,
    "paced": 8482,
    "uum": 8483,
    "झट": 8484,
    " Comm": 8485,
    " carefully": 8486,
    " comment": 8487,
    " concise": 8488,
    " guil": 8489,
    " handling": 8490,
    " helped": 8491,
    " multifaceted": 8492,
    " sites": 8493,
    " transition": 8494,
    " trees": 8495,
    " ultimately": 8496,
    "Video": 8497,
    "Virtual": 8498,
    "agree": 8499,
    "example": 8500,
    "sia": 8501,
    "take": 8502,
    " alloc": 8503,
    " bag": 8504,
    " civil": 8505,
    " freezer": 8506,
    " jaw": 8507,
    " kami": 8508,
    " lega": 8509,
    " pod": 8510,
    " poss": 8511,
    " prep": 8512,
    " recognizing": 8513,
    " sl": 8514,
    " thand": 8515,
    " wealth": 8516,
    "65": 8517,
    "Aisa": 8518,
    "Bi": 8519,
    "CD": 8520,
    "Chan": 8521,
    "EM": 8522,
    "Mind": 8523,
    "Other": 8524,
    "Than": 8525,
    "building": 8526,
    "ford": 8527,
    "pag": 8528,
    "rogen": 8529,
    "uka": 8530,
    "weet": 8531,
    "एफ": 8532,
    " Che": 8533,
    " Output": 8534,
    " Structured": 8535,
    " chalte": 8536,
    " construction": 8537,
    " container": 8538,
    " functionality": 8539,
    " graph": 8540,
    " hypothesis": 8541,
    " inner": 8542,
    " mariyu": 8543,
    " principle": 8544,
    " represen": 8545,
    " smo": 8546,
    " syntax": 8547,
    " tot": 8548,
    " हल": 8549,
    "\"**": 8550,
    "Common": 8551,
    "Interest": 8552,
    "Proper": 8553,
    "lose": 8554,
    "rit": 8555,
    "rec": 8556,
    "vas": 8557,
    " Explain": 8558,
    " Students": 8559,
    " amounts": 8560,
    " autonomy": 8561,
    " banti": 8562
  },
  "id_to_token": [
    "<pad>",
    "<unk>",
    "<bos>",
    "<eos>",
    "<byte_00>",
    "<byte_01>",
    "<byte_02>",
    "<byte_03>",
    "<byte_04>",
    "<byte_05>",
    "<byte_06>",
    "<byte_07>",
    "<byte_08>",
    "<byte_09>",
    "<byte_0a>",
    "<byte_0b>",
    "<byte_0c>",
    "<byte_0d>",
    "<byte_0e>",
    "<byte_0f>",
    "<byte_10>",
    "<byte_11>",
    "<byte_12>",
    "<byte_13>",
    "<byte_14>",
    "<byte_15>",
    "<byte_16>",
    "<byte_17>",
    "<byte_18>",
    "<byte_19>",
    "<byte_1a>",
    "<byte_1b>",
    "<byte_1c>",
    "<byte_1d>",
    "<byte_1e>",
    "<byte_1f>",
    "<byte_20>",
    "<byte_21>",
    "<byte_22>",
    "<byte_23>",
    "<byte_24>",
    "<byte_25>",
    "<byte_26>",
    "<byte_27>",
    "<byte_28>",
    "<byte_29>",
    "<byte_2a>",
    "<byte_2b>",
    "<byte_2c>",
    "<byte_2d>",
    "<byte_2e>",
    "<byte_2f>",
    "<byte_30>",
    "<byte_31>",
    "<byte_32>",
    "<byte_33>",
    "<byte_34>",
    "<byte_35>",
    "<byte_36>",
    "<byte_37>",
    "<byte_38>",
    "<byte_39>",
    "<byte_3a>",
    "<byte_3b>",
    "<byte_3c>",
    "<byte_3d>",
    "<byte_3e>",
    "<byte_3f>",
    "<byte_40>",
    "<byte_41>",
    "<byte_42>",
    "<byte_43>",
    "<byte_44>",
    "<byte_45>",
    "<byte_46>",
    "<byte_47>",
    "<byte_48>",
    "<byte_49>",
    "<byte_4a>",
    "<byte_4b>",
    "<byte_4c>",
    "<byte_4d>",
    "<byte_4e>",
    "<byte_4f>",
    "<byte_50>",
    "<byte_51>",
    "<byte_52>",
    "<byte_53>",
    "<byte_54>",
    "<byte_55>",
    "<byte_56>",
    "<byte_57>",
    "<byte_58>",
    "<byte_59>",
    "<byte_5a>",
    "<byte_5b>",
    "<byte_5c>",
    "<byte_5d>",
    "<byte_5e>",
    "<byte_5f>",
    "<byte_60>",
    "<byte_61>",
    "<byte_62>",
    "<byte_63>",
    "<byte_64>",
    "<byte_65>",
    "<byte_66>",
    "<byte_67>",
    "<byte_68>",
    "<byte_69>",
    "<byte_6a>",
    "<byte_6b>",
    "<byte_6c>",
    "<byte_6d>",
    "<byte_6e>",
    "<byte_6f>",
    "<byte_70>",
    "<byte_71>",
    "<byte_72>",
    "<byte_73>",
    "<byte_74>",
    "<byte_75>",
    "<byte_76>",
    "<byte_77>",
    "<byte_78>",
    "<byte_79>",
    "<byte_7a>",
    "<byte_7b>",
    "<byte_7c>",
    "<byte_7d>",
    "<byte_7e>",
    "<byte_7f>",
    "<byte_80>",
    "<byte_81>",
    "<byte_82>",
    "<byte_83>",
    "<byte_84>",
    "<byte_85>",
    "<byte_86>",
    "<byte_87>",
    "<byte_88>",
    "<byte_89>",
    "<byte_8a>",
    "<byte_8b>",
    "<byte_8c>",
    "<byte_8d>",
    "<byte_8e>",
    "<byte_8f>",
    "<byte_90>",
    "<byte_91>",
    "<byte_92>",
    "<byte_93>",
    "<byte_94>",
    "<byte_95>",
    "<byte_96>",
    "<byte_97>",
    "<byte_98>",
    "<byte_99>",
    "<byte_9a>",
    "<byte_9b>",
    "<byte_9c>",
    "<byte_9d>",
    "<byte_9e>",
    "<byte_9f>",
    "<byte_a0>",
    "<byte_a1>",
    "<byte_a2>",
    "<byte_a3>",
    "<byte_a4>",
    "<byte_a5>",
    "<byte_a6>",
    "<byte_a7>",
    "<byte_a8>",
    "<byte_a9>",
    "<byte_aa>",
    "<byte_ab>",
    "<byte_ac>",
    "<byte_ad>",
    "<byte_ae>",
    "<byte_af>",
    "<byte_b0>",
    "<byte_b1>",
    "<byte_b2>",
    "<byte_b3>",
    "<byte_b4>",
    "<byte_b5>",
    "<byte_b6>",
    "<byte_b7>",
    "<byte_b8>",
    "<byte_b9>",
    "<byte_ba>",
    "<byte_bb>",
    "<byte_bc>",
    "<byte_bd>",
    "<byte_be>",
    "<byte_bf>",
    "<byte_c0>",
    "<byte_c1>",
    "<byte_c2>",
    "<byte_c3>",
    "<byte_c4>",
    "<byte_c5>",
    "<byte_c6>",
    "<byte_c7>",
    "<byte_c8>",
    "<byte_c9>",
    "<byte_ca>",
    "<byte_cb>",
    "<byte_cc>",
    "<byte_cd>",
    "<byte_ce>",
    "<byte_cf>",
    "<byte_d0>",
    "<byte_d1>",
    "<byte_d2>",
    "<byte_d3>",
    "<byte_d4>",
    "<byte_d5>",
    "<byte_d6>",
    "<byte_d7>",
    "<byte_d8>",
    "<byte_d9>",
    "<byte_da>",
    "<byte_db>",
    "<byte_dc>",
    "<byte_dd>",
    "<byte_de>",
    "<byte_df>",
    "<byte_e0>",
    "<byte_e1>",
    "<byte_e2>",
    "<byte_e3>",
    "<byte_e4>",
    "<byte_e5>",
    "<byte_e6>",
    "<byte_e7>",
    "<byte_e8>",
    "<byte_e9>",
    "<byte_ea>",
    "<byte_eb>",
    "<byte_ec>",
    "<byte_ed>",
    "<byte_ee>",
    "<byte_ef>",
    "<byte_f0>",
    "<byte_f1>",
    "<byte_f2>",
    "<byte_f3>",
    "<byte_f4>",
    "<byte_f5>",
    "<byte_f6>",
    "<byte_f7>",
    "<byte_f8>",
    "<byte_f9>",
    "<byte_fa>",
    "<byte_fb>",
    "<byte_fc>",
    "<byte_fd>",
    "<byte_fe>",
    "<byte_ff>",
    "ऀ",
    "ँ",
    "ं",
    "ः",
    "ऄ",
    "अ",
    "आ",
    "इ",
    "ई",
    "उ",
    "ऊ",
    "ऋ",
    "ऌ",
    "ऍ",
    "ऎ",
    "ए",
    "ऐ",
    "ऑ",
    "ऒ",
    "ओ",
    "औ",
    "क",
    "ख",
    "ग",
    "घ",
    "ङ",
    "च",
    "छ",
    "ज",
    "झ",
    "ञ",
    "ट",
    "ठ",
    "ड",
    "ढ",
    "ण",
    "त",
    "थ",
    "द",
    "ध",
    "न",
    "ऩ",
    "प",
    "फ",
    "ब",
    "भ",
    "म",
    "य",
    "र",
    "ऱ",
    "ल",
    "ळ",
    "ऴ",
    "व",
    "श",
    "ष",
    "स",
    "ह",
    "ऺ",
    "ऻ",
    "़",
    "ऽ",
    "ा",
    "ि",
    "ी",
    "ु",
    "ू",
    "ृ",
    "ॄ",
    "ॅ",
    "ॆ",
    "े",
    "ै",
    "ॉ",
    "ॊ",
    "ो",
    "ौ",
    "्",
    "ॎ",
    "ॏ",
    "ॐ",
    "॑",
    "॒",
    "॓",
    "॔",
    "ॕ",
    "ॖ",
    "ॗ",
    "क़",
    "ख़",
    "ग़",
    "ज़",
    "ड़",
    "ढ़",
    "फ़",
    "य़",
    "ॠ",
    "ॡ",
    "ॢ",
    "ॣ",
    "।",
    "॥",
    "०",
    "१",
    "२",
    "३",
    "४",
    "५",
    "६",
    "७",
    "८",
    "९",
    "॰",
    "ॱ",
    "ॲ",
    "ॳ",
    "ॴ",
    "ॵ",
    "ॶ",
    "ॷ",
    "ॸ",
    "ॹ",
    "ॺ",
    "ॻ",
    "ॼ",
    "ॽ",
    "ॾ",
    "ॿ",
    "꣠",
    "꣡",
    "꣢",
    "꣣",
    "꣤",
    "꣥",
    "꣦",
    "꣧",
    "꣨",
    "꣩",
    "꣪",
    "꣫",
    "꣬",
    "꣭",
    "꣮",
    "꣯",
    "꣰",
    "꣱",
    "ꣲ",
    "ꣳ",
    "ꣴ",
    "ꣵ",
    "ꣶ",
    "ꣷ",
    "꣸",
    "꣹",
    "꣺",
    "ꣻ",
    "꣼",
    "ꣽ",
    "ꣾ",
    "ꣿ",
    "᳐",
    "᳑",
    "᳒",
    "᳓",
    "᳔",
    "᳕",
    "᳖",
    "᳗",
    "᳘",
    "᳙",
    "᳚",
    "᳛",
    "᳜",
    "᳝",
    "᳞",
    "᳟",
    "᳠",
    "᳡",
    "᳢",
    "᳣",
    "᳤",
    "᳥",
    "᳦",
    "᳧",
    "᳨",
    "ᳩ",
    "ᳪ",
    "ᳫ",
    "ᳬ",
    "᳭",
    "ᳮ",
    "ᳯ",
    "ᳰ",
    "ᳱ",
    "ᳲ",
    "ᳳ",
    "᳴",
    "ᳵ",
    "ᳶ",
    "᳷",
    "᳸",
    "᳹",
    "ᳺ",
    "᳻",
    "᳼",
    "᳽",
    "᳾",
    "᳿",
    " ",
    "!",
    "\"",
    "#",
    "$",
    "%",
    "&",
    "'",
    "(",
    ")",
    "*",
    "+",
    ",",
    "-",
    ".",
    "/",
    "0",
    "1",
    "2",
    "3",
    "4",
    "5",
    "6",
    "7",
    "8",
    "9",
    ":",
    ";",
    "<",
    "=",
    ">",
    "?",
    "@",
    "A",
    "B",
    "C",
    "D",
    "E",
    "F",
    "G",
    "H",
    "I",
    "J",
    "K",
    "L",
    "M",
    "N",
    "O",
    "P",
    "Q",
    "R",
    "S",
    "T",
    "U",
    "V",
    "W",
    "X",
    "Y",
    "Z",
    "[",
    "\\",
    "]",
    "^",
    "_",
    "`",
    "a",
    "b",
    "c",
    "d",
    "e",
    "f",
    "g",
    "h",
    "i",
    "j",
    "k",
    "l",
    "m",
    "n",
    "o",
    "p",
    "q",
    "r",
    "s",
    "t",
    "u",
    "v",
    "w",
    "x",
    "y",
    "z",
    "{",
    "|",
    "}",
    "~",
    "in",
    " a",
    " t",
    "on",
    " s",
    "ha",
    "re",
    "he",
    "**",
    "ti",
    " k",
    "  ",
    " c",
    "te",
    "ar",
    " क",
    "or",
    "al",
    "an",
    " p",
    " b",
    "en",
    "es",
    "er",
    " m",
    " ha",
    " ह",
    " the",
    "ing",
    "is",
    "nd",
    " f",
    " d",
    "tion",
    "le",
    " w",
    "ou",
    "it",
    " to",
    "ho",
    " and",
    "hi",
    " o",
    " in",
    "ra",
    " स",
    "ta",
    " l",
    "ro",
    "\n\n",
    "ur",
    " hai",
    " e",
    "us",
    " n",
    "as",
    "ic",
    " y",
    " प",
    " re",
    "ed",
    "ें",
    " kar",
    " **",
    " of",
    ":**",
    "ch",
    "om",
    " ho",
    "ve",
    " me",
    "il",
    " ब",
    "ent",
    "at",
    "am",
    " म",
    "ation",
    "ge",
    "ab",
    " I",
    "ec",
    "ad",
    "im",
    "ce",
    " hain",
    " ज",
    " g",
    "ate",
    " j",
    "id",
    " se",
    " य",
    "un",
    "ly",
    "ol",
    "ul",
    " आ",
    " ल",
    "ay",
    " T",
    "ut",
    " mein",
    "um",
    " aur",
    "ak",
    " कर",
    "se",
    " (",
    "ts",
    " pro",
    " अ",
    "ri",
    " \"",
    " ke",
    " us",
    "st",
    " र",
    " is",
    " you",
    " for",
    " A",
    "et",
    " ka",
    "hat",
    " त",
    " li",
    "el",
    "ैं",
    "ter",
    " ba",
    " con",
    " S",
    " de",
    "lo",
    " इ",
    "eh",
    "od",
    " आप",
    "ers",
    " C",
    "for",
    "ir",
    "**:",
    "ess",
    "ity",
    "ction",
    " st",
    "ment",
    " ra",
    "ith",
    "ig",
    " ko",
    " na",
    "ure",
    "ye",
    " bhi",
    " ex",
    " toh",
    "ct",
    "na",
    "pp",
    "ga",
    " on",
    "if",
    "ck",
    " com",
    " cha",
    " *",
    " can",
    "और",
    " v",
    "ne",
    " और",
    " with",
    " फ",
    " or",
    "qu",
    " that",
    "ै।",
    " न",
    " le",
    "ata",
    " it",
    " P",
    "\n ",
    " as",
    "si",
    "ke",
    " he",
    " an",
    " H",
    "res",
    "ap",
    "th",
    "ver",
    "'s",
    " be",
    "oc",
    "ow",
    " h",
    "imp",
    " ए",
    " ki",
    " द",
    "ren",
    " B",
    "ant",
    " al",
    " su",
    "ine",
    " व",
    "di",
    " आपक",
    " ja",
    "ise",
    "form",
    " ya",
    "age",
    " च",
    "ort",
    "10",
    "tic",
    "ag",
    " sak",
    "ally",
    " po",
    " karo",
    "ud",
    " en",
    " ne",
    "tive",
    "og",
    "and",
    "ist",
    " M",
    " ट",
    "ten",
    " are",
    " sa",
    "ide",
    "gh",
    "out",
    "his",
    "her",
    " yeh",
    " पर",
    " sp",
    "iz",
    "ya",
    "oh",
    "per",
    " imp",
    " D",
    " The",
    "ill",
    "est",
    " एक",
    " mo",
    " -",
    " E",
    " liye",
    "our",
    " comp",
    "ds",
    " use",
    "are",
    " भ",
    "ust",
    " F",
    "ों",
    " sab",
    " ड",
    "   ",
    " R",
    "hut",
    " pl",
    "fe",
    "ble",
    "ain",
    " ac",
    "िं",
    "ot",
    " bahut",
    "hin",
    "du",
    "ted",
    " z",
    "pl",
    "शन",
    " ख",
    "ld",
    "ime",
    " wor",
    " करन",
    " उ",
    " K",
    "ies",
    " सक",
    " hi",
    "ek",
    " '",
    " u",
    " un",
    "ys",
    "ations",
    "os",
    "ru",
    "पन",
    " we",
    "ै,",
    "ion",
    "ial",
    "ीं",
    "ry",
    " your",
    " te",
    "ance",
    "tions",
    " ग",
    " fe",
    " pe",
    "\":",
    "ac",
    " =",
    "one",
    " W",
    " ek",
    " In",
    " सकत",
    " sc",
    "all",
    "gar",
    " रह",
    " res",
    " L",
    " ban",
    "ual",
    "lp",
    "rom",
    " इस",
    "Yeh",
    "ach",
    "ada",
    " data",
    "ect",
    "uch",
    " sakte",
    " help",
    "end",
    "able",
    " r",
    " karna",
    " app",
    "ms",
    "ame",
    " नह",
    " ad",
    "\",",
    " karte",
    " fun",
    "ll",
    " par",
    "oo",
    " woh",
    "``",
    "igh",
    " ab",
    "ence",
    " time",
    " che",
    " do",
    "ning",
    "ff",
    " jo",
    " G",
    " their",
    " inc",
    "cess",
    "ैं।",
    "iti",
    "ple",
    "han",
    " nahi",
    "pe",
    "ome",
    "\n  ",
    "ass",
    " tum",
    " function",
    " aap",
    " ar",
    "ces",
    " prov",
    "low",
    " di",
    "ous",
    " N",
    "formation",
    "ents",
    "ps",
    "red",
    " from",
    " इन",
    " अपन",
    "me",
    "har",
    "gu",
    " hota",
    "ans",
    " rahe",
    "ो।",
    " U",
    " करत",
    "rent",
    "In",
    "ks",
    "int",
    " pa",
    " cl",
    "ign",
    "ult",
    "sion",
    " kya",
    " tra",
    "टर",
    "ia",
    "tiv",
    " qu",
    " nahin",
    "to",
    "ong",
    "oun",
    "ind",
    "rac",
    " whi",
    "ough",
    "ther",
    "xt",
    "):**",
    " mat",
    "ni",
    "ue",
    "line",
    " kuch",
    "ko",
    "yada",
    "mp",
    " {",
    "aye",
    "ो,",
    "ful",
    "गर",
    "aj",
    "ast",
    " like",
    "hiye",
    " खर",
    "इन",
    "ode",
    "wor",
    "ath",
    "kh",
    " chahiye",
    " by",
    " कम",
    " 10",
    " karne",
    "art",
    "ric",
    "ish",
    " comm",
    " have",
    "vi",
    "ress",
    " import",
    " zyada",
    "get",
    "ific",
    "ould",
    "hen",
    "ities",
    "ा।",
    "mo",
    "ated",
    "--",
    "de",
    "enti",
    "ace",
    " at",
    "ors",
    "ake",
    " This",
    "ility",
    " O",
    "yste",
    " श",
    " cre",
    " information",
    "put",
    " dis",
    " per",
    "ight",
    " inte",
    "duc",
    "\n    ",
    "tain",
    " more",
    " lear",
    "ound",
    "ile",
    " rel",
    " 1",
    " this",
    " th",
    "ary",
    "ory",
    " spec",
    " go",
    " lo",
    " such",
    " pad",
    "ore",
    " बह",
    " सब",
    "nder",
    " provide",
    "tes",
    " अगर",
    " man",
    " ro",
    " ap",
    " hote",
    " ऐ",
    "da",
    "king",
    "ber",
    " उस",
    " important",
    "_for",
    " 2",
    "so",
    " but",
    "_for_",
    " dif",
    "ven",
    " about",
    "ical",
    "les",
    "act",
    " J",
    " need",
    "ail",
    " which",
    " बन",
    "alth",
    "ां",
    " val",
    "ari",
    " log",
    "ings",
    "ase",
    " will",
    "ard",
    " sta",
    "तन",
    " up",
    "aro",
    "dition",
    "ew",
    " plan",
    "Action",
    " mod",
    "ular",
    "hir",
    " tr",
    "velo",
    "ments",
    " kam",
    "ased",
    "ाँ",
    "lud",
    "कर",
    "tern",
    " Y",
    "hy",
    " लग",
    "lic",
    "now",
    "ree",
    " user",
    "pec",
    "यर",
    "ram",
    "ty",
    " mil",
    "eg",
    " rec",
    " chan",
    " op",
    "aan",
    "ocial",
    " feel",
    "PI",
    " ऑ",
    "velop",
    "ा,",
    " des",
    "angu",
    "ैं,",
    "pt",
    " `",
    "als",
    "ice",
    " syste",
    "ack",
    " bet",
    "ene",
    " out",
    "li",
    " new",
    "?**",
    " other",
    "ell",
    "ges",
    "kho",
    " code",
    " col",
    "सर",
    "00",
    " cont",
    " includ",
    " some",
    " co",
    " diffe",
    " रख",
    "arch",
    "ures",
    " under",
    " bad",
    "ount",
    "Agar",
    "ite",
    " sakta",
    "erson",
    "ener",
    "),",
    "```",
    " not",
    "ters",
    "ub",
    "इम",
    " dec",
    " hon",
    "lish",
    "ural",
    " using",
    " wal",
    "..",
    " exper",
    " so",
    "stand",
    " Ind",
    "cy",
    " pre",
    " सम",
    "ark",
    " phir",
    "pport",
    "dum",
    " learning",
    " exam",
    " sk",
    "ily",
    "ues",
    "pon",
    "che",
    "con",
    "ctions",
    " ज़",
    "ere",
    " sam",
    " sen",
    " sha",
    "lab",
    "ating",
    "ood",
    "we",
    " kaise",
    " tho",
    "लत",
    " class",
    " kaam",
    "ze",
    "av",
    "vel",
    " ser",
    " health",
    "ize",
    " over",
    " was",
    "row",
    " inv",
    "़ा",
    " तर",
    " know",
    "ality",
    "aal",
    " develop",
    "isa",
    "aya",
    "aking",
    "'t",
    "its",
    "vers",
    "ep",
    " थ",
    " has",
    "cha",
    "टम",
    " requ",
    "The",
    " call",
    "कल",
    " cons",
    " main",
    " online",
    " जब",
    " num",
    " eff",
    "anguage",
    " ph",
    "ci",
    " पह",
    "ocus",
    " them",
    " process",
    "wer",
    " they",
    " V",
    " cur",
    " समझ",
    " sh",
    "!**",
    " It",
    "vid",
    "ower",
    "'m",
    "led",
    "ka",
    "gi",
    "\n\t",
    " chee",
    " acc",
    "लग",
    "ills",
    " lek",
    " agar",
    "ting",
    "नक",
    " med",
    " set",
    " eas",
    " bana",
    " proble",
    " don",
    " understand",
    "ruct",
    " commun",
    " my",
    "gan",
    "ving",
    "ates",
    " Con",
    "eve",
    " baat",
    "urn",
    " अक",
    " exp",
    " ret",
    " stud",
    "ints",
    "े,",
    " tech",
    " karta",
    "lf",
    " ekdum",
    "lex",
    "tent",
    "omm",
    "ki",
    "aroor",
    " deta",
    "rate",
    "hool",
    "ience",
    "यल",
    " may",
    " बच",
    " social",
    " specific",
    " no",
    " har",
    "ness",
    " sec",
    " सबस",
    "abhi",
    "ought",
    "ption",
    "erg",
    " raha",
    " trans",
    "swer",
    "ative",
    " koi",
    " gener",
    " ev",
    "What",
    "ajh",
    "irf",
    "cri",
    "hip",
    " all",
    " lead",
    " ऐप",
    " best",
    "ati",
    " prog",
    " hum",
    "ip",
    "ital",
    "ana",
    "यद",
    "isi",
    "fic",
    "ook",
    " each",
    " its",
    " ty",
    " av",
    " how",
    " ass",
    "ght",
    " person",
    ");",
    "ety",
    " Ad",
    "Con",
    " saath",
    "ft",
    "plain",
    " hoga",
    " reg",
    "वर",
    " API",
    "ear",
    "text",
    "ai",
    " zaroor",
    " lekin",
    " make",
    " check",
    " if",
    " cal",
    "ses",
    " अच",
    "olog",
    " different",
    "ices",
    " inf",
    "po",
    "ves",
    " impro",
    " मत",
    " पहल",
    "ays",
    "tim",
    "ision",
    " work",
    " Can",
    "be",
    "af",
    " cho",
    "ollow",
    " used",
    "bs",
    " sol",
    "े।",
    " jaise",
    "नल",
    "und",
    "ane",
    " ins",
    " system",
    " add",
    ").",
    " lag",
    "़्",
    " ✅",
    "ern",
    " list",
    "anc",
    " sm",
    " create",
    "own",
    "ring",
    " also",
    " fam",
    "bility",
    " fi",
    " seek",
    "दम",
    " rakh",
    " disc",
    " anal",
    "aise",
    "em",
    "ian",
    " la",
    " vari",
    "here",
    " language",
    "lu",
    " kare",
    "ord",
    " life",
    " get",
    "enge",
    " example",
    " into",
    "arket",
    " am",
    " cle",
    " bo",
    " gr",
    " tas",
    "jec",
    "टल",
    " follow",
    "ized",
    "tical",
    "ustom",
    " मह",
    " skills",
    " want",
    " samajh",
    "asic",
    "egin",
    " आस",
    "ax",
    " words",
    "up",
    "hai",
    "ramm",
    " apne",
    "lect",
    " En",
    " Th",
    "ject",
    " [",
    "imple",
    "iron",
    " कह",
    "very",
    "ually",
    " सह",
    "ो:**",
    "ization",
    " respon",
    " model",
    " bre",
    "tation",
    "ducation",
    " reh",
    " sign",
    " indi",
    "gor",
    " our",
    " form",
    " एकदम",
    " cult",
    " im",
    "vidual",
    " hona",
    "let",
    " thoda",
    " focus",
    "St",
    " kha",
    "nec",
    "cept",
    " including",
    "Ex",
    " 3",
    " Re",
    " St",
    "ages",
    "ructure",
    "reat",
    " read",
    "gg",
    "ehle",
    " off",
    "inglish",
    "ature",
    " Pl",
    " compan",
    " try",
    " perform",
    "Begin",
    " 5",
    " Here",
    "igital",
    " would",
    " rep",
    " bach",
    "ien",
    " fri",
    " any",
    "tra",
    " Input",
    " alag",
    "iness",
    "Re",
    "ween",
    " sirf",
    " top",
    "ved",
    "rong",
    "fin",
    " id",
    " points",
    " Thought",
    " improve",
    " just",
    " dekho",
    "viron",
    "com",
    " इसक",
    " current",
    " tool",
    " individual",
    "*.",
    " between",
    " these",
    "ension",
    " relations",
    " problem",
    " matlab",
    " organ",
    "atform",
    "ability",
    " change",
    " हर",
    "name",
    " India",
    "ution",
    " bu",
    " –",
    " provid",
    "rap",
    " ghar",
    " inst",
    " dete",
    " kit",
    "Ind",
    "02",
    " Pro",
    "',",
    "ater",
    " hoti",
    " To",
    " easy",
    " tak",
    "----",
    " ste",
    " support",
    " chal",
    "ive",
    "urity",
    "ism",
    "rol",
    "work",
    " fl",
    " met",
    " ob",
    "ding",
    "Toh",
    "ss",
    " emp",
    " cour",
    " tumha",
    "kha",
    "लब",
    " manage",
    "ards",
    " By",
    "rough",
    "list",
    "vironment",
    "ining",
    " |",
    " number",
    "ason",
    " sho",
    "ire",
    " high",
    " often",
    " ques",
    "पर",
    "ayega",
    "ources",
    " &",
    "ilk",
    "ging",
    "rest",
    " school",
    " mus",
    " prac",
    "irst",
    "fect",
    "tence",
    " ide",
    "ils",
    " अलग",
    "elu",
    " fin",
    " one",
    "...",
    " cheez",
    " pr",
    " complex",
    "ery",
    " AI",
    " jaata",
    "eed",
    " power",
    "ergy",
    "elugu",
    "cul",
    "ekho",
    " retri",
    " way",
    "ication",
    "ute",
    " ens",
    " uni",
    " value",
    "pr",
    "ah",
    "ner",
    " De",
    " bata",
    " बढ",
    "ational",
    "bers",
    "cl",
    " Addition",
    " pop",
    "ration",
    "ially",
    " zaroori",
    "tivity",
    " Hai",
    " चल",
    "der",
    " aut",
    "ulti",
    "chan",
    " market",
    "yle",
    "aus",
    " grow",
    " apps",
    "sitive",
    " better",
    " conf",
    " dist",
    " mis",
    "ech",
    " allow",
    "ditional",
    " custom",
    " kisi",
    "ilkul",
    " family",
    ",\"",
    "tics",
    " through",
    " effec",
    " identi",
    " education",
    "ople",
    "usiness",
    " बत",
    " explain",
    "back",
    "ा:**",
    "अल",
    " Ex",
    " been",
    ")।",
    " em",
    " मतलब",
    " 0",
    "रत",
    " food",
    " emo",
    "gum",
    " play",
    " ri",
    " dekh",
    "लर",
    " prof",
    " media",
    "uring",
    "view",
    " students",
    "wn",
    " sub",
    " bec",
    " kabhi",
    "कम",
    " web",
    "ex",
    " access",
    " decision",
    " who",
    "fy",
    " dep",
    "vices",
    "मर",
    " platform",
    " loc",
    " personal",
    " aapko",
    "asual",
    " hand",
    " content",
    " daal",
    " than",
    " sahi",
    " छ",
    " An",
    " answer",
    "ession",
    " find",
    " hoon",
    " jab",
    " bol",
    "rib",
    "tional",
    " Additionally",
    " You",
    "rect",
    " tare",
    " where",
    " experience",
    " आज",
    " pol",
    "eli",
    " es",
    " point",
    ".\"",
    "resh",
    "ani",
    " should",
    " Hinglish",
    " down",
    "orm",
    " ind",
    " key",
    " appro",
    "ै?",
    " design",
    " incre",
    " ऐस",
    "ines",
    "ology",
    "ends",
    " pri",
    " gaya",
    " pata",
    "sive",
    "no",
    "Is",
    "heck",
    " रखन",
    " level",
    " argum",
    "tis",
    "ins",
    " concept",
    " avail",
    "oud",
    "ames",
    "'re",
    "pro",
    " chall",
    "tice",
    "ples",
    " thin",
    " based",
    "atures",
    " start",
    "val",
    "nline",
    " rakho",
    "ware",
    "()",
    " gu",
    " jaate",
    "ond",
    "set",
    " when",
    "ental",
    "etch",
    "hips",
    "तर",
    "par",
    " sun",
    ".**",
    "//",
    " strong",
    " environment",
    "term",
    "oci",
    "search",
    "ी,",
    " people",
    "op",
    " पड",
    " pehle",
    "haan",
    " what",
    "vice",
    "पल",
    " ज़र",
    " net",
    "que",
    "ants",
    "ens",
    "ron",
    " mem",
    " seekh",
    " care",
    " ध",
    " ach",
    " retrieve",
    "yun",
    "ena",
    "iting",
    "uture",
    " aise",
    " पत",
    "yn",
    "ma",
    " break",
    "इल",
    " understanding",
    " pay",
    "चर",
    " word",
    "Aur",
    "kay",
    "Jab",
    "andom",
    "Ek",
    " कई",
    "==",
    "लन",
    " Haan",
    " why",
    "ather",
    " connec",
    " +",
    " development",
    "_s",
    " partic",
    " search",
    "bo",
    " tumhe",
    "gorith",
    "ublic",
    " sabse",
    "hic",
    " rahega",
    " see",
    " seed",
    " iss",
    "ें।",
    " there",
    "En",
    " common",
    "wa",
    " systems",
    "ick",
    " real",
    " min",
    " techn",
    "ै:**",
    "ी।",
    "atural",
    " आत",
    "*,",
    " grou",
    " बड",
    "Pro",
    "ient",
    " sur",
    "sible",
    " available",
    " invest",
    " well",
    " business",
    " energy",
    " aa",
    " ris",
    " pur",
    " रहत",
    " ch",
    " part",
    "ade",
    " cor",
    " style",
    " control",
    "tit",
    " pos",
    " discus",
    " type",
    "jects",
    " intern",
    " long",
    " fetch",
    " produ",
    " inter",
    "ekin",
    "फर",
    " ful",
    "ccess",
    " bada",
    "ics",
    " multi",
    "़ी",
    "oid",
    " ma",
    "ooking",
    "vern",
    "time",
    "oss",
    " Use",
    " algorith",
    " yaar",
    " Plan",
    " back",
    "बल",
    " making",
    " chi",
    " count",
    " free",
    "ody",
    " lim",
    "rammar",
    "hes",
    "table",
    "ify",
    "co",
    "ious",
    " gra",
    " lage",
    " team",
    "An",
    " blo",
    " cap",
    "gah",
    " Se",
    "ired",
    " fact",
    "pes",
    " even",
    " human",
    " उन",
    "err",
    "ructions",
    " text",
    "ange",
    " उनक",
    "ights",
    " beha",
    "**,",
    "ob",
    "acher",
    "day",
    " self",
    "(\"",
    "rence",
    " तरह",
    " values",
    " बज",
    " phone",
    " metho",
    "Can",
    " ref",
    " while",
    " invol",
    " details",
    " mind",
    "रक",
    " every",
    " buil",
    "How",
    " Karo",
    "asically",
    " interest",
    "por",
    " own",
    "Dekho",
    "hot",
    " ve",
    " इसस",
    " simple",
    "ix",
    " good",
    "enef",
    "ries",
    " first",
    ".*",
    "api",
    " Go",
    " defin",
    "025",
    "cks",
    " dono",
    "mes",
    " produc",
    " analy",
    " fund",
    " Al",
    " rele",
    " digital",
    "**.",
    " tw",
    " calcul",
    " clear",
    " vi",
    "aning",
    " enga",
    "ips",
    "ases",
    "ik",
    "Po",
    "एग",
    "ret",
    " apni",
    " बड़",
    " company",
    "br",
    "Har",
    " most",
    "oring",
    " jagah",
    " could",
    " pric",
    " planning",
    "ression",
    "word",
    " kh",
    "rain",
    " tha",
    "़े",
    "ancial",
    " charac",
    "zein",
    "self",
    "ults",
    "ysis",
    " Yeh",
    "pecially",
    "tenti",
    " learn",
    "_d",
    "lement",
    " sense",
    " options",
    " tri",
    " tar",
    " signific",
    " behavi",
    "To",
    " logon",
    " तक",
    " Indian",
    " fil",
    " super",
    " $",
    "chi",
    " badh",
    " उसक",
    " space",
    "achine",
    "els",
    " bilkul",
    " jis",
    "udi",
    " <",
    " hist",
    " include",
    "ger",
    " karke",
    " हम",
    " For",
    " ensure",
    " individuals",
    "by",
    " prote",
    " features",
    " proper",
    " challen",
    "ाँ,",
    "cription",
    "ential",
    " popular",
    " pat",
    "bal",
    " impact",
    " reason",
    "tives",
    "read",
    " training",
    " table",
    "Lekin",
    " लगत",
    " Ka",
    "rans",
    " colle",
    " ter",
    " websi",
    " world",
    " karen",
    " vide",
    " यह",
    " घ",
    " game",
    " influ",
    " effective",
    "ars",
    " adv",
    " pres",
    " tools",
    "ose",
    "eke",
    " equ",
    " mon",
    "chon",
    "verse",
    " growth",
    " hone",
    "ws",
    "redic",
    "ency",
    " aaj",
    " bal",
    "pect",
    " cheezein",
    "itely",
    "gth",
    "ties",
    " stor",
    " karenge",
    " अम",
    " ऑप",
    "ider",
    "इस",
    " ess",
    " right",
    " resources",
    "ling",
    " security",
    " banao",
    " state",
    "ilities",
    " healthy",
    " input",
    " tension",
    " upd",
    " bi",
    "ause",
    "ein",
    " kyun",
    " enc",
    " performance",
    " structure",
    " tre",
    " br",
    " phys",
    "ledge",
    " kal",
    "ser",
    " करक",
    " 4",
    "pa",
    "ray",
    " redu",
    "usion",
    "ination",
    "rateg",
    "conom",
    "ied",
    " request",
    " friends",
    " karein",
    " mar",
    " baad",
    " quality",
    "'ve",
    " pass",
    " sto",
    " laga",
    " err",
    "cc",
    "old",
    "pportun",
    " We",
    " If",
    " bas",
    " late",
    "fa",
    "yth",
    " भर",
    " raho",
    " share",
    " बजट",
    "मरज",
    " sentence",
    " Po",
    "rents",
    " action",
    "_c",
    " tareeke",
    "ega",
    " book",
    " others",
    "oura",
    " role",
    "अलग",
    " sum",
    " various",
    "Ap",
    " platforms",
    "tific",
    "सप",
    "reen",
    " achi",
    "aldi",
    "Un",
    " experien",
    "jo",
    " communication",
    " जव",
    " unko",
    "ways",
    " rakhna",
    " potenti",
    "ulation",
    " tasks",
    " same",
    " techni",
    " bl",
    " Z",
    " इमरज",
    " natural",
    " two",
    "fore",
    "redit",
    " job",
    " address",
    "och",
    "Com",
    "kes",
    " compu",
    "glish",
    "बर",
    " effic",
    " इनकम",
    " courses",
    " then",
    " significant",
    " feed",
    " assist",
    " wale",
    "Kuch",
    "गह",
    "enefits",
    " safe",
    " stress",
    "isaab",
    "hone",
    " goals",
    " management",
    " गय",
    " identify",
    " output",
    " जगह",
    "ced",
    "gr",
    " mess",
    "ython",
    " research",
    "of",
    " vis",
    "vernment",
    " Ke",
    "go",
    " activ",
    " risk",
    " indust",
    "ogle",
    " soft",
    "कस",
    " i",
    " padh",
    "ink",
    " inform",
    "ons",
    "बस",
    " असर",
    " context",
    " random",
    "print",
    "thing",
    " maintain",
    "hoda",
    "ush",
    "India",
    "ूँ",
    " {}",
    " act",
    " jayega",
    " बढ़",
    "ffor",
    "vant",
    " community",
    "rences",
    "vious",
    "izing",
    " mile",
    " question",
    " relationships",
    "Sab",
    "ैं?",
    "oi",
    " helps",
    " might",
    " supp",
    "mem",
    " sim",
    " They",
    " modern",
    "Online",
    " dem",
    "cho",
    " conc",
    " pattern",
    "ateri",
    " dikha",
    " generate",
    " rahi",
    "ommun",
    " car",
    " बस",
    "ques",
    " useful",
    " services",
    " bhai",
    " ready",
    " lab",
    "ffic",
    " analysis",
    " hisaab",
    " machine",
    "su",
    " cer",
    " fa",
    " approach",
    " behavior",
    " track",
    " applic",
    " needs",
    " relationship",
    "Data",
    "sions",
    " int",
    "ें,",
    " cultural",
    " strateg",
    "Pl",
    " fresh",
    "ym",
    " Q",
    "MI",
    "utions",
    " small",
    " hu",
    " ऑनल",
    "Jaise",
    "ules",
    " body",
    " fac",
    "rite",
    " great",
    " आजकल",
    " \\",
    " Information",
    "acy",
    " अप",
    "ularly",
    "सल",
    " extra",
    " issues",
    "De",
    " opportun",
    " future",
    " App",
    "Check",
    "12",
    " her",
    " Res",
    "lease",
    " many",
    " इसम",
    " definitely",
    " essential",
    "इट",
    " let",
    "ream",
    "ible",
    " positive",
    "वल",
    " jaaye",
    "ife",
    "Telugu",
    "str",
    " perfect",
    " order",
    " being",
    "rency",
    "vation",
    "ीं।",
    "ances",
    "sa",
    " name",
    " fiel",
    "la",
    " especially",
    " 6",
    " sor",
    "erc",
    "ogni",
    "ressure",
    " intera",
    " year",
    " ite",
    "ash",
    "lets",
    " tips",
    " open",
    " take",
    "play",
    " Cha",
    "!*",
    "des",
    " helpful",
    " problems",
    "000",
    "ables",
    " friend",
    "tab",
    "इज",
    " related",
    " sti",
    "It",
    "?\"",
    " econom",
    " आपन",
    "labor",
    "डर",
    " contin",
    "cle",
    " paas",
    " saw",
    " sakti",
    " fra",
    " jaldi",
    "load",
    " ID",
    " UPI",
    "ooks",
    " event",
    " unique",
    "मन",
    "So",
    " leading",
    " culture",
    " areas",
    " aapke",
    " result",
    " बद",
    "isten",
    "ource",
    " return",
    "Te",
    " paani",
    "ormal",
    " char",
    " feedback",
    "til",
    "ions",
    " financial",
    "mote",
    "hel",
    " instructions",
    " Based",
    "ords",
    " repres",
    " potential",
    "ost",
    " पड़",
    "ones",
    "pan",
    "},",
    "itu",
    " gi",
    " aff",
    " const",
    " pas",
    " end",
    " lar",
    " pooch",
    " unke",
    "racy",
    "ocum",
    " music",
    "sing",
    "essional",
    " sal",
    "entation",
    " activities",
    " experiences",
    " results",
    "member",
    "यरम",
    " customer",
    " interes",
    " lagta",
    "aries",
    "ands",
    "ommend",
    "utri",
    "asy",
    "room",
    "log",
    " arguments",
    " अब",
    "za",
    " baar",
    "ang",
    " traditional",
    " possible",
    " think",
    "लक",
    " Sc",
    " happ",
    " network",
    " multiple",
    " trust",
    ".,",
    "Koi",
    "olution",
    "words",
    " trend",
    "just",
    " Is",
    "atic",
    "ao",
    "care",
    "inal",
    " project",
    " were",
    "ator",
    "ctor",
    " predic",
    "lobal",
    " oper",
    " success",
    " explo",
    " dri",
    " range",
    " handle",
    " seedha",
    " without",
    " Com",
    "ending",
    "essary",
    " nec",
    " mental",
    "pre",
    " questions",
    " saare",
    "This",
    "ograp",
    " does",
    " move",
    "oding",
    " teacher",
    "ina",
    " FD",
    "े-",
    "nect",
    "ral",
    "less",
    " baare",
    "No",
    " Telugu",
    " ag",
    " tumhare",
    " test",
    "lation",
    " materi",
    " previous",
    " companies",
    " rate",
    " reduce",
    "Ya",
    "pping",
    " wr",
    "hing",
    " English",
    "irt",
    "ystem",
    " idea",
    " kitna",
    " motiv",
    "खत",
    "नन",
    " contain",
    " kiya",
    " nik",
    "):",
    " algorithm",
    "atch",
    "ersonal",
    "ocho",
    " emotional",
    "_name",
    " comb",
    " wa",
    " knowledge",
    "App",
    "],",
    " decisions",
    " product",
    "omet",
    " always",
    " challenges",
    " fit",
    "ats",
    " How",
    " only",
    "anta",
    "हर",
    " aata",
    "Basically",
    "Cl",
    "bt",
    "change",
    " technology",
    " water",
    " website",
    "requ",
    "anguages",
    " \\\"",
    "mer",
    "सकर",
    " Sta",
    "ditions",
    " khar",
    "ustain",
    "--------",
    "sition",
    " situ",
    "the",
    "ets",
    " techniques",
    " ent",
    " avoid",
    "chen",
    "mein",
    "ale",
    " khud",
    "ude",
    "खन",
    " cate",
    " jata",
    " saf",
    " factors",
    " sche",
    "Kya",
    " offer",
    "Here",
    "ited",
    " numbers",
    "Imp",
    " types",
    " Su",
    " optim",
    " achieve",
    " convers",
    " changes",
    "hte",
    "rop",
    " hy",
    "rams",
    " scene",
    " accu",
    " He",
    " relevant",
    " lena",
    " file",
    " following",
    " internet",
    " users",
    "hile",
    " benefits",
    " bachchon",
    " practice",
    "जन",
    " No",
    " beli",
    " light",
    " meet",
    " pers",
    "एक",
    "udget",
    "ank",
    "unga",
    "cep",
    " 20",
    " direct",
    " et",
    " recommend",
    " Aur",
    " Cl",
    " calling",
    " usko",
    "tention",
    "tep",
    " news",
    " soci",
    "face",
    "mesha",
    "ef",
    " both",
    " software",
    " events",
    " task",
    "afi",
    " products",
    " एड",
    " Li",
    " patterns",
    "loye",
    "ी-",
    " Kar",
    " air",
    " pressure",
    " response",
    "indi",
    "ibility",
    " connection",
    " wala",
    " Mein",
    " clo",
    "ified",
    " program",
    "app",
    "tend",
    " compare",
    " opportunities",
    "Haan",
    "vis",
    " physical",
    " works",
    " apna",
    "ences",
    " store",
    "इफ",
    " his",
    "gs",
    "light",
    " el",
    " fas",
    " jaati",
    "man",
    "tations",
    "orts",
    " cost",
    " ideas",
    " require",
    ")**",
    " badha",
    " prior",
    " analyze",
    " public",
    " New",
    " theek",
    "ross",
    "top",
    "'ll",
    " padta",
    "ा-",
    " aisa",
    " group",
    " storage",
    " Man",
    " expl",
    "base",
    "mis",
    " Google",
    " account",
    " classes",
    " band",
    " contrib",
    "imate",
    " did",
    " models",
    " schools",
    "Sc",
    " autom",
    " bachche",
    " industry",
    " speed",
    " जल",
    "type",
    "vent",
    " day",
    " hogi",
    "ches",
    "iled",
    "ork",
    " latest",
    " smart",
[...]
