{
  "token_to_id": {
    "<pad>": 0,
    "<unk>": 1,
    "<bos>": 2,
    "<eos>": 3,
    "<byte_00>": 4,
    "<byte_01>": 5,
    "<byte_02>": 6,
    "<byte_03>": 7,
    "<byte_04>": 8,
    "<byte_05>": 9,
    "<byte_06>": 10,
    "<byte_07>": 11,
    "<byte_08>": 12,
    "<byte_09>": 13,
    "<byte_0a>": 14,
    "<byte_0b>": 15,
    "<byte_0c>": 16,
    "<byte_0d>": 17,
    "<byte_0e>": 18,
    "<byte_0f>": 19,
    "<byte_10>": 20,
    "<byte_11>": 21,
    "<byte_12>": 22,
    "<byte_13>": 23,
    "<byte_14>": 24,
    "<byte_15>": 25,
    "<byte_16>": 26,
    "<byte_17>": 27,
    "<byte_18>": 28,
    "<byte_19>": 29,
    "<byte_1a>": 30,
    "<byte_1b>": 31,
    "<byte_1c>": 32,
    "<byte_1d>": 33,
    "<byte_1e>": 34,
    "<byte_1f>": 35,
    "<byte_20>": 36,
    "<byte_21>": 37,
    "<byte_22>": 38,
    "<byte_23>": 39,
    "<byte_24>": 40,
    "<byte_25>": 41,
    "<byte_26>": 42,
    "<byte_27>": 43,
    "<byte_28>": 44,
    "<byte_29>": 45,
    "<byte_2a>": 46,
    "<byte_2b>": 47,
    "<byte_2c>": 48,
    "<byte_2d>": 49,
    "<byte_2e>": 50,
    "<byte_2f>": 51,
    "<byte_30>": 52,
    "<byte_31>": 53,
    "<byte_32>": 54,
    "<byte_33>": 55,
    "<byte_34>": 56,
    "<byte_35>": 57,
    "<byte_36>": 58,
    "<byte_37>": 59,
    "<byte_38>": 60,
    "<byte_39>": 61,
    "<byte_3a>": 62,
    "<byte_3b>": 63,
    "<byte_3c>": 64,
    "<byte_3d>": 65,
    "<byte_3e>": 66,
    "<byte_3f>": 67,
    "<byte_40>": 68,
    "<byte_41>": 69,
    "<byte_42>": 70,
    "<byte_43>": 71,
    "<byte_44>": 72,
    "<byte_45>": 73,
    "<byte_46>": 74,
    "<byte_47>": 75,
    "<byte_48>": 76,
    "<byte_49>": 77,
    "<byte_4a>": 78,
    "<byte_4b>": 79,
    "<byte_4c>": 80,
    "<byte_4d>": 81,
    "<byte_4e>": 82,
    "<byte_4f>": 83,
    "<byte_50>": 84,
    "<byte_51>": 85,
    "<byte_52>": 86,
    "<byte_53>": 87,
    "<byte_54>": 88,
    "<byte_55>": 89,
    "<byte_56>": 90,
    "<byte_57>": 91,
    "<byte_58>": 92,
    "<byte_59>": 93,
    "<byte_5a>": 94,
    "<byte_5b>": 95,
    "<byte_5c>": 96,
    "<byte_5d>": 97,
    "<byte_5e>": 98,
    "<byte_5f>": 99,
    "<byte_60>": 100,
    "<byte_61>": 101,
    "<byte_62>": 102,
    "<byte_63>": 103,
    "<byte_64>": 104,
    "<byte_65>": 105,
    "<byte_66>": 106,
    "<byte_67>": 107,
    "<byte_68>": 108,
    "<byte_69>": 109,
    "<byte_6a>": 110,
    "<byte_6b>": 111,
    "<byte_6c>": 112,
    "<byte_6d>": 113,
    "<byte_6e>": 114,
    "<byte_6f>": 115,
    "<byte_70>": 116,
    "<byte_71>": 117,
    "<byte_72>": 118,
    "<byte_73>": 119,
    "<byte_74>": 120,
    "<byte_75>": 121,
    "<byte_76>": 122,
    "<byte_77>": 123,
    "<byte_78>": 124,
    "<byte_79>": 125,
    "<byte_7a>": 126,
    "<byte_7b>": 127,
    "<byte_7c>": 128,
    "<byte_7d>": 129,
    "<byte_7e>": 130,
    "<byte_7f>": 131,
    "<byte_80>": 132,
    "<byte_81>": 133,
    "<byte_82>": 134,
    "<byte_83>": 135,
    "<byte_84>": 136,
    "<byte_85>": 137,
    "<byte_86>": 138,
    "<byte_87>": 139,
    "<byte_88>": 140,
    "<byte_89>": 141,
    "<byte_8a>": 142,
    "<byte_8b>": 143,
    "<byte_8c>": 144,
    "<byte_8d>": 145,
    "<byte_8e>": 146,
    "<byte_8f>": 147,
    "<byte_90>": 148,
    "<byte_91>": 149,
    "<byte_92>": 150,
    "<byte_93>": 151,
    "<byte_94>": 152,
    "<byte_95>": 153,
    "<byte_96>": 154,
    "<byte_97>": 155,
    "<byte_98>": 156,
    "<byte_99>": 157,
    "<byte_9a>": 158,
    "<byte_9b>": 159,
    "<byte_9c>": 160,
    "<byte_9d>": 161,
    "<byte_9e>": 162,
    "<byte_9f>": 163,
    "<byte_a0>": 164,
    "<byte_a1>": 165,
    "<byte_a2>": 166,
    "<byte_a3>": 167,
    "<byte_a4>": 168,
    "<byte_a5>": 169,
    "<byte_a6>": 170,
    "<byte_a7>": 171,
    "<byte_a8>": 172,
    "<byte_a9>": 173,
    "<byte_aa>": 174,
    "<byte_ab>": 175,
    "<byte_ac>": 176,
    "<byte_ad>": 177,
    "<byte_ae>": 178,
    "<byte_af>": 179,
    "<byte_b0>": 180,
    "<byte_b1>": 181,
    "<byte_b2>": 182,
    "<byte_b3>": 183,
    "<byte_b4>": 184,
    "<byte_b5>": 185,
    "<byte_b6>": 186,
    "<byte_b7>": 187,
    "<byte_b8>": 188,
    "<byte_b9>": 189,
    "<byte_ba>": 190,
    "<byte_bb>": 191,
    "<byte_bc>": 192,
    "<byte_bd>": 193,
    "<byte_be>": 194,
    "<byte_bf>": 195,
    "<byte_c0>": 196,
    "<byte_c1>": 197,
    "<byte_c2>": 198,
    "<byte_c3>": 199,
    "<byte_c4>": 200,
    "<byte_c5>": 201,
    "<byte_c6>": 202,
    "<byte_c7>": 203,
    "<byte_c8>": 204,
    "<byte_c9>": 205,
    "<byte_ca>": 206,
    "<byte_cb>": 207,
    "<byte_cc>": 208,
    "<byte_cd>": 209,
    "<byte_ce>": 210,
    "<byte_cf>": 211,
    "<byte_d0>": 212,
    "<byte_d1>": 213,
    "<byte_d2>": 214,
    "<byte_d3>": 215,
    "<byte_d4>": 216,
    "<byte_d5>": 217,
    "<byte_d6>": 218,
    "<byte_d7>": 219,
    "<byte_d8>": 220,
    "<byte_d9>": 221,
    "<byte_da>": 222,
    "<byte_db>": 223,
    "<byte_dc>": 224,
    "<byte_dd>": 225,
    "<byte_de>": 226,
    "<byte_df>": 227,
    "<byte_e0>": 228,
    "<byte_e1>": 229,
    "<byte_e2>": 230,
    "<byte_e3>": 231,
    "<byte_e4>": 232,
    "<byte_e5>": 233,
    "<byte_e6>": 234,
    "<byte_e7>": 235,
    "<byte_e8>": 236,
    "<byte_e9>": 237,
    "<byte_ea>": 238,
    "<byte_eb>": 239,
    "<byte_ec>": 240,
    "<byte_ed>": 241,
    "<byte_ee>": 242,
    "<byte_ef>": 243,
    "<byte_f0>": 244,
    "<byte_f1>": 245,
    "<byte_f2>": 246,
    "<byte_f3>": 247,
    "<byte_f4>": 248,
    "<byte_f5>": 249,
    "<byte_f6>": 250,
    "<byte_f7>": 251,
    "<byte_f8>": 252,
    "<byte_f9>": 253,
    "<byte_fa>": 254,
    "<byte_fb>": 255,
    "<byte_fc>": 256,
    "<byte_fd>": 257,
    "<byte_fe>": 258,
    "<byte_ff>": 259,
    "ऀ": 260,
    "ँ": 261,
    "ं": 262,
    "ः": 263,
    "ऄ": 264,
    "अ": 265,
    "आ": 266,
    "इ": 267,
    "ई": 268,
    "उ": 269,
    "ऊ": 270,
    "ऋ": 271,
    "ऌ": 272,
    "ऍ": 273,
    "ऎ": 274,
    "ए": 275,
    "ऐ": 276,
    "ऑ": 277,
    "ऒ": 278,
    "ओ": 279,
    "औ": 280,
    "क": 281,
    "ख": 282,
    "ग": 283,
    "घ": 284,
    "ङ": 285,
    "च": 286,
    "छ": 287,
    "ज": 288,
    "झ": 289,
    "ञ": 290,
    "ट": 291,
    "ठ": 292,
    "ड": 293,
    "ढ": 294,
    "ण": 295,
    "त": 296,
    "थ": 297,
    "द": 298,
    "ध": 299,
    "न": 300,
    "ऩ": 301,
    "प": 302,
    "फ": 303,
    "ब": 304,
    "भ": 305,
    "म": 306,
    "य": 307,
    "र": 308,
    "ऱ": 309,
    "ल": 310,
    "ळ": 311,
    "ऴ": 312,
    "व": 313,
    "श": 314,
    "ष": 315,
    "स": 316,
    "ह": 317,
    "ऺ": 318,
    "ऻ": 319,
    "़": 320,
    "ऽ": 321,
    "ा": 322,
    "ि": 323,
    "ी": 324,
    "ु": 325,
    "ू": 326,
    "ृ": 327,
    "ॄ": 328,
    "ॅ": 329,
    "ॆ": 330,
    "े": 331,
    "ै": 332,
    "ॉ": 333,
    "ॊ": 334,
    "ो": 335,
    "ौ": 336,
    "्": 337,
    "ॎ": 338,
    "ॏ": 339,
    "ॐ": 340,
    "॑": 341,
    "॒": 342,
    "॓": 343,
    "॔": 344,
    "ॕ": 345,
    "ॖ": 346,
    "ॗ": 347,
    "क़": 348,
    "ख़": 349,
    "ग़": 350,
    "ज़": 351,
    "ड़": 352,
    "ढ़": 353,
    "फ़": 354,
    "य़": 355,
    "ॠ": 356,
    "ॡ": 357,
    "ॢ": 358,
    "ॣ": 359,
    "।": 360,
    "॥": 361,
    "०": 362,
    "१": 363,
    "२": 364,
    "३": 365,
    "४": 366,
    "५": 367,
    "६": 368,
    "७": 369,
    "८": 370,
    "९": 371,
    "॰": 372,
    "ॱ": 373,
    "ॲ": 374,
    "ॳ": 375,
    "ॴ": 376,
    "ॵ": 377,
    "ॶ": 378,
    "ॷ": 379,
    "ॸ": 380,
    "ॹ": 381,
    "ॺ": 382,
    "ॻ": 383,
    "ॼ": 384,
    "ॽ": 385,
    "ॾ": 386,
    "ॿ": 387,
    "꣠": 388,
    "꣡": 389,
    "꣢": 390,
    "꣣": 391,
    "꣤": 392,
    "꣥": 393,
    "꣦": 394,
    "꣧": 395,
    "꣨": 396,
    "꣩": 397,
    "꣪": 398,
    "꣫": 399,
    "꣬": 400,
    "꣭": 401,
    "꣮": 402,
    "꣯": 403,
    "꣰": 404,
    "꣱": 405,
    "ꣲ": 406,
    "ꣳ": 407,
    "ꣴ": 408,
    "ꣵ": 409,
    "ꣶ": 410,
    "ꣷ": 411,
    "꣸": 412,
    "꣹": 413,
    "꣺": 414,
    "ꣻ": 415,
    "꣼": 416,
    "ꣽ": 417,
    "ꣾ": 418,
    "ꣿ": 419,
    "᳐": 420,
    "᳑": 421,
    "᳒": 422,
    "᳓": 423,
    "᳔": 424,
    "᳕": 425,
    "᳖": 426,
    "᳗": 427,
    "᳘": 428,
    "᳙": 429,
    "᳚": 430,
    "᳛": 431,
    "᳜": 432,
    "᳝": 433,
    "᳞": 434,
    "᳟": 435,
    "᳠": 436,
    "᳡": 437,
    "᳢": 438,
    "᳣": 439,
    "᳤": 440,
    "᳥": 441,
    "᳦": 442,
    "᳧": 443,
    "᳨": 444,
    "ᳩ": 445,
    "ᳪ": 446,
    "ᳫ": 447,
    "ᳬ": 448,
    "᳭": 449,
    "ᳮ": 450,
    "ᳯ": 451,
    "ᳰ": 452,
    "ᳱ": 453,
    "ᳲ": 454,
    "ᳳ": 455,
    "᳴": 456,
    "ᳵ": 457,
    "ᳶ": 458,
    "᳷": 459,
    "᳸": 460,
    "᳹": 461,
    "ᳺ": 462,
    "᳻": 463,
    "᳼": 464,
    "᳽": 465,
    "᳾": 466,
    "᳿": 467,
    " ": 468,
    "!": 469,
    "\"": 470,
    "#": 471,
    "$": 472,
    "%": 473,
    "&": 474,
    "'": 475,
    "(": 476,
    ")": 477,
    "*": 478,
    "+": 479,
    ",": 480,
    "-": 481,
    ".": 482,
    "/": 483,
    "0": 484,
    "1": 485,
    "2": 486,
    "3": 487,
    "4": 488,
    "5": 489,
    "6": 490,
    "7": 491,
    "8": 492,
    "9": 493,
    ":": 494,
    ";": 495,
    "<": 496,
    "=": 497,
    ">": 498,
    "?": 499,
    "@": 500,
    "A": 501,
    "B": 502,
    "C": 503,
    "D": 504,
    "E": 505,
    "F": 506,
    "G": 507,
    "H": 508,
    "I": 509,
    "J": 510,
    "K": 511,
    "L": 512,
    "M": 513,
    "N": 514,
    "O": 515,
    "P": 516,
    "Q": 517,
    "R": 518,
    "S": 519,
    "T": 520,
    "U": 521,
    "V": 522,
    "W": 523,
    "X": 524,
    "Y": 525,
    "Z": 526,
    "[": 527,
    "\\": 528,
    "]": 529,
    "^": 530,
    "_": 531,
    "`": 532,
    "a": 533,
    "b": 534,
    "c": 535,
    "d": 536,
    "e": 537,
    "f": 538,
    "g": 539,
    "h": 540,
    "i": 541,
    "j": 542,
    "k": 543,
    "l": 544,
    "m": 545,
    "n": 546,
    "o": 547,
    "p": 548,
    "q": 549,
    "r": 550,
    "s": 551,
    "t": 552,
    "u": 553,
    "v": 554,
    "w": 555,
    "x": 556,
    "y": 557,
    "z": 558,
    "{": 559,
    "|": 560,
    "}": 561,
    "~": 562,
    " t": 563,
    " a": 564,
    "he": 565,
    "in": 566,
    "er": 567,
    "re": 568,
    "on": 569,
    " the": 570,
    " s": 571,
    " c": 572,
    "at": 573,
    "nd": 574,
    "or": 575,
    "is": 576,
    "es": 577,
    "ou": 578,
    "an": 579,
    " w": 580,
    "en": 581,
    "it": 582,
    " f": 583,
    " p": 584,
    "al": 585,
    " o": 586,
    " and": 587,
    "ing": 588,
    "le": 589,
    "ar": 590,
    " m": 591,
    " b": 592,
    " to": 593,
    " in": 594,
    "ly": 595,
    " of": 596,
    "ed": 597,
    " d": 598,
    "ion": 599,
    "ic": 600,
    " A": 601,
    "as": 602,
    " h": 603,
    "om": 604,
    " e": 605,
    " th": 606,
    "ct": 607,
    " re": 608,
    "ent": 609,
    " T": 610,
    "us": 611,
    "ve": 612,
    "ro": 613,
    " l": 614,
    " n": 615,
    "et": 616,
    "ur": 617,
    "il": 618,
    " is": 619,
    " are": 620,
    "im": 621,
    "ist": 622,
    "ra": 623,
    " g": 624,
    "ers": 625,
    " y": 626,
    "ow": 627,
    "id": 628,
    "ate": 629,
    " S": 630,
    "ant": 631,
    "ation": 632,
    " for": 633,
    " st": 634,
    "ch": 635,
    "ss": 636,
    " I": 637,
    "ce": 638,
    "ol": 639,
    " you": 640,
    "el": 641,
    "st": 642,
    "ul": 643,
    "ot": 644,
    " he": 645,
    "ig": 646,
    " 1": 647,
    " on": 648,
    "ith": 649,
    " C": 650,
    "ns": 651,
    "am": 652,
    " that": 653,
    "ay": 654,
    " be": 655,
    "ir": 656,
    " The": 657,
    "se": 658,
    "ut": 659,
    " with": 660,
    "tu": 661,
    " con": 662,
    "um": 663,
    "You": 664,
    "ad": 665,
    "ser": 666,
    "cc": 667,
    " pro": 668,
    "wer": 669,
    "if": 670,
    " can": 671,
    "ssist": 672,
    "nswer": 673,
    "ke": 674,
    "ssistant": 675,
    " us": 676,
    " cle": 677,
    "ver": 678,
    " H": 679,
    " or": 680,
    " ex": 681,
    " it": 682,
    "lya": 683,
    " Atu": 684,
    " Atulya": 685,
    " 2": 686,
    " v": 687,
    "User": 688,
    "ain": 689,
    " =": 690,
    "Assistant": 691,
    " M": 692,
    "un": 693,
    "od": 694,
    "ag": 695,
    "ore": 696,
    "arly": 697,
    " as": 698,
    "ive": 699,
    "'s": 700,
    " an": 701,
    " acc": 702,
    " al": 703,
    "ter": 704,
    "pl": 705,
    " wh": 706,
    "out": 707,
    " W": 708,
    " clearly": 709,
    "ess": 710,
    "em": 711,
    " Answer": 712,
    "iv": 713,
    "ple": 714,
    " com": 715,
    "ort": 716,
    " B": 717,
    "ld": 718,
    "pe": 719,
    " P": 720,
    "est": 721,
    "ab": 722,
    " this": 723,
    "qu": 724,
    "urate": 725,
    "her": 726,
    "ies": 727,
    "ck": 728,
    " accurate": 729,
    " su": 730,
    " E": 731,
    " accurately": 732,
    " R": 733,
    " -": 734,
    "and": 735,
    " ne": 736,
    " we": 737,
    "th": 738,
    " fr": 739,
    " (": 740,
    "ity": 741,
    " sh": 742,
    " de": 743,
    "00": 744,
    " by": 745,
    " F": 746,
    " ch": 747,
    "igh": 748,
    " D": 749,
    " G": 750,
    "ment": 751,
    "all": 752,
    " le": 753,
    "ill": 754,
    "our": 755,
    " se": 756,
    " r": 757,
    " 3": 758,
    " your": 759,
    "ber": 760,
    "pp": 761,
    " was": 762,
    "ide": 763,
    "ure": 764,
    "ud": 765,
    " ha": 766,
    " u": 767,
    "ect": 768,
    "ould": 769,
    "art": 770,
    " me": 771,
    " from": 772,
    "ome": 773,
    " res": 774,
    " wor": 775,
    " N": 776,
    " $": 777,
    " L": 778,
    "oc": 779,
    "ial": 780,
    "nt": 781,
    " ad": 782,
    " \\": 783,
    "iz": 784,
    " pl": 785,
    "ust": 786,
    "ak": 787,
    "pon": 788,
    "ction": 789,
    " at": 790,
    "ful": 791,
    "ue": 792,
    "ie": 793,
    "ake": 794,
    "ach": 795,
    "ical": 796,
    " O": 797,
    "oo": 798,
    " ab": 799,
    " en": 800,
    "ight": 801,
    "ip": 802,
    " use": 803,
    " im": 804,
    " have": 805,
    "ind": 806,
    "ge": 807,
    "lo": 808,
    " po": 809,
    "per": 810,
    " num": 811,
    " their": 812,
    " 4": 813,
    " more": 814,
    "ire": 815,
    " Th": 816,
    " cont": 817,
    " U": 818,
    "rou": 819,
    " has": 820,
    "are": 821,
    "ite": 822,
    " te": 823,
    "ine": 824,
    "age": 825,
    "ep": 826,
    "act": 827,
    " inc": 828,
    " \"": 829,
    " hel": 830,
    "ell": 831,
    " fe": 832,
    "ard": 833,
    " help": 834,
    " 5": 835,
    "ost": 836,
    "gh": 837,
    " k": 838,
    " int": 839,
    " In": 840,
    "ib": 841,
    "ions": 842,
    "og": 843,
    "for": 844,
    "fer": 845,
    "pt": 846,
    "du": 847,
    " man": 848,
    " J": 849,
    "ich": 850,
    "able": 851,
    "ther": 852,
    "low": 853,
    "ack": 854,
    "ere": 855,
    " number": 856,
    "ence": 857,
    "ast": 858,
    "ike": 859,
    " so": 860,
    " tr": 861,
    "ac": 862,
    "ations": 863,
    "so": 864,
    "ance": 865,
    "ice": 866,
    " +": 867,
    " her": 868,
    " cl": 869,
    " per": 870,
    " some": 871,
    "ile": 872,
    "reat": 873,
    "ff": 874,
    " about": 875,
    " j": 876,
    "ks": 877,
    " This": 878,
    "form": 879,
    "ount": 880,
    "ract": 881,
    " how": 882,
    "ans": 883,
    " pr": 884,
    "ong": 885,
    " imp": 886,
    " tim": 887,
    " whe": 888,
    "ase": 889,
    "ass": 890,
    "ents": 891,
    " which": 892,
    " pre": 893,
    " like": 894,
    " not": 895,
    "ang": 896,
    "int": 897,
    " respon": 898,
    "ated": 899,
    "ces": 900,
    "ame": 901,
    "ult": 902,
    "av": 903,
    " also": 904,
    " they": 905,
    " add": 906,
    " out": 907,
    " will": 908,
    " un": 909,
    "os": 910,
    " she": 911,
    " comp": 912,
    " ar": 913,
    " tra": 914,
    "ous": 915,
    "ition": 916,
    " do": 917,
    "xt": 918,
    "ign": 919,
    "tal": 920,
    " spe": 921,
    " each": 922,
    " prov": 923,
    "ally": 924,
    " other": 925,
    " sp": 926,
    " 6": 927,
    " *": 928,
    " go": 929,
    "ail": 930,
    "ry": 931,
    " sim": 932,
    "ary": 933,
    "ace": 934,
    "ia": 935,
    "ds": 936,
    " str": 937,
    "ap": 938,
    " response": 939,
    "plain": 940,
    " sc": 941,
    "one": 942,
    " his": 943,
    "ound": 944,
    "lud": 945,
    " Ex": 946,
    " total": 947,
    " one": 948,
    "ode": 949,
    " ro": 950,
    "ne": 951,
    " St": 952,
    " up": 953,
    " answer": 954,
    " exam": 955,
    " them": 956,
    "ars": 957,
    " `": 958,
    " It": 959,
    " dis": 960,
    " but": 961,
    " need": 962,
    "ook": 963,
    "ory": 964,
    "les": 965,
    " had": 966,
    " und": 967,
    "ors": 968,
    " sm": 969,
    " em": 970,
    "irst": 971,
    "ific": 972,
    "ater": 973,
    " find": 974,
    " qu": 975,
    " includ": 976,
    "ram": 977,
    " all": 978,
    "ings": 979,
    "ress": 980,
    " time": 981,
    " many": 982,
    "ays": 983,
    " ev": 984,
    "rite": 985,
    " des": 986,
    "ick": 987,
    " vers": 988,
    " comm": 989,
    " into": 990,
    " such": 991,
    " pe": 992,
    "ree": 993,
    "now": 994,
    "ark": 995,
    "als": 996,
    "te": 997,
    " am": 998,
    " if": 999,
    " new": 1000,
    " than": 1001,
    " inter": 1002,
    " who": 1003,
    " rec": 1004,
    " there": 1005,
    "ub": 1006,
    " K": 1007,
    " col": 1008,
    " over": 1009,
    " tw": 1010,
    " 19": 1011,
    " dif": 1012,
    " Give": 1013,
    " version": 1014,
    " pract": 1015,
    " eas": 1016,
    "ph": 1017,
    " its": 1018,
    " make": 1019,
    " work": 1020,
    "ens": 1021,
    " part": 1022,
    "ood": 1023,
    "ft": 1024,
    " simple": 1025,
    " 20": 1026,
    " would": 1027,
    " ser": 1028,
    " my": 1029,
    " dat": 1030,
    " step": 1031,
    " any": 1032,
    " were": 1033,
    "very": 1034,
    " sy": 1035,
    "irect": 1036,
    " useful": 1037,
    " cor": 1038,
    "ish": 1039,
    " Explain": 1040,
    "rough": 1041,
    " 8": 1042,
    " cre": 1043,
    "vers": 1044,
    "ild": 1045,
    " stud": 1046,
    " ind": 1047,
    " could": 1048,
    " first": 1049,
    "we": 1050,
    "erst": 1051,
    "led": 1052,
    " code": 1053,
    " rem": 1054,
    " Ch": 1055,
    " what": 1056,
    "ove": 1057,
    "ities": 1058,
    " How": 1059,
    "arn": 1060,
    "get": 1061,
    " co": 1062,
    "urn": 1063,
    "fore": 1064,
    " bu": 1065,
    " V": 1066,
    " Use": 1067,
    " For": 1068,
    " small": 1069,
    "con": 1070,
    "ari": 1071,
    "erstand": 1072,
    " know": 1073,
    "inue": 1074,
    "ll": 1075,
    " used": 1076,
    " fun": 1077,
    " differ": 1078,
    " 10": 1079,
    " det": 1080,
    "erm": 1081,
    " ap": 1082,
    "elf": 1083,
    "ric": 1084,
    " You": 1085,
    "oth": 1086,
    " understand": 1087,
    " ye": 1088,
    "res": 1089,
    " fol": 1090,
    " He": 1091,
    " min": 1092,
    " 7": 1093,
    "ord": 1094,
    "ize": 1095,
    " spec": 1096,
    "ject": 1097,
    " produ": 1098,
    " these": 1099,
    "ates": 1100,
    " bet": 1101,
    "ru": 1102,
    "ert": 1103,
    "ments": 1104,
    "ys": 1105,
    "ating": 1106,
    "akes": 1107,
    " app": 1108,
    "velo": 1109,
    " rel": 1110,
    "fter": 1111,
    " prog": 1112,
    " should": 1113,
    "rit": 1114,
    " through": 1115,
    " short": 1116,
    " eff": 1117,
    " direct": 1118,
    " when": 1119,
    " cal": 1120,
    "lect": 1121,
    "stem": 1122,
    "wn": 1123,
    "eth": 1124,
    " Here": 1125,
    "ough": 1126,
    " provide": 1127,
    "ices": 1128,
    " Res": 1129,
    " inform": 1130,
    " sol": 1131,
    " ra": 1132,
    " example": 1133,
    " cost": 1134,
    " follow": 1135,
    " two": 1136,
    "ople": 1137,
    "ience": 1138,
    "hes": 1139,
    " /": 1140,
    " exper": 1141,
    " using": 1142,
    "ov": 1143,
    "aking": 1144,
    " If": 1145,
    "gg": 1146,
    "ts": 1147,
    " val": 1148,
    " cons": 1149,
    "its": 1150,
    "rect": 1151,
    "chn": 1152,
    "ased": 1153,
    "oy": 1154,
    "velop": 1155,
    "olog": 1156,
    "ature": 1157,
    " ret": 1158,
    " function": 1159,
    " data": 1160,
    "round": 1161,
    "cess": 1162,
    "eg": 1163,
    " sa": 1164,
    "ps": 1165,
    "eng": 1166,
    " clean": 1167,
    " Write": 1168,
    "ade": 1169,
    "ility": 1170,
    "ange": 1171,
    "pport": 1172,
    "ian": 1173,
    " people": 1174,
    "ons": 1175,
    " way": 1176,
    " practical": 1177,
    " <": 1178,
    " correct": 1179,
    "put": 1180,
    "enc": 1181,
    " Wh": 1182,
    " been": 1183,
    " expl": 1184,
    " get": 1185,
    " set": 1186,
    " may": 1187,
    " ke": 1188,
    "ative": 1189,
    " ob": 1190,
    " pers": 1191,
    " then": 1192,
    " form": 1193,
    " To": 1194,
    " words": 1195,
    " day": 1196,
    "ient": 1197,
    " bec": 1198,
    " information": 1199,
    " We": 1200,
    " #": 1201,
    " continue": 1202,
    "uring": 1203,
    " So": 1204,
    " play": 1205,
    "ily": 1206,
    " inv": 1207,
    " techn": 1208,
    " med": 1209,
    "ples": 1210,
    "bs": 1211,
    " different": 1212,
    " system": 1213,
    "ng": 1214,
    " point": 1215,
    " our": 1216,
    "alth": 1217,
    "'t": 1218,
    ").": 1219,
    " ph": 1220,
    " develop": 1221,
    "20": 1222,
    "ink": 1223,
    " There": 1224,
    " create": 1225,
    " dec": 1226,
    " av": 1227,
    " Hel": 1228,
    " convers": 1229,
    " hour": 1230,
    " list": 1231,
    "ustom": 1232,
    "ise": 1233,
    "ics": 1234,
    "nect": 1235,
    "hed": 1236,
    " loc": 1237,
    "port": 1238,
    " helpful": 1239,
    "ues": 1240,
    " easy": 1241,
    "ower": 1242,
    " Respon": 1243,
    "gan": 1244,
    ">>": 1245,
    "ife": 1246,
    "ual": 1247,
    " off": 1248,
    "ath": 1249,
    " 9": 1250,
    "row": 1251,
    " program": 1252,
    "own": 1253,
    " x": 1254,
    "ener": 1255,
    "ting": 1256,
    " ide": 1257,
    " where": 1258,
    " feel": 1259,
    "arch": 1260,
    " 0": 1261,
    " Y": 1262,
    " Help": 1263,
    " start": 1264,
    " \\(": 1265,
    " vari": 1266,
    "000": 1267,
    "--": 1268,
    " mod": 1269,
    " let": 1270,
    "iqu": 1271,
    "ob": 1272,
    " creat": 1273,
    " che": 1274,
    " fact": 1275,
    " inst": 1276,
    "ness": 1277,
    "nds": 1278,
    "erg": 1279,
    "vel": 1280,
    " char": 1281,
    "ax": 1282,
    "ose": 1283,
    " serv": 1284,
    " conversation": 1285,
    "use": 1286,
    "der": 1287,
    " equ": 1288,
    " ag": 1289,
    " after": 1290,
    " She": 1291,
    " connect": 1292,
    "ences": 1293,
    "ince": 1294,
    "cul": 1295,
    " custom": 1296,
    " Can": 1297,
    " fl": 1298,
    " def": 1299,
    " ty": 1300,
    " act": 1301,
    " real": 1302,
    "ier": 1303,
    " As": 1304,
    "ages": 1305,
    "ween": 1306,
    " trans": 1307,
    "ips": 1308,
    "bers": 1309,
    " sub": 1310,
    "rib": 1311,
    " well": 1312,
    " 12": 1313,
    "50": 1314,
    " water": 1315,
    " between": 1316,
    "ied": 1317,
    " person": 1318,
    " commun": 1319,
    " dist": 1320,
    "mer": 1321,
    " high": 1322,
    " Ad": 1323,
    " every": 1324,
    " class": 1325,
    " sk": 1326,
    " They": 1327,
    "ten": 1328,
    " Make": 1329,
    " great": 1330,
    "ix": 1331,
    " reg": 1332,
    "ible": 1333,
    " minut": 1334,
    "ont": 1335,
    "ized": 1336,
    "day": 1337,
    "ards": 1338,
    "op": 1339,
    "hen": 1340,
    "ides": 1341,
    "dition": 1342,
    " Re": 1343,
    "ider": 1344,
    "ural": 1345,
    " while": 1346,
    "ential": 1347,
    " both": 1348,
    "anc": 1349,
    " cur": 1350,
    " learn": 1351,
    " main": 1352,
    " giv": 1353,
    "ertain": 1354,
    " most": 1355,
    "),": 1356,
    " world": 1357,
    " following": 1358,
    "tern": 1359,
    " long": 1360,
    " health": 1361,
    "ular": 1362,
    " made": 1363,
    " impro": 1364,
    " sign": 1365,
    "``": 1366,
    " ```": 1367,
    "10": 1368,
    "ble": 1369,
    "old": 1370,
    " Now": 1371,
    " vis": 1372,
    " bo": 1373,
    " soc": 1374,
    " mon": 1375,
    "io": 1376,
    " years": 1377,
    " div": 1378,
    "lic": 1379,
    " art": 1380,
    "ek": 1381,
    " want": 1382,
    " back": 1383,
    " including": 1384,
    " Respond": 1385,
    " product": 1386,
    "pect": 1387,
    "end": 1388,
    "ious": 1389,
    " import": 1390,
    " comple": 1391,
    "iness": 1392,
    "iss": 1393,
    " gra": 1394,
    " {": 1395,
    "ner": 1396,
    " text": 1397,
    "cho": 1398,
    "red": 1399,
    "ify": 1400,
    " lar": 1401,
    " amount": 1402,
    "ets": 1403,
    " process": 1404,
    " before": 1405,
    " assistant": 1406,
    " bus": 1407,
    "oid": 1408,
    "omm": 1409,
    " hand": 1410,
    "ational": 1411,
    " read": 1412,
    " opt": 1413,
    " Al": 1414,
    " ac": 1415,
    "any": 1416,
    " mem": 1417,
    "ident": 1418,
    " br": 1419,
    "ene": 1420,
    "uch": 1421,
    " minutes": 1422,
    " requ": 1423,
    "ines": 1424,
    " Un": 1425,
    " students": 1426,
    "ason": 1427,
    "up": 1428,
    "wor": 1429,
    " plan": 1430,
    "ning": 1431,
    "other": 1432,
    " design": 1433,
    " disc": 1434,
    " car": 1435,
    " user": 1436,
    " life": 1437,
    "ote": 1438,
    " gener": 1439,
    "ited": 1440,
    "):": 1441,
    " effect": 1442,
    "air": 1443,
    "ology": 1444,
    "ever": 1445,
    " return": 1446,
    " mark": 1447,
    " gu": 1448,
    " An": 1449,
    " term": 1450,
    " allow": 1451,
    " redu": 1452,
    " support": 1453,
    "ins": 1454,
    "ctions": 1455,
    " only": 1456,
    " fil": 1457,
    " att": 1458,
    " take": 1459,
    "ict": 1460,
    " bl": 1461,
    " specific": 1462,
    " lead": 1463,
    " <<": 1464,
    " [": 1465,
    " hours": 1466,
    " fam": 1467,
    " sur": 1468,
    "iew": 1469,
    " ed": 1470,
    " som": 1471,
    " next": 1472,
    " dr": 1473,
    " Ne": 1474,
    " pot": 1475,
    " calcul": 1476,
    " fin": 1477,
    "ime": 1478,
    " incre": 1479,
    " ele": 1480,
    "ety": 1481,
    " ent": 1482,
    "arm": 1483,
    " tell": 1484,
    " ins": 1485,
    "ture": 1486,
    " Sh": 1487,
    " inf": 1488,
    "angu": 1489,
    " sum": 1490,
    "ional": 1491,
    " eng": 1492,
    " exp": 1493,
    " count": 1494,
    "chool": 1495,
    " much": 1496,
    " does": 1497,
    " detail": 1498,
    " One": 1499,
    " sal": 1500,
    "ving": 1501,
    " '": 1502,
    " result": 1503,
    " ass": 1504,
    " own": 1505,
    "ather": 1506,
    "ocus": 1507,
    "ray": 1508,
    " found": 1509,
    "ause": 1510,
    " even": 1511,
    " impact": 1512,
    " include": 1513,
    "line": 1514,
    "ren": 1515,
    "lease": 1516,
    "read": 1517,
    "##": 1518,
    " mus": 1519,
    " pop": 1520,
    " idea": 1521,
    "self": 1522,
    "els": 1523,
    "ually": 1524,
    " What": 1525,
    " three": 1526,
    "yth": 1527,
    " }": 1528,
    " 200": 1529,
    " just": 1530,
    "ms": 1531,
    " social": 1532,
    "ution": 1533,
    " pass": 1534,
    " adv": 1535,
    " during": 1536,
    " team": 1537,
    " charact": 1538,
    "ames": 1539,
    " mil": 1540,
    "uc": 1541,
    " langu": 1542,
    "ense": 1543,
    "ality": 1544,
    "land": 1545,
    "ething": 1546,
    "rip": 1547,
    " mat": 1548,
    " down": 1549,
    "rent": 1550,
    "ement": 1551,
    " no": 1552,
    " making": 1553,
    "ivid": 1554,
    " did": 1555,
    " De": 1556,
    "ves": 1557,
    " try": 1558,
    " pol": 1559,
    "ants": 1560,
    " mult": 1561,
    " frie": 1562,
    "plic": 1563,
    " something": 1564,
    "ty": 1565,
    "ex": 1566,
    "ok": 1567,
    "way": 1568,
    " 18": 1569,
    " left": 1570,
    " business": 1571,
    "ives": 1572,
    "ooks": 1573,
    "ware": 1574,
    " build": 1575,
    "amp": 1576,
    " When": 1577,
    " pat": 1578,
    "ember": 1579,
    "rac": 1580,
    "ved": 1581,
    " focus": 1582,
    " improve": 1583,
    " end": 1584,
    " times": 1585,
    " prom": 1586,
    " ve": 1587,
    " cent": 1588,
    " organ": 1589,
    "ique": 1590,
    "ute": 1591,
    " 15": 1592,
    " feature": 1593,
    " i": 1594,
    " secon": 1595,
    "ining": 1596,
    " Pro": 1597,
    " here": 1598,
    " makes": 1599,
    "ank": 1600,
    " rep": 1601,
    " These": 1602,
    "iron": 1603,
    "ave": 1604,
    " signific": 1605,
    " Pl": 1606,
    " perform": 1607,
    "ats": 1608,
    " stru": 1609,
    " given": 1610,
    "ior": 1611,
    " experience": 1612,
    " writ": 1613,
    " around": 1614,
    " aut": 1615,
    "()": 1616,
    "ergy": 1617,
    "itive": 1618,
    "iel": 1619,
    " explan": 1620,
    " days": 1621,
    "12": 1622,
    "ures": 1623,
    "ivers": 1624,
    "hip": 1625,
    " 30": 1626,
    " Ar": 1627,
    " conc": 1628,
    "pen": 1629,
    " prof": 1630,
    "ling": 1631,
    " rev": 1632,
    " avoid": 1633,
    " him": 1634,
    " value": 1635,
    " typ": 1636,
    " examples": 1637,
    " access": 1638,
    " However": 1639,
    " pos": 1640,
    "ash": 1641,
    "ython": 1642,
    " being": 1643,
    "cept": 1644,
    " chall": 1645,
    " power": 1646,
    "pr": 1647,
    " market": 1648,
    " stre": 1649,
    "ateg": 1650,
    " pur": 1651,
    "ources": 1652,
    " appro": 1653,
    " met": 1654,
    " look": 1655,
    " require": 1656,
    " language": 1657,
    "und": 1658,
    " grou": 1659,
    "aw": 1660,
    " few": 1661,
    " care": 1662,
    "oh": 1663,
    " interest": 1664,
    " means": 1665,
    " consider": 1666,
    " project": 1667,
    " pub": 1668,
    "az": 1669,
    "viron": 1670,
    " write": 1671,
    "arr": 1672,
    "ript": 1673,
    " ens": 1674,
    " see": 1675,
    " On": 1676,
    " anal": 1677,
    " print": 1678,
    " \\)": 1679,
    " remain": 1680,
    " blo": 1681,
    " Since": 1682,
    "ills": 1683,
    "ries": 1684,
    "ouse": 1685,
    "over": 1686,
    " Se": 1687,
    "erc": 1688,
    "ined": 1689,
    " energy": 1690,
    " food": 1691,
    " input": 1692,
    " terms": 1693,
    " test": 1694,
    " offer": 1695,
    "ability": 1696,
    " needs": 1697,
    "ength": 1698,
    "ced": 1699,
    "raph": 1700,
    " hum": 1701,
    " month": 1702,
    " bra": 1703,
    "60": 1704,
    "ically": 1705,
    " chang": 1706,
    " addition": 1707,
    " hist": 1708,
    " good": 1709,
    " grow": 1710,
    " par": 1711,
    " Let": 1712,
    "oun": 1713,
    " light": 1714,
    " explain": 1715,
    "ccess": 1716,
    " story": 1717,
    " best": 1718,
    " ref": 1719,
    " often": 1720,
    "ik": 1721,
    " self": 1722,
    " place": 1723,
    "oney": 1724,
    "ases": 1725,
    ".\"": 1726,
    "com": 1727,
    "tle": 1728,
    " bel": 1729,
    " provid": 1730,
    " give": 1731,
    " environ": 1732,
    " show": 1733,
    " prot": 1734,
    "40": 1735,
    " game": 1736,
    " webs": 1737,
    "pend": 1738,
    " bro": 1739,
    " Be": 1740,
    " top": 1741,
    " local": 1742,
    "ories": 1743,
    "ims": 1744,
    " \\[": 1745,
    " ident": 1746,
    " conf": 1747,
    " ment": 1748,
    " partic": 1749,
    "gin": 1750,
    " significant": 1751,
    " pres": 1752,
    "ale": 1753,
    " bre": 1754,
    " key": 1755,
    "cks": 1756,
    "ization": 1757,
    " current": 1758,
    " old": 1759,
    " sever": 1760,
    " store": 1761,
    "ted": 1762,
    " steps": 1763,
    " Fr": 1764,
    "ists": 1765,
    "ah": 1766,
    "imate": 1767,
    " keep": 1768,
    "ggest": 1769,
    "iting": 1770,
    " year": 1771,
    " same": 1772,
    "meric": 1773,
    "alk": 1774,
    "por": 1775,
    "ody": 1776,
    " sure": 1777,
    " rest": 1778,
    " const": 1779,
    " ext": 1780,
    " second": 1781,
    " del": 1782,
    "ross": 1783,
    " \\]": 1784,
    " individ": 1785,
    " calculate": 1786,
    ");": 1787,
    "otal": 1788,
    " 100": 1789,
    " suggest": 1790,
    " week": 1791,
    "ared": 1792,
    " toget": 1793,
    " together": 1794,
    " poss": 1795,
    " desc": 1796,
    " Therefore": 1797,
    "ethod": 1798,
    " numbers": 1799,
    " proble": 1800,
    " activ": 1801,
    " certain": 1802,
    "plement": 1803,
    "ients": 1804,
    " personal": 1805,
    "ral": 1806,
    "igin": 1807,
    "ounds": 1808,
    "oot": 1809,
    " cook": 1810,
    "ought": 1811,
    "reen": 1812,
    "vent": 1813,
    "work": 1814,
    " home": 1815,
    "ull": 1816,
    "}{": 1817,
    "str": 1818,
    " child": 1819,
    " potential": 1820,
    " school": 1821,
    " saf": 1822,
    " uns": 1823,
    "imes": 1824,
    "ask": 1825,
    "frac": 1826,
    " sl": 1827,
    " Americ": 1828,
    " think": 1829,
    "aut": 1830,
    " name": 1831,
    " without": 1832,
    " gr": 1833,
    " media": 1834,
    "'re": 1835,
    "iled": 1836,
    " |": 1837,
    " cla": 1838,
    " don": 1839,
    " success": 1840,
    " Cont": 1841,
    " el": 1842,
    " bene": 1843,
    "iving": 1844,
    " now": 1845,
    "lish": 1846,
    "ency": 1847,
    " family": 1848,
    " rese": 1849,
    " By": 1850,
    " environment": 1851,
    " indust": 1852,
    " unique": 1853,
    "ision": 1854,
    " manag": 1855,
    " pie": 1856,
    " important": 1857,
    " technology": 1858,
    " New": 1859,
    "**": 1860,
    " less": 1861,
    "ird": 1862,
    " run": 1863,
    "be": 1864,
    " elect": 1865,
    " cap": 1866,
    " oper": 1867,
    "alls": 1868,
    "ond": 1869,
    " air": 1870,
    " ca": 1871,
    " method": 1872,
    "__": 1873,
    " development": 1874,
    "'m": 1875,
    " easier": 1876,
    "ems": 1877,
    " ess": 1878,
    " sec": 1879,
    " open": 1880,
    " level": 1881,
    " Im": 1882,
    "ward": 1883,
    " known": 1884,
    " And": 1885,
    " area": 1886,
    " challeng": 1887,
    " mar": 1888,
    " based": 1889,
    " mov": 1890,
    " music": 1891,
    " cr": 1892,
    " right": 1893,
    " several": 1894,
    " obser": 1895,
    " clo": 1896,
    "atch": 1897,
    " beh": 1898,
    "----": 1899,
    " enc": 1900,
    " comb": 1901,
    "ploy": 1902,
    " those": 1903,
    "15": 1904,
    "ables": 1905,
    " website": 1906,
    " **": 1907,
    " Com": 1908,
    " explanation": 1909,
    " again": 1910,
    " tre": 1911,
    "rol": 1912,
    " opp": 1913,
    "ways": 1914,
    " object": 1915,
    " Acc": 1916,
    "ital": 1917,
    " cour": 1918,
    " proper": 1919,
    " Le": 1920,
    " pain": 1921,
    " invol": 1922,
    " company": 1923,
    "aterial": 1924,
    " large": 1925,
    "orth": 1926,
    "iver": 1927,
    "err": 1928,
    " infl": 1929,
    " love": 1930,
    "new": 1931,
    "alf": 1932,
    " lit": 1933,
    "til": 1934,
    "itions": 1935,
    " Sc": 1936,
    " range": 1937,
    " sent": 1938,
    "ism": 1939,
    " contain": 1940,
    "orn": 1941,
    " benef": 1942,
    " because": 1943,
    "..": 1944,
    " order": 1945,
    " check": 1946,
    "upport": 1947,
    " est": 1948,
    " quest": 1949,
    " state": 1950,
    " Em": 1951,
    "de": 1952,
    " city": 1953,
    " money": 1954,
    " soft": 1955,
    " Cal": 1956,
    " Cl": 1957,
    " stand": 1958,
    " pa": 1959,
    "ton": 1960,
    " But": 1961,
    " integ": 1962,
    "ery": 1963,
    " Ind": 1964,
    "ished": 1965,
    " tool": 1966,
    " books": 1967,
    " reason": 1968,
    "bo": 1969,
    " character": 1970,
    " origin": 1971,
    " helps": 1972,
    "80": 1973,
    " remember": 1974,
    "yle": 1975,
    " lo": 1976,
    " please": 1977,
    " ensure": 1978,
    " case": 1979,
    " length": 1980,
    "30": 1981,
    "ording": 1982,
    " 16": 1983,
    " 50": 1984,
    "ug": 1985,
    "verage": 1986,
    "ield": 1987,
    "ush": 1988,
    " 25": 1989,
    "atural": 1990,
    " common": 1991,
    " box": 1992,
    " implement": 1993,
    " must": 1994,
    " mom": 1995,
    " comput": 1996,
    " content": 1997,
    " dem": 1998,
    "oose": 1999,
    " Sure": 2000,
    " 40": 2001,
    " action": 2002,
    " material": 2003,
    " strateg": 2004,
    " fac": 2005,
    " multi": 2006,
    " Con": 2007,
    " claims": 2008,
    " facts": 2009,
    " sense": 2010,
    " book": 2011,
    " Do": 2012,
    " various": 2013,
    " effective": 2014,
    " line": 2015,
    " features": 2016,
    " until": 2017,
    " rece": 2018,
    " 60": 2019,
    " Start": 2020,
    "ailed": 2021,
    " applic": 2022,
    "to": 2023,
    "iate": 2024,
    " still": 2025,
    "tain": 2026,
    "ived": 2027,
    " customer": 2028,
    " begin": 2029,
    " won": 2030,
    "<<": 2031,
    " reduce": 2032,
    " iss": 2033,
    "back": 2034,
    " public": 2035,
    " anim": 2036,
    " group": 2037,
    "avor": 2038,
    "ven": 2039,
    "ommend": 2040,
    " Joh": 2041,
    " avail": 2042,
    " dig": 2043,
    "inc": 2044,
    "ape": 2045,
    " init": 2046,
    "ium": 2047,
    " equation": 2048,
    " learning": 2049,
    " might": 2050,
    "ern": 2051,
    " tem": 2052,
    " Over": 2053,
    " popular": 2054,
    " Total": 2055,
    "let": 2056,
    "oon": 2057,
    " community": 2058,
    " research": 2059,
    "(\"": 2060,
    " services": 2061,
    "ieve": 2062,
    " move": 2063,
    " ways": 2064,
    " four": 2065,
    "ights": 2066,
    " repres": 2067,
    " space": 2068,
    "ication": 2069,
    " miles": 2070,
    " string": 2071,
    " clear": 2072,
    "val": 2073,
    " relations": 2074,
    "conom": 2075,
    "ron": 2076,
    " wa": 2077,
    "uss": 2078,
    "upported": 2079,
    " details": 2080,
    " better": 2081,
    " gl": 2082,
    "by": 2083,
    " Eng": 2084,
    " flow": 2085,
    " feet": 2086,
    " experi": 2087,
    " dep": 2088,
    " recommend": 2089,
    " takes": 2090,
    "sc": 2091,
    " last": 2092,
    " unsupported": 2093,
    " invest": 2094,
    " pay": 2095,
    " 199": 2096,
    " squ": 2097,
    " aud": 2098,
    " goals": 2099,
    " At": 2100,
    " land": 2101,
    "'ll": 2102,
    "fect": 2103,
    "pping": 2104,
    " file": 2105,
    " under": 2106,
    "umber": 2107,
    " change": 2108,
    " mind": 2109,
    "ator": 2110,
    " complex": 2111,
    "tun": 2112,
    "\",": 2113,
    " di": 2114,
    "wards": 2115,
    " larg": 2116,
    " sit": 2117,
    " always": 2118,
    " mean": 2119,
    "cture": 2120,
    " able": 2121,
    " history": 2122,
    " emot": 2123,
    " free": 2124,
    "ury": 2125,
    " users": 2126,
    " friends": 2127,
    " another": 2128,
    " age": 2129,
    " determ": 2130,
    " say": 2131,
    " Us": 2132,
    "ditionally": 2133,
    " 24": 2134,
    "ination": 2135,
    "ead": 2136,
    " half": 2137,
    " model": 2138,
    " 201": 2139,
    "ming": 2140,
    "ots": 2141,
    "less": 2142,
    " mess": 2143,
    " resources": 2144,
    " event": 2145,
    " control": 2146,
    "ott": 2147,
    "uals": 2148,
    " Col": 2149,
    "arget": 2150,
    "ann": 2151,
    "atform": 2152,
    "ee": 2153,
    "ired": 2154,
    " Sim": 2155,
    " points": 2156,
    "ditional": 2157,
    " products": 2158,
    " head": 2159,
    "istic": 2160,
    "vert": 2161,
    "au": 2162,
    " pack": 2163,
    "cial": 2164,
    "abor": 2165,
    " spent": 2166,
    " natural": 2167,
    " break": 2168,
    " //": 2169,
    " appe": 2170,
    " educ": 2171,
    " happ": 2172,
    "aj": 2173,
    " possible": 2174,
    " type": 2175,
    " works": 2176,
    " track": 2177,
    " den": 2178,
    "raw": 2179,
    "orm": 2180,
    " observe": 2181,
    " industry": 2182,
    " body": 2183,
    "outh": 2184,
    " dev": 2185,
    "oes": 2186,
    " phys": 2187,
    " side": 2188,
    " sw": 2189,
    " additional": 2190,
    "br": 2191,
    " within": 2192,
    "ney": 2193,
    " options": 2194,
    " influ": 2195,
    " ho": 2196,
    " reasoning": 2197,
    " price": 2198,
    " ###": 2199,
    "ored": 2200,
    " sides": 2201,
    "ferences": 2202,
    "ilities": 2203,
    " With": 2204,
    " lim": 2205,
    " online": 2206,
    " rele": 2207,
    " Yes": 2208,
    "ument": 2209,
    " Q": 2210,
    "orts": 2211,
    "ffect": 2212,
    " areas": 2213,
    " weight": 2214,
    "ibr": 2215,
    " human": 2216,
    " sold": 2217,
    "rag": 2218,
    "resh": 2219,
    " upd": 2220,
    "ball": 2221,
    " sing": 2222,
    " beaut": 2223,
    "mat": 2224,
    "play": 2225,
    " ris": 2226,
    " platform": 2227,
    " American": 2228,
    " role": 2229,
    " available": 2230,
    " tips": 2231,
    "par": 2232,
    " vide": 2233,
    " red": 2234,
    " colle": 2235,
    " employ": 2236,
    " buy": 2237,
    " net": 2238,
    " safe": 2239,
    " engag": 2240,
    " skills": 2241,
    "hips": 2242,
    " arr": 2243,
    " events": 2244,
    "idd": 2245,
    "oring": 2246,
    " ####": 2247,
    "pped": 2248,
    "yc": 2249,
    "iety": 2250,
    " After": 2251,
    " exerc": 2252,
    " 11": 2253,
    "ock": 2254,
    " Additionally": 2255,
    " ach": 2256,
    " 14": 2257,
    " Python": 2258,
    " John": 2259,
    " perfect": 2260,
    "urs": 2261,
    " effic": 2262,
    " Continue": 2263,
    "rodu": 2264,
    " identify": 2265,
    " Pr": 2266,
    "orpor": 2267,
    "tract": 2268,
    " fore": 2269,
    "25": 2270,
    " others": 2271,
    " profess": 2272,
    " types": 2273,
    " challenges": 2274,
    " study": 2275,
    " positive": 2276,
    " cul": 2277,
    " past": 2278,
    "aster": 2279,
    " systems": 2280,
    "The": 2281,
    "cing": 2282,
    " Z": 2283,
    " provides": 2284,
    " econom": 2285,
    "ustain": 2286,
    " come": 2287,
    "joy": 2288,
    " feeling": 2289,
    "ortun": 2290,
    " values": 2291,
    " z": 2292,
    " target": 2293,
    " First": 2294,
    " strong": 2295,
    "aces": 2296,
    " customers": 2297,
    " uses": 2298,
    " problem": 2299,
    "ource": 2300,
    "ls": 2301,
    "ches": 2302,
    " costs": 2303,
    "elt": 2304,
    "fr": 2305,
    "ane": 2306,
    "izing": 2307,
    "ese": 2308,
    " travel": 2309,
    "ung": 2310,
    " offers": 2311,
    " increase": 2312,
    "vern": 2313,
    " performance": 2314,
    " feed": 2315,
    " sell": 2316,
    " divide": 2317,
    " En": 2318,
    " remaining": 2319,
    "100": 2320,
    " United": 2321,
    " mix": 2322,
    "cent": 2323,
    "uck": 2324,
    " share": 2325,
    " press": 2326,
    " opportun": 2327,
    " sym": 2328,
    " writing": 2329,
    "urther": 2330,
    " training": 2331,
    "aves": 2332,
    " array": 2333,
    "tend": 2334,
    " activities": 2335,
    " software": 2336,
    " speed": 2337,
    " creating": 2338,
    " become": 2339,
    " sound": 2340,
    " Some": 2341,
    " dog": 2342,
    " contin": 2343,
    "bles": 2344,
    " Wor": 2345,
    "ina": 2346,
    "ogn": 2347,
    " search": 2348,
    " es": 2349,
    "ye": 2350,
    "utions": 2351,
    "oice": 2352,
    " stat": 2353,
    "thing": 2354,
    " camp": 2355,
    "oint": 2356,
    " quick": 2357,
    " imm": 2358,
    " hard": 2359,
    " protect": 2360,
    "ograph": 2361,
    " turn": 2362,
    " average": 2363,
    "me": 2364,
    " elements": 2365,
    " non": 2366,
    " very": 2367,
    "aring": 2368,
    " X": 2369,
    "ding": 2370,
    " Sp": 2371,
    " phot": 2372,
    " govern": 2373,
    "gor": 2374,
    " members": 2375,
    " solve": 2376,
    "cl": 2377,
    "ysis": 2378,
    " jour": 2379,
    " occ": 2380,
    "ances": 2381,
    " visit": 2382,
    " meas": 2383,
    " represent": 2384,
    " progress": 2385,
    " traditional": 2386,
    " benefits": 2387,
    " marketing": 2388,
    " mag": 2389,
    " distance": 2390,
    " special": 2391,
    " Fin": 2392,
    " earn": 2393,
    " fut": 2394,
    " call": 2395,
    " service": 2396,
    "here": 2397,
    "ified": 2398,
    " compet": 2399,
    " &": 2400,
    "ume": 2401,
    " across": 2402,
    "ided": 2403,
    " cand": 2404,
    " really": 2405,
    " Mar": 2406,
    " wind": 2407,
    " never": 2408,
    " away": 2409,
    " smaller": 2410,
    " room": 2411,
    " sustain": 2412,
    " Te": 2413,
    " children": 2414,
    " heart": 2415,
    " post": 2416,
    " Is": 2417,
    " intern": 2418,
    " rate": 2419,
    " moment": 2420,
    " err": 2421,
    " Or": 2422,
    "asing": 2423,
    " leg": 2424,
    " size": 2425,
    "enn": 2426,
    "iques": 2427,
    " present": 2428,
    "co": 2429,
    "gorith": 2430,
    " color": 2431,
    " multiple": 2432,
    " flo": 2433,
    "text": 2434,
    " too": 2435,
    " Certain": 2436,
    "iversity": 2437,
    " account": 2438,
    " contrib": 2439,
    "lear": 2440,
    " individuals": 2441,
    " stay": 2442,
    " AI": 2443,
    " song": 2444,
    " Am": 2445,
    " walk": 2446,
    "19": 2447,
    "uce": 2448,
    " email": 2449,
    "omet": 2450,
    "rap": 2451,
    " games": 2452,
    " related": 2453,
    " mental": 2454,
    " original": 2455,
    " 13": 2456,
    " mot": 2457,
    " initial": 2458,
    "ression": 2459,
    " view": 2460,
    " analy": 2461,
    "**:": 2462,
    " Certainly": 2463,
    " mach": 2464,
    " working": 2465,
    " Red": 2466,
    "raft": 2467,
    " quality": 2468,
    " Bl": 2469,
    " pages": 2470,
    " Det": 2471,
    " building": 2472,
    "ift": 2473,
    " Good": 2474,
    " Inst": 2475,
    " deep": 2476,
    "ream": 2477,
    " future": 2478,
    " third": 2479,
    " low": 2480,
    " trying": 2481,
    " explore": 2482,
    " allows": 2483,
    " programs": 2484,
    "nam": 2485,
    "hor": 2486,
    "ffic": 2487,
    "igns": 2488,
    " sens": 2489,
    " square": 2490,
    "ief": 2491,
    "times": 2492,
    " changes": 2493,
    ",\"": 2494,
    " goal": 2495,
    " things": 2496,
    "apt": 2497,
    "arth": 2498,
    " growth": 2499,
    " Tr": 2500,
    " friend": 2501,
    " comes": 2502,
    " essential": 2503,
    "ising": 2504,
    " estab": 2505,
    " house": 2506,
    " algorith": 2507,
    "ones": 2508,
    " needed": 2509,
    " since": 2510,
    "ultural": 2511,
    " wee": 2512,
    " Each": 2513,
    " approach": 2514,
    " items": 2515,
    "atio": 2516,
    " Main": 2517,
    "ec": 2518,
    " along": 2519,
    "ils": 2520,
    " apples": 2521,
    " diff": 2522,
    "man": 2523,
    " blue": 2524,
    " coll": 2525,
    "ley": 2526,
    " report": 2527,
    " techniques": 2528,
    " ideas": 2529,
    " management": 2530,
    " Overall": 2531,
    "urns": 2532,
    "ipe": 2533,
    "ivity": 2534,
    " course": 2535,
    " meet": 2536,
    " Car": 2537,
    " cup": 2538,
    " includes": 2539,
    "ring": 2540,
    " maintain": 2541,
    "',": 2542,
    "urity": 2543,
    " Pract": 2544,
    "'ve": 2545,
    "ption": 2546,
    " style": 2547,
    " address": 2548,
    "ently": 2549,
    " full": 2550,
    " hig": 2551,
    "200": 2552,
    "pper": 2553,
    "light": 2554,
    "ised": 2555,
    " miss": 2556,
    "ibility": 2557,
    " sun": 2558,
    " 17": 2559,
    " collect": 2560,
    "usion": 2561,
    " reach": 2562,
    "iven": 2563,
    " fre": 2564,
    " foot": 2565,
    " log": 2566,
    "ulation": 2567,
    "ze": 2568,
    " enjoy": 2569,
    " subtract": 2570,
    "pos": 2571,
    "rict": 2572,
    "ows": 2573,
    " refer": 2574,
    "oci": 2575,
    " treat": 2576,
    " green": 2577,
    " job": 2578,
    " tools": 2579,
    " started": 2580,
    "rop": 2581,
    " season": 2582,
    " respons": 2583,
    "lished": 2584,
    " black": 2585,
    "hel": 2586,
    "ilt": 2587,
    " neg": 2588,
    " providing": 2589,
    "face": 2590,
    " describ": 2591,
    " pieces": 2592,
    "ret": 2593,
    " denote": 2594,
    " wide": 2595,
    " bought": 2596,
    " sn": 2597,
    " due": 2598,
    "lex": 2599,
    " affect": 2600,
    "ister": 2601,
    " bal": 2602,
    " called": 2603,
    "osp": 2604,
    " waiting": 2605,
    "uts": 2606,
    " physical": 2607,
    "ival": 2608,
    " audience": 2609,
    "ony": 2610,
    "iod": 2611,
    " Ph": 2612,
    " max": 2613,
    " 80": 2614,
    " analysis": 2615,
    " transport": 2616,
    "irc": 2617,
    " against": 2618,
    " lay": 2619,
    "acy": 2620,
    " Mon": 2621,
    "inks": 2622,
    " States": 2623,
    "sh": 2624,
    " pounds": 2625,
    " took": 2626,
    " win": 2627,
    "eter": 2628,
    "ditions": 2629,
    "unch": 2630,
    " materials": 2631,
    "ids": 2632,
    "iction": 2633,
    " issues": 2634,
    " pair": 2635,
    " bag": 2636,
    "ularly": 2637,
    " optim": 2638,
    "icult": 2639,
    "16": 2640,
    "ises": 2641,
    "ration": 2642,
    "af": 2643,
    " brand": 2644,
    " else": 2645,
    "itation": 2646,
    " compan": 2647,
    " incorpor": 2648,
    " la": 2649,
    " purch": 2650,
    " series": 2651,
    "time": 2652,
    " field": 2653,
    " Des": 2654,
    " bat": 2655,
    " characters": 2656,
    " expect": 2657,
    " tour": 2658,
    "ges": 2659,
    " questions": 2660,
    "anced": 2661,
    " hy": 2662,
    "ata": 2663,
    " felt": 2664,
    " understanding": 2665,
    " vol": 2666,
    " overall": 2667,
    " variety": 2668,
    "oll": 2669,
    " Inc": 2670,
    " crit": 2671,
    "pro": 2672,
    "egin": 2673,
    " bir": 2674,
    "min": 2675,
    "word": 2676,
    " jo": 2677,
    "side": 2678,
    " cards": 2679,
    " difficult": 2680,
    " successful": 2681,
    " fish": 2682,
    " ru": 2683,
    "nov": 2684,
    "asks": 2685,
    " meaning": 2686,
    " Number": 2687,
    "ering": 2688,
    " night": 2689,
    " prevent": 2690,
    "ilar": 2691,
    "bal": 2692,
    " network": 2693,
    "ters": 2694,
    " plant": 2695,
    " All": 2696,
    " Sy": 2697,
    "ners": 2698,
    " ball": 2699,
    " single": 2700,
    " businesses": 2701,
    " designed": 2702,
    " period": 2703,
    " score": 2704,
    " strugg": 2705,
    " kil": 2706,
    " complete": 2707,
    "ai": 2708,
    "fort": 2709,
    "izz": 2710,
    " twice": 2711,
    " five": 2712,
    " word": 2713,
    "reath": 2714,
    " veget": 2715,
    " sentence": 2716,
    " country": 2717,
    " choose": 2718,
    " players": 2719,
    " swe": 2720,
    " among": 2721,
    " port": 2722,
    "ledge": 2723,
    "the": 2724,
    " Direct": 2725,
    " University": 2726,
    " block": 2727,
    " video": 2728,
    " education": 2729,
    " fit": 2730,
    " Short": 2731,
    " wom": 2732,
    " young": 2733,
    " egg": 2734,
    "ocol": 2735,
    " ge": 2736,
    " da": 2737,
    " largest": 2738,
    " paper": 2739,
    "ees": 2740,
    " provided": 2741,
    "room": 2742,
    " maj": 2743,
    " throughout": 2744,
    "ump": 2745,
    " film": 2746,
    " ask": 2747,
    " experiences": 2748,
    " chick": 2749,
    " going": 2750,
    " That": 2751,
    " structure": 2752,
    "ention": 2753,
    "based": 2754,
    " Comm": 2755,
    "path": 2756,
    " looking": 2757,
    "arent": 2758,
    " handle": 2759,
    "mon": 2760,
    "tures": 2761,
    " Che": 2762,
    "place": 2763,
    " hope": 2764,
    " ratio": 2765,
    "aling": 2766,
    " Aust": 2767,
    " Ser": 2768,
    " descript": 2769,
    " oil": 2770,
    " further": 2771,
    " fru": 2772,
    " Import": 2773,
    "aur": 2774,
    "sing": 2775,
    " necess": 2776,
    "uro": 2777,
    " cm": 2778,
    "ups": 2779,
    " stress": 2780,
    "iment": 2781,
    "olution": 2782,
    " behav": 2783,
    " taking": 2784,
    " became": 2785,
    " Add": 2786,
    " cover": 2787,
    " fresh": 2788,
    " face": 2789,
    "eds": 2790,
    " months": 2791,
    "\")": 2792,
    "ched": 2793,
    " difference": 2794,
    " practices": 2795,
    "18": 2796,
    " student": 2797,
    " government": 2798,
    " message": 2799,
    " Ro": 2800,
    "\".": 2801,
    "care": 2802,
    "_n": 2803,
    " rout": 2804,
    "ads": 2805,
    " exc": 2806,
    " output": 2807,
    " culture": 2808,
    " feedback": 2809,
    " ability": 2810,
    " knew": 2811,
    " got": 2812,
    "ork": 2813,
    " communication": 2814,
    " depend": 2815,
    " Begin": 2816,
    "duct": 2817,
    " gen": 2818,
    " kind": 2819,
    " plants": 2820,
    " flavor": 2821,
    " nature": 2822,
    " rather": 2823,
    "mar": 2824,
    " Br": 2825,
    " World": 2826,
    " pressure": 2827,
    " achieve": 2828,
    "lying": 2829,
    "ready": 2830,
    "ruction": 2831,
    " early": 2832,
    "gar": 2833,
    "ued": 2834,
    " encou": 2835,
    " ste": 2836,
    " Her": 2837,
    " mill": 2838,
    " animals": 2839,
    " spend": 2840,
    " visual": 2841,
    "ancial": 2842,
    " bas": 2843,
    "24": 2844,
    " Clear": 2845,
    " Count": 2846,
    " practice": 2847,
    " base": 2848,
    " vir": 2849,
    " live": 2850,
    " enh": 2851,
    "bum": 2852,
    " polic": 2853,
    " Your": 2854,
    " computer": 2855,
    "aries": 2856,
    "enced": 2857,
    " English": 2858,
    " companies": 2859,
    " tasks": 2860,
    " adj": 2861,
    " breath": 2862,
    " Plain": 2863,
    " application": 2864,
    " levels": 2865,
    "uation": 2866,
    " \\).": 2867,
    " hot": 2868,
    "rew": 2869,
    "ests": 2870,
    " efficient": 2871,
    "of": 2872,
    " 197": 2873,
    " Simple": 2874,
    " focused": 2875,
    " individual": 2876,
    " cell": 2877,
    " law": 2878,
    " School": 2879,
    " According": 2880,
    " cultural": 2881,
    " ing": 2882,
    " began": 2883,
    "terns": 2884,
    " recogn": 2885,
    " located": 2886,
    " element": 2887,
    " towards": 2888,
    " Response": 2889,
    " sle": 2890,
    "not": 2891,
    " arg": 2892,
    " promot": 2893,
    " answering": 2894,
    " machine": 2895,
    " Calm": 2896,
    " South": 2897,
    " though": 2898,
    "redients": 2899,
    " marbles": 2900,
    " modern": 2901,
    " already": 2902,
    "iding": 2903,
    "rast": 2904,
    "reate": 2905,
    "ster": 2906,
    " bring": 2907,
    " determine": 2908,
    "erson": 2909,
    " sav": 2910,
    " added": 2911,
    "agon": 2912,
    " electric": 2913,
    " similar": 2914,
    "yl": 2915,
    " Plainly": 2916,
    " caus": 2917,
    " hold": 2918,
    "vant": 2919,
    " instead": 2920,
    "aken": 2921,
    " factors": 2922,
    " sales": 2923,
    " Ge": 2924,
    " created": 2925,
    " sat": 2926,
    " general": 2927,
    " major": 2928,
    "ford": 2929,
    "med": 2930,
    " collabor": 2931,
    " National": 2932,
    " dark": 2933,
    " Important": 2934,
    " living": 2935,
    "vious": 2936,
    " streng": 2937,
    " weeks": 2938,
    " May": 2939,
    " My": 2940,
    " Usually": 2941,
    " beginner": 2942,
    " patterns": 2943,
    " 198": 2944,
    " strategies": 2945,
    "arl": 2946,
    "cript": 2947,
    "ties": 2948,
    " put": 2949,
    "atic": 2950,
    " professional": 2951,
    " sort": 2952,
    "amed": 2953,
    "ological": 2954,
    " Tra": 2955,
    " review": 2956,
    "head": 2957,
    "14": 2958,
    "imum": 2959,
    " white": 2960,
    "icate": 2961,
    "action": 2962,
    "aches": 2963,
    " consum": 2964,
    " pred": 2965,
    " ==": 2966,
    " Man": 2967,
    " far": 2968,
    " glo": 2969,
    " least": 2970,
    "avig": 2971,
    "come": 2972,
    " Med": 2973,
    " player": 2974,
    " Hist": 2975,
    " comfort": 2976,
    " engine": 2977,
    "ele": 2978,
    " Helpful": 2979,
    "izes": 2980,
    " Detailed": 2981,
    "ales": 2982,
    " Rem": 2983,
    " cut": 2984,
    " libr": 2985,
    " lost": 2986,
    "view": 2987,
    " gain": 2988,
    " why": 2989,
    " Reg": 2990,
    " town": 2991,
    "rams": 2992,
    "))": 2993,
    "bol": 2994,
    " percent": 2995,
    "iam": 2996,
    "idence": 2997,
    " Practical": 2998,
    " insp": 2999,
    "--------": 3000,
    " economic": 3001,
    "my": 3002,
    " Cons": 3003,
    " table": 3004,
    " arch": 3005,
    "pecial": 3006,
    " promote": 3007,
    " leading": 3008,
    " opportunities": 3009,
    " trip": 3010,
    "umb": 3011,
    " equal": 3012,
    " warm": 3013,
    " US": 3014,
    " knowledge": 3015,
    " Sam": 3016,
    " once": 3017,
    " tick": 3018,
    " While": 3019,
    " journey": 3020,
    " adding": 3021,
    "ountain": 3022,
    " negative": 3023,
    " results": 3024,
    " Finally": 3025,
    "iful": 3026,
    "izations": 3027,
    " dest": 3028,
    " exist": 3029,
    " big": 3030,
    "inary": 3031,
    "ED": 3032,
    "board": 3033,
    " changed": 3034,
    " financial": 3035,
    " necessary": 3036,
    " received": 3037,
    " cookies": 3038,
    "hers": 3039,
    " bar": 3040,
    "acks": 3041,
    "tual": 3042,
    " near": 3043,
    " sources": 3044,
    "fact": 3045,
    " transform": 3046,
    "python": 3047,
    " Accurate": 3048,
    " Cent": 3049,
    " autom": 3050,
    " played": 3051,
    "rist": 3052,
    "list": 3053,
    " ground": 3054,
    " bott": 3055,
    " innov": 3056,
    "ext": 3057,
    "hens": 3058,
    " colors": 3059,
    " said": 3060,
    "iend": 3061,
    " Directly": 3062,
    " Then": 3063,
    " trees": 3064,
    "ctor": 3065,
    "do": 3066,
    "imately": 3067,
    "tt": 3068,
    " final": 3069,
    "augh": 3070,
    "bon": 3071,
    " Austral": 3072,
    " healthy": 3073,
    "icle": 3074,
    " campa": 3075,
    "ooth": 3076,
    "pty": 3077,
    " objects": 3078,
    " sustainable": 3079,
    "angle": 3080,
    " men": 3081,
    " repe": 3082,
    " select": 3083,
    " matter": 3084,
    "ellow": 3085,
    "aps": 3086,
    " ant": 3087,
    " led": 3088,
    " today": 3089,
    " distrib": 3090,
    "key": 3091,
    " helped": 3092,
    "rel": 3093,
    " album": 3094,
    " rad": 3095,
    " gall": 3096,
    "une": 3097,
    " express": 3098,
    " lower": 3099,
    " security": 3100,
    " production": 3101,
    " task": 3102,
    "iddle": 3103,
    "rec": 3104,
    " having": 3105,
    " relationships": 3106,
    " web": 3107,
    " error": 3108,
    "ounter": 3109,
    " $<<": 3110,
    " Su": 3111,
    " gave": 3112,
    " Brit": 3113,
    " countries": 3114,
    " meters": 3115,
    " doc": 3116,
    " farm": 3117,
    " park": 3118,
    " discount": 3119,
    " fund": 3120,
    " slow": 3121,
    " Mark": 3122,
    " particip": 3123,
    "adem": 3124,
    " close": 3125,
    " methods": 3126,
    " navig": 3127,
    " prior": 3128,
    " display": 3129,
    " effects": 3130,
    " cheese": 3131,
    " bi": 3132,
    " prep": 3133,
    " built": 3134,
    " defin": 3135,
    " enough": 3136,
    " attend": 3137,
    " row": 3138,
    " temper": 3139,
    "omes": 3140,
    " associ": 3141,
    " pick": 3142,
    "iet": 3143,
    " behind": 3144,
    " discuss": 3145,
    " parts": 3146,
    "ivate": 3147,
    " algorithm": 3148,
    " source": 3149,
    "PI": 3150,
    "erse": 3151,
    " climate": 3152,
    " pow": 3153,
    " Ke": 3154,
    " interact": 3155,
    " risk": 3156,
    "rage": 3157,
    " adjust": 3158,
    "ror": 3159,
    "oud": 3160,
    " generate": 3161,
    "agraph": 3162,
    " Create": 3163,
    " super": 3164,
    "ana": 3165,
    "urb": 3166,
    " later": 3167,
    " yourself": 3168,
    " station": 3169,
    " tax": 3170,
    " files": 3171,
    "gle": 3172,
    " went": 3173,
    "idge": 3174,
    " cars": 3175,
    " References": 3176,
    "oop": 3177,
    "eters": 3178,
    " seen": 3179,
    " wood": 3180,
    " introdu": 3181,
    "ops": 3182,
    " 36": 3183,
    " groups": 3184,
    " Could": 3185,
    " consist": 3186,
    "rand": 3187,
    " daily": 3188,
    " discover": 3189,
    " entire": 3190,
    " recipe": 3191,
    "arg": 3192,
    " science": 3193,
    " send": 3194,
    "ators": 3195,
    " little": 3196,
    "ses": 3197,
    " Pe": 3198,
    " location": 3199,
    " someone": 3200,
    " eat": 3201,
    "ude": 3202,
    "yes": 3203,
    " beautiful": 3204,
    " realistic": 3205,
    " higher": 3206,
    " nut": 3207,
    " relationship": 3208,
    " Co": 3209,
    "itor": 3210,
    "ternal": 3211,
    " hol": 3212,
    "ground": 3213,
    " tree": 3214,
    " written": 3215,
    " cou": 3216,
    " involves": 3217,
    "11": 3218,
    " Another": 3219,
    " symbol": 3220,
    " conditions": 3221,
    "aced": 3222,
    " cat": 3223,
    " temperature": 3224,
    " previous": 3225,
    " sche": 3226,
    "ered": 3227,
    " Our": 3228,
    " career": 3229,
    " position": 3230,
    " paragraph": 3231,
    "friend": 3232,
    " behavior": 3233,
    " came": 3234,
    " High": 3235,
    "obile": 3236,
    " tou": 3237,
    " ann": 3238,
    " author": 3239,
    " dou": 3240,
    " prim": 3241,
    " reducing": 3242,
    " whether": 3243,
    " Comp": 3244,
    " deb": 3245,
    "rame": 3246,
    "sequ": 3247,
    " ingredients": 3248,
    "St": 3249,
    "urg": 3250,
    " circ": 3251,
    " news": 3252,
    " increased": 3253,
    " renew": 3254,
    " Af": 3255,
    "ither": 3256,
    " Of": 3257,
    " band": 3258,
    "ites": 3259,
    "cast": 3260,
    " problems": 3261,
    " running": 3262,
    " datab": 3263,
    " format": 3264,
    "elves": 3265,
    "ively": 3266,
    " .": 3267,
    " Ap": 3268,
    " His": 3269,
    "lection": 3270,
    " sil": 3271,
    " Ass": 3272,
    " sounds": 3273,
    "istics": 3274,
    "raction": 3275,
    "oved": 3276,
    " frequ": 3277,
    " likely": 3278,
    " true": 3279,
    "rad": 3280,
    " concept": 3281,
    "stit": 3282,
    " quickly": 3283,
    " sweet": 3284,
    " inches": 3285,
    " gold": 3286,
    " thing": 3287,
    "enue": 3288,
    " cru": 3289,
    " gard": 3290,
    "ava": 3291,
    "ha": 3292,
    "pite": 3293,
    "pose": 3294,
    " Me": 3295,
    "serv": 3296,
    " County": 3297,
    "enge": 3298,
    "bor": 3299,
    "vey": 3300,
    "iation": 3301,
    " Fe": 3302,
    " tast": 3303,
    "cient": 3304,
    "selves": 3305,
    " From": 3306,
    " polit": 3307,
    " contact": 3308,
    " powerful": 3309,
    " flowers": 3310,
    " record": 3311,
    " returns": 3312,
    " Fl": 3313,
    " boxes": 3314,
    "go": 3315,
    " everything": 3316,
    " regular": 3317,
    "ken": 3318,
    " deg": 3319,
    " cause": 3320,
    " eggs": 3321,
    " ones": 3322,
    " thought": 3323,
    "astic": 3324,
    "useum": 3325,
    "ructions": 3326,
    " af": 3327,
    " engaging": 3328,
    " anx": 3329,
    "75": 3330,
    " greater": 3331,
    " above": 3332,
    " altern": 3333,
    "aging": 3334,
    " Dist": 3335,
    " heav": 3336,
    " lot": 3337,
    " surround": 3338,
    " memory": 3339,
    " sand": 3340,
    "itch": 3341,
    " Sm": 3342,
    " multip": 3343,
    "iles": 3344,
    " strength": 3345,
    " seem": 3346,
    " mor": 3347,
    " page": 3348,
    " Int": 3349,
    "'d": 3350,
    "itect": 3351,
    " balance": 3352,
    " emotional": 3353,
    " ut": 3354,
    " soon": 3355,
    "isf": 3356,
    " Dr": 3357,
    "ample": 3358,
    " card": 3359,
    " option": 3360,
    " projects": 3361,
    " save": 3362,
    " named": 3363,
    " saw": 3364,
    "ians": 3365,
    "oons": 3366,
    "uly": 3367,
    " Turn": 3368,
    " surv": 3369,
    " question": 3370,
    " effectively": 3371,
    " region": 3372,
    "ula": 3373,
    "ography": 3374,
    " height": 3375,
    "right": 3376,
    " Bu": 3377,
    " dam": 3378,
    " parent": 3379,
    " Out": 3380,
    " butter": 3381,
    "In": 3382,
    " lives": 3383,
    " paid": 3384,
    "book": 3385,
    " manage": 3386,
    "ification": 3387,
    " piece": 3388,
    " train": 3389,
    "urope": 3390,
    " applications": 3391,
    " adapt": 3392,
    " beauty": 3393,
    " employees": 3394,
    " histor": 3395,
    " milk": 3396,
    " bud": 3397,
    " longer": 3398,
    " path": 3399,
    " choo": 3400,
    " separ": 3401,
    " favor": 3402,
    "ules": 3403,
    " Once": 3404,
    " prote": 3405,
    " restaur": 3406,
    "aving": 3407,
    " gives": 3408,
    " eyes": 3409,
    " increasing": 3410,
    " 90": 3411,
    " sup": 3412,
    " typically": 3413,
    "ening": 3414,
    " Dis": 3415,
    "cer": 3416,
    " host": 3417,
    " link": 3418,
    " North": 3419,
    " loss": 3420,
    " worth": 3421,
    "att": 3422,
    " emotions": 3423,
    " taken": 3424,
    "ension": 3425,
    " done": 3426,
    "13": 3427,
    " fig": 3428,
    " offic": 3429,
    " ever": 3430,
    " install": 3431,
    " smooth": 3432,
    " transportation": 3433,
    "anger": 3434,
    "ma": 3435,
    " bit": 3436,
    " compre": 3437,
    " brother": 3438,
    " sleep": 3439,
    " Ed": 3440,
    " draw": 3441,
    " explanations": 3442,
    " ble": 3443,
    "ission": 3444,
    "itle": 3445,
    " cream": 3446,
    " detailed": 3447,
    " properties": 3448,
    "=<<": 3449,
    " Min": 3450,
    "iber": 3451,
    "iers": 3452,
    "imal": 3453,
    "uments": 3454,
    " allowing": 3455,
    "hood": 3456,
    "na": 3457,
    " doll": 3458,
    "icles": 3459,
    " El": 3460,
    " Soc": 3461,
    "('": 3462,
    " links": 3463,
    "mit": 3464,
    " developed": 3465,
    " ful": 3466,
    "oe": 3467,
    " City": 3468,
    "ensive": 3469,
    " exce": 3470,
    "oms": 3471,
    "pecially": 3472,
    " according": 3473,
    "ologies": 3474,
    " ill": 3475,
    " 22": 3476,
    " fire": 3477,
    "amb": 3478,
    " considered": 3479,
    " platforms": 3480,
    " rain": 3481,
    " reflect": 3482,
    " Will": 3483,
    " mass": 3484,
    " Afric": 3485,
    " univers": 3486,
    "ufact": 3487,
    " environmental": 3488,
    "ison": 3489,
    "rown": 3490,
    " emerg": 3491,
    " ded": 3492,
    " dise": 3493,
    " fall": 3494,
    " particularly": 3495,
    " Qu": 3496,
    " attention": 3497,
    " 32": 3498,
    "uted": 3499,
    " Europe": 3500,
    " renewable": 3501,
    " database": 3502,
    "era": 3503,
    " digital": 3504,
    " abs": 3505,
    " inde": 3506,
    " usually": 3507,
    " :": 3508,
    " Sub": 3509,
    " pic": 3510,
    " scient": 3511,
    " Christ": 3512,
    " No": 3513,
    " lif": 3514,
    " required": 3515,
    "ae": 3516,
    " center": 3517,
    " photos": 3518,
    " communities": 3519,
    " contains": 3520,
    " graph": 3521,
    " solutions": 3522,
    " tri": 3523,
    "ened": 3524,
    " 45": 3525,
    " Tw": 3526,
    " subject": 3527,
    " Stu": 3528,
    "ffee": 3529,
    " mention": 3530,
    " relevant": 3531,
    "illed": 3532,
    "odes": 3533,
    " extra": 3534,
    "ler": 3535,
    " aspect": 3536,
    " paint": 3537,
    " satisf": 3538,
    " suggestions": 3539,
    "omin": 3540,
    " actions": 3541,
    " worked": 3542,
    "ipment": 3543,
    " comprehens": 3544,
    "nder": 3545,
    " enhance": 3546,
    " cases": 3547,
    " virtual": 3548,
    " especially": 3549,
    " bow": 3550,
    " leaves": 3551,
    ".,": 3552,
    "etic": 3553,
    " happy": 3554,
    " Per": 3555,
    " Step": 3556,
    " cho": 3557,
    " property": 3558,
    " detect": 3559,
    " hair": 3560,
    " inside": 3561,
    "90": 3562,
    " choosing": 3563,
    "ara": 3564,
    "artment": 3565,
    "friendly": 3566,
    "isions": 3567,
    " careful": 3568,
    " sequ": 3569,
    " starting": 3570,
    "fulness": 3571,
    " functions": 3572,
    " decide": 3573,
    " fast": 3574,
    " poem": 3575,
    " 202": 3576,
    "ference": 3577,
    "elebr": 3578,
    " 21": 3579,
    " establish": 3580,
    "mp": 3581,
    " sauce": 3582,
    " percentage": 3583,
    " 35": 3584,
    " importance": 3585,
    " population": 3586,
    "pathy": 3587,
    " fu": 3588,
    " site": 3589,
    "sy": 3590,
    " API": 3591,
    " describe": 3592,
    " weather": 3593,
    " architect": 3594,
    " cannot": 3595,
    " sugar": 3596,
    " York": 3597,
    "aching": 3598,
    "atives": 3599,
    " Gu": 3600,
    " whole": 3601,
    " decision": 3602,
    " image": 3603,
    " interesting": 3604,
    " Also": 3605,
    "elling": 3606,
    "itude": 3607,
    " imag": 3608,
    " organizations": 3609,
    "dd": 3610,
    " chocol": 3611,
    " section": 3612,
    " 28": 3613,
    " itself": 3614,
    " Val": 3615,
    " choice": 3616,
    " shared": 3617,
    " dy": 3618,
    "_s": 3619,
    "ili": 3620,
    "roll": 3621,
    " respect": 3622,
    " spir": 3623,
    " emb": 3624,
    " factual": 3625,
    " images": 3626,
    " setting": 3627,
    "num": 3628,
    " balls": 3629,
    " doing": 3630,
    "imin": 3631,
    "olute": 3632,
    " 120": 3633,
    "apan": 3634,
    "fl": 3635,
    "name": 3636,
    "=\"": 3637,
    " budget": 3638,
    " associated": 3639,
    " bask": 3640,
    "ields": 3641,
    " 196": 3642,
    " Consider": 3643,
    " front": 3644,
    "icious": 3645,
    " Please": 3646,
    " supp": 3647,
    " anxiety": 3648,
    " hor": 3649,
    " classes": 3650,
    " recommendations": 3651,
    " ancient": 3652,
    " date": 3653,
    " numer": 3654,
    " library": 3655,
    "ius": 3656,
    "lude": 3657,
    " outside": 3658,
    " smallest": 3659,
    "quality": 3660,
    "wh": 3661,
    " creative": 3662,
    " pizz": 3663,
    "ew": 3664,
    "term": 3665,
    " occur": 3666,
    " themselves": 3667,
    "ieved": 3668,
    " demand": 3669,
    " essay": 3670,
    " forest": 3671,
    " relax": 3672,
    " either": 3673,
    " sou": 3674,
    " released": 3675,
    "],": 3676,
    "ky": 3677,
    " War": 3678,
    " larger": 3679,
    "illing": 3680,
    " meditation": 3681,
    "ruct": 3682,
    " manufact": 3683,
    "add": 3684,
    " Canad": 3685,
    " gir": 3686,
    "asc": 3687,
    "oyal": 3688,
    " touch": 3689,
    " vill": 3690,
    "mber": 3691,
    " revenue": 3692,
    " teac": 3693,
    " requires": 3694,
    " forms": 3695,
    " chance": 3696,
    " remind": 3697,
    " devices": 3698,
    " solution": 3699,
    " motiv": 3700,
    " watch": 3701,
    "rain": 3702,
    " crucial": 3703,
    " voice": 3704,
    "idth": 3705,
    " organization": 3706,
    " sports": 3707,
    " waste": 3708,
    "acc": 3709,
    " century": 3710,
    " vegetables": 3711,
    "icro": 3712,
    " currently": 3713,
    " Har": 3714,
    " Intern": 3715,
    " dress": 3716,
    " healthcare": 3717,
    " measure": 3718,
    " wants": 3719,
    " collection": 3720,
    " penc": 3721,
    " solar": 3722,
    " heat": 3723,
    " tele": 3724,
    "ycle": 3725,
    "la": 3726,
    "ox": 3727,
    " List": 3728,
    " commit": 3729,
    " mother": 3730,
    " six": 3731,
    " Rec": 3732,
    " global": 3733,
    " species": 3734,
    " veh": 3735,
    " Jack": 3736,
    " James": 3737,
    " empathy": 3738,
    " strategy": 3739,
    " easily": 3740,
    " wild": 3741,
    " party": 3742,
    " Japan": 3743,
    " interested": 3744,
    " match": 3745,
    " nove": 3746,
    " society": 3747,
    " cool": 3748,
    " famous": 3749,
    " advent": 3750,
    " operations": 3751,
    " pan": 3752,
    " herself": 3753,
    " index": 3754,
    " coffee": 3755,
    " empty": 3756,
    " getting": 3757,
    " slices": 3758,
    "string": 3759,
    " bul": 3760,
    "azing": 3761,
    "ellig": 3762,
    "oogle": 3763,
    " 27": 3764,
    " mist": 3765,
    " British": 3766,
    " aware": 3767,
    " stream": 3768,
    " gets": 3769,
    " insights": 3770,
    "____": 3771,
    " context": 3772,
    " movie": 3773,
    " roll": 3774,
    " ju": 3775,
    " mobile": 3776,
    " chicken": 3777,
    " et": 3778,
    " peace": 3779,
    " shap": 3780,
    "nes": 3781,
    " document": 3782,
    "phas": 3783,
    " except": 3784,
    " former": 3785,
    " rock": 3786,
    " trust": 3787,
    " Earth": 3788,
    " kg": 3789,
    "36": 3790,
    "pre": 3791,
    " 300": 3792,
    " gar": 3793,
    " surface": 3794,
    " Park": 3795,
    " cups": 3796,
    "AC": 3797,
    " History": 3798,
    " mid": 3799,
    " tall": 3800,
    "actions": 3801,
    " Sw": 3802,
    " background": 3803,
    " exercise": 3804,
    " assist": 3805,
    " equipment": 3806,
    "nown": 3807,
    "orage": 3808,
    "py": 3809,
    " apprec": 3810,
    " activity": 3811,
    "chan": 3812,
    " particular": 3813,
    " concl": 3814,
    " compon": 3815,
    " involved": 3816,
    " challenge": 3817,
    " demon": 3818,
    " sty": 3819,
    "gen": 3820,
    "orial": 3821,
    " carbon": 3822,
    " Part": 3823,
    " Stud": 3824,
    " phr": 3825,
    " integr": 3826,
    " member": 3827,
    " neigh": 3828,
    " valid": 3829,
    "order": 3830,
    " Tell": 3831,
    " movement": 3832,
    " round": 3833,
    " medical": 3834,
    "ole": 3835,
    " million": 3836,
    " skin": 3837,
    " road": 3838,
    " purchase": 3839,
    " bread": 3840,
    "aff": 3841,
    "ged": 3842,
    "icks": 3843,
    " standard": 3844,
    "inter": 3845,
    " Pre": 3846,
    " rich": 3847,
    "load": 3848,
    " playing": 3849,
    " conduct": 3850,
    " protein": 3851,
    " dream": 3852,
    "anks": 3853,
    "iency": 3854,
    " celebr": 3855,
    " cross": 3856,
    " critical": 3857,
    " drive": 3858,
    " stores": 3859,
    "otes": 3860,
    " fight": 3861,
    " reli": 3862,
    " Jan": 3863,
    " held": 3864,
    " push": 3865,
    " developing": 3866,
    " secure": 3867,
    "log": 3868,
    " seeds": 3869,
    " suit": 3870,
    "nal": 3871,
    " combined": 3872,
    " everyone": 3873,
    " categ": 3874,
    " updated": 3875,
    "urt": 3876,
    " hab": 3877,
    " Sar": 3878,
    " lab": 3879,
    " efforts": 3880,
    " preser": 3881,
    " produce": 3882,
    " >": 3883,
    " women": 3884,
    "iday": 3885,
    "ructure": 3886,
    " cred": 3887,
    " guid": 3888,
    "ux": 3889,
    " alm": 3890,
    " condition": 3891,
    " lines": 3892,
    " oun": 3893,
    " Are": 3894,
    " update": 3895,
    "dom": 3896,
    " exercises": 3897,
    " sets": 3898,
    "45": 3899,
    "ww": 3900,
    " appear": 3901,
    "ancing": 3902,
    " connection": 3903,
    " limit": 3904,
    " pu": 3905,
    " programming": 3906,
    " Many": 3907,
    " receive": 3908,
    " rob": 3909,
    "rought": 3910,
    " bill": 3911,
    " bags": 3912,
    " ver": 3913,
    "ormal": 3914,
    "ule": 3915,
    " guide": 3916,
    "oss": 3917,
    " chann": 3918,
    " du": 3919,
    " struct": 3920,
    "ulate": 3921,
    "eral": 3922,
    " 48": 3923,
    " State": 3924,
    " tables": 3925,
    " Reduce": 3926,
    " dish": 3927,
    " instructions": 3928,
    " phone": 3929,
    " request": 3930,
    "ades": 3931,
    " models": 3932,
    " Ang": 3933,
    " board": 3934,
    "ails": 3935,
    "che": 3936,
    "hib": 3937,
    " dogs": 3938,
    " wonder": 3939,
    "()`": 3940,
    " Art": 3941,
    " below": 3942,
    " command": 3943,
    " frame": 3944,
    " stories": 3945,
    "iced": 3946,
    " ado": 3947,
    " minute": 3948,
    " Mary": 3949,
    "hern": 3950,
    "org": 3951,
    " technologies": 3952,
    " visitors": 3953,
    " glass": 3954,
    " therap": 3955,
    "...": 3956,
    "ino": 3957,
    " salt": 3958,
    " server": 3959,
    "ached": 3960,
    "icing": 3961,
    " bound": 3962,
    " spread": 3963,
    " reading": 3964,
    "ague": 3965,
    " birth": 3966,
    " limited": 3967,
    " dance": 3968,
    " harm": 3969,
    "app": 3970,
    "irts": 3971,
    " Choose": 3972,
    " filled": 3973,
    "like": 3974,
    "oman": 3975,
    " Rep": 3976,
    " nutr": 3977,
    "urch": 3978,
    " 150": 3979,
    " grav": 3980,
    " comprehensive": 3981,
    " enter": 3982,
    " multiply": 3983,
    "500": 3984,
    "acity": 3985,
    "mary": 3986,
    " gas": 3987,
    "ply": 3988,
    "ym": 3989,
    " India": 3990,
    " safety": 3991,
    "verse": 3992,
    " upon": 3993,
    " academ": 3994,
    " exec": 3995,
    " highly": 3996,
    " Don": 3997,
    " established": 3998,
    " talk": 3999,
    "file": 4000,
    "ube": 4001,
    " cam": 4002,
    " sess": 4003,
    "//": 4004,
    " Their": 4005,
    " bed": 4006,
    " forward": 4007,
    "anges": 4008,
    "oming": 4009,
    " tex": 4010,
    "idents": 4011,
    " emphas": 4012,
    " giving": 4013,
    " studies": 4014,
    "\":": 4015,
    " datas": 4016,
    " personalized": 4017,
    "rics": 4018,
    " planning": 4019,
    "17": 4020,
    "print": 4021,
    " Prov": 4022,
    " lat": 4023,
    " Set": 4024,
    " favorite": 4025,
    "lymp": 4026,
    "box": 4027,
    " que": 4028,
    "dig": 4029,
    "ipes": 4030,
    "itary": 4031,
    " maximum": 4032,
    "inct": 4033,
    "opping": 4034,
    " Colle": 4035,
    " issue": 4036,
    "atively": 4037,
    "ders": 4038,
    " Bar": 4039,
    " Day": 4040,
    "irm": 4041,
    "berries": 4042,
    "32": 4043,
    " 26": 4044,
    " Indian": 4045,
    " System": 4046,
    " private": 4047,
    " tomat": 4048,
    "ords": 4049,
    "uff": 4050,
    "ublic": 4051,
    " directly": 4052,
    " dollars": 4053,
    " momentum": 4054,
    " predict": 4055,
    " leaders": 4056,
    " liter": 4057,
    "imb": 4058,
    "olutely": 4059,
    " adult": 4060,
    " anything": 4061,
    " included": 4062,
    " Pa": 4063,
    " Monday": 4064,
    " fix": 4065,
    " implementation": 4066,
    "ether": 4067,
    "ivil": 4068,
    " Av": 4069,
    " profit": 4070,
    "mosp": 4071,
    " ice": 4072,
    " conflic": 4073,
    "alse": 4074,
    " Olymp": 4075,
    " hands": 4076,
    " convert": 4077,
    " mentioned": 4078,
    " purpose": 4079,
    "change": 4080,
    " item": 4081,
    "uable": 4082,
    " Gree": 4083,
    " advanced": 4084,
    " amazing": 4085,
    " places": 4086,
    " realized": 4087,
    "fit": 4088,
    "iveness": 4089,
    " note": 4090,
    "aly": 4091,
    "NA": 4092,
    " initially": 4093,
    " international": 4094,
    " partners": 4095,
    "othing": 4096,
    " cooking": 4097,
    " mountain": 4098,
    " measures": 4099,
    " teams": 4100,
    " yog": 4101,
    " challenging": 4102,
    " deliver": 4103,
    "iff": 4104,
    "priate": 4105,
    " expected": 4106,
    " rand": 4107,
    " star": 4108,
    "99": 4109,
    " Air": 4110,
    " club": 4111,
    " parents": 4112,
    " understandable": 4113,
    " yellow": 4114,
    "ably": 4115,
    "airs": 4116,
    " Google": 4117,
    " presence": 4118,
    " During": 4119,
    " schedu": 4120,
    "case": 4121,
    " conclusion": 4122,
    " fruit": 4123,
    " Find": 4124,
    " Pol": 4125,
    " decor": 4126,
    "eper": 4127,
    "set": 4128,
    " island": 4129,
    " shape": 4130,
    " taste": 4131,
    " influence": 4132,
    " late": 4133,
    " names": 4134,
    " perspect": 4135,
    "ires": 4136,
    " depending": 4137,
    " ep": 4138,
    " spends": 4139,
    " highlight": 4140,
    " tickets": 4141,
    " variable": 4142,
    " simpl": 4143,
    "plies": 4144,
    "zz": 4145,
    " chocolate": 4146,
    " exact": 4147,
    "life": 4148,
    "reet": 4149,
    " Alex": 4150,
    " encourag": 4151,
    " integer": 4152,
    "://": 4153,
    " served": 4154,
    "35": 4155,
    "ental": 4156,
    " cast": 4157,
    " death": 4158,
    " Sarah": 4159,
    " storage": 4160,
    " pattern": 4161,
    " King": 4162,
    " pepper": 4163,
    " thr": 4164,
    " basket": 4165,
    " Dav": 4166,
    "ER": 4167,
    "anch": 4168,
    "comes": 4169,
    " atmosp": 4170,
    " compared": 4171,
    " pairs": 4172,
    " Remember": 4173,
    " demonstr": 4174,
    " scen": 4175,
    "asp": 4176,
    "estern": 4177,
    "hemat": 4178,
    "hent": 4179,
    " independ": 4180,
    " 500": 4181,
    " dishes": 4182,
    " pet": 4183,
    " random": 4184,
    " unit": 4185,
    " war": 4186,
    "rig": 4187,
    "`.": 4188,
    "ipping": 4189,
    "idden": 4190,
    "ille": 4191,
    "rror": 4192,
    " analyze": 4193,
    " depth": 4194,
    " expand": 4195,
    " finding": 4196,
    "hing": 4197,
    " constant": 4198,
    " sus": 4199,
    "aker": 4200,
    " advant": 4201,
    " calories": 4202,
    " morning": 4203,
    " Name": 4204,
    "umn": 4205,
    " clients": 4206,
    " rice": 4207,
    " accept": 4208,
    " published": 4209,
    " 70": 4210,
    " didn": 4211,
    " requirements": 4212,
    " External": 4213,
    " Tom": 4214,
    " plans": 4215,
    " West": 4216,
    " drink": 4217,
    "_d": 4218,
    " believe": 4219,
    " opportunity": 4220,
    "asons": 4221,
    " animal": 4222,
    " garden": 4223,
    " office": 4224,
    " compare": 4225,
    " improving": 4226,
    " instr": 4227,
    "pons": 4228,
    " concise": 4229,
    " regard": 4230,
    " sky": 4231,
    " unc": 4232,
    " moving": 4233,
    " Develop": 4234,
    " blood": 4235,
    " engagement": 4236,
    " seconds": 4237,
    " treatment": 4238,
    "_c": 4239,
    " attract": 4240,
    " potat": 4241,
    " Mus": 4242,
    " device": 4243,
    " esc": 4244,
    " compos": 4245,
    " grand": 4246,
    " cells": 4247,
    " dire": 4248,
    " serve": 4249,
    "$.": 4250,
    "plied": 4251,
    " II": 4252,
    "bert": 4253,
    "craft": 4254,
    " fear": 4255,
    " prec": 4256,
    "iking": 4257,
    "ronic": 4258,
    "vision": 4259,
    " gradu": 4260,
    " songs": 4261,
    " thoughts": 4262,
    "elligence": 4263,
    "sych": 4264,
    "ustr": 4265,
    " stop": 4266,
    "house": 4267,
    "plit": 4268,
    " Emily": 4269,
    " Gener": 4270,
    " voc": 4271,
    "que": 4272,
    "yond": 4273,
    " 195": 4274,
    "dr": 4275,
    " combination": 4276,
    " experienced": 4277,
    "ef": 4278,
    " Take": 4279,
    " dynam": 4280,
    " excell": 4281,
    " middle": 4282,
    " pencils": 4283,
    "words": 4284,
    " Ab": 4285,
    " Germ": 4286,
    " Great": 4287,
    " experiment": 4288,
    " narr": 4289,
    " soil": 4290,
    "digit": 4291,
    "flow": 4292,
    "ger": 4293,
    " Gr": 4294,
    " appropriate": 4295,
    " subs": 4296,
    "`,": 4297,
    "hest": 4298,
    "inner": 4299,
    " Java": 4300,
    " eval": 4301,
    " buys": 4302,
    " prepare": 4303,
    " stick": 4304,
    "hy": 4305,
    "oke": 4306,
    " political": 4307,
    "reg": 4308,
    " $\\": 4309,
    " Ag": 4310,
    " construction": 4311,
    " couldn": 4312,
    " feelings": 4313,
    " mel": 4314,
    "ashion": 4315,
    "rench": 4316,
    " preferences": 4317,
    " script": 4318,
    " fab": 4319,
    "reme": 4320,
    " ounces": 4321,
    " prob": 4322,
    " processing": 4323,
    " snow": 4324,
    "agonist": 4325,
    " fest": 4326,
    " situation": 4327,
    " stack": 4328,
    "icated": 4329,
    " earth": 4330,
    " shoes": 4331,
    "imeters": 4332,
    " candy": 4333,
    " recent": 4334,
    "issions": 4335,
    "rees": 4336,
    " Aut": 4337,
    " artists": 4338,
    "70": 4339,
    "year": 4340,
    " kilomet": 4341,
    " 23": 4342,
    " creatures": 4343,
    " seek": 4344,
    " Social": 4345,
    " delicious": 4346,
    " faster": 4347,
    "ena": 4348,
    "wood": 4349,
    " Check": 4350,
    " earnings": 4351,
    " mechan": 4352,
    " America": 4353,
    " Trans": 4354,
    " collected": 4355,
    " kids": 4356,
    " runs": 4357,
    "sole": 4358,
    " efficiency": 4359,
    " valuable": 4360,
    "veloper": 4361,
    "free": 4362,
    " weigh": 4363,
    "being": 4364,
    " fro": 4365,
    "bit": 4366,
    " Australia": 4367,
    " selling": 4368,
    " repeating": 4369,
    " 400": 4370,
    " Next": 4371,
    " leave": 4372,
    " meal": 4373,
    " primary": 4374,
    "atur": 4375,
    "cean": 4376,
    " Sal": 4377,
    " rates": 4378,
    "ivery": 4379,
    " produced": 4380,
    " stra": 4381,
    " advert": 4382,
    " afford": 4383,
    " fem": 4384,
    "though": 4385,
    " Despite": 4386,
    "++": 4387,
    "het": 4388,
    " Par": 4389,
    " academic": 4390,
    " birds": 4391,
    " learned": 4392,
    " statement": 4393,
    "ifying": 4394,
    " dry": 4395,
    " mindfulness": 4396,
    " traffic": 4397,
    " util": 4398,
    " hit": 4399,
    " broad": 4400,
    " outcomes": 4401,
    "son": 4402,
    " District": 4403,
    " Mich": 4404,
    " Techn": 4405,
    " bottles": 4406,
    " ter": 4407,
    " brought": 4408,
    " buildings": 4409,
    " continued": 4410,
    " prompt": 4411,
    "bu": 4412,
    "earch": 4413,
    "ilies": 4414,
    " bank": 4415,
    " Tex": 4416,
    "iring": 4417,
    "point": 4418,
    " Commun": 4419,
    " hear": 4420,
    " engage": 4421,
    " official": 4422,
    "ri": 4423,
    " Ital": 4424,
    "gs": 4425,
    "ightly": 4426,
    "roup": 4427,
    " 75": 4428,
    " ate": 4429,
    "')": 4430,
    "ugh": 4431,
    " loop": 4432,
    "300": 4433,
    " Bro": 4434,
    " ult": 4435,
    " allowed": 4436,
    " comfortable": 4437,
    " tracking": 4438,
    "zen": 4439,
    " designs": 4440,
    " salad": 4441,
    " College": 4442,
    " involve": 4443,
    "used": 4444,
    " decisions": 4445,
    " street": 4446,
    " trends": 4447,
    "cy": 4448,
    " 2000": 4449,
    " Ac": 4450,
    " divided": 4451,
    "sp": 4452,
    " cry": 4453,
    " flex": 4454,
    " kit": 4455,
    " kn": 4456,
    " older": 4457,
    " root": 4458,
    "urance": 4459,
    " concer": 4460,
    " processes": 4461,
    " humans": 4462,
    " investment": 4463,
    " themes": 4464,
    "AR": 4465,
    " chat": 4466,
    " hon": 4467,
    " hous": 4468,
    " clar": 4469,
    " tone": 4470,
    " thinking": 4471,
    "600": 4472,
    "rix": 4473,
    " catch": 4474,
    " communicate": 4475,
    " gallons": 4476,
    " sett": 4477,
    "encies": 4478,
    " interests": 4479,
    " campaign": 4480,
    " shel": 4481,
    " ten": 4482,
    "hold": 4483,
    " musc": 4484,
    " simply": 4485,
    " fields": 4486,
    " football": 4487,
    " income": 4488,
    " yet": 4489,
    "works": 4490,
    " follows": 4491,
    " yes": 4492,
    " Def": 4493,
    " diet": 4494,
    " letter": 4495,
    "ging": 4496,
    " pizza": 4497,
    " rent": 4498,
    "ios": 4499,
    " offering": 4500,
    " protagonist": 4501,
    "120": 4502,
    "Error": 4503,
    "cket": 4504,
    "hesis": 4505,
    " Mr": 4506,
    " Ste": 4507,
    " incorporate": 4508,
    " internet": 4509,
    "_list": 4510,
    " consequ": 4511,
    " patient": 4512,
    " usage": 4513,
    "more": 4514,
    " decided": 4515,
    " faced": 4516,
    " formula": 4517,
    " identity": 4518,
    " situ": 4519,
    "uesday": 4520,
    "arter": 4521,
    " remove": 4522,
    "400": 4523,
    " authent": 4524,
    " initi": 4525,
    " partner": 4526,
    " princ": 4527,
    " woman": 4528,
    "ny": 4529,
    "sert": 4530,
    " accom": 4531,
    " adds": 4532,
    " encourage": 4533,
    " op": 4534,
    " reality": 4535,
    " videos": 4536,
    "ricul": 4537,
    " carry": 4538,
    " developer": 4539,
    " River": 4540,
    " danger": 4541,
    " medium": 4542,
    " edge": 4543,
    " outdo": 4544,
    " Every": 4545,
    " digit": 4546,
    " policies": 4547,
    "atory": 4548,
    " House": 4549,
    " district": 4550,
    "abilities": 4551,
    "ipped": 4552,
    "uth": 4553,
    " Open": 4554,
    " basic": 4555,
    " father": 4556,
    " national": 4557,
    " pal": 4558,
    " race": 4559,
    " substit": 4560,
    " damage": 4561,
    " screen": 4562,
    "48": 4563,
    "ache": 4564,
    "ept": 4565,
    "known": 4566,
    " bowl": 4567,
    "akers": 4568,
    "illa": 4569,
    " er": 4570,
    " Spe": 4571,
    " cities": 4572,
    " navigate": 4573,
    " testing": 4574,
    " deeper": 4575,
    " alternative": 4576,
    " inj": 4577,
    " mathemat": 4578,
    " article": 4579,
    " expert": 4580,
    " node": 4581,
    "ded": 4582,
    "enses": 4583,
    " atmosphere": 4584,
    " beyond": 4585,
    " contribute": 4586,
    " 1000": 4587,
    " Go": 4588,
    " advance": 4589,
    "cos": 4590,
    "ractions": 4591,
    "servation": 4592,
    " clos": 4593,
    " policy": 4594,
    " routine": 4595,
    " alone": 4596,
    " brain": 4597,
    " brown": 4598,
    " excellent": 4599,
    " interactive": 4600,
    " cra": 4601,
    " fashion": 4602,
    " implemented": 4603,
    " separate": 4604,
    "iforn": 4605,
    " Inter": 4606,
    " distribution": 4607,
    " influenc": 4608,
    "ifically": 4609,
    " craft": 4610,
    " college": 4611,
    " instance": 4612,
    " overcome": 4613,
    "ashing": 4614,
    "lock": 4615,
    " earned": 4616,
    " priorit": 4617,
    " units": 4618,
    " vi": 4619,
    " walls": 4620,
    " dataset": 4621,
    " electricity": 4622,
    " smart": 4623,
    " theory": 4624,
    "unction": 4625,
    " Other": 4626,
    " William": 4627,
    " infrast": 4628,
    " landsc": 4629,
    "ON": 4630,
    "col": 4631,
    " architecture": 4632,
    " connected": 4633,
    "ifornia": 4634,
    " active": 4635,
    " complexity": 4636,
    " double": 4637,
    " flav": 4638,
    "$,": 4639,
    " Act": 4640,
    " client": 4641,
    " encounter": 4642,
    " exploring": 4643,
    " investig": 4644,
    " payment": 4645,
    "lines": 4646,
    " aim": 4647,
    " plot": 4648,
    " ready": 4649,
    " sequence": 4650,
    " technique": 4651,
    " Health": 4652,
    " evidence": 4653,
    " juice": 4654,
    " liters": 4655,
    " staff": 4656,
    "28": 4657,
    " doesn": 4658,
    " states": 4659,
    "][": 4660,
    "cond": 4661,
    "ham": 4662,
    " fruits": 4663,
    " historical": 4664,
    " summary": 4665,
    "itely": 4666,
    " extract": 4667,
    " See": 4668,
    " capital": 4669,
    " raise": 4670,
    " shows": 4671,
    "utes": 4672,
    " goes": 4673,
    " reader": 4674,
    " Texas": 4675,
    " classic": 4676,
    " novel": 4677,
    " transl": 4678,
    " Sum": 4679,
    " helping": 4680,
    " threat": 4681,
    " variables": 4682,
    "ES": 4683,
    " centimeters": 4684,
    " propos": 4685,
    " loved": 4686,
    " International": 4687,
    " force": 4688,
    " rules": 4689,
    " schools": 4690,
    " Serv": 4691,
    "porary": 4692,
    "unning": 4693,
    " obst": 4694,
    " sells": 4695,
    " structures": 4696,
    " becomes": 4697,
    " improved": 4698,
    " infrastructure": 4699,
    " replace": 4700,
    " responsible": 4701,
    "hour": 4702,
    " California": 4703,
    " Gl": 4704,
    " Tuesday": 4705,
    "fficient": 4706,
    " Using": 4707,
    "ulations": 4708,
    " Vis": 4709,
    " fully": 4710,
    " load": 4711,
    "ado": 4712,
    " creates": 4713,
    " lack": 4714,
    " spirit": 4715,
    " volume": 4716,
    " width": 4717,
    " bright": 4718,
    " isol": 4719,
    "agn": 4720,
    " loyal": 4721,
    "empt": 4722,
    " release": 4723,
    " wow": 4724,
    " wanted": 4725,
    "oration": 4726,
    "150": 4727,
    " Comb": 4728,
    " Mc": 4729,
    " Not": 4730,
    " himself": 4731,
    " lemon": 4732,
    " schedule": 4733,
    " vary": 4734,
    "ica": 4735,
    "vest": 4736,
    " assign": 4737,
    " bars": 4738,
    " exhib": 4739,
    " digits": 4740,
    " diverse": 4741,
    "ault": 4742,
    " coord": 4743,
    " conver": 4744,
    "olf": 4745,
    " styles": 4746,
    " village": 4747,
    "En": 4748,
    " powers": 4749,
    " sea": 4750,
    "imize": 4751,
    " growing": 4752,
    " museum": 4753,
    " restaurant": 4754,
    "power": 4755,
    " concerns": 4756,
    " dro": 4757,
    " innovative": 4758,
    "overy": 4759,
    " floor": 4760,
    " Island": 4761,
    " certainly": 4762,
    "pire": 4763,
    " numerous": 4764,
    "omb": 4765,
    " economy": 4766,
    " profession": 4767,
    " shown": 4768,
    " Research": 4769,
    " competition": 4770,
    " enable": 4771,
    " stock": 4772,
    "down": 4773,
    "rest": 4774,
    " description": 4775,
    " planet": 4776,
    "ttps": 4777,
    " truly": 4778,
    " convey": 4779,
    "irt": 4780,
    " discovered": 4781,
    " finish": 4782,
    " painting": 4783,
    " significance": 4784,
    "duc": 4785,
    " 180": 4786,
    " eye": 4787,
    " fasc": 4788,
    " indic": 4789,
    " promoting": 4790,
    " title": 4791,
    "izer": 4792,
    " remote": 4793,
    " token": 4794,
    " Just": 4795,
    " blocks": 4796,
    " fraction": 4797,
    " flour": 4798,
    " recurs": 4799,
    "anging": 4800,
    "icip": 4801,
    "imeter": 4802,
    "olving": 4803,
    "value": 4804,
    " kilometers": 4805,
    " operating": 4806,
    " prefer": 4807,
    " tail": 4808,
    " ban": 4809,
    " cloud": 4810,
    " overw": 4811,
    " sharing": 4812,
    " wat": 4813,
    "ris": 4814,
    " Its": 4815,
    " mission": 4816,
    " fail": 4817,
    " scene": 4818,
    " tea": 4819,
    "tics": 4820,
    " Class": 4821,
    "left": 4822,
    " interface": 4823,
    "22": 4824,
    "==": 4825,
    " Cost": 4826,
    " delivery": 4827,
    " instit": 4828,
    " relig": 4829,
    " wal": 4830,
    "ael": 4831,
    "nding": 4832,
    " bab": 4833,
    " commonly": 4834,
    " ensuring": 4835,
    " cats": 4836,
    " optimize": 4837,
    "OS": 4838,
    " password": 4839,
    " thanks": 4840,
    " CS": 4841,
    " apply": 4842,
    " differences": 4843,
    " gravity": 4844,
    "IN": 4845,
    "rupt": 4846,
    " summer": 4847,
    " supply": 4848,
    " tried": 4849,
    "coming": 4850,
    "AT": 4851,
    "iling": 4852,
    "uting": 4853,
    "gy": 4854,
    " Ret": 4855,
    " algorithms": 4856,
    " argument": 4857,
    " born": 4858,
    " memories": 4859,
    " passage": 4860,
    " passed": 4861,
    "ception": 4862,
    "una": 4863,
    "unte": 4864,
    " hidden": 4865,
    " poll": 4866,
    " represents": 4867,
    "arily": 4868,
    "xy": 4869,
    " San": 4870,
    " intelligence": 4871,
    "arian": 4872,
    " Pres": 4873,
    " courses": 4874,
    " existing": 4875,
    " quant": 4876,
    " shopping": 4877,
    " wall": 4878,
    " consequences": 4879,
    " Ye": 4880,
    " chem": 4881,
    "arc": 4882,
    " gift": 4883,
    " iter": 4884,
    " Canada": 4885,
    " Ma": 4886,
    " desired": 4887,
    " ship": 4888,
    "ifications": 4889,
    " Black": 4890,
    " Wed": 4891,
    " definition": 4892,
    " seemed": 4893,
    " strings": 4894,
    "aughter": 4895,
    " risks": 4896,
    " technical": 4897,
    " fitness": 4898,
    " resulting": 4899,
    "izon": 4900,
    "lets": 4901,
    " acqu": 4902,
    " sister": 4903,
    "ero": 4904,
    "imp": 4905,
    " keeps": 4906,
    " myself": 4907,
    " neighbor": 4908,
    " reduced": 4909,
    " apart": 4910,
    " garlic": 4911,
    " integers": 4912,
    "ama": 4913,
    " Dep": 4914,
    " Time": 4915,
    " beginning": 4916,
    " figure": 4917,
    " window": 4918,
    "emb": 4919,
    " campaigns": 4920,
    " legs": 4921,
    "iny": 4922,
    "step": 4923,
    "total": 4924,
    " 42": 4925,
    " French": 4926,
    " topics": 4927,
    "();": 4928,
    "respon": 4929,
    " Through": 4930,
    " obstac": 4931,
    "ikes": 4932,
    " onto": 4933,
    " rise": 4934,
    " Market": 4935,
    " cray": 4936,
    " transfer": 4937,
    "aper": 4938,
    "cm": 4939,
    " ir": 4940,
    "AS": 4941,
    " errors": 4942,
    " fewer": 4943,
    " overwhel": 4944,
    " tow": 4945,
    " Russ": 4946,
    " disease": 4947,
    " divis": 4948,
    " mixture": 4949,
    " rows": 4950,
    " triangle": 4951,
    "BC": 4952,
    "ressive": 4953,
    " earl": 4954,
    " effort": 4955,
    " looks": 4956,
    " psych": 4957,
    "AM": 4958,
    "urban": 4959,
    " Bo": 4960,
    " dur": 4961,
    " industries": 4962,
    " rh": 4963,
    " repl": 4964,
    "':": 4965,
    " bird": 4966,
    " highest": 4967,
    " nothing": 4968,
    " factor": 4969,
    " TV": 4970,
    " caused": 4971,
    " decre": 4972,
    "inations": 4973,
    "itar": 4974,
    " civil": 4975,
    " ride": 4976,
    "27": 4977,
    "inating": 4978,
    "ogether": 4979,
    "water": 4980,
    " Bob": 4981,
    "pass": 4982,
    " central": 4983,
    "arning": 4984,
    "itors": 4985,
    "uis": 4986,
    " purs": 4987,
    "oving": 4988,
    "zing": 4989,
    " aspects": 4990,
    " dividing": 4991,
    " joy": 4992,
    " prices": 4993,
    "ibilities": 4994,
    "ificial": 4995,
    "lin": 4996,
    "uary": 4997,
    " China": 4998,
    " Thank": 4999,
    " cold": 5000,
    " rect": 5001,
    " adopt": 5002,
    " beach": 5003,
    " charge": 5004,
    " thank": 5005,
    " attack": 5006,
    " stars": 5007,
    " kilog": 5008,
    " messages": 5009,
    " preserving": 5010,
    " turned": 5011,
    " vivid": 5012,
    "ool": 5013,
    " East": 5014,
    " David": 5015,
    " heard": 5016,
    " vict": 5017,
    "inese": 5018,
    "length": 5019,
    "thlet": 5020,
    "wise": 5021,
    " Keep": 5022,
    " Max": 5023,
    " aff": 5024,
    " dead": 5025,
    " deal": 5026,
    " latest": 5027,
    " prime": 5028,
    " contrast": 5029,
    " expression": 5030,
    " families": 5031,
    " heavy": 5032,
    " male": 5033,
    "cular": 5034,
    " Abs": 5035,
    " straw": 5036,
    " told": 5037,
    "ampions": 5038,
    " grew": 5039,
    " river": 5040,
    "ij": 5041,
    " HT": 5042,
    " capacity": 5043,
    " distinct": 5044,
    " fill": 5045,
    " incred": 5046,
    " chain": 5047,
    " hom": 5048,
    " jump": 5049,
    "arts": 5050,
    " Aug": 5051,
    " approx": 5052,
    " bike": 5053,
    " leaving": 5054,
    " texture": 5055,
    "uous": 5056,
    " abilities": 5057,
    " degrees": 5058,
    "ager": 5059,
    "ection": 5060,
    "ya": 5061,
    " Prog": 5062,
    " almost": 5063,
    " assess": 5064,
    " completed": 5065,
    " thick": 5066,
    " Mod": 5067,
    " evalu": 5068,
    " fair": 5069,
    " somet": 5070,
    " Id": 5071,
    " awareness": 5072,
    " coins": 5073,
    " finally": 5074,
    " immed": 5075,
    " len": 5076,
    " vert": 5077,
    " crayons": 5078,
    " passion": 5079,
    "ondon": 5080,
    " buying": 5081,
    " electr": 5082,
    " extreme": 5083,
    " wear": 5084,
    "nesday": 5085,
    " fabric": 5086,
    " regions": 5087,
    " sorted": 5088,
    " vegan": 5089,
    " \\):": 5090,
    " normal": 5091,
    " patients": 5092,
    " spaces": 5093,
    "ores": 5094,
    "uries": 5095,
    " Jenn": 5096,
    " bot": 5097,
    "eria": 5098,
    "input": 5099,
    " attempt": 5100,
    " climb": 5101,
    " immediate": 5102,
    " sentences": 5103,
    "force": 5104,
    "onom": 5105,
    "pes": 5106,
    " Ty": 5107,
    " productivity": 5108,
    " affordable": 5109,
    " narrative": 5110,
    " theme": 5111,
    " 3D": 5112,
    " linked": 5113,
    " mis": 5114,
    "lls": 5115,
    "tenance": 5116,
    " walking": 5117,
    " England": 5118,
    " Friday": 5119,
    " organize": 5120,
    " son": 5121,
    "mark": 5122,
    " benefit": 5123,
    " der": 5124,
    " poly": 5125,
    " serving": 5126,
    "rt": 5127,
    " Educ": 5128,
    " La": 5129,
    " Last": 5130,
    " More": 5131,
    "::": 5132,
    "chen": 5133,
    " Play": 5134,
    " calm": 5135,
    " fat": 5136,
    " plays": 5137,
    "nthesis": 5138,
    " Further": 5139,
    " Greek": 5140,
    " direction": 5141,
    " plastic": 5142,
    " powder": 5143,
    " tag": 5144,
    " languages": 5145,
    " collaboration": 5146,
    " magic": 5147,
    " tal": 5148,
    "usive": 5149,
    " wine": 5150,
    " wait": 5151,
    "].": 5152,
    "iors": 5153,
    " checks": 5154,
    "ught": 5155,
    " 2006": 5156,
    " Center": 5157,
    " clothing": 5158,
    " param": 5159,
    " readers": 5160,
    " trade": 5161,
    "fast": 5162,
    " maintaining": 5163,
    "yn": 5164,
    " grams": 5165,
    "urrent": 5166,
    " har": 5167,
    " hole": 5168,
    " mit": 5169,
    " pool": 5170,
    "icon": 5171,
    " actually": 5172,
    " moved": 5173,
    " resist": 5174,
    " selection": 5175,
    " 29": 5176,
    " Get": 5177,
    " boo": 5178,
    " incorporating": 5179,
    " math": 5180,
    " Output": 5181,
    " batter": 5182,
    " becoming": 5183,
    " hop": 5184,
    " movies": 5185,
    " shop": 5186,
    " vibr": 5187,
    "ope": 5188,
    "tra": 5189,
    " diction": 5190,
    " driving": 5191,
    " impacts": 5192,
    " micro": 5193,
    "Enter": 5194,
    "isms": 5195,
    "orge": 5196,
    " affected": 5197,
    " cro": 5198,
    " perspective": 5199,
    " qual": 5200,
    " sometimes": 5201,
    ":**": 5202,
    " March": 5203,
    " Tim": 5204,
    " June": 5205,
    " gather": 5206,
    " magical": 5207,
    " vehicles": 5208,
    "ulner": 5209,
    "vin": 5210,
    " flavors": 5211,
    "eline": 5212,
    " adventure": 5213,
    " reve": 5214,
    " starts": 5215,
    " outdoor": 5216,
    "33": 5217,
    " Absolutely": 5218,
    " apps": 5219,
    " followed": 5220,
    " opened": 5221,
    " Australian": 5222,
    " advice": 5223,
    " components": 5224,
    " definitely": 5225,
    " status": 5226,
    "where": 5227,
    " Mal": 5228,
    " goods": 5229,
    " teacher": 5230,
    "antic": 5231,
    "ville": 5232,
    " Str": 5233,
    " Data": 5234,
    " north": 5235,
    " scientific": 5236,
    " summar": 5237,
    "uk": 5238,
    " bur": 5239,
    " guests": 5240,
    " km": 5241,
    " meals": 5242,
    "ilding": 5243,
    "ptoms": 5244,
    " believed": 5245,
    " hosp": 5246,
    " Apple": 5247,
    " Blue": 5248,
    " London": 5249,
    " therapy": 5250,
    "men": 5251,
    " shad": 5252,
    " shirts": 5253,
    "eling": 5254,
    "ounc": 5255,
    " 34": 5256,
    " 72": 5257,
    " placed": 5258,
    "books": 5259,
    " computing": 5260,
    " dom": 5261,
    " eventually": 5262,
    "ended": 5263,
    "ilit": 5264,
    "overn": 5265,
    " creation": 5266,
    " dedicated": 5267,
    " sandw": 5268,
    " stret": 5269,
    " universe": 5270,
    "amm": 5271,
    "ffer": 5272,
    " caught": 5273,
    " guidance": 5274,
    " meeting": 5275,
    " organized": 5276,
    " situations": 5277,
    " Paul": 5278,
    " Roman": 5279,
    " Wednesday": 5280,
    " cans": 5281,
    "----------------": 5282,
    "icy": 5283,
    "unk": 5284,
    " Gra": 5285,
    " urban": 5286,
    " continues": 5287,
    " generally": 5288,
    " television": 5289,
    "eptember": 5290,
    "host": 5291,
    " Why": 5292,
    " anyone": 5293,
    " nearby": 5294,
    " significantly": 5295,
    " slightly": 5296,
    "ystem": 5297,
    " exchange": 5298,
    " rail": 5299,
    " spr": 5300,
    "aren": 5301,
    " capt": 5302,
    " invent": 5303,
    "dis": 5304,
    " Water": 5305,
    " binary": 5306,
    " brow": 5307,
    " channels": 5308,
    " covered": 5309,
    " influenced": 5310,
    " meat": 5311,
    " military": 5312,
    " potatoes": 5313,
    "apers": 5314,
    "off": 5315,
    " epis": 5316,
    " scored": 5317,
    "umin": 5318,
    " Instead": 5319,
    "inger": 5320,
    " Hy": 5321,
    " ago": 5322,
    "ML": 5323,
    " Vir": 5324,
    " blend": 5325,
    " dim": 5326,
    " formed": 5327,
    "ola": 5328,
    " Science": 5329,
    " pound": 5330,
    "aged": 5331,
    "amps": 5332,
    "elly": 5333,
    "pril": 5334,
    " Test": 5335,
    " king": 5336,
    " Chinese": 5337,
    " Wind": 5338,
    " connections": 5339,
    " door": 5340,
    " layer": 5341,
    " ol": 5342,
    "born": 5343,
    " Ben": 5344,
    " Del": 5345,
    " computers": 5346,
    " paragraphs": 5347,
    " princi": 5348,
    " workers": 5349,
    " African": 5350,
    " vulner": 5351,
    "erry": 5352,
    "oral": 5353,
    " App": 5354,
    " Pat": 5355,
    " console": 5356,
    " scores": 5357,
    "21": 5358,
    "ensity": 5359,
    " Custom": 5360,
    " Oct": 5361,
    " Sund": 5362,
    " fourth": 5363,
    " guitar": 5364,
    " monthly": 5365,
    "</": 5366,
    " dinner": 5367,
    " swim": 5368,
    "enty": 5369,
    " jud": 5370,
    " eats": 5371,
    " extend": 5372,
    " residents": 5373,
    "acing": 5374,
    "next": 5375,
    " appreciate": 5376,
    " widely": 5377,
    "ech": 5378,
    " %": 5379,
    " Face": 5380,
    " Ins": 5381,
    " advertising": 5382,
    " agre": 5383,
    " coming": 5384,
    " construct": 5385,
    " wea": 5386,
    "cd": 5387,
    "date": 5388,
    "phone": 5389,
    " Africa": 5390,
    " August": 5391,
    " button": 5392,
    " films": 5393,
    " god": 5394,
    " looked": 5395,
    " specifically": 5396,
    " straight": 5397,
    " weekly": 5398,
    "icine": 5399,
    " assum": 5400,
    " oppos": 5401,
    " regularly": 5402,
    "field": 5403,
    " Green": 5404,
    " Mac": 5405,
    " cake": 5406,
    " cris": 5407,
    " maintenance": 5408,
    " viol": 5409,
    " websites": 5410,
    "ercial": 5411,
    " determined": 5412,
    " workout": 5413,
    "iration": 5414,
    " Look": 5415,
    " commercial": 5416,
    " foods": 5417,
    " standing": 5418,
    "ander": 5419,
    "plications": 5420,
    " bottom": 5421,
    " emissions": 5422,
    " lunch": 5423,
    " missing": 5424,
    "Ch": 5425,
    " Super": 5426,
    " accessible": 5427,
    " ear": 5428,
    " female": 5429,
    " implementing": 5430,
    " tend": 5431,
    "ured": 5432,
    " Company": 5433,
    " Frank": 5434,
    " mo": 5435,
    " legal": 5436,
    " passeng": 5437,
    "ober": 5438,
    " Cour": 5439,
    " however": 5440,
    " settings": 5441,
    "ett": 5442,
    " ang": 5443,
    " burn": 5444,
    " dra": 5445,
    " throw": 5446,
    " topic": 5447,
    "ommod": 5448,
    " 600": 5449,
    " Div": 5450,
    " originally": 5451,
    " rule": 5452,
    "minist": 5453,
    "zy": 5454,
    " config": 5455,
    " escape": 5456,
    " girls": 5457,
    " immers": 5458,
    " professionals": 5459,
    " retail": 5460,
    "ams": 5461,
    "udd": 5462,
    " September": 5463,
    " brief": 5464,
    " changing": 5465,
    " expos": 5466,
    " handling": 5467,
    " symptoms": 5468,
    " tablesp": 5469,
    "_node": 5470,
    "sq": 5471,
    " Road": 5472,
    " employee": 5473,
    " rank": 5474,
    "OR": 5475,
    "bru": 5476,
    "making": 5477,
    " January": 5478,
    " Que": 5479,
    " gro": 5480,
    " landscape": 5481,
    " remains": 5482,
    " sod": 5483,
    " wasn": 5484,
    "arp": 5485,
    "arters": 5486,
    " Person": 5487,
    " align": 5488,
    " ocean": 5489,
    " tomatoes": 5490,
    "unt": 5491,
    " Elect": 5492,
    " ner": 5493,
    " properly": 5494,
    " habit": 5495,
    " struggles": 5496,
    " 194": 5497,
    " capture": 5498,
    " moments": 5499,
    " owners": 5500,
    " seems": 5501,
    " sensory": 5502,
    "ID": 5503,
    "argon": 5504,
    "person": 5505,
    " Bus": 5506,
    " breathing": 5507,
    " pul": 5508,
    "Script": 5509,
    "])": 5510,
    "bra": 5511,
    "racy": 5512,
    " Mag": 5513,
    " completely": 5514,
    " manip": 5515,
    " transition": 5516,
    "atter": 5517,
    "eless": 5518,
    " April": 5519,
    " Bet": 5520,
    " Cr": 5521,
    " geomet": 5522,
    " pand": 5523,
    " stage": 5524,
    " Bre": 5525,
    " Sur": 5526,
    " bath": 5527,
    " cart": 5528,
    " click": 5529,
    " cultures": 5530,
    " Bill": 5531,
    "ario": 5532,
    "iox": 5533,
    " Try": 5534,
    " Empire": 5535,
    " calls": 5536,
    " dynamic": 5537,
    " filter": 5538,
    " innovation": 5539,
    "iot": 5540,
    "world": 5541,
    " beans": 5542,
    "rooms": 5543,
    " Cor": 5544,
    " choices": 5545,
    " jargon": 5546,
    " mer": 5547,
    " pig": 5548,
    " prioritize": 5549,
    " sample": 5550,
    " seg": 5551,
    "band": 5552,
    " neck": 5553,
    " shr": 5554,
    " silver": 5555,
    "asy": 5556,
    " offered": 5557,
    " oranges": 5558,
    " Sun": 5559,
    " cycle": 5560,
    " independent": 5561,
    " rap": 5562,
    " rot": 5563,
    "anged": 5564,
    "cember": 5565,
    " Loc": 5566,
    " Rail": 5567,
    " Sing": 5568,
    " dough": 5569,
    " entertain": 5570,
    " wr": 5571,
    "PS": 5572,
    "cription": 5573,
    "inst": 5574,
    " Bel": 5575,
    " Plan": 5576,
    " announ": 5577,
    " apple": 5578,
    " cert": 5579,
    " expenses": 5580,
    " views": 5581,
    "aks": 5582,
    "asted": 5583,
    "riculture": 5584,
    "vis": 5585,
    " comments": 5586,
    " educational": 5587,
    " updates": 5588,
    " walked": 5589,
    "ACT": 5590,
    "ida": 5591,
    " Ob": 5592,
    " mood": 5593,
    " package": 5594,
    " phrase": 5595,
    " quite": 5596,
    "iant": 5597,
    "met": 5598,
    "uing": 5599,
    " European": 5600,
    " vast": 5601,
    "bruary": 5602,
    "iance": 5603,
    "ouncil": 5604,
    "roy": 5605,
    " correspon": 5606,
    "array": 5607,
    " appoint": 5608,
    " belief": 5609,
    " depression": 5610,
    "PU": 5611,
    "uracy": 5612,
    " 2020": 5613,
    " Angel": 5614,
    " Nove": 5615,
    " cents": 5616,
    " cuis": 5617,
    " conflict": 5618,
    " gre": 5619,
    " ran": 5620,
    "Th": 5621,
    "alle": 5622,
    "elines": 5623,
    " Govern": 5624,
    " creativity": 5625,
    "atitude": 5626,
    " Group": 5627,
    " van": 5628,
    " cupc": 5629,
    " via": 5630,
    "aze": 5631,
    "encing": 5632,
    "ilo": 5633,
    "writ": 5634,
    " Mem": 5635,
    " metal": 5636,
    " neural": 5637,
    "ancy": 5638,
    " contem": 5639,
    " etc": 5640,
    " orange": 5641,
    "ieving": 5642,
    " Union": 5643,
    " calculated": 5644,
    " frequency": 5645,
    " funding": 5646,
    " recommended": 5647,
    " switch": 5648,
    " traditions": 5649,
    "ynthesis": 5650,
    " ,": 5651,
    " 55": 5652,
    " accompl": 5653,
    " sessions": 5654,
    " spot": 5655,
    "ml": 5656,
    "sec": 5657,
    " Best": 5658,
    " flu": 5659,
    " sale": 5660,
    "bre": 5661,
    " generation": 5662,
    "fall": 5663,
    " magn": 5664,
    " vot": 5665,
    "RED": 5666,
    " aw": 5667,
    " artist": 5668,
    " ticket": 5669,
    "agram": 5670,
    "inal": 5671,
    "uten": 5672,
    "utive": 5673,
    " consistent": 5674,
    " intric": 5675,
    "AN": 5676,
    "ashington": 5677,
    "iest": 5678,
    "ico": 5679,
    "rome": 5680,
    " Western": 5681,
    " coc": 5682,
    " define": 5683,
    " perimeter": 5684,
    "arrow": 5685,
    "iences": 5686,
    " approximately": 5687,
    " gent": 5688,
    " reviews": 5689,
    " volunte": 5690,
    "gra": 5691,
    "oding": 5692,
    "ppers": 5693,
    " February": 5694,
    " effectiveness": 5695,
    " instrument": 5696,
    " suitable": 5697,
    "ognitive": 5698,
    "pan": 5699,
    " ahead": 5700,
    " queue": 5701,
    " \"\"": 5702,
    " salary": 5703,
    " whis": 5704,
    "1000": 5705,
    "arsh": 5706,
    "chol": 5707,
    "orter": 5708,
    " Char": 5709,
    " October": 5710,
    " Street": 5711,
    " spending": 5712,
    " statistics": 5713,
    " substitute": 5714,
    " yoga": 5715,
    "96": 5716,
    " Facebook": 5717,
    "_t": 5718,
    "ned": 5719,
    "pected": 5720,
    " Japanese": 5721,
    " Provide": 5722,
    " kilograms": 5723,
    " monitor": 5724,
    " opening": 5725,
    " secret": 5726,
    " younger": 5727,
    " None": 5728,
    " battle": 5729,
    " prem": 5730,
    " wel": 5731,
    " !": 5732,
    " obstacles": 5733,
    " Jo": 5734,
    " Museum": 5735,
    " recipes": 5736,
    " sem": 5737,
    " Before": 5738,
    " candies": 5739,
    " surrounding": 5740,
    "equ": 5741,
    "rom": 5742,
    "uit": 5743,
    " Po": 5744,
    " \\),": 5745,
    " counter": 5746,
    " launch": 5747,
    " master": 5748,
    " stunning": 5749,
    " worksh": 5750,
    "bb": 5751,
    "from": 5752,
    " reliable": 5753,
    " tens": 5754,
    "asure": 5755,
    "orough": 5756,
    "xygen": 5757,
    " award": 5758,
    " accuracy": 5759,
    " coordin": 5760,
    " sustainability": 5761,
    "ien": 5762,
    " --": 5763,
    " God": 5764,
    " Ir": 5765,
    " descriptions": 5766,
    " fant": 5767,
    " jobs": 5768,
    " weeke": 5769,
    "orrow": 5770,
    " manufacturing": 5771,
    " monit": 5772,
    " winter": 5773,
    " Washington": 5774,
    " split": 5775,
    "oles": 5776,
    " Furthermore": 5777,
    " bad": 5778,
    " cit": 5779,
    " consult": 5780,
    " earlier": 5781,
    " scul": 5782,
    "_m": 5783,
    "aming": 5784,
    " Ens": 5785,
    " Est": 5786,
    " cub": 5787,
    " resource": 5788,
    "ago": 5789,
    "lt": 5790,
    "pace": 5791,
    " Je": 5792,
    " hyd": 5793,
    " tension": 5794,
    "ACTED": 5795,
    "REDACTED": 5796,
    " eating": 5797,
    " greatest": 5798,
    " visually": 5799,
    " asked": 5800,
    " dru": 5801,
    " insurance": 5802,
    " pen": 5803,
    " resume": 5804,
    "class": 5805,
    "osh": 5806,
    " League": 5807,
    " Net": 5808,
    " athlet": 5809,
    " clarity": 5810,
    " fascinating": 5811,
    " scale": 5812,
    " ultimately": 5813,
    "ht": 5814,
    "igen": 5815,
    " Mountain": 5816,
    " chickens": 5817,
    " friendly": 5818,
    " stronger": 5819,
    "ately": 5820,
    "wide": 5821,
    " accommod": 5822,
    " gram": 5823,
    " interview": 5824,
    " lived": 5825,
    " loyalty": 5826,
    " restaurants": 5827,
    "Ex": 5828,
    " December": 5829,
    " los": 5830,
    "aint": 5831,
    " Central": 5832,
    " leads": 5833,
    " ple": 5834,
    " returned": 5835,
    " serves": 5836,
    "sqrt": 5837,
    "ursday": 5838,
    " Gold": 5839,
    " Mil": 5840,
    " Scott": 5841,
    " brands": 5842,
    " initiatives": 5843,
    " printing": 5844,
    "road": 5845,
    "week": 5846,
    "mission": 5847,
    " Jim": 5848,
    " drinks": 5849,
    " encry": 5850,
    " requests": 5851,
    "ini": 5852,
    " +=": 5853,
    " candid": 5854,
    " pros": 5855,
    " resil": 5856,
    " balloons": 5857,
    " twist": 5858,
    "rays": 5859,
    " laws": 5860,
    " supplies": 5861,
    "orthern": 5862,
    " People": 5863,
    " degree": 5864,
    " girl": 5865,
    "?\"": 5866,
    "itial": 5867,
    " Mor": 5868,
    " applied": 5869,
    " drag": 5870,
    " kitchen": 5871,
    " struggle": 5872,
    "achel": 5873,
    "ceed": 5874,
    "haps": 5875,
    " Mex": 5876,
    " reference": 5877,
    " tut": 5878,
    "othes": 5879,
    " lists": 5880,
    " successfully": 5881,
    "apter": 5882,
    "crib": 5883,
    "ifts": 5884,
    " Cook": 5885,
    " Hol": 5886,
    " Met": 5887,
    " Tod": 5888,
    " boys": 5889,
    " diseases": 5890,
    " hardware": 5891,
    " journal": 5892,
    " revised": 5893,
    " 2010": 5894,
    " Fil": 5895,
    " advantage": 5896,
    " belong": 5897,
    " concepts": 5898,
    " expertise": 5899,
    " hund": 5900,
    " recognition": 5901,
    " 64": 5902,
    " lighting": 5903,
    " notes": 5904,
    " ow": 5905,
    " radio": 5906,
    " refers": 5907,
    "26": 5908,
    "ibly": 5909,
    " Ident": 5910,
    " chemical": 5911,
    " cuisine": 5912,
    " environments": 5913,
    " saved": 5914,
    " sector": 5915,
    "des": 5916,
    "related": 5917,
    " Bay": 5918,
    " Whe": 5919,
    " movements": 5920,
    " operation": 5921,
    " watching": 5922,
    " Analy": 5923,
    " Sk": 5924,
    " descriptive": 5925,
    " mitig": 5926,
    " roles": 5927,
    " south": 5928,
    " waves": 5929,
    "ications": 5930,
    "ums": 5931,
    " Lake": 5932,
    " cy": 5933,
    " map": 5934,
    " 2019": 5935,
    " Associ": 5936,
    " Olympics": 5937,
    " assistance": 5938,
    " honey": 5939,
    " plus": 5940,
    "ald": 5941,
    "aturday": 5942,
    " Sec": 5943,
    " basketball": 5944,
    " keeping": 5945,
    " letters": 5946,
    " minimum": 5947,
    " pupp": 5948,
    " templ": 5949,
    " wealth": 5950,
    "Ar": 5951,
    "iliar": 5952,
    " 2018": 5953,
    " Mike": 5954,
    " baking": 5955,
    " blog": 5956,
    " flight": 5957,
    " liqu": 5958,
    " mut": 5959,
    " obtain": 5960,
    " satisfaction": 5961,
    ")^": 5962,
    "odies": 5963,
    " Histor": 5964,
    " JavaScript": 5965,
    " November": 5966,
    " edges": 5967,
    " module": 5968,
    " participate": 5969,
    "aked": 5970,
    "gest": 5971,
    " 240": 5972,
    " boost": 5973,
    " engineering": 5974,
    " gentle": 5975,
    " Alice": 5976,
    " cupcakes": 5977,
    " curious": 5978,
    " dictionary": 5979,
    " neighborhood": 5980,
    " soup": 5981,
    "EN": 5982,
    "herry": 5983,
    "top": 5984,
    "fol": 5985,
    "lean": 5986,
    " Sunday": 5987,
    " artificial": 5988,
    " chips": 5989,
    "count": 5990,
    "itage": 5991,
    " closer": 5992,
    " eight": 5993,
    " trou": 5994,
    "abul": 5995,
    "lands": 5996,
    " Bra": 5997,
    " Design": 5998,
    " Mind": 5999,
    " cancer": 6000,
    " quarter": 6001,
    " tang": 6002,
    "azon": 6003,
    " alive": 6004,
    "stack": 6005,
    " Jour": 6006,
    " fa": 6007,
    " ideal": 6008,
    " marr": 6009,
    " oxygen": 6010,
    " toys": 6011,
    "ipl": 6012,
    "iders": 6013,
    "ishes": 6014,
    "lings": 6015,
    " Bat": 6016,
    " chopped": 6017,
    " confidence": 6018,
    " picked": 6019,
    " teasp": 6020,
    "istical": 6021,
    "ora": 6022,
    " Ant": 6023,
    " Instit": 6024,
    " Joe": 6025,
    " breaks": 6026,
    " fuel": 6027,
    " shapes": 6028,
    "erem": 6029,
    "ports": 6030,
    "ycling": 6031,
    " Leg": 6032,
    " contract": 6033,
    " remainder": 6034,
    "!\"": 6035,
    "];": 6036,
    "azz": 6037,
    " crow": 6038,
    " circle": 6039,
    " conven": 6040,
    " functionality": 6041,
    " hotel": 6042,
    " locations": 6043,
    "olve": 6044,
    " Note": 6045,
    " Rich": 6046,
    " Second": 6047,
    " recently": 6048,
    " sport": 6049,
    "IS": 6050,
    " July": 6051,
    " amounts": 6052,
    " dram": 6053,
    " join": 6054,
    " nutrition": 6055,
    " prepared": 6056,
    " Given": 6057,
    " expensive": 6058,
    " wit": 6059,
    "42": 6060,
    "data": 6061,
    " Law": 6062,
    " consumption": 6063,
    " improvement": 6064,
    " introduced": 6065,
    " layers": 6066,
    " myth": 6067,
    "acci": 6068,
    "ln": 6069,
    " Based": 6070,
    " carefully": 6071,
    " chair": 6072,
    "cosystem": 6073,
    "ibon": 6074,
    "itter": 6075,
    " 33": 6076,
    " Pal": 6077,
    " beg": 6078,
    " evolution": 6079,
    " occas": 6080,
    "IC": 6081,
    "orus": 6082,
    " Subtract": 6083,
    " menu": 6084,
    " records": 6085,
    " rooms": 6086,
    "ET": 6087,
    "tes": 6088,
    "ugg": 6089,
    " Squ": 6090,
    " faces": 6091,
    "64": 6092,
    "ibonacci": 6093,
    " everyday": 6094,
    " fine": 6095,
    " ine": 6096,
    " mode": 6097,
    "IT": 6098,
    "ateful": 6099,
    "vous": 6100,
    " Altern": 6101,
    " adults": 6102,
    " false": 6103,
    " strange": 6104,
    "\">": 6105,
    " 52": 6106,
    " bottle": 6107,
    " carro": 6108,
    " protection": 6109,
    "QL": 6110,
    "ala": 6111,
    "holders": 6112,
    "lights": 6113,
    " Education": 6114,
    " Two": 6115,
    " matches": 6116,
    " possess": 6117,
    " shipping": 6118,
    "abulary": 6119,
    "agement": 6120,
    "ried": 6121,
    "ulated": 6122,
    " Michael": 6123,
    " Off": 6124,
    " analytics": 6125,
    " corn": 6126,
    " generations": 6127,
    " leader": 6128,
    " posts": 6129,
    " suggests": 6130,
    " underg": 6131,
    "hab": 6132,
    " Jane": 6133,
    " Soph": 6134,
    " exciting": 6135,
    " focusing": 6136,
    " forg": 6137,
    " herbs": 6138,
    " holds": 6139,
    " listen": 6140,
    " orders": 6141,
    " savings": 6142,
    " void": 6143,
    "ands": 6144,
    "estyle": 6145,
    "ette": 6146,
    "size": 6147,
    "tr": 6148,
    " Spr": 6149,
    " Thursday": 6150,
    " finds": 6151,
    " generated": 6152,
    " kept": 6153,
    " sites": 6154,
    " tit": 6155,
    "char": 6156,
    "hetic": 6157,
    "oma": 6158,
    " download": 6159,
    " ecosystem": 6160,
    " pod": 6161,
    " religious": 6162,
    " wed": 6163,
    "alled": 6164,
    "iloso": 6165,
    "ohn": 6166,
    " Enc": 6167,
    " Georg": 6168,
    " Kore": 6169,
    " Lily": 6170,
    " Vol": 6171,
    " appears": 6172,
    " bills": 6173,
    " cin": 6174,
    " decimal": 6175,
    " destination": 6176,
    "erate": 6177,
    " cognitive": 6178,
    " fly": 6179,
    " smell": 6180,
    " surf": 6181,
    "ctors": 6182,
    "ella": 6183,
    "ender": 6184,
    "istry": 6185,
    "roduction": 6186,
    " CO": 6187,
    " Grand": 6188,
    " Maybe": 6189,
    " ages": 6190,
    " agriculture": 6191,
    " complement": 6192,
    " intricate": 6193,
    " police": 6194,
    " probability": 6195,
    "23": 6196,
    " Avoid": 6197,
    " conservation": 6198,
    " inspired": 6199,
    "}\\": 6200,
    " id": 6201,
    " Sl": 6202,
    " willing": 6203,
    "values": 6204,
    " Club": 6205,
    " George": 6206,
    " Music": 6207,
    " cab": 6208,
    " credit": 6209,
    " fiber": 6210,
    " literature": 6211,
    " stir": 6212,
    "fish": 6213,
    "ira": 6214,
    " beef": 6215,
    " breakfast": 6216,
    " covers": 6217,
    " defined": 6218,
    " pollution": 6219,
    " showcase": 6220,
    " yards": 6221,
    "da": 6222,
    "ockey": 6223,
    " Ann": 6224,
    " Mat": 6225,
    " immune": 6226,
    " picture": 6227,
    " summarize": 6228,
    "cont": 6229,
    " Hum": 6230,
    " Star": 6231,
    " rights": 6232,
    " weighs": 6233,
    "berry": 6234,
    "hol": 6235,
    " 190": 6236,
    " Bal": 6237,
    " Fol": 6238,
    " France": 6239,
    " Public": 6240,
    " couple": 6241,
    " organic": 6242,
    " rom": 6243,
    " trib": 6244,
    "lor": 6245,
    " flat": 6246,
    " fulf": 6247,
    " matrix": 6248,
    "65": 6249,
    "weight": 6250,
    " Church": 6251,
    " crew": 6252,
    " excl": 6253,
    " linear": 6254,
    "osen": 6255,
    "unting": 6256,
    " Dem": 6257,
    " Thanks": 6258,
    " pull": 6259,
    " reb": 6260,
    " teachers": 6261,
    " ID": 6262,
    " Party": 6263,
    " monitoring": 6264,
    " sac": 6265,
    " unex": 6266,
    "eries": 6267,
    "outhern": 6268,
    " clothes": 6269,
    " coast": 6270,
    " managing": 6271,
    " reached": 6272,
    " vocabulary": 6273,
    "cel": 6274,
    "formation": 6275,
    " Arch": 6276,
    " Ensure": 6277,
    " Rock": 6278,
    " cleaning": 6279,
    " dial": 6280,
    " enem": 6281,
    " increases": 6282,
    " newsp": 6283,
    " notable": 6284,
    " represented": 6285,
    " tur": 6286,
    " vac": 6287,
    " 56": 6288,
    " Exper": 6289,
    " Incre": 6290,
    " Lou": 6291,
    " Post": 6292,
    " Saturday": 6293,
    " attrib": 6294,
    " beads": 6295,
    " excited": 6296,
    " exercising": 6297,
    " integration": 6298,
    " reasons": 6299,
    " weak": 6300,
    "List": 6301,
    "dy": 6302,
    "press": 6303,
    " 2x": 6304,
    " SE": 6305,
    " arm": 6306,
    " rural": 6307,
    " supporting": 6308,
    "ccer": 6309,
    "olic": 6310,
    "phy": 6311,
    " Creat": 6312,
    " mistakes": 6313,
    " reson": 6314,
    " sour": 6315,
    "owns": 6316,
    " Ol": 6317,
    " festival": 6318,
    " informed": 6319,
    " lights": 6320,
    " respond": 6321,
    " struggling": 6322,
    " studying": 6323,
    " tests": 6324,
    "%.": 6325,
    "72": 6326,
    "hand": 6327,
    "ros": 6328,
    "write": 6329,
    "ying": 6330,
    " Have": 6331,
    " Mad": 6332,
    " core": 6333,
    " colon": 6334,
    " exactly": 6335,
    " founded": 6336,
    " immersive": 6337,
    " incent": 6338,
    " myst": 6339,
    " nuts": 6340,
    "amples": 6341,
    "can": 6342,
    "emic": 6343,
    "imed": 6344,
    "level": 6345,
    " Expl": 6346,
    " feels": 6347,
    " guess": 6348,
    "olved": 6349,
    " Academ": 6350,
    " Although": 6351,
    " Mart": 6352,
    " Pen": 6353,
    " appealing": 6354,
    " camera": 6355,
    " correctly": 6356,
    " exploration": 6357,
    " motivated": 6358,
    " olive": 6359,
    " susp": 6360,
    "going": 6361,
    "pends": 6362,
    " Include": 6363,
    " Smith": 6364,
    " bon": 6365,
    " causing": 6366,
    " functional": 6367,
    " https": 6368,
    " route": 6369,
    " survive": 6370,
    " trave": 6371,
    " vibrant": 6372,
    "etry": 6373,
    " 2005": 6374,
    " causes": 6375,
    " chatb": 6376,
    " container": 6377,
    " vehicle": 6378,
    "alax": 6379,
    "ji": 6380,
    "oster": 6381,
    " Cam": 6382,
    " copy": 6383,
    " eth": 6384,
    " farmers": 6385,
    " homes": 6386,
    "amin": 6387,
    "aught": 6388,
    "uge": 6389,
    " Example": 6390,
    " Program": 6391,
    " mur": 6392,
    " reput": 6393,
    " stations": 6394,
    " teaching": 6395,
    " walks": 6396,
    "osis": 6397,
    "rem": 6398,
    " consists": 6399,
    " contemporary": 6400,
    " developers": 6401,
    " election": 6402,
    " forces": 6403,
    " illustr": 6404,
    " notice": 6405,
    "since": 6406,
    " expectations": 6407,
    " immediately": 6408,
    " opin": 6409,
    " pens": 6410,
    " wire": 6411,
    " __": 6412,
    " ($": 6413,
    " aims": 6414,
    " availability": 6415,
    " eco": 6416,
    " hero": 6417,
    " packs": 6418,
    " phrases": 6419,
    " shoot": 6420,
    " wife": 6421,
    "ipp": 6422,
    " baby": 6423,
    " concent": 6424,
    " frequently": 6425,
    " revolution": 6426,
    " standards": 6427,
    "cdot": 6428,
    "iter": 6429,
    " 54": 6430,
    " Pay": 6431,
    " continuous": 6432,
    " cooked": 6433,
    " despite": 6434,
    " muscle": 6435,
    " std": 6436,
    " Up": 6437,
    " containing": 6438,
    " ducks": 6439,
    " interactions": 6440,
    " merg": 6441,
    " musical": 6442,
    " specified": 6443,
    " vision": 6444,
    "ooper": 6445,
    "rote": 6446,
    " Nor": 6447,
    " combine": 6448,
    " ma": 6449,
    " meant": 6450,
    " outl": 6451,
    " rectangle": 6452,
    " Games": 6453,
    " efficiently": 6454,
    " revision": 6455,
    " Amazon": 6456,
    " Rob": 6457,
    " cult": 6458,
    " estim": 6459,
    " followers": 6460,
    " markets": 6461,
    " relaxation": 6462,
    "anas": 6463,
    "www": 6464,
    " 38": 6465,
    " fle": 6466,
    " metrics": 6467,
    " protocol": 6468,
    " serious": 6469,
    " stored": 6470,
    "nesses": 6471,
    "pot": 6472,
    "wers": 6473,
    " boy": 6474,
    " ends": 6475,
    " feat": 6476,
    " framework": 6477,
    " gained": 6478,
    " gratitude": 6479,
    "chain": 6480,
    "edom": 6481,
    "nel": 6482,
    " 2004": 6483,
    " Opt": 6484,
    " depends": 6485,
    " passengers": 6486,
    " sizes": 6487,
    "95": 6488,
    " 2017": 6489,
    " Association": 6490,
    " Calcul": 6491,
    " Link": 6492,
    " engaged": 6493,
    " laun": 6494,
    " slowly": 6495,
    " stake": 6496,
    " sunlight": 6497,
    "archers": 6498,
    "cuss": 6499,
    "kin": 6500,
    "orders": 6501,
    "pret": 6502,
    " approaches": 6503,
    " surpr": 6504,
    "34": 6505,
    "ading": 6506,
    "ifies": 6507,
    " 1999": 6508,
    " 250": 6509,
    " colored": 6510,
    " leadership": 6511,
    "minute": 6512,
    " Christian": 6513,
    " Hall": 6514,
    " democ": 6515,
    " manager": 6516,
    " odd": 6517,
    " wrong": 6518,
    " Enjoy": 6519,
    " Thus": 6520,
    " Work": 6521,
    " analyzing": 6522,
    " drop": 6523,
    " liquid": 6524,
    " participants": 6525,
    " shift": 6526,
    "iture": 6527,
    "lete": 6528,
    " Who": 6529,
    " myster": 6530,
    " photosynthesis": 6531,
    " selected": 6532,
    " shorter": 6533,
    " speech": 6534,
    "iller": 6535,
    " 1980": 6536,
    " cir": 6537,
    " facing": 6538,
    " intense": 6539,
    " listening": 6540,
    " reward": 6541,
    " sculp": 6542,
    " supports": 6543,
    "________": 6544,
    " 1990": 6545,
    " Sol": 6546,
    " lic": 6547,
    " raised": 6548,
    " solid": 6549,
    "TP": 6550,
    "omen": 6551,
    "onut": 6552,
    " Dif": 6553,
    " Ult": 6554,
    " annual": 6555,
    " defe": 6556,
    " partnerships": 6557,
    " quiet": 6558,
    " representation": 6559,
    "ushed": 6560,
    "van": 6561,
    " amb": 6562,
    " inner": 6563,
    " performed": 6564,
    " personality": 6565,
    " regarding": 6566,
    "^{": 6567,
    "ingu": 6568,
    " Micro": 6569,
    " confident": 6570,
    " daughter": 6571,
    " facilities": 6572,
    " lake": 6573,
    " passing": 6574,
    " roses": 6575,
    " streets": 6576,
    " truth": 6577,
    "AD": 6578,
    "abet": 6579,
    "estic": 6580,
    "istan": 6581,
    "}$": 6582,
    " Camp": 6583,
    " Georgia": 6584,
    " principles": 6585,
    "RO": 6586,
    "edy": 6587,
    " icon": 6588,
    " Samant": 6589,
    " atom": 6590,
    " duck": 6591,
    " institutions": 6592,
    " subst": 6593,
    ".\")": 6594,
    "_1": 6595,
    "embly": 6596,
    "ias": 6597,
    " Organ": 6598,
    " Today": 6599,
    " nick": 6600,
    "=$": 6601,
    "String": 6602,
    "nson": 6603,
    "poses": 6604,
    " Technology": 6605,
    " administ": 6606,
    " characteristics": 6607,
    " destroy": 6608,
    " increasingly": 6609,
    "ighter": 6610,
    "merce": 6611,
    " Carol": 6612,
    " Flor": 6613,
    " competitive": 6614,
    " constit": 6615,
    " described": 6616,
    " doub": 6617,
    " emergency": 6618,
    " grateful": 6619,
    " noise": 6620,
    "ait": 6621,
    " Business": 6622,
    " Service": 6623,
    " glow": 6624,
    " slic": 6625,
    "uster": 6626,
    " insight": 6627,
    " relatively": 6628,
    " whose": 6629,
    "append": 6630,
    "ements": 6631,
    "rets": 6632,
    "uel": 6633,
    " Italian": 6634,
    " Rad": 6635,
    " Sil": 6636,
    " billion": 6637,
    " cater": 6638,
    " inflation": 6639,
    " lux": 6640,
    " mac": 6641,
    " memor": 6642,
    " proced": 6643,
    " skill": 6644,
    " Adding": 6645,
    " Institute": 6646,
    " compar": 6647,
    " debug": 6648,
    " filling": 6649,
    " firm": 6650,
    " influencers": 6651,
    " session": 6652,
    " trial": 6653,
    "active": 6654,
    " @": 6655,
    " Book": 6656,
    " Food": 6657,
    " Love": 6658,
    " Mel": 6659,
    " frag": 6660,
    " managed": 6661,
    " rapid": 6662,
    " spices": 6663,
    " taught": 6664,
    " unexpected": 6665,
    " Department": 6666,
    " ber": 6667,
    " elev": 6668,
    " replaced": 6669,
    " synt": 6670,
    "ints": 6671,
    " DNA": 6672,
    " Harry": 6673,
    " appearance": 6674,
    " circum": 6675,
    " inputs": 6676,
    " tower": 6677,
    "CT": 6678,
    "ennis": 6679,
    " Sand": 6680,
    " aid": 6681,
    " cash": 6682,
    " component": 6683,
    " considering": 6684,
    " dreams": 6685,
    " jew": 6686,
    " mixed": 6687,
    "yan": 6688,
    " bond": 6689,
    " closed": 6690,
    " moon": 6691,
    " manner": 6692,
    " networks": 6693,
    " seat": 6694,
    "found": 6695,
    "prene": 6696,
    "reprene": 6697,
    " Prom": 6698,
    " bridge": 6699,
    " conducted": 6700,
    " libraries": 6701,
    " rhyth": 6702,
    " talent": 6703,
    "ioxide": 6704,
    " Media": 6705,
    " Port": 6706,
    " chosen": 6707,
    " concern": 6708,
    " crack": 6709,
    " dangerous": 6710,
    " dates": 6711,
    " neut": 6712,
    " python": 6713,
    " purposes": 6714,
    " thous": 6715,
    " unknown": 6716,
    "anted": 6717,
    "ographic": 6718,
    "oops": 6719,
    " Rel": 6720,
    " cas": 6721,
    " decl": 6722,
    " fiction": 6723,
    " introduction": 6724,
    " suffer": 6725,
    " trig": 6726,
    "icago": 6727,
    "mel": 6728,
    "rence": 6729,
    " Foot": 6730,
    " String": 6731,
    " articles": 6732,
    " categories": 6733,
    " paintings": 6734,
    " sen": 6735,
    " tracks": 6736,
    "LL": 6737,
    "backs": 6738,
    " Beach": 6739,
    " German": 6740,
    " arms": 6741,
    " baseball": 6742,
    " internal": 6743,
    " machines": 6744,
    " prop": 6745,
    "ifact": 6746,
    "mas": 6747,
    " Fore": 6748,
    " Initial": 6749,
    " alt": 6750,
    " commitment": 6751,
    " dioxide": 6752,
    " fee": 6753,
    " foreign": 6754,
    " mile": 6755,
    " scent": 6756,
    " spring": 6757,
    " thread": 6758,
    "55": 6759,
    "ederal": 6760,
    "etime": 6761,
    " 2016": 6762,
    " Germany": 6763,
    " ease": 6764,
    " fundam": 6765,
    " imagery": 6766,
    " schol": 6767,
    " showc": 6768,
    " spin": 6769,
    " trend": 6770,
    "_2": 6771,
    "aled": 6772,
    "bl": 6773,
    " Instagram": 6774,
    " Node": 6775,
    " Old": 6776,
    " cop": 6777,
    " column": 6778,
    " contributions": 6779,
    " prepar": 6780,
    " storm": 6781,
    " stretch": 6782,
    "li": 6783,
    " Impro": 6784,
    " White": 6785,
    " accomplish": 6786,
    " broken": 6787,
    " modify": 6788,
    " owner": 6789,
    " pump": 6790,
    "orb": 6791,
    "uration": 6792,
    " <=": 6793,
    " Life": 6794,
    " arrived": 6795,
    " beliefs": 6796,
    " stone": 6797,
    " stickers": 6798,
    "abel": 6799,
    "error": 6800,
    "{\\": 6801,
    " AM": 6802,
    " Cat": 6803,
    " Hot": 6804,
    " Robert": 6805,
    " chest": 6806,
    " court": 6807,
    " facilit": 6808,
    " habits": 6809,
    " priv": 6810,
    " rely": 6811,
    " shells": 6812,
    " speaking": 6813,
    " stability": 6814,
    "FL": 6815,
    "enly": 6816,
    " 160": 6817,
    " 2007": 6818,
    " Kingdom": 6819,
    " Los": 6820,
    " Mach": 6821,
    " Most": 6822,
    " Wales": 6823,
    " grass": 6824,
    " removed": 6825,
    " reports": 6826,
    " thorough": 6827,
    " wrote": 6828,
    "oong": 6829,
    "raid": 6830,
    " 46": 6831,
    " Florida": 6832,
    " accident": 6833,
    " albums": 6834,
    " lessons": 6835,
    " manufactur": 6836,
    " rocks": 6837,
    " trained": 6838,
    "icial": 6839,
    " actual": 6840,
    " arts": 6841,
    " inspire": 6842,
    " interaction": 6843,
    " pure": 6844,
    " seeking": 6845,
    " strawberries": 6846,
    " workshops": 6847,
    "rm": 6848,
    "utch": 6849,
    "west": 6850,
    " AR": 6851,
    " bold": 6852,
    " cryst": 6853,
    " inspiration": 6854,
    "ags": 6855,
    "js": 6856,
    " 2015": 6857,
    " Asia": 6858,
    " capable": 6859,
    " furn": 6860,
    " finished": 6861,
    " nervous": 6862,
    " resilience": 6863,
    "\");": 6864,
    "div": 6865,
    " Da": 6866,
    " Oh": 6867,
    " arguments": 6868,
    " audio": 6869,
    " demonstrate": 6870,
    " fixed": 6871,
    " formal": 6872,
    " genetic": 6873,
    " intended": 6874,
    " labor": 6875,
    " moist": 6876,
    " previously": 6877,
    "ensions": 6878,
    " 2001": 6879,
    " Middle": 6880,
    " Pot": 6881,
    " eaten": 6882,
    " fif": 6883,
    " nice": 6884,
    " puzz": 6885,
    "agues": 6886,
    " =>": 6887,
    " Both": 6888,
    " Moon": 6889,
    " Tre": 6890,
    " astr": 6891,
    " hospital": 6892,
    " implications": 6893,
    " portion": 6894,
    " primarily": 6895,
    " surrounded": 6896,
    "ST": 6897,
    "efficient": 6898,
    "ello": 6899,
    "illy": 6900,
    "isher": 6901,
    "isl": 6902,
    " 2021": 6903,
    " appeared": 6904,
    " impacted": 6905,
    " pays": 6906,
    " paralle": 6907,
    " philoso": 6908,
    "angers": 6909,
    "oli": 6910,
    " ly": 6911,
    " Sen": 6912,
    " lifestyle": 6913,
    " profile": 6914,
    "atically": 6915,
    " Enter": 6916,
    " Franc": 6917,
    " HTML": 6918,
    " Ze": 6919,
    " corpor": 6920,
    " statistical": 6921,
    " 31": 6922,
    " Champions": 6923,
    " Samantha": 6924,
    " Tur": 6925,
    " capabilities": 6926,
    " luck": 6927,
    " pine": 6928,
    " seven": 6929,
    "BA": 6930,
    " Fire": 6931,
    " afraid": 6932,
    " aircraft": 6933,
    " dressing": 6934,
    " identifying": 6935,
    "fess": 6936,
    "part": 6937,
    "powered": 6938,
    "then": 6939,
    " \"\"\"": 6940,
    " Chicago": 6941,
    " Follow": 6942,
    " Hen": 6943,
    " begins": 6944,
    " grown": 6945,
    " incredible": 6946,
    " rewards": 6947,
    " snack": 6948,
    " supportive": 6949,
    "hors": 6950,
    "orrect": 6951,
    " Marketing": 6952,
    " alert": 6953,
    " spots": 6954,
    "():": 6955,
    "85": 6956,
    " evening": 6957,
    " magaz": 6958,
    "800": 6959,
    "ogue": 6960,
    " Italy": 6961,
    " []": 6962,
    " advantages": 6963,
    " pun": 6964,
    " practicing": 6965,
    "gypt": 6966,
    "ota": 6967,
    "pi": 6968,
    "see": 6969,
    " Land": 6970,
    " Miss": 6971,
    " Space": 6972,
    " attacks": 6973,
    " corner": 6974,
    " excess": 6975,
    " experts": 6976,
    " pink": 6977,
    " presented": 6978,
    " soccer": 6979,
    " west": 6980,
    " wash": 6981,
    "_f": 6982,
    "itches": 6983,
    "roid": 6984,
    " Canadian": 6985,
    " Hand": 6986,
    " Practice": 6987,
    " President": 6988,
    " True": 6989,
    " artifact": 6990,
    " bucket": 6991,
    " happen": 6992,
    " poor": 6993,
    " tough": 6994,
    ".)": 6995,
    "anda": 6996,
    "iner": 6997,
    " 39": 6998,
    " Wood": 6999,
    " entertainment": 7000,
    " harvest": 7001,
    " label": 7002,
    " tact": 7003,
    " writer": 7004,
    " yogurt": 7005,
    "250": 7006,
    "atin": 7007,
    "ey": 7008,
    "idential": 7009,
    "ouds": 7010,
    " Council": 7011,
    " agg": 7012,
    " accounts": 7013,
    " mal": 7014,
    " reduction": 7015,
    " smok": 7016,
    "arant": 7017,
    "inity": 7018,
    "spe": 7019,
    " Implement": 7020,
    " advancements": 7021,
    " equations": 7022,
    " holding": 7023,
    " lets": 7024,
    " ongoing": 7025,
    " plenty": 7026,
    " seasons": 7027,
    " tape": 7028,
    "asts": 7029,
    " channel": 7030,
    " diagn": 7031,
    " dozen": 7032,
    " east": 7033,
    " focuses": 7034,
    " housing": 7035,
    " lose": 7036,
    " performing": 7037,
    " recovery": 7038,
    " soul": 7039,
    " turns": 7040,
    " votes": 7041,
    "cher": 7042,
    "sum": 7043,
    " ->": 7044,
    " 85": 7045,
    " Care": 7046,
    " Pet": 7047,
    " assert": 7048,
    " calling": 7049,
    " ghost": 7050,
    " houses": 7051,
    " occup": 7052,
    " pasta": 7053,
    " static": 7054,
    " weekend": 7055,
    "\\)": 7056,
    "ita": 7057,
    "reds": 7058,
    " Identify": 7059,
    " Thom": 7060,
    " achieved": 7061,
    " alloc": 7062,
    " estate": 7063,
    " meaningful": 7064,
    " tank": 7065,
    "We": 7066,
    "den": 7067,
    " Egypt": 7068,
    " General": 7069,
    " Haw": 7070,
    " contributed": 7071,
    " observ": 7072,
    " purchased": 7073,
    " roots": 7074,
    " says": 7075,
    " signal": 7076,
    "but": 7077,
    "cery": 7078,
    "connect": 7079,
    "rab": 7080,
    "}}": 7081,
    " era": 7082,
    " Ele": 7083,
    " UK": 7084,
    " barr": 7085,
    " cube": 7086,
    " flexibility": 7087,
    " joined": 7088,
    " peaceful": 7089,
    " recursion": 7090,
    " sight": 7091,
    " seats": 7092,
    " sudd": 7093,
    "LE": 7094,
    "astern": 7095,
    "ildren": 7096,
    " 2022": 7097,
    " Game": 7098,
    " Jul": 7099,
    " Like": 7100,
    " Windows": 7101,
    " editing": 7102,
    " ordered": 7103,
    " ring": 7104,
    " rose": 7105,
    " teach": 7106,
    "Pro": 7107,
    "aborate": 7108,
    "een": 7109,
    "usband": 7110,
    " Coll": 7111,
    " Dig": 7112,
    " Value": 7113,
    " Year": 7114,
    " conv": 7115,
    " listed": 7116,
    " packaging": 7117,
    " scr": 7118,
    " 2003": 7119,
    " Together": 7120,
    " ants": 7121,
    " cache": 7122,
    " cutting": 7123,
    " external": 7124,
    " interpret": 7125,
    " mathematics": 7126,
    " navigation": 7127,
    " scientists": 7128,
    "body": 7129,
    "itz": 7130,
    "rete": 7131,
    "uses": 7132,
    "you": 7133,
    " Power": 7134,
    " achieving": 7135,
    " glad": 7136,
    " grade": 7137,
    " rust": 7138,
    " recognized": 7139,
    " tomato": 7140,
    "'.": 7141,
    "Name": 7142,
    "car": 7143,
    "ilarly": 7144,
    "ivals": 7145,
    "veys": 7146,
    " </": 7147,
    " Cap": 7148,
    " Even": 7149,
    " Olympic": 7150,
    " automation": 7151,
    " deploy": 7152,
    " evaluate": 7153,
    " flexible": 7154,
    " forget": 7155,
    " pandemic": 7156,
    " profound": 7157,
    " rare": 7158,
    " universities": 7159,
    " wildlife": 7160,
    "sv": 7161,
    " Johnson": 7162,
    " Mass": 7163,
    " float": 7164,
    " maybe": 7165,
    " periods": 7166,
    "())": 7167,
    "ercent": 7168,
    "otic": 7169,
    "oves": 7170,
    " ign": 7171,
    " Big": 7172,
    " Conf": 7173,
    " Define": 7174,
    " Republic": 7175,
    " Valley": 7176,
    " encryption": 7177,
    " parking": 7178,
    " pean": 7179,
    " tutorial": 7180,
    "andon": 7181,
    "oor": 7182,
    "oria": 7183,
    "utter": 7184,
    " Alternatively": 7185,
    " Brown": 7186,
    " ans": 7187,
    " boundaries": 7188,
    " domin": 7189,
    " encountered": 7190,
    " zero": 7191,
    "burg": 7192,
    "ffective": 7193,
    "igan": 7194,
    "init": 7195,
    " Summer": 7196,
    " earns": 7197,
    " graphics": 7198,
    " highlights": 7199,
    " installation": 7200,
    " launched": 7201,
    " medicine": 7202,
    " signs": 7203,
    " shrimp": 7204,
    " survival": 7205,
    " Angeles": 7206,
    " Ver": 7207,
    " forced": 7208,
    " hiking": 7209,
    " impressive": 7210,
    " quarters": 7211,
    " shelter": 7212,
    "_sum": 7213,
    "iginal": 7214,
    "isa": 7215,
    "wind": 7216,
    " ur": 7217,
    " 44": 7218,
    " 65": 7219,
    " Combining": 7220,
    " carrots": 7221,
    " directory": 7222,
    " gluten": 7223,
    " guided": 7224,
    " mir": 7225,
    " planets": 7226,
    " syn": 7227,
    " teaspoon": 7228,
    "acon": 7229,
    "cause": 7230,
    "elry": 7231,
    "ican": 7232,
    "rid": 7233,
    "ua": 7234,
    " Found": 7235,
    " Journal": 7236,
    " Top": 7237,
    " chronic": 7238,
    " customized": 7239,
    " massive": 7240,
    " plane": 7241,
    " rough": 7242,
    " retr": 7243,
    "ady": 7244,
    "cending": 7245,
    "kins": 7246,
    " 2008": 7247,
    " Bang": 7248,
    " Ev": 7249,
    " authentication": 7250,
    " desk": 7251,
    " fell": 7252,
    " guidelines": 7253,
    " mountains": 7254,
    " soda": 7255,
    " variations": 7256,
    " weapons": 7257,
    "gebra": 7258,
    " Ext": 7259,
    " centuries": 7260,
    " minor": 7261,
    " muscles": 7262,
    " oven": 7263,
    " owned": 7264,
    " photo": 7265,
    " register": 7266,
    " remained": 7267,
    " smoothie": 7268,
    " vine": 7269,
    " vegetable": 7270,
    " worldwide": 7271,
    "IM": 7272,
    "isco": 7273,
    " 63": 7274,
    " dol": 7275,
    " drawing": 7276,
    " hes": 7277,
    " heritage": 7278,
    " radius": 7279,
    " sched": 7280,
    " severe": 7281,
    " traveled": 7282,
    " vit": 7283,
    "month": 7284,
    "pack": 7285,
    "pha": 7286,
    "ston": 7287,
    " Lastly": 7288,
    " emotion": 7289,
    " engines": 7290,
    " hydro": 7291,
    " providers": 7292,
    " simplify": 7293,
    " wearing": 7294,
    "inch": 7295,
    " Mult": 7296,
    " beat": 7297,
    " limits": 7298,
    " meets": 7299,
    " spiritual": 7300,
    "RL": 7301,
    "aws": 7302,
    "lam": 7303,
    " Cup": 7304,
    " Jung": 7305,
    " Mix": 7306,
    " Project": 7307,
    " joint": 7308,
    "anish": 7309,
    "iches": 7310,
    " Color": 7311,
    " although": 7312,
    " brings": 7313,
    " cakes": 7314,
    " matters": 7315,
    " pricing": 7316,
    " resistance": 7317,
    " scan": 7318,
    " wave": 7319,
    "ains": 7320,
    " CPU": 7321,
    " Ultimately": 7322,
    " creature": 7323,
    " pictures": 7324,
    " potentially": 7325,
    " recognize": 7326,
    " sto": 7327,
    " upl": 7328,
    "Node": 7329,
    "anguage": 7330,
    "hem": 7331,
    "lim": 7332,
    "noon": 7333,
    " Er": 7334,
    " Rose": 7335,
    " darkness": 7336,
    " poetry": 7337,
    " searching": 7338,
    " shot": 7339,
    "*.": 7340,
    "ercentage": 7341,
    "gu": 7342,
    "long": 7343,
    "mental": 7344,
    " alle": 7345,
    " checking": 7346,
    " citiz": 7347,
    " corresponding": 7348,
    " division": 7349,
    " emails": 7350,
    " heavily": 7351,
    " respectively": 7352,
    " trail": 7353,
    " university": 7354,
    "luding": 7355,
    "oongi": 7356,
    "which": 7357,
    " correl": 7358,
    " electronic": 7359,
    " happiness": 7360,
    " kid": 7361,
    " knowing": 7362,
    " longest": 7363,
    " rub": 7364,
    " sor": 7365,
    " sections": 7366,
    " speak": 7367,
    "max": 7368,
    "oken": 7369,
    "px": 7370,
    " CR": 7371,
    " Which": 7372,
    " authentic": 7373,
    " ensures": 7374,
    " featured": 7375,
    " president": 7376,
    " shower": 7377,
    " tiny": 7378,
    "jo": 7379,
    "oly": 7380,
    " Tem": 7381,
    " died": 7382,
    " inventory": 7383,
    " secrets": 7384,
    " suns": 7385,
    "Cl": 7386,
    " 2013": 7387,
    " Academy": 7388,
    " Fre": 7389,
    " desire": 7390,
    " inters": 7391,
    " layout": 7392,
    " spark": 7393,
    "=$<<": 7394,
    "icket": 7395,
    "ifting": 7396,
    "item": 7397,
    "sm": 7398,
    "stand": 7399,
    " clouds": 7400,
    " discovery": 7401,
    " marine": 7402,
    " visited": 7403,
    " voting": 7404,
    "isc": 7405,
    " Wal": 7406,
    " ax": 7407,
    " answers": 7408,
    " chart": 7409,
    " nuc": 7410,
    " query": 7411,
    " tip": 7412,
    " toward": 7413,
    " tourism": 7414,
    "lessly": 7415,
    "race": 7416,
    "umbers": 7417,
    "with": 7418,
    " 3x": 7419,
    " Engine": 7420,
    " affects": 7421,
    " entered": 7422,
    " falls": 7423,
    " fishing": 7424,
    " husband": 7425,
    " neckl": 7426,
    " nutrients": 7427,
    "']": 7428,
    "abling": 7429,
    "soft": 7430,
    " 2011": 7431,
    " Focus": 7432,
    " brush": 7433,
    " freedom": 7434,
    " happened": 7435,
    " moves": 7436,
    " reminder": 7437,
    " swimming": 7438,
    " tu": 7439,
    " targeted": 7440,
    "180": 7441,
    " Back": 7442,
    " Sus": 7443,
    " bananas": 7444,
    " featuring": 7445,
    " representing": 7446,
    " symbols": 7447,
    "ila": 7448,
    "itement": 7449,
    "nament": 7450,
    " Vict": 7451,
    " berries": 7452,
    " compass": 7453,
    " echo": 7454,
    " onions": 7455,
    " performances": 7456,
    " podcast": 7457,
    " refresh": 7458,
    " researchers": 7459,
    " sail": 7460,
    "['": 7461,
    "clusion": 7462,
    "len": 7463,
    "ously": 7464,
    " Bi": 7465,
    " Pac": 7466,
    " acid": 7467,
    " diam": 7468,
    " elimin": 7469,
    " gone": 7470,
    " hockey": 7471,
    " limitations": 7472,
    " motion": 7473,
    " stands": 7474,
    "stream": 7475,
    " CSS": 7476,
    " Mont": 7477,
    " Rachel": 7478,
    " batch": 7479,
    " biggest": 7480,
    " church": 7481,
    " displ": 7482,
    " rein": 7483,
    " recorded": 7484,
    " saving": 7485,
    " upcoming": 7486,
    "240": 7487,
    "los": 7488,
    "night": 7489,
    "pir": 7490,
    "rance": 7491,
    " 1996": 7492,
    " arrang": 7493,
    " athletes": 7494,
    " fan": 7495,
    " flower": 7496,
    " horizon": 7497,
    " intervent": 7498,
    "PT": 7499,
    "Ph": 7500,
    "_p": 7501,
    "lower": 7502,
    " 20th": 7503,
    " Management": 7504,
    " edit": 7505,
    " fundamental": 7506,
    " packages": 7507,
    " responsibility": 7508,
    " ske": 7509,
    " slice": 7510,
    " suggested": 7511,
    " survey": 7512,
    " truck": 7513,
    "_file": 7514,
    "anta": 7515,
    "ratic": 7516,
    "sin": 7517,
    "style": 7518,
    "usable": 7519,
    " Living": 7520,
    " abandon": 7521,
    " attractions": 7522,
    " enables": 7523,
    " fans": 7524,
    " familiar": 7525,
    " instruments": 7526,
    " kindness": 7527,
    " referred": 7528,
    " specialized": 7529,
    " subsequ": 7530,
    "84": 7531,
    "Val": 7532,
    "asters": 7533,
    "ench": 7534,
    "iments": 7535,
    "queue": 7536,
    " Web": 7537,
    " almond": 7538,
    " coconut": 7539,
    " concert": 7540,
    " solving": 7541,
    " visualization": 7542,
    "include": 7543,
    " Tony": 7544,
    " Tour": 7545,
    " attended": 7546,
    " birthday": 7547,
    " closely": 7548,
    " fighting": 7549,
    " mole": 7550,
    " skilled": 7551,
    " sliced": 7552,
    " taxes": 7553,
    " vow": 7554,
    "37": 7555,
    "ada": 7556,
    "nic": 7557,
    "rd": 7558,
    "umes": 7559,
    " Atl": 7560,
    " Charl": 7561,
    " Development": 7562,
    " Ell": 7563,
    " Maria": 7564,
    " resolution": 7565,
    " restrict": 7566,
    " startu": 7567,
    " thus": 7568,
    "ament": 7569,
    "ashed": 7570,
    "user": 7571,
    " 2009": 7572,
    " 96": 7573,
    " Oper": 7574,
    " Product": 7575,
    " Without": 7576,
    " distributed": 7577,
    " entreprene": 7578,
    " gifts": 7579,
    " subtracting": 7580,
    " visiting": 7581,
    "mented": 7582,
    " Community": 7583,
    " combinations": 7584,
    " documents": 7585,
    " drawn": 7586,
    " floors": 7587,
    " parties": 7588,
    " presentation": 7589,
    " rib": 7590,
    " thin": 7591,
    " writers": 7592,
    "hus": 7593,
    "ricts": 7594,
    " Free": 7595,
    " Light": 7596,
    " Linked": 7597,
    " Real": 7598,
    " chairs": 7599,
    " clin": 7600,
    " containers": 7601,
    " excitement": 7602,
    " injury": 7603,
    " installed": 7604,
    " nest": 7605,
    " reads": 7606,
    " transp": 7607,
    " warr": 7608,
    " workplace": 7609,
    " Building": 7610,
    " Ken": 7611,
    " Mid": 7612,
    " apartment": 7613,
    " branch": 7614,
    " figures": 7615,
    " overwhelmed": 7616,
    " sharp": 7617,
    " shaped": 7618,
    "IP": 7619,
    "_name": 7620,
    "ansion": 7621,
    "apple": 7622,
    "egan": 7623,
    "orted": 7624,
    " !=": 7625,
    " Historic": 7626,
    " driven": 7627,
    " electrons": 7628,
    " exposure": 7629,
    " healing": 7630,
    " investing": 7631,
    " neighb": 7632,
    " responsibilities": 7633,
    " squares": 7634,
    " vertices": 7635,
    "def": 7636,
    "indrome": 7637,
    " Peter": 7638,
    " border": 7639,
    " basis": 7640,
    " directed": 7641,
    " findings": 7642,
    " hats": 7643,
    " repair": 7644,
    " stim": 7645,
    " steel": 7646,
    " vent": 7647,
    "cts": 7648,
    " Incorpor": 7649,
    " Society": 7650,
    " cerem": 7651,
    " grocery": 7652,
    " hundreds": 7653,
    " lift": 7654,
    " wheel": 7655,
    "bur": 7656,
    "hire": 7657,
    " Scot": 7658,
    " afternoon": 7659,
    " category": 7660,
    " consumers": 7661,
    " hob": 7662,
    " tap": 7663,
    " tub": 7664,
    "29": 7665,
    "Array": 7666,
    "[]": 7667,
    "empty": 7668,
    "igenous": 7669,
    "ocado": 7670,
    "umbled": 7671,
    " Any": 7672,
    " Prot": 7673,
    " Show": 7674,
    " asking": 7675,
    " bell": 7676,
    " colorful": 7677,
    " marks": 7678,
    " occurs": 7679,
    " overl": 7680,
    "67": 7681,
    " Area": 7682,
    " Bank": 7683,
    " conflicts": 7684,
    " conversion": 7685,
    " lengths": 7686,
    " overview": 7687,
    " psychological": 7688,
    "DF": 7689,
    "berg": 7690,
    "kook": 7691,
    "orms": 7692,
    " Henry": 7693,
    " Offer": 7694,
    " Phot": 7695,
    " jar": 7696,
    " minimize": 7697,
    " watched": 7698,
    "commerce": 7699,
    "marks": 7700,
    "valid": 7701,
    " Ber": 7702,
    " Cath": 7703,
    " constantly": 7704,
    " divisible": 7705,
    " keys": 7706,
    " lock": 7707,
    " mouth": 7708,
    " vital": 7709,
    "grad": 7710,
    "onic": 7711,
    "pat": 7712,
    "ruit": 7713,
    " 2023": 7714,
    " Fest": 7715,
    " breaking": 7716,
    " classify": 7717,
    " customize": 7718,
    " encourages": 7719,
    " foundation": 7720,
    " indicate": 7721,
    " purple": 7722,
    " recording": 7723,
    " stamps": 7724,
    " stood": 7725,
    " underlying": 7726,
    "dney": 7727,
    "iche": 7728,
    " Comput": 7729,
    " Dec": 7730,
    " Pers": 7731,
    " Phil": 7732,
    " accordingly": 7733,
    " burg": 7734,
    " grammar": 7735,
    " popularity": 7736,
    " ski": 7737,
    " stakeholders": 7738,
    " tokenizer": 7739,
    " unable": 7740,
    " watermel": 7741,
    "fu": 7742,
    "ressed": 7743,
    " 140": 7744,
    " Lar": 7745,
    " disrupt": 7746,
    " equals": 7747,
    " explores": 7748,
    " extended": 7749,
    " forever": 7750,
    " gallon": 7751,
    " jewelry": 7752,
    " mysterious": 7753,
    " segment": 7754,
    " strengths": 7755,
    " vend": 7756,
    "Com": 7757,
    "boxed": 7758,
    "inent": 7759,
    "ka": 7760,
    "umps": 7761,
    " Jake": 7762,
    " committed": 7763,
    " losing": 7764,
    " reported": 7765,
    " sensors": 7766,
    " tiss": 7767,
    " windows": 7768,
    "cue": 7769,
    "ishing": 7770,
    "type": 7771,
    " 2012": 7772,
    " Bow": 7773,
    " Learning": 7774,
    " Records": 7775,
    " inse": 7776,
    " informative": 7777,
    " mush": 7778,
    " reputation": 7779,
    " shall": 7780,
    " studio": 7781,
    "anches": 7782,
    " historic": 7783,
    " merge": 7784,
    " noticed": 7785,
    " responses": 7786,
    " sheep": 7787,
    " suc": 7788,
    ",.": 7789,
    "....": 7790,
    "iser": 7791,
    "uling": 7792,
    " 1970": 7793,
    " Ca": 7794,
    " Columb": 7795,
    " Gre": 7796,
    " Rev": 7797,
    " bes": 7798,
    " coordinates": 7799,
    " crime": 7800,
    "Ind": 7801,
    "anes": 7802,
    "ossible": 7803,
    " 84": 7804,
    " Click": 7805,
    " Football": 7806,
    " MD": 7807,
    " Mo": 7808,
    " Support": 7809,
    " busy": 7810,
    " furniture": 7811,
    " golf": 7812,
    " isolation": 7813,
    " kne": 7814,
    " scholars": 7815,
    " seaf": 7816,
    " sensitive": 7817,
    " snacks": 7818,
    " versions": 7819,
    " wra": 7820,
    "fil": 7821,
    "init__": 7822,
    "ricultural": 7823,
    " Econom": 7824,
    " broadcast": 7825,
    " equival": 7826,
    " improvements": 7827,
    " median": 7828,
    " plates": 7829,
    " reduces": 7830,
    " strategic": 7831,
    " tennis": 7832,
    " territ": 7833,
    "ulating": 7834,
    " iron": 7835,
    " 2002": 7836,
    " Ing": 7837,
    " Wall": 7838,
    " bic": 7839,
    " gym": 7840,
    " reusable": 7841,
    " subjects": 7842,
    " typing": 7843,
    " var": 7844,
    "coh": 7845,
    "ename": 7846,
    "sub": 7847,
    "ta": 7848,
    " ...": 7849,
    " Army": 7850,
    " Mars": 7851,
    " Nav": 7852,
    " Pop": 7853,
    " Profess": 7854,
    " disorders": 7855,
    "MS": 7856,
    "fully": 7857,
    "plication": 7858,
    "stract": 7859,
    " Cut": 7860,
    " Ham": 7861,
    " Lim": 7862,
    " Sab": 7863,
    " adm": 7864,
    " exclusive": 7865,
    " las": 7866,
    " mitigate": 7867,
    " otherwise": 7868,
    "');": 7869,
    "alysis": 7870,
    "ban": 7871,
    "otton": 7872,
    " Sch": 7873,
    " Virgin": 7874,
    " classical": 7875,
    " default": 7876,
    " sprink": 7877,
    " trips": 7878,
    "oph": 7879,
    "yon": 7880,
    " Long": 7881,
    " Queen": 7882,
    " Services": 7883,
    " Stand": 7884,
    " Und": 7885,
    " anti": 7886,
    " automatically": 7887,
    " emerged": 7888,
    " enjoyed": 7889,
    " integrated": 7890,
    " memorable": 7891,
    " murder": 7892,
    " positions": 7893,
    " possibilities": 7894,
    " reverse": 7895,
    " roof": 7896,
    " showed": 7897,
    " signed": 7898,
    " tun": 7899,
    " talking": 7900,
    " wedding": 7901,
    " wooden": 7902,
    "II": 7903,
    "han": 7904,
    " 37": 7905,
    " 800": 7906,
    " Place": 7907,
    " Yoongi": 7908,
    " ce": 7909,
    " fert": 7910,
    " gradually": 7911,
    " heads": 7912,
    " proport": 7913,
    " spons": 7914,
    " sitting": 7915,
    " titles": 7916,
    "++)": 7917,
    "hi": 7918,
    "rial": 7919,
    "real": 7920,
    "well": 7921,
    " Energy": 7922,
    " Jess": 7923,
    " Jew": 7924,
    " Michigan": 7925,
    " Moreover": 7926,
    " Personal": 7927,
    " Rh": 7928,
    " adoption": 7929,
    " compelling": 7930,
    " determination": 7931,
    " equally": 7932,
    " rivers": 7933,
    " tight": 7934,
    " treatments": 7935,
    " turning": 7936,
    "kay": 7937,
    " Bridge": 7938,
    " Jac": 7939,
    " Royal": 7940,
    " Twitter": 7941,
    " blow": 7942,
    " department": 7943,
    " drug": 7944,
    " enabling": 7945,
    " metap": 7946,
    " nu": 7947,
    " peppers": 7948,
    " proposed": 7949,
    " reaching": 7950,
    " repeated": 7951,
    " stuck": 7952,
    " technological": 7953,
    "overs": 7954,
    "page": 7955,
    "tured": 7956,
    " 1960": 7957,
    " Award": 7958,
    " cha": 7959,
    " charges": 7960,
    " experiencing": 7961,
    " lik": 7962,
    " married": 7963,
    " nation": 7964,
    " overs": 7965,
    " produces": 7966,
    "aining": 7967,
    "ype": 7968,
    " Glo": 7969,
    " Online": 7970,
    " YouT": 7971,
    " absolutely": 7972,
    " assume": 7973,
    " borrow": 7974,
    " beneficial": 7975,
    " boat": 7976,
    " divers": 7977,
    " funds": 7978,
    " mathematical": 7979,
    " railway": 7980,
    " seam": 7981,
    "2000": 7982,
    "CD": 7983,
    " Similarly": 7984,
    " Whether": 7985,
    " crops": 7986,
    " galax": 7987,
    " honest": 7988,
    " phen": 7989,
    " prints": 7990,
    " sticks": 7991,
    " winning": 7992,
    "osed": 7993,
    " Dan": 7994,
    " Lord": 7995,
    " Rout": 7996,
    " Track": 7997,
    " failure": 7998,
    " jack": 7999,
    " paying": 8000,
    " rope": 8001,
    " scal": 8002,
    "CA": 8003,
    "cknow": 8004,
    "leep": 8005,
    "weet": 8006,
    " AS": 8007,
    " Encou": 8008,
    " Lin": 8009,
    " Young": 8010,
    " episode": 8011,
    " grid": 8012,
    " hesit": 8013,
    " toy": 8014,
    "angular": 8015,
    "heast": 8016,
    "oad": 8017,
    " urg": 8018,
    " addressing": 8019,
    " curs": 8020,
    " incorporated": 8021,
    " mig": 8022,
    " objectives": 8023,
    " onion": 8024,
    " predictions": 8025,
    " puppies": 8026,
    " sandwich": 8027,
    " shortest": 8028,
    " succeed": 8029,
    " turb": 8030,
    " template": 8031,
    " versat": 8032,
    "Sc": 8033,
    "_id": 8034,
    "asting": 8035,
    "iated": 8036,
    "mates": 8037,
    " Chorus": 8038,
    " Introduction": 8039,
    " Jose": 8040,
    " Luc": 8041,
    " advoc": 8042,
    " optimization": 8043,
    " parallel": 8044,
    " parameters": 8045,
    " struggled": 8046,
    "1200": 8047,
    "mid": 8048,
    " Louis": 8049,
    " ended": 8050,
    " interv": 8051,
    " operate": 8052,
    " sacr": 8053,
    " traum": 8054,
    " translation": 8055,
    " traveling": 8056,
    " uncover": 8057,
    "Your": 8058,
    "cussion": 8059,
    "ideo": 8060,
    "solving": 8061,
    " Court": 8062,
    " Mer": 8063,
    " behaviors": 8064,
    " cows": 8065,
    " thousands": 8066,
    "AI": 8067,
    "It": 8068,
    "Number": 8069,
    "grade": 8070,
    " 360": 8071,
    " Mah": 8072,
    " Russia": 8073,
    " Sophie": 8074,
    " fears": 8075,
    " nearly": 8076,
    " pets": 8077,
    " rhythm": 8078,
    " settle": 8079,
    " tailored": 8080,
    " Att": 8081,
    " Pak": 8082,
    " cow": 8083,
    " oppon": 8084,
    " outcome": 8085,
    " perm": 8086,
    " sandwiches": 8087,
    " seeing": 8088,
    " spell": 8089,
    "df": 8090,
    " announced": 8091,
    " centers": 8092,
    " combat": 8093,
    " controls": 8094,
    " democracy": 8095,
    " impossible": 8096,
    " stable": 8097,
    "front": 8098,
    "itting": 8099,
    "pers": 8100,
    " Du": 8101,
    " Internet": 8102,
    " Pan": 8103,
    " physics": 8104,
    " precise": 8105,
    " romantic": 8106,
    " spicy": 8107,
    " supported": 8108,
    " teen": 8109,
    " typical": 8110,
    "->": 8111,
    "====": 8112,
    "flo": 8113,
    "gi": 8114,
    " Calculate": 8115,
    " Fam": 8116,
    " Mexico": 8117,
    " Rome": 8118,
    " overwhelming": 8119,
    " pover": 8120,
    " poverty": 8121,
    " submit": 8122,
    "Int": 8123,
    "Tr": 8124,
    "bage": 8125,
    "items": 8126,
    "ki": 8127,
    "oston": 8128,
    " False": 8129,
    " Point": 8130,
    " aest": 8131,
    " branches": 8132,
    " extensive": 8133,
    " genre": 8134,
    " justice": 8135,
    " keywords": 8136,
    " provider": 8137,
    " seafood": 8138,
    " stuff": 8139,
    " vulnerable": 8140,
    "airy": 8141,
    "fits": 8142,
    "tee": 8143,
    " Paris": 8144,
    " Sports": 8145,
    " VR": 8146,
    " ads": 8147,
    " castle": 8148,
    " entirely": 8149,
    " equivalent": 8150,
    " extension": 8151,
    " strengthen": 8152,
    " unf": 8153,
    "TV": 8154,
    "ician": 8155,
    "uan": 8156,
    " Conclusion": 8157,
    " Integ": 8158,
    " Press": 8159,
    " Spanish": 8160,
    " battery": 8161,
    " blockchain": 8162,
    " collaborate": 8163,
    " consumed": 8164,
    " fur": 8165,
    " intu": 8166,
    " surroundings": 8167,
    "ango": 8168,
    "index": 8169,
    " Cong": 8170,
    " Common": 8171,
    " Dou": 8172,
    " Microsoft": 8173,
    " Tele": 8174,
    " adopted": 8175,
    " blank": 8176,
    " crust": 8177,
    " dust": 8178,
    " eleg": 8179,
    " enthus": 8180,
    " investigation": 8181,
    " shadows": 8182,
    " staying": 8183,
    "ares": 8184,
    "ato": 8185,
    "cious": 8186,
    "income": 8187,
    "osit": 8188,
    "scale": 8189,
    " Den": 8190,
    " Digital": 8191,
    " Home": 8192,
    " Lit": 8193,
    " horse": 8194,
    " inequality": 8195,
    "\";": 8196,
    "vas": 8197,
    " bear": 8198,
    " coat": 8199,
    " critic": 8200,
    " discounts": 8201,
    " doctor": 8202,
    " fier": 8203,
    " golden": 8204,
    " instruction": 8205,
    " minus": 8206,
    " motivation": 8207,
    " outputs": 8208,
    " protected": 8209,
    " pursue": 8210,
    " roasted": 8211,
    " tours": 8212,
    "andy": 8213,
    "iament": 8214,
    "rus": 8215,
    " 2014": 8216,
    " Order": 8217,
    " Register": 8218,
    " Ve": 8219,
    " desert": 8220,
    " ham": 8221,
    " mistake": 8222,
    " poems": 8223,
    " wider": 8224,
    " worry": 8225,
    "eras": 8226,
    "icit": 8227,
    " Soft": 8228,
    " YouTube": 8229,
    " balanced": 8230,
    " controll": 8231,
    " disaster": 8232,
    " hash": 8233,
    " lies": 8234,
    " reflection": 8235,
    " transformed": 8236,
    " vinegar": 8237,
    "Sh": 8238,
    "eder": 8239,
    "sion": 8240,
    "ttp": 8241,
    " ?": 8242,
    " Ice": 8243,
    " Line": 8244,
    " Percentage": 8245,
    " Sea": 8246,
    " Sydney": 8247,
    " bringing": 8248,
    " cabin": 8249,
    " coaching": 8250,
    " displays": 8251,
    " duplic": 8252,
    " farming": 8253,
    " festivals": 8254,
    " kick": 8255,
    " nodes": 8256,
    " protocols": 8257,
    " tab": 8258,
    " tells": 8259,
    " weights": 8260,
    "AB": 8261,
    "aped": 8262,
    "boards": 8263,
    "first": 8264,
    "ront": 8265,
    " Divide": 8266,
    " aer": 8267,
    " bub": 8268,
    " convent": 8269,
    " guest": 8270,
    " minimal": 8271,
    " mystery": 8272,
    " saying": 8273,
    " spect": 8274,
    " tablespoon": 8275,
    " theore": 8276,
    " vanilla": 8277,
    "39": 8278,
    "AL": 8279,
    "OT": 8280,
    "ansas": 8281,
    "ferent": 8282,
    "iage": 8283,
    "iana": 8284,
    "net": 8285,
    " Boston": 8286,
    " Cast": 8287,
    " Dutch": 8288,
    " Stat": 8289,
    " URL": 8290,
    " decrease": 8291,
    " drives": 8292,
    " identified": 8293,
    " owns": 8294,
    " pret": 8295,
    " rush": 8296,
    " sculpture": 8297,
    " vess": 8298,
    "76": 8299,
    "endar": 8300,
    "ilant": 8301,
    "mod": 8302,
    "pending": 8303,
    " BC": 8304,
    " Cur": 8305,
    " Christmas": 8306,
    " JS": 8307,
    " Three": 8308,
    " carried": 8309,
    " decline": 8310,
    " elaborate": 8311,
    " expansion": 8312,
    " expressed": 8313,
    " font": 8314,
    " privacy": 8315,
    " suppl": 8316,
    " transformation": 8317,
    "iger": 8318,
    " Government": 8319,
    " Machine": 8320,
    " Pakistan": 8321,
    " Thomas": 8322,
    " colleagues": 8323,
    " geometric": 8324,
    " iconic": 8325,
    " interval": 8326,
    " peak": 8327,
    " populations": 8328,
    " regression": 8329,
    "adow": 8330,
    "bar": 8331,
    "essage": 8332,
    "fe": 8333,
    "mm": 8334,
    "number": 8335,
    "tex": 8336,
    " Current": 8337,
    " Rub": 8338,
    " absorb": 8339,
    " cout": 8340,
    " crimin": 8341,
    " denomin": 8342,
    " driver": 8343,
    " extremely": 8344,
    " imagine": 8345,
    " marked": 8346,
    " realize": 8347,
    "44": 8348,
    "ometimes": 8349,
    " 19th": 8350,
    " Bur": 8351,
    " Pacific": 8352,
    " Ter": 8353,
    " Wild": 8354,
    " crystal": 8355,
    " gently": 8356,
    " haz": 8357,
    " hey": 8358,
    " py": 8359,
    " perspectives": 8360,
    " sad": 8361,
    " vegetarian": 8362,
    " Information": 8363,
    " Walk": 8364,
    " goats": 8365,
    " huge": 8366,
    " incl": 8367,
    " luxury": 8368,
    " mort": 8369,
    " robust": 8370,
    " therefore": 8371,
    " wings": 8372,
    "color": 8373,
    "math": 8374,
    "rated": 8375,
    "stone": 8376,
    " Bas": 8377,
    " Jason": 8378,
    " Mot": 8379,
    " agency": 8380,
    " bodies": 8381,
    " cooper": 8382,
    " clim": 8383,
    " compat": 8384,
    " criteria": 8385,
    " deeply": 8386,
    " genres": 8387,
    " integrate": 8388,
    " rainfall": 8389,
    " relief": 8390,
    " selecting": 8391,
    " tablespoons": 8392,
    " upper": 8393,
    " vote": 8394,
    "Con": 8395,
    "aland": 8396,
    "inos": 8397,
    "reek": 8398,
    "venue": 8399,
    " IN": 8400,
    " Writ": 8401,
    " cuts": 8402,
    " chatbot": 8403,
    " childhood": 8404,
    " compl": 8405,
    " compost": 8406,
    " completing": 8407,
    " dessert": 8408,
    " farmer": 8409,
    " highlighting": 8410,
    " modified": 8411,
    " percussion": 8412,
    " photography": 8413,
    "ighth": 8414,
    "lers": 8415,
    "outs": 8416,
    "ura": 8417,
    " Cloud": 8418,
    " Russian": 8419,
    " UN": 8420,
    " commission": 8421,
    " composition": 8422,
    " decides": 8423,
    " guard": 8424,
    " pizzas": 8425,
    " removing": 8426,
    "160": 8427,
    "appe": 8428,
    "century": 8429,
    "ester": 8430,
    "orous": 8431,
    "ped": 8432,
    " 95": 8433,
    " Jungkook": 8434,
    " Transport": 8435,
    " aimed": 8436,
    " attach": 8437,
    " attendees": 8438,
    " calming": 8439,
    " candidate": 8440,
    " classroom": 8441,
    " convenient": 8442,
    " crypt": 8443,
    " documentation": 8444,
    " entry": 8445,
    " forecast": 8446,
    " holiday": 8447,
    " repeat": 8448,
    " soph": 8449,
    " surviv": 8450,
    " 1997": 8451,
    " 49": 8452,
    " Average": 8453,
    " Build": 8454,
    " Ill": 8455,
    " Korean": 8456,
    " Ly": 8457,
    " angle": 8458,
    " creamy": 8459,
    " evenly": 8460,
    " repet": 8461,
    "VID": 8462,
    "anak": 8463,
    "arios": 8464,
    "ours": 8465,
    " 1200": 8466,
    " Di": 8467,
    " comment": 8468,
    " competitors": 8469,
    " emphasis": 8470,
    " facility": 8471,
    " guarant": 8472,
    " kingdom": 8473,
    " tom": 8474,
    "Hello": 8475,
    "eli": 8476,
    "keys": 8477,
    "opy": 8478,
    " Festival": 8479,
    " episodes": 8480,
    " infect": 8481,
    " mob": 8482,
    " seed": 8483,
    " shirt": 8484,
    "bes": 8485,
    "izable": 8486,
    "unicip": 8487,
    " Card": 8488,
    " Men": 8489,
    " Ryan": 8490,
    " Review": 8491,
    " alongside": 8492,
    " });": 8493,
    "comm": 8494,
    "emade": 8495,
    "gl": 8496,
    " Code": 8497,
    " Early": 8498,
    " Fort": 8499,
    " Hold": 8500,
    " Special": 8501,
    " acknow": 8502,
    " artwork": 8503,
    " cuc": 8504,
    " calculates": 8505,
    " die": 8506,
    " elected": 8507,
    " museums": 8508,
    " planted": 8509,
    " uncertain": 8510,
    "38": 8511,
    "46": 8512,
    "enues": 8513,
    "ogs": 8514,
    " Age": 8515,
    " Ask": 8516,
    " Ratio": 8517,
    " clubs": 8518,
    " delicate": 8519,
    " director": 8520,
    " drum": 8521,
    " gaming": 8522,
    " inhab": 8523,
    " influencer": 8524,
    " intensity": 8525,
    " majority": 8526,
    " messaging": 8527,
    " recover": 8528,
    " routes": 8529,
    " soldiers": 8530,
    " temperatures": 8531,
    " tradition": 8532,
    " treasure": 8533,
    " variation": 8534,
    "outer": 8535,
    " Francisco": 8536,
    " Network": 8537,
    " Richard": 8538,
    " Winter": 8539,
    " artistic": 8540,
    " compassion": 8541,
    " correlation": 8542,
    " flying": 8543,
    " fees": 8544,
    " receiving": 8545,
    " refrig": 8546,
    " servers": 8547,
    "adium": 8548,
    "brid": 8549,
    "celer": 8550,
    "foot": 8551,
    "roud": 8552,
    "rup": 8553,
    "umns": 8554,
    "vy": 8555,
    " Cross": 8556,
    " Instructions": 8557,
    " Non": 8558,
    " Yuna": 8559,
    " __init__": 8560,
    " frustr": 8561,
    " frozen": 8562,
    " hex": 8563,
    " negot": 8564,
    " priority": 8565,
    " readable": 8566,
    "_count": 8567,
    "och": 8568,
    "rigation": 8569,
    " 1998": 8570,
    " Environ": 8571,
    " Ingredients": 8572,
    " Where": 8573,
    " Wow": 8574,
    " bree": 8575,
    " brace": 8576,
    " calculation": 8577,
    " composed": 8578,
    " consumer": 8579,
    " dragon": 8580,
    " fifth": 8581,
    " glasses": 8582,
    " harsh": 8583,
    " rit": 8584,
    " showing": 8585,
    " studied": 8586,
    " tac": 8587,
    "05": 8588,
    "esh": 8589,
    "etch": 8590,
    "ographics": 8591,
    " User": 8592,
    " Connect": 8593,
    " Offic": 8594,
    " Saf": 8595,
    " Spec": 8596,
    " actors": 8597,
    " algebra": 8598,
    " bass": 8599,
    " claim": 8600,
    " domain": 8601,
    " formation": 8602,
    " hyper": 8603,
    " je": 8604,
    " mechanisms": 8605,
    " novels": 8606,
    " processor": 8607,
    " scenarios": 8608,
    " traits": 8609,
    " welcome": 8610,
    "icted": 8611,
    "osm": 8612,
    "ouses": 8613,
    " Liber": 8614,
    " Sa": 8615,
    " Type": 8616,
    " agreement": 8617,
    " charged": 8618,
    " coach": 8619,
    " designers": 8620,
    " jelly": 8621,
    " plate": 8622,
    " sear": 8623,
    "56": 8624,
    "aters": 8625,
    "eding": 8626,
    "ingers": 8627,
    "itations": 8628,
    "position": 8629,
    "ruption": 8630,
    " CD": 8631,
    " Martin": 8632,
    " Tor": 8633,
    " agricultural": 8634,
    " consistency": 8635,
    " dut": 8636,
    " faith": 8637,
    " objective": 8638,
    " potato": 8639,
    " react": 8640,
    " relat": 8641,
    " resulted": 8642,
    " separated": 8643,
    " statements": 8644,
    "draw": 8645,
    "ensional": 8646,
    "itan": 8647,
    "made": 8648,
    "println": 8649,
    "profit": 8650,
    "}$.": 8651,
    " Polit": 8652,
    " Read": 8653,
    " Serve": 8654,
    " dialogue": 8655,
    " duration": 8656,
    " parks": 8657,
    " shares": 8658,
    "_string": 8659,
    "ackson": 8660,
    "bell": 8661,
    "fortun": 8662,
    "ppings": 8663,
    "rames": 8664,
    " Did": 8665,
    " Gar": 8666,
    " Local": 8667,
    " Office": 8668,
    " Spring": 8669,
    " Zealand": 8670,
    " arrays": 8671,
    " bullet": 8672,
    " categor": 8673,
    " inher": 8674,
    " incentives": 8675,
    " incredibly": 8676,
    " jazz": 8677,
    " lege": 8678,
    " robot": 8679,
    "));": 8680,
    "98": 8681,
    "formance": 8682,
    " Aud": 8683,
    " Print": 8684,
    " Students": 8685,
    " animation": 8686,
    " codes": 8687,
    " champions": 8688,
    " diss": 8689,
    " incorrect": 8690,
    " payments": 8691,
    " perhaps": 8692,
    " planned": 8693,
    " recip": 8694,
    "CS": 8695,
    "_sc": 8696,
    "aware": 8697,
    "advant": 8698,
    "mail": 8699,
    "onel": 8700,
    " Northern": 8701,
    " beneath": 8702,
    " dealing": 8703,
    " distances": 8704,
    " hur": 8705,
    " humanity": 8706,
    " keyboard": 8707,
    " moisture": 8708,
    " oldest": 8709,
    " quot": 8710,
    " refreshing": 8711,
    " sheets": 8712,
    " vacation": 8713,
    "Wh": 8714,
    "ctic": 8715,
    "oir": 8716,
    "phones": 8717,
    "win": 8718,
    " Access": 8719,
    " Climate": 8720,
    " Democ": 8721,
    " End": 8722,
    " Gard": 8723,
    " Lisa": 8724,
    " Ra": 8725,
    " acquired": 8726,
    " appeal": 8727,
    " avoiding": 8728,
    " bact": 8729,
    " boundary": 8730,
    " dried": 8731,
    " evolved": 8732,
    " insert": 8733,
    " mostly": 8734,
    "31": 8735,
    "ictional": 8736,
    "imizing": 8737,
    "oa": 8738,
    "rate": 8739,
    "telling": 8740,
    " Rest": 8741,
    " Route": 8742,
    " Well": 8743,
    " awarded": 8744,
    " finance": 8745,
    " footprint": 8746,
    " gran": 8747,
    " intervals": 8748,
    " john": 8749,
    " pants": 8750,
    " papers": 8751,
    "ein": 8752,
    "kyo": 8753,
    "taking": 8754,
    " Adv": 8755,
    " Arts": 8756,
    " Call": 8757,
    " Gall": 8758,
    " Jenna": 8759,
    " arise": 8760,
    " bake": 8761,
    " ducklings": 8762,
    " gardens": 8763,
    " inval": 8764,
    " multiplying": 8765,
    "oids": 8766,
    "okes": 8767,
    "wing": 8768,
    " Eastern": 8769,
    " Night": 8770,
    " concrete": 8771,
    " confront": 8772,
    " fuels": 8773,
    " giant": 8774,
    " hat": 8775,
    " pies": 8776,
    " prompts": 8777,
    " quantum": 8778,
    "agers": 8779,
    "ersey": 8780,
    "hered": 8781,
    "iece": 8782,
    "ika": 8783,
    "most": 8784,
    "vania": 8785,
    " 1992": 8786,
    " Because": 8787,
    " Install": 8788,
    " Pass": 8789,
    " avocado": 8790,
    " conscious": 8791,
    " discipl": 8792,
    " hung": 8793,
    " millions": 8794,
    " peanut": 8795,
    " purchases": 8796,
    " recon": 8797,
    " timeline": 8798,
    "RE": 8799,
    "https": 8800,
    "oseok": 8801,
    " Customer": 8802,
    " Examples": 8803,
    " Imp": 8804,
    " Log": 8805,
    " Steve": 8806,
    " administr": 8807,
    " breeze": 8808,
    " comparison": 8809,
    " courage": 8810,
    " deriv": 8811,
    " margin": 8812,
    " prison": 8813,
    " rat": 8814,
    " sentiment": 8815,
    " societ": 8816,
    "BS": 8817,
    "ano": 8818,
    "iano": 8819,
    "ocal": 8820,
    "versal": 8821,
    "width": 8822,
    " Hill": 8823,
    " Railway": 8824,
    " abstract": 8825,
    " cherry": 8826,
    " celebrate": 8827,
    " establishments": 8828,
    " existence": 8829,
    " greenhouse": 8830,
    " inqu": 8831,
    " tire": 8832,
    "cend": 8833,
    "dess": 8834,
    "html": 8835,
    " Employ": 8836,
    " JSON": 8837,
    " Libr": 8838,
    " awards": 8839,
    " dedication": 8840,
    " editor": 8841,
    " instant": 8842,
    " narrow": 8843,
    " native": 8844,
    " towns": 8845,
    "days": 8846,
    "json": 8847,
    " 110": 8848,
    " 108": 8849,
    " Carolina": 8850,
    " Human": 8851,
    " Run": 8852,
    " Sn": 8853,
    " Small": 8854,
    " abandoned": 8855,
    " addiction": 8856,
    " dow": 8857,
    " prominent": 8858,
    " san": 8859,
    " sib": 8860,
    " seasoning": 8861,
    " sheet": 8862,
    " temp": 8863,
    " tournament": 8864,
    " visualize": 8865,
    "PA": 8866,
    "aylor": 8867,
    "cohol": 8868,
    "mother": 8869,
    "natural": 8870,
    "ograp": 8871,
    "rency": 8872,
    "start": 8873,
    "tion": 8874,
    "uction": 8875,
    " Board": 8876,
    " Invest": 8877,
    " adapted": 8878,
    " assigned": 8879,
    " citizens": 8880,
    " dimensions": 8881,
    " fo": 8882,
    " hypot": 8883,
    " legacy": 8884,
    " lesson": 8885,
    " null": 8886,
    " reser": 8887,
    " rental": 8888,
    " witness": 8889,
    "IA": 8890,
    "Value": 8891,
    " Bab": 8892,
    " Emma": 8893,
    " Tax": 8894,
    " attraction": 8895,
    " characterized": 8896,
    " deals": 8897,
    " difficulty": 8898,
    " injuries": 8899,
    " interior": 8900,
    " puts": 8901,
    " panels": 8902,
    " pride": 8903,
    " streaming": 8904,
    " threats": 8905,
    " unlike": 8906,
    "88": 8907,
    "CC": 8908,
    "Time": 8909,
    "_to": 8910,
    "ga": 8911,
    "rich": 8912,
    " ;": 8913,
    " Team": 8914,
    " artifacts": 8915,
    " attending": 8916,
    " crop": 8917,
    " charity": 8918,
    " emerging": 8919,
    " exhibit": 8920,
    " greet": 8921,
    " intake": 8922,
    " nuclear": 8923,
    " particles": 8924,
    " perfectly": 8925,
    " sex": 8926,
    " wet": 8927,
    " winner": 8928,
    "_path": 8929,
    "oul": 8930,
    "reshold": 8931,
    "search": 8932,
    "tery": 8933,
    " Columbia": 8934,
    " Speed": 8935,
    " Substit": 8936,
    " bulbs": 8937,
    " diagon": 8938,
    " estimated": 8939,
    " hip": 8940,
    " indicating": 8941,
    " isn": 8942,
    " logo": 8943,
    "ermine": 8944,
    "gener": 8945,
    "irds": 8946,
    "third": 8947,
    " Tokyo": 8948,
    " Ur": 8949,
    " aside": 8950,
    " browser": 8951,
    " compete": 8952,
    " connecting": 8953,
    " elif": 8954,
    " foss": 8955,
    " fantasy": 8956,
    " frequent": 8957,
    " investors": 8958,
    " melody": 8959,
    " occasion": 8960,
    " signals": 8961,
    "CO": 8962,
    "building": 8963,
    "ev": 8964,
    "orient": 8965,
    " ABC": 8966,
    " Four": 8967,
    " Function": 8968,
    " Jackson": 8969,
    " Sometimes": 8970,
    " Select": 8971,
    " audiences": 8972,
    " bathroom": 8973,
    " calculating": 8974,
    " nickels": 8975,
    " tro": 8976,
    " trains": 8977,
    " wish": 8978,
    "email": 8979,
    "isters": 8980,
    "ulf": 8981,
    " 1994": 8982,
    " Divid": 8983,
    " Fibonacci": 8984,
    " Generate": 8985,
    " bind": 8986,
    " confirm": 8987,
    " describes": 8988,
    " discussion": 8989,
    " mythology": 8990,
    " networking": 8991,
    " regardless": 8992,
    "balls": 8993,
    "erie": 8994,
    "eta": 8995,
    "ugby": 8996,
    "war": 8997,
    " Ire": 8998,
    " Store": 8999,
    " drama": 9000,
    " hosting": 9001,
    " lasting": 9002,
    " opposite": 9003,
    " theater": 9004,
    " toppings": 9005,
    "rat": 9006,
    "urya": 9007,
    " 76": 9008,
    " Arab": 9009,
    " Film": 9010,
    " Golden": 9011,
    " IS": 9012,
    " Jam": 9013,
    " Linux": 9014,
    " Matt": 9015,
    " accessories": 9016,
    " bones": 9017,
    " bands": 9018,
    " coding": 9019,
    " converts": 9020,
    " conversations": 9021,
    " formats": 9022,
    " industrial": 9023,
    " rewrite": 9024,
    " warmth": 9025,
    "Line": 9026,
    "US": 9027,
    "_empty": 9028,
    "aehy": 9029,
    "aka": 9030,
    "anakya": 9031,
    "button": 9032,
    "ccoli": 9033,
    "cker": 9034,
    "inated": 9035,
    "isk": 9036,
    "nut": 9037,
    "ylvania": 9038,
    " Chris": 9039,
    " Const": 9040,
    " Equ": 9041,
    " Marc": 9042,
    " Prior": 9043,
    " Series": 9044,
    " USA": 9045,
    " appreciation": 9046,
    " enhancing": 9047,
    " indeed": 9048,
    " managers": 9049,
    " manipulate": 9050,
    " racing": 9051,
    " tired": 9052,
    " travels": 9053,
    " vertical": 9054,
    "main": 9055,
    "namon": 9056,
    "opt": 9057,
    "oured": 9058,
    " ()": 9059,
    " 1995": 9060,
    " Brad": 9061,
    " Cy": 9062,
    " Under": 9063,
    " drove": 9064,
    " geometry": 9065,
    " optimized": 9066,
    " responding": 9067,
    " scenes": 9068,
    " sending": 9069,
    " western": 9070,
    " worn": 9071,
    "atell": 9072,
    "avas": 9073,
    "lder": 9074,
    "lose": 9075,
    "ras": 9076,
    " Bon": 9077,
    " Brand": 9078,
    " Chapter": 9079,
    " Jenny": 9080,
    " Maurya": 9081,
    " Nam": 9082,
    " Ros": 9083,
    " Simpl": 9084,
    " achievements": 9085,
    " airport": 9086,
    " backgrounds": 9087,
    " expanded": 9088,
    " falling": 9089,
    " lung": 9090,
    " lawn": 9091,
    " merged": 9092,
    " observed": 9093,
    " pill": 9094,
    " specify": 9095,
    "An": 9096,
    "dem": 9097,
    "itivity": 9098,
    "onomy": 9099,
    "test": 9100,
    "while": 9101,
    " Civil": 9102,
    " Chick": 9103,
    " Charles": 9104,
    " Dar": 9105,
    " Key": 9106,
    " Little": 9107,
    " Price": 9108,
    " Tam": 9109,
    " defend": 9110,
    " disappe": 9111,
    " exception": 9112,
    " exceptional": 9113,
    " federal": 9114,
    " illness": 9115,
    " occurred": 9116,
    " operator": 9117,
    " portfol": 9118,
    " retire": 9119,
    " tender": 9120,
    "Ins": 9121,
    "mal": 9122,
    "roduct": 9123,
    "tons": 9124,
    " 99": 9125,
    " Eth": 9126,
    " Jeff": 9127,
    " Penns": 9128,
    " Security": 9129,
    " Smart": 9130,
    " Video": 9131,
    " districts": 9132,
    " embrace": 9133,
    " smile": 9134,
    " stones": 9135,
    " wins": 9136,
    "TE": 9137,
    "elect": 9138,
    "igned": 9139,
    "plot": 9140,
    "},": 9141,
    " )": 9142,
    " 1980s": 9143,
    " Amount": 9144,
    " Box": 9145,
    " Catholic": 9146,
    " Different": 9147,
    " constructed": 9148,
    " eras": 9149,
    " governments": 9150,
    " proof": 9151,
    ")(": 9152,
    "ablish": 9153,
    "cest": 9154,
    "olds": 9155,
    " 66": 9156,
    " Battle": 9157,
    " RAM": 9158,
    " Visit": 9159,
    " debt": 9160,
    " gender": 9161,
    " hall": 9162,
    " honor": 9163,
    " mini": 9164,
    " optimal": 9165,
    " preferred": 9166,
    " purchasing": 9167,
    " reflects": 9168,
    " rolls": 9169,
    " scheme": 9170,
    " spirits": 9171,
    "]:": 9172,
    "aved": 9173,
    "base": 9174,
    "cell": 9175,
    "ilation": 9176,
    "pur": 9177,
    "phony": 9178,
    "tail": 9179,
    " 88": 9180,
    " Budd": 9181,
    " Ut": 9182,
    " buses": 9183,
    " contest": 9184,
    " exists": 9185,
    " flavorful": 9186,
    " intuitive": 9187,
    " pace": 9188,
    " proud": 9189,
    " putting": 9190,
    " queries": 9191,
    " reaches": 9192,
    " shell": 9193,
    " speaker": 9194,
    " stumbled": 9195,
    " syrup": 9196,
    " tor": 9197,
    " tech": 9198,
    " wellness": 9199,
    "forest": 9200,
    "oos": 9201,
    "rian": 9202,
    "rons": 9203,
    "ycles": 9204,
    " \")": 9205,
    " 5th": 9206,
    " Corpor": 9207,
    " Return": 9208,
    " Word": 9209,
    " applying": 9210,
    " circumst": 9211,
    " delivered": 9212,
    " hills": 9213,
    " league": 9214,
    " meetings": 9215,
    " np": 9216,
    " retailers": 9217,
    " stages": 9218,
    " stead": 9219,
    " tooth": 9220,
    "ca": 9221,
    "dep": 9222,
    "lay": 9223,
    "reens": 9224,
    "redict": 9225,
    " Az": 9226,
    " Dev": 9227,
    " Electric": 9228,
    " Flo": 9229,
    " Scottish": 9230,
    " Stay": 9231,
    " campus": 9232,
    " crunch": 9233,
    " detection": 9234,
    " displayed": 9235,
    " employment": 9236,
    " nine": 9237,
    " norm": 9238,
    " pil": 9239,
    " pushing": 9240,
    " southern": 9241,
    " shadow": 9242,
    " visibility": 9243,
    "atever": 9244,
    "cr": 9245,
    "ivating": 9246,
    "king": 9247,
    "otten": 9248,
    "pet": 9249,
    "ping": 9250,
    "points": 9251,
    "such": 9252,
    "this": 9253,
    "young": 9254,
    " Comple": 9255,
    " Hoseok": 9256,
    " Jes": 9257,
    " Pennsylvania": 9258,
    " Remove": 9259,
    " Van": 9260,
    " army": 9261,
    " cotton": 9262,
    " charts": 9263,
    " civilization": 9264,
    " entrepreneurs": 9265,
    " factorial": 9266,
    " harmful": 9267,
    " irrigation": 9268,
    " lyrics": 9269,
    " outline": 9270,
    " ownership": 9271,
    " procedures": 9272,
    " reform": 9273,
    " terrain": 9274,
    "Al": 9275,
    "TS": 9276,
    "inder": 9277,
    "wa": 9278,
    " 2nd": 9279,
    " Analysis": 9280,
    " Dividing": 9281,
    " Lead": 9282,
    " Ocean": 9283,
    " Sir": 9284,
    " Sov": 9285,
    " Share": 9286,
    " antib": 9287,
    " cock": 9288,
    " disorder": 9289,
    " grilled": 9290,
    " hier": 9291,
    " homework": 9292,
    " horror": 9293,
    " magazine": 9294,
    " musicians": 9295,
    " opinions": 9296,
    " orig": 9297,
    " perce": 9298,
    " rapidly": 9299,
    " soy": 9300,
    " sorting": 9301,
    " wondering": 9302,
    "ceans": 9303,
    "iens": 9304,
    "never": 9305,
    "olt": 9306,
    "omial": 9307,
    "source": 9308,
    "using": 9309,
    "}\")": 9310,
    " Analytics": 9311,
    " Arm": 9312,
    " Dub": 9313,
    " batt": 9314,
    " coverage": 9315,
    " healthier": 9316,
    " mainly": 9317,
    " plain": 9318,
    " seas": 9319,
    " storing": 9320,
    " storytelling": 9321,
    " textures": 9322,
    " toss": 9323,
    "54": 9324,
    "ami": 9325,
    "burgh": 9326,
    "gal": 9327,
    "illet": 9328,
    "rels": 9329,
    "sk": 9330,
    "sters": 9331,
    "wall": 9332,
    " Infl": 9333,
    " Lee": 9334,
    " News": 9335,
    " Users": 9336,
    " alien": 9337,
    " authors": 9338,
    " bench": 9339,
    " cameras": 9340,
    " destruction": 9341,
    " enjoyable": 9342,
    " grace": 9343,
    " introduce": 9344,
    "_of": 9345,
    "erals": 9346,
    "fortunately": 9347,
    "istance": 9348,
    " Clean": 9349,
    " Dear": 9350,
    " Kenn": 9351,
    " Rick": 9352,
    " Song": 9353,
    " Seat": 9354,
    " adventures": 9355,
    " altogether": 9356,
    " drank": 9357,
    " endless": 9358,
    " enemy": 9359,
    " expressions": 9360,
    " lever": 9361,
    " logic": 9362,
    "66": 9363,
    "izona": 9364,
    "mers": 9365,
    "plements": 9366,
    " 68": 9367,
    " Ireland": 9368,
    " Mrs": 9369,
    " Phys": 9370,
    " Salt": 9371,
    " concentration": 9372,
    " destinations": 9373,
    " encouraging": 9374,
    " graduate": 9375,
    " herb": 9376,
    " maze": 9377,
    " medal": 9378,
    " raw": 9379,
    " reject": 9380,
    " scenario": 9381,
    " stripes": 9382,
    " transactions": 9383,
    " wheels": 9384,
    "To": 9385,
    "annah": 9386,
    "arding": 9387,
    "hr": 9388,
    "ieves": 9389,
    " Asian": 9390,
    " Cro": 9391,
    " Force": 9392,
    " Hind": 9393,
    " Islam": 9394,
    " Jersey": 9395,
    " Kent": 9396,
    " complain": 9397,
    " configuration": 9398,
    " fictional": 9399,
    " fierce": 9400,
    " heap": 9401,
    " heating": 9402,
    " insects": 9403,
    " intent": 9404,
    " manages": 9405,
    " mushrooms": 9406,
    " notifications": 9407,
    " passes": 9408,
    " paths": 9409,
    " possibility": 9410,
    " sees": 9411,
    " strict": 9412,
    "ING": 9413,
    "bro": 9414,
    "onaut": 9415,
    " Anna": 9416,
    " Ash": 9417,
    " Autom": 9418,
    " CE": 9419,
    " Combine": 9420,
    " Head": 9421,
    " Math": 9422,
    " Spain": 9423,
    " assets": 9424,
    " authority": 9425,
    " baked": 9426,
    " bears": 9427,
    " emphasize": 9428,
    " gum": 9429,
    " graphic": 9430,
    " homemade": 9431,
    " indigenous": 9432,
    " manufacturer": 9433,
    " newfound": 9434,
    " pars": 9435,
    " pour": 9436,
    " rating": 9437,
    " rig": 9438,
    " rising": 9439,
    "ckets": 9440,
    "ithm": 9441,
    " Assembly": 9442,
    " Encourage": 9443,
    " Farm": 9444,
    " Forest": 9445,
    " Story": 9446,
    " Taylor": 9447,
    " denominator": 9448,
    " digest": 9449,
    " foster": 9450,
    " locally": 9451,
    " pit": 9452,
    " parameter": 9453,
    " reactions": 9454,
    " shoulder": 9455,
    " singer": 9456,
    "My": 9457,
    "OP": 9458,
    "haust": 9459,
    "imensional": 9460,
    "itational": 9461,
    "kes": 9462,
    "orph": 9463,
    " Base": 9464,
    " SQL": 9465,
    " SS": 9466,
    " aqu": 9467,
    " alter": 9468,
    " banana": 9469,
    " births": 9470,
    " coin": 9471,
    " crisis": 9472,
    " deck": 9473,
    " ginger": 9474,
    " holes": 9475,
    " kinds": 9476,
    " lob": 9477,
    " logical": 9478,
    " vector": 9479,
    "abetes": 9480,
    "forcement": 9481,
    "ker": 9482,
    "larg": 9483,
    "no": 9484,
    "yard": 9485,
    " Ram": 9486,
    " backup": 9487,
    " contributing": 9488,
    " debut": 9489,
    " electoral": 9490,
    " landmarks": 9491,
    " newspapers": 9492,
    " offerings": 9493,
    " scar": 9494,
    " violence": 9495,
    "Pr": 9496,
    "apes": 9497,
    "ivated": 9498,
    "je": 9499,
    "onies": 9500,
    "ropical": 9501,
    " 43": 9502,
    " Arizona": 9503,
    " Kim": 9504,
    " Pic": 9505,
    " cave": 9506,
    " cher": 9507,
    " couns": 9508,
    " criminal": 9509,
    " entity": 9510,
    " gene": 9511,
    " generates": 9512,
    " greatly": 9513,
    " hide": 9514,
    " household": 9515,
    " incident": 9516,
    " ml": 9517,
    " teeth": 9518,
    " temporary": 9519,
    " viewers": 9520,
    " Awards": 9521,
    " Adam": 9522,
    " Down": 9523,
    " Eliz": 9524,
    " Mic": 9525,
    " Scotland": 9526,
    " columns": 9527,
    " compr": 9528,
    " fossil": 9529,
    " measuring": 9530,
    " recyc": 9531,
    " refriger": 9532,
    " regional": 9533,
    " subtle": 9534,
    "--------------------------------": 9535,
    "='": 9536,
    "aehyung": 9537,
    "aska": 9538,
    "enger": 9539,
    "nuts": 9540,
    " Barb": 9541,
    " Capt": 9542,
    " Edward": 9543,
    " Latin": 9544,
    " acceler": 9545,
    " dolls": 9546,
    " enabled": 9547,
    " encouraged": 9548,
    " hub": 9549,
    " journ": 9550,
    " manual": 9551,
    " northern": 9552,
    " slo": 9553,
    " zoo": 9554,
    "avascript": 9555,
    "ifted": 9556,
    "result": 9557,
    "ricks": 9558,
    "tical": 9559,
    " Blo": 9560,
    " Dark": 9561,
    " Hor": 9562,
    "\n": 9563,
    "÷": 9564,
    "×": 9565,
    "✓": 9566,
    "—": 9567,
    "√": 9568,
    "²": 9569,
    "’": 9570,
    "→": 9571,
    "è": 9572,
    "ô": 9573,
    "ç": 9574,
    "ã": 9575,
    "ú": 9576,
    "é": 9577,
    "à": 9578,
    "í": 9579,
    "á": 9580,
    "õ": 9581,
    "ó": 9582,
    "•": 9583,
    "≈": 9584,
    "Γ": 9585,
    "ñ": 9586,
    "“": 9587,
    "”": 9588,
    "Н": 9589,
    "а": 9590,
    "в": 9591,
    "с": 9592,
    "я": 9593,
    "к": 9594,
    "и": 9595,
    "й": 9596,
    "л": 9597,
    "у": 9598,
    "ч": 9599,
    "д": 9600,
    "о": 9601,
    "ж": 9602,
    "н": 9603,
    "п": 9604,
    "р": 9605,
    "е": 9606,
    "т": 9607,
    "ь": 9608,
    "ю": 9609,
    "э": 9610,
    "м": 9611,
    "б": 9612,
    "з": 9613,
    "ы": 9614,
    "х": 9615,
    "г": 9616,
    "ё": 9617,
    "ц": 9618,
    "Д": 9619,
    "щ": 9620,
    "В": 9621,
    "П": 9622,
    "«": 9623,
    "ш": 9624,
    "»": 9625,
    "С": 9626,
    "ф": 9627,
    "́": 9628,
    "Т": 9629,
    "ъ": 9630,
    "З": 9631,
    "К": 9632,
    "Е": 9633,
    "‑": 9634,
    "₂": 9635,
    "₆": 9636,
    "₁": 9637,
    "–": 9638,
    "ł": 9639,
    "ą": 9640,
    "ś": 9641,
    "ż": 9642,
    "ę": 9643,
    "°": 9644,
    "Я": 9645,
    "М": 9646,
    "О": 9647,
    "‘": 9648,
    "±": 9649,
    "Ê": 9650,
    "â": 9651,
    "⊂": 9652,
    "α": 9653,
    "β": 9654,
    "π": 9655,
    "Á": 9656,
    "≤": 9657,
    "¿": 9658,
    "É": 9659,
    "≡": 9660,
    "互": 9661,
    "联": 9662,
    "网": 9663,
    "上": 9664,
    "有": 9665,
    "好": 9666,
    "几": 9667,
    "个": 9668,
    "流": 9669,
    "行": 9670,
    "音": 9671,
    "乐": 9672,
    "的": 9673,
    "来": 9674,
    "源": 9675,
    "：": 9676,
    "一": 9677,
    "广": 9678,
    "泛": 9679,
    "使": 9680,
    "用": 9681,
    "媒": 9682,
    "体": 9683,
    "平": 9684,
    "台": 9685,
    "，": 9686,
    "根": 9687,
    "据": 9688,
    "户": 9689,
    "听": 9690,
    "歌": 9691,
    "历": 9692,
    "史": 9693,
    "和": 9694,
    "偏": 9695,
    "推": 9696,
    "荐": 9697,
    "相": 9698,
    "关": 9699,
    "。": 9700,
    "与": 9701,
    "类": 9702,
    "似": 9703,
    "同": 9704,
    "样": 9705,
    "美": 9706,
    "国": 9707,
    "业": 9708,
    "机": 9709,
    "构": 9710,
    "每": 9711,
    "周": 9712,
    "发": 9713,
    "布": 9714,
    "份": 9715,
    "排": 9716,
    "榜": 9717,
    "面": 9718,
    "最": 9719,
    "受": 9720,
    "欢": 9721,
    "迎": 9722,
    "大": 9723,
    "知": 9724,
    "名": 9725,
    "视": 9726,
    "频": 9727,
    "共": 9728,
    "享": 9729,
    "也": 9730,
    "提": 9731,
    "供": 9732,
    "了": 9733,
    "量": 9734,
    "播": 9735,
    "放": 9736,
    "列": 9737,
    "表": 9738,
    "主": 9739,
    "要": 9740,
    "向": 9741,
    "独": 9742,
    "立": 9743,
    "人": 9744,
    "新": 9745,
    "兴": 9746,
    "型": 9747,
    "可": 9748,
    "以": 9749,
    "找": 9750,
    "到": 9751,
    "些": 9752,
    "不": 9753,
    "寻": 9754,
    "常": 9755,
    "作": 9756,
    "品": 9757,
    "ö": 9758,
    "ä": 9759,
    "―": 9760,
    "ê": 9761,
    "ù": 9762,
    "·": 9763,
    "¡": 9764,
    "ü": 9765,
    "Р": 9766,
    "Г": 9767,
    "Б": 9768,
    "И": 9769,
    "ŏ": 9770,
    "ē": 9771,
    "💰": 9772,
    "🧘": 9773,
    "‍": 9774,
    "♀": 9775,
    "️": 9776,
    "💼": 9777,
    "🎉": 9778,
    "💸": 9779,
    "💹": 9780,
    "👩": 9781,
    "🎓": 9782,
    "🎭": 9783,
    "🤝": 9784,
    "🤓": 9785,
    "⭐": 9786,
    "ì": 9787,
    "．": 9788,
    "̄": 9789,
    "…": 9790,
    "ò": 9791,
    "¾": 9792,
    "重": 9793,
    "慶": 9794,
    "森": 9795,
    "林": 9796,
    "挪": 9797,
    "威": 9798,
    "ß": 9799,
    "−": 9800,
    "∈": 9801,
    "ℤ": 9802,
    "ℝ": 9803,
    "ψ": 9804,
    "ɪ": 9805,
    "∨": 9806,
    "½": 9807,
    "¼": 9808,
    "θ": 9809,
    "ě": 9810,
    "™": 9811,
    "​": 9812,
    "待": 9813,
    "辦": 9814,
    "事": 9815,
    "項": 9816,
    "確": 9817,
    "認": 9818,
    "模": 9819,
    "訓": 9820,
    "練": 9821,
    "狗": 9822,
    "貓": 9823,
    "比": 9824,
    "例": 9825,
    "是": 9826,
    "否": 9827,
    "均": 9828,
    "調": 9829,
    "整": 9830,
    "來": 9831,
    "改": 9832,
    "善": 9833,
    "現": 9834,
    "變": 9835,
    "後": 9836,
    "層": 9837,
    "為": 9838,
    "觀": 9839,
    "察": 9840,
    "效": 9841,
    "果": 9842,
    "能": 9843,
    "需": 9844,
    "刪": 9845,
    "除": 9846,
    "背": 9847,
    "景": 9848,
    "類": 9849,
    "別": 9850,
    "繼": 9851,
    "續": 9852,
    "舊": 9853,
    "設": 9854,
    "定": 9855,
    "會": 9856,
    "議": 9857,
    "結": 9858,
    "束": 9859,
    "😋": 9860,
    "ˈ": 9861,
    "ʃ": 9862,
    "ɑ": 9863,
    "ː": 9864,
    "ə": 9865,
    "ˌ": 9866,
    "ʁ": 9867,
    "ɔ": 9868,
    "ɛ": 9869,
    "语": 9870,
    "言": 9871,
    "先": 9872,
    "进": 9873,
    "法": 9874,
    "系": 9875,
    "现": 9876,
    "在": 9877,
    "下": 9878,
    "方": 9879,
    "自": 9880,
    "动": 9881,
    "垃": 9882,
    "圾": 9883,
    "回": 9884,
    "收": 9885,
    "制": 9886,
    "具": 9887,
    "这": 9888,
    "意": 9889,
    "味": 9890,
    "着": 9891,
    "开": 9892,
    "员": 9893,
    "手": 9894,
    "管": 9895,
    "理": 9896,
    "内": 9897,
    "存": 9898,
    "而": 9899,
    "由": 9900,
    "器": 9901,
    "再": 9902,
    "减": 9903,
    "轻": 9904,
    "负": 9905,
    "担": 9906,
    "并": 9907,
    "避": 9908,
    "免": 9909,
    "见": 9910,
    "错": 9911,
    "误": 9912,
    "对": 9913,
    "象": 9914,
    "编": 9915,
    "程": 9916,
    "强": 9917,
    "支": 9918,
    "持": 9919,
    "种": 9920,
    "纯": 9921,
    "它": 9922,
    "、": 9923,
    "封": 9924,
    "装": 9925,
    "继": 9926,
    "承": 9927,
    "多": 9928,
    "态": 9929,
    "等": 9930,
    "概": 9931,
    "念": 9932,
    "得": 9933,
    "非": 9934,
    "适": 9935,
    "合": 9936,
    "项": 9937,
    "目": 9938,
    "因": 9939,
    "为": 9940,
    "将": 9941,
    "代": 9942,
    "码": 9943,
    "组": 9944,
    "织": 9945,
    "成": 9946,
    "逻": 9947,
    "辑": 9948,
    "实": 9949,
    "复": 9950,
    "维": 9951,
    "护": 9952,
    "性": 9953,
    "严": 9954,
    "格": 9955,
    "检": 9956,
    "查": 9957,
    "防": 9958,
    "止": 9959,
    "如": 9960,
    "字": 9961,
    "符": 9962,
    "串": 9963,
    "赋": 9964,
    "值": 9965,
    "给": 9966,
    "数": 9967,
    "变": 9968,
    "从": 9969,
    "增": 9970,
    "加": 9971,
    "序": 9972,
    "稳": 9973,
    "安": 9974,
    "全": 9975,
    "（": 9976,
    "）": 9977,
    "询": 9978,
    "集": 9979,
    "中": 9980,
    "式": 9981,
    "更": 9982,
    "简": 9983,
    "洁": 9984,
    "易": 9985,
    "于": 9986,
    "阅": 9987,
    "读": 9988,
    "少": 9989,
    "高": 9990,
    "率": 9991,
    "异": 9992,
    "处": 9993,
    "捕": 9994,
    "获": 9995,
    "情": 9996,
    "况": 9997,
    "保": 9998,
    "证": 9999,
    "出": 10000,
    "时": 10001,
    "会": 10002,
    "崩": 10003,
    "溃": 10004,
    "当": 10005,
    "地": 10006,
    "示": 10007,
    "特": 10008,
    "商": 10009,
    "应": 10010,
    "解": 10011,
    "学": 10012,
    "习": 10013,
    "许": 10014,
    "功": 10015,
    "快": 10016,
    "写": 10017,
    "ń": 10018,
    "ć": 10019,
    "光": 10020,
    "華": 10021,
    "場": 10022,
    "旁": 10023,
    "ï": 10024,
    "đ": 10025,
    "ể": 10026,
    "ạ": 10027,
    "ả": 10028,
    "ệ": 10029,
    "ỹ": 10030,
    "ă": 10031,
    "ế": 10032,
    "ủ": 10033,
    "ằ": 10034,
    "ẻ": 10035,
    "ộ": 10036,
    "ố": 10037,
    "ẹ": 10038,
    "ữ": 10039,
    "ừ": 10040,
    "ồ": 10041,
    "ự": 10042,
    "ề": 10043,
    "Đ": 10044,
    "ọ": 10045,
    "ầ": 10046,
    "ị": 10047,
    "ử": 10048,
    "ụ": 10049,
    "ậ": 10050,
    "ặ": 10051,
    "ơ": 10052,
    "ấ": 10053,
    "ợ": 10054,
    "ứ": 10055,
    "ẽ": 10056,
    "γ": 10057,
    "≥": 10058,
    "æ": 10059,
    "Ч": 10060,
    "£": 10061,
    "ư": 10062,
    "ẵ": 10063,
    "ờ": 10064,
    "ỳ": 10065,
    "ỏ": 10066,
    "Ü": 10067,
    "∙": 10068,
    "≠": 10069,
    "∘": 10070,
    "®": 10071,
    "ˆ": 10072,
    "Э": 10073,
    "ʌ": 10074,
    "∫": 10075,
    "©": 10076,
    "σ": 10077,
    "˚": 10078,
    "Ц": 10079,
    "●": 10080,
    "○": 10081,
    "⇪": 10082,
    "←": 10083,
    "Ä": 10084,
    "☹": 10085,
    "取": 10086,
    "‎": 10087,
    "🎈": 10088,
    "🎂": 10089,
    "🎁": 10090,
    "😊": 10091,
    "百": 10092,
    "鬼": 10093,
    "祭": 10094,
    "初": 10095,
    "ミ": 10096,
    "ク": 10097,
    "Φ": 10098,
    "🤔": 10099,
    "ō": 10100,
    "ū": 10101,
    "Δ": 10102,
    "⇌": 10103,
    "œ": 10104,
    "ø": 10105,
    "å": 10106,
    "€": 10107,
    "§": 10108,
    "任": 10109,
    "何": 10110,
    "ம": 10111,
    "ொ": 10112,
    "ழ": 10113,
    "ி": 10114,
    "ਕ": 10115,
    "ੋ": 10116,
    "ਈ": 10117,
    "ਵ": 10118,
    "ੀ": 10119,
    "ਭ": 10120,
    "ਾ": 10121,
    "ਸ": 10122,
    "਼": 10123,
    "¹": 10124,
    "î": 10125,
    "ğ": 10126,
    "": 10127,
    "û": 10128,
    "🇺": 10129,
    "🇸": 10130,
    "📲": 10131,
    "🆕": 10132,
    "👌": 10133,
    "ᕿ": 10134,
    "ᑭ": 10135,
    "ᖅ": 10136,
    "ᑖ": 10137,
    "ᓗ": 10138,
    "ᒃ": 10139,
    "😅": 10140,
    "❤": 10141,
    "💙": 10142,
    "ở": 10143,
    "У": 10144,
    "Ö": 10145,
    "🌊": 10146,
    "🌟": 10147,
    "🐢": 10148,
    "🌎": 10149,
    "🐬": 10150,
    "😉": 10151,
    "ถ": 10152,
    "ว": 10153,
    "ง": 10154,
    "เ": 10155,
    "ล": 10156,
    "า": 10157,
    "Ж": 10158,
    "ő": 10159,
    "Í": 10160,
    "ű": 10161,
    "宮": 10162,
    "崎": 10163,
    "駿": 10164,
    "š": 10165,
    "ā": 10166,
    "آ": 10167,
    "Å": 10168,
    "日": 10169,
    "本": 10170,
    "語": 10171,
    "を": 10172,
    "話": 10173,
    "す": 10174,
    "た": 10175,
    "め": 10176,
    "の": 10177,
    "ア": 10178,
    "ド": 10179,
    "バ": 10180,
    "イ": 10181,
    "ス": 10182,
    "ひ": 10183,
    "ら": 10184,
    "が": 10185,
    "な": 10186,
    "と": 10187,
    "カ": 10188,
    "タ": 10189,
    "ナ": 10190,
    "び": 10191,
    "ま": 10192,
    "し": 10193,
    "ょ": 10194,
    "う": 10195,
    "こ": 10196,
    "れ": 10197,
    "書": 10198,
    "マ": 10199,
    "ー": 10200,
    "る": 10201,
    "は": 10202,
    "単": 10203,
    "正": 10204,
    "く": 10205,
    "読": 10206,
    "み": 10207,
    "発": 10208,
    "に": 10209,
    "基": 10210,
    "で": 10211,
    "ネ": 10212,
    "テ": 10213,
    "ィ": 10214,
    "ブ": 10215,
    "ピ": 10216,
    "習": 10217,
    "フ": 10218,
    "レ": 10219,
    "ズ": 10220,
    "聞": 10221,
    "い": 10222,
    "て": 10223,
    "繰": 10224,
    "り": 10225,
    "返": 10226,
    "暢": 10227,
    "さ": 10228,
    "せ": 10229,
    "効": 10230,
    "文": 10231,
    "勉": 10232,
    "強": 10233,
    "章": 10234,
    "構": 10235,
    "ビ": 10236,
    "番": 10237,
    "組": 10238,
    "や": 10239,
    "映": 10240,
    "画": 10241,
    "見": 10242,
    "楽": 10243,
    "期": 10244,
    "ど": 10245,
    "ん": 10246,
    "キ": 10247,
    "ル": 10248,
    "も": 10249,
    "欠": 10250,
    "外": 10251,
    "あ": 10252,
    "确": 10253,
    "我": 10254,
    "答": 10255,
    "所": 10256,
    "妥": 10257,
    "您": 10258,
    "说": 10259,
    "趋": 10260,
    "势": 10261,
    "未": 10262,
    "很": 10263,
    "生": 10264,
    "旦": 10265,
    "们": 10266,
    "工": 10267,
    "算": 10268,
    "力": 10269,
    "精": 10270,
    "细": 10271,
    "真": 10272,
    "化": 10273,
    "赛": 10274,
    "博": 10275,
    "完": 10276,
    "备": 10277,
    "容": 10278,
    "创": 10279,
    "素": 10280,
    "材": 10281,
    "库": 10282,
    "社": 10283,
    "区": 10284,
    "演": 10285,
    "十": 10286,
    "分": 10287,
    "显": 10288,
    "著": 10289,
    "然": 10290,
    "绘": 10291,
    "图": 10292,
    "展": 10293,
    "起": 10294,
    "辅": 10295,
    "助": 10296,
    "参": 10297,
    "留": 10298,
    "极": 10299,
    "空": 10300,
    "间": 10301,
    "义": 10302,
    "别": 10303,
    "逐": 10304,
    "渐": 10305,
    "糊": 10306,
    "但": 10307,
    "按": 10308,
    "照": 10309,
    "境": 10310,
    "案": 10311,
    "还": 10312,
    "前": 10313,
    "交": 10314,
    "环": 10315,
    "节": 10316,
    "只": 10317,
    "形": 10318,
    "话": 10319,
    "无": 10320,
    "替": 10321,
    "🚫": 10322,
    "👀": 10323,
    "💚": 10324,
    "🌱": 10325,
    "💋": 10326,
    "ë": 10327,
    "ž": 10328,
    "🤗": 10329,
    "∪": 10330,
    "∩": 10331,
    "Σ": 10332,
    "😁": 10333,
    "ı": 10334,
    "↦": 10335,
    "ễ": 10336,
    "够": 10337,
    "帮": 10338,
    "！": 10339,
    "载": 10340,
    "片": 10341,
    "链": 10342,
    "接": 10343,
[...]
