#version: 0.2
à ¤
Ġ à¤
à ¥
à¤ ¾
à¥ ĩ
à¤ °
à¥ į
à¤ ¿
Ġà¤ ķ
à¥į à¤
à¤¾ à¤
à¤¿ à¤
à¤ Ĥ
à¥ Ģ
à¥ ĭ
à¤ ¨
à¤ ķ
Ġà¤ ¸
à¤ ¤
Ġà¤ ¹
č Ċ
à¥ Ī
Ġà¤ ®
Ġà¤ ª
à¤ ¸
à¥į à¤°
à¤ ²
Ġà¤ķ à¥ĩ
Ġà¤¹ à¥Ī
à¥ĩ à¤Ĥ
à¥ ģ
à¤ ®
à¤ ¹
à¥ ¤
à¤ ª
à¤¾ à¤°
Ġà¤ ľ
Ġà¤ µ
à¤ Ĺ
à¥įà¤ ¯
Ġà¤ ¬
Ġà¤® à¥ĩà¤Ĥ
Ġà¤ ħ
à¥ Ĥ
à¥ĭ à¤Ĥ
Ġà¤ ²
à¤ µ
à¤¾à¤ ¨
à¤ ¦
à¤° à¥įà¤
Ġà¤ ¨
à¤ ¯
Ġà¤ ¦
à¤¿à¤ ķ
Ġà¤ ī
Ġà¤ ı
Ġà¤ Ķ
à¤¿à¤ ¯
Ġà¤Ķ à¤°
Ġà¤ķ à¤°
à¥ĩ à¤
Ġà¤ °
Ġà¤ķ à¥ĭ
Ġà¤ Ĩ
à¤¨ à¥ĩ
Ġà¤ķ à¥Ģ
Ġà¤ª à¥įà¤°
Ġà¤¸ à¥ĩ
à¤ ¬
à¤¿à¤ ¤
à¤ ¡
à¥įà¤ ¤
à¤ Ł
Ġà¤ ¤
Ġà¤ Ĺ
Ġà¤ķ à¤¾
Ġà¤ı à¤ķ
à¤ ¼
Ġà¤ ¯
à¤¤ à¤¾
Ġà¤¹à¥Ī à¤Ĥ
à¤ ľ
à¤ ļ
Ġà¤ ĩ
à¤¿à¤ ı
à¤¾à¤ ²
Ġ Ġ
à¤ £
à¤ §
Ġà¤ Ń
à¤¾à¤ ¤
à¥ģ à¤
Ġà¤ ¶
a n
Ġà¤ª à¤°
à¥įà¤ µ
Ġà¤¹ à¥ĭ
à¥įà¤ Ł
e r
Ġà¤¸ à¤Ĥ
Ġ t
à¤¾à¤ ®
Ġà¤µ à¤¿à¤
Ġà¤ ļ
à¤ ¶
Ġà¤² à¤¿à¤ı
à¤¿à¤¯ à¤¾
à¤¤ à¥ĩ
< |
| >
à¤¿à¤ ²
à¤¨ à¤¾
à¥įà¤ ·
à¤ Ń
à¥ĭ à¤Ĺ
s t
Ġà¤ĩ à¤¸
i n
à¤¿à¤ ¸
Ġà¤¸ à¤®
à¤¾à¤ ¯
à¤¿à¤ ¨
à¤¾à¤ ¸
Ġà¤ ¥
à¤¾à¤ Ĥ
à¥ ī
Ġà¤¸ à¤ķ
Ġà¤ «
à¤¾à¤ ¦
à¤¡ à¤¼
à¤¾à¤ µ
a s
à¤ ı
à¤ķ à¥ĩ
à¤¨ à¥įà¤
à¤¾à¤ ¹
à¤¸ à¥ĩ
à¤¾à¤ ĩ
Ġà¤ķ à¤¿
à¥ ĥ
à¤° à¥Ģ
à¥ Į
à¤¤ à¥Ģ
à¥įà¤ ¥
Ġà¤ľ à¥ĭ
Ġt h
a t
s i
Ġà¤ ĸ
Ġà¤ī à¤ª
u s
Ġà¤ ¡
Ġà¤¯ à¤¹
o n
à¤¹ à¥Ģ
Ġà¤ķà¤° à¤¨à¥ĩ
à¥įà¤ ¸
Ġà¤ħ à¤ª
à¤¾à¤ ľ
à¥ĩà¤ ¶
à¤ķ à¥įà¤·
à¤ Ī
Ġà¤Ĩ à¤ª
à¥įà¤ ª
à¥įà¤ ķ
Ġà¤¨ à¥ĩ
à¤¨ à¥Ģ
à¥įà¤ ®
à¥įà¤ ²
r e
an t
Ġà¤ħ à¤¨
à¤ ĸ
Ġà¤Ń à¥Ģ
Ġà¤ķ à¤¿à¤¯à¤¾
à¤¿à¤ Ĥ
e n
us er
Ġà¤ Ł
as si
à¥ĩà¤ Ł
st ant
assi stant
à¤ «
Ġà¤¸ à¤¾à¤
à¥Ĥ à¤ª
à¥ģ à¤°
à¤¯ à¥ĭà¤Ĺ
à¤ķ à¤¾à¤°
ĠĠ ĠĠ
à¤¤ à¥įà¤°
o r
Ġà¤ľ à¤¾à¤¤
à¤¾à¤ ª
Ġ a
à¤ ĥ
Ġ c
Ġth e
à¥įà¤¯ à¤¾
à¤¯ à¤¾
Ġà¤ī à¤¤
à¤¹à¥Ģ à¤Ĥ
Ġà¤ħ à¤§
à¤° à¤£
à¥ĩ à¤ķ
à¤¿à¤ ®
à¥įà¤ ¨
à¤¾à¤ ķ
Ġ čĊ
Ġà¤° à¥Ĥà¤ª
Ġà¤¨ à¤¹à¥Ģà¤Ĥ
à¤¿à¤¯ à¥ĭà¤Ĥ
Ġà¤¥ à¤¾
à¤¾à¤ ģ
ĵ à¤Ĥ
Ġà¤¸à¤¾à¤ ¥
Ġà¤ķ à¤¾à¤°
Ġà¤¹ à¥ģà¤
Ġà¤īà¤ª à¤¯à¥ĭà¤Ĺ
Ġà¤ª à¤¹
à¤¾à¤¨ à¥ĩ
à¥ĩ à¤²
à¤¾à¤ ı
Ġà¤¬ à¤¾à¤°
à¤¿ à¤°
Ġà¤¯ à¤¾
à¤² à¥ĩ
à¤ ¥
a l
à¤ķ à¥įà¤¤
Ġà¤° à¤¹
à¤¿à¤ µ
à¤¾à¤ ĵà¤Ĥ
à¤¾à¤ Ī
à¥ĩà¤ ĸ
à¤Ĥ à¤Ĺ
Ġ s
Ġà¤ī à¤¨
Ġà¤Ĺ à¤¯à¤¾
à¤¿à¤ ¶
Ġà¤µ à¤¾à¤²
i t
à¥įà¤° à¥Ģ
e s
Ġà¤¸ à¥įà¤¥
à¤ķ à¥Ģ
Ġ an
in g
Ġà¤¸à¤ķ à¤¤à¥ĩ
à¥įà¤¤ à¤°
à¤¨à¥įà¤ ¹
à¥įà¤ §
Ġà¤ħà¤§ à¤¿à¤ķ
à¤¾à¤ Ĺ
à¤¿à¤ ĸ
· à¥įà¤Ł
à¥įà¤ ļ
Ġà¤µà¤¿à¤ ¶
Ġ p
Ġà¤¹ à¤®
à¥ģ à¤²
à¥ĥ à¤¤
à¤¿à¤Ĥ à¤Ĺ
Ġà¤¬ à¤¨
à¤Ĥ à¤¦
à¤Ĥ à¤¡
à¤ķ à¤¾
Ġà¤ľà¤¾à¤¤ à¤¾
Ġ o
à¥įà¤ ¡
Ġà¤µ à¥įà¤¯
i s
Ġà¤ľ à¤¿à¤¸
Ġt o
à¥Ĥ à¤°à¥įà¤
Ġà¤ªà¥įà¤° à¤¤
- -
à¤² à¥Ģ
Ġ f
l e
Ġà¤ Ľ
Ġà¤ħà¤ª à¤¨à¥ĩ
a r
Ġà¤ §
à¥Ģ à¤¨
2 0
à¤¾à¤° à¤¾
Ġà¤® à¤¹
à¤¸ à¥Ģ
à¤¸ à¥įà¤¤
à¤ ĩ
à¥ģ à¤¨
à¤ ¢
Ġà¤ ĺ
Ġà¤¦ à¥ĩ
à¤Ĥ à¤¤
Ġà¤¤ à¤ķ
Ġà¤¦ à¥įà¤µ
1 9
Ġà¤¬à¤¾à¤° à¥ĩ
Ġ w
à¤°à¥įà¤ ®
à¥įà¤ ¦
à¥ĩ à¤°
à¥ĭ à¤ľ
Ġà¤ķ à¤¹
Ġà¤ķà¤° à¥ĩà¤Ĥ
Ġà¤ī à¤¸
à¥ģ à¤¦
Ġan d
Ġà¤° à¤¾à¤ľ
à¥Ĥ à¤°
à¤Ĥ à¤§
Ġà¤µ à¤°à¥įà¤
Ġà¤ī à¤¨à¥įà¤¹
Ġà¤ķ à¤®
Ġà¤¸à¤ķ à¤¤à¤¾
à¤¾à¤° à¥Ģ
à¤¾à¤ §
à¤ ħ
à¤ Ĩ
à¥Ĥ à¤²
à¤¾à¤¨ à¥Ģ
à¤¢ à¤¼
à¤¾à¤ ¬
à¤Ń à¥Ģ
Ġ in
à¤ķ à¥ĭ
e d
i on
o u
Ġà¤ªà¥įà¤° à¤¦
à¥Ī à¤¸à¥ĩ
Ġà¤ķà¤° à¤¤à¥ĩ
Ġà¤² à¤Ĺ
Ġ d
à¥ĩà¤ ľ
Ġà¤¸ à¥įà¤µ
Ġà¤¸ à¥Ģ
Ġà¤ħà¤¨ à¥ģ
Ġà¤ľ à¤¾à¤¨
Ġà¤¦ à¥ĭ
Ġà¤¤ à¥ĭ
à¥ĭ à¤Ł
à¥ģ à¤¤
Ġ b
i c
Ġà¤ķ à¥ģà¤
à¤® à¥ĩà¤Ĥ
Ġ m
Ġà¤¦à¥įà¤µ à¤¾à¤°à¤¾
Ġà¤µ à¤¹
Ġà¤¬ à¥Ģ
à¥Ģ à¤µ
Ġo f
Ġà¤ķà¤° à¤¤à¤¾
à¥Ī à¤Ĥ
en t
à¤Ĺ à¤¾
à¤ķ à¥įà¤°
Ġà¤ķ à¥įà¤·
Ġà¤¨ à¤¿
Ġà¤¹ à¥Ģ
à¥ĩà¤ ·
Ġà¤ķà¥ģà¤ Ľ
Ġà¤¹à¥ĭ à¤¤à¤¾
à¥įà¤ ŀ
à¤² à¤¾
à¥ĩ à¤¸
Ġà¤¬ à¤¤
à¤ ·
Ġà¤ļ à¤¾à¤¹
à¤¿à¤ ª
à¤ ģ
Ġà¤¸ à¤¹
à¤¾à¤¯ à¤¾
ĠĠ Ġ
Ġà¤² à¥ĭà¤Ĺ
à¥ĭ à¤²
à¤ķ à¤¿
Ġà¤¦ à¥ĩà¤ĸ
Ġà¤īà¤¤ à¥įà¤¤à¤°
Ġà¤¸ à¤¬
à¥įà¤¯ à¥Ĥ
Ġà¤ķà¤° à¤¨à¤¾
Ġà¤ħ à¤²
Ġà¤¹à¥ģà¤ ı
Ġà¤µ à¥ĩ
à¤ ł
Ġà¤¬ à¤¾à¤¦
Ġà¤¬ à¤¹
Ġà¤¥ à¥ĩ
à¤ª à¥įà¤°
Ġà¤² à¥ĩà¤ķ
à¤¿à¤ ľ
r o
Ġà¤µ à¤¿à¤ķ
à¥ĩ à¤¨
c t
à¥ĭ à¤°
Ġà¤ľ à¤¬
à¥įà¤¯ à¥ĭà¤Ĥ
à¤¿à¤ Ł
Ġà¤µà¤¾à¤² à¥ĩ
Ġà¤¥ à¥Ģ
à¤°à¥įà¤ ¤
à¥ģà¤ ĸ
Ġà¤¸ à¤¾à¤®
0 0
Ġà¤ķ à¥įà¤¯à¤¾
à¤Ń à¤¾à¤µ
à¤ ī
Ġà¤Ĩ à¤µ
à¤¤ à¤¿
à¥Į à¤°
à¤¸ à¥įà¤¥
Ġà¤¸à¤® à¤¯
Ġ h
Ġà¤ľ à¤¾
à¤ķ à¥ĭà¤Ĥ
at e
Ġà¤® à¤¾à¤¨
à¤¿à¤ ¦
à¤¨ à¥ĭà¤Ĥ
à¤¾à¤ ¶
Ġà¤Ĩ à¤§
à¥ĩ à¤¤à¥įà¤°
Ġà¤ħ à¤Ĥà¤¤
Ġà¤Ń à¤¾à¤°
à¤¾à¤ £
Ġà¤ķ à¤¿à¤¸
Ġà¤¦ à¤¿à¤¯à¤¾
à¥Ģ à¤¯
Ġà¤ī à¤¦
Ġà¤° à¤ĸ
Ġà¤Ĺ à¤ı
à¤£ à¥įà¤¡
à¥ĩà¤ ¡
Ġà¤® à¤¿à¤²
à¤ļ à¥įà¤ļ
Ġà¤²à¥ĩà¤ķ à¤¿à¤¨
Ġà¤ ĳ
à¤¾à¤ ĸ
Ġ e
Ġà¤¶ à¤¾à¤®
à¤¸ à¤°
à¤¿à¤ķ à¤¾
Ġà¤ķà¥įà¤· à¥ĩà¤¤à¥įà¤°
à¤¶ à¥įà¤¯
t h
Ġà¤ªà¤¹ à¤²à¥ĩ
Ġà¤īà¤¤ à¥įà¤ª
â Ģ
Ġà¤ĩ à¤¨
Ġà¤¸à¤¬ à¤¸à¥ĩ
à¤¹ à¤°
à¤® à¤¾à¤¨
à¤Ĥ à¤¬
à¤¸ à¥įà¤ķ
Ġà¤ķà¤¾à¤° à¥įà¤¯
à¤¾à¤¤ à¥įà¤°
à¤Ĥ à¤¤à¥įà¤°
o m
à¤Ĥ à¤Ł
à¥Ĥà¤°à¥įà¤ £
Ġà¤¶à¤¾à¤® à¤¿à¤²
Ġà¤¤ à¤°
Ġà¤¨ à¤¾à¤®
à¤Ĺ à¥Ģ
à¤¬ à¤Ĥà¤§
Ġà¤ħà¤ª à¤¨à¥Ģ
à¥įà¤ ¬
Ġà¤ ĵ
à¥ĭà¤Ĥ à¤¨à¥ĩ
Ġ re
Ġ n
Ġà¤¸ à¤°
Ġà¤¹à¥ĭ à¤¤à¥Ģ
Ġà¤¸ à¥Ĥ
Ġ A
Ġà¤ħà¤¨ à¥įà¤¯
à¤¤ à¥įà¤µ
Ġà¤ Ĳ
à¤°à¥įà¤ ¶
à¤°à¥įà¤ Ń
v e
à¤¸ à¥įà¤Ł
à¤ª à¤°
Ġà¤¸ à¥ģ
à¤°à¥įà¤ ¥
Ġà¤īà¤¨à¥įà¤¹ à¥ĩà¤Ĥ
à¤ķ à¤°
Ġà¤Ĺ à¥įà¤°
à¥Ī à¤¨
Ġà¤ļà¤¾à¤¹ à¤¿à¤ı
Ġà¤µà¤¿à¤ Ń
e t
Ġà¤¬à¤¹ à¥ģà¤¤
Ġà¤¸ à¥įà¤Ł
Ġà¤¹à¥ĭ à¤¨à¥ĩ
à¤¾à¤ª à¥įà¤¤
Ġà¤ª à¥Ģ
à¥įà¤ Ľ
à¥ §
Ġà¤² à¥ĩ
Ġà¤ĩà¤¸ à¤ķà¥ĩ
c h
à¥įà¤ŀ à¤¾à¤¨
à¤¾à¤ ·à¥įà¤Ł
Ġà¤īà¤¨ à¤ķà¥ĩ
Ġ l
à¤Ĺ à¥ĩ
à¤°à¥įà¤ ľ
Ġà¤ľ à¥Īà¤¸à¥ĩ
à¥Ī à¤ķ
Ġà¤ķà¤¹ à¤¾
à¥Ģ à¤ķ
Ġà¤ħ à¤®
à¤¿à¤ ·
à¤¿à¤ ¹
Ġà¤ķà¥ĭ à¤¡
à¥ī à¤²
a m
à¥ĭ à¤ķ
à¤¾à¤ ·
à¥ģ à¤ķ
à¤¿à¤ §
à¤ķà¤¾à¤° à¥Ģ
à¤°à¥įà¤ Ł
à¤¦ à¤¿
à¤°à¥įà¤ ķ
Ġà¤ľ à¥Ģà¤µ
à¤¶à¥įà¤¯ à¤ķ
Ġà¤ķ à¥įà¤°
Ġà¤Ĺ à¤Ī
à¥ĩà¤ ¬
i m
à¤¸ à¤®
à¤¿à¤ķ à¥įà¤·
à¤ļ à¥įà¤Ľ
à¤¾à¤¯ à¤ķ
à¤Ĺ à¥įà¤°
Ġà¤² à¤¿à¤ĸ
Ġà¤ķ à¤Ī
i l
à¤¸ à¤¾
à¤¿à¤® à¥įà¤¨
à¥ĭ à¤§
Ġà¤¬ à¤¢à¤¼
Ġà¤Ĩà¤µ à¤¶à¥įà¤¯à¤ķ
Ġà¤°à¤¹ à¥ĩ
Ġà¤ķ à¤¾à¤®
Ġà¤ķà¤¿à¤¸ à¥Ģ
à¤¾à¤² à¤¯
à¤¾à¤ ¡
Ġà¤ Ĭ
à¤ľ à¤¨
à¤¾à¤¤ à¤¾
à¤¿à¤ Ĺ
-- --
à¤¾à¤ĩ à¤ı
Ġà¤ħ à¤µ
à¤¤ à¤°
Ġà¤¨à¤¿ à¤°à¥įà¤
à¥ ¦
Ġà¤¸ à¤Ńà¥Ģ
e m
Ġà¤¹à¥ĭ à¤¤à¥ĩ
Ġà¤¬à¤¤ à¤¾à¤ĩà¤ı
à¤µ à¤¾
o l
à¤¾à¤¨ à¤¾
à¤ĩ à¤¸
Ġà¤°à¤¾à¤ľ à¥įà¤¯
à¤¾à¤ı à¤Ĥ
Ġà¤¤à¤° à¤¹
at ion
à¤¿à¤¯ à¤¾à¤ģ
Ġà¤¹à¥ģà¤ Ĩ
d i
Ġ H
Ġà¤ªà¥įà¤° à¤Ńà¤¾à¤µ
à¤¾à¤ĩ à¤Ł
à¥Ģ à¤²
à¤¡à¤¼ à¥ĩ
à¥ģ à¤Ł
Ġà¤Ĩà¤ª à¤ķà¥ĭ
à¥ĭ à¤¨
à¤Ĥ à¤ª
à¤¾à¤¤ à¥įà¤®
Ġà¤µà¥įà¤¯ à¤ķà¥įà¤¤
Ġà¤¸à¥įà¤¥ à¤¿à¤¤
Ġà¤¡ à¥ĩà¤Ł
Ġà¤¶ à¥ģà¤°
Ġà¤¦ à¥Ĥ
à¤¿à¤ £
à¤ Ŀ
e l
à¤°à¥įà¤ ·
Ġà¤µà¤¿à¤¶ à¥ĩà¤·
à¤¿à¤ĸ à¤¿à¤¤
Ġà¤°à¤¹ à¤¾
Ġà¤¸ à¥įà¤ķ
ĠĠĠĠ ĠĠĠĠ
Ġà¤ªà¥įà¤° à¤¶
à¥ĩ à¤¦
à¤ķà¥įà¤· à¤¾
Ġà¤Ńà¤¾à¤° à¤¤
à¤² à¤¿à¤ĸà¤¿à¤¤
à¥Ĥà¤°à¥įà¤ µ
Ġ S
Ġ P
à¤ ·à¥įà¤Ł
à¤Ĥ à¤ļ
à¤¿à¤®à¥įà¤¨ à¤²à¤¿à¤ĸà¤¿à¤¤
Ġà¤īà¤¨à¥įà¤¹ à¥ĭà¤Ĥà¤¨à¥ĩ
Ġà¤® à¤¾à¤°
à¤¸ à¥įà¤¯à¤¾
à¤¾à¤ ī
Ġà¤²à¥ĭà¤Ĺ à¥ĭà¤Ĥ
à¤¾à¤ Ł
à¥ģà¤¦ à¥įà¤§
à¥ĭ à¤®
à¤¨à¥įà¤ ¦
à¤¾à¤¸ à¥įà¤¤
Ġà¤ĩà¤¸ à¥ĩ
à¤ľ à¤¼
c e
à¥ģ à¤®
Ġà¤¸à¤Ĥ à¤¬à¤Ĥà¤§
à¤¾à¤ĩ à¤¨
à¤¾à¤¤à¥įà¤® à¤ķ
Ġà¤ķà¤¾à¤° à¤£
Ġà¤ Ī
Ġà¤« à¤¼
à¥ĩ à¤®
Ġà¤ķà¥ĭ à¤Ī
Ġà¤ķ à¥Ī
Ġà¤® à¤¦
à¤¡à¤¼ à¤¾
à¤ļ à¥Ģ
u r
u t
à¤¤ à¥įà¤¤
Ġ C
à¤ª à¥Ĥà¤°à¥įà¤£
Ġà¤µà¤°à¥įà¤ ·
Ġà¤¬ à¥įà¤°
à¤¬ à¥įà¤¦
r an
1 0
Ġà¤® à¥Īà¤Ĥ
à¤¿à¤² à¥įà¤®
à¥ģ à¤ķà¥įà¤¤
à¤¾à¤ «
à¤¡à¤¼ à¥Ģ
à¤ Ľ
à¤¾à¤² à¥Ģ
à¤Ĺ à¤°
Ġà¤® à¥Ĥà¤²
Ġà¤ªà¥įà¤°à¤¦ à¤¾à¤¨
à¤ı à¤ķ
à¥Ĥ à¤®
Ġà¤¹à¥ĭ à¤Ĺà¤¾
à¥Ĥ à¤¨
Ġà¤ľ à¤¿à¤¨
à¤² à¥įà¤ª
à¤ ĺ
Ġà¤µà¤¿à¤¶ à¥įà¤µ
à¤Ł à¤°
Ġà¤ªà¤° à¤¿à¤µ
à¥įà¤°à¥Ģ à¤¯
T h
à¥ĭ à¤ª
Ġà¤ª à¤¾à¤°
Ġà¤ķà¤° à¤ķà¥ĩ
Ġà¤īà¤¤à¥įà¤ª à¤¾à¤¦
à¤¾à¤ı à¤ģ
Ġà¤¸à¥įà¤¥ à¤¾à¤¨
à¤°à¥įà¤ ¨
à¤°à¥įà¤ ¡
Ġà¤®à¤¦ à¤¦
Ġà¤Ĩ à¤°
à¥Ģ à¤°
à¤¾à¤ ļ
à¤¸ à¤¾à¤°
. .
Ġà¤ª à¥ģà¤°
Ġà¤®à¤¹ à¤¤à¥įà¤µ
à¤ķà¥įà¤· à¤£
à¤¿à¤¨ à¥įà¤¨
Ġà¤¬à¥Ģ à¤ļ
à¤¾à¤ ¥
à¤°à¥įà¤ µ
Ġà¤ħ à¤Ń
Ġ g
i d
Ġà¤¶ à¤¬à¥įà¤¦
à¤Ĥ à¤ľ
à¤¥ à¤¾
Ġà¤Ĺ à¥ģ
à¤¦ à¥Ģ
à¤¨à¥įà¤ ¨
à¤¯ à¤¨
Ġf or
Ġ st
Ġà¤ķ à¥įà¤¯à¥ĭà¤Ĥ
Ġà¤Ł à¥Ģ
r a
Ġà¤ª à¤¾à¤¸
à¤ķà¥įà¤° à¤®
u m
Ġ is
à¤¾à¤° à¥ĭà¤Ĥ
à¤¿à¤¯ à¤®
à¤¾à¤µ à¤¾
Ġà¤ı à¤¸
u l
à¥ģà¤ Ŀ
à¤ķ à¥įà¤¸
à¤¿à¤ķ à¥Ģ
Ġà¤¸à¤® à¤Ŀ
à¤¾à¤ĸ à¤£à¥įà¤¡
Ġà¤ª à¥Ī
20 0
Ġth is
Ġà¤ľ à¤¾à¤¨à¥ĩ
Ġà¤Ń à¤¾à¤·
Ġà¤¸à¤° à¤ķà¤¾à¤°
Ġà¤ľà¤¾à¤¨ à¤ķà¤¾à¤°à¥Ģ
Ġà¤¡à¥ĩà¤Ł à¤¾
Ġà¤Ĩà¤§ à¤¾à¤°
à¥§ à¥
Ġà¤ħà¤® à¥ĩà¤°
Ġ I
Ġà¤ı à¤²
Ġà¤ľà¤¿à¤¸ à¤®à¥ĩà¤Ĥ
à¥įà¤ ł
1 8
Ġà¤¨ à¤¿à¤ķ
Ġà¤¸à¤¹ à¤¾à¤¯à¤ķ
Ġà¤ľ à¤²
à¤µ à¤²
Ġà¤« à¤¿à¤°
Ġà¤ªà¥įà¤° à¤¾à¤ªà¥įà¤¤
Ġà¤ªà¥įà¤° à¤ķà¤¾à¤°
Ġà¤¨ à¥Ģ
Ġà¤¸à¤Ĥ à¤ĸ
Ġà¤¸ à¥įà¤ª
Ġà¤° à¤¾à¤·à¥įà¤Ł
à¤µ à¥Ģ
o w
Ġà¤ī à¤¸à¥ĩ
à¤¨à¥įà¤ ®
Ġà¤µà¤¾à¤² à¥Ģ
à¤¦ à¥įà¤§
i f
Ġà¤ľ à¤¨
à¥ĥ à¤·
à¤°à¥įà¤ ¸
à¥ĩà¤¶ à¤¨
g e
à¥įà¤¯ à¤®
à¤Ĥ à¤ķ
Ġà¤µà¤¿à¤ ľ
Ġà¤¸à¤ķ à¤¤à¥Ģ
Ġà¤¬ à¤¾à¤¤
à¤µ à¤Ĥ
" ,
à¤¿à¤² à¤¾
Ġà¤¬ à¤ļà¥įà¤ļ
Ġà¤ķà¤° à¤¤à¥Ģ
Ġà¤µà¤¿à¤ ¸
Ġà¤® à¥ģà¤ĸ
à¤µ à¤°
à¤¾à¤¹ à¤°à¤£
Ġà¤ª à¥Ĥà¤°à¥įà¤µ
Ġà¤ħ à¤ļà¥įà¤Ľ
Ġà¤ħà¤§ à¥įà¤¯
u n
à¥įà¤¯ à¤¾à¤¨
Ġà¤¦ à¤¿à¤¨
Ġà¤¦ à¥Įà¤°
Ġà¤® à¥Į
Ġà¤īà¤¨ à¤ķà¥Ģ
à¤¾à¤° à¥ĩ
à¥Ī à¤Ĥà¤¡
Ġà¤¦ à¥ĩà¤¶
Ġà¤¶ à¥įà¤°
à¤¿à¤² à¥ĩ
à¤°à¥įà¤ Ĺ
Ġà¤ļ à¤²
Ġà¤®à¤¹à¤¤à¥įà¤µ à¤ªà¥Ĥà¤°à¥įà¤£
Ġà¤ľ à¥Ģ
20 1
Ġà¤¤ à¤¹
Ġà¤¹ à¤¾à¤²
Ġà¤Ĩ à¤¯
à¤¿à¤¤ à¥įà¤°
Ġà¤Ł à¥įà¤°
à¥ĩà¤Ĥ à¤Ł
Ġà¤¦ à¥Ģ
à¤¾à¤¦ à¥Ģ
Ġà¤ķ à¤¿à¤ı
Ġà¤¬ à¤¦
Ġà¤¹ à¤°
Ġà¤¸ à¥ĭ
Ġà¤ķ à¥Īà¤¸à¥ĩ
Ġà¤µà¤¿à¤ µ
er s
Ġà¤ľà¤¾à¤¤ à¥Ģ
à¤¿à¤¤ à¤¾
Ġà¤ľà¥Ģà¤µ à¤¨
ran s
Ġb e
à¥įà¤ ¹
Ġà¤® à¥Ī
à¤ļ à¤¾à¤°
Ġà¤ķ à¤Ĥà¤ª
à¤ķ à¤°à¥įà¤¤
Ġ y
Ġà¤īà¤¤à¥įà¤¤à¤° à¤¾à¤ĸà¤£à¥įà¤¡
à¤¸ à¥įà¤¯
à¥įà¤Ł à¤°
à¥ĭà¤Ĺ à¥įà¤°
à¤¾à¤¡ à¤¼
o d
à¤² à¤¬
Ġà¤ªà¥įà¤° à¤ķ
r i
à¥ ¨
Ġà¤¶à¥ģà¤° à¥Ĥ
à¥ĩ à¤¹
à¤¾à¤Ĥ à¤¤
à¥įà¤ ľ
Ġà¤ľ à¤¹
Ġà¤ħà¤² à¤Ĺ
Ġà¤µà¤¿à¤Ń à¤¿à¤¨à¥įà¤¨
Ġà¤¯ à¤¦à¤¿
à¤¤à¥Ģ à¤¯
à¤¿à¤ķ à¤¾à¤°
) ,
à¥Ī à¤²
à¥įà¤ Ĺ
Ġà¤ĩ à¤¤
à¥įà¤ ¶
Ġà¤¶ à¤¿à¤ķà¥įà¤·
à¤¿à¤ ¡
Â ł
Ġà¤¡ à¥Ģ
à¤¾à¤¤ à¥ĩ
Ġà¤ħ à¤¸
Ġà¤Ľ à¥ĭà¤Ł
à¥ĭà¤ľ à¤¨
Ġà¤ķà¥įà¤¯à¥ĭà¤Ĥ à¤ķà¤¿
Ġà¤Ĩà¤ª à¤ķà¥ĩ
` `
Ġà¤¹à¥ģà¤ Ī
a b
o t
Ġà¤ľ à¤¾à¤ı
à¥Ĥ à¤¹
à¥ĩ à¤¯
Ġp ro
Ġà¤īà¤¦ à¤¾à¤¹à¤°à¤£
à¥ī à¤¨
Ġà¤ªà¥įà¤° à¤®
Ġà¤ĸ à¥ĩà¤²
it h
Ġà¤ª à¥ĭ
Ġà¤ķà¥ĩ à¤µà¤²
à¤¾à¤Ĥ à¤¶
Ġà¤ª à¥Ĥ
Ġà¤ħà¤Ĥà¤¤ à¤°
Ġà¤² à¥ĩà¤ĸ
à¤¾à¤Ĥ à¤ļ
à¤Ĩ à¤ª
Ġà¤¤ à¤¥à¤¾
Ġà¤¬à¤¨ à¤¾à¤¨à¥ĩ
à¤¿à¤¹ à¤¾à¤¸
i r
Ġà¤īà¤¸ à¤ķà¥ĩ
T rans
à¤Ń à¤Ĺ
a d
Ġà¤Ń à¤¾à¤Ĺ
à¤¾à¤§ à¤¾à¤¨
Ġà¤¸à¤® à¤¸à¥įà¤¯à¤¾
Ġà¤¨à¤¿ à¤°à¥įà¤®
Ġà¤« à¤¿à¤²à¥įà¤®
à¤Ł à¤¨
à¤µ à¤¾à¤²
à¥Ģ à¤¡
Ġà¤¸ à¤¾à¤²
Ġà¤Ĩà¤µà¤¶à¥įà¤¯à¤ķ à¤¤à¤¾
Ġà¤ļ à¥ģà¤¨
Ġà¤¹ à¥Ĥ
à¤¯ à¤¹
Trans l
à¥ĭ à¤¤
Ġà¤Ĩ à¤®
in di
Ġà¤¸à¤Ĥ à¤¦
Ġà¤®à¥ģà¤ĸ à¥įà¤¯
Ġà¤µà¥įà¤¯ à¤µ
à¤Ĥ à¤ĸ
à¤Ĥà¤¦ à¥įà¤°
Ġà¤ĩà¤¸ à¤ķà¤¾
ĠH indi
Ġà¤ĺ à¤°
à¤® à¤¾
Ġà¤¸ à¥ģà¤°
Ġà¤ħ à¤¬
à¤² à¤¿à¤ı
à¤¿à¤¸ à¥įà¤Ł
Ġà¤µà¤¿à¤¸ à¥įà¤¤
à¤¿à¤¯ à¤¨
i st
Ġth at
Ġà¤ı à¤µà¤Ĥ
à¤¦ à¤¾à¤°
Th e
à¤¿à¤ ¥
- à¤ª
Ġà¤µ à¥Ī
Transl ate
Ġà¤µ à¤¾à¤ķ
Ġà¤µà¤¿à¤ §
v er
à¤µ à¤¿à¤ķ
Ġà¤ªà¥įà¤°à¤¦ à¥ĩà¤¶
Ġà¤¸à¤Ĥà¤ĸ à¥įà¤¯à¤¾
Ġ M
à¤® à¥Ģ
Ġà¤¸à¤® à¤¾à¤§à¤¾à¤¨
q u
Ġà¤¦à¥Įà¤° à¤¾à¤¨
l y
Ġà¤²à¤Ĺ à¤Ńà¤Ĺ
Ġà¤ľ à¥Ī
à¥ĭà¤Ĺà¥įà¤° à¤¾à¤®
Ġà¤µà¤¿à¤ķ à¤¾à¤¸
à¤§ à¤¾à¤°
Ġ on
à¤¬ à¥Ģ
Ġà¤ª à¤¤à¤¾
Ġà¤ª à¥ģ
Ġà¤® à¤¨
Ġà¤ªà¥įà¤°à¤¤ à¥įà¤¯
à¤Ĥà¤¬ à¤°
à¤°à¥įà¤ ¦
Ġà¤¤ à¤°à¥Ģ
- à¤¸
à¤¹ à¤¾à¤°
Ġà¤¶ à¤¹à¤°
à¤¾à¤ĩ à¤²
Ġà¤Ĩ à¤Ī
Ġà¤ª à¥Ĥà¤°
à¤¦ à¤¾
Ġà¤¦à¥ĭ à¤¨à¥ĭà¤Ĥ
Ġà¤ħ à¤¤
Ġà¤µà¤¿à¤ ¦
Ġà¤¦ à¤¿à¤ĸ
à¤¯ à¥ģà¤ķà¥įà¤¤
Ġà¤¨ à¤¿à¤®à¥įà¤¨à¤²à¤¿à¤ĸà¤¿à¤¤
Ġà¤µà¤¿à¤ ¨
Ġà¤¸à¤Ĥ à¤Ń
Ġà¤¸à¥Ĥ à¤ļà¥Ģ
Ġà¤ħà¤¨à¥ģ à¤¸à¤¾à¤°
à¤°à¥įà¤ ļ
a y
Ġà¤ªà¤° à¥įà¤¯
à¥ī à¤ķ
à¥ĭ à¤¸
Ġà¤ĵ à¤°
Ġà¤§ à¥įà¤¯à¤¾à¤¨
Ġà¤° à¤¹à¥Ģ
à¤¿à¤ ¬
Ġà¤Ńà¤¾à¤· à¤¾
à¥ģà¤ Ĩ
i g
Ġà¤µ à¤¾à¤¸à¥įà¤¤
à¤¾à¤Ĥ à¤Ĺ
Ġà¤¦à¥Ĥ à¤¸à¤°
Ġc an
Ġà¤¤ à¥Ģà¤¨
à¤¾à¤¹ à¤°à¥Ģ
à¥įà¤Ł à¥Ģ
Ġà¤ľà¤¾à¤¨ à¤¾
Ġà¤²à¤¿à¤ĸ à¥ĩà¤Ĥ
Ġà¤µà¥įà¤¯à¤ķà¥įà¤¤ à¤¿
Ġà¤¬à¤¦ à¤²
à¤¿à¤ Ń
Ġà¤ľà¤¾à¤¤ à¥ĩ
à¤¾à¤Ĥ à¤¸
à¤® à¥įà¤°
à¤¤ à¤¾à¤ĵà¤Ĥ
à¥ĭ à¤¡
Ġà¤µà¤¿à¤ ļ
à¥įà¤¦ à¥Ģ
- à¤ħ
Ġ v
Ġà¤¤ à¥Ī
à¤¾à¤¤à¥įà¤° à¤¾
Ġà¤¸à¤Ĥ à¤°
Ġà¤ªà¥įà¤° à¥ĭà¤Ĺà¥įà¤°à¤¾à¤®
Ġy ou
Ġà¤® à¤¾à¤§
à¤¸à¥Ģ à¤²
ĠĠĠĠ ĠĠĠ
à¥ģà¤ ¶
Ġà¤ªà¥įà¤°à¤¶ à¥įà¤¨
à¤ļ à¥ĩ
à¤¿à¤¦ à¥įà¤§
à¥įà¤¸ à¤¾
s e
à¥ģà¤Ŀ à¥ĩ
à¤¿à¤ ļ
à¤¿à¤ ·à¥įà¤Ł
à¥ģà¤ ·
Ġà¤¦ à¥ĥ
Ġà¤ ł
Ġà¤¤à¤¹ à¤¸à¥Ģà¤²
Ġc on
Ġà¤Ĩ à¤¸
Ġà¤ķ à¥įà¤²
Ġà¤¦à¥ĩ à¤¨à¥ĩ
à¤¿à¤¯ à¥ĭ
à¥ģà¤ Ń
à¤¿à¤¯ à¤°
Ġà¤ı à¤®
Ġà¤ĩà¤¸ à¤²à¤¿à¤ı
Ġà¤ľà¤¿à¤¸ à¥ĩ
à¤ķ à¤°à¤£
Ġà¤µà¤¾à¤ķ à¥įà¤¯
Ġà¤ĸ à¤¿à¤²
à¤² à¥ĭà¤Ĥ
Ġà¤Ĺ à¤£
Ġà¤ķ à¥Į
à¥¤ "
à¥ĩà¤· à¤£
y st
à¤¿à¤¶ à¥įà¤ļ
Ġà¤¸à¤® à¥ģà¤¦
à¤¶ à¥įà¤ļ
Ġà¤µ à¥ĩà¤¬
Ġà¤ Ŀ
Ġà¤¸à¤® à¥Ĥà¤¹
Ġà¤¸ à¤«
à¤µ à¤¾à¤¦
Ġà¤ĸ à¥ĭà¤ľ
Ġà¤¯ à¥ĩ
à¥įà¤µ à¥Ģ
à¤¾à¤ Ń
Ġa l
à¤ī à¤¤
Ġà¤®à¤¾à¤§ à¥įà¤¯à¤®
à¥įà¤¯ à¤¾à¤²à¤¯
à¥ĭ à¤¡à¤¼
à¤¾à¤ ł
Ġà¤¬ à¤ļ
Ġà¤¸ à¤¦
Ġà¤ħà¤² à¤¾à¤µà¤¾
Ġà¤ ¢
à¤¾à¤¨ à¥įà¤¯
Ġ us
Ġà¤ªà¥įà¤°à¤® à¥ģà¤ĸ
yst em
Ġà¤µà¤¿à¤ ·
Ġà¤¦à¥ĩà¤ĸ à¥ĩà¤Ĥ
Ġà¤¦ à¤ķà¥įà¤·
à¤¿à¤£ à¤¾à¤®
Ġà¤¹ à¤¿à¤¸
à¤¨à¥įà¤¦ à¤°à¥įà¤Ń
à¤ª à¥ģà¤°
t er
Ġà¤ªà¥įà¤°à¤¦ à¤°à¥įà¤¶
à¤¿à¤¶à¥įà¤ļ à¤¿à¤¤
à¤¾à¤¸ à¥įà¤¥
Ġà¤ľ à¤¿à¤²à¥ĩ
à¤¡ à¥Ģ
re s
Ġà¤Ń à¥Ĥà¤®
à¤¬ à¤°
Ġà¤ªà¥įà¤°à¤ķ à¤¾à¤¶
Ġà¤¤ à¤¾à¤ķ
à¥įà¤¶ à¤¨
Ġà¤® à¤§
à¤¿à¤ «
Ġà¤¯ à¥ĭà¤Ĺ
y th
Ġà¤¸à¤Ĥà¤¬à¤Ĥà¤§ à¤¿à¤¤
e ct
Ġà¤¸ à¥ģà¤¨
Ġà¤ħ à¤°à¥įà¤¥
Ġà¤ī à¤ļà¥įà¤ļ
à¤µ à¤¾à¤¬
Ġà¤Ĩ à¤¦
Ġà¤¤à¥Ī à¤¯
Ġà¤¦ à¥ĩà¤Ĥ
à¤¸ à¤¨à¥įà¤¦à¤°à¥įà¤Ń
Ġà¤¦à¥ĩ à¤¤à¤¾
à¥įà¤¯ à¥ĭà¤Ĺ
Ġ it
Ġà¤Ń à¤°
à¤¤ à¤¿à¤ķ
or d
es s
- à¤ľ
l o
Ġà¤¨ à¤¿à¤¯
à¤¾à¤¸à¥įà¤¥ à¥įà¤¯
Ġ as
Ġà¤ªà¥įà¤°à¤¤à¥įà¤¯ à¥ĩà¤ķ
Ġd e
Ġà¤ı à¤¨
Ġà¤« à¥įà¤°
à¤ª à¥Ģ
yth on
Ġà¤¤ à¥ģà¤²
âĢ į
à¤° à¤¿à¤ķ
Ġà¤ħà¤§à¥įà¤¯ à¤¯à¤¨
à¥ĭà¤ľ à¤¨à¤¾
à¤ļ à¤¨à¤¾
Ġà¤¦ à¤¿à¤ı
à¤® à¥įà¤®
Ġà¤¬ à¤¨à¤¾
Ġà¤ľ à¤¼
à¤Ń à¤¾
Ġw ith
Ġà¤® à¥ģ
1 5
m ent
à¤µ à¤¿à¤¦
Ġà¤¸à¤Ĥà¤Ń à¤µ
à¤« à¤¼
Ġà¤¯ à¥Ĥ
à¤² à¥įà¤²
Ġà¤ªà¤° à¤¿à¤£à¤¾à¤®
à¤¾à¤Ĥ à¤ķ
Ġà¤Ľ à¤¾à¤¤à¥įà¤°
or t
à¤µ à¤¾à¤°
à¤¬ à¤¾à¤¹à¤°à¥Ģ
Ġà¤µà¤¿à¤¶ à¥įà¤²
a k
à¥ĭ à¤¹
Ġ R
Ġà¤ļ à¤¾à¤°
Ġc om
à¤Ĥ à¤¸
Ġà¤¬ à¥Ī
à¤® à¤¾à¤°
Ġà¤Ńà¤¾à¤° à¤¤à¥Ģà¤¯
Ġà¤¤à¤ķ à¤¨à¥Ģ
Ġà¤ļ à¥Ģ
Ġà¤¸ à¤°à¥įà¤µ
Ġ B
Ġà¤ħ à¤Ĺ
Ġà¤® à¥ģà¤Ŀà¥ĩ
Ġà¤¨ à¤ı
à¤²à¤¬ à¥įà¤§
à¤īà¤¤ à¥įà¤¤à¤°
1 2
à¤¾à¤ĩ à¤¡
Ġà¤¸à¥įà¤µ à¤¾à¤¸à¥įà¤¥à¥įà¤¯
19 9
à¤¾à¤ģ à¤µ
Ġà¤®à¥Ĥà¤² à¥įà¤¯
à¥ģà¤¨ à¤¿à¤¯à¤¾
Ġà¤µà¤¾à¤² à¤¾
à¤¡à¤¼ à¤¿à¤¯à¤¾à¤ģ
Ġà¤² à¤¿à¤¯à¤¾
Ġn e
Ġà¤¹ à¥ĭà¤Ĥ
à¤¸ à¥įà¤µ
à¤£à¥įà¤¡ à¤²
Ġà¤ª à¤¾à¤¨à¥Ģ
Ġà¤ķ à¤²
à¤¿à¤ķà¤¾à¤° à¤¿à¤ķ
p p
à¥ī à¤¡
Ġà¤¸ à¥įà¤¤à¤°
Ġà¤µà¤¿à¤ľ à¥įà¤ŀà¤¾à¤¨
ĠA I
Ġà¤¶ à¥Ģ
à¤µ à¥įà¤¯
à¤¾à¤¹ à¤¿à¤¤
Ġà¤īà¤ª à¤²à¤¬à¥įà¤§
Ġà¤µà¤°à¥įà¤ Ĺ
à¤¾à¤ ĥ
à¤°à¥įà¤ľ à¤¾
Ġà¤ªà¥įà¤° à¤µ
Ġà¤ľ à¤¨à¥įà¤®
Ġà¤Ĩà¤§ à¤¿à¤ķà¤¾à¤°à¤¿à¤ķ
Ġà¤¬ à¥ģà¤¦à¥įà¤§
Ġà¤° à¤Ĥà¤Ĺ
à¤¾à¤¯ à¤°
) ;
Ġà¤¸à¤Ĥ à¤Ńà¤¾à¤µ
à¤¨à¥įà¤¹ à¥ĩà¤Ĥ
Ġà¤¦à¤ķà¥įà¤· à¤¿à¤£
at a
à¥ĥà¤¤ à¤¿à¤ķ
à¤ª à¥ģà¤Ł
Ġw h
ou n
Ġà¤² à¤Ĥà¤¬
---- ----
Ġe x
Ġà¤¦ à¤¿à¤²
à¥ĥà¤¤ à¤¿
Ġà¤µà¤¿à¤¶à¥įà¤² à¥ĩà¤·à¤£
Ġà¤ªà¥įà¤° à¤£
Ġà¤¸à¤® à¤¾à¤¨
à¤¤ à¤®
à¥ĭ à¤¬
à¤¾à¤² à¤¾
à¤ľ à¥įà¤ŀà¤¾à¤¨
Ġà¤¬ à¤ľ
à¤ª à¥įà¤¤
Ġà¤¹à¤® à¥ĩà¤Ĥ
Ġà¤Ĺ à¥Ī
Ġà¤® à¤£à¥įà¤¡à¤²
Ġà¤¨à¤¿à¤°à¥įà¤® à¤¾à¤£
Ġà¤¸ à¤¿à¤Ĥ
Ġà¤ªà¥įà¤° à¤ķà¥įà¤°
Ġà¤¸à¥įà¤¥à¤¿à¤¤ à¤¿
Ġà¤ķà¥ĭ à¤¶
Ġà¤¤à¤¾à¤ķ à¤¿
à¤¦ à¤¾à¤¨
Ġà¤¸ à¤¾à¤°
Ġà¤¸à¤Ĥ à¤ª
à¤¸ à¤¾à¤ĩà¤Ł
Ġà¤Ĳ à¤¸à¤¾
à¤¨ à¤¿à¤®à¥įà¤¨à¤²à¤¿à¤ĸà¤¿à¤¤
ĠP ython
Ġà¤¹à¥ĭ à¤¨à¤¾
Ġà¤¨ à¥įà¤¯à¥Ĥ
- à¤ķ
§ à¤¾à¤°
Ġà¤ķà¥ĩ à¤Ĥà¤¦à¥įà¤°
à¥ĩ à¤¤
à¤ľ à¥Ģ
Ġà¤¦ à¥ģà¤¨à¤¿à¤¯à¤¾
Ġà¤°à¤¾à¤·à¥įà¤Ł à¥įà¤°à¥Ģà¤¯
Ġ D
Ġà¤ķ à¥ī
Ġà¤ħ à¤Ĥà¤Ĺ
à¥Ĥ à¤¤
Ġà¤ªà¤° à¥Ģ
Ġà¤¸à¥įà¤¥ à¤¾à¤ª
h t
Ġà¤¤à¥Īà¤¯ à¤¾à¤°
Ġà¤¦ à¤°à¥įà¤¶
à¥ĩ à¤Ĺà¤¾
Ġà¤¡ à¤¿à¤ľ
Ġà¤ľ à¥ģ
Ġà¤¤à¥ģà¤² à¤¨à¤¾
i v
Ġà¤Łà¥Ģ à¤®
à¤Ĺà¥įà¤° à¤¹
Ġà¤® à¤¾à¤®
à¤ķà¥įà¤· à¤¿à¤¤
Ġà¤ļ à¤¿à¤ķ
Ġà¤¯à¤¹ à¤¾à¤ģ
in t
à¤¸ à¤¾à¤¯
Ġà¤ľà¤¬ à¤ķà¤¿
à¤Ĥ à¤Ń
Ġà¤ľà¥ĭ à¤¡à¤¼
Ġà¤ªà¥įà¤°à¥ĭà¤Ĺà¥įà¤°à¤¾à¤® à¤¿à¤Ĥà¤Ĺ
Ġà¤² à¤¾à¤Ĺ
à¤ļ à¤¾à¤¨
it y
à¤ķà¥įà¤¤ à¤¿
à¤¿à¤¸ à¥įà¤¤
Ġà¤Ĺ à¤¾à¤ģà¤µ
l d
à¥ģ à¤Ĺ
Ġà¤ķ à¤¡à¤¼à¤¿à¤¯à¤¾à¤ģ
à¤ķà¤°à¥įà¤¤ à¤¾
Ġà¤µà¥įà¤¯ à¤¾à¤ª
Ġs u
Ġà¤ħà¤®à¥ĩà¤° à¤¿à¤ķà¤¾
à¤¿à¤· à¥įà¤ķ
Ġà¤¬ à¤¡à¤¼à¥ĩ
Ġà¤¸à¤Ĥ à¤ĺ
à¤¾à¤µ à¤°à¤£
à¤ķ à¤¾à¤²
à¤ı à¤¸
Ġ N
Ġà¤¸à¥įà¤ķ à¥Ĥà¤²
Ġà¤¸à¤¾à¤® à¤¾à¤¨à¥įà¤¯
Ġà¤¸à¤Ĥ à¤¸à¥įà¤ķ
à¥ĩà¤¯ à¤°
i ve
à¤¿à¤¨ à¤¾
à¤· à¤£
à¥įà¤ «
à¤¾à¤¤ à¥Ģ
00 0
à¤Ł à¥Ģ
Ġà¤ª à¥įà¤²
Ġà¤² à¤¡à¤¼
c i
Ġà¤¸à¤Ĥ à¤Ĺ
Ġà¤ĩà¤¤ à¤¿à¤¹à¤¾à¤¸
à¥ģà¤ ĵà¤Ĥ
Ġà¤µà¤¿à¤ļ à¤¾à¤°
à¥ĩ à¤°à¥Ģ
Ġà¤ľà¤¿à¤¸ à¤¸à¥ĩ
Ġà¤ĩà¤¸ à¤®à¥ĩà¤Ĥ
Ġà¤° à¥ĭà¤Ĺ
Ġà¤ª à¤¾à¤ł
Ġà¤¦ à¤°
à¥ĩà¤ľ à¥Ģ
Ġà¤ķ à¤Ńà¥Ģ
Ġà¤¬ à¥ĩà¤¹
Ġà¤ħà¤¨ à¥ģà¤Ń
Ġ W
à¤¿à¤® à¤¾à¤¨
Ġà¤Ĭ à¤°à¥įà¤ľà¤¾
Ġ F
a ge
Ġà¤īà¤¤à¥įà¤ª à¤¨à¥įà¤¨
à¤¤ à¤ĥ
Ġà¤² à¥ĭà¤ķ
Ġà¤ħà¤ª à¤¨à¤¾
Ġc h
Ġà¤ļ à¥ģ
p t
Ġà¤ĩ à¤²
à¥ĩà¤¸ à¥įà¤Ł
Ġà¤ª à¤¢à¤¼
à¤¾à¤¹ à¤°
Ġà¤¬ à¤²
Ġà¤ªà¤¹ à¥ģ
à¥Ĥ à¤¦
s ystem
Ġ G
à¥Ģà¤ķ à¤°à¤£
Ġà¤µà¥ĩà¤¬ à¤¸à¤¾à¤ĩà¤Ł
à¥Ĥ à¤¸
Ġà¤ľà¤¿à¤¨ à¥įà¤¹
Ġ or
in e
Ġà¤ªà¤¹à¥ģ à¤Ĥà¤ļ
Ġà¤īà¤ª à¤ķà¤°à¤£
à¤Ĥà¤¦ à¤°
Ġà¤ªà¤°à¤¿à¤µ à¤°à¥įà¤¤
Ġà¤µà¤¿à¤¸à¥įà¤¤ à¥ĥà¤¤
en d
à¤ľ à¤¬
Ġà¤¸ à¤¹à¥Ģ
Ġà¤µà¤°à¥įà¤ £
Ġà¤µà¤¿à¤ķ à¤²à¥įà¤ª
Ġà¤Ĩ à¤ľ
o re
Ġà¤¹à¥ĭ à¤Ĺà¥Ģ
à¤² à¤Ĺ
à¥ĩ à¤ª
à¤¾à¤® à¥Ģ
à¤¾à¤¡à¤¼ à¥Ģ
Ġà¤µà¤¿à¤· à¤¯
à¤¸ à¤Ĥà¤¦
à¤Ń à¤¾à¤°
Ġà¤ĩà¤¸ à¤¸à¥ĩ
Ġà¤¨à¤¿à¤°à¥įà¤ ¦
Ġà¤Ĩ à¤ķ
Ġà¤®à¤¾à¤¨ à¤µ
1 7
à¥ĩ à¤µ
à¤¸ à¤¿à¤¤
Ġà¤ªà¥įà¤° à¤¯à¥ĭà¤Ĺ
à¥ĩà¤ķ à¥įà¤¸
à¥ĩà¤ķ à¥įà¤Ł
à¤ľà¥įà¤ŀà¤¾à¤¨ à¤¿à¤ķ
Ġà¤Ĺà¥ģ à¤£
à¤¾à¤¨ à¥ĭà¤Ĥ
à¤ķà¥ĭ à¤¡
à¥ĥà¤¤ à¥įà¤¯
Ġà¤ªà¥įà¤° à¤¸
e x
p le
à¤¶à¥įà¤ļ à¤¿à¤®
Ġà¤® à¥īà¤¡
a c
Ġà¤ķ à¤ª
à¤ļ à¤¿à¤¤
Ġà¤ªà¥ģ à¤¸à¥įà¤¤
Ġà¤¬à¤ļà¥įà¤ļ à¥ĭà¤Ĥ
Ġà¤¹à¤® à¤¾à¤°à¥ĩ
Ġà¤¤ à¤¬
à¤ľ à¤°
am e
Ġà¤ļà¤¿à¤ķ à¤¿à¤¤
Ġà¤ķà¤¾à¤°à¥įà¤¯ à¤ķà¥įà¤°à¤®
à¥ĥà¤· à¥įà¤ł
Ġà¤¨à¥Ģ à¤ļà¥ĩ
à¤¾à¤Ĥ à¤ķà¤¿
à¤¸à¥įà¤¥ à¤¾
à¤¾à¤¸ à¤¨
à¤Ĺ à¥įà¤°à¥Ģ
< /
à¤µà¤¿à¤¦ à¥įà¤¯à¤¾à¤²à¤¯
Ġà¤°à¤¾à¤·à¥įà¤Ł à¥įà¤°
Ġ T
3 0
Ġà¤¸à¤® à¥įà¤®
5 0
an d
Ġà¤īà¤¨ à¤ķà¤¾
à¤ľ à¥įà¤ŀ
en ce
¯ à¥
Ġà¤¦à¥Ĥà¤¸à¤° à¥ĩ
Ġà¤® à¤¤
à¤¾à¤² à¤¨
à¥ĭ à¤°à¥įà¤Ł
à¤Ĩ à¤°
Ġà¤ķ à¥ģà¤²
à¥Ĥ à¤Ł
à¤¿à¤¯ à¤¾à¤Ĥ
p e
à¤° à¤¾à¤¬
à¤µ à¤¿à¤§
Ġà¤Ĺ à¤¤
Ġà¤² à¥Ģ
Ġà¤µà¤¿à¤ķ à¤¸à¤¿à¤¤
Ġà¤¬à¥ģà¤¦à¥įà¤§ à¤¿à¤®à¤¾à¤¨
Ġà¤µ à¤¸à¥įà¤¤
à¤¾à¤Ĥ à¤¡
Ġà¤¨ à¤µ
Ġà¤ķ à¤¾à¤²
Ġà¤ĳ à¤«
Ġà¤µà¤¿à¤µ à¤°à¤£
Ġs h
Ġà¤¶à¤¿à¤ķà¥įà¤· à¤¾
à¤µ à¤°à¥Ģ
Ġà¤¦ à¥Ĥà¤°
1 6
Ġà¤¸à¤Ĥ à¤¯à¥ģà¤ķà¥įà¤¤
' ,
Ġà¤¸à¤Ĥà¤¦ à¤°à¥įà¤Ń
Ġà¤¨ à¤¿à¤µ
à¥įà¤² à¥Ģ
Ġà¤µà¤¿à¤¶à¥įà¤µ à¤µà¤¿à¤¦à¥įà¤¯à¤¾à¤²à¤¯
Ġà¤¯ à¥ģà¤¦à¥įà¤§
à¤Ĩ à¤Ī
Ġà¤ªà¥įà¤°à¤¤ à¤¿
à¤¸à¤® à¤¸à¥įà¤¯à¤¾
Ġà¤¬ à¤¾à¤¹à¤°
u re
Ġà¤¸à¤Ĥ à¤¸
Ġà¤ªà¥įà¤°à¤¤ à¤¿à¤¶
à¤¿à¤¯ à¥ĩ
Ġà¤¶ à¥ĭà¤§
Ġà¤µà¤°à¥įà¤ ¤
Ġà¤ªà¤¹ à¤ļà¤¾à¤¨
Ġà¤ª à¥ģà¤²
a g
Ġà¤¸ à¤¤
Ġà¤µà¤¿à¤¨ à¤®à¥įà¤°
à¤¨ à¥įà¤¯
il l
Ġà¤¨à¤¿à¤°à¥įà¤ §à¤¾à¤°
) à¥¤
Ġà¤ªà¥įà¤° à¤¸à¥įà¤¤
à¤¿à¤Ĥ à¤¦
Ġà¤Ľà¥ĭà¤Ł à¥ĩ
Ġà¤ıà¤ķ à¥įà¤¸
Ġà¤ķ à¥ģà¤®
a ct
à¥Ģ à¤¦
Ġà¤ªà¥įà¤°à¤¤à¤¿à¤¶ à¤¤
Ġà¤ľ à¤µà¤¾à¤¬
Ġà¤¶à¥ģà¤° à¥ģà¤Ĩ
Ġà¤Ĩ à¤¦à¤¿
Ġà¤Ń à¤µ
Ġa re
Ġà¤ªà¥įà¤°à¤ķà¥įà¤° à¤¿à¤¯à¤¾
Ġà¤¹à¥Ĥ à¤Ĥ
Ġà¤¸à¥įà¤ª à¤·à¥įà¤Ł
Ġ E
à¤ĩ à¤¨à¥įà¤¹à¥ĩà¤Ĥ
a in
Ġà¤ªà¥Ĥà¤° à¤¾
Ġà¤ª à¤¤à¥įà¤°
Ġà¤² à¤¾à¤Ń
Ġà¤ªà¤°à¤¿à¤µ à¤¾à¤°
à¤¸ à¥įà¤ª
à¤Ĺà¥Ģ à¤¤
`` `
à¤¿à¤ Ľ
Ġà¤¸à¥ĩ à¤µà¤¾
Ġà¤ªà¥Ĥ à¤°à¥Ģ
à¤° à¥ĭà¤Ĥ
Ġà¤ķà¤Ĥà¤ª à¤¨à¥Ģ
Ġà¤ķ à¥īà¤²
Ġà¤¸à¤« à¤²
Ġà¤Ń à¤¾à¤µ
à¥ĥ à¤¦à¥įà¤§
Ġ im
Ġà¤ħà¤¨à¥ģà¤Ń à¤µ
Ġ L
à¤¾à¤ķ à¤°
Ġà¤ķà¥Į à¤¨
Ġà¤¶à¥Ģ à¤°à¥įà¤·
Ġà¤ħà¤®à¥ĩà¤° à¤¿à¤ķà¥Ģ
i es
à¤¿à¤¤ à¥įà¤µ
/ /
Ġà¤ĩà¤¸ à¤ķà¥Ģ
Ġ le
Ġà¤¨ à¤¿à¤¯à¤®
Ġà¤¨ à¤Ĺà¤°
Ġà¤ĺ à¤Ł
Ġà¤ªà¥įà¤° à¤¯
Ġà¤¸à¥ģà¤° à¤ķà¥įà¤·à¤¾
19 8
Ġà¤® à¥ĩà¤°
à¤¨à¥įà¤ ¸
à¥ĭ à¤µ
à¤° à¥ĩ
e st
1 1
Ġà¤ħà¤ļà¥įà¤Ľ à¤¾
Ġà¤µ à¤¿à¤¤
à¥ĩà¤ľ à¤¼
Ġà¤¹ à¤²
Ġà¤ľ à¤Ĺ
Ġà¤īà¤¸ à¤ķà¥Ģ
Ġà¤ªà¥įà¤°à¤£ à¤¾à¤²à¥Ģ
Ġà¤ķ à¥ĥà¤·
à¤¿à¤ķ à¥įà¤°
Ġà¤ª à¥Į
Ġà¤Ĺ à¤¿à¤°
à¤® à¥įà¤¬
( à¤ľ
Ġà¤¶ à¥Ī
Ġà¤¹à¤¾à¤² à¤¾à¤Ĥà¤ķà¤¿
Ġà¤¸à¤¾à¤® à¤Ĺà¥įà¤°à¥Ģ
à¤® à¤¿à¤ķ
u d
à¤ľ à¤¾à¤¤
Ġà¤¸à¤Ĥ à¤Ĺà¥Ģà¤¤
à¤¾à¤·à¥įà¤Ł à¥įà¤°à¥Ģà¤¯
à¤ªà¥įà¤° à¤¶
Ġà¤ªà¤¹ à¤²à¥Ģ
Ġà¤¬ à¤¡à¤¼à¥Ģ
Ġà¤µà¤°à¥įà¤¤ à¤®à¤¾à¤¨
Ġà¤ķà¥įà¤· à¤®
Ġà¤¸à¥ĩ à¤µ
à¤¤ à¥ĭà¤Ĥ
Ġà¤§ à¤¾à¤°
Ġà¤¸à¤® à¤°à¥įà¤¥
à¤¾à¤¯ à¥ģ
p l
à¤¹ à¤®
Ġà¤ļ à¥Į
Ġà¤¦à¥ĥ à¤·à¥įà¤Ł
Ġà¤ª à¥ģà¤¨
Ġà¤¨à¤¿à¤¯ à¤Ĥà¤¤à¥įà¤°
Ġà¤¦à¥ĩ à¤¤à¥ĩ
à¤¤ à¤¨
Ġà¤Ĩ à¤Ĺà¥ĩ
à¥¨ à¥¦
Ġà¤ħ à¤¦
Ġà¤ķà¥įà¤·à¥ĩà¤¤à¥įà¤° à¥ĭà¤Ĥ
à¤¬ à¥įà¤²
à¥įà¤¯ à¤¾à¤¦
Ġà¤ķ à¤¾à¤¨
à¤¾à¤ľ à¤¿à¤ķ
à¤ĩ à¤¨
Ġà¤¬ à¥įà¤²
à¤¸à¥įà¤¥ à¤¾à¤¨
à¤¾à¤« à¥Ģ
Ġà¤¨ à¥Į
a ch
à¤°à¥įà¤ «
à¤ı à¤²
à¤°à¥Ģ à¤°
Ġà¤ľà¤¹ à¤¾à¤ģ
Ġà¤¸à¥ģ à¤§à¤¾à¤°
Ġà¤®à¤§ à¥įà¤¯
Ġà¤ª à¤¡à¤¼
à¥ģ à¤ª
Ġà¤ªà¥ģà¤° à¤¸à¥įà¤ķ
Ġà¤ļ à¤°à¤£
à¤ķà¥įà¤¸ à¤°
Ġà¤¬ à¤¿à¤¨à¤¾
à¤Ĥà¤Ł à¤°
à¤¿à¤ķ à¥ĭ
Ġà¤ľ à¤¾à¤°à¥Ģ
( "
à¥ĥ à¤ª
Ġà¤¬à¤ļà¥įà¤ļ à¥ĩ
à¤¤ à¤Ĥà¤¤à¥įà¤°
1 4
Ġà¤ª à¤¦
Ġà¤¹à¥Ī à¤ĥ
Ġà¤ħ à¤ķ
Ġà¤®à¥īà¤¡ à¤²
ro m
Ġà¤°à¤ĸ à¤¨à¥ĩ
Ġà¤µ à¤¿à¤°
Ġà¤¤ à¤¾à¤²
ar t
Ġà¤µà¤¿à¤¶ à¤¿à¤·à¥įà¤Ł
Ġà¤ķ à¤¿à¤¤
à¥ĩà¤Ĥ à¤¸
o g
Ġà¤Ĩà¤ª à¤ķà¥Ģ
Ġà¤µà¤¿à¤Ń à¤¾à¤Ĺ
à¤¾à¤ Ĭ
Ġà¤²à¥ĩ à¤¨à¥ĩ
Ġà¤¬à¤¨ à¤¾à¤¯à¤¾
à¥ī à¤Ł
i z
Ġà¤ªà¥ģà¤¸à¥įà¤¤ à¤ķ
Ġà¤ħ à¤Ńà¥Ģ
Ġà¤¸à¤Ĥà¤Ĺ à¤ł
à¤¸à¥įà¤Ł à¥įà¤°
Ġà¤ľ à¤¾à¤Ĥà¤ļ
Ġà¤Ĺà¥įà¤° à¤¾à¤¹
Ġà¤Ľ à¥ĭà¤¡à¤¼
- à¤¬
Ġà¤Ĩ à¤ķà¤¾à¤°
Ġw e
Ġà¤¸à¤¿à¤Ĥ à¤¹
- à¤®
Ġà¤¨ à¤Ī
ab le
Ġà¤ªà¥įà¤°à¤¦à¤°à¥įà¤¶ à¤¨
ou ld
à¤µà¥Ģ à¤Ĥ
Ġà¤ªà¤°à¥Ģ à¤ķà¥įà¤·à¤£
u st
à¥ĩà¤ £
Ġà¤¸à¤® à¥Ģ
Ġà¤¨ à¥įà¤¯
à¤¿à¤¸à¥įà¤¤ à¤¾à¤¨
Ġà¤¯ à¥ĭà¤ľà¤¨à¤¾
Ġà¤ħà¤ļà¥įà¤Ľ à¥Ģ
à¤° à¤¾
Ġà¤« à¥Ī
Ġà¤¬ à¤¡à¤¼à¤¾
Ġà¤ħà¤§à¤¿à¤ķ à¤¾à¤Ĥà¤¶
Ġà¤ħ à¤ķà¥įà¤¸à¤°
ĠI n
Ġà¤ľà¤¿à¤¸ à¤ķà¤¾
à¤°à¥įà¤Ĺ à¤¤
Ġà¤ļà¤¾à¤¹ à¤¤à¥ĩ
à¤ļ à¤¨
à¤ ĵ
Ġà¤¯ à¤¾à¤¦
Ġà¤§ à¤°à¥įà¤®
- à¤µ
Ġà¤¬à¥ĩà¤¹ à¤¤à¤°
à¤Ĥà¤¤à¥įà¤° à¥Ģ
Ġà¤¶ à¤°à¥Ģà¤°
à¤® à¥įà¤ª
à¤ī à¤Ł
Ġà¤ªà¥įà¤°à¤¯ à¤¾à¤¸
à¤° à¤²
r ing
à¤¾à¤¯ à¤¦
Ġà¤ªà¥įà¤° à¤¾à¤°
Ġà¤¸à¤Ĥ à¤Ĺà¥įà¤°à¤¹
à¤ªà¥įà¤°à¤¶ à¥įà¤¨
à¤¸à¥įà¤¥ à¤¿à¤¤
Ġà¤īà¤¤à¥įà¤ªà¤¾à¤¦ à¤¨
Ġà¤ªà¥įà¤°à¤Ńà¤¾à¤µ à¤¿à¤¤
Ġà¤¦ à¤¶
ct ion
Ġà¤²à¥ĩà¤ķ à¤°
Ġà¤®à¤¹ à¤¿à¤²à¤¾
Ġ en
à¤¿à¤µ à¤¿à¤§
Ġà¤µà¤¾à¤¸à¥įà¤¤ à¤µ
Ġà¤ħ à¤°
à¤¨à¥Ģ à¤¯
Ġà¤ª à¤¿à¤Ľ
Ġà¤¤à¤°à¥Ģ à¤ķà¥ĩ
( )
à¤¨ à¤²
er e
Ġà¤¸ à¤¿à¤¦à¥įà¤§
à¤¿à¤ķ à¥įà¤¤
2 5
Ġà¤µà¥Ī à¤ľà¥įà¤ŀà¤¾à¤¨à¤¿à¤ķ
Ġà¤¸ à¤¾à¤Ĥ
à¤¾à¤ķ à¥ĥà¤¤à¤¿à¤ķ
Ġà¤Ń à¥ĭà¤ľà¤¨
à¤Ĥ à¤¶
à¤ķà¤°à¥įà¤¤ à¤¾à¤ĵà¤Ĥ
Ġà¤® à¥Ģ
à¥įà¤° à¥ĭà¤¤
Ġà¤ªà¥ģà¤² à¤¿à¤¸
à¤¸ à¤¨
à¤¦ à¥įà¤¯à¥ĭà¤Ĺ
Ġà¤¨à¤¿à¤ķ à¤¾à¤²
-à¤ħ à¤²à¤Ĺ
Ġà¤µ à¤¾à¤ª
à¥ĥà¤¤ à¥įà¤¤
Ġà¤¶ à¥įà¤°à¥Ģ
Ġà¤ķà¤°à¥ĩà¤Ĥ à¤Ĺà¥ĩ
à¥ĥà¤ª à¤¯à¤¾
1 3
Ġ J
Ġà¤ľà¤¾à¤ı à¤Ĺà¤¾
Ġà¤ķà¤¹ à¤¤à¥ĩ
Ġà¤¨à¤¿à¤°à¥įà¤§à¤¾à¤° à¤¿à¤¤
Ġà¤ħà¤Ĥà¤¤ à¤¿à¤®
Ġà¤ªà¥įà¤° à¤¬à¤Ĥà¤§
Ġà¤Ĺ à¤°à¥įà¤®
Ġ The
Ġà¤¡ à¤¾à¤²
Ġà¤Ĳ à¤¸à¥ĩ
Ġà¤¸à¤ķ à¥ĩ
Ġà¤ª à¤¸à¤Ĥà¤¦
Ġà¤Ĺà¤¤ à¤¿à¤µà¤¿à¤§
à¥Īà¤Ĥ à¤ķ
c l
Ġà¤® à¥ģà¤¦
à¤¬ à¥įà¤°
Ġà¤¹à¥Ĥ à¤ģ
Ġà¤¦ à¥ģ
à¥įà¤ £
à¤¾à¤¹à¤¿à¤¤ à¥įà¤¯
Ġà¤® à¤¿à¤¶
Ġà¤¬ à¥ĭ
à¥§à¥ ¯à¥
19 7
à¤ľ à¥Ĥà¤¦
à¤° à¥ĭ
Ġà¤īà¤¤ à¥įà¤¤
Ġà¤¤ à¤¤à¥įà¤µ
Ġà¤° à¤¿à¤ª
Ġs e
Ġà¤ª à¥ĩà¤¶
Ġà¤ĸ à¤°à¥Ģ
Ġà¤ª à¤¶à¥įà¤ļà¤¿à¤®
à¤ı à¤®
Ġà¤ħà¤¨à¥ģ à¤¸
Ġà¤¸à¤¾à¤® à¤¾à¤ľà¤¿à¤ķ
Ġà¤¸à¤¦ à¤¸à¥įà¤¯
' s
f or
Ġb y
Ġà¤¸à¥ģà¤¨ à¤¿à¤¶à¥įà¤ļà¤¿à¤¤
à¤µ à¤¾à¤Ī
à¤¿à¤ķ à¥įà¤¸
Ġà¤ı à¤«
Ġà¤¯ à¤¾à¤¤à¥įà¤°à¤¾
à¥ĥà¤¤à¥įà¤¯ à¥ģ
Ġà¤¸à¥Ģ à¤ĸ
Ġà¤¤ à¥Įà¤°
Ġà¤ľ à¤°
- à¤¦
à¤° à¤¾à¤ľ
Ġà¤¶à¥ģà¤°à¥ģà¤Ĩ à¤¤
à¤¶ à¤²
Ġ U
Ġà¤² à¤ķà¥įà¤·
Ġà¤¬ à¤¿à¤²
Ġà¤ķà¤° à¥ĩà¤Ĺà¤¾
à¥Ģ à¤¸
Ġà¤ªà¥ĭ à¤°à¥įà¤Ł
Ġd ata
Ġà¤ª à¥Ĥà¤°à¥įà¤£
Ġà¤ļ à¤°à¥įà¤ļ
à¤¨ à¤¾à¤®
à¤¾à¤Ĥà¤ķ à¤¨
Ġà¤µà¤¿à¤ ²
à¤¶ à¥įà¤µ
ul t
à¤¿à¤Ĺ à¤¤
Ġà¤ª à¤¤
Ġà¤¯à¤¹ à¤¾à¤Ĥ
Ġà¤¨ à¤¦à¥Ģ
Ġà¤ªà¤°à¤¿à¤µà¤°à¥įà¤¤ à¤¨
à¥ ©
Ġà¤ĸ à¥ģà¤¦
Ġà¤ħà¤Ĥà¤Ĺ à¥įà¤°
Ġà¤¶à¤¬à¥įà¤¦ à¥ĭà¤Ĥ
Ġà¤Ĭ à¤ªà¤°
à¤¤à¥įà¤¤ à¤¾
à¤®à¥įà¤® à¥Ģà¤¦
à¥ī à¤°à¥įà¤¡
Ġà¤¸à¥ĭ à¤ļ
Ġà¤ļà¤¿à¤ķà¤¿à¤¤ à¥įà¤¸à¤¾
Ġà¤ī à¤ł
Ġà¤¨à¤¿à¤°à¥įà¤¦ à¥ĩà¤¶
p er
Ġà¤ļ à¤¿à¤¤à¥įà¤°
à¥ĥ à¤Ĥà¤ĸ
Ġà¤¸ à¥įà¤®
Ġà¤ħ à¤Ĺà¤°
u e
Ġà¤ħà¤¨ à¥įà¤¤
Ġà¤¹ à¤¿à¤¨
Ġà¤¦à¥ĩà¤ĸ à¤¤à¥ĩ
Ġà¤ªà¥ģà¤°à¤¸à¥įà¤ķ à¤¾à¤°
à¤¿à¤¤ à¥Ģà¤¯
à¤¯ à¥ĩ
à¤¿à¤° à¤¿à¤ķà¥įà¤¤
Ġà¤¬à¤¨ à¤¾à¤ı
Ġà¤ª à¤ķ
Ġà¤¤ à¥įà¤°
Ġà¤¸à¤Ĥ à¤ļ
Ġà¤ķà¥įà¤·à¤® à¤¤à¤¾
à¤µ à¤¾à¤¨
Ġà¤ľà¤¹ à¤¾à¤Ĥ
Ġà¤µà¤°à¥įà¤· à¥ĭà¤Ĥ
à¤¿à¤· à¥įà¤¯
à¤Ĥà¤Ĺ à¤²
Ġà¤ª à¤ķà¥įà¤·
Ġà¤®à¤¾à¤¨ à¤¾
à¤¾à¤ĩ à¤ķ
Ġà¤Ĩ à¤¤
Ġà¤° à¥ĭà¤ķ
" :
s o
Ġà¤¸ à¥įà¤¤
à¥įà¤¦ à¥ĩà¤¶
Ġà¤¸ à¤²
Ġà¤ħà¤§à¤¿à¤ķ à¤¾à¤°
à¤¾à¤¦ à¥įà¤¯
Ġà¤¸ à¥įà¤°à¥ĭà¤¤
Ġà¤ªà¥įà¤° à¤¾à¤ķà¥ĥà¤¤à¤¿à¤ķ
Ġà¤®à¤¾à¤° à¥įà¤Ĺ
à¤¿à¤Ł à¥Ģ
à¤µ à¥ĩ
Ġà¤ľà¤¿à¤¸ à¤ķà¥ĩ
ou t
Ġà¤¯ à¥ģ
Ġà¤°à¤ĸ à¤¾
Ġà¤¸à¤Ĥà¤¸ à¤¾à¤§
Ġà¤ª à¤¦à¤¾à¤°
in d
Ġà¤ħà¤¤ à¤¿à¤°à¤¿à¤ķà¥įà¤¤
à¤§ à¤¾à¤¨
p ort
à¤® à¤¤à¤¿
Ġà¤Ń à¥Ĥ
à¤Ĥà¤Ł à¥Ģ
Ġà¤¹ à¤¾à¤¥
Ġà¤ªà¥įà¤°à¤¤ à¤¿à¤ķà¥įà¤°
Ġà¤ķà¤¹ à¤¾à¤¨à¥Ģ
Ġà¤¯ à¥Ĥà¤°
Ġà¤ªà¤°à¥įà¤¯ à¤¾à¤µà¤°à¤£
Ġà¤¡ à¥įà¤°
Ġà¤ı à¤ļ
Ġà¤ľà¤Ĺ à¤¹
à¤¡à¤¼ à¥ĭà¤Ĥ
Ġà¤°à¤¹ à¤¨à¥ĩ
19 6
si on
Ġà¤¸à¤Ĥ à¤ķà¥ĩ
à¥ĩà¤ «
à¤¤ à¥Įà¤°
à¤¾à¤ļ à¤¾à¤°
à¤¾à¤ĩ à¤®
à¥ĥà¤¦à¥įà¤§ à¤¿
Ġà¤ĩ à¤Ĥà¤Łà¤°
Ġà¤°à¤¾à¤ľ à¤¨à¥Ģ
Ġà¤¶à¥įà¤° à¥ĩà¤£
f f
Ġà¤ªà¤¦à¤¾à¤° à¥įà¤¥
Ġ un
Ġà¤ĸ à¤¤à¤°
Ġ k
à¤¾à¤¨à¥Ģ à¤¯
à¥įà¤° à¤¿à¤¯
Ġin t
Ġà¤ħà¤¨à¥ģ à¤®à¤¾à¤¨
a re
o c
Ġà¤¸à¤® à¤¾à¤ľ
Ġà¤ī à¤²à¥įà¤²
Ġà¤īà¤¦ à¥įà¤¦à¥ĩà¤¶
Ġà¤ħà¤Ń à¤¿à¤¨
à¤¾à¤¸ à¥Ģ
Ġà¤® à¤¾à¤¤à¥įà¤°à¤¾
Ġà¤®à¤¹ à¤¿à¤²
à¥ĥ à¤¥
Ġà¤¬à¤¤ à¤¾à¤¯à¤¾
à¤Ĥà¤ķ à¥įà¤¶à¤¨
Ġà¤¬ à¤Ĥà¤¦
à¤¹ à¤¨
Ġà¤īà¤¸ à¤¨à¥ĩ
Ġà¤Ľà¤¾à¤¤à¥įà¤° à¥ĭà¤Ĥ
Ġh a
Ġà¤²à¤¾à¤Ĺ à¥Ĥ
à¤¤ à¤¿à¤¹à¤¾à¤¸
à¥ ľ
Ġà¤ħ à¤ķà¥įà¤·
Ġà¤® à¤Ĥà¤¦
p ut
Ġà¤ī à¤®à¥įà¤®à¥Ģà¤¦
à¥ĭ à¤«
Ġà¤īà¤¤ à¥įà¤¸
Ġà¤ļà¥ģà¤¨ à¤¾à¤µ
" à¤®
Ġà¤¨ à¤¿à¤°
Ġà¤ķà¥ĥà¤· à¤¿
à¤ªà¥įà¤°à¤¶à¥įà¤¨ à¤ĥ
Ġà¤¤ à¤¾à¤ª
d u
à¥ĩà¤Ĥ à¤¡
Ġà¤® à¤ľà¤¬
à¤¶ à¥Ģà¤²
" "
Ġà¤ķà¥Ī à¤²
à¥ĥà¤Ĥà¤ĸ à¤²à¤¾
Ġà¤¸à¥įà¤¥à¤¾à¤ª à¤¿à¤¤
à¥ĩà¤¡ à¤¼
à¤¾à¤ķ à¤¾à¤°
à¤¸ à¤Ĥ
à¥ĩà¤Ĥ à¤Ĺà¥ĩ
Ġà¤¸ à¥Īà¤¨
Ġà¤¨ à¥Ī
Ġà¤¸à¤¹ à¤¾à¤¯
Ġà¤īà¤ªà¤¯à¥ĭà¤Ĺ à¤ķà¤°à¥įà¤¤à¤¾
Ġà¤¸à¤®à¤°à¥įà¤¥ à¤¨
Ġà¤¦à¥ĩà¤ĸ à¤¾
e w
Ġà¤ķ à¤¾à¤«à¥Ģ
à¥Ģ à¤ª
Ġà¤ľà¤¾à¤¨ à¤µà¤°
Ġà¤¸à¤Ĥ à¤¤
l ow
Ġà¤«à¤¼ à¤¿à¤²à¥įà¤®
à¤¾à¤° à¥įà¤¡
Ġp o
Ġà¤µ à¥Ģ
r it
Ġà¤ĸà¤¿à¤² à¤¾à¤«
à¥įà¤¯à¥Ĥ à¤Łà¤°
Ġà¤¸à¤ķ à¥įà¤·
Ġà¤¸ à¥ĩà¤Ł
à¤¨ à¤¿à¤ķ
à¤§ à¤¿
Ġà¤¸à¤ķà¥įà¤· à¤®
Ġa r
Ġà¤¸ à¤¾à¤¹à¤¿à¤¤à¥įà¤¯
Ġà¤Ńà¤µ à¤¿à¤·à¥įà¤¯
Ġà¤²à¤Ĺ à¤¤à¤¾
re ate
Ġf rom
.. ..
c c
à¥ «
Ġa d
Ġà¤Ĩ à¤¨à¥ĩ
à¥ģà¤ ģ
à¤¶ à¤¨
si t
um b
Ġà¤µà¤¾à¤ª à¤¸
ic al
Ġà¤ªà¥Į à¤§
Ġà¤¸à¥įà¤¥ à¤¾à¤¨à¥Ģà¤¯
Ġà¤¬à¥įà¤° à¤¿à¤Ł
Ġà¤Ĺ à¥ĭ
à¥Ĥà¤°à¥įà¤ ¤
Ġà¤ķ à¤µ
Ġà¤ĺ à¥ĭ
à¥Ī à¤Ł
ou r
à¤¨à¥įà¤ §
Ġà¤¸à¤® à¤¸à¥įà¤¯
i le
à¥Ģà¤¡ à¤¿à¤¯à¤¾
à¤Ł à¤¾
à¥ĩà¤² à¥Ģ
Ġà¤® à¤¶
Ġà¤¹à¤¿à¤¸ à¥įà¤¸à¤¾
. )
. -
al l
Ġà¤ķ à¥ģ
Ġà¤ħ à¤«
Ġà¤°à¤¿à¤ª à¥ĭà¤°à¥įà¤Ł
Ġà¤¸à¤Ĥ à¤¶
Ġà¤¥à¥Ģ à¤Ĥ
à¤ķ à¥įà¤¯à¤¾
ĠĠĠĠĠĠĠĠ ĠĠĠ
Ġà¤Ĩà¤® à¤¤à¥Įà¤°
à¥ĩ à¤Ĺ
Ġà¤ħà¤ª à¥įà¤°
Ġà¤ł à¥Ģà¤ķ
à¥Ģ à¤¤
à¤¾à¤ľ à¤¼
Ġà¤ĩ à¤ķ
à¤¾à¤¯ à¤²
Ġà¤¸à¥Ģ à¤®
oun t
Ġà¤® à¤¹à¥Ģ
Ġà¤ĸà¤°à¥Ģ à¤¦
Ġà¤¸à¤¹à¤¾à¤¯ à¤¤à¤¾
Ġà¤® à¤¾à¤ª
Ġà¤° à¤¿à¤ķ
à¤Ł à¥įà¤Ł
à¥ī à¤ª
im e
Ġà¤ľ à¥įà¤¯à¤¾à¤¦
Ġà¤µà¤¿à¤¸à¥įà¤¤ à¤¾à¤°
Ġà¤ħà¤¨à¥įà¤¤ à¤°à¥įà¤Ĺà¤¤
à¤īà¤¤à¥įà¤¤à¤° à¤ĥ
Ġà¤¸ à¥įà¤¨
1 00
Ġà¤ªà¤¹ à¤²à¤¾
Ġà¤¬ à¤¾à¤²
à¤ľ à¥Ģà¤µ
Ġà¤¹à¤¿à¤¸ à¥įà¤¸
Ġà¤¡à¤¿à¤ľ à¤¾à¤ĩà¤¨
ex t
a st
à¤° à¥Ĥà¤ª
Ġà¤¨ à¤®
Ġà¤« à¥įà¤²
à¤¿à¤¯ à¤¾à¤Ī
à¥ĩà¤¬ à¤²
Ġà¤ªà¥Ģ à¤Ľ
Ġà¤¸à¥ģ à¤µà¤¿à¤§
Ġà¤¸à¥įà¤µ à¤¤à¤Ĥà¤¤à¥įà¤°
à¤¾à¤ģ à¤ļ
Ġà¤ªà¥ģà¤° à¥ģà¤·
Ġà¤ªà¤¿à¤Ľ à¤²à¥ĩ
Ġà¤Ĩ à¤Ĥà¤§
Ġà¤¯ à¥Ĥà¤¨
a v
Ġà¤ª à¥ĥà¤¥
Ġà¤ļ à¤¯à¤¨
Ġà¤µà¥įà¤¯à¤¾à¤ª à¤ķ
Ġà¤¸à¤Ĥ à¤µ
Ġà¤µ à¥ĥà¤¦à¥įà¤§à¤¿
Ġà¤ļ à¤°
Ġà¤ķà¤® à¥Ģ
à¤®à¥ĩà¤Ĥ à¤Ł
à¥ĩà¤¶ à¤¾
à¤¨ à¤¿
Ġà¤ķ à¤°à¥įà¤®
à¥ĩà¤Ĥ à¤¦
Ġà¤¤ à¤²
an g
p h
à¤¿à¤ķà¥ĭ à¤£
Ġà¤Ńà¥Ĥà¤® à¤¿à¤ķà¤¾
Ġà¤Ĩ à¤¨
Ġà¤¦à¥ĩà¤¶ à¥ĭà¤Ĥ
à¤¤ à¤¿à¤¯à¥ĭà¤Ĥ
Ġà¤ªà¤° à¤¿à¤¯
c om
Ġà¤ªà¥įà¤°à¤¸ à¤¿à¤¦à¥įà¤§
à¤°à¥įà¤ §
à¥ī à¤Ĺ
à¤¿à¤µ à¤¾à¤°
Ġà¤¤à¤ķà¤¨à¥Ģ à¤ķ
Ġà¤ħà¤¨à¥ģ à¤®à¤¤à¤¿
Ġh e
( à¤ħ
Ġà¤ĸ à¤¾à¤¦à¥įà¤¯
ation s
Ġà¤Ĩà¤Ĥà¤§ à¥įà¤°
Ġà¤ı à¤Ĥà¤¡
à¤ª à¤¤à¤¿
Ġà¤¬à¥Ī à¤ł
à¤ı à¤¨
ĠĠĠĠ Ġ
Ġà¤¸à¥įà¤Ł à¥įà¤°
i al
Ġà¤Ĩ à¤°à¥įà¤¥
Ġà¤¸ à¥ī
à¥ĭ à¤°à¥Ģ
Ġà¤¸ à¥ģà¤Ŀ
Ġà¤ı à¤¡
à¤® à¤¤
à¤¸ à¤¾à¤¨
Ġà¤¬ à¥ī
Ġà¤¶ à¤¤
Ġà¤® à¥ĥà¤¤à¥įà¤¯à¥ģ
à¤¤ à¤¾à¤²
Ġà¤µà¤¾à¤¸à¥įà¤¤ à¤µà¤¿à¤ķ
Ġà¤ķà¥ĭà¤¶ à¤¿à¤¶
p s
Ġà¤¦à¥ĭ à¤¸à¥įà¤¤
Ġà¤¸à¤®à¥ģà¤¦ à¤¾à¤¯
âĢ ĵ
Ġà¤ķ à¤ł
Ġà¤¸ à¤¿à¤¸à¥įà¤Ł
od e
ic e
Ġ r
Ġà¤ķ à¥įà¤µ
Ġà¤¬ à¥ĩà¤Ł
Ġà¤ľà¥Ī à¤¸à¥Ģ
4 0
Ġà¤µà¥įà¤¯à¤µ à¤¹à¤¾à¤°
b le
à¥ī à¤°à¥įà¤®
Ġà¤¶à¥įà¤° à¥ĥà¤Ĥà¤ĸà¤²à¤¾
à¤¬ à¤²
à¥ĩà¤ ļ
Ġ O
Ġà¤®à¤Ĥà¤¦ à¤¿à¤°
à¤¾à¤Ĺ à¤°
Ġà¤ķ à¥Īà¤Ĥ
Ġà¤¹à¤® à¥ĩà¤¶à¤¾
à¥ ª
Ġà¤ªà¥ĭà¤°à¥įà¤Ł à¤²
à¥įà¤µ à¤°
as e
for m
à¥įà¤ Ń
Ġà¤ķ à¥ĥà¤ªà¤¯à¤¾
Ġà¤ľà¤¿à¤¨à¥įà¤¹ à¥ĩà¤Ĥ
Ġà¤° à¤ķà¥įà¤¤
Ġà¤Ĳ à¤¸à¥Ģ
à¤¿à¤¨ à¤¿à¤§
o o
à¤µ à¤°à¥įà¤ķ
à¥Ģà¤ķ à¥ĥà¤¤
à¥Īà¤ķ à¥įà¤¸
Ġà¤®à¥Īà¤Ĥ à¤¨à¥ĩ
Ġà¤µà¤°à¥įà¤£ à¤¨
Ġ at
2 1
Ġà¤īà¤¸ à¤ķà¤¾
Ġà¤¯à¥Ĥà¤° à¥ĭà¤ª
Ġà¤Ĩà¤ª à¤ķà¤¾
Ġà¤ªà¤¾à¤° à¥įà¤Łà¥Ģ
Ġà¤°à¤ĸ à¤¤à¥ĩ
Ġà¤ĺ à¤Ĥà¤Ł
Ġà¤²à¤Ĺ à¤¾
Ġà¤ķ à¤¾à¤Ĥ
Ġà¤¸à¥Ģ à¤®à¤¾
Ġà¤µ à¤¾à¤°
à¤¾à¤ª à¤¨
Ġà¤¬ à¤¸
à¤ ĳ
Ġà¤µà¥įà¤¯à¤ķà¥įà¤¤ à¤¿à¤Ĺà¤¤
Ġà¤¸à¥ģà¤° à¤ķà¥įà¤·à¤¿à¤¤
à¤¾à¤ģ à¤ķà¤¿
ar y
th er
Ġp l
Ġà¤Ĩ à¤¬
à¥ģà¤² à¤¾à¤Ī
Ġà¤ĩà¤¸ à¥įà¤¤
à¥Ĥ à¤Ĥ
à¥įà¤Ĺ à¥ĭà¤°
à¤¿à¤¯ à¤²
à¤¿à¤ķ à¥ĩà¤Ł
Ġà¤¹à¥ĭà¤Ĥ à¤Ĺà¥ĩ
Ġà¤ª à¤¿à¤¤à¤¾
à¤¾à¤¯ à¥Ģ
à¤Ĥ à¤ªà¤°
à¥Į à¤¦à¥įà¤¯à¥ĭà¤Ĺ
Ġà¤¸à¤®à¥Ģ à¤ķà¥įà¤·à¤¾
Ġà¤®à¤¾à¤® à¤²à¥ĩ
Ġà¤¸ à¥Į
Ġà¤¸à¤®à¥įà¤® à¤¾à¤¨
I n
Ġà¤¸ à¥Ĥà¤°
Ġà¤ī à¤®à¥įà¤°
Ġà¤¸à¤Ĥà¤Ńà¤¾à¤µ à¤¨à¤¾
à¤Ĥ à¤ľà¤¨
à¥ĩà¤¦ à¤¨
r int
u b
Ġà¤¸à¤¾à¤° à¥įà¤µ
à¤Ł à¥įà¤°
à¤¥ à¤®
Ġà¤ªà¥Ĥà¤° à¥ĩ
Ġà¤² à¤¾à¤²
à¥ĭà¤§ à¤¿à¤¤
Ġà¤ªà¥įà¤°à¤¤ à¤¿à¤¨à¤¿à¤§
Ġà¤īà¤¦ à¥įà¤¯à¥ĭà¤Ĺ
Ġà¤ľ à¤¾à¤²
à¤°à¥įà¤ ª
Ġà¤Ĺ à¤¤à¤¿
Ġà¤®à¥ĩà¤° à¥ĩ
Ġà¤µà¤¿à¤Ń à¤¾à¤ľ
Ġà¤¨ à¥ĩà¤Ł
Ġà¤¸à¤ķ à¤¾à¤°
Ġà¤Ĩà¤§à¤¾à¤° à¤¿à¤¤
Ġà¤¸à¤¿à¤¸à¥įà¤Ł à¤®
Ġà¤¦à¤¶ à¤ķ
à¥įà¤¯ à¤¾à¤¸
à¤® à¤¨
à¥ĭà¤ľ à¤¿à¤¤
Ġà¤µà¤¿à¤§ à¤¾à¤¨
Ġà¤¸à¤ķà¤¾à¤° à¤¾à¤¤à¥įà¤®à¤ķ
Ġà¤® à¤¿à¤¨
Ġà¤ª à¤¾à¤¯à¤¾
à¤ķà¥įà¤°à¤® à¤£
o us
Ġà¤¤ à¤¥
à¤¸ à¤Ĥà¤ĸ
à¤Ł à¤¿à¤²
Ġà¤¨à¥įà¤¯ à¤¾à¤¯
Ġà¤¸à¤¹ à¤¯à¥ĭà¤Ĺ
d er
Ġà¤Ĩà¤ķ à¤°à¥įà¤·
à¤¾à¤¹ à¥Ģ
Ġà¤¸à¤¿à¤¦à¥įà¤§ à¤¾à¤Ĥà¤¤
" )
Ġà¤Ń à¥Į
à¤Ł à¤²
Ġthe ir
à¤¦ à¤®
à¤Ĺ à¤¢à¤¼
Ġà¤Ĺà¤£ à¤¨à¤¾
Ġà¤¤à¤¾à¤ª à¤®à¤¾à¤¨
Ġà¤¸à¤Ĥà¤ķà¥ĩ à¤¤
Ġà¤¸à¤® à¤¾à¤ªà¥įà¤¤
Ġà¤ªà¥įà¤°à¤¤à¤¿à¤ķà¥įà¤° à¤¿à¤¯à¤¾
Ġà¤Ĺ à¤²
Ġà¤¤ à¤Ł
2 4
Ġà¤ĩà¤¸ à¥Ģ
Ġà¤Ń à¥ĩà¤ľ
Ġà¤ľ à¤¿à¤²à¤¾
Ġà¤ªà¥įà¤°à¤¸à¥įà¤¤ à¥ģà¤¤
à¤ľ à¤¾
Ġà¤ľ à¥įà¤ŀà¤¾à¤¨
Ġà¤¶à¤¤ à¤¾à¤¬
Ġà¤¸ à¤µà¤¾à¤²
Ġà¤Ĩ à¤Ĺ
Ġà¤° à¥ĭ
Ġà¤ªà¥ĥà¤¥ à¥įà¤µà¥Ģ
Ġà¤µà¤¿à¤ ª
Ġà¤ª à¥ĥà¤·à¥įà¤ł
à¤ Ķ
id e
Ġà¤ķà¤Ĥà¤ª à¥įà¤¯à¥Ĥà¤Łà¤°
Ġ x
Ġà¤Ĺ à¤¾à¤Ĥ
Ġà¤ªà¤¹ à¥ģà¤ģ
Ġà¤¹à¤¾à¤² à¤¾à¤ģà¤ķà¤¿
Ġà¤¸à¤Ĥà¤Ńà¤¾à¤µ à¤¿à¤¤
à¤¶ à¥Ģ
r y
Ġ j
Ġà¤¸à¤Ĥà¤ª à¤°à¥įà¤ķ
à¤¬à¥įà¤² à¥įà¤¯à¥Ĥ
Ġà¤° à¤¾à¤¤
Ġà¤¨ à¥ģà¤ķ
Ġà¤¬ à¤¾à¤ľ
Ġà¤ªà¥įà¤° à¥Įà¤¦à¥įà¤¯à¥ĭà¤Ĺ
ak e
Ġà¤¦à¥ĥà¤·à¥įà¤Ł à¤¿à¤ķà¥ĭà¤£
Ġà¤ļà¥Ģ à¤ľ
Ġha ve
à¤¯ à¤°
à¤¿à¤Ń à¤¾à¤·
Ġà¤¨à¤¿à¤°à¥įà¤ £
à¤¾à¤Ĭ à¤ģ
Ġre s
ig ht
à¤µà¤¿à¤ķ à¤²à¥įà¤ª
Ġà¤Ĩà¤°à¥įà¤¥ à¤¿à¤ķ
Ġà¤īà¤¦à¥įà¤¦à¥ĩà¤¶ à¥įà¤¯
Ġà¤ħà¤¤ à¥įà¤¯
à¥įà¤¯ à¤¤à¤¾
à¤Ĺ à¤²
Ġà¤° à¥ĭà¤®
Ġà¤¦à¥įà¤µ à¥Ģà¤ª
à¤Ĥà¤¡ à¤²
Ġà¤ªà¥įà¤° à¤ľà¤¾à¤¤
Ġà¤¤à¤¾à¤² à¤¿à¤ķà¤¾
Ġà¤ĩ à¤Ĥà¤¡
à¤¸ à¤°à¥Ģ
Ġà¤¦à¥ĩ à¤¤à¥Ģ
Ġà¤ķ à¤¥
Ġà¤ª à¤¾à¤²à¤¨
Ġà¤° à¥Ĥ
à¤ļ à¤¾
( à¤ķ
Ġà¤¦à¥ĩà¤ĸ à¤¨à¥ĩ
Ġà¤¤ à¤¿à¤¥
à¥īà¤² à¤°
Ġà¤ļà¥ģà¤¨ à¥Į
à¤ªà¥įà¤° à¤¿à¤¯
Ġà¤®à¥Į à¤¸à¤®
Ġà¤ķ à¤²à¤¾
à¤ľà¤¨ à¤¿à¤ķ
à¤¨à¥ĩ à¤ķ
Ġyou r
Ġà¤ªà¥įà¤°à¤ķà¤¾à¤¶ à¤¿à¤¤
Ġà¤¨ à¤¿à¤¶à¥įà¤ļà¤¿à¤¤
à¥ĩà¤¦ à¤¾à¤°
ar d
Ġà¤¦à¤¿à¤ĸ à¤¾à¤Ī
Ġà¤ķà¥ģà¤® à¤¾à¤Ĭà¤ģ
à¥ĩà¤ķà¥įà¤Ł à¥įà¤°
Ġà¤ķà¤¾à¤° à¥įà¤¬
à¥ģà¤¨ à¤¿à¤ķ
2 2
Ġà¤µà¤¿à¤¤ à¥įà¤¤
Ġà¤¨ à¤¾à¤Ĺ
an ce
Ġà¤Ĩà¤¬ à¤¾à¤¦à¥Ģ
Ġà¤īà¤ª à¤ļà¤¾à¤°
Ġà¤°à¤¿à¤ķ à¥īà¤°à¥įà¤¡
Ġà¤¨à¤¾à¤® à¤ķ
à¤¨à¥įà¤¦ à¥įà¤°
à¥ĩ à¤¤à¤¾
Ġà¤¸à¤Ĥà¤Ĺà¤ł à¤¨
Ġm e
à¤¯ à¤Ĥ
Ġà¤Ĺ à¥ĭà¤²
c on
Ġà¤®à¤¶ à¥Ģà¤¨
à¤¸ à¤²
Ġà¤Ńà¥Ģ à¤¤à¤°
Ġà¤¤ à¤°à¥įà¤ķ
à¤¾à¤¸ à¥įà¤ķ
Ġà¤® à¤¾à¤²
f er
Ġà¤Ľà¥ĭà¤Ł à¥Ģ
à¤¾à¤° à¥įà¤Ł
Ġà¤¸à¤®à¥ģà¤¦ à¥įà¤°
à¤Ĥà¤§ à¤¾à¤¨
à¤¾à¤ļ à¥Ģà¤¨
at h
Ġ if
à¤¤à¥įà¤¤ à¤¿
Ġà¤¸ à¤¨
Ġà¤°à¤¹ à¤¤à¥ĩ
Ġà¤Ĩà¤¤ à¥įà¤®
à¥Ĥ à¤¬à¤°
à¤ķà¤¾à¤° à¤¾à¤¤à¥įà¤®à¤ķ
Ġà¤ľ à¥Ĥà¤¨
Ġà¤¶ à¤ķà¥įà¤¤à¤¿
à¤¸ à¤¤
à¤µ à¤¾à¤¯à¥ģ
à¤¿à¤¹ à¤¾à¤°
Ġà¤¶à¤¤à¤¾à¤¬ à¥įà¤¦à¥Ģ
à¤¿à¤ķ à¤¾à¤ĵà¤Ĥ
à¤¿à¤ķ à¤²
.. .
Ġà¤®à¤¹à¤¿à¤² à¤¾à¤ĵà¤Ĥ
à¤¶ à¥įà¤°
g r
Ġà¤µà¥įà¤¯à¤µ à¤¸à¤¾à¤¯
à¤® à¤°
à¤°à¥įà¤ £
Ġà¤Ĺà¥Ī à¤°
Ġà¤° à¥ĩà¤ĸ
Ġà¤ľ à¤Łà¤¿à¤²
ion s
Ġ Th
à¥ ®
Ġà¤¸à¤¾à¤® à¤¨à¥ĩ
Ġà¤ħà¤¨à¥ģ à¤ķ
Ġà¤¨ à¤¯à¤¾
Ġà¤¨à¥ģà¤ķ à¤¸à¤¾à¤¨
à¥įà¤¯ à¤¾à¤°
Ġà¤Ńà¥Ĥà¤® à¤¿
a p
Ġà¤ªà¥Ģà¤Ľ à¥ĩ
Ġà¤ľà¤¿à¤¨ à¤®à¥ĩà¤Ĥ
Ġà¤¨à¤¿à¤°à¥įà¤£ à¤¯
à¤¿à¤· à¥įà¤ł
Ġà¤¸ à¤ªà¥įà¤¤
Ġà¤ķ à¤¿à¤¨
Ġà¤µ à¤¨
Ġà¤²à¤Ĺ à¤¾à¤¨à¥ĩ
Ġà¤² à¤¾à¤ĩ
à¤Ĥà¤Ĺ à¤¾
Ġà¤¸à¤¾à¤°à¥įà¤µ à¤ľà¤¨à¤¿à¤ķ
Ġà¤ľ à¤¿à¤®
Ġà¤īà¤¤à¥įà¤¤ à¤°à¥Ģ
Ġà¤²à¤ķà¥įà¤· à¥įà¤¯
Ġà¤¸à¤Ĥ à¤ļà¤¾à¤°
Ġà¤ķà¥įà¤° à¤®
Ġà¤®à¥Ĥà¤²à¥įà¤¯ à¤¾à¤Ĥà¤ķà¤¨
Ġà¤ħà¤¨à¥ģà¤¸ à¤Ĥà¤§à¤¾à¤¨
Ġà¤® à¥Ģà¤¡à¤¿à¤¯à¤¾
Ġà¤ıà¤² à¥įà¤Ĺà¥ĭà¤°
Ġne w
à¤Ńà¤¾à¤° à¤¤
Ġà¤¶à¥Ģà¤°à¥įà¤· à¤ķ
Ġà¤ªà¥įà¤°à¤¶ à¤¿à¤ķà¥įà¤·
Ġus e
Ġà¤² à¤¿à¤¯à¥ĩ
à¤¨à¤² à¤¾à¤ĩà¤¨
Ġà¤« à¥ģà¤Ł
Ġà¤Ĩ à¤ĩ
à¥įà¤ķ à¤¿
Ġà¤¸ à¤¿à¤¤
Ġà¤¸à¤Ĥà¤ĸ à¥įà¤¯
à¤Ĺ à¥ĭà¤²
Ġà¤¦à¥Ĥ à¤¸à¤°à¥Ģ
Ġà¤¨à¤¿à¤¯à¤Ĥà¤¤à¥įà¤° à¤£
-à¤¸ à¤¾à¤¥
as s
à¥įà¤Ł à¥Ĥà¤¬à¤°
à¥ĩà¤® à¤¾à¤²
à¤ĸ à¤¿à¤®
Ġà¤ªà¥įà¤° à¥ĭà¤Ł
à¤¤à¤¿à¤¹à¤¾à¤¸ à¤¿à¤ķ
Ġà¤ľ à¥īà¤¨
Ġà¤° à¤¾à¤®
Ġà¤¸à¤¹ à¤¿à¤¤
à¤¾à¤¸ à¥įà¤Ł
ur n
Ġà¤® à¤°
at ed
Ġà¤¸à¤Ĥà¤¦ à¥ĩà¤¶
à¤°à¥įà¤ ²
Ġà¤īà¤²à¥įà¤² à¥ĩà¤ĸ
à¥ ¬
à¤¾à¤ķ à¤¿à¤¸à¥įà¤¤à¤¾à¤¨
Ġà¤² à¤¾à¤ĸ
Ġà¤ħà¤¨à¥ģà¤ķ à¥Ĥà¤²
Ġà¤ª à¤¾à¤Ĥà¤ļ
Ġà¤¸à¥ĩ à¤¨à¤¾
Ġà¤ĩà¤¸à¥įà¤¤ à¥ĩà¤®à¤¾à¤²
à¤¬ à¤¦à¥įà¤§
à¤ª à¤¾à¤²
Ġà¤ªà¥Ī à¤°
Ġà¤ĩ à¤Ĥà¤ľ
à¤Ĥ à¤¥
Ġà¤®à¤¹ à¤¸
Ġà¤ļà¤² à¤¤à¤¾
Ġà¤ªà¥Ĥ à¤Ľ
Ġà¤ªà¥įà¤° à¤¤à¥Ģ
Ġà¤¸à¤Ĥ à¤¸à¥įà¤¥à¤¾à¤¨
c es
à¥Ģà¤° à¥ĩ
Ġà¤¦à¤¿à¤² à¥įà¤²à¥Ģ
Ġà¤¤ à¤Ĥà¤¤à¥įà¤°
o st
Ġà¤° à¤£
Ġà¤®à¤¹à¤¸ à¥Ĥà¤¸
Ġà¤¸à¥ģà¤Ŀ à¤¾à¤µ
Ġà¤°à¤¾à¤ľ à¤¾
Ġà¤ķà¥īà¤² à¥ĩà¤ľ
Ġà¤ªà¤° à¤¿à¤Ńà¤¾à¤·
Ġà¤¨à¤¿à¤ķ à¤²
Ġà¤ķà¥Īà¤Ĥ à¤¸à¤°
Ġ i
Ġà¤ĺ à¤Łà¤¨
Ġà¤ķà¥įà¤° à¤¿à¤ķà¥ĩà¤Ł
à¤¿à¤¯ à¤¾à¤¨
Ġà¤ªà¥Ī à¤¦à¤¾
Ġà¤Ĺ à¤¢à¤¼
Ġà¤¬à¤² à¥įà¤ķà¤¿
Ġà¤¶ à¤¾à¤¯à¤¦
à¥ģ à¤¡
à¤µ à¤¿
Ġà¤ķ à¤Ł
à¤§ à¤¿à¤ķ
à¤¿à¤¸ à¥įà¤¥
Ġà¤ļ à¤¿à¤Ĥ
Ġà¤ķ à¤¿à¤²
à¤¬ à¥īà¤²
à¤µ à¥ĩà¤¯à¤°
Ġà¤ªà¥įà¤°à¤¬à¤Ĥà¤§ à¤¨
Ġà¤Ĺà¥įà¤°à¤¾à¤¹ à¤ķ
Ġà¤Ĺ à¤Ĥ
Ġà¤Ĺà¥įà¤° à¤¹
à¤īà¤Ł à¤ªà¥ģà¤Ł
l i
à¥įà¤° à¤¾
Ġà¤ħà¤µ à¤§à¤¿
Ġà¤ľà¥ĭ à¤ĸà¤¿à¤®
2 3
Ġ K
Ġà¤²à¥ĭà¤ķ à¤ªà¥įà¤°à¤¿à¤¯
à¤Ńà¥Ģ à¤°
Ġà¤¶à¥įà¤°à¥ĩà¤£ à¥Ģ
Ġw as
Ġà¤¸à¤Ĥ à¤ķ
à¥ Ń
Ġà¤¸ à¤¿à¤°
à¤¸ à¤Ńà¤¾
Ġà¤ħà¤ª à¤°
Ġt e
Ġà¤¬ à¤¨à¥Ģ
à¤« à¤²
k s
Ġw ill
Ġà¤Ĺ à¥ģà¤°
à¤¯ à¥Ģ
Ġà¤¡ à¥ī
à¤¿à¤¬ à¤Ĥà¤§
à¤ļ à¤°
à¤Ĺà¥įà¤° à¥ĩà¤¸
e f
Ġà¤¸à¤®à¤Ŀ à¤¨à¥ĩ
Ġà¤ľà¥Ī à¤¸à¤¾
Ġà¤¬à¤¾à¤¤ à¤ļà¥Ģ
à¥Ĥ à¤ķ
( à¤¸
Ġà¤ħà¤Ĥà¤Ĺà¥įà¤° à¥ĩà¤ľà¥Ģ
el l
Ġà¤¨à¥ĩà¤Ł à¤µà¤°à¥įà¤ķ
19 5
e p
à¤¾à¤° à¥įà¤ķ
Ġà¤ĩ à¤Ĥà¤Ĺ
o s
Ġà¤¹à¥Īà¤Ĥ à¤ĥ
- à¤°
Ġà¤¸à¤Ĥà¤° à¤ļà¤¨à¤¾
Ġà¤®à¥Į à¤ľà¥Ĥà¤¦
Ġà¤¤ à¥ĩà¤²
Ġà¤®à¤¹ à¤¾à¤¨
âĢ Ļ
Ġà¤ļ à¤²à¤¾
Ġà¤¬ à¥ĭà¤²
Ġà¤®à¥ģà¤¦ à¥įà¤¦
à¤¾à¤¨ à¥įà¤¤
Ġà¤¸à¤ªà¥įà¤¤ à¤¾à¤¹
r u
Ġà¤® à¤¾à¤¤à¤¾
Ġà¤ĸ à¥ĭ
Ġà¤² à¥Į
à¤ķà¥įà¤· à¥ĩà¤ª
Ġà¤¸à¤®à¤¸à¥įà¤¯ à¤¾à¤ĵà¤Ĥ
Ġà¤®à¤¾à¤° à¥įà¤ķ
Ġà¤°à¤¾à¤·à¥įà¤Łà¥įà¤° à¤ªà¤¤à¤¿
Ġs o
Ġà¤ªà¥įà¤°à¥Įà¤¦à¥įà¤¯à¥ĭà¤Ĺ à¤¿à¤ķà¥Ģ
cl ud
à¤Ķ à¤°
Ġà¤¨ à¤ķà¤¾à¤°à¤¾à¤¤à¥įà¤®à¤ķ
Ġà¤¨ à¤¿à¤·à¥įà¤ķ
à¤¾à¤¬ à¤¾à¤¦
Ġà¤° à¥ĩà¤²
Ġà¤¹ à¤¾à¤¸
Ġà¤°à¤ĸ à¥ĩà¤Ĥ
Ġà¤®à¤ľà¤¬ à¥Ĥà¤¤
Ġà¤¤ à¥Ģ
Ġà¤® à¥ĭà¤Ł
Ġà¤ªà¥įà¤°à¤µ à¥ĩà¤¶
à¤µ à¤¾à¤¦à¥Ģ
Ġà¤Ĺà¤Ĥ à¤Ńà¥Ģà¤°
Ġà¤¸à¤Ĥ à¤¯
à¤« à¥įà¤Ł
Ġà¤² à¥ī
Ġà¤²à¤Ĥà¤¬ à¥ĩ
à¥Īà¤ķ à¥įà¤Ł
à¤ķ à¥įà¤ķ
= "
Ġà¤²à¥ĩà¤ĸ à¤ķ
à¤Ĥà¤Ń à¤¿à¤ķ
à¤¾à¤£ à¤¿à¤ķ
Ġà¤¡ à¥īà¤ķ
à¤Ĥà¤¤ à¤°
Ġà¤¸à¤¾à¤® à¤¨à¤¾
Ġà¤® à¥ĩà¤²
Ġà¤ªà¤°à¤¿à¤¯ à¥ĭà¤ľà¤¨à¤¾
Ġà¤¡ à¥īà¤²à¤°
à¤¾à¤ī à¤Ĥà¤¡
Ġà¤¸à¥įà¤¥à¤¾à¤ª à¤¨à¤¾
Ġà¤¦à¤¿à¤¨ à¥ĭà¤Ĥ
Ġà¤ľà¥Ģ à¤¤
Ġà¤¦ à¤¿à¤¶
Ġà¤¨à¤¿à¤°à¥įà¤ µ
Ġà¤®à¤¤ à¤²à¤¬
Ġà¤® à¥ĩ
à¤¬ à¤¹
Ġ si
Ġà¤ªà¥įà¤° à¤¾à¤ļà¥Ģà¤¨
Ġà¤¸ à¤Ńà¤¾
Ġà¤¦ à¤²
à¤¾à¤§ à¤¿à¤ķ
Ġà¤¸ à¤¡à¤¼
Ġà¤¤à¤¹ à¤¤
à¤ľà¤¼ à¤°
Ġà¤ĸ à¥ģà¤¶
- à¤ªà¥įà¤°
Ġà¤¹à¤¿à¤¨ à¥įà¤¦à¥Ģ
Ġà¤ľà¥įà¤¯à¤¾à¤¦ à¤¾
Ġà¤ķà¥ĭ à¤²
Ġà¤¬ à¤¿à¤ľ
à¤¦ à¤¯
Ġh as
Ġà¤¤à¤°à¥Ģ à¤ķà¤¾
à¤¾à¤¥ à¤®à¤¿à¤ķ
Ġ qu
Ġà¤ľà¤² à¤µà¤¾à¤¯à¥ģ
Ġà¤¦à¥ĩ à¤¨à¤¾
Ġa pp
à¥Ĥ à¤°à¥Ģ
Ġà¤¦ à¤°à¥įà¤ľ
Ġà¤² à¤ķà¥įà¤·à¤£
Ġà¤ªà¤¹ à¤²
Ġà¤®à¤¾à¤° à¥įà¤ļ
Ġà¤īà¤¸ à¤¸à¥ĩ
Ġà¤ı à¤ľ
à¤§ à¤¾à¤¨à¥Ģ
19 4
6 0
à¥įà¤° à¤¾à¤·à¥įà¤Łà¥įà¤°à¥Ģà¤¯
Ġà¤ľà¤¿à¤¨à¥įà¤¹ à¥ĭà¤Ĥà¤¨à¥ĩ
à¤Ĥà¤Ĺ à¥ĩ
Âł Âł
Ġà¤ªà¥įà¤° à¤¥à¤®
Ġà¤® à¥ĭ
Ġà¤¸à¥įà¤µ à¤¯à¤Ĥ
à¤¦ à¤°à¥įà¤¶
Ġà¤Ĺ à¥įà¤²
à¤¾à¤² à¤¿à¤¤
à¥Ī à¤ª
Ġà¤¬ à¤¿à¤Ĥà¤¦
Ġà¤« à¤²
Ġà¤ħà¤« à¥įà¤°à¥Ģ
- à¤Ĩ
Ġà¤¹à¤® à¤¾à¤°à¥Ģ
à¥ģà¤ ·à¥įà¤Ł
Ġà¤ķà¤° à¥Ģ
Ġcon t
Ġà¤µà¤¿à¤° à¥ĭà¤§
Ġà¤µà¤¹ à¤¾à¤ģ
Ġà¤¦ à¤¿à¤µ
Ġà¤µ à¤¾à¤¹
Ġà¤ĳ à¤¨à¤²à¤¾à¤ĩà¤¨
j ect
à¥Ī à¤°
Ġà¤Ĺà¥Ī à¤¸
-à¤ľ à¤¨à¥įà¤®
à¤ħ à¤ª
Ġà¤¸à¤ķ à¥įà¤°à¤¿à¤¯
Ġà¤ªà¥įà¤°à¤¦à¤°à¥įà¤¶ à¤¿à¤¤
Ġc l
à¥ĭà¤¤ à¥įà¤¸
à¤¾à¤Ĥ à¤¤à¤¿
à¤ª à¤¾à¤¸
à¤¾à¤£ à¥ģ
à¤¿à¤² à¥Ģ
Ġà¤ ĭ
or y
Ġà¤īà¤¤à¥įà¤ªà¤¾à¤¦ à¥ĭà¤Ĥ
à¥ģ à¤¸
Ġà¤µà¤¿à¤¶à¥ĩà¤· à¤ľà¥įà¤ŀ
Ġà¤ķ à¤¬
Ġà¤µ à¤ľà¤¨
Ġà¤® à¤¾à¤Ĥà¤Ĺ
Ġa b
Ġà¤²à¤¿à¤ĸ à¤¾
Ġà¤ĸà¤¿à¤² à¤¾à¤¡à¤¼à¥Ģ
Ġà¤ªà¤¹à¥ģà¤ģ à¤ļ
Ġà¤¸à¥Ģ à¤§
Ġà¤Ĺà¥ģà¤£ à¤µ
Ġà¤ī à¤ļà¤¿à¤¤
Ġà¤¤ à¥ĩà¤ľà¥Ģ
Ġà¤ıà¤²à¥įà¤Ĺà¥ĭà¤° à¤¿à¤¥
à¤¾à¤ī à¤¨
ac k
Ġà¤¬ à¥ģ
Ġà¤ľà¤¾à¤¨ à¤¤à¥ĩ
oun d
à¤¶ à¥ģ
Ġà¤¥ à¥ĭ
à¤ª à¤¨
Ġà¤Ĺà¤£ à¤¿à¤¤
Ġw or
Ġà¤ħà¤¸ à¥įà¤ª
Ġà¤Ĩ à¤¤à¤¾
Ġn umb
Ġà¤¸à¥ĩ à¤²
u p
Ġà¤¸à¤ķ à¥ĩà¤Ĥ
Ġà¤¬à¤ľ à¤¾à¤¯
Ġà¤¬ à¤¾à¤¯
Ġre t
Ġà¤Ķ à¤¸à¤¤
Ġà¤Ĳ à¤¤à¤¿à¤¹à¤¾à¤¸à¤¿à¤ķ
Ġà¤ķà¤¹ à¤¨à¤¾
Ġà¤ķ à¤¨
à¤¾à¤° à¤£
à¤¨à¥įà¤¹ à¥ĭà¤Ĥà¤¨à¥ĩ
w e
Ġà¤¨ à¤Ĥà¤¬à¤°
à¤¡ à¥įà¤¡
" à¤¸
Ġà¤µà¥įà¤¯à¤¾à¤ª à¤¾à¤°
Ġà¤Ĩ à¤¯à¤¾
Ġà¤Ĺ à¥įà¤°à¥Ģ
Ġà¤Ĩà¤§ à¥ģà¤¨à¤¿à¤ķ
à¤¦ à¥ĩà¤¶
re n
ic h
Ġà¤ĺà¤Ĥà¤Ł à¥ĩ
Ġà¤ķ à¤¾à¤ī
Ġà¤ħà¤Ĥà¤¤à¤° à¤¿à¤ķà¥įà¤·
Ġà¤¸à¤° à¤ķà¤¾à¤°à¥Ģ
Ġà¤°à¤¾à¤ľà¤¨à¥Ģ à¤¤à¤¿à¤ķ
Ġà¤¹ à¤¾à¤ģ
-------- --------
Ġà¤Ĺà¤¢à¤¼ à¤µà¤¾à¤²
Ġà¤®à¤¹à¥Ģ à¤¨à¥ĩ
à¤°à¥įà¤¤ à¥Ģ
Ġà¤®à¤¿à¤² à¤¤à¤¾
Ġà¤¸à¥įà¤µ à¤¸à¥įà¤¥
Ġn ot
à¤¸à¥įà¤Łà¥įà¤° à¥ĩà¤²
âĢ ĺ
Ġà¤¹ à¤¸à¥įà¤¤
Ġà¤Ĩ à¤²
Ġà¤Ĩ à¤ı
Ġà¤¸à¤¾à¤ Ŀ
Ġà¤Ń à¤Ĺ
à¤¾à¤ĩ à¤ª
Ġà¤¶à¥Ī à¤²à¥Ģ
Ġà¤ªà¥įà¤° à¤¾à¤¥à¤®à¤¿à¤ķ
Ġà¤ħ à¤Ĥà¤¦à¤°
Ġà¤¦à¥ĩ à¤µ
à¥ĩà¤Ł à¤°
Ġà¤° à¥ī
2 8
à¤Ń à¤¾à¤²
Ġà¤ľà¤° à¥Ĥà¤°
ĠS t
Ġà¤¸à¤° à¤²
à¥Ī à¤Ĺ
Ġà¤¸à¤Ĥà¤° à¤ķà¥įà¤·à¤£
à¤ª à¥ĥà¤·à¥įà¤ł
à¤¿à¤ª à¥įà¤¤
Ġà¤¸ à¤¾
Ġà¤ľ à¤®
Ġà¤¦à¥ĥ à¤¶à¥įà¤¯
à¤¯ à¤¾à¤¨
Ġà¤ı à¤¶
à¥ģà¤ ı
Ġà¤ħà¤µ à¤¸à¤°
M L
Ġà¤ªà¥įà¤°à¤Ńà¤¾à¤µ à¥Ģ
à¥ĩ à¤Ĺà¥Ģ
à¤¸à¤Ĥà¤ĸ à¥įà¤¯à¤¾
Ġà¤¦ à¤¬
Ġà¤«à¤¼ à¤¾à¤ĩà¤²
Ġsu ch
Ġà¤ħ à¤Ĥà¤ķ
à¤¾à¤°à¥Ģ à¤°à¤¿à¤ķ
ent s
à¥¦ à¥¦
Ġà¤ľ à¤°à¥įà¤®
Ġà¤Ĩà¤¸ à¤¾à¤¨
Ġ V
Ġà¤¹ à¤µà¤¾
Ġà¤¸ à¤ļ
Ġà¤¸ à¤Ł
à¥ī à¤°à¥įà¤ķ
à¤® à¥Īà¤Ĥ
à¥Ģà¤¨ à¤¿à¤¯à¤°
à¤¾à¤Ĥ à¤¤à¤°
Ġà¤ħà¤Ĺ à¤²à¥ĩ
à¥Ĥà¤°à¥įà¤¤ à¤¿
Ġà¤¶ à¤¿à¤µ
Ġà¤ļà¤°à¥įà¤ļ à¤¾
ĠĠĠĠĠĠĠĠ ĠĠĠĠĠĠĠĠ
Ġà¤¸à¤Ĥà¤¸à¥įà¤ķ à¤°à¤£
a ce
à¤Ńà¤¾à¤° à¤¤à¥Ģà¤¯
2 7
Ġà¤¡ à¤¬à¥įà¤²à¥įà¤¯à¥Ĥ
Ġà¤µ à¥Ģà¤¡
Ġà¤°à¤¹ à¤¤à¤¾
Ġà¤¤à¤¿à¤¥ à¤¿
Ġà¤¦à¥Ĥ à¤°à¥Ģ
Ġà¤° à¥ĩà¤¡
à¥ģà¤¤ à¥įà¤¤
Ġà¤« à¥Ģ
Ġà¤°à¤£ à¤¨à¥Ģ
Ġà¤²à¤¾à¤Ĺ à¤¤
a il
Ġà¤¸à¥įà¤¥ à¤²
on g
Ġw ord
Ġl ist
Ġà¤¶à¤¿à¤ķà¥įà¤· à¤ķ
Ġà¤¸à¤² à¤¾à¤¹
Ġà¤ı à¤ª
à¤ Ĭ
Ġal so
Ġà¤® à¤¿à¤¸
Ġà¤Ńà¤¾à¤µ à¤¨
Ġà¤ķà¤¾à¤Ĥ à¤Ĺà¥įà¤°à¥ĩà¤¸
Ġà¤® à¤¾à¤ģ
à¤¾à¤° à¥įà¤¥
Ġà¤ī à¤¡à¤¼
Ġà¤Ĺà¥ģ à¤ľà¤°
à¤¸à¤° à¥ĩ
Ġà¤¹ à¤¾à¤°
à¥ĭ à¤°à¥įà¤¡
Ġcom p
al y
Ġà¤® à¤²
Ġà¤ī à¤¨à¥įà¤¨
à¤ķà¤¾à¤² à¥Ģà¤¨
à¥ °
Ġs ent
Ġà¤«à¥Ī à¤¸
Ġà¤¨ à¤¿à¤Ĺ
Ġà¤¡à¥īà¤ķ à¥įà¤Łà¤°
à¤¤ à¥ģ
Ġà¤®à¤¿à¤¨ à¤Ł
Ġà¤¬ à¤¨à¥ĩ
Ġà¤®à¤¿à¤² à¤¾
à¤µà¤¿à¤ķà¤²à¥įà¤ª à¤ĥ
Ġà¤¬à¤¾à¤ľ à¤¾à¤°
Ġà¤Ĺà¥ģà¤£à¤µ à¤¤à¥įà¤¤à¤¾
à¥ĭ à¤²à¥Ģ
Ġus ing
is h
à¤¾à¤Ĥ à¤Ł
à¤µà¥įà¤¯ à¤µ
à¤¾à¤ľ à¥Ģ
c ri
Ġà¤ªà¤° à¤®
Ġà¤¡ à¤¿à¤Ĺ
Ġà¤®à¥Ģ à¤Łà¤°
Ġà¤ķ à¤¦à¤®
Ġà¤¬à¤¨ à¤¾à¤ıà¤Ĥ
à¤¸ à¤¿à¤ķ
Ġà¤¯à¥ĭà¤Ĺ à¥įà¤¯
Ġà¤ľà¤¨ à¤µà¤°à¥Ģ
Ġà¤Ĩà¤¯ à¥ģ
Ġà¤¨ à¤¿à¤¦
à¤¨ à¥ĩà¤Ł
Ġà¤ªà¥ĭ à¤¸à¥įà¤Ł
Ġà¤§ à¥įà¤µ
i k
à¤ķà¥įà¤· à¤¿à¤ªà¥įà¤¤
Ġà¤µà¤¿à¤¦ à¥įà¤¯
Ġà¤ķà¤¾à¤¨ à¥Ĥà¤¨
Ġà¤ªà¤° à¤¿à¤ļ
Ġà¤¶ à¤¾à¤°à¥Ģà¤°à¤¿à¤ķ
Ġà¤µà¥Ģà¤¡ à¤¿à¤¯à¥ĭ
Ġà¤ķà¥ĩà¤Ĥà¤¦à¥įà¤° à¤¿à¤¤
Ġà¤Ĩà¤¸ à¤¾à¤¨à¥Ģ
à¤°à¥įà¤ ĺ
Ġà¤¬à¥įà¤°à¤¿à¤Ł à¤¿à¤¶
l ic
Ġà¤® à¤Ľ
" à¤ħ
Ġà¤¯à¥ģ à¤µà¤¾
Ġà¤¹ à¤¿à¤Ĥ
à¤® à¥Īà¤¨
à¤· à¤¿à¤¤
n ame
Ġà¤¨à¥ĩ à¤¤
Ġà¤¬à¤¢à¤¼ à¤¾à¤¨à¥ĩ
Ġà¤¯à¥ĭà¤Ĺ à¤¦à¤¾à¤¨
à¥ĥà¤¤ à¥įà¤µ
Ġà¤®à¤¿à¤² à¥Ģ
Ġà¤ļ à¤¾à¤²
Ġà¤ľ à¥ĩ
à¥ĥà¤¤à¥įà¤¤ à¤¿
à¥įà¤¨ à¥Ģ
Ġà¤Ĩà¤¦ à¤®à¥Ģ
Ġà¤ª à¥ĩà¤¡à¤¼
à¤¾à¤¬ à¥ĩà¤¸
à¤²à¥įà¤ª à¤¨à¤¾
Ġà¤ķà¥Į à¤¶à¤²
à¤¤ à¤¾à¤¨
Ġà¤ĸ à¤Ĥà¤¡
Ġà¤¸à¤¾à¤ ķ
à¤£ à¤¾
Ġà¤ķà¤¾à¤° à¥įà¤¯à¥ĭà¤Ĥ
Ġà¤® à¤¿à¤Ł
Ġà¤ªà¤°à¥įà¤¯ à¤¾à¤ªà¥įà¤¤
e ar
Ġà¤ĩà¤¨ à¤ªà¥ģà¤Ł
Ġà¤« à¤°
Ġa cc
Ġà¤¦à¥ĩà¤ĸ à¤Ńà¤¾à¤²
Ġà¤¸à¤Ł à¥Ģà¤ķ
Ġà¤ļ à¥Ģà¤¨
à¤® à¥ĩà¤°
à¤ķà¥Ģ à¤¯
à¤¤ à¥įà¤¯
Ġà¤ľ à¥ģà¤²à¤¾à¤Ī
à¥ĥ à¤·à¥įà¤Ł
à¤Ĺ à¤£
à¥įà¤° à¤®
Ġà¤Ĩà¤¸ à¤ªà¤¾à¤¸
Ġà¤¬à¤¨ à¤¾à¤¨à¤¾
Ġà¤¹à¤¿à¤¸à¥įà¤¸ à¥ĩ
à¥Ģ à¤ķà¤¾à¤°
Ġà¤īà¤ªà¤¯à¥ĭà¤Ĺ à¥Ģ
Ġà¤ħà¤§à¥įà¤¯ à¤ķà¥įà¤·
à¤°à¥įà¤Ń à¤°
Ġà¤§ à¤¨
Ġà¤ĺà¤Ł à¤¨à¤¾
Ġà¤¡à¤¿à¤Ĺ à¥įà¤°à¥Ģ
Ġà¤µ à¤¾à¤¤
à¤¸à¥įà¤ķ à¥ĥà¤¤à¤¿à¤ķ
Ġà¤µà¤¸à¥įà¤¤ à¥ģ
rit e
Ġà¤ľ à¥ī
à¤¾à¤ī à¤¸
g n
Ġà¤® à¤Ī
à¤¹ à¤°à¥Ģ
ar i
Ġà¤ªà¥įà¤° à¤§à¤¾à¤¨
Ġà¤® à¥Ģà¤²
Ġà¤¹à¤® à¤¨à¥ĩ
Ġà¤¦ à¤¸à¥įà¤¤
à¤¯ à¥ĭà¤Ĥ
à¤¹à¤° à¥ĩ
Ġà¤ĩà¤² à¥ĩà¤ķà¥įà¤Łà¥įà¤°
Ġà¤ļà¥Ģ à¤¨à¥Ģ
à¤² à¥Īà¤Ĥà¤¡
h e
Ġe m
201 2
Ġà¤µà¤¿à¤§ à¤¿
i re
Ġà¤¬à¤¾à¤¤à¤ļà¥Ģ à¤¤
Ġà¤ľà¤¿à¤¸ à¤¨à¥ĩ
Ġsh ould
Ġà¤ķà¤ł à¤¿à¤¨
Ġà¤¤ à¤¨
Ġà¤ķà¤¾à¤°à¥įà¤¯ à¤¾à¤²à¤¯
Ġà¤®à¥Ī à¤ļ
à¥ī à¤®
Ġà¤ĸ à¤¾à¤¨à¥ĩ
Ġà¤ħà¤Ń à¥įà¤¯à¤¾à¤¸
Ġà¤ªà¥įà¤°à¤¸à¥įà¤¤ à¤¾à¤µ
Ġà¤¦ à¤¿à¤¸
S t
Ġà¤¤à¤¥ à¥įà¤¯
Ġà¤ļ à¤®
Ġà¤Ľà¥ĭà¤Ł à¤¾
Ġà¤ªà¤ķ à¤¡à¤¼
Ġà¤ľà¤¾à¤² à¤ªà¥ĥà¤·à¥įà¤ł
Ġà¤µà¤¿à¤¶à¥įà¤µ à¤¾à¤¸
Ġà¤ħà¤ªà¥įà¤° à¥Īà¤²
Ġà¤ª à¤Ĥà¤ľ
2 6
à¤µ à¤¨
Ġà¤µà¤¿à¤ ®
Ġc ode
Ġà¤ħà¤Ĥà¤¤à¤° à¥įà¤°à¤¾à¤·à¥įà¤Łà¥įà¤°à¥Ģà¤¯
Ġà¤¸à¥įà¤¥à¤¾à¤¨ à¥ĭà¤Ĥ
à¤ļ à¤ķ
Ġo ut
Ġà¤µà¥įà¤¯ à¤¾à¤ĸ
Ġà¤ļà¤¾à¤¹ à¤¤à¤¾
Ġà¤°à¤ĸ à¤¨à¤¾
à¤ľ à¤¾à¤°
Ġà¤Ń à¤¿à¤¨à¥įà¤¨
Ġà¤¨à¥ĩà¤¤ à¥ĥà¤¤à¥įà¤µ
Ġà¤® à¥Ĥ
( à¤®
" à¤ķ
Ġà¤µà¤¿à¤µ à¤¿à¤§
à¤°à¥įà¤ ¬
à¤¿à¤Ĥ à¤ķ
à¤² à¤¨
Ġà¤¬ à¥Īà¤Ĥà¤ķ
à¤¯ à¥Ĥ
Ġà¤¸à¥Ĥ à¤¤à¥įà¤°
Ġà¤¸ à¥ĩà¤Ĥà¤Ł
Ġp re
Ġà¤¡à¥ĩà¤Ł à¤¾à¤¬à¥ĩà¤¸
Ġc ol
à¤¸à¥įà¤µ à¥Ģà¤°
Ġà¤® à¥ģà¤¶
Ġà¤ħà¤Ĺ à¤¸à¥įà¤¤
Ġà¤ķà¥ĭ à¤°
Ġà¤¬à¤¤ à¤¾à¤¨à¤¾
à¤¿à¤¤ à¤¿
Ġret urn
( à¤ª
re at
à¤¾à¤£ à¥Ģ
à¥įà¤® à¤¿à¤ķ
à¤£ à¥Ģ
Ġà¤¸à¤® à¤¾à¤ļà¤¾à¤°
Ġà¤¯ à¥ģà¤Ĺ
on e
à¥ĭà¤® à¥Ģ
à¤¾à¤ ĵ
en er
Ġà¤¦à¥Ĥà¤¸à¤° à¤¾
u al
à¤¾à¤¸à¥įà¤¤ à¥įà¤°
Ġà¤ħ à¤Ĥà¤¡
Ġà¤«à¤¼ à¤Ĥà¤ķà¥įà¤¶à¤¨
Ġà¤¨ à¤¿à¤Ń
Ġà¤ľà¤¨ à¤¸à¤Ĥà¤ĸà¥įà¤¯à¤¾
à¤µà¤Ĥ à¤¶
Ġv al
Ġà¤¤à¤¤à¥įà¤µ à¥ĭà¤Ĥ
w ord
à¤µ à¤¾à¤ĵà¤Ĥ
Ġà¤¬à¥Ģ à¤®
à¤ļ à¤¿à¤¤à¥įà¤°
Ġà¤¸à¤¤ à¤¹
Ġà¤¸à¥įà¤µ à¥Ģà¤ķà¤¾à¤°
Ġà¤¬à¤¨ à¤¾à¤¤à¤¾
à¥ĩà¤Ł à¤¿à¤Ĥà¤Ĺ
it ion
Ġà¤µà¤¿à¤¦ à¥ĩà¤¶
à¥ģà¤ «
-à¤ķ à¤Ńà¥Ģ
Ġpro v
or s
à¤¿à¤ľ à¤¼
à¤¾à¤¤ à¤¾à¤°
Ġà¤° à¥ģ
à¥ī à¤°
Ġne ed
Ġà¤ªà¥įà¤°à¤¶à¥įà¤¨ à¤ĥ
Ġà¤¨à¤¾à¤Ĺ à¤°à¤¿à¤ķ
Ġà¤²à¥Į à¤Ł
à¥ĥ à¤¹
Ġà¤¹ à¤Ł
Ġà¤¬à¤¿à¤ľ à¤²à¥Ģ
à¥ĭ à¤ķà¥įà¤¤
Ġà¤¨à¤¿à¤¯à¤® à¤¿à¤¤
c k
- à¤²
Ġà¤ľà¤¿à¤® à¥įà¤®
à¥Ī à¤®
Ġà¤¤ à¤¸à¥įà¤µà¥Ģà¤°
Ġà¤ķà¤² à¤¾à¤ķà¤¾à¤°
( à¤ı
Ġà¤īà¤ªà¤ķà¤°à¤£ à¥ĭà¤Ĥ
Ġà¤ª à¤¾à¤ı
Ġà¤¨à¤¿à¤µ à¥ĩà¤¶
om e
Ġà¤ª à¥ĩà¤Ł
Ġà¤Ń à¤¾à¤Ī
Ġt ra
Ġim p
à¤¾à¤Ĥà¤Ĺ à¥įà¤²
Ġà¤® à¤¾à¤Ĥà¤¸
Ġà¤¨à¤¿ à¤°à¥įà¤Ńà¤°
à¤¿à¤¸ à¥įà¤ķ
Ġà¤¸à¥Ĥ à¤ļà¤¨à¤¾
Ġà¤¸à¤«à¤² à¤¤à¤¾
Ġà¤¤à¤°à¥Ģ à¤ķà¥ĭà¤Ĥ
à¤µ à¥ĩà¤Ĥ
Ġà¤¸à¤¾à¤Ĥ à¤¸à¥įà¤ķà¥ĥà¤¤à¤¿à¤ķ
Ġà¤ħà¤° à¤¬
Ġà¤Ĺà¤¤à¤¿à¤µà¤¿à¤§ à¤¿à¤¯à¥ĭà¤Ĥ
à¥įà¤ķ à¤¿à¤²
Ġà¤¸à¤Ĥ à¤ķà¥įà¤°à¤®à¤£
201 3
Ġà¤ķà¤¾à¤°à¥įà¤¬ à¤¨
Ġà¤µà¤¸à¥įà¤¤ à¥ģà¤ĵà¤Ĥ
Ġà¤¹à¤¾à¤¸ à¤¿à¤²
à¤µ à¤¿à¤¶
Ġà¤ĩà¤Ĥà¤ľ à¥Ģà¤¨à¤¿à¤¯à¤°
à¤¸à¥įà¤µ à¤°à¥Ĥà¤ª
Ġà¤® à¤¸à¥įà¤¤
T o
Ġà¤¸à¤¾à¤ķ à¥įà¤·
à¤¾à¤® à¤¾à¤£à¤¿à¤ķ
Ġà¤²à¤Ĺ à¤¾à¤¯à¤¾
Ġà¤ªà¥įà¤°à¤¶ à¤¾à¤¸à¤¨
Ġà¤¢ à¤Ĥà¤Ĺ
Ġà¤¬ à¤¿à¤¹à¤¾à¤°
Ġà¤¸à¤Ĥ à¤ķà¥įà¤·à¤¿à¤ªà¥įà¤¤
if ic
-à¤ª à¤¿à¤¤à¤¾
Ġà¤ľ à¥Ģà¤¨
Ġà¤ªà¥įà¤° à¥ĩà¤°
à¤¿à¤® à¥Ģ
Ġà¤¸à¥įà¤¥ à¤¿à¤°
Ġà¤Ł à¥ģà¤ķ
à¤ķ à¤°à¥Ģ
Ġà¤µ à¤¾à¤¯à¤°
Ġà¤ªà¥įà¤°à¤¾à¤° à¤Ĥà¤Ńà¤¿à¤ķ
Ġà¤Ĺ à¤ł
Ġà¤īà¤ª à¤¯à¥ģà¤ķà¥įà¤¤
ci al
Ġà¤ĵ à¤²
Ġà¤ľ à¤¾à¤ª
8 0
Ġà¤ľà¤¾à¤¨à¤µà¤° à¥ĭà¤Ĥ
Ġp er
Ġà¤ªà¥įà¤° à¤¾à¤®à¤¾à¤£à¤¿à¤ķ
Ġà¤®à¤¿à¤¶ à¥įà¤°
g or
à¤ľ à¤µà¤¾à¤¬
Ġà¤¸à¤Ĥà¤¸à¥įà¤ķ à¥ĥà¤¤à¤¿
Ġà¤ħà¤ļà¥įà¤Ľ à¥ĩ
Ġà¤ľà¥ģ à¤¡à¤¼à¥ĩ
Ġà¤® à¥ģà¤ķà¥įà¤¤
à¥ĥ à¤¦à¤¯
Ġin clud
) :
à¤¯ à¥īà¤°à¥įà¤ķ
Ġà¤®à¤¿à¤² à¤¤à¥Ģ
ol low
Ġà¤° à¥ĩà¤¸
à¥ĩà¤¶ à¥įà¤µà¤°
Ġà¤ª à¤¾à¤²
Ġd is
Ġà¤īà¤¨ à¤®à¥ĩà¤Ĥ
Ġà¤®à¥ģà¤¶ à¥įà¤ķà¤¿à¤²
Ġà¤®à¤¾à¤® à¤²à¥ĭà¤Ĥ
Ġà¤¦ à¤°à¥įà¤¦
Ġà¤ī à¤¸à¥Ģ
Ġà¤¶ à¤¾à¤¦à¥Ģ
20 10
Ġà¤²à¤Ĺ à¤¾à¤¤à¤¾à¤°
Ġà¤¸à¥ī à¤«à¥įà¤Ł
à¤¸ à¥įà¤²
Ġà¤® à¤Ĥà¤¤à¥įà¤°à¥Ģ
Ġà¤ĸ à¥ģà¤²
Ġà¤ķà¤Ĥà¤ª à¤¨
Ġà¤Ĺ à¥Ģà¤¤
Ġà¤µà¤¾à¤¤ à¤¾à¤µà¤°à¤£
à¤¿à¤ª à¥įà¤ª
à¥ĩ à¤µà¤°
à¥ģà¤ ħ
2 9
Ġà¤ķ à¥ģà¤¤à¥įà¤¤
Ġà¤ħà¤¨à¥ģ à¤ª
l es
Ġà¤¨ à¤¾à¤Ł
Ġà¤¸à¤®à¥ģà¤¦ à¥įà¤°à¥Ģ
Ġà¤¬ à¤°
à¤¾à¤¦ à¥ĩà¤¶
à¤¿à¤ķ à¥ĭà¤Ĥ
g et
Ġà¤¸à¤Ĥà¤ĺ à¤°à¥įà¤·
à¤īà¤¤à¥įà¤¤à¤° à¤¾à¤ĸà¤£à¥įà¤¡
Ġà¤¸à¤Ĥà¤¶ à¥ĭà¤§à¤¿à¤¤
201 1
Ġà¤¨à¤¿à¤·à¥įà¤ķ à¤°à¥įà¤·
Ġà¤¨à¤® à¥Ĥ
Ġà¤«à¥įà¤° à¤¾à¤Ĥà¤¸
Ġà¤ĳ à¤¸à¥įà¤Łà¥įà¤°à¥ĩà¤²
Ġà¤ħà¤ķ à¥įà¤Łà¥Ĥà¤¬à¤°
Ġà¤ª à¤¾à¤ķà¤¿à¤¸à¥įà¤¤à¤¾à¤¨
Ġà¤²à¥ĩ à¤¤à¥ĩ
Ġà¤¸à¥Ĥà¤° à¥įà¤¯
en g
à¤¯ à¤¦à¤¿
Ġh el
Ġà¤Ĩà¤¦ à¥ĩà¤¶
Ġà¤¨ à¥ĭà¤Ł
Ġà¤« à¥Īà¤²
à¤¿à¤ª à¥įà¤Ł
m s
Ġà¤ķ à¤ķà¥įà¤·à¤¾
Ġà¤µà¤¿à¤Ńà¤¾à¤ľ à¤¿à¤¤
Ġà¤Ĺà¤² à¤¤
Ġà¤ªà¤¡à¤¼ à¤¤à¤¾
Ġ ro
Ġà¤® à¥ģà¤ķ
Ġà¤ªà¤¶à¥įà¤ļà¤¿à¤® à¥Ģ
Ġà¤¸à¥įà¤µ à¤¾à¤¦
Ġà¤¸à¥Ģà¤® à¤¿à¤¤
Ġà¤¨ à¤°
à¤µ à¤¾à¤¹
Ġà¤ªà¤¾à¤° à¥įà¤ķ
à¥ ¯
Ġà¤Ĩà¤¨ à¤Ĥà¤¦
" à¤ıà¤ķ
Ġà¤ĸ à¤°à¥įà¤ļ
Ġd if
Ġà¤¶ à¥ĭ
à¤®à¥įà¤¬ à¤°
Ġà¤ªà¥įà¤° à¥ĭà¤¤à¥įà¤¸
Ġà¤¸à¤¡à¤¼ à¤ķ
à¤¶à¥įà¤µ à¤¿à¤ķ
h i
Ġà¤īà¤ªà¤¯à¥ĭà¤Ĺ à¤ķà¤°à¥įà¤¤à¤¾à¤ĵà¤Ĥ
à¤¿à¤· à¤¦
à¤Ĥà¤ªà¤° à¤¿à¤ķ
Ġà¤Ł à¥ĩà¤ķà¥įà¤¸
Ġà¤Łà¥įà¤° à¥ĩà¤¨
Ġà¤¶ à¤ķà¥įà¤¤
Ġà¤ĺà¥ĭ à¤·à¤£
Ġf ollow
Ġà¤ªà¥įà¤°à¤¤à¤¿à¤¨à¤¿à¤§ à¤¿à¤¤à¥įà¤µ
à¤ª à¥Ĥà¤°à¥įà¤µ
Ġà¤¸à¤Ĥ à¤µà¤¾à¤¦
à¤¿à¤¸ à¥įà¤ª
Ġà¤ĩà¤¨ à¤®à¥ĩà¤Ĥ
Ġà¤µà¤¿à¤¶à¥ĩà¤· à¤¤à¤¾à¤ĵà¤Ĥ
Ġà¤¤à¤ķà¤¨à¥Ģ à¤ķà¥ĭà¤Ĥ
Ġà¤¸à¥įà¤Ł à¥ĩà¤¶à¤¨
Ġà¤ķ à¤¾à¤Ł
ic t
à¤¹ à¥įà¤®
Ġà¤Ł à¥ĩà¤²
Ġà¤ħà¤§à¤¿à¤ķ à¤¾à¤°à¥Ģ
c ess
Ġà¤¬ à¥ģà¤²
à¥ĭà¤®à¥Ģ à¤Łà¤°
Ġà¤ªà¥įà¤°à¤¤ à¤¿à¤°
à¥įà¤¯à¥Ĥ à¤Ł
Ġà¤ħà¤¨ à¥ģà¤°
Ġà¤ħà¤§à¤¿à¤ķ à¤¤à¤®
Ġà¤¨à¤¿à¤¯à¤Ĥà¤¤à¥įà¤° à¤¿à¤¤
à¤¸à¥įà¤¥à¤¿à¤¤ à¤¿
Ġà¤µà¥įà¤¯à¤ķà¥įà¤¤ à¤¿à¤¯à¥ĭà¤Ĥ
Ġà¤¬ à¤°à¥įà¤«
201 4
Ġà¤¸à¤¾à¤Ŀ à¤¾
Ġà¤Ĺà¤¾à¤Ĥ à¤µ
à¤¸ à¥įà¤¯à¥ĭà¤Ĥ
Ġà¤Ĩ à¤¹à¤¾à¤°
Ġà¤¸à¤Ĥ à¤¸à¥įà¤¥
Ġà¤Ĺ à¤°à¥įà¤Ń
Ġà¤ĩà¤Ĥà¤Ĺ à¥įà¤²
Ġà¤¸à¤¾à¤° à¤¾à¤Ĥà¤¶
à¤°à¥Ģ à¤¤
à¤¾à¤¤ à¤ķ
Ġan aly
Ġà¤¶ à¤¾à¤¸à¤¨
am ple
Ġà¤¬à¤¦à¤² à¤¾à¤µ
Ġà¤Ńà¤Ĺ à¤µà¤¾à¤¨
à¤¾à¤µ à¤Ł
un ction
re e
Ġà¤®à¤¨ à¥ģà¤·
Ġà¤ķà¤°à¥Ģ à¤¬
Ġà¤Ł à¥ĩà¤¸à¥įà¤Ł
Ġà¤¬à¥Ģà¤® à¤¾à¤°à¥Ģ
Ġà¤Ń à¤¾à¤°à¥Ģ
Ġà¤ªà¤°à¤¿à¤µ à¤¹à¤¨
Ġà¤¤ à¥įà¤µ
Ġc reate
du ct
Ġà¤« à¥ĭà¤¨
Ġà¤ħà¤¸à¥įà¤ª à¤¤à¤¾à¤²
à¤¿à¤¯ à¤¸
Ġà¤¸à¥Ģà¤ĸ à¤¨à¥ĩ
Ġà¤ķà¥ģà¤® à¤¾à¤°
à¤¾à¤¸ à¤¾
Ġà¤Ĺ à¤¾à¤¯
à¥ĩ à¤ķà¥įà¤·
Ġà¤¹ à¥ĥà¤¦à¤¯
Ġà¤Ĩà¤° à¥ĭà¤ª
à¥ĭà¤² à¤¨
Ġs pe
Ġà¤Ĩ à¤¤à¥ĩ
res s
à¤¾à¤ļ à¤¨
Ġà¤¬à¥Ģ à¤ľ
- à¤ļ
ou g
Ġà¤®à¤¹ à¤¾à¤¸
à¤¿à¤Ł à¤²
Ġà¤ª à¤°à¥įà¤µ
Ġà¤¸à¤Ĥà¤¸à¤¾à¤§ à¤¨à¥ĭà¤Ĥ
Ġà¤®à¤¿à¤Ł à¥įà¤Łà¥Ģ
à¥Īà¤¨ à¤¿à¤ķ
Ġà¤ªà¥Ĥà¤°à¥įà¤µ à¥Ģ
Ġà¤² à¥ĩà¤Ĥ
à¥Ģà¤µ à¥Ģ
Ġà¤¸à¥īà¤«à¥įà¤Ł à¤µà¥ĩà¤¯à¤°
à¤¿à¤Ĥ à¤Ł
Ġà¤« à¤¿à¤²
à¤° à¥įà¤¯
Ġà¤µà¤¿à¤¶ à¤¾à¤²
Ġal l
à¤Ń à¥Ĥà¤®
Ġà¤ľà¥Ģà¤µ à¤¿à¤¤
Ġwh ich
à¤ľ à¤¿à¤ı
Ġà¤µà¤¿à¤ª à¤°à¥Ģà¤¤
_ _
od el
Ġà¤¯ à¥Į
Ġ Y
Ġm ore
à¤µ à¤°à¥įà¤¡
( à¤īà¤¤à¥įà¤¤à¤°à¤¾à¤ĸà¤£à¥įà¤¡
Ġà¤ļà¥ģà¤¨à¥Į à¤¤à¥Ģ
ch n
Ġà¤µà¤¿à¤ľ à¥įà¤ŀ
n ing
à¤¿à¤¸à¥įà¤¥ à¤¿à¤¤
Ġà¤°à¤¾à¤ľ à¤§à¤¾à¤¨à¥Ģ
Ġà¤Ŀ à¥Ģà¤²
Ġà¤° à¥ģà¤ª
3 5
Ġg o
à¤¤ à¥įà¤¯à¤¾
à¤¿à¤¡ à¤¼
i a
Ġà¤®à¤¸à¥įà¤¤ à¤¿à¤·à¥įà¤ķ
Ġà¤Ĭ à¤Ĥà¤ļ
Ġà¤¬à¤¢à¤¼ à¤¾à¤µà¤¾
à¤¯ à¤¸à¥įà¤ķ
Ġà¤¬à¤ľ à¥ĩ
iv en
Ġà¤Ľ à¤¹
Ġà¤Ĩà¤µà¤¶à¥įà¤¯à¤ķ à¤¤à¤¾à¤ĵà¤Ĥ
à¥ĩà¤¦à¤¨ à¤¶à¥Ģà¤²
Ġà¤īà¤ª à¤¾à¤¯
Ġà¤¸à¤¾à¤ §
ar k
Ġà¤¦à¤¿à¤¶ à¤¾
à¥ģ à¤µ
à¥ī à¤¸
Ġà¤¸ à¤¾à¤¤
à¤¾à¤ĩ à¤ľ
Ġà¤° à¤¾à¤¯
Ġà¤Ĭ à¤ģ
Ġà¤¬à¤¨ à¤¾à¤¤à¥ĩ
Ġà¤ķà¥įà¤² à¤¬
à¤¿à¤¨ à¥Ģ
Ġà¤¸à¥įà¤µà¤¤à¤Ĥà¤¤à¥įà¤° à¤¤à¤¾
Ġà¤ªà¤¾à¤° à¤Ĥà¤ªà¤°à¤¿à¤ķ
Ġà¤¬ à¤¿à¤ķ
Ġe ach
Ġà¤¸à¤¾à¤ ¬
Ġà¤Ĺà¥įà¤°à¤¾à¤¹ à¤ķà¥ĭà¤Ĥ
Ġà¤ªà¥Ī à¤Ł
Ġà¤µ à¥ĭ
à¤ī à¤¦
Ġà¤¨ à¤¿à¤ľ
Ġà¤ĸ à¤°à¤¾à¤¬
à¤ļ à¤¿
à¤® à¥ĩà¤²
Ġà¤ª à¤¾à¤ģà¤ļ
Ġà¤¤à¤¨ à¤¾à¤µ
Ġà¤¬ à¤¾à¤§
Ġà¤Ĩà¤¯ à¥ĭà¤ľà¤¿à¤¤
à¤¿à¤ľ à¥įà¤ŀà¤¾à¤¨
Ġà¤µà¤¿à¤¦à¥įà¤¯ à¥ģà¤¤
à¤ķ à¤²
Ġà¤ķà¥ģà¤ ¶
à¥ĩà¤· à¥įà¤ł
Ġà¤µà¥Ī à¤¶à¥įà¤µà¤¿à¤ķ
à¤§ à¥įà¤¯
Ġà¤µà¤¿à¤¤à¥įà¤¤ à¥Ģà¤¯
Ġà¤ķ à¤¿à¤¶
Ġà¤¨à¥įà¤¯à¥Ĥ à¤¯à¥īà¤°à¥įà¤ķ
Ġà¤¶ à¤¿à¤ķ
Ġà¤ªà¥įà¤°à¤® à¤¾à¤£
à¤² à¥ĩà¤Ł
Ġà¤ķà¤° à¥ĭà¤¡à¤¼
Ġà¤« à¥Ĥà¤²
Ġà¤¬à¤¿à¤Ĥà¤¦ à¥ģ
Ġà¤¸ à¤¿
à¤ĩà¤¨ à¤ªà¥ģà¤Ł
v al
Ġà¤¸ à¤ª
Ġà¤ª à¥įà¤¯à¤¾à¤°
cri pt
Ġà¤Ĺà¤¤à¤¿à¤µà¤¿à¤§ à¤¿
Ġà¤ī à¤²
Ġà¤ĺà¥ĭà¤·à¤£ à¤¾
à¤¾à¤ķ à¥įà¤·
à¤¿à¤¯ à¤¾à¤ĵà¤Ĥ
à¤¤à¥įà¤¤ à¥Ģà¤¸
Ġà¤ħà¤Ń à¤¿à¤¯à¤¾à¤¨
Ġà¤µ à¤¾à¤¯à¥ģ
- à¤¶
Ġà¤ħ à¤¨à¥ĩà¤ķ
à¤¾à¤ ĺ
Ġà¤¤ à¥ĩà¤ľ
Ġà¤¸à¤Ĥà¤¸à¤¾à¤§ à¤¨
à¥ģ à¤ľ
Ġà¤ªà¥įà¤°à¥ĩà¤° à¤¿à¤¤
f ul
Ġà¤ªà¥įà¤° à¥ĩà¤®
à¤® à¥ģà¤ĸ
Ġà¤® à¤ľ
Ġà¤° à¤ķà¥įà¤·à¤¾
Ġà¤¨à¤¿à¤ķ à¤Ł
Ġà¤ªà¤¾à¤ł à¥įà¤¯
à¤« à¥įà¤¤
à¥Ĥ à¤¡
Ġà¤ł à¤Ĥà¤¡
Ġà¤ª à¤¶à¥ģ
Ġà¤Ń à¥ģà¤Ĺ
Ġà¤ªà¥įà¤° à¥ĭ
Ġà¤® à¥ĩà¤°à¥Ģ
Ġà¤ľ à¤¿à¤¤
Ġà¤¸à¤¿à¤¤ à¤Ĥà¤¬à¤°
Ġus ed
Ġà¤ķà¥Ī à¤°
à¥Ģà¤² à¥įà¤¡
Ġà¤® à¤ķ
à¤°à¥įà¤¨ à¤¿à¤Ĥà¤Ĺ
Ġà¤¸à¤¦ à¤¸à¥įà¤¯à¥ĭà¤Ĥ
Ġin ter
Ġà¤° à¥Ģ
4 5
à¤¾à¤ľ à¥įà¤¯
Ġà¤®à¤¾à¤¨ à¤¸à¤¿à¤ķ
à¤¸ à¤Ĥà¤Ĺ
e y
à¤¿à¤¯ à¥ĭà¤Ĺ
Ġà¤®à¤¹ à¤¾à¤°
Ġà¤ªà¥įà¤° à¤¸à¤¾à¤°
à¥¨à¥¦ à¥¦
Ġà¤¨ à¤¿à¤®à¥įà¤¨
" à¤¬
7 0
à¤¾à¤® à¤¾
Ġà¤ĺ à¤¾à¤Ł
le ct
Ġà¤°à¤¾à¤ľ à¥įà¤¯à¥ĭà¤Ĥ
) )
as ed
Ġà¤ıà¤ķ à¤¤à¥įà¤°
Ġà¤® à¥Īà¤ķ
à¤ĩà¤¸ à¤ķà¥ĩ
Ġà¤¬à¤¨ à¤¾à¤Ī
Ġà¤¸à¥ĩà¤µ à¤¾à¤ĵà¤Ĥ
ve lo
" à¤µ
Ġà¤® à¥Īà¤¨
Ġà¤¬ à¤¾à¤µ
9 0
Ġà¤¤à¤ķà¤¨à¥Ģ à¤ķà¥Ģ
Ġà¤°à¤ĸ à¤¤à¤¾
Ġà¤ıà¤ķ à¤²
: //
Ġà¤ª à¤¡à¤¼à¤¾
Ġà¤ªà¥įà¤°à¤ķ à¥ĥà¤¤à¤¿
Ġà¤® à¤¾à¤ĩ
Ġà¤ªà¥įà¤° à¤Ĺ
" à¤¦
f t
¢ à¤¼
à¥ĭ à¤°à¥įà¤¨
à¥ģ à¤£
Ġà¤¨à¥ĩ à¤¤à¤¾
Ġà¤®à¤¾à¤¨ à¤ķ
Ġà¤ªà¥ģà¤° à¤¾à¤¨à¥ĩ
gr am
à¤ī à¤ª
Ġà¤¨à¤¿à¤µ à¤¾à¤¸
à¥ĩà¤ ¥
Ġà¤¸à¤¾à¤ «
Ġà¤ªà¥įà¤° à¥ĭà¤«
Ġà¤µà¥įà¤¯ à¤¾à¤µ
Ġà¤ª à¤Ł
ust om
Ġà¤ªà¤°à¤¿à¤£à¤¾à¤® à¤¸à¥įà¤µà¤°à¥Ĥà¤ª
Ġà¤ªà¥įà¤°à¤¶à¤¿à¤ķà¥įà¤· à¤£
Ġà¤° à¥ĭà¤ľ
i e
Ġà¤« à¥ĭà¤Ł
Ġà¤¦à¤¸à¥įà¤¤ à¤¾à¤µ
Ġà¤® à¤¸
Ġad d
Ġà¤µà¥įà¤¯à¤µ à¤¸à¥įà¤¥à¤¾
o v
Ġà¤ĸ à¤¼
Ġà¤ªà¥Īà¤Ł à¤°à¥įà¤¨
Ġà¤¦à¤¿à¤¸ à¤Ĥà¤¬à¤°
Ġà¤¹à¥ĭ à¤ķà¤°
à¤¾à¤ķ à¥Ģ
Ġà¤µà¤¿à¤¦ à¥įà¤¯à¤¾à¤²à¤¯
= =
Ġà¤ª à¤Ĥ
Ġà¤Ĩ à¤Ĥà¤¤
Ġà¤° à¤¸
Ġà¤ľà¤¨ à¤¤à¤¾
à¤¾à¤Ĥà¤Ĺà¥įà¤² à¤¾à¤¦à¥ĩà¤¶
Ġà¤¸à¥ģ à¤Ĥà¤¦à¤°
à¤¨à¥įà¤¯ à¤¾à¤¸
ang u
à¥Ĥ à¤·à¤£
a x
à¤ľ à¤¹
Ġt ime
Ġà¤ķà¤¾à¤° à¥įà¤¡
Ġà¤ªà¤°à¤¿à¤£à¤¾à¤® à¥ĭà¤Ĥ
à¤¸à¥Ģ à¤¸à¥Ģ
à¤¿à¤ķ à¤¨
Ġf e
Ġà¤¸à¤®à¤Ŀ à¥Į
Ġà¤ħà¤¤à¥įà¤¯ à¤§à¤¿à¤ķ
Ġà¤¨à¥Ī à¤¤à¤¿à¤ķ
Ġà¤Ńà¥ģà¤Ĺ à¤¤à¤¾à¤¨
à¥ĭà¤² à¥ī
. ,
à¤£ à¥ĭà¤Ĥ
à¤¿à¤¹ à¤¿à¤¤
à¤ļà¤¨ à¤¾à¤¤à¥įà¤®à¤ķ
à¤Ĺ à¤¾à¤°
Ġà¤¸à¤Ĥà¤ª à¤¾à¤¦
à¥Ĥ à¤¬
Ġit s
Ġà¤¸à¤Ĥà¤ĸà¥įà¤¯ à¤¾à¤ĵà¤Ĥ
Ġà¤ľà¤² à¥įà¤¦
Ġà¤¸à¤« à¥ĩà¤¦
Ġà¤¤à¤° à¤«
Ġà¤¸ à¤¾à¤Ĥà¤¸
200 9
ig h
Ġà¤¸à¤® à¥Ģà¤ķà¤°à¤£
Ġà¤ªà¥įà¤° à¤Ńà¤¾
à¥Į à¤¡à¤¼
ic s
Ġà¤µà¤¾à¤² à¥ĭà¤Ĥ
200 8
à¤ĸ à¥įà¤¯
p rint
à¤¾à¤ĩà¤¡ à¥įà¤°
Ġà¤ĩà¤Ĥà¤Ĺà¥įà¤² à¥Īà¤Ĥà¤¡
u res
Ġà¤¸à¥ģ à¤¬à¤¹
Ġà¤ªà¤¦à¤¾à¤°à¥įà¤¥ à¥ĭà¤Ĥ
- à¤«
Ġà¤ļà¤° à¤¿à¤¤à¥įà¤°
Ġà¤µà¤¿à¤ļ à¤¾à¤°à¥ĭà¤Ĥ
à¥įà¤µà¥Ģ à¤Ł
Ġà¤ħà¤ķ à¤¾à¤¦
Ġà¤«à¤° à¤µà¤°à¥Ģ
o p
Ġà¤ªà¤¤ à¥įà¤¨à¥Ģ
à¤° à¤¾à¤·à¥įà¤Łà¥įà¤°à¥Ģà¤¯
à¤¶ à¤¾à¤²à¤¾
Ġà¤¸à¤¿ à¤°à¥įà¤«
- à¤Ĩà¤°
it ies
Ġm an
ol og
Ġà¤¦ à¤¸
à¤¨à¥įà¤§ à¥įà¤°
Ġà¤° à¤¾à¤¸à¥įà¤¤
ra y
Ġà¤¬à¥įà¤° à¤¹à¥įà¤®
Ġà¤īà¤¤à¥įà¤¤à¤° à¤¾
à¤ļ à¤¸à¥įà¤ª
Ġà¤¨à¥Į à¤ķà¤°à¥Ģ
Q L
Ġà¤ªà¥įà¤² à¥ĩà¤Ł
Ġà¤¸à¥ĭ à¤¶à¤²
Ġà¤µ à¤Ĥà¤¶
Ġcom m
Ġà¤¦ à¥ģà¤ķ
Ġà¤µà¤¿à¤§à¤¾à¤¨ à¤¸à¤Ńà¤¾
à¤¾à¤¡ à¤¾
19 3
à¤ı à¤«
Ġà¤ħà¤ªà¤° à¤¾à¤§
Ġà¤¤à¥įà¤µ à¤ļà¤¾
à¤¾à¤¨ à¥ģ
Ġdif fer
Ġà¤® à¥ĩà¤¡
Ġà¤Ľ à¤¤à¥įà¤¤à¥Ģà¤¸
à¥ĭ à¤¦
à¤°à¥įà¤ľ à¤¨
Ġà¤¦ à¥įà¤°
à¥įà¤ ĸ
Ġà¤ļ à¤Ĥà¤¦à¥įà¤°
.... ....
Ġà¤Ī à¤¸
Ġà¤µà¤¿à¤® à¤¾à¤¨
Ġà¤ķà¥Ģ à¤®à¤¤
à¥ĩà¤¸ à¤°
Ġà¤ľ à¥įà¤ŀ
Ġà¤ĸ à¤¾à¤¨
à¤² à¥ĭà¤ķ
Ġà¤¯ à¤¾à¤¤
Ġà¤ķ à¥įà¤¯à¥Ĥ
Ġà¤°à¤¹ à¤¤à¥Ģ
ran d
Ġà¤°à¥ĭà¤ķ à¤¨à¥ĩ
Ġà¤ıà¤² à¥įà¤¬
Ġà¤¯à¤¹ à¥Ģ
Ġ up
Ġà¤¦à¤¿à¤² à¤ļà¤¸à¥įà¤ª
à¤°à¥įà¤® à¤¾
Ġà¤ľà¤² à¥įà¤¦à¥Ģ
Ġà¤ľ à¤Ĥà¤Ĺ
Ġà¤¨ à¤¿à¤ª
Ġà¤¦à¤¬ à¤¾à¤µ
Ġà¤¸à¥Ģà¤§ à¥ĩ
at es
Ġà¤ľà¤°à¥Ĥà¤° à¤¤
Ġe ff
Ġà¤¸à¤Ĥà¤Ńà¤µ à¤¤à¤ĥ
Ġà¤µà¤¿à¤§ à¤¾à¤¯à¤ķ
iz e
Ġà¤Ĩ à¤¤à¥Ģ
Ġà¤ľà¤¾à¤ı à¤Ĺà¥Ģ
Ġà¤¤ à¥ģà¤°
à¥įà¤ľ à¤¼
Ġà¤¸à¥ģà¤µà¤¿à¤§ à¤¾
Ġà¤¨à¤µ à¤Ĥà¤¬à¤°
Ġà¤¸à¤Ĥà¤µ à¥ĩà¤¦à¤¨à¤¶à¥Ģà¤²
à¤Ĥà¤¦ à¤¨
à¥ĩà¤Ĥ à¤ľ
Ġà¤ľà¤¼ à¤¿à¤²à¥ĩ
Ġnumb er
oo k
Ġà¤¸à¤®à¥Ĥà¤¹ à¥ĭà¤Ĥ
Ġà¤Ł à¥įà¤µà¥Ģà¤Ł
Ġab out
- à¤¨
Ġà¤ļ à¥ĩ
Ġà¤ļ à¥ĭà¤Ł
Ġà¤ķà¤¾à¤ī à¤Ĥà¤Łà¥Ģ
Ġà¤Ĩà¤µ à¤¾à¤¸
Ġd o
Ġà¤° à¤¾à¤¶
Ġà¤¡ à¥ĩà¤µ
Ġà¤¯à¥Ĥà¤°à¥ĭà¤ª à¥Ģà¤¯
Ġà¤µ à¥įà¤¹
e g
Ġà¤¶à¥ĭà¤§ à¤ķà¤°à¥įà¤¤à¤¾à¤ĵà¤Ĥ
Ġà¤µ à¤¯à¤¸à¥įà¤ķ
Ġà¤Ĺ à¤¯à¥Ģ
ĠH T
à¥§à¥ ®
à¤Ńà¥Ĥà¤® à¤¿
à¤¾à¤¯ à¤¾à¤®
à¤¬ à¤°à¥įà¤Ĺ
Ġà¤ª à¤Ĥà¤ļ
Ġà¤µà¤¿à¤·à¤¯ à¥ĭà¤Ĥ
( '
Ġà¤ħà¤Ĥà¤¤ à¤¤à¤ĥ
Ġà¤² à¤°à¥įà¤¨à¤¿à¤Ĥà¤Ĺ
Ġsent ence
+ +
Ġà¤¬à¤¾à¤µ à¤ľà¥Ĥà¤¦
Ġà¤¬ à¥ģà¤¨
Ġà¤¸à¤® à¥įà¤¬
Ġà¤ķà¤¿à¤² à¥ĭà¤®à¥Ģà¤Łà¤°
o b
" à¤ª
Ġà¤® à¤Ĥà¤Ĺà¤²
à¥įà¤® à¤¾
w o
Ġà¤¸à¥įà¤¥à¤¿à¤¤ à¤¿à¤¯à¥ĭà¤Ĥ
Ġà¤¬ à¥ĩà¤²
Ġà¤¬à¤¨ à¤¾à¤ıà¤ģ
à¤® à¤¹
Ġà¤¦à¤ķà¥įà¤·à¤¿à¤£ à¥Ģ
Ġà¤ĩ à¤®à¤¾à¤°
Ġà¤§à¤¾à¤° à¥įà¤®à¤¿à¤ķ
Ġà¤Ĺ à¥ĩà¤Ĥà¤¦
à¤¸à¤® à¤¸à¥įà¤¯
Ġà¤ľà¤¨à¥įà¤® à¥ĩ
Ġà¤¹ à¤µà¤¾à¤Ī
à¤Ĥà¤§ à¤¨
ment s
à¤ľ à¤²
Ġà¤ªà¥ĩà¤¶ à¥ĩà¤µà¤°
A T
Ġà¤ħà¤¨à¥ģ à¤µà¤¾à¤¦
Ġà¤Ĺà¥įà¤° à¤¾à¤®
Ġà¤ħà¤µ à¤§à¤¾à¤°
gor ith
Ġà¤Ľ à¤µà¤¿
Ġà¤ªà¤° à¥ĩà¤¶
Ġà¤®à¥Į à¤¤
à¤ľà¤µà¤¾à¤¬ à¤ĥ
Ġà¤¬ à¤¾à¤¹à¤°à¥Ģ
Ġà¤ĺà¤Łà¤¨ à¤¾à¤ĵà¤Ĥ
velo p
Ġà¤Ńà¤¾à¤µ à¤¨à¤¾
Ġ user
Ġà¤ĩà¤Ĥà¤Łà¤° à¤¨à¥ĩà¤Ł
- à¤ıà¤ķ
à¥Ĥ à¤ł
ers on
Ġà¤¨à¥Ģ à¤¤à¤¿
Ġs c
à¤ķ à¤¤à¤¾
Ġint o
Ġà¤¬ à¥ĩà¤ļ
Ġà¤ķà¤¾à¤° à¥įà¤°
Ġte chn
al ly
Ġà¤ĳ à¤ķà¥įà¤¸
-- -
Ġà¤®à¤Ľ à¤²à¥Ģ
à¤° à¤¾à¤¨à¥Ģ
Ġà¤īà¤ª à¤Ń
à¤¾à¤¦ à¤¾
Ġà¤ħ à¤¸à¥įà¤¥
à¤¾à¤¨ à¤¿
Ġà¤ĩ à¤ļà¥įà¤Ľ
O N
Ġà¤¸à¤¾à¤® à¥įà¤°
à¤¾à¤¡à¤¼ à¤¿à¤¯à¥ĭà¤Ĥ
- à¤§
Ġà¤¨ à¤¾à¤°
Ġà¤Ĺ à¥ĩà¤®
* *
Ġhel p
à¤¨ à¥įà¤¤
à¤ı à¤ĥ
à¤¸à¤®à¤¸à¥įà¤¯ à¤¾à¤ĥ
Ġà¤Ĩ à¤Ĥà¤¦
Ġà¤¬à¤¢à¤¼ à¤¤à¥Ģ
ĠC reate
Ġà¤« à¤¾à¤°
Ġà¤Ĩà¤ª à¤¨à¥ĩ
à¥ ħ
à¤¾à¤ľ à¤¾
Ġà¤ķ à¤¹à¥Ģà¤Ĥ
Ġà¤Ĩ à¤Ĥà¤ķ
Ġà¤¸à¤¤ à¥įà¤¯
Ġà¤¬à¥ĭ à¤°à¥įà¤¡
à¤ļ à¤¾à¤°à¥Ģ
Ġà¤«à¥Īà¤¸ à¤²à¤¾
Ġà¤² à¤ķ
c ul
Ġà¤¸à¤Ĥà¤ļ à¤¾à¤²à¤¨
Ġà¤¸ à¥Įà¤°
Ġà¤ļ à¤ķà¥įà¤°
Ġà¤¡ à¤°
à¤¿à¤Ł à¤°
à¤¿à¤Ĥà¤Ĺ à¤Łà¤¨
Ġà¤¤à¤² à¤¾à¤¶
à¥ģà¤ħ à¤²
ĠTh is
Ġà¤ª à¥ī
Ġà¤¸à¥įà¤Łà¥įà¤° à¤¿à¤Ĥà¤Ĺ
Ġà¤ľà¤¿à¤¸ à¤ķà¥Ģ
Ġà¤¢ à¥Ĥà¤Ĥ
Ġà¤¦à¥įà¤µ à¤¿à¤¤à¥Ģà¤¯
Ġà¤ļ à¤Łà¥įà¤Ł
200 7
Ġà¤īà¤¦ à¥įà¤¯à¤¾à¤¨
à¤¡ à¥įà¤°
Ġà¤Ł à¤¿à¤ªà¥įà¤ª
Ġà¤¹à¥ĭ à¤¨à¥Ģ
Ġà¤ª à¥ĩ
Ġà¤ħà¤ª à¤¨
Ġthe m
Ġà¤¦ à¥Ģà¤µ
Ġà¤ĸà¥ĭà¤ľ à¤¨à¥ĩ
à¤¿à¤ľ à¥įà¤ŀ
Ġà¤¦ à¤µà¤¾
Ġs p
Ġà¤ķà¤° à¤¨à¥Ģ
à¥ĩà¤¶à¤¨ à¤²
ĠC h
Ġà¤ħà¤§à¤¿à¤ķà¤¾à¤° à¤¿à¤¯à¥ĭà¤Ĥ
à¤¸ à¥Ĥ
Ġà¤¬ à¥Į
à¥įà¤° à¤¿à¤ªà¥įà¤Ł
Ġà¤¡ à¤¾à¤¯
Ġà¤¹ à¤¿à¤®
Ġà¤²à¤Ĥà¤¬ à¥Ģ
Ġà¤¹à¤¿à¤¨ à¥įà¤¦
< <
Ġà¤¸ à¥įà¤²
à¤Ł à¤®
- à¤ıà¤²
Ġ X
à¤¾à¤¯ à¤¤
Ġà¤īà¤¤ à¥įà¤ķ
Ġp r
Ġà¤Ł à¥ĩà¤¬à¤²
Ġà¤® à¤¾à¤¸
à¤ĩà¤¸ à¤ķà¤¾
Ġà¤¤ à¤¾à¤°à¥Ģ
Ġb et
Ġà¤ķà¤µ à¤¿à¤¤à¤¾
Ġà¤¸ à¤¾à¤ĩ
Ġà¤ªà¥įà¤°à¤¤ à¤¿à¤¯à¥ĭà¤Ĺ
il ity
Ġà¤® à¤Ĥà¤¤à¥įà¤°
Ġà¤¦à¥ĩà¤Ĥ à¤ĥ
Ġà¤® à¥ĭà¤¹
Ġo ther
Ġà¤¬ à¥ĩà¤¸
Ġà¤¨à¤¿à¤ľ à¥Ģ
à¤¾à¤Ĥà¤¤à¤° à¤¿à¤¤
Ġà¤¸ à¤¿à¤²
Ġà¤®à¥Ī à¤¦à¤¾à¤¨
à¤ı à¤ļ
à¤¾à¤ĩ à¤¯à¥ĭà¤Ĥ
Ġà¤¬à¤¨ à¤¨à¥ĩ
z e
à¤« à¥Ģ
Ġà¤²à¥ĩ à¤¨à¤¾
Ġà¤ħà¤Ń à¤¿à¤µ
à¥ĩà¤ķ à¤°
Ġà¤²à¥ĩ à¤¤à¤¾
Ġà¤Ńà¥Į à¤¤à¤¿à¤ķ
Ġà¤¤à¥ģà¤° à¤Ĥà¤¤
Ġà¤ª à¥Īà¤ķ
Ġà¤ıà¤²à¥įà¤¬ à¤®
Ġfor m
Ġà¤²à¤Ĥà¤¬ à¤¾à¤Ī
à¤¿à¤ľ à¤¨
Ġà¤²à¥Ģ à¤Ĺ
Ġà¤²à¤¡à¤¼ à¤¾à¤Ī
à¤¹ à¤¾à¤²
à¤µ à¥Ī
l ine
Ġà¤ªà¥Įà¤§ à¥ĭà¤Ĥ
Ġà¤ªà¤¾à¤łà¥įà¤¯ à¤ķà¥įà¤°à¤®
Ġà¤ªà¤°à¥įà¤¯ à¤Łà¤¨
d e
Ġà¤ªà¥ģà¤°à¥ģà¤· à¥ĭà¤Ĥ
Ġà¤¶ à¤°à¤¾à¤¬
Ġà¤¸ à¤¾à¤¹
à¥ĩà¤ľà¤¼ à¥Ģ
Ġà¤¸ à¤¿à¤¨
Ġà¤¸à¤¾à¤®à¥įà¤° à¤¾à¤ľà¥įà¤¯
Ġà¤¹ à¥ĩà¤²
Ġà¤§ à¥ĭ
Ġim port
Ġà¤µà¤°à¥įà¤Ĺ à¥Ģà¤ķà¥ĥà¤¤
Ġà¤ħ à¤¥
Ġà¤ķà¤¾à¤°à¥įà¤° à¤µà¤¾à¤Ī
i qu
à¥ĩ à¤ķà¥įà¤·à¤£
Ġà¤¸à¤Ĥà¤¬à¤Ĥà¤§ à¥Ģ
à¤² à¤¿à¤¤
oug h
à¤ķà¥įà¤· à¤ķ
Ġà¤¨à¤¿à¤° à¤Ĥà¤¤à¤°
à¤¿à¤¨ à¤¿à¤¯à¤®
Ġà¤ļà¤¿à¤ķà¤¿à¤¤ à¥įà¤¸
Ġà¤¦à¥ĥà¤·à¥įà¤Ł à¤¿
Ġà¤ħà¤ķà¤¾à¤¦ à¤®à¥Ģ
ĠIn di
à¥ĩà¤¶ à¤ķ
Ġà¤¢à¥Ĥà¤Ĥ à¤¢
Ġà¤¸à¥ģ à¤ªà¤°
Ġà¤¬à¤¿à¤ķ à¥įà¤°à¥Ģ
d ata
Ġà¤¸ à¤¾à¤°à¥ĩ
à¥ģà¤ Ī
Ġà¤ľà¥ĭ à¤°
Ġà¤¸à¤Ĥà¤¤ à¥ģà¤²
Ġv ari
Ġà¤°à¥ĩà¤ĸ à¤¾
Ġà¤ķà¥ĭà¤¶ à¤¿à¤ķà¤¾à¤ĵà¤Ĥ
Ġà¤¹ à¥ī
Ġà¤ıà¤²à¥įà¤Ĺà¥ĭà¤°à¤¿à¤¥ à¥įà¤®
Ġà¤ªà¤° à¤¿à¤¸
Ġà¤ªà¤° à¤¿à¤·à¤¦
Ġs a
Ġà¤ªà¤°à¤® à¤¾à¤£à¥ģ
à¤¶ à¥įà¤®
Ġà¤µà¥įà¤¯ à¤¾à¤¯à¤¾à¤®
i b
Ġà¤īà¤ª à¤¨à¥įà¤¯à¤¾à¤¸
Ġà¤¬à¥Ģ à¤®à¤¾à¤°
Ġà¤¶ à¥ģ
Ġà¤ķà¤¾à¤° à¤ķà¥ĭà¤Ĥ
Ġà¤¬à¤¹ à¥ģ
Ġà¤ķ à¤¿à¤®à¥Ģ
à¤¹à¤° à¤¾
Ġà¤ªà¥įà¤°à¤£ à¤¾à¤²
_ t
à¥Ĥ à¤¨à¥Ģ
à¤® à¤¾à¤¤à¥įà¤°
à¥ĩà¤Ĥà¤¡ à¤°
Ġà¤¶ à¤¾à¤ĸ
Ġthe y
à¤¾à¤Ĺ à¤¤
Ġpro gram
Ġà¤Ĳ à¤ª
à¤¤ à¤¾à¤ıà¤Ĥ
ro w
at ing
- à¤Ĺ
Ġà¤ķà¤¹ à¤¾à¤ģ
à¤¾à¤° à¤ķ
à¤¾à¤Ĺ à¥įà¤°
à¥įà¤µà¥Ģ à¤ª
à¤¡à¤¼ à¤¿à¤¤
ĠI t
Ġà¤«à¥ģà¤Ł à¤¬à¥īà¤²
Ġf unction
Ġà¤¨à¤¿à¤¯ à¥ģà¤ķà¥įà¤¤
à¤°à¥Ģ à¤¯
Ġal gorith
à¥ĭà¤°à¥įà¤¨ à¤¿à¤¯à¤¾
à¤¤ à¤¾à¤ª
Ġà¤ªà¥įà¤°à¤¤ à¤¿à¤Ń
Ġà¤ķà¤¿à¤¤ à¤¾à¤¬
à¥ģà¤·à¥įà¤Ł à¤¿
ĠĠ čĊ
Ġà¤ªà¥įà¤°à¥ĭà¤¤à¥įà¤¸ à¤¾à¤¹à¤¿à¤¤
Ġà¤²à¤Ĺ à¥ĩ
Ġà¤®à¤¿à¤² à¤¿à¤¯à¤¨
angu age
à¤¾à¤° à¤¿à¤¶
à¤ķà¥įà¤· à¥įà¤®
o ve
Ġà¤ĩà¤² à¤¾à¤ľ
Ġà¤ªà¤¢à¤¼ à¤¨à¥ĩ
à¤¾à¤¸ à¤¾à¤¯
Ġà¤ĸ à¥ĭà¤²
le d
Ġà¤° à¤¸à¤¾à¤¯
u es
Ġà¤Ĺ à¥ģà¤²
Ġà¤ĩ à¤Ĥ
à¤§ à¥Ģ
Ġà¤ľà¤¹ à¤¾à¤ľ
Ġà¤Ł à¤¿à¤ķ
Ġà¤¬ à¤°à¤¾à¤¬
c re
Ġà¤ªà¥ģ à¤¤à¥įà¤°
ir st
Ġà¤ıà¤¶ à¤¿à¤¯à¤¾
Ġà¤ªà¥įà¤°à¥ĭà¤Ł à¥Ģà¤¨
Ġà¤¸ à¥ģà¤²
Ġà¤¤ à¤¯
Ġà¤¡ à¥ĩ
Ġà¤ļà¤°à¤£ à¥ĭà¤Ĥ
Ġà¤¬à¤¦à¤² à¤¨à¥ĩ
Ġà¤ªà¥įà¤°à¤¤ à¤¿à¤¬à¤Ĥà¤§
Ġà¤µà¤¾à¤¯à¤° à¤¸
Ġà¤¹ à¤¾à¤Ī
Ġà¤Ĩ à¤ł
Ġà¤¦à¤°à¥įà¤¶ à¤¾à¤¤à¤¾
Ġà¤ķà¤¿à¤¶ à¥ĭà¤°
Ġà¤ªà¤°à¤¿à¤Ńà¤¾à¤· à¤¿à¤¤
Ġà¤¸à¤®à¥įà¤®à¤¾à¤¨ à¤¿à¤¤
Ġc ustom
Ġà¤µà¥įà¤¯à¤¾à¤ĸ à¥įà¤¯à¤¾
Ġà¤ļ à¤¾à¤°à¥ĭà¤Ĥ
Ġà¤² à¤¾à¤ĩà¤¨
Ġà¤Ĩ à¤īà¤Łà¤ªà¥ģà¤Ł
" à¤¯à¤¹
at ive
Ġà¤ľà¥ī à¤°à¥įà¤ľ
à¤¾à¤µ à¤°
Ġà¤ªà¥įà¤°à¤Ńà¤¾à¤µ à¥ĭà¤Ĥ
Ġà¤¸à¤¨ à¥į
à¥ĭà¤¬ à¤¾à¤ĩà¤²
Ġà¤¤à¤¾à¤°à¥Ģ à¤ĸ
à¥įà¤Ł à¤¨
Ġà¤¡à¤¿à¤ľ à¤¼
à¤¾à¤¸à¤¾à¤¯ à¤¨à¤¿à¤ķ
à¤® à¤¾à¤¨à¥ĩ
Ġà¤¨à¤¿à¤ª à¤Ł
à¤°à¤¾à¤ľ à¥įà¤¯
Ġà¤¬ à¤Ĥà¤Ĺ
Ġà¤§ à¥Ģà¤°à¥ĩ
Ġà¤ļà¤² à¤¨à¥ĩ
Ġà¤ķà¤¿ à¤°
à¥Īà¤¨ à¤²
à¤¶à¥įà¤ļ à¤°à¥įà¤¯
Ġà¤ľà¥įà¤ŀ à¤¾à¤¤
- à¤ı
si s
Ġà¤ħà¤«à¥įà¤°à¥Ģ à¤ķà¤¾
à¥ĭà¤§ à¤¨
à¥ĩà¤² à¥Ĥ
Ġà¤¸à¤Ĥà¤ļ à¤¾à¤²à¤¿à¤¤
Ġà¤ı à¤¥
ar ch
Ġà¤® à¥ĩà¤ľ
Ġà¤ĩà¤¤ à¤¨à¤¾
3 1
Ġà¤ªà¤°à¥Ģ à¤ķà¥įà¤·à¤¾
Ġà¤¸à¥ĩ à¤ķ
Ġà¤¶ à¤¾à¤¨
Ġà¤¨à¤µ à¥Ģà¤¨
Ġà¤¸à¥įà¤°à¥ĭà¤¤ à¥ĭà¤Ĥ
à¤¿à¤§ à¤¨
at er
Ġà¤ªà¤¹ à¥ĩà¤²à¥Ģ
p on
à¤¹ à¤¾à¤ģ
Ġà¤¸à¥įà¤ª à¥ĩà¤¨
Ġà¤ķà¤°à¥įà¤® à¤ļà¤¾à¤°à¥Ģ
Ġà¤µà¤¿à¤µ à¤¾à¤¦
à¤¶à¥įà¤° à¥ĩà¤·à¥įà¤ł
Ġà¤µ à¤°
Ġà¤¸ à¤¿à¤«
Ġà¤² à¥Ī
Ġà¤°à¥ĩà¤² à¤µà¥ĩ
à¤¡ à¥ĩà¤Ł
à¥ĩà¤° à¥ĩ
à¥Īà¤Ĥ à¤ª
Ġà¤ķ à¤ķà¥įà¤·
er v
Ġà¤ħ à¤Ĥà¤¶
Ġo ver
à¤¨ à¤¾à¤ķ
Ġà¤Ĩà¤ª à¥Ĥà¤°à¥įà¤¤à¤¿
Ġà¤īà¤¨à¥įà¤¨ à¤¤
Ġà¤¹ à¤¤à¥įà¤¯à¤¾
9 9
Ġà¤§ à¤¾à¤¤
Ġà¤¬à¤¾à¤¯ à¥ĭ
Ġà¤ľà¤¿à¤¨ à¤ķà¥ĩ
Ġà¤¤ à¥Ĥ
Ġs et
7 5
Ġà¤Ĺà¥ģà¤° à¥ģ
à¤īà¤¦ à¤¾à¤¹à¤°à¤£
Ġd et
Ġà¤ħà¤¨à¥ģ à¤ªà¥įà¤°
Ġà¤¸à¥įà¤¤ à¤Ĥà¤Ń
Ġà¤Ĩà¤° à¤¾à¤®
Ġà¤¸à¤¾à¤¬ à¤¿à¤¤
Ġà¤ķà¥ī à¤®
| |
à¤¿à¤¯ à¤¾à¤¦à¥Ģ
à¥įà¤°à¥Ģ à¤®
d d
Ġà¤Ĩà¤Ĥà¤¦ à¥ĭà¤²à¤¨
Ġà¤¸ à¥ĩà¤Ĥ
Ġà¤¤à¥įà¤° à¥ģà¤Ł
Ġà¤¬à¤¤ à¤¾à¤¤à¤¾
Ġà¤¤ à¤¤
it s
Ġ id
à¤ī à¤¨à¥įà¤¹à¥ĭà¤Ĥà¤¨à¥ĩ
) .
à¤ª à¤¾
Ġà¤µà¤¿à¤ «
Ġà¤Ĺà¥įà¤° à¤¾à¤®à¥Ģ
Ġà¤¸à¤°à¥įà¤µ à¥ĩà¤ķà¥įà¤·à¤£
Ġà¤ļ à¤²à¥ĩ
à¤°à¥įà¤¤ à¤¨
Ġà¤®à¤¿à¤¶ à¤¨
Ġà¤¨à¤¿à¤°à¥įà¤µ à¤¾à¤ļà¤¨
5 00
Ġà¤¦à¤¿à¤ĸ à¤¾à¤¯à¤¾
Ġà¤®à¥ĩà¤° à¤¾
t d
Ġà¤µà¤¿à¤« à¤²
Ġà¤ħà¤°à¥įà¤¥ à¤µà¥įà¤¯à¤µ
Ġun der
Ġà¤¦ à¥Įà¤¡à¤¼
Ġch ar
à¤¾à¤® à¤¾à¤¨à¥įà¤¯
Ġà¤² à¤¿à¤Ĥà¤ķ
à¥ģà¤° à¤¾
Ġà¤¸ à¤¾à¤ĩà¤Ł
à¤°à¥įà¤ľ à¥Ģ
Ġà¤ľ à¤¾à¤ģà¤ļ
Ġà¤ı à¤Ĥà¤Łà¥Ģ
Ġà¤¥à¥ĭ à¤¡à¤¼à¤¾
à¤¾à¤¯ à¥ĩ
à¤¿à¤« à¥ĭà¤°à¥įà¤¨à¤¿à¤¯à¤¾
à¥įà¤ª à¤¾à¤¦
Ġà¤µà¤¿à¤ Ĥ
à¥ĩà¤° à¤¾
à¤ļà¤¾à¤° à¤¿à¤¯à¥ĭà¤Ĥ
Ġà¤ªà¥įà¤°à¤ľà¤¾à¤¤ à¤¿à¤¯à¥ĭà¤Ĥ
à¥ĩà¤¦ à¤¾à¤°à¥Ģ
Ġg iven
Ġm odel
Ġà¤ĳ à¤ªà¤°
à¤® à¤Ĥà¤¤à¥įà¤°à¥Ģ
Ġà¤¸ à¥ĭà¤®
à¤¾à¤® à¤ķ
à¥¨à¥¦ à¥§à¥
Ġp e
Ġà¤Ĩ à¤¶à¥įà¤ļà¤°à¥įà¤¯
A B
Ġà¤¸à¤Ĥ à¤Ĺà¥įà¤°
à¤ª à¥ģ
ur al
Ġan y
19 0
Ġà¤ĩà¤¨ à¤ķà¥ĩ
à¤¾à¤¸ à¤¤
c y
à¥ĩà¤Ĥ à¤¸à¥Ģ
Ġà¤ªà¥įà¤°à¤Ĺ à¤¤à¤¿
à¥ī à¤¯
à¤¸à¥įà¤Ł à¤°
Ġà¤ªà¥ģà¤¸à¥įà¤¤à¤ķ à¤¾à¤²à¤¯
Ġà¤¸à¤Ĥà¤Ĺà¥įà¤°à¤¹ à¤¾à¤²à¤¯
à¤¬ à¥įà¤¬
à¥ĭà¤²à¥ī à¤ľà¥Ģ
à¤¿à¤¬ à¥įà¤¬
Ġà¤ªà¤¢à¤¼ à¥ĩà¤Ĥ
Ġà¤®à¤¿à¤² à¤¨à¥ĩ
Ġà¤Ńà¤¾à¤· à¤¾à¤ĵà¤Ĥ
Ġà¤¦à¤¿à¤µ à¤¸
Ġà¤ľà¤¿à¤®à¥įà¤® à¥ĩà¤¦à¤¾à¤°
Ġà¤ķà¥ģà¤¶ à¤²
Ġà¤Ĩ à¤¶
Ġex p
Ġà¤ĸà¤¤à¤° à¤¾
Ġà¤ķà¥įà¤° à¤¿à¤¯à¤¾
] :
à¤¦ à¤Ĥà¤¡
Ġà¤¦à¥ĭ à¤·
Ġà¤ĩà¤² à¤¾à¤ķ
à¤¾à¤·à¥įà¤Ł à¥įà¤°
Ġà¤¦à¥ģà¤ķ à¤¾à¤¨
al cul
Ġà¤ľà¥ģ à¤¡à¤¼
Ġà¤¸à¤¿à¤« à¤¾à¤°à¤¿à¤¶
Ġà¤¦à¥ĩ à¤Ĺà¤¾
Ġà¤ħà¤ķà¥įà¤· à¤°
v i
Ġà¤ª à¤¤à¥įà¤¤
" ;
Ġà¤®à¤§ à¥ģà¤®
à¤¡ à¤¾
Ġà¤ĩ à¤°
à¤¨ à¤¾à¤¥
Ġà¤ªà¤Ĥà¤ľ à¤¾à¤¬
Ġà¤ıà¤ķ à¤®à¤¾à¤¤à¥įà¤°
al s
Ġà¤µà¥Īà¤ľà¥įà¤ŀà¤¾à¤¨à¤¿à¤ķ à¥ĭà¤Ĥ
Ġà¤¨à¤¿à¤°à¥įà¤® à¤¿à¤¤
à¤¾à¤¤ à¤¾à¤ĵà¤Ĥ
Ġthe se
Ġà¤° à¤¿à¤¸
Ġà¤ķà¤°à¥įà¤® à¤ļà¤¾à¤°à¤¿à¤¯à¥ĭà¤Ĥ
Ġà¤ļà¤¿à¤Ĥ à¤¤à¤¾
Ġà¤ħ à¤Ĺà¥įà¤°
Ġon e
Ġà¤¬à¤°à¤¾à¤¬ à¤°
Ġà¤°à¥ģ à¤ļà¤¿
à¤¶ à¤¿à¤ª
n s
Ġà¤ķà¤¿à¤¨ à¤¾à¤°à¥ĩ
20 00
Ġà¤¦ à¥Īà¤¨à¤¿à¤ķ
à¤¦ à¤²
Ġà¤¶ à¤¿à¤ķà¤¾à¤°
Ġà¤¸ à¤¤à¥įà¤°
3 6
Ġm ake
Ġà¤ĩà¤ķ à¤¾à¤Ī
Ġà¤ħà¤§ à¤¿à¤¨à¤¿à¤¯à¤®
Ġà¤µ à¤¾à¤¯
Ġà¤Ĩ à¤ģ
Ġà¤¹à¤² à¥įà¤ķ
Ġà¤¬à¥ģà¤¨ à¤¿à¤¯à¤¾à¤¦à¥Ģ
Ġà¤ªà¥įà¤°à¥ĭà¤« à¥ĩà¤¸à¤°
Ġà¤Ĩà¤Ĥà¤¤ à¤°à¤¿à¤ķ
( n
Ġà¤ķà¤Ĥà¤ªà¤¨ à¤¿à¤¯à¥ĭà¤Ĥ
Ġt wo
Ġà¤Ľà¤¤à¥įà¤¤à¥Ģà¤¸ à¤Ĺà¤¢à¤¼
Ġà¤¸à¤¬ à¥įà¤ľ
Ġà¤Ĺ à¤°à¥Ģ
Ġà¤ķà¤¾à¤° à¤ķ
à¥įà¤¯ à¤¾à¤¤
Ġà¤Ńà¤µ à¤¨
- à¤¹
Ġà¤ªà¤¤ à¥įà¤¥
à¤Ĺà¤£ à¤¨à¤¾
S ON
Ġà¤ħà¤Ńà¤¿à¤¨ à¥ĩà¤¤à¤¾
] ,
Ġà¤®à¤¨ à¥ĭà¤°
Ġà¤īà¤¤à¥įà¤ķ à¥ĥà¤·à¥įà¤Ł
à¤¾à¤ĩ à¤µ
Ġà¤¸à¥Īà¤¨ à¥įà¤¯
Ġà¤¦ à¤¾à¤µà¤¾
à¥ī à¤ķà¥įà¤¸
à¤ª à¤¤
g ht
( à¤¬
à¤¦ à¥įà¤°
ve l
Ġl ik
Ġà¤ªà¥Įà¤§ à¥ĩ
à¥įà¤µ à¤¿à¤¤à¥Ģà¤¯
Ġà¤Łà¥įà¤° à¥Īà¤ķ
Ġà¤¸à¤°à¥įà¤µ à¤¶à¥įà¤°à¥ĩà¤·à¥įà¤ł
à¤¿à¤¸à¥įà¤ª à¤°à¥įà¤§
Ġs ol
Ġà¤° à¤¾à¤¹
Ġfollow ing
Ġà¤µà¤¿à¤¤ à¤°à¤£
à¥ĩà¤Ĥà¤¦ à¥įà¤°
Ġà¤ķà¤® à¤ľ
er m
à¥Ģ à¤ľà¤¨
200 6
Ġà¤ħà¤µ à¤¶
Ġà¤ĳà¤¸à¥įà¤Łà¥įà¤°à¥ĩà¤² à¤¿à¤¯à¤¾
Ġà¤ª à¤¾à¤¤à¥įà¤°
Ġà¤°à¤¾à¤¶ à¤¿
à¤°à¤² à¥Īà¤Ĥà¤¡
Ġà¤®à¤¾à¤ĩ à¤ķà¥įà¤°
Ġà¤¸à¤Ĥà¤¦à¤°à¥įà¤Ń à¤¿à¤¤
Ġà¤° à¥ĭà¤¬
Ġà¤¸à¤Ĥà¤¸à¥įà¤ķ à¥ĥà¤¤
Ġà¤īà¤¨ à¤¸à¥ĩ
Ġà¤¡à¤¿à¤ľà¤¼ à¤¾à¤ĩà¤¨
Ġà¤¸à¤® à¤¿à¤¤à¤¿
_ s
à¤¾à¤¯à¤² à¥īà¤Ĺ
Ġà¤¶ à¤¾à¤¸
à¤¿à¤¹ à¥įà¤¨
à¤ľ à¥Ĥ
Ġà¤ĺà¤° à¥ĩà¤²à¥Ĥ
Ġà¤ļà¥Ģà¤ľ à¥ĭà¤Ĥ
Ġst ring
ow n
Ġà¤¸à¥Ģ à¤Ł
à¤¯à¤¹ à¤¾à¤ģ
Ġà¤¬à¤¢à¤¼ à¤¾
Ġà¤ī à¤ľ
Ġà¤ļ à¥ĩà¤¤
Ġre qu
Ġdiffer ent
Ġà¤ªà¥įà¤° à¤Ń
ut ion
t e
Ġle ar
Ġà¤ľ à¤Ĥà¤Ĺà¤²
Ġh is
à¥Ĥ à¤ģ
à¤Ĩ à¤īà¤Łà¤ªà¥ģà¤Ł
Ġà¤ľà¤¼ à¤¿à¤²à¤¾
à¤ķà¥įà¤·à¤£ à¤¿à¤ķ
Ġà¤ľà¥ĭà¤¡à¤¼ à¤¨à¥ĩ
i p
Ġà¤²à¤ķ à¤¡à¤¼à¥Ģ
Ġà¤²à¤¿à¤ĸ à¤¿à¤¤
Ġà¤µà¤¿à¤ķà¤²à¥įà¤ª à¥ĭà¤Ĥ
Ġà¤¸ à¤¿à¤ĸ
à¥ĩà¤² à¤¨
Ġp art
Ġà¤¸à¥Ĥ à¤ĸ
à¥įà¤ª à¥įà¤°
( à¤µ
à¤ķ à¥ĥà¤¤
Ġà¤ªà¥įà¤°à¤¤ à¤¿à¤¸à¥įà¤ªà¤°à¥įà¤§
Ġà¤ĩà¤¸ à¥įà¤²
ent ial
Ġà¤¸à¥įà¤¤ à¤¨
Ġà¤«à¥Ģ à¤Ł
al th
o od
Ġà¤¬ à¤¿à¤¤
Ġde velop
3 3
à¤ī à¤¸
Ġà¤ªà¥ģà¤° à¤¾à¤¨à¥Ģ
Ġà¤¬ à¤¤à¤¾
Ġà¤Ńà¤µà¤¿à¤·à¥įà¤¯ à¤µ
Ġà¤¤ à¤¾à¤°
à¤¾à¤ķ à¤°à¤£
Ġà¤¶ à¤¾à¤Ĥà¤¤
Ġres ult
Ġà¤Ĩ à¤ĸ
Ġà¤®à¥ģà¤¦à¥įà¤¦ à¥ĭà¤Ĥ
à¤® à¥įà¤Ń
à¤Ĥà¤Ĺ à¤¿à¤ķ
à¤¾à¤¨ à¤ķ
ĠS QL
Ġà¤ħà¤¥ à¤µà¤¾
à¤¾à¤¶ à¤¯
Ġe v
Ġà¤ľà¥Ī à¤µ
à¤¾à¤® à¤¿à¤¨
Ġà¤ĩ à¤¨à¥įà¤¹à¥ĩà¤Ĥ
Ġà¤ªà¥Ģ à¤¡à¤¼à¤¿à¤¤
Ġà¤Ł à¥Ģà¤µà¥Ģ
Ġà¤Ĺà¤°à¥įà¤® à¥Ģ
à¤¨ à¤ķ
Ġà¤ĸ à¤¾à¤¨à¤¾
Ġin form
à¤¶ à¤¾à¤¸à¥įà¤¤à¥įà¤°
Ġà¤ľà¥ĭ à¤¡à¤¼à¤¾
er t
Ġà¤« à¥īà¤°à¥įà¤®
à¤ª à¤¹
Ġà¤¬à¤¢à¤¼ à¤¤à¥ĩ
Ġà¤¶à¤¾à¤¨ à¤¦à¤¾à¤°
( C
à¤¾à¤ĩ à¤¸
ĠHT ML
Ġà¤¸ à¤¿à¤ķ
à¤ī à¤¨
Ġà¤ķà¥Īà¤² à¤¿à¤«à¥ĭà¤°à¥įà¤¨à¤¿à¤¯à¤¾
Ġà¤¦à¤°à¥įà¤¶ à¤¨
an s
à¤Ĥà¤ľ à¥Ģ
ub lic
Ġà¤Ĩà¤ķà¤°à¥įà¤· à¤¿à¤¤
Ġà¤« à¤Ĥà¤ķà¥įà¤¶à¤¨
à¤Ĥà¤¡ à¥Ģ
à¤ļà¥įà¤Ľ à¤¿à¤ķ
m l
Ġà¤¶à¥ģ à¤ķà¥įà¤°
Ġà¤¤ à¥ģà¤®
Ġà¤¦ à¤µà¤¾à¤ĵà¤Ĥ
à¤¾à¤¯à¤²à¥īà¤Ĺ à¤ĥ
Ġà¤Ĺà¥įà¤° à¤Ĥà¤¥
Ġà¤ķà¥ĩ à¤Ĥà¤¦
à¤ķà¥ĭ à¤¶
à¤Ł à¤ķ
Ġà¤Ł à¤¾à¤ĩà¤®
. com
[ '
Ġà¤§à¥įà¤µ à¤¨à¤¿
. s
Ġà¤®à¤¾à¤¨ à¥įà¤¯à¤¤à¤¾
Ġà¤¹ à¤¡à¥įà¤¡
Ġà¤ªà¤¹ à¤¨
Ġà¤¶à¤¹à¤° à¥ĭà¤Ĥ
à¤¿à¤¨ à¥įà¤¦
Ġà¤¸à¤Ĥà¤ª à¤¤à¥įà¤¤à¤¿
Ġà¤µà¤¿à¤¶à¥ĩà¤· à¤¤à¤¾
Ġa m
à¤¿ à¤°à¥Ģ
Ġà¤ĩà¤²à¥ĩà¤ķà¥įà¤Łà¥įà¤° à¥īà¤¨
Ġà¤¨ à¥ĥà¤¤à¥įà¤¯
is e
Ġà¤® à¥ĩà¤Ł
Ġà¤° à¤¾à¤¸à¤¾à¤¯à¤¨à¤¿à¤ķ
Ġs um
à¤¦ à¥ĭ
Ġà¤¬à¤¢à¤¼ à¤¨à¥ĩ
p o
Ġe l
Ġà¤µà¥įà¤¯à¤µ à¤¸à¥įà¤¥à¤¿à¤¤
Ġà¤¬à¤ľ à¤Ł
à¤® à¤²
à¥įà¤°à¥Ģ à¤¨
à¥įà¤ķ à¤¾à¤°
Ġà¤¬à¤ļ à¤¾à¤¨à¥ĩ
Ġà¤ķà¤® à¤¾à¤Ĥà¤¡
à¤µ à¤°à¥įà¤¤à¥Ģ
Ġà¤¬à¥ĩà¤Ł à¥ĩ
à¤Ĺ à¥ĭ
Ġwor k
à¤¾à¤µ à¤²à¥Ģ
Ġà¤§ à¤¾à¤°à¤¾
à¤µ à¥ģà¤¡
ĠC on
Ġà¤µà¤¾à¤¹ à¤¨
" à¤²
à¤® à¤¿à¤²
en ces
Ġà¤ªà¥įà¤°à¤¾à¤° à¥Ĥà¤ª
Ġp ol
Ġà¤² à¤Ĥà¤¦à¤¨
à¤°à¥Ģ à¤ľ
Ġà¤¨ à¤¿à¤·
( s
Ġà¤ª à¥ĩà¤°
à¤¿à¤® à¤¾
Ġà¤¨à¤¿à¤¯à¤® à¥ĭà¤Ĥ
à¤ħ à¤¨
si gn
à¥ĩà¤® à¥įà¤¸
if y
Ġà¤ħà¤¨à¥ģà¤ªà¥įà¤° à¤¯à¥ĭà¤Ĺ
Ġà¤ķà¥Ģ à¤ľà¤¿à¤ı
Ġà¤¨à¤¿à¤°à¥įà¤® à¤¾à¤¤à¤¾
Ġà¤ª à¤²
Ġà¤ķà¤° à¤¿à¤¯à¤°
Ġp h
ow er
Ġà¤¦à¥ĩ à¤µà¥Ģ
Ġà¤ı à¤Ĥà¤ľ
à¤¸à¤Ĥà¤¦ à¤°à¥įà¤Ń
Ġà¤ħà¤°à¥įà¤¥à¤µà¥įà¤¯à¤µ à¤¸à¥įà¤¥à¤¾
Ġà¤®à¥Ĥà¤² à¥įà¤¯à¥ĭà¤Ĥ
4 8
ĉ ĉ
à¥įà¤° à¥ĭ
âĢį à¤¯
Ġà¤ľà¤¾à¤ª à¤¾à¤¨
Ġà¤¬ à¤¾à¤Ĥà¤Ĺà¥įà¤²à¤¾à¤¦à¥ĩà¤¶
Ġà¤¨ à¤ķ
Ġà¤° à¤ļà¤¨à¤¾
Ġà¤¸à¤Ĥà¤° à¤ķà¥įà¤·à¤¿à¤¤
Ġà¤¹à¤¿à¤Ĥ à¤¦à¥Ģ
Ġà¤ª à¥īà¤²
Ġà¤Ĺ à¥ĥà¤¹
Ġà¤ħ à¤¸à¥įà¤¤
à¤¿à¤¶ à¤¾à¤²à¥Ģ
Ġà¤Ĺà¥įà¤°à¤¾à¤®à¥Ģ à¤£
Ġà¤ª à¤¾à¤Ī
Ġà¤Ĺ à¤¯à¥ĩ
ay s
Ġà¤Ĩà¤² à¥ĭ
à¥ĭà¤ľà¤¨ à¤¾à¤ĵà¤Ĥ
à¥įà¤ľ à¤¾
Ġà¤Ł à¥įà¤¯à¥Ĥ
Ġà¤ķà¥Ī à¤ª
à¤ķà¤¾à¤² à¤¿à¤ķ
Ġà¤°à¥ĭà¤Ĺ à¤¿à¤¯à¥ĭà¤Ĥ
} ,
Ġà¤ªà¥įà¤° à¤ļ
Ġb ut
Ġà¤¡à¤¿à¤ľ à¤¿à¤Łà¤²
a h
Ġà¤ĺ à¥Ĥà¤®
Ġw ould
- à¤Ń
Ġà¤ľà¤¾à¤¨ à¤¨à¥ĩ
Ġà¤ħ à¤¶
à¤ Ĳ
à¤Ĥà¤Ĺ à¥Ģ
Ġà¤° à¤¨
Ġà¤µà¤¿à¤¦à¥ĩà¤¶ à¥Ģ
Ġà¤¶ à¤¾à¤Ĥà¤¤à¤¿
à¥ģà¤ ĩ
Ġà¤¹ à¤¾à¤ĩà¤¡à¥įà¤°
Ġre l
Ġà¤ļà¥ģ à¤ķà¥ĩ
Ġà¤µà¤¿à¤µà¤¿à¤§ à¤¤à¤¾
Ġà¤® à¤Ĥà¤ļ
Ġà¤¦à¥Ĥ à¤§
Ġà¤¸à¤Ĥà¤¬à¤Ĥà¤§ à¥ĭà¤Ĥ
à¤ĳ à¤ķà¥įà¤¸
à¥įà¤ķ à¤¾à¤²
Ġà¤ķà¥Ī à¤®
à¥Ī à¤¡
Ġwh o
à¤¸ à¤¨à¥Ģà¤¯
Ġà¤ı à¤¯à¤°
Ġpro duct
à¥ģà¤ Ľ
Ġà¤ªà¥Ī à¤®à¤¾à¤¨à¥ĩ
Ġà¤¬à¥įà¤°à¤¿à¤Ł à¥ĩà¤¨
Ġà¤¸à¤Ĥà¤ĺ à¥Ģà¤¯
Ġà¤Ĺà¥ģ à¤ªà¥įà¤¤
Ġà¤¶à¥Ī à¤ķà¥įà¤·à¤£à¤¿à¤ķ
à¤ªà¥įà¤° à¤¦à¥ĩà¤¶
t ext
à¤ľ à¥ĩ
à¤¾à¤¯ à¤¨
Ġà¤Ł à¥Ĥà¤Ł
à¤¸à¤° à¤¾
. "
Ġà¤¸à¤¾à¤ Ĺ
Ġà¤ħ à¤¸à¤®
à¤ľà¤¨ à¤ķ
Ġà¤°à¤¹ à¥ĩà¤Ĥ
200 5
st ring
à¤®à¤¾à¤° à¥įà¤Ĺ
à¥§à¥ ¯
Ġà¤®à¤¾à¤¨ à¤¨à¤¾
Ġà¤ħà¤² à¥įà¤ª
Ġc ould
Ġà¤Ī à¤®à¥ĩà¤²
Ġà¤ª à¥ĩà¤ľ
Ġà¤Ĭà¤Ĥà¤ļ à¤¾à¤Ī
Ġà¤¶ à¥įà¤µ
ĠĠĠĠĠĠĠĠ ĠĠĠĠĠĠĠ
Ġà¤² à¤¿à¤Ĥà¤Ĺ
Ġà¤ķà¤¨ à¤¾à¤¡à¤¾
- à¤Ľ
Ġc ount
à¤¾à¤¤ à¤°
Ġà¤¦à¥Ĥà¤¸à¤° à¥ĭà¤Ĥ
Ġà¤®à¤¨ à¥ĭà¤µ
Ġà¤«à¤¿à¤²à¥įà¤® à¥ĭà¤Ĥ
à¥ĭ à¤·
à¤¿ à¤°à¤£
Ġà¤ĩà¤Ĥà¤ľà¥Ģà¤¨à¤¿à¤¯à¤° à¤¿à¤Ĥà¤Ĺ
E R
Ġà¤¸ à¤¾à¤µ
Ġà¤īà¤ª à¤¨
à¤® à¥ĩ
Ġà¤Ī à¤Ĥà¤§à¤¨
ra ct
à¤ª à¥ĩà¤¶
à¤°à¥įà¤¦ à¥ĩà¤¶
Ġà¤Ń à¤Ĥà¤¡
ic es
Ġg ener
Ġà¤¸à¤°à¥įà¤µ à¥ĭ
Ġà¤¸à¥Ĥ à¤ķà¥įà¤·à¥įà¤®
Ġà¤ªà¥įà¤°à¤¦ à¥Ĥà¤·à¤£
Ġà¤¶à¤ķà¥įà¤¤ à¤¿à¤¶à¤¾à¤²à¥Ģ
à¤ķ à¥įà¤²
Ġà¤ªà¥įà¤°à¤£à¤¾à¤² à¤¿à¤¯à¥ĭà¤Ĥ
Ġà¤ķà¤¿à¤¤ à¤¨à¤¾
à¤µà¤¿à¤§ à¤¾à¤¨
Ġà¤¬à¥Īà¤ł à¤ķ
Ġà¤ªà¥įà¤°à¤¤à¥Ģ à¤ķ
Ġà¤ªà¥įà¤° à¤¾à¤¯
Ġà¤¸à¥įà¤¥ à¤¾à¤¯à¥Ģ
Ġà¤ħ à¤ķà¥ĩ
Ġbe en
Ġà¤ķà¥Ī à¤¥
Ġà¤µà¤¿à¤ķà¤²à¥įà¤ª à¤ĥ
Ġà¤¹à¤® à¤²à¤¾
Ġà¤ĸ à¥Ģ
Ġà¤ļà¥Ģ à¤ľà¤¼
Ġà¤ķà¥ĩà¤Ĥà¤¦ à¥įà¤°à¥Ģà¤¯
à¤¤ à¤ķ
Ġà¤µ à¤ľà¤¹
Ġh igh
Ġà¤²à¥ĩà¤ĸ à¤¨
w w
Ġà¤ĵà¤² à¤Ĥà¤ª
à¤¿à¤ ĥ
Ġà¤ªà¥įà¤° à¤¿à¤Ĥà¤Ł
à¤« à¥įà¤°
" à¤¹à¤®
à¤ļ à¤¾à¤Ī
Ġà¤īà¤¡à¤¼ à¤¾à¤¨
à¤¥ à¤¨
Ġà¤ĳ à¤Ł
Ġà¤¬ à¤¾à¤Ĺ
Ġà¤®à¤¾à¤¨ à¤¤à¥ĩ
à¤¨à¥ĩ à¤¸
Ġà¤ľà¤¿à¤¨ à¤ķà¤¾
à¤ķ à¤Ĥà¤ª
Ġà¤ªà¤° à¤Ĥà¤ªà¤°
3 2
ĠA n
il d
-à¤§ à¥Ģà¤°à¥ĩ
" à¤ľ
à¥§ à¥¦
Ġà¤Ľ à¤¿à¤ª
b ject
Ġà¤¸à¥įà¤Ł à¤¾à¤°
Ġà¤ľ à¥įà¤µ
Ġà¤µà¤¿à¤² à¤¿à¤¯à¤®
à¤°à¥Ģ à¤¨
y pe
Ġà¤¸ à¤¦à¥Ģ
Ġà¤ħà¤Ńà¤¿à¤µ à¥įà¤¯
Ġà¤ĸà¥ĩà¤² à¥ĭà¤Ĥ
à¤Ĥ à¤ķà¤¾
Ġà¤® à¥ĭà¤¬à¤¾à¤ĩà¤²
à¤¦ à¤°
Ġword s
o ple
Ġà¤Ĩà¤ķà¤°à¥įà¤· à¤ķ
Ġà¤®à¤¾à¤¨ à¤ļà¤¿à¤¤à¥įà¤°
Ġà¤°à¥ī à¤¬
à¥ģ à¤ªà¥įà¤¤
Ġà¤īà¤ª à¤¸à¥įà¤¥à¤¿à¤¤à¤¿
Ġà¤ľà¤°à¥įà¤® à¤¨
Ġà¤ªà¥įà¤° à¤¾à¤Ĥà¤¤
à¤Ĥà¤¬ à¤Ī
à¥ĭ à¤¨à¥Ģ
ic k
à¥Ģà¤° à¤¿à¤¯à¤¾
âĢ Ķ
Ġà¤ľà¤¾à¤¤ à¤¿
à¥ĩà¤Ł à¥įà¤¸
à¤Ĥà¤Ĺ à¥įà¤°
Ġà¤ħ à¤¹à¤®
Ġà¤² à¤¾à¤¨à¥ĩ
Ġà¤ħà¤¦ à¥įà¤µà¤¿à¤¤à¥Ģà¤¯
Ġà¤ªà¤¤à¥įà¤° à¤¿à¤ķà¤¾
Ġà¤¤à¥Ĥ à¤«
Ġà¤ªà¥ĭ à¤·à¤£
Ġà¤ĩ à¤Ĥà¤ľà¤¨
Ġà¤¸à¤®à¥įà¤® à¥ĩà¤²à¤¨
Ġà¤° à¤µ
Ġà¤ļà¥ģà¤¨ à¥ĩà¤Ĥ
Ġà¤īà¤¸ à¤®à¥ĩà¤Ĥ
Ġà¤®à¥ģ à¤¹
eng th
. S
Ġà¤ľà¤® à¥Ģà¤¨
Ġà¤ķà¤® à¥įà¤ª
Ġà¤ªà¤°à¥įà¤µ à¤¤
- à¤¸à¤®
Ġà¤ª à¥Īà¤¸à¥ĩ
ig n
Ġs ome
at ure
Ġs ystem
Ġà¤¨à¥įà¤¯ à¥Ĥà¤°
à¤¨à¥įà¤ ¡
à¤Ł à¥įà¤ł
Ġprov ide
Ġà¤ķà¤® à¤°à¥ĩ
Ġà¤ªà¤ķà¥įà¤· à¥Ģ
Ġà¤µà¤¿à¤ Ł
à¤¾à¤¶ à¥Ģ
Ġle t
Ġà¤ªà¥įà¤°à¤µ à¤¾à¤¹
Ġà¤°à¤£à¤¨à¥Ģ à¤¤à¤¿
à¤ļà¤¾à¤° à¤¿à¤ķ
Ġà¤¬à¥Į à¤¦à¥įà¤§
Ġà¤ķ à¤¿à¤Ĥà¤Ĺ
à¥įà¤« à¥ĭà¤Ł
Ġà¤¬à¤ļ à¤¨à¥ĩ
en s
à¥ĩà¤¤à¥įà¤° à¥Ģ
Ġà¤ľà¥Ģ à¤¤à¤¾
Ġà¤Ł à¥ĩà¤ķ
Ġà¤° à¥ĭà¤¡
Ġin d
Ġà¤µ à¥ĩà¤²
à¤Ĥ à¤ĺ
Ġ end
- à¤Ł
Ġà¤ĩ à¤®
Ġl anguage
Ġst r
6 5
Ġà¤īà¤ªà¤Ń à¥ĭà¤ķà¥įà¤¤
- à¤¨à¤¾à¤®
Ġà¤® à¤¾à¤¹
Ġh ow
à¤¿à¤¨ à¥ĭ
Ġg r
Ġre g
Ġà¤ķ à¤²à¥įà¤ªà¤¨à¤¾
Ġà¤®à¤¹à¤¾à¤¸ à¤¾à¤Ĺà¤°
Ġà¤¸à¥ĩà¤µ à¤¨
Ġà¤¬à¥ĩà¤Ł à¥Ģ
Ġà¤¹ à¤¿à¤Ĥà¤¦
à¤¯à¤¹ à¤¾à¤Ĥ
Ġà¤ķà¤° à¥ĩà¤Ĺà¥Ģ
Ġà¤ľà¤¨ à¤Ĺà¤£à¤¨à¤¾
Ġà¤¸à¥įà¤Ł à¥ĭà¤°
Ġor g
Ġà¤°à¥ĭà¤¬ à¥ĭà¤Ł
Ġà¤ĸ à¤¾à¤¤à¥ĩ
Ġà¤ļà¥Į à¤¥
Ġà¤¹ à¤¥
Ġà¤µ à¤¹à¥Ģà¤Ĥ
à¥ĩà¤ķ à¥įà¤Łà¤°
à¤ħ à¤¬
Ġà¤Ĺ à¥Ģ
Ġà¤ķà¤®à¤ľ à¥ĭà¤°
- à¤¡
Ġà¤® à¥ĩà¤¹
Ġà¤ķà¤¾à¤°à¤£ à¥ĭà¤Ĥ
Ġà¤ķà¥ĥà¤· à¥įà¤£
Ġà¤¸à¤Ĥà¤¯ à¥ĭà¤ľà¤¨
Ġp erson
ak ing
c al
Ġà¤¬ à¥įà¤¯
à¥ĭà¤Ĥ à¤Ł
Ġà¤¬ à¤¾à¤Ĥ
Ġà¤²à¤¡à¤¼ à¤ķà¥Ģ
( A
c o
s on
à¤°à¥įà¤® à¥Ģ
Ġà¤ĸà¤¤à¤° à¥ĩ
à¥ģ à¤²à¥ĩ
à¤²à¥Ģ à¤¯
à¤¿à¤ķ à¥ĩà¤¶à¤¨
Ġà¤ĺ à¤¨
Ġà¤° à¥īà¤ķ
Ġà¤¸à¤Ĥà¤¸ à¤¦
à¥Ĥ à¤¸à¤°à¥ĩ
ĠJ SON
Ġà¤Ĩà¤ĩ à¤Łà¤®
Ġà¤ªà¥įà¤°à¤¤ à¤¿à¤¬
à¥ĩà¤¡ à¥Ģ
ag es
Ġà¤¨à¤¾à¤Ł à¤ķ
Ġà¤ĩà¤®à¤¾à¤° à¤¤
à¤¾à¤Ĥ à¤¤à¥įà¤°
Ġà¤ķà¤¥ à¤¾à¤¨à¤ķ
Ġà¤¹à¤¿à¤¸à¥įà¤¸ à¥ĭà¤Ĥ
Ġà¤ī à¤Ĺ
à¤¿à¤¯ à¤¤
200 4
à¤ľà¥Ĥ à¤¦à¤¾
ul ar
Ġà¤ĸà¥Ģ à¤Ĥà¤ļ
Ġà¤ľ à¥įà¤¯
à¤ķà¤¾à¤° à¥įà¤¯
Ġà¤¤à¤° à¤²
3 4
à¤° à¤¿à¤¯à¤¾
Ġà¤Łà¥ĩà¤² à¥Ģà¤µ
à¥ģ à¤µà¤Ĥà¤¶
Ġp rint
Ġà¤¸à¤¾à¤¥ à¥Ģ
Ġà¤¬ à¥Īà¤Ĥà¤¡
ing s
Ġex ample
Ġà¤ªà¤° à¤¿à¤ķ
Ġà¤§ à¥Ĥà¤®
Ġf ind
[ ]
à¤² à¥įà¤¸
à¤ķ à¥įà¤µ
res ent
Ġà¤ľà¥ģ à¤¡à¤¼à¤¾
Ġà¤ľà¤°à¥įà¤® à¤¨à¥Ģ
Ġà¤¸à¤¾à¤§ à¤¨
Ġà¤ķà¤¾à¤°à¥įà¤¯à¤ķà¥įà¤°à¤® à¥ĭà¤Ĥ
à¤¾à¤ī à¤¡
Ġà¤ķ à¤¼
à¤« à¥ĭà¤¨
Ġà¤ķ à¤¿à¤¯à¥ĩ
Ġà¤¸ à¤°à¥įà¤¦
à¥įà¤ļ à¤°
Ġà¤¤à¥Īà¤¯ à¤¾à¤°à¥Ģ
ord er
er g
à¤¾à¤Ĥ à¤¸à¥Ģà¤¸à¥Ģ
Ġlik e
Ġà¤ľ à¤®à¤¾
Ġà¤ļ à¤¿à¤¹à¥įà¤¨
Ġg et
à¥ĩà¤Ł à¤¿à¤ķ
ur ren
à¤°à¥ĭ à¤ķà¥įà¤¤
Ġà¤īà¤¤à¥įà¤¸ à¤°à¥įà¤ľà¤¨
Ġà¤Ĩ à¤°à¥įà¤ķ
à¤¾à¤µ à¤¨à¥Ģ
" à¤¨
Ġà¤īà¤ª à¤°à¥ĭà¤ķà¥įà¤¤
à¤¹à¥Ģ à¤¤
à¤¿à¤¶ à¥Ģà¤²
Ġex per
à¤¾à¤ª à¤¿à¤¤
we en
à¥Ĥ à¤¦à¥Ģ
à¤¿à¤« à¥įà¤Ł
Ġà¤ªà¥ģà¤¨ à¤ĥ
ĠR e
Ġà¤¸à¥įà¤ķ à¥ĭà¤°
Ġh ad
à¤¾à¤¶ à¤¿à¤Ĥà¤Ĺà¤Łà¤¨
à¥Į à¤²
Ġà¤ı à¤Ĩà¤Ī
Ġà¤ħ à¤°à¥įà¤ľ
Ġà¤¶ à¥ĩà¤·
à¤¾à¤ª à¤ķ
Ġà¤ķà¤ª à¤¡à¤¼à¥ĩ
Ġà¤¸à¥ĩ à¤¨
Ġà¤ªà¤°à¥ĩà¤¶ à¤¾à¤¨
Ġà¤¸à¥įà¤¨ à¤¾à¤¤à¤ķ
Ġà¤¶ à¤¾à¤¹
le t
Ġà¤¨à¤¿à¤Ĺ à¤°à¤¾à¤¨à¥Ģ
olog y
Ġà¤®à¤¿à¤² à¥ĩ
di v
" à¤¹
Ġà¤¬ à¤¾à¤ķà¥Ģ
Ġà¤¹ à¤¿à¤²
à¥ĥ à¤ļà¥įà¤Ľà¤¿à¤ķ
à¤ĸ à¤Ĥà¤¡
à¥ģà¤² à¥įà¤ķ
à¥įà¤¯à¤® à¤Ĥà¤¤à¥įà¤°à¥Ģ
Ġà¤® à¤¾à¤Ĥ
Ġa ct
Ġà¤ªà¤¤à¥įà¤¥ à¤°
Ġà¤¤ à¥ģ
Ġà¤ĸ à¤¨
Ġà¤¤à¥ĭ à¤¡à¤¼
Ġà¤ľ à¤¾à¤ıà¤ģ
Ġà¤¶ à¥ĩà¤¯à¤°
à¥įà¤· à¤¿à¤ķ
5 5
Ġà¤ĵà¤²à¤Ĥà¤ª à¤¿à¤ķ
ver y
Ġà¤¨ à¤¿à¤¶
Ġà¤¨ à¤·à¥įà¤Ł
à¤ľà¤¨ à¤¨
à¤¾à¤¸à¥įà¤Ł à¤¿à¤ķ
-à¤ľ à¥Īà¤¸à¥ĩ
Ġà¤® à¤¾à¤ĩà¤ķ
à¤¾à¤§ à¥įà¤¯
Ġà¤ľ à¤¯
Ġà¤ªà¥įà¤°à¤ľà¤¾à¤¤ à¤¿
Ġà¤Ĺà¤ł à¤¨
§à¤¾à¤° à¤£
Ġà¤Ĩà¤¦ à¤°à¥įà¤¶
201 5
at ter
ation al
Ġà¤ķà¤¿à¤¤ à¤¨à¥ĩ
Ġà¤ħà¤¨à¥ģà¤ķà¥Ĥà¤² à¤¿à¤¤
201 6
Ġà¤®à¤¿à¤¶à¥įà¤° à¤£
à¤ľà¥įà¤ŀ à¤¾à¤¤
Ġà¤ªà¤° à¤¿à¤ª
Ġà¤ľ à¥Īà¤ķ
Ġà¤ªà¥įà¤° à¤ļà¤¾à¤°
Ġà¤¨ à¤ľà¤°
Ġid ent
Ġà¤¸à¤Ĥà¤ķ à¤Ł
. A
à¤ķ à¥ģà¤®
Ġà¤°à¥ģà¤ª à¤¯à¥ĩ
Ġà¤¨ à¤¿à¤ļ
Ġà¤¹à¤¿à¤¨à¥įà¤¦ à¥Ĥ
Ġà¤Ĺ à¥ĭà¤ª
Ġà¤ļà¤¾à¤° à¥įà¤Ł
Ġà¤¨ à¤¿à¤¹à¤¿à¤¤
Ġà¤īà¤¦ à¥įà¤§
Ġà¤²à¤ķà¥įà¤·à¤£ à¥ĭà¤Ĥ
Ġà¤ĸ à¥ĩà¤¤
à¤¾à¤ī à¤Ĥà¤Ł
Ġà¤¨à¤¿à¤µ à¤¾à¤¸à¥Ģ
Ġà¤ªà¥įà¤°à¤¯à¥ĭà¤Ĺ à¤¶à¤¾à¤²à¤¾
Ġà¤¸à¤Ĥ à¤¬
Ġd es
Ġà¤®à¥Į à¤ľà¥Ĥà¤¦à¤¾
Ġà¤ľà¥Ī à¤µà¤¿à¤ķ
Ġà¤¸ à¥ģà¤ĸ
à¤µ à¥ĩà¤²
à¤¾à¤ĩà¤¨ à¤²
Ġà¤ªà¥įà¤°à¤¶à¥įà¤¨ à¥ĭà¤Ĥ
à¤¸à¤¾à¤¯ à¤¿à¤ķ
Ġà¤Ĺà¥įà¤° à¤¾à¤«
à¤µà¤¿à¤¶ à¥įà¤µ
à¤¾à¤° à¥ĭà¤¹
Ġà¤ľ à¥ĩà¤²
6 4
if e
Ġà¤« à¤¸à¤²
Ġà¤°à¤¸à¤¾à¤¯ à¤¨
av a
Ġà¤ªà¥įà¤° à¤¾à¤¨à¥įà¤¤
à¤¿à¤¸ à¥Ģ
Ġt ext
Ġs k
Ġà¤¬ à¤¯à¤¾à¤¨
Ġà¤¨à¤¿à¤¦ à¤¾à¤¨
Ġà¤µà¤¹ à¤¾à¤Ĥ
Ġà¤ĩ à¤Ł
Ġà¤ĳ à¤«à¤¼
Ġà¤ħà¤Ńà¤¿à¤¨ à¥ĩà¤¤à¥įà¤°à¥Ģ
à¤¿à¤µ à¤°à¥įà¤¸
Ġbet ween
200 1
ra ph
Ġà¤¦à¥ĭà¤¸à¥įà¤¤ à¥ĭà¤Ĥ
Ġà¤Ĩ à¤¯à¥ĭà¤Ĺ
Ġà¤ªà¥įà¤°à¤§à¤¾à¤¨ à¤®à¤Ĥà¤¤à¥įà¤°à¥Ģ
Ġà¤Ĺ à¥Īà¤²
Ġà¤§à¤¾à¤¤ à¥ģ
l l
Ġà¤ħà¤«à¥įà¤°à¥Ģ à¤ķà¥Ģ
Ġà¤ªà¥įà¤°à¤¤ à¤¿à¤·à¥įà¤ł
à¤¾à¤ ¢à¤¼
Ġà¤¹ à¤ľà¤¾à¤°
à¤ĩà¤¸ à¤²à¤¿à¤ı
r ough
à¤¦à¤°à¥įà¤¶ à¤¨
Ġà¤®à¤¾à¤Ĥà¤¸ à¤ªà¥ĩà¤¶
Ġcom ple
it e
Ġà¤Ĺà¥įà¤°à¥Ģ à¤¨
Ġà¤ķà¤¹ à¤¤à¤¾
Ġin put
Ġà¤° à¥Ĥà¤¸
Ġà¤īà¤¤à¥įà¤¤à¤° à¤ĥ
Ġà¤Ĩà¤¯ à¥ĭà¤ľà¤¨
à¤¦ à¥įà¤¦
o k
à ¦
Ġà¤¯à¤¾à¤¦ à¥ĥà¤ļà¥įà¤Ľà¤¿à¤ķ
Ġà¤ļà¥ģà¤¨à¥Į à¤¤à¤¿à¤¯à¥ĭà¤Ĥ
à¥ĩà¤ķ à¤¿à¤¨
Ġà¤¬à¤¤ à¤¾à¤¤à¥ĩ
à¤ħ à¤Ĥà¤¤
Ġà¤« à¤¾à¤¯à¤¦
Ġwh ile
à¤¾à¤£ à¤¾
Ġà¤ļà¥ģ à¤¨à¤¾
Ġà¤¹ à¤¾à¤īà¤¸
à¤¸ à¥Ĥà¤°
Ġpro cess
Ġà¤¨à¤¿à¤ķà¤¾à¤² à¤¨à¥ĩ
Ġà¤®à¤§ à¥įà¤¯à¤®
Ġà¤ĭ à¤£
ar s
Ġà¤¹à¥ĭ à¤®
à¤¿à¤¤ à¥įà¤¤
Ġà¤µà¤¿à¤¸ à¥įà¤«à¥ĭà¤Ł
Ġà¤ªà¤°à¥įà¤¯à¤¾à¤µà¤°à¤£ à¥Ģà¤¯
st and
ch o
Ġà¤ķà¤¿à¤¤ à¤¨à¥Ģ
L AB
Ġà¤Ĩà¤ķ à¤¾à¤¶
à¤¾à¤ķ à¥ĥà¤¤
Ġà¤²à¤¿à¤ĸ à¤¨à¥ĩ
Ġà¤µ à¥Īà¤ķ
Ġimp act
à¥ĩà¤Ĥ à¤ķ
Ġà¤¤à¤¤ à¥įà¤ķà¤¾à¤²
à¤¿à¤° à¤¾
Ġà¤ªà¥įà¤° à¥ĩà¤¸
à¤¨à¥įà¤ «
Ġà¤Łà¥ĩà¤ķà¥įà¤¸ à¥įà¤Ł
Ġà¤®à¤¿à¤² à¤ķà¤°
AT LAB
Ġà¤¸à¥įà¤¥à¤¾à¤¨ à¤¾à¤Ĥà¤¤à¤°à¤¿à¤¤
Ġà¤µà¤¿à¤µ à¤¾à¤¹
Ġà¤īà¤ª à¤ľ
Ġà¤ī à¤Ń
à¥ĭ à¤¨à¥ĩ
à¤¦ à¥įà¤¯
Ġà¤¸à¤Ĥà¤¶ à¥ĭà¤§à¤¨
à¤ķ à¥ĥà¤ªà¤¯à¤¾
Ġà¤² à¥ĭ
Ġb o
( à¤°
Ġà¤ķ à¤Ĥà¤Ł
à¥ĥà¤· à¥įà¤£
Ġà¤¹ à¤Łà¤¾
à¤¾à¤µ à¤¸à¥įà¤¥à¤¾
à¤¦à¥įà¤¯à¥ĭà¤Ĺ à¤¿à¤ķ
à¤¾à¤µ à¤²
Ġà¤®à¤¿à¤² à¤¤à¥ĩ
3 7
à¤¨à¥įà¤¯ à¤µà¤¾à¤¦
Ġà¤ķ à¤¨à¥ĩà¤ķ
à¤Ĥ à¤ķà¤°
Ġà¤¨à¤¿à¤¦ à¥ĩà¤¶à¤ķ
Ġà¤®à¤¨à¥ģà¤· à¥įà¤¯
Ġà¤ª à¤¤à¤¿
à¤µ à¤¿à¤¤à¥įà¤°
Ġà¤ķà¤¹ à¤¾à¤¨
à¤®à¥įà¤® à¤¦
Ġà¤ľà¤° à¥Ĥà¤°à¥Ģ
Ġà¤¸à¤¾à¤Ĺ à¤°
Ġà¤¶à¥ģà¤°à¥ģà¤Ĩ à¤¤à¥Ģ
Ġà¤ľ à¥ĩà¤¨
Ġà¤ĩ à¤Ĥà¤ļ
à¤¾à¤§ à¤¿à¤ķà¤¾à¤°
Ġà¤ħà¤Ĥà¤¤ à¤°à¥įà¤Ĺà¤¤
à¤²à¥ĭà¤ķ à¤¨
Ġà¤¸à¤Ĥà¤Ĺà¥įà¤° à¤¹à¥Ģà¤¤
Ġà¤ľ à¤¾à¤¨à¥Ģ
ĠP ro
Ġà¤Ńà¤¾à¤µà¤¨ à¤¾à¤ĵà¤Ĥ
Ġà¤ĸà¥ģà¤¶ à¥Ģ
Ġà¤ķà¥Ģ à¤Ł
à¤ĩ à¤¤à¤¿à¤¹à¤¾à¤¸
Ġà¤ªà¤¹à¥ģà¤Ĥà¤ļ à¤¨à¥ĩ
Ġà¤¨à¤®à¥Ĥ à¤¨à¤¾
à¥Ģ à¤®
Ġà¤Ĩà¤¨ à¥ģà¤µà¤Ĥà¤¶
Ġà¤µ à¥ĩà¤¸à¥įà¤Ł
Ġà¤ĩ à¤¨à¥įà¤¹à¥ĭà¤Ĥà¤¨à¥ĩ
Ġà¤¨à¥Ģ à¤Ĥà¤¦
Ġà¤²à¤Ĺ à¥Ģ
' ]
à¤¾à¤ª à¥ģà¤°
Ġà¤°à¤¹ à¤¨à¤¾
Ġà¤¦à¥ĩà¤ĸ à¤¨à¤¾
à¤¿à¤¶ à¥įà¤¤
it le
Ġf irst
à¥ĩ à¤¤à¥Ģ
Ġà¤®à¤¿à¤² à¤¾à¤ķà¤°
Ġà¤ľà¥ģ à¤¡à¤¼à¥Ģ
Ġà¤¨ à¤¾à¤ĩà¤Ł
Ġà¤¦à¥Ģ à¤°à¥įà¤ĺ
Ġà¤¬ à¥Ĥ
Ġinform ation
à¥įà¤¯ à¥Ĥà¤²
Ġà¤ĸ à¤¾à¤¸
Ġà¤µà¤¿à¤¦ à¥įà¤µ
Ġà¤¸à¤® à¤Ĺà¥įà¤°
à¤§à¤¾à¤° à¤¿à¤¤
( );
Ġà¤Ń à¥įà¤°
Ġà¤¬à¥įà¤° à¤¾à¤Ĥà¤¡
Ġà¤ª à¥ĭà¤²
à¤¾à¤Ł à¤¾
Ġà¤µà¤°à¥įà¤Ĺ à¥Ģà¤ķà¤°à¤£
à¤ķ à¤¾à¤¶
à¤ª à¤¹à¤°
Ġà¤®à¤¾à¤² à¤¿à¤ķ
Ġinclud e
Ġo ur
Ġn ame
Ġà¤ļ à¤¢à¤¼
Ġà¤ĺà¤¾à¤Ł à¥Ģ
Ġà¤¸ à¥Ī
Ġà¤¶ à¥ģà¤¦à¥įà¤§
à¤ķà¥įà¤· à¥ĩà¤¤à¥įà¤°
Ġà¤°à¥ĭà¤Ĺ à¥Ģ
Ġà¤¬à¥įà¤² à¥īà¤ķ
Ġà¤¦à¥ĭ à¤ªà¤¹à¤°
Ġà¤ħà¤¸ à¤¾à¤®à¤¾à¤¨à¥įà¤¯
Ġà¤Ńà¤µà¤¿à¤·à¥įà¤¯à¤µ à¤¾à¤£à¥Ģ
Ġà¤°à¥ĩà¤¡ à¤¿à¤¯à¥ĭ
c ol
Ġà¤ªà¥įà¤°à¤ķà¤¾à¤¶ à¤¨
Ġà¤Ĩà¤µ à¤¾à¤ľ
Ġh er
à¤Ĩà¤° à¤¬à¥Ģ
Ġà¤¸à¤® à¤°à¥įà¤ª
à¤ļà¤¨ à¤¾à¤ĵà¤Ĥ
à¤µ à¤¾à¤Ĥ
Ġà¤° à¤ļà¤¨à¤¾à¤¤à¥įà¤®à¤ķ
à¤¾à¤Ĥà¤¤ à¤°à¤£
Ġà¤²à¤Ĥà¤¬ à¤¾
Ġà¤§ à¥Ģ
Ġà¤ªà¥įà¤°à¤¤à¤¿à¤¯à¥ĭà¤Ĺ à¤¿à¤¤à¤¾
Ġà¤¸à¤Ĥà¤Ń à¤¾à¤²
ru ct
Ġà¤°à¤¾à¤ľà¤¨à¥Ģ à¤¤à¤¿
Ġà¤ªà¤¹à¤² à¥Ĥ
à¤¿à¤² à¥įà¤²
Ġà¤ªà¤¹ à¤¾à¤¡à¤¼
I C
w or
201 7
à¤ª à¤¾à¤¨
Ġà¤Ĺà¥ĭ à¤²à¥Ģ
Ġà¤ķà¥įà¤² à¤¿à¤ķ
Ġà¤ķà¤¾à¤² à¥ĩ
d s
Ġà¤¤à¥Ģ à¤¸à¤°à¥ĩ
Ġà¤® à¥Īà¤ķà¥įà¤¸
Ġà¤ªà¥įà¤°à¤¤à¥Ģ à¤¤
Ġà¤ķà¤ł à¥ĭà¤°
Ġà¤¸à¤¾à¤ §à¤¾à¤°à¤£
à¥Ģà¤µ à¥įà¤°
à¤ľ à¤¨à¥įà¤®
" >
Ġà¤Ľ à¥ģà¤Ł
20 18
Ġà¤¨à¤µà¥Ģà¤¨ à¤¤à¤®
Ġà¤®à¥ģà¤ĸà¥įà¤¯ à¤¾à¤²à¤¯
( à¤¨
Ġà¤ħà¤µà¤§à¤¾à¤° à¤£à¤¾
( S
Ġà¤ħ à¤¸à¤°
à¤¿à¤Ĥ à¤¡
Ġeff ect
à¥ĩà¤Ĥ à¤ļ
à¤ľà¥Ģà¤µ à¤¿à¤¤
Ġà¤Ľ à¤µ
à¤¾à¤µ à¤¤
Ġà¤µà¤°à¥įà¤£ à¤¿à¤¤
Ġà¤¦à¥ģ à¤°à¥įà¤ĺ
Ġà¤« à¤¿à¤Ł
Ġà¤ªà¤¾à¤° à¤¿à¤¸à¥įà¤¥à¤¿à¤¤
Ġà¤¬à¤ļà¥įà¤ļ à¤¾
Ġà¤µà¤¾à¤° à¥įà¤·à¤¿à¤ķ
Ġà¤Ł à¥įà¤µ
à¤¸ à¤µà¤¾à¤²
Ġà¤¬à¤¾à¤° à¤¿à¤¶
à¥ĭà¤ľ à¤¼
à¥ĭ à¤ĩ
-à¤ª à¤¶à¥įà¤ļà¤¿à¤®
Ġà¤ľ à¥ĩà¤®à¥įà¤¸
Ġalgorith m
à¤· à¥įà¤®
Ġpe ople
Ġà¤ļà¥Ģà¤ľ à¥ĩà¤Ĥ
er y
" .
Ġà¤¡à¥ĩà¤µ à¤¿à¤¡
à¤ª à¥įà¤Ł
Ġà¤ķà¥įà¤² à¤¾à¤¸
Â °
à¤¾à¤ķà¥įà¤· à¤°
Ġm ay
(à¤ľ à¥Īà¤¸à¥ĩ
Ġà¤ªà¤¦ à¤ķ
Ġà¤¤ à¥Ģà¤µà¥įà¤°
Ġà¤ħ à¤Ĥ
Ġk n
Ġ ra
à¤¿à¤Ĺ à¥įà¤°
Ġà¤ķ à¥ĥ
Ġà¤¸ à¥ĭà¤²
à¤ĩà¤¨à¤ªà¥ģà¤Ł à¤ĥ
Ġà¤¬à¥ī à¤ķà¥įà¤¸
Ġà¤¸à¥įà¤ķ à¥īà¤Ł
à¤¾à¤Ĺà¤° à¥Ĥà¤ķ
Ġà¤Ĩ à¤Ĥà¤ĸ
à¤¿à¤ľ à¥įà¤¯
Ġà¤ªà¥įà¤°à¤¤à¤¿à¤° à¥ĭà¤§
à¥ĭ à¤¥
( $
Ġà¤ľà¤¨ à¤ľà¤¾à¤¤
Ġà¤¨ à¤¦
Ġà¤ĩà¤ķ à¤Łà¥įà¤ł
Ġn um
Ġà¤ªà¤°à¤¿à¤Ńà¤¾à¤· à¤¾
Ġm ed
Ġà¤ķà¤ª à¥Ĥà¤°
(à¤ľ à¤¨à¥įà¤®
Ġà¤Łà¥ĩà¤²à¥Ģà¤µ à¤¿à¤ľà¤¨
Ġà¤ķà¥ģà¤¤à¥įà¤¤ à¥ĩ
à¤ª à¤°à¥Ģ
Ġà¤Ńà¥ĩà¤ľ à¤¾
Ġà¤ª à¥ģà¤·à¥įà¤Łà¤¿
Ġà¤ļà¤¿à¤ķà¤¿à¤¤à¥įà¤¸ à¤ķ
Ġà¤ħà¤¸à¥įà¤¤ à¤¿à¤¤à¥įà¤µ
Ġà¤ľà¥įà¤¯à¤¾à¤¦ à¤¾à¤¤à¤°
à¤ª à¤ļà¤¾à¤°à¤¿à¤ķ
Ġà¤Ĺà¤¿à¤° à¤¾à¤µà¤Ł
à¤¦ à¤¿à¤ı
Ġà¤ļà¤² à¤¤à¥ĩ
à¥įà¤Ń à¥ģà¤¤
Ġà¤ıà¤²à¥įà¤Ĺà¥ĭà¤°à¤¿à¤¥ à¤®
" à¤Ĩ
Ġhe alth
Ġà¤¹ à¤¦
" à¥¤
à¥ģ à¤¬
Ġà¤¡ à¥ĩà¤¨
Ġà¤¦à¤° à¤µ
Ġà¤ħà¤¨à¥ģà¤ª à¤¾à¤¤
Ġà¤µà¥įà¤¯à¤¾à¤µ à¤¸à¤¾à¤¯à¤¿à¤ķ
Ġà¤°à¤¾à¤¸à¥įà¤¤ à¥ĩ
Ġà¤ĩà¤¸ à¤¨à¥ĩ
Ġà¤ĸ à¤¾à¤¡à¤¼à¥Ģ
à¤¤ à¥Ĥ
à¥ĩà¤¤ à¥ģ
Ġà¤¶à¥įà¤°à¥ĩà¤£ à¤¿à¤¯à¥ĭà¤Ĥ
à¥ Ŀ
Ġà¤²à¤¾à¤ĩ à¤¬à¥įà¤°
Ġà¤¯à¥Į à¤¨
Ġà¤² à¤¾
y n
à¤° à¤¤
el f
f ore
à¤¾à¤¤ à¥įà¤ķà¤¾à¤°
à¤¶à¥įà¤® à¥Ģà¤°
Ġà¤® à¥ĩà¤¨
Ġà¤¹ à¤ľ
à¤¸à¥ĩ à¤¸
à¤ķà¤¾à¤° à¥ĭà¤Ĥ
-à¤Ĩ à¤§à¤¾à¤°à¤¿à¤¤
Ġà¤ħà¤Ĥà¤¡ à¥ĩ
Ġà¤¸ à¤¿à¤®
Ġà¤ķà¥įà¤µ à¥ĩà¤°à¥Ģ
Ġà¤ªà¤°à¤¿à¤ķ à¤²à¥įà¤ªà¤¨à¤¾
h at
à¥įà¤¤à¤° à¤¾à¤Ĥ
Ġà¤µà¤¿à¤ľà¥įà¤ŀ à¤¾à¤ªà¤¨
Ġà¤ªà¥įà¤° à¥ĩ
à¤¾à¤£ à¤¿à¤ľà¥įà¤¯
Ġà¤ªà¥įà¤°à¤ķà¥įà¤° à¤¿à¤¯à¤¾à¤ĵà¤Ĥ
à¤¤ à¤¿à¤ķà¥Ģ
ĠE n
Ġà¤ľà¤¿à¤¤ à¤¨à¤¾
199 0
à¤¢à¤¼ à¥Ģ
Ġà¤µà¤¾à¤¯ à¥ģà¤®
ĠD e
ĠIndi a
Ġà¤¦à¤¸à¥įà¤¤à¤¾à¤µ à¥ĩà¤ľ
à¤² à¤°
[ i
Ġà¤®à¤ľà¤¬ à¥Ĥà¤°
Ġà¤ķ à¤µà¤°
Ġà¤®à¥Ī à¤°à¥Ģ
Ġà¤° à¤¾à¤¨à¥Ģ
200 2
Ġà¤ļà¤® à¤ķ
Ġf il
3 8
im port
ran ge
à¤« à¥ĭà¤°à¥įà¤¡
à¤¨ à¤¤à¤®
Ġà¤µ à¤¾à¤¶à¤¿à¤Ĥà¤Ĺà¤Łà¤¨
Ġà¤īà¤¤à¥įà¤ª à¤¤à¥įà¤¤à¤¿
200 3
Ġà¤ľà¥ĭà¤¡à¤¼ à¥ĩà¤Ĥ
' )
Ġà¤® à¤Ĥà¤ľ
à¤¾à¤¯ à¤£
si ble
Ġà¤«à¥įà¤° à¤¾à¤Ĥà¤¸à¥Ģà¤¸à¥Ģ
Ġà¤ľ à¥Ĥ
Ġà¤Ł à¥Īà¤Ĺ
à¤ķ à¥ģà¤²
à¤¹à¤° à¤¾à¤Ī
à¥ĥ à¤¶à¥įà¤¯
Ġà¤Ńà¤° à¤¾
Ġà¤ľà¥ĭ à¤¡à¤¼à¥Ģ
à¤ĺ à¤°
si ve
Ġà¤°à¤¾à¤ľ à¤¸à¥įà¤¥à¤¾à¤¨
Ġà¤¸à¤®à¤Ŀ à¤¨à¤¾
( à¤¹
à¥ĭà¤Ĥ à¤Ĺ
Ġb ased
Ġm y
t al
ĠW rite
à¥Ģ à¤¶
Ġat t
à¤¹ à¤¸
Ġà¤ħ à¤²à¥Ģ
at ch
à¤°à¥įà¤® à¤¾à¤£
Ġà¤ħà¤¨à¥ģ à¤ķà¥įà¤°à¤®
ic i
Ġà¤ĺà¤Ł à¤ķ
n ess
Ġà¤Ĺ à¤µ
Ġà¤¸à¤®à¥įà¤¬ à¤¨à¥įà¤§
à¤ķà¥įà¤¤ à¤¾
Ġth ere
Ġe le
Ġà¤¸à¥įà¤® à¤¾à¤°à¥įà¤Ł
Ġà¤ĩà¤Ĥà¤¡ à¤¿à¤¯à¤¾
Ġà¤®à¥ģà¤ĸ à¥įà¤¯à¤®à¤Ĥà¤¤à¥įà¤°à¥Ģ
p ro
Ġà¤¤ à¥Ģà¤¸
9 5
a pp
Ġà¤ķà¤¾à¤¨ à¥Ĥà¤¨à¥Ģ
Ġc alcul
Ġà¤° à¤ľ
à¤¡ à¥ĩ
Ġc or
ĠU n
ĠĠĠĠ ĠĠ
Ġà¤ķ à¤¾à¤Ĺ
Ġà¤µà¤¿à¤Ńà¤¾à¤ľ à¤¨
à¥ģà¤ĸ à¥Ģ
à¥įà¤Ł à¤¿à¤¨
v ent
st r
Ġà¤ħà¤¨à¥ģà¤° à¥ĭà¤§
( à¤Ĩ
Ġà¤ĸ à¤¬à¤°
Ġà¤¬à¤¤ à¤¾à¤ıà¤Ĥ
Ġà¤ħà¤Ĥà¤¤à¤° à¤°à¤¾à¤·à¥įà¤Łà¥įà¤°à¥Ģà¤¯
à¥ģà¤¤ à¥įà¤µ
Ġà¤Ķ à¤¦à¥įà¤¯à¥ĭà¤Ĺà¤¿à¤ķ
à¤¸à¥Ģ à¤¯
Ġre m
Ġà¤¸à¥įà¤Ł à¥ĩà¤Ł
Ġà¤ª à¤Ĥà¤ĸ
ĠS h
Ġà¤² à¥ĩà¤¬à¤²
c ed
Ġchar act
Ġlear ning
à¤¦ à¥ĩà¤µ
St ring
Ġà¤§ à¤®
Ġà¤¬à¤¹ à¤¨
Ġà¤ľ à¤¾à¤Ĺà¤°à¥Ĥà¤ķ
Ġà¤°à¥ĭà¤® à¤¨
Ġà¤ĩà¤¤ à¤¨à¥Ģ
- à¤ī
à¤¨à¥įà¤ ķ
Ġà¤Ńà¤¾à¤Ĺ à¥ĭà¤Ĥ
à¤¿à¤·à¥įà¤ķ à¤¾à¤°
Ġà¤µà¤°à¥įà¤· à¤¾
à¤¾à¤Ł à¤°
Ġà¤ĩà¤¨ à¤ķà¤¾
à¥Ģ à¤¦à¤¾
Ġà¤¬à¤¨ à¤¾à¤¤à¥Ģ
à¤¸à¥įà¤Ł à¤¨
rand om
ĠE x
Ġà¤¸à¤Ĥ à¤µà¤¿à¤§à¤¾à¤¨
Ġà¤µà¤¿à¤ľ à¤¯
à¤µ à¤¹
à¤Ń à¤¾à¤Ĺ
Ġà¤¤ à¥įà¤¯
Ġà¤¶ à¥Īà¤²
Ġà¤ĸà¤¤à¤° à¤¨à¤¾à¤ķ
à¤¸ à¤¾à¤¦
Ġà¤°à¥ĩà¤¸ à¥įà¤¤à¤°à¤¾à¤Ĥ
Ġà¤µ à¥ĥà¤¤à¥įà¤¤
Ġà¤®à¤¹ à¤¾à¤®
ate g
Ġà¤ªà¥ĩ à¤ªà¤°
Ġà¤ħà¤¦ à¥įà¤Ńà¥ģà¤¤
Ġà¤ª à¥įà¤¯
as h
à¤Ĥà¤¤ à¥ģ
Ġà¤¶ à¤°à¥įà¤¤
à¤¿à¤ķ à¥Ģà¤¯
Ġà¤§ à¤¨à¥įà¤¯à¤µà¤¾à¤¦
"à¤® à¥Īà¤Ĥ
à¥ī à¤ĩ
Ġà¤ĸà¤¿à¤² à¤¾à¤¡à¤¼à¤¿à¤¯à¥ĭà¤Ĥ
( à¤¸à¥Ģ
Ġà¤ĺà¥ĭ à¤·à¤¿à¤¤
Ġà¤¬à¤¨ à¤¤à¤¾
Ġà¤ıà¤ķà¥įà¤¸ à¥ĩà¤²
Ġà¤¸à¤® à¤¾à¤°à¥ĭà¤¹
à¤Ń à¤¾à¤·
Ġà¤¸à¤®à¥Ģ à¤ķà¥įà¤·
Ġà¤¤à¤Ĥà¤¤à¥įà¤° à¤¿à¤ķà¤¾
à¤ª à¥įà¤²
c ent
à¥ĭ à¤Ī
Ġà¤¶ à¤¿à¤¶
re d
-à¤ª à¥Ĥà¤°à¥įà¤µ
à¥ĭ à¤¡à¤¼à¤¾
Ġà¤® à¥ģà¤²
à¤¶ à¤¾à¤²à¥Ģ
à¤Ĺ à¥įà¤¨
Ġà¤¨ à¤¿à¤§à¤¨
Ġà¤ľà¤Ĥà¤Ĺ à¤²à¥Ģ
Ġà¤ĩà¤ķà¤Łà¥įà¤ł à¤¾
Ġà¤ħà¤Ńà¤¿à¤¨ à¤¯
Ġanaly sis
Ġà¤ª à¤¾à¤¯
Ġà¤¸à¤® à¥įà¤ª
Ġà¤¦à¤°à¥įà¤¶ à¤ķà¥ĭà¤Ĥ
iv es
Ġà¤¬à¤Ĥà¤Ĺ à¤¾à¤²
à¥įà¤° à¥ĭà¤²
Ġà¤ĩ à¤Ĥà¤¸
um ent
à¤¸ à¤¿à¤Ĥ
Ġth rough
Ġà¤µ à¤¹à¥Ģ
à¤¬ à¤¾à¤°
Ġà¤¹à¤® à¤¾à¤°à¤¾
à¤²à¥įà¤ª à¤¿à¤ķ
à¤° à¤¤à¤¾
à¥Ī à¤²à¥Ģ
Ġà¤ª à¤µà¤¿à¤¤à¥įà¤°
Ġc reat
Ġà¤Łà¥įà¤° à¤¾à¤Ĥà¤¸
Ġà¤²à¤¿à¤ĸ à¥Ģ
Ġà¤ħà¤µ à¤²à¥ĭà¤ķà¤¨
Ġà¤¶à¤¿à¤ķà¥įà¤· à¤ķà¥ĭà¤Ĥ
Ġà¤¸à¥įà¤ķà¥Ĥà¤² à¥ĭà¤Ĥ
à¤¤ à¤²
à¤¤ à¥įà¤®
Ġà¤¸à¥įà¤ķ à¥įà¤°à¥Ģà¤¨
Ġà¤¸à¤Ĥ à¤ľà¥įà¤ŀ
Ġm in
( à¤²
à¤ħ à¤°
à¥įà¤¸ à¤¨
à¤¤à¥įà¤° à¤¿à¤®
à¤Ĥà¤§ à¤¿à¤¤
Ġà¤¸à¤Ĥà¤¦ à¥ĩà¤¹
Ġà¤¹ à¤¾à¤¨
Ġà¤īà¤ª à¤Ĺà¥įà¤°à¤¹
Ġà¤¡ à¤¿à¤µ
s s
Ġà¤¨à¤¿à¤°à¥įà¤§à¤¾à¤° à¤£
à¤¯ à¤¨à¥ĭà¤Ĥ
Ġà¤¨à¤¿à¤°à¥įà¤¦ à¤¿à¤·à¥įà¤Ł
s p
Ġà¤µà¤¿à¤ķ à¤¾à¤°
à¤¸à¥ĩ à¤¨à¤¾
pp ort
Ġà¤ķ à¥Īà¤¨
Ġà¤µà¤¾à¤ķ à¥įà¤¯à¥ĭà¤Ĥ
Ġà¤¯ à¤¾à¤¤à¥įà¤°
ĠM ATLAB
à¤° à¤¾à¤¨
Ġà¤µ à¤¸à¤¾
Ġà¤ªà¥įà¤°à¤¯à¤¾à¤¸ à¥ĭà¤Ĥ
Ġà¤®à¤¹ à¤¾à¤¦
Ġà¤µà¤¿à¤ľ à¥ĩà¤¤à¤¾
Ġen s
à¤¾à¤« à¤¼
à¤¤ à¤¾à¤ıà¤ģ
Ġà¤ľà¤¾à¤ı à¤Ĥà¤Ĺà¥ĩ
Ġà¤®à¥ģà¤¦à¥įà¤¦ à¥ĩ
Ġà¤¸à¤ļ à¤¿à¤µ
à¤¿à¤µ à¥ĩà¤¶
Ġcon si
Ġar t
Ġà¤ĩà¤Ĥ à¤¸à¥įà¤Ł
Ġà¤ıà¤ª à¥įà¤²
Ġà¤µ à¤¾à¤£à¤¿à¤ľà¥įà¤¯
Ġà¤Ł à¤¾à¤ĩà¤ª
à¤¸à¤¾à¤° à¤¾à¤Ĥà¤¶
à¤¾à¤ĩà¤ķ à¤¿à¤²
Ġimport ant
Ġà¤² à¥ĩà¤¨
Ġà¤¶à¤¿à¤ķà¥įà¤· à¤£
Ġà¤ªà¤Ĥ à¤ķà¥įà¤¤à¤¿
à¤° à¥ĩà¤Ł
à¤® à¥ģ
à¥įà¤¤ à¥įà¤°
à¤°à¥įà¤² à¤Ń
Ġà¤ħà¤¦ à¥įà¤¯
Ġà¤Ĺà¤¾à¤Ĥ à¤§à¥Ģ
Ġà¤¤à¥Ĥà¤« à¤¾à¤¨
Ġà¤¹ à¥ĩà¤¤à¥ģ
à¤°à¥ĭ à¤¨à¤¾
Ġà¤Ĺ à¤¹à¤°à¤¾à¤Ī
Ġà¤®à¥ģà¤¦ à¥įà¤°
à¥ģà¤® à¥įà¤¬
4 4
Ġà¤® à¤¿à¤¤à¥įà¤°
Ġà¤Ń à¥įà¤°à¤®
Ġwe b
Ġel se
à¥įà¤° à¥ģà¤µ
à¥ĩà¤² à¤¾
. c
Ġà¤¸à¤¹à¤¯à¥ĭà¤Ĺ à¥Ģ
em s
à¤¸ à¤¾à¤Ĥ
Ġà¤ĺ à¤¾à¤¸
Ġà¤«à¥įà¤² à¥ĭà¤°
I I
Ġà¤Ĺà¤¿à¤° à¤«à¥įà¤¤
Ġà¤ļà¤² à¤¾à¤¨à¥ĩ
Ġà¤¨à¤¿à¤Ĺ à¤®
à¤¾à¤¸ à¥ĩà¤Ł
Ġà¤¸à¤Ĥà¤Ĺà¤ł à¤¨à¥ĭà¤Ĥ
Ġà¤µà¤¾à¤ķà¥įà¤¯ à¤¾à¤Ĥà¤¶
Ġà¤¸à¤®à¥ģà¤¦à¤¾à¤¯ à¥ĭà¤Ĥ
Ġà¤ķà¥įà¤° à¤¿à¤¸à¥įà¤Ł
Ġà¤®à¤¨à¥ĭà¤° à¤Ĥà¤ľà¤¨
à¤² à¤¾à¤ĩà¤¨
Ġd at
Ġà¤ħà¤¨ à¥ģà¤¶
à¤¿à¤ª à¥Ģ
Ġunder stand
à¤¾à¤¯ à¤¾à¤¤
em ent
Ġà¤ª à¤¾à¤īà¤Ĥà¤¡
an ge
Ġà¤¤à¤° à¤Ĥà¤Ĺ
Ġà¤¬ à¥Īà¤ķà¥įà¤Ł
Ġà¤¦à¥įà¤µ à¤¾à¤°
Ġà¤Ł à¥Ĥà¤²
à¤¯ à¤²
à¤¾à¤Ĥà¤Ł à¤¿à¤ķ
Ġà¤ªà¤°à¤¿à¤¸ à¤°
à¥Ī à¤¶
Ġà¤ķà¥ĩ à¤¨à¥įà¤¦à¥įà¤°
Ġà¤ħ à¤ľ
à¥ĭà¤² à¥įà¤¡
à¤ĸ à¤¿à¤ķ
Ġà¤¸à¥įà¤µ à¤ļà¥įà¤Ľ
Ġde sign
Ġà¤ı à¤°
à¤°à¥įà¤· à¤ķ
ir on
Ġà¤ķà¤µ à¤¿
Ġà¤¯ à¥ģà¤ķà¥įà¤¤
Ġà¤ħà¤² à¥įà¤®
Ġà¤Īà¤¸ à¤¾à¤Ī
ĠF or
à¤®à¤¾à¤° à¥įà¤ļ
à¤¾à¤ľ à¤¨à¤ķ
à¤¾à¤ķ à¥Ĥ
à¥įà¤°à¥Ģ à¤Ł
à¤ķ à¤¿à¤¯à¥ĭà¤Ĥ
ĠC om
Ġà¤¨à¥įà¤¯à¥Ĥ à¤¨à¤¤à¤®
Ġà¤¹à¤¸à¥įà¤¤ à¤¾à¤ķà¥įà¤·à¤°
Ġà¤¸à¥įà¤µ à¤°à¥Ĥà¤ª
Ġà¤¦à¥Įà¤° à¤¾
Ġà¤¦à¥Ģà¤µ à¤¾à¤°
n er
à¤ħ à¤ķ
Ġà¤ªà¤¸à¤Ĥà¤¦ à¥Ģà¤¦à¤¾
Ġs m
ri ght
à¥§à¥ «
Ġà¤ķà¥ĭà¤¶ à¤¿à¤ķà¤¾
ht t
à¤¾à¤® à¥ĩà¤Ĥà¤Ł
Ġà¤ıà¤ľ à¥ĩà¤Ĥà¤¸à¥Ģ
à¥ĭà¤® à¤¾
Ġc o
à¥įà¤° à¥ĩ
Ġà¤īà¤²à¥įà¤²à¥ĩà¤ĸ à¤¨à¥Ģà¤¯
Ġà¤ļ à¥Īà¤Ĥà¤ª
Ġà¤µà¤¿à¤Ł à¤¾à¤®à¤¿à¤¨
Ġà¤¶ à¥Į
à¤®à¤¾à¤° à¥įà¤ķ
Ġà¤ªà¥įà¤°à¤¶à¤¾à¤¸à¤¨ à¤¿à¤ķ
" );
Ġcl ass
à¥Ģà¤¡ à¥Ģ
Ġà¤ªà¤°à¤¿à¤µà¤°à¥įà¤¤ à¤¿à¤¤
Ġà¤ķ à¤¥à¤¾
Ġà¤¬ à¤Ĥà¤¦à¤°
Ġà¤ªà¤°à¤¿à¤ļ à¤¯
Ġà¤¹à¤® à¤²à¥ĩ
18 8
Ġà¤§ à¤°
Ġà¤¨à¥įà¤¯à¤¾à¤¯ à¤¾à¤²à¤¯
Ġt rans
Ġà¤ĩà¤¸à¥įà¤² à¤¾à¤®
20 20
à¤ªà¥įà¤° à¥Īà¤²
à¤Ł à¤¨à¤¾
Ġà¤¸à¤® à¤¾à¤¯
Ġf act
Th is
L E
Ġà¤ħ à¤Ĥà¤§
Ġà¤ªà¥Īà¤ķ à¥ĩà¤ľ
Ġà¤¡ à¤¾à¤²à¤¾
Ġà¤ĩ à¤Ĥà¤¤
Ġà¤° à¤¿à¤¶à¥įà¤¤
à¤¸à¥įà¤¤ à¥Ģ
Ġà¤¸ à¤ľ
m er
Ġà¤ĩà¤ļà¥įà¤Ľ à¤¾
Ġà¤¶ à¤°à¥įà¤®à¤¾
od y
à¤¶ à¥įà¤°à¥Ģ
Ġà¤° à¤¿à¤²à¥Ģ
à¤²à¥įà¤ª à¤¨
t r
Ġà¤¸à¤¹ à¤®à¤¤
Ġà¤ħà¤¦ à¤¾à¤²
Ġà¤¦à¥ģ à¤°à¥įà¤²à¤Ń
Ġa g
Ġà¤¨ à¤¸à¥įà¤²
Ġà¤ļà¥ģ à¤ķà¤¾
à¤¿à¤² à¥įà¤²à¥Ģ
Ġà¤¸à¥įà¤µ à¤ļ
Ġà¤ªà¥Ĥ à¤ľà¤¾
Ġà¤Ĺà¤£ à¤¿à¤¤à¥Ģà¤¯
iz ed
Ġà¤µ à¥ĥ
à¥įà¤¸ à¥Ģ
Ġà¤ķà¥įà¤° à¤¾à¤Ĥà¤¤à¤¿
Ġà¤ħà¤§à¥įà¤¯ à¤¾à¤¯
Ġà¤ħà¤Ĺ à¥įà¤¨
Ġà¤®à¥ĭà¤Ł à¤°
à¤¤à¥įà¤¤ à¥įà¤µ
à¤¬ à¤¾
Ġà¤¶à¤¾à¤ĸ à¤¾
Ġà¤Ĩ à¤īà¤Ł
âĢ Į
à¥įà¤£ à¥ģ
Ġà¤ªà¥įà¤° à¤ľà¤¨à¤¨
Ġà¤ħ à¤ĸ
à¤ľà¤¨ à¤µà¤°à¥Ģ
Ġà¤Ńà¤¾à¤µà¤¨ à¤¾à¤¤à¥įà¤®à¤ķ
à¥ģ à¤°à¥Ģ
Ġà¤° à¥ģà¤ķ
Ġà¤ĸ à¤¾à¤²à¥Ģ
ou ble
Ġà¤®à¤¹ à¤¾à¤µ
Ġà¤² à¤¿à¤ª
à¤Ĥ à¤¸à¥įà¤ķ
Ġà¤Ńà¥Ģ à¤¡à¤¼
à¤¾à¤Ĥ à¤µ
Ġà¤¸ à¤¿à¤Łà¥Ģ
à¤¶ à¤¿à¤ķà¥įà¤·
-à¤¦ à¥Ĥà¤¸à¤°à¥ĩ
urren t
e ver
à¤¾à¤¤ à¥į
Ġà¤¶ à¤¹à¤°à¥Ģ
Ġà¤®à¥ĭ à¤¦à¥Ģ
Ġà¤¹à¤¥ à¤¿à¤¯
à¤¸à¥įà¤¥ à¤²
à¥ Ľ
Ġà¤ĺà¤° à¥ĭà¤Ĥ
Ġà¤² à¤ĺ
à¤¦ à¥ĩ
Ġà¤¯à¤¹ à¥Ĥà¤¦à¥Ģ
Ġà¤²à¤¾à¤ĩà¤¬à¥įà¤° à¥ĩà¤°à¥Ģ
à¤Ĺ à¤¨
ĠA r
Ġto tal
à¤µ à¤¾à¤¸
Ġà¤¶ à¤¿à¤²
Ġà¤¸à¥įà¤µ à¤°
Ġà¤®à¤¨à¥ģà¤· à¥įà¤¯à¥ĭà¤Ĥ
Ġà¤ľà¤¨ à¤°à¤²
Ġv i
7 8
Ġà¤ľ à¤¾à¤µà¤¾
Ġà¤¦à¥ĩ à¤°
Ġà¤ªà¥įà¤°à¥ĩ à¤°à¤£
? "
Ġà¤¯à¥Ĥà¤¨ à¤¿à¤µà¤°à¥įà¤¸
Ġà¤® à¤¿
à¤¿à¤¨ à¥įà¤¦à¥Ģ
Ġà¤¸à¤®à¤¾à¤¨ à¤¤à¤¾
pt ion
Ġà¤¬à¥ĩà¤¹ à¤¦
à¤Ĥà¤¡ à¤°
Ġà¤¸à¥ĭà¤® à¤µà¤¾à¤°
à¤Ĩà¤īà¤Łà¤ªà¥ģà¤Ł à¤ĥ
à¥įà¤° à¤¾à¤Ł
Ġà¤ķà¥įà¤·à¥ĩà¤¤à¥įà¤° à¥Ģà¤¯
Ġà¤¬à¤¢à¤¼ à¤¤à¤¾
Ġà¤ļà¥ĩà¤¤ à¤¾à¤µà¤¨à¥Ģ
Ġà¤«à¤¾à¤° à¥įà¤®
ĠW e
à¤¨à¥įà¤¨ à¤¾
Ġà¤ħà¤Ĥà¤Ĺà¥įà¤° à¥ĩà¤ľà¤¼à¥Ģ
Ġà¤ªà¥įà¤°à¤¤ à¤¿à¤¦
Ġà¤Ĺ à¤°
ic ation
Ġà¤¡à¥ĩà¤Ł à¤¾à¤¸à¥ĩà¤Ł
Ġà¤¸à¤®à¤Ŀà¥Į à¤¤à¥ĩ
Ġà¤®à¥ģ à¤¸à¥įà¤²
à¤ĸ à¥įà¤¤
à¤Ĩà¤ª à¤ķà¥ĭ
Ġà¤¸à¥ĭ à¤¨à¥ĩ
Ġà¤Ĩà¤¨à¥ģà¤µà¤Ĥà¤¶ à¤¿à¤ķ
C T
à¤ıà¤ķ à¥įà¤¸
Ġà¤°à¤Ĥà¤Ĺ à¥ĭà¤Ĥ
Ġà¤¸à¥Ģà¤® à¤¾à¤ĵà¤Ĥ
Ġà¤ļà¤¾à¤¹ à¥ĩ
in es
Ġà¤¸à¤® à¥ĥà¤¦à¥įà¤§
Ġà¤ªà¥įà¤°à¤ķ à¤Ł
à¥ĭà¤² à¤¿à¤ķ
à¤° à¤¨
à¤¬ à¥ģà¤ķ
3 9
Ġà¤¸ à¤Ń
Ġà¤Ĺ à¤¿à¤¨
Ġà¤ªà¤° à¤¤
Ġà¤ķà¤¿à¤¸ à¤¾à¤¨
---------------- ----------------
Ġprov id
v ol
à¥įà¤Ł à¤¾
Ġà¤Ĩ à¤¨à¥įà¤§à¥įà¤°
à¤¡ à¤®
if t
Ġwor ld
m ing
Ġà¤¸à¥įà¤Ł à¥īà¤ķ
Ġd ist
Ġà¤¹à¤Ł à¤¾à¤¨à¥ĩ
Ġt able
ri b
Ġà¤®à¤¿à¤¸ à¥įà¤°
a j
Ġe qu
Ġnumb ers
er r
Ġth an
à¤Ĥ à¤µ
Ġà¤¬à¥ģ à¤§
-à¤¸ à¤¿à¤¤
Ġà¤ķ à¤ļ
Ġà¤¨ à¤ľà¤¼à¤°
Ġà¤ĸà¥ĩà¤² à¤¨à¥ĩ
Ġà¤µà¤¿à¤° à¤¾à¤¸à¤¤
à¥ĭ à¤¨à¤¾
Ġà¤ħà¤§ à¥Ģà¤¨
Ġà¤ł à¥ĭà¤¸
à¤¿à¤ķ à¤¿à¤¯à¥ĭà¤Ĥ
Ġà¤ķà¤¿à¤¸ à¤¾à¤¨à¥ĭà¤Ĥ
Ġà¤¬à¥įà¤² à¥Īà¤ķ
Ġà¤Ń à¤²à¥ĩ
t t
Ġà¤²à¤Ĺ à¤¾à¤¨à¤¾
Ġà¤µà¤°à¥įà¤· à¥Ģà¤¯
à¤ļà¥įà¤Ľ à¥ĩà¤¦
Ġà¤µà¤¿à¤¶à¥įà¤µ à¤¸à¤¨à¥Ģà¤¯
Ġà¤¤à¥įà¤°à¥ģà¤Ł à¤¿
Ġà¤®à¥ģà¤¸à¥įà¤² à¤¿à¤®
Ġà¤¡ à¤¾à¤ĩ
Ġà¤¸à¥įà¤® à¥ĥà¤¤à¤¿
à¤¾à¤Ĥà¤¤à¥įà¤° à¤¿à¤ķ
à¤Ĥ à¤¸à¤¾
iqu e
v iron
à¤°à¥įà¤¤ à¤®à¤¾à¤¨
Ġà¤®à¤¾à¤Ĥà¤¸à¤ªà¥ĩà¤¶ à¤¿à¤¯à¥ĭà¤Ĥ
Ġà¤īà¤¦ à¥įà¤¯à¤®
à¤ĳà¤ķà¥įà¤¸ à¤¾à¤ĩà¤¡
c ur
Ġà¤ľ à¤¾à¤¦
Ġà¤ıà¤¸ à¤¿à¤¡
Ġà¤¬ à¥ģà¤ķ
à¤²à¥Ģ à¤Ł
Ġà¤¸à¥Īà¤¨ à¤¿à¤ķà¥ĭà¤Ĥ
Ġà¤ļà¤Ĥà¤¦à¥įà¤° à¤®à¤¾
Ġà¤¸à¥ģà¤µà¤¿à¤§ à¤¾à¤ĵà¤Ĥ
à¤ĸ à¤¾
Ġà¤®à¥ģ à¤Ĥà¤¬à¤Ī
Ġà¤ļà¥ĩ à¤¹à¤°à¥ĩ
Ġà¤®à¤¹ à¤²
Ġà¤® à¤¾à¤¯
Ġà¤ħà¤µ à¤°
Ġà¤¬à¥ĭ à¤²à¥Ģ
-à¤¬ à¤¾à¤°
Ġà¤² à¤®à¥įà¤¬
à¥įà¤ķ à¥Ģ
à¤Ĥà¤¦ à¥Ģ
Ġà¤¸à¤¾à¤® à¤¾à¤¨
p lo
Ġà¤ķ à¤°à¥įà¤¨
Ġth en
Ġà¤¸à¤¿à¤¦à¥įà¤§à¤¾à¤Ĥà¤¤ à¥ĭà¤Ĥ
H P
Ġà¤Ń à¥ĩà¤¦
20 19
Ġà¤®à¤§à¥ģà¤® à¥ĩà¤¹
Ġà¤Ĩ à¤°à¥įà¤Ł
Ġà¤¸à¥Ĥà¤ļà¥Ģ à¤¬à¤¦à¥įà¤§
[ "
Ġà¤ıà¤ķ à¥Ģà¤ķà¥ĥà¤¤
Ġw ere
âĢ ľ
Ġà¤ªà¥ĥà¤·à¥įà¤ł à¤Ńà¥Ĥà¤®à¤¿
y le
Ġà¤® à¤Ĥà¤¡à¤²
Ġà¤ı à¤Ĥà¤Ł
Ġà¤ļà¤¾à¤² à¤ķ
à¤ķà¥įà¤°à¤® à¤¿à¤¤
Ġà¤² à¥ĭà¤¡
à¤Ĺà¥ĭà¤² à¤¿à¤ķ
I t
Ġà¤ľà¥Ģà¤µ à¥ĭà¤Ĥ
Ġà¤¨à¤¿à¤°à¥įà¤¦à¥ĩà¤¶ à¤ķ
Ġspe c
199 8
" à¤°
Ġà¤ħà¤ª à¥ĩà¤ķà¥įà¤·
Ġà¤® à¥ĭà¤¡à¤¼
à¥ĩà¤ĸ à¤¾
à¤¬ à¥Ĥ
n ect
Ġà¤¶ à¥ģà¤Ń
à¤¸à¥įà¤ª à¤¤à¤¿
à¤Ĺ à¤¾à¤¹
Ġà¤¦à¥ĭ à¤¹à¤°
à¤ķà¥įà¤° à¤¾à¤®à¤ķ
Ġà¤¤à¥Ī à¤°
à¤° à¤¿à¤¤
Ġà¤µ à¤¨à¥įà¤¯
Ġà¤īà¤¤à¥įà¤¤ à¥ĩà¤ľ
( i
3 00
Ġà¤Łà¥ģà¤ķ à¤¡à¤¼à¥ĩ
Ġà¤µ à¤¸
Ġf in
à¤ļà¤¾à¤¨ à¤ķ
Ġà¤¯à¥Į à¤Ĺ
= >
à¥įà¤¯ à¤¾à¤£
Ġà¤®à¤Ĥà¤¤à¥įà¤° à¤¾à¤²à¤¯
Ġà¤®à¤¹à¥Ģ à¤¨à¥ĭà¤Ĥ
Ġà¤ª à¥ĩà¤¯
Ġà¤¸à¤Ĥà¤Ĺà¤ł à¤¿à¤¤
à¤ħ à¤ªà¥įà¤°à¥Īà¤²
198 0
( à¤Ĺ
o h
Ġà¤« à¥īà¤°
ge st
Ġà¤¨à¤® à¤ķ
y m
Ġà¤ĩà¤¨ à¤ķà¤¾à¤°
Ġà¤° à¤¿à¤ļ
Ġà¤Ĺ à¥Ĥ
à¤¨à¥įà¤ ¥
Ġà¤Ĭ à¤ªà¤°à¥Ģ
Ġà¤ªà¥įà¤² à¤¾à¤¸à¥įà¤Łà¤¿à¤ķ
à¤« à¥īà¤°à¥įà¤®
Ġà¤ķà¥įà¤·à¥ĩà¤¤à¥įà¤° à¤«à¤²
Ġà¤ħà¤§à¥įà¤¯ à¤¯à¤¨à¥ĭà¤Ĥ
à¤¿à¤¶ à¤¨
à¤¬ à¥ĭà¤°à¥įà¤¡
à¤¾à¤ľ à¤ªà¤¾
à¤¾à¤§ à¥Ģà¤¶
Ġà¤¸à¥Ĥà¤° à¤ľ
Ġà¤µà¥Īà¤ķ à¤²à¥įà¤ªà¤¿à¤ķ
Ġà¤ļ à¤¿à¤ª
Ġà¤¬à¥Īà¤ķà¥įà¤Ł à¥Ģà¤°à¤¿à¤¯à¤¾
Ġà¤¸à¤®à¥įà¤® à¤¿à¤²
à¤ķ à¤Ł
à¤®à¥ģà¤ĸ à¥įà¤¯
in k
à¤« à¤¾
ri v
d ef
à¤§ à¤°
Ġà¤ķ à¤¾à¤²à¥Ģ
Ġà¤ļà¥ģ à¤ķà¥Ģ
Ġà¤ĸà¤°à¥Ģà¤¦ à¤¨à¥ĩ
Ġà¤ªà¥įà¤°à¤¤à¤¿à¤¸à¥įà¤ªà¤°à¥įà¤§ à¤¾
Ġà¤²à¤ķà¥įà¤· à¥įà¤¯à¥ĭà¤Ĥ
Ġà¤ĸà¥ĩà¤² à¤¾
Ġà¤ªà¤ķà¤¡à¤¼ à¤¨à¥ĩ
Ġà¤² à¥ĭà¤¹
Ġà¤ļ à¥Īà¤¨à¤²
Ġà¤ħ à¤¡à¥įà¤¡
Ġà¤ĸ à¥ĩà¤¤à¥Ģ
à¥ĩà¤¶ à¤¿à¤¯à¤¾
Ġl oc
Ġà¤ħà¤Ĥ à¤ķà¥ĭà¤Ĥ
Ġà¤¦ à¤¾à¤¨
à¤ħà¤ª à¤¨à¥ĩ
à¥Ĥà¤°à¥įà¤µ à¤ķ
Ġà¤¬à¥Ī à¤Ł
Ġà¤¯à¥ģ à¤µ
à¥ĩà¤Ĥ à¤Ĺ
Ġà¤Ł à¥Ĥ
Ġà¤ħà¤¨à¥ģà¤®à¤¾à¤¨ à¤¿à¤¤
Ġà¤¤ à¥įà¤µà¤°
à¤ī à¤ªà¤°
Ġà¤ªà¥įà¤°à¤¤à¤¿à¤¨à¤¿à¤§ à¤¿
Ġà¤ħà¤Ńà¤¿à¤µà¥įà¤¯ à¤ķà¥įà¤¤à¤¿
à¤°à¥įà¤· à¤£
Ġà¤¶ à¥ĩà¤°
ĠA dd
Ġà¤Ĺà¥ģ à¤¨à¤¾
à¤Ń à¥Į
Ġà¤Łà¤¿à¤ªà¥įà¤ª à¤£à¥Ģ
Ġà¤ħà¤¦à¥įà¤¯ à¤¤à¤¨
à¤ª à¥įà¤ª
Ġà¤Ĩ à¤ķà¥įà¤°à¤®à¤£
Ġà¤ªà¥Įà¤§ à¤¾
199 9
Ġà¤¸à¥ĩ à¤®à¥Ģ
à¤¦ à¤¾à¤¯à¤ķ
à¤°à¥įà¤ķ à¥Ģ
Ġà¤Ľà¥ĭà¤¡à¤¼ à¤¨à¥ĩ
Ġà¤ħà¤Ĺ à¤²à¥Ģ
à¤Ĩ à¤¨à¥įà¤§à¥įà¤°
Ġà¤¸à¥įà¤µ à¤¾à¤Ĺà¤¤
à¤°à¥įà¤¨ à¤°
à¤¾à¤ľ à¥ĩ
a w
à¤¬ à¥įà¤ľ
Ġà¤ķà¥ģ à¤Ĥà¤ľà¥Ģ
Ġà¤¦ à¥ĩà¤ķà¤°
à¤¾à¤ª à¥Ģ
Ġà¤µ à¥ī
Ġà¤¹à¥ģà¤ı à¤ĥ
Ġà¤¶à¥ģà¤ķà¥įà¤° à¤µà¤¾à¤°
Ġà¤¸ à¥ĩà¤¬
Ġwh en
Ġar ray
Ġà¤² à¤¿à¤®
à¤¿à¤ ĺ
Ġsi m
Ġà¤Ĺà¥ģà¤£ à¥ĭà¤Ĥ
à¤¤ à¤¾à¤°
on t
Ġà¤¨à¤¿à¤°à¥įà¤¦à¥ĩà¤¶ à¤¿à¤¤
Ġà¤ĸ à¤¡à¤¼à¥ĩ
à¤¾à¤ĩà¤Ł à¥ĩà¤¡
Ġper form
Ġà¤¬ à¤¾à¤¬
Ġà¤« à¥įà¤°à¥Ģ
Ġà¤¢ à¤¾à¤Ĥà¤ļ
Ġà¤µà¤° à¤¿à¤·à¥įà¤ł
à¥įà¤² à¥įà¤¸
Ġà¤Ńà¤¾à¤Ĺ à¥Ģà¤¦
Ġà¤¸à¤®à¤°à¥įà¤ª à¤¿à¤¤
à¤¿à¤Ĥ à¤¸
Ġà¤ªà¤°à¤¿à¤µ à¤¾à¤°à¥ĭà¤Ĥ
Ġà¤ķà¥įà¤° à¥īà¤¸
Ġà¤Ĩà¤¨à¥įà¤§à¥įà¤° à¤ªà¥įà¤°à¤¦à¥ĩà¤¶
à¤¦ à¤¾à¤¯
Ġà¤¹ à¤¾à¤°à¥įà¤¡
Ġà¤¸à¤¾à¤Ĥà¤¸ à¤¦
Ġà¤®à¥ĩà¤¡ à¤¿à¤ķà¤²
à¤² à¥įà¤¯
Ġà¤ªà¤¹ à¤¾à¤¡à¤¼à¥Ģ
Ġà¤¦à¥įà¤° à¤µà¥įà¤¯
Ġà¤¸à¤Ĥà¤¬ à¥ĭà¤§à¤¿à¤¤
Ġà¤µà¤¿à¤ķ à¤¿à¤°à¤£
( f
Ġt r
Ġà¤µà¥įà¤¯ à¤Ĥà¤ľà¤¨
à¤²à¥Ģ à¤µà¥ģà¤¡
Ġà¤¨à¤¿à¤° à¤¾à¤¶
Ġà¤ħ à¤ļà¤¾à¤¨à¤ķ
ur ing
( à¤¡
à¥įà¤¤ à¤¾
Ġc ar
Ġà¤¹à¤¡à¥įà¤¡ à¥Ģ
Ġà¤¸à¥Ĥ à¤ļà¤¿à¤¤
Ġà¤¦à¥ĩà¤Ĥ à¤Ĺà¥ĩ
Ġà¤ĳà¤ķà¥įà¤¸ à¥Ģà¤ľà¤¨
. p
à¤Ł à¤¿à¤ķ
Ġà¤ĳà¤« à¤¿à¤¸
_ c
Ġà¤ªà¤° à¤¿à¤¸à¥įà¤¥à¤¿à¤¤
Ġcustom er
Ġimp ro
à¤¾à¤¬ à¥Ģ
Ġsa id
ou p
Ġà¤Ĩà¤¤ à¤Ĥà¤ķ
Ġà¤²à¤Ĺ à¤¾à¤ıà¤Ĥ
à¤ľ à¥ģà¤²à¤¾à¤Ī
R e
p ect
Ġà¤ªà¥ģà¤¸à¥įà¤¤ à¤ķà¥ĭà¤Ĥ
( m
Ġqu est
à¤² à¤¿à¤ķ
t ing
Ġà¤®à¤¾à¤® à¤²à¤¾
Ġexper i
n e
Ġà¤« à¤¾à¤ĩà¤²
ĠN IC
viron ment
âĢ Ŀ
sion s
à¤¾à¤¨à¥ģ à¤®à¤¾à¤¨
Ġà¤ħ à¤£
Ġy ear
Ġà¤¡ à¥ĩà¤²
à¤°à¥įà¤¡ à¤°
18 9
Ġà¤īà¤¦à¥įà¤¦à¥ĩà¤¶ à¥įà¤¯à¥ĭà¤Ĥ
à¤ľ à¥ĭ
à¥īà¤¨ à¥įà¤Ł
Ġà¤¦à¥ĥ à¤¢à¤¼
à¤µ à¤¿à¤¨
Ġà¤ħà¤¨à¥ģà¤¸ à¤°à¤£
ĠY ou
Ġà¤ķà¥ĭ à¤°à¥ĭà¤¨à¤¾
6 6
( x
Ġà¤¦à¥ĩà¤ĸ à¤¤à¤¾
Ġà¤¸ à¤¾à¤°à¥Ģ
à¥ĭ à¤¸à¥įà¤Ł
Ġm ost
ĠH ow
Ġà¤Ĩà¤Ĥà¤ķ à¤¡à¤¼à¥ĭà¤Ĥ
Ġà¤ķà¥ĭ à¤°à¥įà¤Ł
ad e
Ġà¤¹à¤ľ à¤¾à¤°à¥ĭà¤Ĥ
Ġst ate
à¥ĭà¤¸ à¤¿à¤¸
Ġà¤¹ à¥ĩà¤¨
us e
Ġà¤¬à¤ļ à¤ªà¤¨
Ġà¤ħà¤ķà¥įà¤· à¤°à¥ĭà¤Ĥ
Ġà¤¸à¤®à¤¸à¥įà¤¯ à¤¾à¤ıà¤Ĥ
- à¤ĩ
à¥įà¤ķ à¥ģà¤²
à¥ģà¤¦ à¥įà¤°
à¤ħà¤ķ à¥įà¤Łà¥Ĥà¤¬à¤°
Ġà¤«à¤¼ à¤¿à¤²
Ġà¤®à¤Ĥà¤Ĺà¤² à¤µà¤¾à¤°
S E
Ġà¤Ĺ à¤¿à¤²
Ġà¤ħà¤§à¤¿à¤ķ à¤¾à¤°à¥ĭà¤Ĥ
à¥Ĥà¤° à¥ĩ
- à¤¯
Ġà¤¨à¥Ģ à¤¤à¤¿à¤¯à¥ĭà¤Ĥ
Ġà¤ªà¥įà¤°à¤¸ à¤Ĥà¤¸à¥įà¤ķ
à¥Ĥ à¤²à¥Ģ
at ures
à¤¿à¤Ĥà¤Ĺ à¥įà¤¸
Ġident ify
à¤¿à¤² à¥ĭà¤Ĥ
Ġà¤¨à¥įà¤¯à¥Ĥ à¤ľ
à¤ķ à¤®
Ġà¤ĩà¤¨ à¤ķà¥Ģ
Ġà¤ħà¤® à¥Ģà¤°
Ġà¤¤à¤¾à¤ķ à¤¤
Ġà¤īà¤¤à¥įà¤¸ à¤¾à¤¹
Ġà¤¤ à¤®à¤¿à¤²
Ġà¤Ĩà¤§ à¥ĩ
Ġà¤ªà¤¾à¤¸ à¤µà¤°à¥įà¤¡
Ġp ublic
Ġà¤¸à¥ĩà¤ķ à¤Ĥà¤¡
4 7
e e
à¥ĭ à¤·à¤£
( N
à¤¾à¤µ à¥įà¤¯
Ġp ot
Ġà¤® à¥ĥà¤¤
ĠG o
Ġà¤¨ à¥ī
al ity
Ġà¤« à¤¾à¤ĩ
Ġà¤īà¤®à¥įà¤®à¥Ģà¤¦ à¤µà¤¾à¤°
ul ation
Ġà¤¨ à¤¾à¤¸à¤¾
à¤²à¥ĩ à¤¸
u g
ri es
à¤® à¤¤à¤¾
Ġst art
Ġà¤ª à¤¶à¥įà¤ļ
en cy
Ġval ue
Ġà¤° à¥ĭà¤²
Ġà¤ħà¤¨ à¤¿à¤µà¤¾à¤°
........ ........
Ġà¤¯à¤¾à¤¤ à¥įà¤°à¥Ģ
Ġà¤¬ à¤²à¥įà¤²
à¤¾à¤£ à¥įà¤¡
Ġà¤ļà¤Łà¥įà¤Ł à¤¾à¤¨
ol d
Ġà¤¬ à¤¿à¤Ĺ
re ad
Ġà¤µà¤¿à¤µà¤°à¤£ à¥ĭà¤Ĥ
( à¤¯à¤¾
Ġà¤ĸ à¥ģà¤²à¥ĩ
Ġà¤ħà¤¨ à¥įà¤µ
Ġapp ro
à¤¶ à¤¨à¥Ģ
Ġà¤ªà¥ģà¤° à¤¾à¤¨à¤¾
Ġà¤¸à¥įà¤µà¤ļ à¤¾à¤²à¤¿à¤¤
Ġà¤« à¥ĩà¤Ĥà¤ķ
Ġà¤ķ à¤¶à¥įà¤®à¥Ģà¤°
Ġà¤Ĺà¤°à¥Ģ à¤¬
Ġc a
Ġà¤Ľ à¥Ĥà¤Ł
à¤ª à¤¤à¥įà¤°
à¤¾à¤ķ à¥įà¤¯
il y
Ġà¤Ĩà¤µ à¥ĩà¤¦à¤¨
à¥Īà¤Ł à¤¿à¤¨
Ġà¤ķà¥ĥ à¤¤à¥įà¤°à¤¿à¤®
à¥Ĥà¤¨ à¥įà¤¯
Ġà¤¹à¤¾à¤¥ à¥ĭà¤Ĥ
Ġà¤ľà¤¾à¤ª à¤¾à¤¨à¥Ģ
Ġà¤ª à¤¾à¤¦
Ġà¤ĺ à¤¾à¤¯à¤²
em b
Ġà¤ĩà¤Ĥà¤¤ à¤ľà¤¾à¤°
Ġà¤Ń à¤°à¥įà¤¤à¥Ģ
Ġà¤ªà¥Ĥà¤°à¥įà¤µ à¤¾à¤¨à¥ģà¤®à¤¾à¤¨
Ġà¤¸à¤®à¥įà¤®à¤¿à¤² à¤¿à¤¤
Ġà¤¡ à¤¿à¤¸à¥įà¤ķ
r ic
Ġà¤¸à¤® à¥įà¤°à¤¾à¤Ł
Ġà¤ħ à¤ľà¥Ģ
à¤ķ à¥ģà¤Ľ
à¥ĭà¤¸ à¤¿à¤ı
à¤µ à¤¿à¤ľà¥įà¤ŀà¤¾à¤¨
in ess
Ġà¤ħà¤ª à¤¡à¥ĩà¤Ł
Ġà¤ªà¥įà¤° à¤¾à¤ĩà¤®
Ġà¤Ĩà¤ª à¤¾à¤¤
à¥ĭà¤° à¤¾
Ġà¤¬à¤ļ à¤¤
Ġà¤Łà¥ĩà¤ķ à¥įà¤¨
Ġà¤ĸ à¤°
Ġà¤¦à¥ĩà¤ĸ à¥Ģ
à¤¿à¤² à¥ĩà¤ĸ
Ġà¤ĸ à¥ģà¤°
Ġex t
' :
an y
à¤· à¥įà¤£
à¥ĩà¤ľ à¤°
20 21
à¥§à¥¯à¥ ®
- à¤Ķà¤°
ab ility
( à¤¦
Ġà¤® à¤¾à¤¤
Ġà¤Ĩà¤µ à¥ĥà¤¤à¥įà¤¤à¤¿
Ġà¤Ĺà¤£ à¤°à¤¾à¤ľà¥įà¤¯
à¤¨ à¥įà¤µ
so le
Ġà¤¸à¤Ĥà¤¤à¥ģà¤² à¤¨
Ġà¤¹ à¤¿à¤¤
( à¤ªà¥įà¤°
Ġpo p
Ġpo s
Ġà¤² à¥Ĥà¤ª
à¤ķà¥įà¤· à¤¿à¤ķ
" à¤ªà¥įà¤°
R O
à¤° à¤¾à¤®
Ġà¤¨ à¤¾à¤¶
plo y
Ġà¤¬à¤¿à¤² à¥įà¤²à¥Ģ
à¤¹à¤¾à¤° à¤¿à¤ķ
à¤ķà¥ĭ à¤Ł
Ġin cre
Ġde f
Ġà¤¸ à¥Ģà¤¨
-à¤ľ à¥Ĥà¤¨
Ġà¤¡à¤¾à¤² à¥ĩà¤Ĥ
Ġà¤°à¥Ĥ à¤¸à¥Ģ
im al
Ġà¤ķà¤° à¤¾à¤¨à¥ĩ
et s
Ġà¤Ĺ à¤¾à¤¡à¤¼à¥Ģ
Ġà¤ķà¤° à¤¾à¤¯à¤¾
Ġà¤¸à¤Ĥà¤¯ à¤Ĥà¤¤à¥įà¤°
l ist
à¤¤ à¥ĭ
à¤² à¤¿à¤Ĥà¤Ĺ
à¤¹ à¤¾à¤īà¤¸
à¤² à¥ĩà¤ĸ
à¤® à¤ķ
Ġth ree
Ġà¤¨ à¤¾
Ġà¤Ł à¤ķà¤°
ab el
Ġà¤µà¥Ģ à¤Ĥ
Ġà¤ıà¤¥ à¤²à¥Ģà¤Ł
Ġà¤°à¥īà¤¬ à¤°à¥įà¤Ł
4 9
Ġ order
à¤Ĺ à¤¤
Ġà¤µà¥įà¤¯à¤ķà¥įà¤¤ à¤¿à¤¤à¥įà¤µ
à¥§à¥ Ń
Ġà¤¨à¤¿à¤ķà¤² à¤¨à¥ĩ
Ġà¤«à¥ĭà¤Ł à¥ĭ
Ġà¤¸ à¤µ
Ġcomm un
Ġs erv
à¤¹ à¤¾
âĢ ²
f ter
1 000
Ġà¤¸à¥įà¤ķ à¥įà¤°à¤¿à¤ªà¥įà¤Ł
Ġres pon
H e
à¤Ĺ à¤¢
Ġvari ous
w ard
Ġà¤Ń à¤°à¥Ģ
Ġà¤¨à¤¿à¤ªà¤Ł à¤¨à¥ĩ
or g
Ġà¤Ńà¤¾à¤· à¤£
-à¤¦ à¤¿à¤¸
6 7
Ġà¤ħà¤¨à¥ģ à¤ļà¥įà¤Ľà¥ĩà¤¦
Ġà¤°à¤¾à¤ľ à¤ķà¥ģà¤®
Ġà¤®à¤¾à¤¨ à¤ķà¥ĭà¤Ĥ
à¤¸à¤Ĥà¤ĸ à¥įà¤¯
Ġà¤®à¤¾à¤ĩà¤ķ à¤²
Ġà¤¬ à¤¾à¤ĩ
Ġà¤¨ à¤¾à¤ķ
à¥§à¥ ¨
Ġà¤¦à¤°à¥įà¤¶ à¤¾à¤¤à¥Ģ
Ġà¤¸à¥ĩà¤Ĥ à¤Łà¤°
as k
à¤· à¤ķ
à¥ģà¤· à¥įà¤ķ
Ġà¤¸à¤Ĥ à¤ķà¥įà¤°à¤®à¤¿à¤¤
à¤¿à¤ ĵ
Ġà¤ķà¤² à¥įà¤¯à¤¾à¤£
Ġà¤ªà¤ķà¥įà¤· à¤¿à¤¯à¥ĭà¤Ĥ
( P
Ġm ain
à¥Ī à¤ľà¥įà¤ŀà¤¾à¤¨à¤¿à¤ķ
Ġà¤ĩ à¤Ĥà¤Ł
à¥ĩà¤¨ à¤¿à¤¯à¤¾
ath er
Ġà¤¬à¥ģà¤§ à¤µà¤¾à¤°
Ġà¤¤à¥įà¤µà¤° à¤¿à¤¤
à¤īà¤ªà¤° à¥ĭà¤ķà¥įà¤¤
o y
Ġà¤¹à¥ĭ à¤Łà¤²
à¥Ĥà¤°à¥įà¤ ¨
Ġà¤Ńà¥Į à¤¤à¤¿à¤ķà¥Ģ
- à¤®à¤¾à¤°à¥įà¤ļ
Ġà¤ľà¤¾à¤¨ à¤¨à¤¾
à¤µà¤¾à¤² à¤¾
Ġà¤ħà¤¦à¤¾à¤² à¤¤
Ġst e
com e
à¤¤à¤¾à¤ª à¥Ĥà¤°à¥įà¤µà¤ķ
à¤ķà¥įà¤ķ à¤°
Ġà¤¹à¤¸à¥įà¤¤ à¤ķà¥įà¤·à¥ĩà¤ª
à¥Ī à¤¬
Ġà¤® à¥ģà¤«
ĠH e
à¥§à¥ ¬
Ġà¤ªà¥įà¤°à¤¤à¥įà¤¯ à¤ķà¥įà¤·
Ġà¤ľ à¤¾à¤¯
Ġà¤ļà¥ģ à¤Ĥà¤¬
A n
à¥Į à¤¤à¥Ģ
Ġens ure
à¤ħ à¤Ĥà¤¤à¤°
à¤¾à¤Ĥà¤¤ à¤¿à¤ķ
Ġà¤¶ à¥ģà¤²à¥įà¤ķ
Ġà¤ªà¤° à¤¿à¤¦
Ġà¤ħà¤¨à¥ģà¤° à¥Ĥà¤ª
-à¤¸à¤¿à¤¤ à¤Ĥà¤¬à¤°
Ġà¤ª à¥ĩà¤Ĥà¤Ł
à¤¾à¤² à¥ĩ
Ġà¤µà¤¿à¤¶à¥ĩà¤·à¤ľà¥įà¤ŀ à¥ĭà¤Ĥ
Ġà¤ħà¤ķà¥ĩ à¤²à¥ĩ
Ġà¤µ à¥ĭà¤²
Ġà¤µà¥ĩ à¤¤à¤¨
Ġà¤ķà¤¹ à¤²
à¤¸à¤¾à¤Ĥ à¤ĸà¥įà¤¯
Ġà¤Ńà¤¾à¤· à¤¾à¤ıà¤ģ
Ġà¤ĩà¤¤ à¤¨à¥ĩ
197 0
Ġà¤§ à¥įà¤°à¥ģà¤µ
Âł à¤ķ
Ġà¤²à¤¾à¤Ń à¥ĭà¤Ĥ
à¤¶à¥Ģ à¤°à¥įà¤·à¤ķ
Ġà¤¸ à¥ĭà¤¨
Ġw ay
à¤¿à¤¯à¤¨ à¤¶à¤¿à¤ª
à¤¾à¤§à¤¿à¤ķ à¤¾à¤°à¥Ģ
Ġà¤¬à¤¾à¤Ĥ à¤§
erg y
Ġà¤¨ à¤¤à¥Ģ
Ġà¤¡à¥ĩ à¤µà¤²
Ġà¤¬ à¤¾à¤¢à¤¼
Ġà¤ĸà¤°à¥Ģà¤¦ à¤¾à¤°à¥Ģ
Ġà¤ķ à¤¿à¤Ĥ
Ġà¤¹ à¥īà¤²
Ġà¤ļ à¥Ĥà¤¹
Ġd i
Ġà¤¨à¥ĩ à¤ªà¤¾à¤²
Ġà¤ĵ à¤µà¤°
Ġà¤ħà¤¤à¥įà¤¯ à¤Ĥà¤¤
Ġà¤µ à¥Ģà¤°
âĢ ĭ
Ġà¤ķà¥ĭ à¤¯
Ġà¤Ĩà¤ģ à¤ĸ
Ġà¤¤à¥Ģà¤¸ à¤°à¥Ģ
Ġà¤¨à¥Į à¤ķà¤°
Ġà¤Ĺà¤°à¥įà¤® à¤¿à¤¯à¥ĭà¤Ĥ
Ġà¤®à¤¾à¤°à¥įà¤ķ à¥ĩà¤Łà¤¿à¤Ĥà¤Ĺ
Ġà¤µà¤¿à¤°à¥ĭà¤§ à¥Ģ
Ġà¤ħà¤¨à¤¿à¤µà¤¾à¤° à¥įà¤¯
" à¤¶
( M
Ġà¤¶à¥įà¤° à¤®à¤¿à¤ķ
Ġà¤¡ à¤¿à¤ª
Ġst ud
et y
Ġà¤¦à¤ķà¥įà¤· à¤¤à¤¾
à¤¹ à¤¿à¤¨à¥įà¤¦à¥Ģ
Ġà¤² à¤¹à¤°
à¤µà¤¾à¤² à¥ĩ
à¤§ à¤¾à¤°à¥Ģ
Ġà¤īà¤¤ à¤¨à¤¾
à¤¤à¥Ģ à¤¤
a int
à¤¾à¤² à¥įà¤¡
ac y
à¥Ĥà¤°à¥įà¤¨ à¤¾à¤®à¥ĩà¤Ĥà¤Ł
Ġre du
h en
Ġà¤® à¥ĭà¤¨
Ġà¤Ĺ à¤¹à¤°à¥ĩ
Ġà¤Ľà¥ĭà¤¡à¤¼ à¤ķà¤°
à¤ª à¤¾à¤¤
à¥ĭà¤Ł à¥Ģ
ver n
Ġà¤ªà¥įà¤°à¤¶à¤¿à¤ķà¥įà¤· à¤¿à¤¤
Ġà¤Łà¥ĩà¤ķà¥įà¤¸ à¤¾à¤¸
Ġà¤¸à¤®à¤Ŀ à¤¾
Ġà¤¸à¤°à¥įà¤¦ à¤¿à¤¯à¥ĭà¤Ĥ
8 5
Ġà¤¹à¤° à¥ĩ
Ġà¤¨à¥įà¤¯à¤¾à¤¯ à¤¾à¤§à¥Ģà¤¶
p en
Ġà¤ķà¥įà¤° à¤¿à¤¸
Ġà¤°à¤£à¤¨à¥Ģ à¤¤à¤¿à¤¯à¥ĭà¤Ĥ
à¤® à¥ģà¤Ŀà¥ĩ
Ġà¤¸à¤¾à¤ ª
15 0
à¥Ĥ à¤¸à¥Ģ
Ġà¤¨ à¤¾à¤µ
à¤¾à¤¹ à¤¿à¤ķ
Ġà¤®à¥Į à¤ķà¤¾
Ġch all
our ces
à¥ģà¤² à¤¾
4 2
l n
Ġà¤¬à¤ļ à¤¾à¤µ
Ġà¤ªà¤¾à¤² à¤¤à¥Ĥ
à¤ľ à¤¾à¤¨
Ġà¤¸à¤¾à¤Ĥ à¤ĸà¥įà¤¯
Ġà¤¹ à¥ĩà¤¡
Ġà¤ľ à¥Īà¤¨
Ġà¤¦à¤¸à¥įà¤¤à¤¾à¤µ à¥ĩà¤ľà¤¼
Ġà¤ª à¤¾à¤Ĥà¤¡
im ent
Ġà¤¸à¥Į à¤Ĥà¤ª
cript ion
Ġà¤Ĩ à¤¶à¥įà¤°
Ġà¤µ à¥ĩà¤°
Ġà¤ħà¤µ à¤¸à¤¾à¤¦
à¤ª à¤¦
Ġà¤®à¤¤ à¤¦à¤¾à¤¨
Ġà¤²à¥ī à¤¨à¥įà¤
à¥īà¤® à¤¸
Ġà¤°à¤µ à¤¿à¤µà¤¾à¤°
Ġà¤¬à¤¤ à¤¾à¤¨à¥ĩ
à¤Ĥà¤¤à¥įà¤° à¤¿à¤¤
à¤¥ à¤¾à¤®
Ġà¤µà¤°à¥įà¤ ľ
Ġà¤ħ à¤ľà¥įà¤ŀà¤¾à¤¤
Ġà¤¡ à¥ĩà¤®
assi f
Ġà¤¶à¥Ģ à¤¤
Ġà¤® à¤¾à¤¤à¥įà¤°
à¤¹ à¤¾à¤¨
Ġà¤Ĺà¤Ī à¤Ĥ
ri end
à¤Ĥà¤Ń à¤µ
Ġpl an
Ġà¤¨ à¥Ģà¤²
Ġà¤¸à¤¾à¤¹à¤¿à¤¤à¥įà¤¯ à¤ķà¤¾à¤°
à¤Ĺ à¤¾à¤¨
Ġà¤Ńà¥Į à¤Ĺà¥ĭà¤²à¤¿à¤ķ
Ġà¤¶à¥įà¤° à¤®
Ġà¤¬à¥Ģà¤®à¤¾à¤° à¤¿à¤¯à¥ĭà¤Ĥ
à¥ĩà¤¸ à¥įà¤Łà¤°
Ġso cial
à¤¾à¤¸ à¤Ĥà¤Ĺà¤¿à¤ķ
Ġà¤¬à¤¨ à¤¾à¤ķà¤°
ed u
sit y
" à¤Ĺ
à¤¯ à¤¾à¤²
Ġà¤¯à¤¾à¤¤ à¤¾à¤¯à¤¾à¤¤
à¤¿à¤ľ à¥įà¤®
Ġre ad
199 6
Ġà¤®à¥Ĥ à¤¤à¥įà¤°
Ġà¤Ĩ à¤ĩà¤¸
199 7
Ġà¤®à¤¹à¤¿à¤² à¤¾à¤ıà¤Ĥ
Ġsu b
Ġà¤¸à¥įà¤® à¤¿à¤¥
Ġà¤µà¥ĥ à¤ķà¥įà¤·
à¥įà¤° à¥ĭà¤¹
Ġà¤¹à¥Īà¤Ĥ à¤¡
Ġà¤ķà¥ī à¤«à¥Ģ
à¤ķà¥įà¤· à¤¿à¤£
iv ity
Ġà¤¬à¥įà¤°à¤¹à¥įà¤® à¤¾à¤Ĥà¤¡
ach ine
Ġà¤ķà¤² à¤¾à¤ķ
Ġle ad
Ġconsi der
à¥ĭ à¤¸à¤¾
Ġà¤ª à¤¾à¤¨à¥ĩ
Ġà¤ª à¤¥
Ġof f
Ġà¤®à¤¾à¤° à¥ĩ
Ġà¤¸à¤Ĥà¤¤à¥ģà¤² à¤¿à¤¤
Ġà¤¬ à¥Īà¤ķ
Ġà¤ļ à¥ĩà¤ķ
à¤¨à¥Ģ à¤¤à¤¾à¤²
à¤¬à¥įà¤ľ à¥ĩà¤ķà¥įà¤Ł
à¤¨ à¤Ĺà¤°
Ġà¤ªà¥ĩà¤¡à¤¼ à¥ĭà¤Ĥ
à¤¸à¤Ĥà¤Ĺ à¥Ģà¤¤
Ġà¤® à¤°à¥Ģà¤ľ
Ġa u
am es
18 0
Ġà¤µ à¥ĭà¤Ł
Ġm ark
l ish
Ġà¤¦ à¤¿à¤®
Ġà¤ļ à¤²à¥Ģ
as es
à¤¦à¤¾à¤¨ à¤¿à¤ķ
Ġà¤¨à¤¿à¤Ń à¤¾à¤Ī
à¤°à¥įà¤¦ à¥Ĥ
à¤¾à¤Ĺ à¥ĭ
à¤¶à¥įà¤µ à¤°
iz ation
cc ess
à¤Ĥà¤¶ à¤¿à¤ķ
i el
à¤§ à¤¾à¤°à¤¾
Ġà¤« à¤¾à¤ĩà¤¨à¤²
Ġà¤¬à¤ļ à¤¾
Ġà¤¸à¥ĭ à¤µ
Ġà¤¶ à¤¨
Ġà¤¶à¥Ī à¤ķà¥įà¤·à¤¿à¤ķ
Ġà¤Ĩà¤µ à¤¿à¤·à¥įà¤ķà¤¾à¤°
à¤Ĺà¥įà¤° à¤¾à¤®
Ġà¤Łà¤¿à¤ªà¥įà¤ª à¤£
-à¤® à¥ĥà¤¤à¥įà¤¯à¥ģ
à¤ĸ à¤¼
Ġà¤°à¥Ĥà¤ª à¥ĭà¤Ĥ
Ġà¤¬ à¤¿à¤¸
à¤£ à¤¨
Ġà¤ıà¤¸ à¥ĭà¤¸à¤¿à¤ı
à¤¾à¤ł à¥Ģ
Ġà¤ħ à¤Łà¤²
Ġà¤Ń à¤¾à¤ľà¤ªà¤¾
Ġà¤ĸ à¤¤à¥įà¤®
Ġà¤ªà¥ģà¤° à¤¾à¤¤
Ġà¤¸à¥Ĥ à¤ļà¤ķ
Ġà¤ļà¤¿à¤¤à¥įà¤° à¤¿à¤¤
Ġk ey
Ġà¤ł à¤¹à¤°
Ġà¤®à¥ģà¤¦ à¥įà¤°à¤¾
Ġà¤¬à¤¿à¤² à¥įà¤ķà¥ģà¤²
à¤¬ à¤¸à¥ĩ
Ġà¤Ĺ à¤¾à¤°
Ġà¤Ł à¥ĭà¤ķ
Ġà¤ªà¤¾à¤° à¤¿à¤¤
Ġà¤°à¤ĸ à¥Ģ
Ġà¤ªà¤°à¤¿à¤µà¤°à¥įà¤¤ à¤¨à¥ĭà¤Ĥ
- à¤ªà¤°
à¥Ģà¤² à¥Īà¤Ĥà¤¡
Ġ ent
Ġà¤¸à¥įà¤¥ à¤²à¥ĭà¤Ĥ
à¥§ à¥§
Ġà¤¸à¥ĭà¤ļ à¤¾
oc ument
6 8
Ġà¤¬ à¥ĩà¤ķ
Ġà¤¦à¤¿à¤ĸ à¤¾à¤¨à¥ĩ
Ġà¤¶ à¤²à¥įà¤¯
à¤¿ à¤°à¥įà¤®à¤¾à¤£
à¤¾à¤ķ à¤¾
t o
Ġà¤¦ à¤¾à¤°
Ġà¤ªà¥įà¤° à¥ĭà¤ľ
à¤ħ à¤Ĺà¤°
Ġà¤«à¥įà¤° à¥ĩà¤®
Ġà¤ªà¤¹à¤² à¥ģà¤ĵà¤Ĥ
d ate
Ġt ake
à¤¶ à¤¿à¤·à¥įà¤Ł
à¥Į à¤¨
Ġà¤¸ à¤ļà¥įà¤ļ
Ġà¤Ĺ à¥ĭà¤°
Ġà¤ħà¤® à¤°
Ġà¤ĳ à¤¡
C h
Ġà¤Ĺ à¤¹à¤°à¥Ģ
Ġen vironment
Ġpl ay
Ġà¤ĩà¤Ł à¤²à¥Ģ
v ers
Ġà¤¬ à¥ĩ
à¤¶ à¤¾
Ġsi gn
Ġto p
Ġà¤Ĩà¤µ à¤¾à¤ľà¤¼
sit e
à¤ļ à¤¾à¤ª
à¤¸à¥ĩ à¤¨
à¤¾à¤ĩ à¤ľà¤¼
| -
Ġà¤¨à¥ĩ à¤¤à¤¾à¤ĵà¤Ĥ
ĠL ist
Ġà¤¸à¤Ĥà¤ķà¥ĩ à¤¤à¥ĭà¤Ĥ
Ġà¤ħà¤§à¤¿à¤ķ à¤¤à¤°
Ġà¤Ń à¥Ĥà¤²
à¥§à¥¯à¥ Ń
Ġà¤µà¤¿à¤¦ à¥įà¤°à¥ĭà¤¹
-à¤ħ à¤ª
Ġà¤°à¥ĭ à¤¶à¤¨à¥Ģ
à¤¸ à¥ģ
Ġà¤¹à¥ĭ à¤²
Ġà¤ľà¤¿à¤¨ à¤ķà¥Ģ
Ġà¤¸à¤Ĥà¤Ĺà¥įà¤°à¤¹ à¤¿à¤¤
à¥įà¤° à¤ªà¤¾à¤¨
Ġà¤ħà¤ª à¥ĩ
Ġà¤¨à¥Ī à¤¨à¥Ģà¤¤à¤¾à¤²
à¤¿à¤ª à¥ĩà¤Ł
Ġà¤¸à¥ĭà¤µ à¤¿à¤¯à¤¤
à¤« à¤¨
à¤¸à¤¿à¤Ĥ à¤¹
Ġà¤µà¤¿à¤¨ à¤¾à¤¶
Ġà¤Ĺà¤¤ à¤¿à¤¶à¥Ģà¤²
Ġà¤µ à¤ķà¥Ģ
Ġà¤² à¤¾à¤¯à¤¾
à¤¿à¤¯ à¤¾à¤¨à¤¾
Ġà¤ļà¤¾à¤° à¥įà¤²à¥įà¤¸
Ġà¤µà¤¿à¤§ à¤¿à¤¯à¥ĭà¤Ĥ
Ġà¤Ĺà¤¿à¤°à¤«à¥įà¤¤ à¤¾à¤°
Ġà¤¶à¤¿à¤ķ à¤¾à¤¯à¤¤
Ġà¤¨à¤¾à¤® à¥ĭà¤Ĥ
à¥įà¤¤ à¥ģ
Ġà¤¨ à¥ĩà¤¶à¤¨à¤²
Ġb u
Ġà¤Ł à¥Ĥà¤°à¥įà¤¨à¤¾à¤®à¥ĩà¤Ĥà¤Ł
à¤¾à¤ı à¤Ĺà¤¾
à¥įà¤¯à¥Ĥ à¤ľ
Ġà¤¨à¤¿à¤ķ à¤¾à¤²à¤¾
Ġà¤¸à¤¾à¤ķà¥įà¤· à¤¾à¤¤à¥įà¤ķà¤¾à¤°
Ġà¤Ĭà¤ģ à¤ļà¤¾à¤Ī
Ġà¤¶à¤¾à¤¸ à¤ķ
à¤« à¥Ģà¤²à¥įà¤¡
Ġà¤¡à¥įà¤° à¤¾à¤ĩà¤µ
Ġà¤īà¤ªà¤¾à¤¯ à¥ĭà¤Ĥ
d ict
à¤ľ à¥ĭà¤Ĥ
Ġà¤¨à¤¿ à¤°à¥Ģ
Ġà¤ı à¤µ
Ġà¤Ĩ à¤Ń
à¤® à¥Ĥà¤²
Ġl ife
Ġà¤¯à¥Ĥà¤¨à¤¿à¤µà¤°à¥įà¤¸ à¤¿à¤Łà¥Ģ
" ]
Ġre p
ol s
Ġà¤¥à¥ĭ à¤¡à¤¼à¥Ģ
Ġ range
à¥Ģ à¤Ł
à¤ķ à¤¶
Ġà¤¸à¤Ĥ à¤ľà¥įà¤ŀà¤¾à¤¨
Ġà¤¸à¥Ĥ à¤ľà¤¨
Ġà¤Ĺ à¤¾à¤ĩà¤¡
Ġà¤¬à¤¹ à¤¸
Ġà¤ķ à¤£
ĠP HP
Ġà¤¡à¤¾à¤ĩ à¤ĳà¤ķà¥įà¤¸à¤¾à¤ĩà¤¡
à¤¯ à¥ģà¤¦à¥įà¤§
Ġà¤Ńà¥Ĥ à¤ķà¤Ĥà¤ª
+ =
w are
à¥įà¤¯à¥Ĥ à¤¨
Ġpo sit
Ġà¤ıà¤¶ à¤¿à¤¯à¤¾à¤Ī
à¤®à¥ĩà¤° à¤¿à¤ķà¥Ģ
Ġà¤®à¤¾à¤° à¤¨à¥ĩ
Ġà¤ĸà¤¨ à¤¿à¤ľ
à¥ĭà¤ª à¥Ģ
5 7
Ġà¤Ĩ à¤¹
Ġà¤Ī à¤¸à¤¾
Ġà¤µà¥įà¤¯à¤¾à¤µ à¤¹à¤¾à¤°à¤¿à¤ķ
à¤¿à¤¨ à¥įà¤¸
à¤¿à¤¡ à¤¾
Ġn o
Ġà¤¨à¤¿à¤ļ à¤²à¥ĩ
Ġà¤® à¤¨à¥įà¤¦
ut e
Ġt est
à¤¾à¤¸à¥įà¤¤ à¥įà¤°à¥Ģà¤¯
Ġà¤¹ à¤¾à¤ĩ
à¤¿à¤ĸ à¤°
Ġà¤ıà¤ľ à¥ĩà¤Ĥà¤Ł
Ġà¤ķà¤° à¥ĩ
à¤¬ à¤¾à¤¯
vi ew
à¤ħ à¤Ĺ
Ġà¤µà¤¿à¤Ĥ à¤¡
4 00
à¤ª à¥Ĥà¤°
à¤ķ à¤¨
Ġw ell
Ġà¤¤à¥Ģ à¤¸à¤°à¤¾
Ġà¤¸à¤°à¥įà¤µ à¤°
Ġà¤ķà¥ĭ à¤Ł
th od
Ġà¤Ĺ à¤¾à¤¯à¤ķ
à¤ĸ à¤¨
Ġà¤¸à¤®à¤Ŀà¥Į à¤¤à¤¾
à¥įà¤ķ à¤¾
ab les
Ġà¤¨à¥Ī à¤¦à¤¾à¤¨à¤¿à¤ķ
Ġà¤®à¤¹à¤¾à¤® à¤¾à¤°à¥Ģ
à¤¨ à¤¤
x t
à¤ķà¥Ģ à¤¨
Ġà¤ªà¥įà¤°à¤¸à¤Ĥà¤¸à¥įà¤ķ à¤°à¤£
( c
Ġà¤ķà¤° à¤µ
Ġà¤²à¤ĺ à¥ģ
à¥įà¤° à¤¿à¤ķ
re am
Ġà¤®à¤¿à¤² à¥ĩà¤Ĺà¥Ģ
Ġin st
h a
Ġà¤°à¥ĭà¤ķ à¤¥à¤¾à¤®
Ġà¤µà¥įà¤¯ à¤¾à¤ķà¤°à¤£
à¤¨à¥įà¤¦ à¤°
( B
b e
Ġà¤¬ à¤®
Ġà¤¸à¤Ĥ à¤ªà¥Ĥà¤°à¥įà¤£
Ġà¤ĸ à¤ªà¤¤
à¥§à¥¯à¥ ¯à¥
Ġà¤¸à¤® à¤¨à¥įà¤µ
Ġà¤īà¤¤à¥įà¤ªà¤¾à¤¦ à¤ķà¤¤à¤¾
Ġrequ ire
ra in
à¤¾à¤¶ à¥įà¤®
Ġà¤¸à¥ĩà¤² à¥įà¤¸
Ġà¤² à¥ĩà¤Ł
ess age
à¥įà¤ ĺ
Ġà¤²à¤¿à¤ĸ à¥ĩ
Ġval ues
4 6
Ġ ve
Ġà¤ķ à¤¸
à¤¦ à¤¾à¤°à¥Ģ
à¤¹à¥Ģ à¤¨
à¥įà¤® à¤¨
Ġà¤¨à¤¾à¤® à¤¿à¤¤
Ġspec ific
à¤ļ à¤²
Ġd ay
à¥ĭà¤Ĺà¥įà¤° à¤¾à¤«à¥Ģ
Ġà¤Ĩ à¤Ĥà¤¶à¤¿à¤ķ
Ġà¤ĺ à¥ģà¤®
à¤¦à¤Ĥà¤¡ à¥ĭà¤Ĥ
à¤¾à¤Ł à¤ķ
Ġst at
Ġà¤®à¥ģà¤ķ à¤¾à¤¬
Ġpot ential
< -
Ġà¤¤à¥Ģà¤¨ à¥ĭà¤Ĥ
Ġà¤¸à¥ĩà¤µ à¤¾à¤ıà¤Ĥ
à¤¿à¤µà¤¾à¤° à¤¿à¤ķ
à¤ª à¥ģà¤²
Ġà¤ĳ à¤¬à¥įà¤ľà¥ĩà¤ķà¥įà¤Ł
à¤°à¥įà¤¸ à¥Ģ
Ġà¤īà¤ľ à¤¾à¤Ĺà¤°
(à¤ľ à¤¿à¤¸
Ġà¤ķà¥ĭ à¤£
à¥ĭà¤Ĺà¥įà¤° à¤¾à¤«
Ġà¤¸ à¤¾à¤ĩà¤ķà¤¿à¤²
Ġa v
à¤¾à¤ķ à¥įà¤¤
Ġà¤µà¤¾à¤ª à¤¸à¥Ģ
Ġà¤ľ à¤¾à¤Ĺ
Ġà¤ªà¥įà¤°à¤¤à¤¿à¤Ń à¤¾à¤Ĺ
Ġà¤ķà¥Ģ à¤®
Ġt em
Ġà¤ªà¥įà¤°à¤¬à¤Ĥà¤§ à¤ķ
Ġà¤ķà¥ĭ à¤ļ
Ġà¤« à¥ĩà¤«
Ġà¤ħà¤¨ à¤¾à¤ľ
à¥įà¤¯à¤¾à¤¦ à¤¿
Ġtra in
_ p
Ġà¤Ĺ à¤¾à¤°à¥įà¤¡
à¥ī à¤°à¥įà¤Ł
Ġà¤ļà¥ģ à¤¨à¥ĩ
o id
à¥ĭ à¤µà¤¾
Ġà¤ħà¤µ à¤¸à¥įà¤¥à¤¾
Ġà¤Ĺà¤¾à¤¯ à¤¬
à¤¸à¥įà¤¤ à¥įà¤°
Ġà¤Łà¥Ģà¤® à¥ĭà¤Ĥ
Ġà¤¶à¤¿à¤µ à¤¿à¤°
à¤Ńà¤¾à¤· à¤¾
Ġà¤¸à¥įà¤® à¤¾à¤°à¤ķ
Ġà¤®à¥ĩà¤ľ à¤¬
Ġà¤ªà¤¾à¤¯ à¤¥à¤¨
Ġà¤ľ à¤¾à¤ıà¤Ĥ
à¤¾à¤¨ à¥įà¤µ
Ġà¤¬ à¥ĩà¤¨
Ġà¤ķà¤¾à¤°à¥įà¤¯ à¤ķà¤¾à¤°à¥Ģ
Ġà¤¬à¤¿à¤Ĥà¤¦ à¥ģà¤ĵà¤Ĥ
Ġà¤¬à¥Īà¤Ł à¤°à¥Ģ
Ġà¤¶ à¤¾à¤¹à¥Ģ
Ġà¤¦à¥įà¤°à¤µà¥įà¤¯ à¤®à¤¾à¤¨
Ġà¤°à¤¾à¤ľ à¤µà¤Ĥà¤¶
word s
Ġà¤¶ à¥Ĥà¤¨à¥įà¤¯
Ġà¤¦à¥Įà¤° à¥ĩ
Ġà¤¸à¥įà¤ªà¥ĩà¤¨ à¤¿à¤¶
Ġà¤ļ à¤¿à¤¨
Ġà¤¦à¤¿à¤® à¤¾à¤Ĺ
à¤¨ à¤¾à¤Ĺ
à¤¾à¤¸à¥įà¤¤ à¥įà¤°à¥Ģ
Ġà¤ĵ à¤¬
Ġà¤ıà¤ªà¥įà¤² à¤¿à¤ķà¥ĩà¤¶à¤¨
Ġà¤¶à¤¨ à¤¿à¤µà¤¾à¤°
à¤ķ à¥įà¤Ł
lo g
Ġà¤µà¤¨à¥įà¤¯ à¤ľà¥Ģà¤µ
à¤¡ à¤¾à¤¯à¤²à¥īà¤Ĺà¤ĥ
on s
Ġà¤¶à¥Ģà¤°à¥įà¤·à¤ķ à¤ĥ
Ġà¤«à¥Ĥà¤² à¥ĭà¤Ĥ
Ġà¤µà¤¯à¤¸à¥įà¤ķ à¥ĭà¤Ĥ
Ġà¤ªà¥Ī à¤¸à¤¾
ĠX ML
Ġà¤Ĺ à¥Į
Ġà¤¡ à¤¾à¤ī
pl ay
à¤¾à¤Ł à¤¨
Ġà¤Ķ à¤ªà¤ļà¤¾à¤°à¤¿à¤ķ
Ġà¤¯à¥Ĥà¤¨ à¤¾à¤¨à¥Ģ
7 7
- à¤¤
à¤ķ à¤¾à¤®
à¤¾à¤ļ à¤²
Ġà¤ķà¥įà¤·à¤® à¤¤à¤¾à¤ĵà¤Ĥ
Ġà¤¸à¤Łà¥Ģà¤ķ à¤¤à¤¾
Ġà¤Łà¤¿à¤ķ à¤Ł
Ġà¤® à¤¿à¤¥
Ġà¤¸à¥ģ à¤Ĺ
Ġà¤µà¤°à¥įà¤ ļ
à¤Ĥà¤¤ à¤ªà¥ģà¤°
Ġà¤Ĺà¥įà¤°à¤¹ à¤£
. j
à¤¿à¤¯ à¤¾à¤£à¤¾
à¤¿à¤Ĥ à¤¦à¥Ģ
Ġà¤°à¤¾à¤ľ à¤®à¤¾à¤°à¥įà¤Ĺ
à¥ĭà¤§ à¥Ģ
Ġà¤¸à¥įà¤¤à¤° à¥ĭà¤Ĥ
W e
Ġà¤® à¥ģà¤¤
Ġb re
Ġà¤Ĺà¥ģà¤°à¥ģ à¤µà¤¾à¤°
Ġà¤ķà¥ĩ à¤¨
Ġp ower
Ġà¤ľà¥ĭ à¤¡à¤¼à¥ĩ
Ġà¤¸à¥įà¤¨ à¤¿à¤ªà¥ĩà¤Ł
Ġà¤° à¤¿à¤Ł
à¤¿à¤² à¥įà¤¸
Ġà¤łà¤Ĥà¤¡ à¤¾
à¤² à¥Ī
Ġà¤ħà¤¨à¥įà¤µ à¥ĩà¤·à¤£
Ġà¤« à¥ĩà¤¸
à¤Ł à¥īà¤ª
à¥ĩà¤ķ à¥įà¤¶à¤¨
Ġà¤īà¤¤à¥įà¤¸ à¤µ
v ing
Ġà¤°à¤ĸ à¤¤à¥Ģ
à¤¤ à¤¿à¤¤
Ġà¤¸à¥įà¤µ à¤¾à¤®
Ġà¤ªà¥Ģ à¤¨à¥ĩ
à¤ľà¤¼ à¤¨
( à¤¶
: :
à¥Ĥ à¤¤à¤¿
Ġà¤§à¤¾à¤° à¤£
à¤² à¤¿à¤¨
ĠC S
Ġà¤īà¤ł à¤¾à¤¨à¥ĩ
con om
Ġà¤§à¥Ĥà¤® à¥įà¤°à¤ªà¤¾à¤¨
Ġà¤Ĺà¥ĭà¤ª à¤¨à¥Ģà¤¯
Ġà¤¹à¥ĩà¤¨ à¤°à¥Ģ
Ġà¤¨à¤¿à¤µà¤¾à¤¸ à¤¿à¤¯à¥ĭà¤Ĥ
Ġà¤® à¥Ĥà¤°à¥įà¤¤
Ġà¤ĸ à¥Ĥà¤¬
im ate
Ġà¤ĩà¤¤ à¥įà¤¯à¤¾à¤¦à¤¿
Ġà¤§à¤¾à¤° à¤ķ
Ġà¤ªà¥Ģà¤Ľ à¤¾
Ġà¤Ľà¤µ à¤¿à¤¯à¥ĭà¤Ĥ
à¤¶à¥Ģà¤² à¤¤à¤¾
Ġà¤®à¥ģà¤« à¥įà¤¤
Ġà¤¦ à¤µ
à¥ĩà¤ ĥ
an k
Ġà¤ĸ à¤¿à¤¡à¤¼
Ġà¤ķà¥ĭà¤° à¤¿à¤¯à¤¾
à¥ĩà¤Ł à¥ĩà¤¡
ar m
Ġà¤²à¤¾à¤ĸ à¥ĭà¤Ĥ
Ġà¤¸à¤® à¥ĩà¤¤
Ġà¤īà¤ªà¤Ńà¥ĭà¤ķà¥įà¤¤ à¤¾
Ġà¤ªà¤¾à¤°à¤¿à¤¸à¥įà¤¥à¤¿à¤¤ à¤¿à¤ķà¥Ģ
i ed
à¤Ł à¥ĩ
ĠS ystem
Ġà¤ļ à¤¾à¤µà¤²
Ġà¤®à¤¾à¤°à¥įà¤Ĺ à¤¦à¤°à¥įà¤¶à¤¨
à¤¦ à¥ĩà¤ĸ
à¤¿à¤ķ à¤¾à¤ıà¤ģ
Ġm ult
199 5
Ġà¤ĸ à¤¡à¤¼à¤¾
Ġà¤¦ à¤¾à¤¸
4 3
E n
Ġà¤¸ à¤¾à¤°à¤¾
Ġà¤«à¤¼à¤¿à¤² à¥įà¤Łà¤°
à¤¿à¤¸à¥įà¤¤ à¤¾à¤¨à¥Ģ
d ay
Ġà¤°à¤¾à¤ľ à¤¨
Ġà¤¸à¤¬ à¥Ĥà¤¤
à¤¹à¤¾à¤² à¤¾à¤Ĥà¤ķà¤¿
à¤ķ à¤¾à¤¨
P I
Ġà¤ĺà¤¨ à¤¤à¥įà¤µ
à¥įà¤² à¤¾
ĸ à¥įà¤¯à¤¾à¤¤
à¤² à¤¾à¤Ĥà¤Ĺ
à¤²à¥ĩ à¤¨
Ġà¤ĸà¥ĩà¤² à¤¤à¥ĩ
Ġà¤Ńà¤° à¥ĩ
Ġà¤ľà¥Ģà¤¤ à¤¨à¥ĩ
à¤¦ à¤¾à¤¤à¤¾
ĠT o
à¥ĭà¤¬ à¤²
Ġà¤ļ à¥Ī
196 0
à¤« à¤°
Ġà¤¬à¤¦ à¤²à¥ĩ
Ġà¤¡à¤¾à¤² à¤¨à¥ĩ
Ġà¤¬ à¤Ĥà¤§
Ġà¤¦ à¤¾à¤Ĥà¤¤
Ġst ory
D ata
ĠSt ring
Ġà¤ªà¤°à¤Ĥà¤ªà¤° à¤¾
à¤¿à¤¸ à¤¨
à¤ªà¥Ĥà¤°à¥įà¤µ à¤ķ
à¤¤ à¥įà¤¨
Ġà¤® à¥ĩà¤®
Ġà¤¸à¥įà¤µ à¤°à¥įà¤£
Ġà¤ªà¥įà¤°à¤¶ à¤¾à¤Ĥà¤¤
Ġo bject
ĠJ ava
Ġà¤ķà¥Īà¤° à¥ĭà¤²
Ġà¤ķà¤¾à¤Ĺ à¤ľ
o di
Ġà¤¸à¤°à¥įà¤µà¥ĭ à¤ļà¥įà¤ļ
Ġà¤²à¥ĭà¤ķ à¤¸à¤Ńà¤¾
( à¤ıà¤ķ
Ġà¤¹ à¤«à¥įà¤¤
Ġà¤Łà¥ģà¤ķ à¤¡à¤¼à¥ĭà¤Ĥ
- à¤ĸ
Ġà¤¸ à¤ľà¤¾
Ġà¤Ĺà¥ĭà¤² à¥įà¤¡
Ġà¤ĳà¤ªà¤° à¥ĩà¤¶à¤¨
in ist
Ġà¤¯à¤¾à¤¦ à¤µ
Ġà¤ľ à¥ģà¤Ł
Ġà¤¹à¤¿à¤Ĥà¤¦ à¥Ĥ
Ġà¤µ à¤¾à¤Ī
Ġb us
Ġà¤ªà¥ģà¤¨ à¤°
Ġà¤µà¤¿à¤¤ à¤°à¤¿à¤¤
à¤¸à¥ĩ à¤²
( p
Ġen g
Ġà¤ª à¤¾
à¤µ à¤°à¥įà¤·
it ed
Ġà¤¯à¥Ĥà¤¨ à¤¾à¤ĩà¤Łà¥ĩà¤¡
( t
Ġà¤¥ à¥īà¤®à¤¸
Ġà¤¹à¤¿à¤Ĥ à¤¸à¤¾
Ġà¤¸à¥įà¤µà¤¾à¤¦ à¤¿à¤·à¥įà¤Ł
Ġà¤Ńà¤¾à¤Ĺà¥Ģà¤¦ à¤¾à¤°à¥Ģ
Ġà¤®à¤¨à¥įà¤¦ à¤¿à¤°
Ġà¤° à¥ĩ
is m
Ġl ar
Ġal low
Ġà¤¹ à¤¾à¤¨à¤¿
à¤µ à¤¾à¤ķà¥įà¤¯
à¥ģà¤ı à¤ģ
Ġà¤ķ à¥ģà¤°
Ġà¤¡ à¤¿à¤¬à¥įà¤¬
Ġà¤īà¤¤ à¤°
el y
Ġà¤ªà¤°à¤¿à¤ļ à¤¿à¤¤
à¤¡à¥įà¤° à¥ĭà¤®
Ġà¤ħà¤ªà¥ĩà¤ķà¥įà¤· à¤¾à¤ķà¥ĥà¤¤
Ġà¤µà¤¿à¤ª à¤£à¤¨
Ġà¤ªà¥įà¤°à¤¤à¤¿à¤° à¤ķà¥įà¤·à¤¾
Ġà¤ªà¤°à¤¿à¤¸à¥įà¤¥à¤¿à¤¤ à¤¿à¤¯à¥ĭà¤Ĥ
Ġà¤ªà¥Ĥà¤Ľ à¤¾
Ġà¤ĩà¤²à¤¾à¤ķ à¥ĭà¤Ĥ
à¤¿à¤¯ à¤¾à¤¸
Ġà¤¸à¥ģà¤§à¤¾à¤° à¤¨à¥ĩ
à¥Ĥ à¤Ĥà¤Ĺà¤¾
à¥ģà¤¦ à¤¾à¤¯
à¤¸à¤² à¤®à¤¾à¤¨
5 6
Ġà¤ªà¥įà¤° à¤ķà¥įà¤·à¥ĩà¤ª
à¤« à¥įà¤²
Ġà¤¸à¤Ĥà¤¸à¥įà¤¥ à¤¾à¤ªà¤ķ
__ __
à¤¨ à¤¾à¤ĵà¤Ĥ
-à¤° à¤¾à¤·à¥įà¤Łà¥įà¤°à¥Ģà¤¯
à¤ªà¤¹ à¤²à¥ĩ
à¤° à¤¦
à¥ĥà¤·à¥įà¤Ł à¤¿
Ġà¤¨à¤¿à¤¶ à¤¾à¤¨
Ġà¤¸ à¤¿à¤µ
à¤¸à¤¾à¤°à¤¾à¤Ĥà¤¶ à¤ĥ
Ġà¤« à¤²à¥ĭà¤Ĥ
à¤¬ à¥Īà¤ķ
Ġà¤ªà¥ĩà¤¶ à¤ķà¤¶
Ġad v
Ġà¤¬à¥Ģ à¤®à¤¾
Ġà¤ħ à¤¶à¥įà¤µ
Ġà¤² à¥ģà¤Ī
Ġà¤ķà¤¬ à¥įà¤ľà¤¾
Ġà¤ľà¤¿à¤®à¥įà¤® à¥ĩà¤¦à¤¾à¤°à¥Ģ
Ġà¤¤à¤¸à¥įà¤µà¥Ģà¤° à¥ĩà¤Ĥ
à¥ĩà¤¡ à¤¿à¤Ł
Ġà¤µà¤¿à¤¶à¥ĩà¤· à¤¤à¤¾à¤ıà¤Ĥ
à¤¾à¤« à¥įà¤Ł
Ġà¤Łà¥įà¤° à¥Ī
Ġp ar
Ġre c
à¤²à¥įà¤ªà¤¨ à¤¾à¤ĥ
Ġà¤ªà¥įà¤° à¤¾à¤£
Ġà¤ķ à¤ªà¥įà¤¤
Ġà¤¸ à¥Īà¤ķ
à¥įà¤¸ à¥ĩ
Ġc ase
Ġà¤¸à¤¹ à¤ľ
Ġà¤¦à¥Ģà¤°à¥įà¤ĺ à¤ķà¤¾à¤²à¤¿à¤ķ
à¥ĭ à¤¶
re ct
à¤¬à¤Ĥà¤§ à¤¨
Ġà¤¦à¥ĩà¤ĸ à¥ĩ
à¤®à¥įà¤® à¥Ĥ
Ġà¤īà¤ł à¤¾
Ġà¤µà¤¾à¤£à¤¿à¤ľà¥įà¤¯ à¤¿à¤ķ
Ġc ent
Ġà¤² à¥Īà¤Ĥà¤¡
Ġà¤ª à¤¡à¤¼à¥ĩ
à¥¤ -
Ġà¤¬ à¤Ĺà¥Ģ
' '
. m
Ġà¤¨à¤®à¥Ĥ à¤¨à¥ĩ
Ġà¤°à¥ĭà¤ľ à¤Ĺà¤¾à¤°
ab ase
ction s
Ġà¤¬à¥įà¤° à¥ĩà¤ķ
- à¤¨à¤¿
Ġà¤¶ à¥ĭà¤°
ver age
Ġà¤¬à¥įà¤² à¥īà¤Ĺ
à¥ī à¤¨à¥įà¤¸
Ġà¤¸ à¤¿à¤Ĺ
Ġà¤ªà¤¾à¤° à¤¿à¤µà¤¾à¤°à¤¿à¤ķ
Ġà¤Ľ à¤¤
à¥ĭà¤¡ à¤¾
à¥¦à¥¦ à¥¦
à¤¿à¤¤ à¥įà¤¯
Ġwh ere
Ġacc ur
Ġà¤ªà¥Ī à¤°à¥ĭà¤Ĥ
Ġà¤¹à¤²à¥įà¤ķ à¥ĩ
Ġà¤īà¤¦à¥įà¤§ à¤°à¤£
à¤® à¤¸
Ġc urrent
à¥ĩà¤¨ à¤¿à¤¸
Ġà¤¬à¥įà¤° à¤¾à¤ī
à¤¾à¤ĺ à¤°
Ġà¤ĸ à¤Ĺà¥ĭà¤²
Ġà¤ªà¥įà¤°à¤¤ à¤¿à¤¸à¥įà¤¥
ÂłÂł ÂłÂł
Ġà¤® à¥ĭà¤°
Ġà¤¦ à¤¾à¤µ
à¤µ à¤¤à¥Ģ
à¤¨à¤² à¥ĭà¤¡
Ġà¤®à¤¹à¤¾à¤¦ à¥įà¤µà¥Ģà¤ª
Ġà¤¸à¥Īà¤¨ à¤¿à¤ķ
Ġà¤ħà¤ľà¥Ģ à¤¬
Ġà¤¸à¤« à¤¾à¤Ī
Ġà¤°à¥ĭà¤® à¤¾à¤Ĥà¤ļ
Ġà¤ĳà¤¸à¥įà¤Łà¥įà¤°à¥ĩà¤² à¤¿à¤¯à¤¾à¤Ī
Ġà¤° à¤¿à¤ľ
à¤µ à¤£
Ġà¤ªà¥įà¤° à¤¾à¤¸à¤Ĥà¤Ĺà¤¿à¤ķ
Ġà¤¸à¥įà¤µ à¤¾à¤®à¥Ģ
Ġà¤Ĭ à¤¤à¤ķ
Ġà¤ħà¤¨à¥ģà¤Ńà¤µ à¥ĭà¤Ĥ
Ġà¤¸à¥įà¤¥à¤¿à¤° à¤¤à¤¾
Ġà¤²à¥ĩ à¤¤à¥Ģ
e c
Ġà¤ħà¤ª à¤¶à¤¿à¤·à¥įà¤Ł
199 4
Ġà¤§à¤¾à¤° à¤£à¤¾
Ġà¤ľà¤¾à¤Ĺà¤°à¥Ĥà¤ķ à¤¤à¤¾
Ġà¤ķ à¤¡à¤¼à¥Ģ
Ġà¤Ĺ à¤¹à¤¨
Ġà¤ľà¥ĭ à¤¸
à¥ģà¤² à¤°
à¤¸à¤Ĥ à¤ķà¥įà¤·à¥ĩà¤ª
Ġà¤®à¤¹à¤¾à¤° à¤¾à¤·à¥įà¤Łà¥įà¤°
à¥ĭ à¤¸à¥Ģ
Ġo pt
Ġà¤ĺà¤Ł à¤ķà¥ĭà¤Ĥ
à¥Ĥà¤° à¤¾
Ġà¤Ĺà¥ģà¤£ à¤¾
[ à¤ı
Ġà¤ķ à¥ĥà¤¤
à¥¤ à¥¤
à¤¾à¤§ à¤¾à¤°à¤£
Ġà¤ļà¤° à¤®
à¥Ĥà¤Ĥ à¤ķà¤¿
d es
à¤¾à¤° à¥įà¤®
Ġwh at
Ġà¤Ĩà¤ķà¤°à¥įà¤· à¤£
Ġà¤ı à¤ĥ
Ġà¤µà¥ĩ à¤¨
Ġà¤ķà¥īà¤² à¤®
Ġà¤Ĺ à¥ģà¤«
Ġà¤§ à¥Ĥà¤ª
Ġà¤ĩà¤Ĥà¤Ĺ à¤¿à¤¤
Ġà¤ħà¤µ à¥Ī
Ġà¤ħà¤®à¥ĩà¤° à¤¿à¤ķà¤¨
à¤¹ à¤²
Ġà¤ªà¤°à¤¿à¤¯ à¥ĭà¤ľà¤¨à¤¾à¤ĵà¤Ĥ
Ġà¤²à¤Ĺ à¤¾à¤ı
à¤¦ à¤¿à¤¨
Ġà¤¬ à¥ĩà¤°
en se
a z
Ġà¤ľà¤¼ à¤°
Ġà¤ľ à¤¾à¤µ
en ef
à¥įà¤¯à¥Ĥ à¤®
Ġà¤®à¥Ī à¤Łà¥įà¤°
Ġà¤®à¥ģà¤¤ à¤¾à¤¬
Ġà¤ľ à¤¾à¤ķà¤°
à¥ĭà¤¤ à¥įà¤¤à¤°
à¥ľ à¥Ģ
à¤¾à¤°à¥įà¤ķ à¤¿à¤ķ
Ġà¤¡ à¤¾à¤ķ
à¤¾à¤ĩà¤Ł à¤¿à¤¸
Ġà¤° à¥ĩà¤Ĺ
Ġà¤ĸ à¤¾à¤¤à¤¾
Ġà¤°à¤¾à¤ľ à¤¨à¥ĩ
à¤¿à¤Ń à¥ģà¤ľ
5 8
Ġà¤¦à¤¶ à¤ķà¥ĭà¤Ĥ
. get
Ġà¤ªà¥įà¤°à¤¶ à¤Ĥà¤¸
Ġa c
Ġde ci
wor k
Ġà¤ķà¤¥ à¤¨
à¥įà¤° à¤²
Ġà¤ķà¥ĩ à¤ķ
Ġà¤¬à¥ĭà¤² à¤¨à¥ĩ
à¤¬ à¥ĩ
Âłà¤ķ à¤¡à¤¼à¤¿à¤¯à¤¾à¤ģ
Ġà¤¬à¤¹ à¥ģà¤®
Ġà¤¸ à¥Īà¤®
à¤° à¤ĸ
Ġh and
- s
Ġà¤¨ à¤¿à¤¬à¤Ĥà¤§
à¥ĭ à¤²à¤¾
Ġà¤¯ à¤¾à¤¨à¥Ģ
Ġà¤ľà¥Ģà¤µ à¤¾à¤¶à¥įà¤®
Ġà¤®à¥Į à¤²à¤¿à¤ķ
à¤° à¤ķ
le ar
Ġà¤²à¤¡à¤¼ à¤¨à¥ĩ
Ġà¤°à¤¾à¤¸à¥įà¤¤ à¤¾
Ġà¤īà¤¦à¥įà¤¯à¥ĭà¤Ĺ à¥ĭà¤Ĥ
à¤Ń à¥Ĥ
Ġà¤ķà¤¿ à¤°à¤£
Ġà¤²à¤Ĺ à¤¤à¥Ģ
( à¤ıà¤¨
Ġà¤ıà¤¡ à¤®
Ġà¤ļ à¥ĭà¤°à¥Ģ
à¤ªà¤° à¤¿à¤ķ
Ġà¤ªà¥įà¤°à¥ĭ à¤¸à¥ĩà¤¸
Ġste ps
Ġà¤¸à¤Ĥà¤° à¤ļà¤¨à¤¾à¤ĵà¤Ĥ
Ġà¤ªà¤¤à¥įà¤° à¤ķà¤¾à¤°
Ġà¤¸à¤¾à¤µ à¤§à¤¾à¤¨à¥Ģ
Ġà¤µà¥Ī à¤§
Ġen ergy
à¤² à¤¾à¤²
à¤¦ à¥įà¤µ
Ġà¤īà¤ª à¤¸à¥įà¤¥à¤¿à¤¤
Ġà¤¦à¥ģ à¤°à¥įà¤Ĺ
0 1
Ġà¤ħ à¤«à¤¼
Ġà¤ªà¥ģà¤¸à¥įà¤¤à¤ķ à¥ĩà¤Ĥ
Ġà¤¸à¤® à¤¾à¤µ
Ġcom put
Ġà¤ªà¤°à¤¿à¤¦ à¥ĥà¤¶à¥įà¤¯
à¤¿à¤ª à¥įà¤¸
Ġà¤¸à¥ī à¤°à¥įà¤Ł
Ġà¤¸à¤®à¤¾à¤¯ à¥ĭà¤ľà¤¿à¤¤
Ġà¤¸à¥įà¤µà¤¾à¤® à¤¿à¤¤à¥įà¤µ
Ġà¤īà¤¤à¥įà¤ªà¤¾à¤¦ à¤ķ
Ġà¤ªà¥įà¤°à¥ĭà¤ľ à¥ĩà¤ķà¥įà¤Ł
- >
Ġà¤ħ à¤°à¥įà¤§
Ġà¤ªà¥Ģ à¤ł
Ġà¤²à¥ĩà¤ĸ à¤ķà¥ĭà¤Ĥ
Ġà¤¨à¤¾à¤Ĺà¤°à¤¿à¤ķ à¥ĭà¤Ĥ
v en
c ation
w er
it al
Ġà¤ªà¥įà¤°à¤¸ à¤¾à¤¦
à¤² à¤ķ
Ġà¤®à¥ģà¤¤à¤¾à¤¬ à¤¿à¤ķ
Ġà¤¸ à¤¶
Ġà¤īà¤ª à¤¹à¤¾à¤°
ent ence
à¥§à¥¯à¥ ¬
Ġà¤ªà¥Ģ à¤Łà¤°
ill s
Ġà¤ĩà¤²à¥ĩà¤ķà¥įà¤Łà¥įà¤°à¥īà¤¨ à¤¿à¤ķ
] ;
Ġà¤ª à¤¶
Ġà¤®à¥Ī à¤¸
ht ml
hi p
Ġà¤¡à¤¾à¤ī à¤¨à¤²à¥ĭà¤¡
. org
à¥ģ à¤¸à¥įà¤¤
à¤Ł à¥įà¤¸
199 1
Ġà¤¬à¤Ĥà¤¦à¤° à¤Ĺà¤¾à¤¹
à¤¾à¤² à¤¾à¤®
a ir
Ġà¤° à¥Ī
ic le
Ġà¤µà¤¾à¤¹ à¤¨à¥ĭà¤Ĥ
Ġà¤ľ à¤¡à¤¼
Ġà¤ķà¥ĩ à¤¸
T P
Ġà¤µà¤¨ à¤¸à¥įà¤ªà¤¤à¤¿
Ġà¤¸à¥įà¤Ł à¥Ģà¤µ
Ġà¤®à¤¿à¤¶à¥įà¤° à¤¿à¤¤
à¥ĭ à¤ļ
Ġsh e
Ġà¤¨à¥Į à¤¸à¥ĩà¤¨à¤¾
à¤µà¥Ī à¤ľà¥įà¤ŀà¤¾à¤¨à¤¿à¤ķ
Ġà¤ľà¥Ģà¤µ à¤¨à¥Ģ
Ġà¤ªà¥įà¤°à¤¸à¥įà¤¤à¤¾à¤µ à¤¿à¤¤
7 6
à¤¾à¤® à¤°à¥įà¤¶
Ġà¤ªà¥ģà¤¨ à¤°à¥įà¤¨
Ġà¤Ĺà¥Ĥ à¤Ĺà¤²
( à¤Ī
Ġà¤¸ à¥į
Ġà¤ħà¤ªà¥įà¤° à¤¤à¥įà¤¯
Ġà¤ķ à¤°à¥įà¤¤
à¤°à¥įà¤¨ à¤²
Ġà¤ķà¤¥ à¤¿à¤¤
ĠA l
Ġà¤¬à¥ģà¤¦à¥įà¤§ à¤¿à¤®
Ġcalcul ate
_ n
à¤¬ à¤¾à¤²
Ġ à
Ġon ly
à¥Ģ à¤Ĥ
à¥ĭ à¤ı
Ġà¤¦ à¤¾à¤¯à¤°
à¤ķà¥įà¤¤ à¤¿à¤¯à¥ĭà¤Ĥ
Ġà¤²à¤Ĺ à¤¤à¥ĩ
Ġà¤ķà¥įà¤°à¤® à¤¶
Ġà¤¹ à¤°à¥Ģ
Ġà¤ªà¤¿à¤Ľ à¤²à¥Ģ
Ġà¤¨ à¤°à¥įà¤¸
umb er
Ġà¤ªà¥įà¤°à¥ĩà¤°à¤£ à¤¾
à¥ĩ à¤¨à¥įà¤¦à¥įà¤°
Ġà¤ªà¥ĭ à¤·à¤ķ
Ġà¤ĺà¤Ĥà¤Ł à¥ĭà¤Ĥ
he ad
Ġ random
à¥ģ à¤¡à¤¼
à¥įà¤® à¥Ģ
Ġà¤®à¥Ģ à¤ł
Ġà¤Ĺà¥įà¤°à¥Ģ à¤·à¥įà¤®
Ġinclud ing
à¤¤à¥įà¤¤ à¤®
Ġà¤µà¤¿à¤· à¤¾à¤ķà¥įà¤¤
Ġà¤¡ à¤¾à¤¯à¤²à¥īà¤Ĺà¤ĥ
Ġà¤ħà¤® à¥įà¤²
à¤ĩà¤¸ à¤¸à¥ĩ
Ġà¤Ĩà¤¤à¥įà¤® à¤¾
Ġà¤ķà¤¿à¤¨ à¥įà¤¤à¥ģ
Ġte am
Ġà¤¸à¤®à¤Ŀ à¤¾à¤¨à¥ĩ
at i
b r
s ing
Ġà¤¸à¤«à¤² à¤¤à¤¾à¤ªà¥Ĥà¤°à¥įà¤µà¤ķ
Ġà¤ħà¤¸à¤® à¤°à¥įà¤¥
à¤¿à¤Ĥ à¤¦à¤¾
LE CT
à¤¿à¤µ à¤¾à¤¦à¥Ģ
Ġà¤ļà¤² à¤¤à¥Ģ
à¤ľ à¤¯
Ġà¤¨à¥ĩ à¤µ
Ġà¤«à¤¼ à¥įà¤°
ib r
à¥§à¥ ª
Ġà¤²à¥ĩà¤ĸ à¤ĥ
8 8
à¤ª à¤¾à¤ķà¤¿à¤¸à¥įà¤¤à¤¾à¤¨
Ġà¤ĳ à¤°à¥įà¤¡à¤°
à¥ģà¤ķ à¤²à¤¾
Ġun ique
I N
à¤Ĺ à¤¼
Ġà¤¡ à¥ĩà¤¸
à¤¿à¤« à¤¼
Ġà¤Ń à¤¯
ver t
Ġà¤Łà¥ĩà¤ķà¥įà¤¨ à¥ĭà¤²à¥īà¤ľà¥Ģ
Ġà¤ª à¤¾à¤ķ
Ġà¤¸à¥įà¤ª à¥įà¤°
' à¤¸
à¤¨ à¤°
Ġà¤®à¤¾à¤ª à¤¨à¥ĩ
Ġà¤¶ à¤¿à¤ĸà¤°
Ġt ype
Ġà¤¸à¤¾à¤ ī
à¤¾à¤ķ à¤°à¥įà¤·à¤£
Ġpro m
b ack
Ġà¤ļ à¤¾à¤¯
es e
Ġp ass
Ġà¤Ĺà¤¿à¤¨ à¤¤à¥Ģ
à¤¬ à¤¾à¤°à¥Ģ
Ġà¤²à¤¡à¤¼ à¤ķà¥ĩ
Ġà¤¦ à¥ģà¤ĸ
Ġà¤«à¥Īà¤¸ à¤²à¥ĩ
à¤ªà¤°à¤¿à¤ķ à¤²à¥įà¤ªà¤¨à¤¾à¤ĥ
5 9
Ġà¤µà¤°à¥įà¤ ²
Ġà¤¬à¤¤ à¤¾à¤¤à¥Ģ
Ġle vel
Ġà¤¸à¥Ĥà¤ĸ à¥ĩ
Ġà¤®à¤¨à¥ĭà¤µ à¥Īà¤ľà¥įà¤ŀà¤¾à¤¨à¤¿à¤ķ
Ġà¤ħà¤µà¤§à¤¾à¤° à¤£
à¤¹à¤¸ à¤¾à¤¸
à¥ ¯à¥
) -
à¥ģ à¤Ĥà¤¡
Ġà¤µà¥įà¤¹ à¤¾à¤ĩà¤Ł
4 1
Ġc ult
Ġm on
Ġà¤¸à¥ģ à¤¨à¤¾
à¤°à¥įà¤¦ à¥ĩ
Ġà¤¸à¥ĭà¤ļ à¤¨à¥ĩ
Ġà¤¸à¤¾à¤¹à¤¿à¤¤à¥įà¤¯ à¤¿à¤ķ
à¤¿à¤¬ à¥įà¤°
199 3
L ist
_ data
à¥ĭà¤Ł à¤¾
à¤ªà¤° à¤¿à¤£à¤¾à¤®
à¤ª à¥ĭà¤°à¥įà¤Ł
à¤¾à¤Ĥà¤ķ à¤¿à¤¤
à¥įà¤ªà¥įà¤° à¥ĩà¤¸
_ f
in ation
199 2
Ġà¤ªà¥ĩà¤° à¤¿à¤¸
Ġkn ow
Ġà¤īà¤¦à¤¾à¤¹à¤°à¤£ à¥ĭà¤Ĥ
Ġà¤Ńà¤° à¤¨à¥ĩ
Ġà¤ħà¤¨à¥įà¤¯ à¤¥à¤¾
Ġà¤Ĺà¥ģà¤° à¥ģà¤¤à¥įà¤µ
-à¤Ľ à¤µà¤¿
t en
Ġà¤ĺ à¤¾à¤¤à¤ķ
Ġà¤ħà¤Ń à¤¿à¤²à¥ĩà¤ĸ
Ġà¤ľà¤¾à¤¦ à¥Ĥ
Ġà¤ªà¥įà¤°à¤µ à¤¾à¤¸
A R
Ġà¤¸ à¤ĸà¥įà¤¤
à¤¾à¤§ à¤¿
Ġà¤ķà¥įà¤° à¥ĩà¤¡à¤¿à¤Ł
ĠG ener
à¤¿à¤¸ à¥įà¤Łà¤°
et ing
Ġà¤µà¤¾à¤¯à¥ģà¤® à¤Ĥà¤¡à¤²
Ġà¤¯ à¥ĭà¤ľà¤¨à¤¾à¤ĵà¤Ĥ
Ġà¤ħà¤¨à¥ģ à¤¬à¤Ĥà¤§
Ġà¤ªà¥Ģ à¤¢à¤¼à¥Ģ
à¤¸à¥Ĥ à¤¤à¥įà¤°
Ġà¤Ĩà¤²à¥ĭ à¤ļà¤¨à¤¾
à¤¿à¤¤ à¤¾à¤ĵà¤Ĥ
à¥ī à¤¬
19 50
Ġb ack
Ġout put
Ġpos sible
Ġà¤ħ à¤¤à¤¿
it em
. f
Ġà¤ªà¤° à¤¾à¤®à¤°à¥įà¤¶
Ġà¤ħà¤¨ à¥Ĥà¤ł
Ġme thod
Ġà¤µ à¤ķà¥įà¤¤
à¤ķà¥įà¤° à¤¿à¤¯à¤¾
Ġcomple x
Ġà¤µà¤ķà¥Ģ à¤²
Ġà¤¸à¥ĩà¤²à¥įà¤¸ à¤¿à¤¯à¤¸
Ġc ost
ter n
Ġà¤«à¥Ī à¤²à¤¾
Ġpro ble
Ġà¤¸à¥ĩà¤µ à¤¾à¤¨
à¥ĭ à¤°à¥įà¤¸
Ġà¤¤ à¤¾à¤°à¥ĩ
Ġà¤µ à¤¿à¤¯
Ġp ur
Ġà¤¤à¥Ģ à¤°à¥įà¤¥
| --------
Ġà¤ªà¤¹ à¤¨à¥ĩ
Ġà¤ªà¤¹à¥ģà¤Ĥà¤ļ à¥ĩ
Ġà¤ķà¥ĭà¤² à¤Ĥà¤¬
à¥Ĥà¤² à¤¾
Ġà¤¨à¥Ģ à¤²à¥ĩ
Ġà¤ªà¤¢à¤¼ à¤¾à¤Ī
(à¤ħ à¤Ĥà¤Ĺà¥įà¤°
Ġà¤¤ à¥ĥ
à¤ķà¥įà¤· à¥Ģ
Ġà¤¬à¤²à¥įà¤² à¥ĩà¤¬
- b
à¥Ĥ à¤¨à¥ĭà¤Ĥ
Ġà¤ıà¤² à¤°à¥įà¤ľà¥Ģ
Ġà¤ĩ à¤¶
Ġà¤¯à¥ģ à¤µà¤¾à¤ĵà¤Ĥ
( à¤Ĩà¤Ī
Ġà¤ħ à¤¤à¥Ģà¤¤
Ġà¤¯ à¤¥
Ġà¤ªà¥įà¤°à¤¶ à¤Ĥà¤¸à¤¾
( à¤ªà¥Ģ
o f
Ġà¤¬ à¥Īà¤²
à¥įà¤ª à¤¨à¤¿à¤ķ
Ġà¤²à¥ĭà¤Ĺ à¥ĭ
ve st
Ġà¤Ŀ à¥Ĥà¤ł
< td
Ġde c
Ġà¤ĳ à¤²
Ġà¤ĵ à¤¹
Ġà¤°à¤¾à¤¹ à¤¤
. W
s um
à¤¿à¤ ł
à¤¨ à¤¾à¤¤à¥įà¤®à¤ķ
Ġh um
7 2
Ġà¤² à¤¾à¤ĩà¤Ł
Ġà¤¬à¥įà¤° à¤¾à¤īà¤¨
à¤¾à¤¨à¥ģ à¤¸à¤¾à¤°
à¤ķ à¥Ī
Ġen c
Ġà¤¸à¤¾à¤ķà¥įà¤· à¥įà¤¯
Ġà¤ıà¤¸à¥ĭà¤¸à¤¿à¤ı à¤¶à¤¨
Ġà¤¸à¥ĩà¤µà¤¾à¤¨ à¤¿à¤µ
à¤¬ à¤¿à¤²
Ġà¤¸à¤Ĥ à¤ªà¥įà¤°
Ġsu ccess
Ġà¤ķà¤Ł à¥Įà¤¤à¥Ģ
Ġcharact er
Ġà¤ľà¥ĭà¤¡à¤¼ à¤¨à¤¾
à¤µ à¤¿à¤µ
Ġà¤¸à¤Ĥà¤Ĺà¥Ģà¤¤ à¤ķà¤¾à¤°
à¤¿à¤§ à¤¿
à¤¾à¤ļ à¥Ģ
' t
er n
Ġà¤ħà¤µà¥Ī à¤§
Ġà¤¬ à¤¾à¤¹
Ġà¤¶ à¤°à¤£
at s
. n
Ġà¤īà¤¦ à¤¯
Ġà¤Ńà¥Ĥ à¤ĸ
à¤Ĩ à¤īà¤Ł
Ġà¤ªà¥įà¤°à¤Ńà¤¾à¤µ à¤¶à¤¾à¤²à¥Ģ
à¤¾à¤µ à¥Ģ
vern ment
à¤ķ à¥įà¤ĸ
à¥ģ à¤°à¥įà¤Ĺ
Ġà¤¸à¤Ĥ à¤¸à¥įà¤¥à¤¾
Ġà¤¸à¥įà¤Ł à¥Ĥà¤¡
Ġà¤°à¤¿à¤ļ à¤°à¥įà¤¡
Ġà¤¬ à¤¾à¤¸à¥įà¤ķ
ant s
Ġà¤¸à¥ĭà¤ļ à¤¤à¥ĩ
Ġà¤¤ à¤¾à¤°à¥įà¤ķà¤¿à¤ķ
Ġà¤ħà¤² à¥įà¤¬
Ġà¤¶à¥ĭà¤§ à¤ķà¤°à¥įà¤¤à¤¾
Ġs ur
à¥ĩà¤® à¥įà¤ª
Ġà¤īà¤ļà¥įà¤ļ à¤¾à¤°à¤£
Ġdet erm
à¤¿à¤ķà¤¾à¤° à¤ķ
Ġorg an
Ġà¤¦à¥ģà¤°à¥įà¤ĺ à¤Łà¤¨à¤¾
u z
Ġà¤¸ à¤°à¥įà¤ķ
re qu
à¤¾à¤Ł à¥Ģ
o se
à¥ĩà¤Ł à¥Ģ
à¤« à¤¿à¤²à¥įà¤®
Ġà¤īà¤²à¥įà¤² à¤Ĥà¤ĺ
Ġà¤ķà¤²à¤¾à¤ķ à¤¾à¤°à¥ĭà¤Ĥ
- à¤¸à¥Ģ
Ġà¤¨à¤¦ à¤¿à¤¯à¥ĭà¤Ĥ
Ġà¤ªà¥įà¤° à¤¿à¤¯
Ġm et
Ġà¤ļ à¤¾à¤Ĥ
Ġm ax
Ġà¤«à¤¿à¤²à¥įà¤® à¥ĩà¤Ĥ
, "
à¤° à¤¸
Ġre le
Ġà¤īà¤¤à¥įà¤ªà¤¾à¤¦ à¤¿à¤¤
Ġà¤µà¤°à¥įà¤ļ à¥ģà¤ħà¤²
v ed
Ġs ort
Ġà¤®à¤¿à¤² à¥ĩà¤Ĺà¤¾
N ame
à¤¾à¤¹ à¤¨
à¤® à¥į
Ġà¤°à¤¾à¤ľ à¤¸à¥įà¤µ
Ġà¤ªà¥įà¤°à¤¾à¤¥à¤®à¤¿à¤ķ à¤¤à¤¾
Ġà¤² à¥Īà¤Łà¤¿à¤¨
à¥įà¤² à¥ĩ
Ġà¤¯à¥ĭà¤Ĺ à¥įà¤¯à¤¤à¤¾
Ġà¤ķà¤łà¤¿à¤¨ à¤¾à¤Ī
( à¤ĩ
Ġà¤ħà¤¨ à¥įà¤¤à¤°
Ġà¤¡ à¥ĭà¤®
Ġà¤µà¤¿à¤ķ à¥ĩà¤Ł
Ġà¤¸à¥įà¤ķ à¥Īà¤¨
i an
Ġà¤ª à¤ł
à¤ķà¤¾à¤° à¥įà¤¬
Ġà¤Ĺà¤² à¤¤à¥Ģ
at or
Ġà¤ħà¤¸à¥įà¤¥ à¤¾à¤¯à¥Ģ
Ġà¤¡ à¤¿à¤ķ
à¤ħ à¤²
Ġà¤ķà¤¹ à¤¤à¥Ģ
id ual
Ġà¤¶à¤¬à¥įà¤¦ à¤ķà¥ĭà¤¶
ĠĠĠĠ čĊ
Ġsh ow
al es
Ġà¤¸à¥ģà¤¨ à¤¨à¥ĩ
Ġà¤¹ à¥ĩ
Ġà¤¤à¥įà¤° à¤¿à¤Ńà¥ģà¤ľ
Ġà¤¸à¤Ĥà¤ªà¤¾à¤¦ à¤¿à¤¤
Ġà¤ľ à¤¾à¤¯à¤¾
à¥įà¤µ à¤¿à¤¨
is ual
Ġin f
Ġà¤¸à¥įà¤Ł à¥įà¤°à¥Ģà¤Ł
Ã Ĺ
à¤¸ à¥įà¤°
Ġà¤ļà¤¾à¤¹ à¤¤à¥Ģ
ot e
Ġtechn ology
Ġà¤ĺà¤Łà¤¨ à¤¾à¤ıà¤ģ
Ġà¤Ĺà¥ģà¤ľà¤° à¤¾à¤¤
iqu es
à¤¹ à¤µà¥Ģà¤Ĥ
Ġà¤ħà¤µà¤¶ à¥ĩà¤·
Ġà¤ľà¤¾à¤¨ à¤¤à¤¾
Ġà¤ªà¤°à¥Ģà¤ķà¥įà¤·à¤£ à¥ĭà¤Ĥ
Ġà¤¬à¤¨ à¤¾à¤®
Ġà¤°à¤¹ à¤¸à¥įà¤¯
Ġà¤®à¤¹ à¤¤à¥įà¤¤à¥įà¤µ
Ġà¤²à¥ī à¤¸
Ġbo th
Ġà¤ªà¤¹ à¤ļ
à¤¾à¤¸ à¤¿à¤¤
à¤¸à¤® à¥Ģ
198 9
Ġà¤Ł à¤¨
Ġà¤¸à¥įà¤ķ à¥įà¤µ
Ġà¤«à¥įà¤° à¥ĩà¤Ĥà¤ļ
à¥ĭ à¤¸à¥įà¤ķ
Ġà¤µà¤°à¥įà¤² à¥įà¤¡
0 5
à¤¸ à¥įà¤®
à¤² à¤¿à¤¯à¥ĭà¤Ĥ
Ġà¤ľ à¥ĩà¤¸
à¥Īà¤Ĥ à¤Ł
Ġg u
Ġà¤Ĺà¥įà¤° à¥ĩà¤Ĺ
im es
Ġf l
Ġimpro ve
Ġà¤®à¥ģ à¤¸à¤²à¤®à¤¾à¤¨
Ġà¤ĭ à¤·
Ġà¤¬à¤¾à¤§ à¤¾
Ġà¤ħà¤¹à¤® à¤¦
à¤¾à¤§à¥įà¤¯ à¤ķà¥įà¤·
à¤¸ à¤¾à¤¹à¤¿à¤¤à¥įà¤¯
Ġà¤ħà¤Ń à¤¿à¤¯
Ġà¤µà¤¾à¤¸à¥įà¤¤ à¥ģà¤ķà¤²à¤¾
Ġà¤ıà¤Ĥà¤¡ à¥įà¤°
Ġà¤¯à¤¾à¤¤à¥įà¤° à¤¿à¤¯à¥ĭà¤Ĥ
Ġbe ing
Ġà¤ĸà¤¼ à¤¾à¤¨
Ġà¤ħà¤Ĥà¤¤ à¤°à¥įà¤¨
Ġà¤Ŀ à¥ģà¤ķ
Ġà¤Ĩà¤ĸ à¤¿à¤°
Ġà¤° à¤ļà¤¿à¤¤
à¤¿à¤¤ à¤¾à¤¬
à¤µà¥įà¤¯ à¤ķà¥įà¤¤à¤¿
l ength
al e
Ġà¤¸à¤®à¤¨à¥įà¤µ à¤¯
Ġà¤ª à¤Łà¥įà¤Ł
Ġà¤ķà¥Īà¤¥ à¥ĭà¤²à¤¿à¤ķ
Ġ right
Ġp resent
Ġà¤Ĩà¤¶ à¤¾
Ġà¤µà¥įà¤¯ à¤¾à¤¸
Ġm achine
div idual
ad d
à¥ĭ à¤ķà¥įà¤°
Ġà¤® à¥ģà¤°
Ġà¤īà¤¤ à¤¾à¤°
Ġà¤¨à¤¿à¤ķà¤¾à¤² à¥ĩà¤Ĥ
Ġà¤ķà¥Īà¤² à¥ĭà¤°à¥Ģ
à¤°à¤ĸ à¤¾à¤µ
5 2
6 1
à¥ĩà¤ Ī
Ġst ruct
à¥Ĥà¤¹ à¤¿à¤ķ
w ift
Ġà¤Ł à¥ĩà¤²à¥Ģ
Ġà¤¸ à¥Īà¤Ĥà¤¡
à¤Ĺ à¤¾à¤ģà¤µ
Ġà¤ĳ à¤ªà¥įà¤Ł
Ġà¤®à¤ľ à¥ĩà¤¦à¤¾à¤°
à¤¿à¤¦ à¥įà¤¯à¤¾à¤²à¤¯
Ġà¤¬à¤¦ à¤²à¤¾
à¥Ģ à¤¨à¤¾
Ġà¤°à¥ĩà¤ĸ à¤¾à¤Ĥà¤¶
Ġpre dict
Ġà¤¦à¥ĭà¤· à¥Ģ
Ġà¤µà¤¸ à¤Ĥà¤¤
Ġà¤ª à¤¾à¤¤à¥ĩ
Ġà¤µà¥ĩ à¤Ĺ
à¥ģà¤¦à¤¾à¤¯ à¤¿à¤ķ
à¤¡ à¤¾à¤īà¤¨
à¥ĭà¤° à¤¿à¤¯à¤¾
Ġà¤Ńà¥Ĥ à¤Ĺà¥ĭà¤²
ak es
y p
Ġà¤¸à¤Ĥà¤µ à¥ĩà¤¦
( int
Ġà¤² à¤¿à¤¯
Ġfe atures
Ġà¤¸ à¤¤à¥įà¤¤à¤¾
à¥įà¤² à¥ĭ
Ġà¤¬ à¤¾à¤Ī
Ġà¤Ĩà¤§ à¤¾
Ġà¤ķà¤¨à¥ĩà¤ķ à¥įà¤¶à¤¨
à¤¿à¤° à¤¾à¤®
Ġà¤īà¤ªà¤²à¤¬à¥įà¤§ à¤¤à¤¾
Ġà¤ªà¥įà¤°à¤¸à¤¾à¤° à¤¿à¤¤
Ġà¤¸à¤Ĥà¤ªà¤¾à¤¦ à¤ķ
Ġà¤¸à¤¿à¤¨ à¥ĩà¤®
Ġexperi ence
Ġà¤ª à¥Īà¤¨
à¤¸ à¤¾à¤®
Ġà¤²à¤¿à¤ĸ à¤¤à¥ĩ
---- ---
con d
Ġà¤Ńà¤Ĥà¤¡ à¤¾à¤°
Ġ Ø
Ġà¤¸à¥įà¤µ à¤¿à¤«à¥įà¤Ł
Ġà¤¸à¤Ĥà¤ľà¥įà¤ŀ à¤¾
Ġà¤ı à¤°à¥ĩ
Ġà¤Ń à¥ĩà¤¡à¤¼
Ġà¤°à¤ĸ à¥ĩ
à¤¿à¤¬à¤Ĥà¤§ à¥Ģà¤¯
à¤µà¤¿à¤¶ à¥ĩà¤·
à¥īà¤ĩ à¤¡
- à¤¸à¥įà¤Ł
Ġà¤¤ à¤¾à¤°à¤¾
à¥įà¤® à¥ĭà¤¨
Ġà¤®à¥Ĥà¤²à¥įà¤¯ à¤µà¤¾à¤¨
à¤¾à¤¡ à¥ĭ
Ġà¤Ĩà¤ķ à¤²à¤¨
à¤¦à¤°à¥įà¤¶ à¥Ģ
Ġà¤«à¥įà¤° à¥Īà¤Ĥà¤ķ
at ural
Ġà¤ķà¤¹ à¤¨à¥ĩ
Ġà¤° à¥ĩà¤Łà¤¿à¤Ĥà¤Ĺ
al ign
Ġà¤²à¤¾à¤ĩ à¤¸
Ġà¤¹ à¥ĩà¤°
Ġà¤® à¥īà¤¨
Ġin dividual
( D
Ġà¤Ĺ à¥Įà¤°
à¤Ń à¥Ĥà¤¤
Ġà¤Ĺà¥įà¤° à¥ĩà¤¡
Ġd iv
Ġà¤ĩà¤¤ à¤¾à¤²
Ġà¤ªà¥Į à¤¡à¥Ģ
à¤¬ à¥Į
à¤¿à¤¶ à¥įà¤µ
? ?
Ġà¤¬à¤¾à¤¦ à¤²
ci es
Ġà¤®à¤ķ à¥įà¤ĸ
Ġà¤ľà¥įà¤µ à¤¾à¤²à¤¾à¤®
à¤¸à¤Ĥà¤ĸà¥įà¤¯ à¤ķ
Ġà¤° à¥Īà¤Ĥà¤ķ
à¥ĭà¤Ł à¤¿à¤ķ
---- -
Ġà¤µà¤¿à¤¨ à¤¿à¤¯à¤®
RO M
Ġà¤²à¥īà¤¨à¥įà¤ ļ
h an
Ġgener ate
Ġà¤ªà¥įà¤°à¤µ à¥ĥà¤¤à¥įà¤¤à¤¿
Ġdevelop ment
Ġà¤®à¤¿ à¤°à¥įà¤ļ
Ġà¤¨à¤¿à¤°à¥Ģ à¤ķà¥įà¤·à¤£
à¤µ à¤¤
à¤ĺ à¤¾à¤¤
Ġà¤ħà¤Ĺ à¤²à¤¾
Ġà¤¸à¤Ĥà¤¸à¥įà¤¥ à¤¾à¤¨à¥ĭà¤Ĥ
- à¤¸à¥ĩ
_ m
Ġà¤¬ à¥ģà¤°
Ġà¤ķà¥įà¤° à¤¿à¤¯
Ġà¤ĵ à¤ªà¤¨
à¥ĭ à¤·à¤¿à¤¤
à¥įà¤¯ à¥Ĥà¤°
" The
à¤¨ à¤¾à¤ıà¤Ĥ
Ġà¤« à¥īà¤²
à¥Ĥà¤² à¥ģ
Ġà¤°à¤ĸ à¤°à¤ĸà¤¾à¤µ
Ġà¤ĸà¥ĩà¤² à¥ĩ
Ġà¤ļà¤¿à¤¹à¥įà¤¨ à¤¿à¤¤
Ġà¤ļ à¥Ĥà¤Ĥà¤ķà¤¿
Ġà¤ħà¤Ĥà¤Ĺà¥įà¤° à¥ĩà¤ľ
ĠA s
Ġà¤ļà¥ģà¤¨ à¤¨à¥ĩ
Ġà¤Ĺà¤°à¥Ģ à¤¬à¥Ģ
Ġà¤¸à¤Ĥ à¤ķà¥įà¤·à¥ĩà¤ª
à¥ĭà¤ķ à¥īà¤²
Ġà¤ªà¤¹à¥ģà¤Ĥà¤ļ à¤¾
198 4
Ġà¤°à¤ķà¥įà¤¤ à¤ļà¤¾à¤ª
Ġà¤ªà¥įà¤° à¤¾à¤£à¥Ģ
Ġà¤Ĺà¥įà¤° à¤¨à¥įà¤¥
Ġpo int
Ġà¤«à¥īà¤°à¥įà¤® à¥ĩà¤Ł
6 9
a ut
à¥Ī à¤¤à¤¿à¤ķ
Ġà¤ªà¥Ī à¤¦à¤²
Ġà¤ª à¤¿à¤ķ
Ġà¤¯ à¤¾à¤¨
à¥ĥà¤·à¥įà¤£ à¤¾
à¥ī à¤®à¥įà¤ª
à¤¾à¤¤à¥įà¤® à¤¿à¤ķ
Ġà¤ħà¤Ĥà¤¤à¤° à¤¾à¤²
à¤® à¥Ī
à¤§ à¤°à¥įà¤®
Ġà¤ħà¤¨à¥ģ à¤¯
Ġch e
Ġà¤µà¥įà¤¯à¤µà¤¸à¤¾à¤¯ à¥ĭà¤Ĥ
Ġà¤¨ à¤¿à¤®
Ġà¤¨ à¥Īà¤¨
"" "
à¤¨ à¥ģ
à¤² à¤Ĥà¤ķà¤¾
Ġb l
à¥įà¤¯à¥Ĥ à¤¬
à¥ĩà¤ķà¥įà¤¸ à¤¿à¤ķà¥ĭ
Ġà¤«à¤¾à¤ĩ à¤¬à¤°
i x
Ġà¤ĸà¥ģà¤² à¤¾à¤¸à¤¾
- à¤Ĭ
à¥§à¥ ©
Ġà¤ļà¤¿à¤¤à¥įà¤° à¥ĭà¤Ĥ
"à¤® à¥ģà¤Ŀà¥ĩ
à¤ķà¥įà¤ķ à¤¾
" |
5 4
Ġà¤®à¤¾à¤¨ à¥įà¤¯
ition ally
Ġà¤¦à¤°à¤µ à¤¾à¤ľà¥ĩ
Ġà¤¸ à¤¿à¤Ĥà¤Ĺ
à¤Ĺ à¥ģà¤£
Ġà¤ªà¥įà¤° à¤¥
Ġbus iness
Ġà¤®à¥Īà¤Łà¥įà¤° à¤¿à¤ķà¥įà¤¸
Ġà¤ķà¥Ī à¤¸à¤¾
Ġà¤ħà¤¸à¥įà¤ª à¤·à¥įà¤Ł
Ġà¤Ĺà¥ģà¤°à¥ģà¤¤à¥įà¤µ à¤¾à¤ķà¤°à¥įà¤·à¤£
r b
Ġà¤¬ à¤°à¥įà¤¬
Ġà¤ªà¥Ĥà¤° à¤ķ
Ġà¤ªà¥įà¤°à¤ļ à¤²à¤¿à¤¤
Ġà¤µà¥ĩ à¤¦
6 3
à¥įà¤Ł à¥įà¤°
Ġà¤¸à¤²à¤¾à¤¹ à¤ķà¤¾à¤°
à¤¬ à¤¿à¤¹à¤¾à¤°
à¥ĩà¤ §
Ġà¤ªà¥įà¤° à¤¯à¥ģà¤ķà¥įà¤¤
à¥įà¤µ à¤²
Ġtechn iques
L ine
à¤¾à¤¡ à¥ģ
à¤ķà¤Ł à¤¿à¤¬à¤Ĥà¤§à¥Ģà¤¯
Ġà¤ķ à¥Ĥà¤¦
à¤ķ à¤¼
Ġà¤ª à¤¨
Ġà¤¹à¤° à¤¾
Ġà¤¤à¤¥ à¥įà¤¯à¥ĭà¤Ĥ
7 9
B y
Ġà¤¤ à¤Ńà¥Ģ
Ġà¤ĩà¤¤à¤¾à¤² à¤µà¥Ģ
Ġà¤Ĺ à¤Ĥà¤Ĺà¤¾
Ġà¤®à¥ĩà¤¹ à¤¨à¤¤
à¤¾à¤ļà¤¾à¤° à¥įà¤¯
Ġà¤ķà¤ªà¥įà¤¤ à¤¾à¤¨
Ġà¤¸à¤®à¤Ŀ à¤¤à¥ĩ
à¤īà¤¤ à¥įà¤ªà¤¾à¤¦
Ġà¤Ĺ à¤Ĥà¤Ĺ
se arch
à¥įà¤¯à¤¾à¤° à¥įà¤¥
6 2
Ġà¤¬ à¤¾à¤ĩà¤ķ
Ġà¤ī à¤·à¥įà¤£
Ġà¤®à¥Į à¤ĸà¤¿à¤ķ
- à¤ķà¥ĭ
{ "
ĠS p
à¤®à¥įà¤® à¤¤
à¤¸ à¥ĭà¤Ĥ
Ġà¤Ĺ à¤¾à¤¨à¥ĩ
Ġà¤°à¥Ĥ à¤¢à¤¼
Ġà¤ªà¥įà¤°à¤¤à¤¿à¤¬ à¤¦à¥įà¤§
à¤¾à¤µ à¤¨
Ġe as
am m
à¤µ à¤¿à¤ļ
Ġà¤ķà¤¾à¤Ł à¤¨à¥ĩ
à¤®à¤¾à¤¨ à¤µ
à¤µ à¤¿à¤¡
à¤¾à¤ Ľ
Ġà¤ħà¤µà¤¸à¤° à¥ĭà¤Ĥ
Ġà¤§à¤° à¤¤à¥Ģ
Ġà¤® à¥ī
Ġà¤ķà¤¹à¤¾à¤¨ à¤¿à¤¯à¥ĭà¤Ĥ
Ġà¤¸ à¤°à¥įà¤ľ
Ġà¤Ĺà¤µ à¤°à¥įà¤¨à¤°
Ġà¤¦ à¥ģà¤°
Ġà¤¸à¤¾à¤® à¥ģà¤¦à¤¾à¤¯à¤¿à¤ķ
Ġg reat
Ġk e
t itle
à¤® à¤Ĥà¤¡à¤²
Ġà¤¶ à¤µ
à¥ĭà¤ª à¤£
Ġanaly ze
Ġà¤²à¤¡à¤¼ à¤ķà¤¿à¤¯à¥ĭà¤Ĥ
Ġà¤ķà¤¾à¤² à¥įà¤ªà¤¨à¤¿à¤ķ
Ġà¤µà¤¾à¤¸à¥įà¤¤à¤µà¤¿à¤ķ à¤¤à¤¾
Ġà¤ªà¥įà¤°à¥ĭà¤Ł à¥ĭà¤ķà¥īà¤²
we b
à¤¯à¤¾à¤¨ à¤ķ
Ġà¤µ à¥Īà¤¨
à¤¿à¤² à¤¾à¤¬à¤¾à¤¦
Ġà¤°à¤¹à¥ĩ à¤Ĺà¤¾
Ġapp lic
5 1
Ġà¤µ à¥Īà¤¸à¥ĩ
Ġà¤¦à¤¾à¤° à¥įà¤¶à¤¨
0 9
Ġà¤ªà¤¡à¤¼ à¥ĭà¤¸
com m
Ġà¤¦à¥ĩà¤ĸ à¤ķà¤°
Ġà¤«à¤¼ à¥īà¤°à¥įà¤®
Ġà¤¸à¤Ĥà¤µà¥ĩà¤¦à¤¨à¤¶à¥Ģà¤² à¤¤à¤¾
t s
à¤¸à¤® à¥Ĥà¤¹
Ġà¤¸à¥Ĥà¤ļà¤ķ à¤¾à¤Ĥà¤ķ
Ġà¤¦à¤¿à¤ĸ à¤¾à¤¤à¤¾
Ġà¤īà¤ł à¤¾à¤¯à¤¾
à¤¸à¤Ĥ à¤¯à¥ģà¤ķà¥įà¤¤
Ġà¤ķà¥ģà¤¤à¥įà¤¤ à¥ĭà¤Ĥ
" à¤ļ
à¤¨à¥Ģ à¤ķà¤°à¤£
Ġà¤¸à¤¾à¤® à¥Ĥà¤¹à¤¿à¤ķ
ĠW hat
Ġà¤¸à¤¡à¤¼ à¤ķà¥ĭà¤Ĥ
Ġà¤²à¤Ĺ à¤¨à¥ĩ
Ġà¤¦à¤°à¥įà¤¶ à¤¾à¤¤à¥ĩ
Ġà¤ıà¤ķà¥įà¤¸ à¥įà¤ªà¥įà¤°à¥ĩà¤¸
ple ment
à¥ģ à¤¨à¤¾
Ġà¤ħà¤¸ à¤«à¤²
Ġà¤² à¥īà¤Ĺ
Ġà¤Ł à¥īà¤®
am p
Ġà¤ľà¤°à¥Ĥà¤° à¤¤à¥ĭà¤Ĥ
Ġà¤ħà¤Ĥà¤¤à¤°à¥įà¤¨ à¤¿à¤¹à¤¿à¤¤
à¤¾à¤¸à¥įà¤ķ à¥įà¤°à¤¿à¤ªà¥įà¤Ł
ĠĠĠĠĠĠĠĠ Ġ
( à¤¬à¥Ģ
Ġà¤¦ à¥ģà¤¶
à¤¾à¤¯ à¤¿à¤¤à¥įà¤µ
Ġà¤ĩà¤® à¥ĩà¤ľ
o x
à¤®à¥įà¤® à¤ļ
8 9
à¤¿à¤ķ à¤¿à¤¤
à¤¿à¤Ĺ à¥įà¤§
Ġà¤¸à¤¹à¤¯à¥ĭà¤Ĺ à¤¿à¤¯à¥ĭà¤Ĥ
à¤² à¥ĩà¤ķà¤¿à¤¨
ain s
à¤µà¥įà¤¯à¤µ à¤¸à¤¾à¤¯
Ġà¤¶ à¥ĩà¤²
Ġà¤Ł à¥Ī
Ġb enef
Ġà¤ħà¤¸ à¤®à¤¾à¤¨
Ġà¤Ńà¤¾à¤Ĺ à¥įà¤¯
Ġà¤ªà¥Ĥà¤°à¥įà¤£ à¤¾à¤Ĥà¤ķ
Ġà¤īà¤²à¥įà¤²à¤Ĥà¤ĺ à¤¨
à¤¿à¤²à¤¾à¤¬à¤¾à¤¦ à¥ģ
à¤¸à¥ĩ à¤µ
à¤¾à¤ķ à¥ģà¤°
Ġà¤¦ à¥ĭà¤Ĺ
Ġà¤¡ à¥Ĥà¤¬
à¤Ĺ à¤Ĥà¤ľ
à¤¾à¤Ĺ à¥įà¤¯
Ġh ist
Ġà¤ªà¥įà¤°à¤¾à¤° à¤Ĥà¤Ń
Ġfact ors
Ġà¤¨à¤¿à¤ķ à¤¾à¤¯
Ġpro t
à¥Ī à¤¤
à¥ĭà¤Ł à¥ĩ
Ġà¤Ĩà¤° à¤®à¥įà¤Ń
à¤¿à¤Ĺ à¤°
Ġà¤Ľ à¤¾à¤ª
à¥įà¤Ľ à¥ĩà¤¦
Ġp atter
Ġà¤§à¥Ģ à¤®à¥Ģ
Ġon line
Ġà¤ªà¥įà¤°à¤¤à¤¿à¤·à¥įà¤ł à¤¿à¤¤
à¥įà¤® à¤£
Ġà¤ħà¤¨à¥ģà¤ķà¥Ĥà¤² à¤¨
Ġà¤ª à¤¾à¤µà¤°
Ġà¤ľà¥Ĥà¤¨ à¤¿à¤¯à¤°
Ġà¤Ń à¥Ĥà¤¤
Ġà¤«à¥ĩà¤« à¤¡à¤¼à¥ĭà¤Ĥ
Ġà¤¸à¥Īà¤ķ à¤¡à¤¼à¥ĭà¤Ĥ
à¤« à¥ĩà¤¸
Ġsu pport
Ġà¤°à¥ĭà¤Ĺ à¥ĭà¤Ĥ
Ġ Î
Ġm ade
Ġme an
à¤Ĥà¤Ĺ à¤¾à¤¬à¤¾à¤¦
Ġà¤¬à¤¨ à¤¤à¥Ģ
à¤ļà¥įà¤ļ à¥ĩ
à¥Ĥ à¤£
ĠS e
à¤¬ à¤¾à¤ľà¥Ģ
in ally
Ġà¤ķà¤¿à¤¸ à¥įà¤®
à¥įà¤ĺ à¤¾à¤Łà¤¨
_ name
Ġà¤µà¤°à¥įà¤Ĺ à¥ĭà¤Ĥ
Ġà¤¹à¤¾à¤¨ à¤¿à¤ķà¤¾à¤°à¤ķ
Ġà¤² à¤ķà¥įà¤·à¤¿à¤¤
Ġis s
Ġà¤ĸà¥ĭà¤ľ à¥ĩà¤Ĥ
Ġà¤Ńà¤° à¤ªà¥Ĥà¤°
Ġà¤¸à¤Ĥ à¤§à¤¿
Ġà¤®à¤¾à¤¸ à¥įà¤Łà¤°
Ġà¤®à¤ľ à¤¦
Ġà¤ļ à¤®à¥įà¤®à¤ļ
! !
Ġà¤ªà¥įà¤° à¥Ģà¤®
us h
à¤¾à¤ľ à¥Ģà¤²
à¤¾à¤Ĥà¤¡ à¤¾
Ġà¤µ à¥īà¤²
Ġà¤®à¤¨ à¤¾à¤¯à¤¾
Ġà¤¸à¤¿à¤ķ à¥įà¤ķ
Ġà¤¨à¤¾à¤ĩà¤Ł à¥įà¤°
Ġà¤ªà¥Ģ à¤ıà¤ļ
Ġà¤ķà¥Īà¤° à¤¿à¤¯à¤°
Ġà¤Łà¥įà¤¯à¥Ĥ à¤®à¤°
Ġà¤¤à¥ģ à¤°à¥įà¤ķà¥Ģ
Ġà¤¬à¤¿à¤¸ à¥įà¤¤à¤°
Ġà¤¤ à¥Īà¤¨
Ġv ar
Ġà¤®à¥ģà¤² à¤¾à¤ķ
Ġà¤ı à¤Ł
à¤ªà¤° à¤¿à¤ļ
Ġà¤¬à¤¾à¤¸à¥įà¤ķ à¥ĩà¤Ł
5 3
Ġà¤¬ à¤Łà¤¨
à¤¾à¤² à¤ķ
Ġf ive
à¤ľà¥Ģà¤µ à¤¨
] )
v es
à¤ħ à¤§à¤¿à¤ķ
Ġà¤Ĩà¤¯ à¤¾à¤®
à¤µ à¤¾à¤¹à¥Ģ
à¤¶ à¤¾à¤¯à¤°
à¤ªà¥įà¤° à¥ĩà¤¸
à¤¾à¤ľà¤¼ à¥Ģ
Ġà¤« à¤¾à¤īà¤Ĥà¤¡
Ġà¤īà¤Ń à¤°
uz z
a i
à¤ķ à¤¿à¤¸à¥Ģ
à¤¿à¤ķ à¤¾à¤ıà¤Ĥ
Ġà¤Ł à¥Ģà¤ķ
Ġm ust
Ġà¤«à¥įà¤²à¥ĭà¤° à¤¿à¤¡à¤¾
Ġà¤īà¤ļà¥įà¤ļ à¤¤à¤®
Ġà¤ħà¤ķà¥įà¤· à¤¾à¤Ĥà¤¶
Ġà¤¦à¥ģ à¤°à¥įà¤Ń
Ġà¤¸ à¥Īà¤²
Ġà¤¶à¥įà¤° à¥ĩà¤¯
. C
Ġà¤Ī à¤°à¤¾à¤¨
Ġà¤®à¤¦à¤¦ à¤Ĺà¤¾à¤°
clud e
à¥ĩà¤¡ à¤¿à¤¯à¤®
ĠN ew
à¤¾à¤®à¥Ģ à¤Łà¤°
Ġà¤ı à¤¹à¤¸à¤¾à¤¸
(à¤ľ à¥ĭ
c ing
Ġà¤ħà¤®à¥ĩà¤° à¤¿à¤ķà¤¿à¤¯à¥ĭà¤Ĥ
âĢį à¤¤
Ġà¤® à¤¿à¤¡
Ġà¤ª à¤¿à¤ĺ
Ġà¤ı à¤¨à¥Ģ
. g
Ġà¤¤ à¤¿à¤°
Ġà¤ķà¥įà¤°à¤® à¤¬à¤¦à¥įà¤§
" à¤¡
Ġà¤Ńà¥ĩà¤ľ à¤¨à¥ĩ
Ġà¤² à¤¿à¤¨
Ġà¤ļà¤¿à¤Ĥ à¤¤à¤¿à¤¤
col or
Ġà¤Ľ à¥ĩà¤¦
in put
Ġà¤®à¤¾à¤§à¥įà¤¯à¤® à¤¿à¤ķ
Ġà¤¤à¤Ł à¥Ģà¤¯
Ġà¤ļ à¤ķ
Ġe conom
al se
Ġà¤¸à¤®à¥Ģà¤ķà¥įà¤· à¤¾à¤ĥ
à¤¿à¤µ à¤°
Ġà¤Ńà¤Ĥà¤¡ à¤¾à¤°à¤£
Ġm u
Ġ Q
Ġà¤ķ à¤¿à¤²à¥ĩ
res sion
Ġà¤Ľ à¤ł
Ġà¤ľà¥ĭà¤¡à¤¼ à¤¤à¤¾
Ġà¤¸à¤¹ à¤®à¤¤à¤¿
à¤°à¤¾à¤¬ à¤¾à¤¦
Ġà¤«à¤¾à¤¯à¤¦ à¥ĩ
Ġà¤¦à¥Ģ à¤ª
Ġà¤Ĩà¤§ à¥įà¤¯
Ġà¤²à¤¾à¤ĩà¤¸ à¥ĩà¤Ĥà¤¸
Ġà¤¹à¤¥à¤¿à¤¯ à¤¾à¤°
I D
Ġà¤ĺ à¤¾à¤µ
à¤¤ à¤¿à¤ľà¥įà¤ŀ
Ġà¤Ĩ à¤ļà¤¾à¤°
Ġà¤Ĩà¤° à¤Ĥà¤Ń
Ġà¤®à¤° à¤®à¥įà¤®à¤¤
à¥Įà¤° à¤¾à¤£à¤¿à¤ķ
à¥§à¥¯à¥ «
Ġcol or
Ġà¤¸à¤µ à¤¾à¤°à¥Ģ
Ġ ess
à¤ļ à¤°à¤£
à¤¾à¤¯ à¤¦à¤¾
Ġf am
à¤¿à¤Ł à¤¾à¤°
Ġà¤¦à¥įà¤° à¤µ
( H
( à¤Ķà¤°
Ġà¤Ĺà¤°à¥įà¤Ń à¤¾à¤µà¤¸à¥įà¤¥à¤¾
à¤¹ à¤¾à¤Ł
Ġà¤Ń à¥Ĥà¤°à¥ĩ
Ġà¤µà¤¿à¤ ĸà¥įà¤¯à¤¾à¤¤
à¥ĩà¤ ĩ
( R
à¥Ī à¤¯à¤¾
Ġà¤® à¥ĭà¤¡
Ġà¤ķà¤¾à¤°à¥įà¤¯ à¤ķà¤°à¥įà¤¤à¤¾
- à¤ĳ
Ġà¤ľà¥Ģ à¤¤à¥ĩ
à¥ľ à¤¾
" A
Ġà¤²à¤¿à¤ĸ à¤¨à¤¾
Ġà¤°à¤¾à¤ľà¥įà¤¯ à¤ªà¤¾à¤²
Ġl ook
Ġà¤®à¤¾à¤° à¥įà¤Łà¤¿à¤¨
Ġà¤¹à¤¾à¤ĩà¤¡à¥įà¤° à¥ĭà¤ľà¤¨
. :
Ġà¤ªà¤° à¥ĩ
à¥ĩà¤¨ à¤¹
à¤²à¤Ĺ à¥įà¤¨
Ġà¤Ĩà¤ªà¤¾à¤¤ à¤ķà¤¾à¤²à¥Ģà¤¨
Ġà¤ª à¤¿à¤¥
Ġà¤Ĩà¤¯ à¤°à¤²à¥Īà¤Ĥà¤¡
Ġà¤®à¤¹à¤¾à¤µ à¤¿à¤¦à¥įà¤¯à¤¾à¤²à¤¯
198 8
Ġà¤¬à¥įà¤² à¥Ĥ
Ġà¤¯à¥Įà¤Ĺ à¤¿à¤ķ
à¤¿à¤¯ à¤¾à¤ĥ
à¤¡à¤¼ à¤¨
à¥ĭà¤¬ à¥ĩà¤²
à¤² à¥ĭ
Ġà¤¬ à¥ģà¤ĸ
à¥ī à¤«à¥įà¤Ł
Ġà¤§ à¥Ĥà¤²
ĠM inist
à¤® à¤¤à¥Ģ
à¤¬à¥Ģ à¤¸à¥Ģ
Ġà¤ªà¥ģà¤¨ à¤°à¥įà¤µ
Ġà¤°à¤¾à¤ľà¤¨à¥ĩ à¤¤à¤¾
Ġà¤ķà¤ļ à¤°à¥ĩ
Ġb el
Ġà¤¬à¤¢à¤¼ à¤¾à¤¤à¤¾
pl es
Ġman y
Ġà¤¶à¤¿à¤¶ à¥ģ
og raph
Ġà¤ķ à¤¬à¥įà¤°
à¤Ĥ à¤¹
à¤¾à¤µ à¤¿à¤ķ
Ġl ong
Ġà¤Ĩà¤® à¤Ĥà¤¤à¥įà¤°à¤¿à¤¤
ww w
à¤ĸà¤¨ à¤Ĭ
Ġà¤Ĺà¥įà¤°à¥Ģà¤·à¥įà¤® à¤ķà¤¾à¤²à¥Ģà¤¨
à¤¾à¤¨à¤¿ à¤°à¥įà¤¦à¥ĩà¤¶
Ġà¤ª à¥īà¤ª
Ġà¤µà¤¿à¤· à¥įà¤£à¥ģ
à¥įà¤¯à¥Ĥà¤Ł à¤¿à¤Ĥà¤Ĺ
Ġà¤¬à¥įà¤¯ à¤¾à¤ľ
à¤ªà¥įà¤° à¤®à¥ģà¤ĸ
Ġà¤ķà¥ī à¤°à¥įà¤ª
Ġà¤ĸ à¤¾
Ġà¤ªà¤¹à¤ļà¤¾à¤¨ à¤¨à¥ĩ
à¤® à¥ĩà¤Ł
à¤¾à¤¹ à¤¾à¤°à¥Ģ
Ġà¤µà¥įà¤¯ à¤¸à¥įà¤¤
Ġà¤ªà¤¾à¤ł à¤ķ
Ġà¤¹à¤° à¤¿à¤¯à¤¾à¤£à¤¾
Ġà¤¶à¥įà¤°à¤®à¤¿à¤ķ à¥ĭà¤Ĥ
\ \
i er
Ġà¤®à¤¾à¤¨ à¥ĭà¤Ĥ
à¤® à¤¾à¤²à¤¾
Ġà¤ªà¤¾à¤ł à¤ķà¥ĭà¤Ĥ
à¤Ĺ à¤¾à¤Ĥà¤µ
Ġà¤ħ à¤Ł
Ġà¤īà¤ªà¤¨ à¤¿à¤µà¥ĩà¤¶
à¤µ à¥Ģà¤°
Ġo b
à¥ĩà¤Ĥà¤¸ à¤¿à¤²
Ġà¤«à¥įà¤² à¥Ĥ
Ġà¤¹ à¤¾à¤Ĥ
v ar
Ġà¤ī à¤°à¥įà¤¦à¥Ĥ
us ing
Ġà¤Ł à¥Īà¤ķà¥įà¤¸
Ġà¤ľà¤¾à¤¤ à¥Ģà¤¯
Ġà¤¶à¤¬à¥įà¤¦ à¤¾à¤µà¤²à¥Ģ
Ġà¤¨à¤¿à¤°à¥įà¤¦ à¥ĩà¤¶à¤¨
Ġà¤ķ à¤¾à¤²à¤¾
Ġà¤Ń à¤¯à¤¾à¤¨à¤ķ
ver b
Ġà¤¸à¤Ĥà¤Ĺ à¤¤
1 20
c a
Ġà¤ķà¤¾à¤°à¥įà¤¯ à¤ķà¤¾à¤²
E x
Ġd em
ce pt
Ġà¤¸à¤¿à¤Ĥ à¤¡à¥įà¤°à¥ĭà¤®
Ġà¤ķà¤° à¥ĭ
Ġl og
à¥ľ à¥ĩ
Ġà¤ªà¤¤à¥įà¤¤ à¥ĩ
Ġà¤µà¤¿à¤¦à¥įà¤µ à¤¾à¤¨
à¥ģ à¤ķà¥Ģ
Ġdis c
Ġà¤ªà¥įà¤²à¥ĩà¤Ł à¤«à¥īà¤°à¥įà¤®
Ġà¤Ĩà¤§à¥įà¤¯ à¤¾à¤¤à¥įà¤®à¤¿à¤ķ
- f
c or
g in
Ġà¤® à¤¾à¤¸à¥įà¤ķ
Ġà¤ªà¤¦ à¥įà¤®
à¤§ à¤¨
à¥ĭà¤Ĥ à¤¸
Ġà¤² à¤¿à¤¸à¥įà¤Ł
Ġà¤¶à¥įà¤° à¤¦à¥įà¤§
w n
7 4
Ġà¤ħà¤²à¥įà¤® à¥ĭà¤¡à¤¼à¤¾
r am
à¤µ à¤¿à¤²
Ġà¤ĸà¤¤à¤° à¥ĭà¤Ĥ
Ġà¤Ĩà¤ĸ à¤¿à¤°à¥Ģ
Ġà¤¦à¤¿à¤¶ à¤¾à¤¨à¤¿à¤°à¥įà¤¦à¥ĩà¤¶
Ġà¤Ĩ à¤¶à¥įà¤µ
Ġà¤¦à¥įà¤µà¥Ģà¤ª à¥ĭà¤Ĥ
Ġà¤®à¤¾à¤¤ à¥ĥ
à¤ħ à¤¨à¥įà¤¯
à¤°à¥įà¤¦ à¥įà¤°
Ġ err
Ġà¤ª à¤¦à¥įà¤§
Ġà¤¬ à¥ĭà¤¤
Ġà¤®à¥īà¤¡ à¥įà¤¯à¥Ĥà¤²
Ġc are
à¥ĩà¤ ĺ
Ġà¤¶ à¤Ĥà¤ķà¤°
à¤¾à¤§à¤¿à¤ķ à¤°à¤£
p or
à¤¸à¥įà¤ķ à¤¾à¤°
Ġpro ject
Ġà¤¢à¤¾à¤Ĥà¤ļ à¥ĩ
Ġà¤«à¤¾à¤īà¤Ĥà¤¡ à¥ĩà¤¶à¤¨
à¤ª à¤²
à¤¨à¥įà¤¤ à¥ģ
s v
Ġà¤²à¤Ĺ à¤¾à¤¤à¥ĩ
Ġcon st
Ġà¤Ĺà¤ł à¤¬à¤Ĥà¤§à¤¨
Ġperson al
Ġit ems
à¤¨à¤¾à¤® à¤¾à¤Ĥà¤ķà¤¨
à¤° à¥ĩà¤ĸà¤¾
Ġà¤µà¤°à¥įà¤ ķ
Ġà¤īà¤¨à¥įà¤¹ à¥ĭà¤¨à¥ĩ
Ġà¤ķà¥Ī à¤¦
o ther
à¥įà¤ľ à¤¿à¤¦
Ġà¤°à¤Ĥà¤Ĺ à¥Ģà¤¨
Ġà¤®à¤² à¥įà¤Łà¥Ģ
à¤ķ à¤¥à¤¾
Ġà¤¸à¤®à¤°à¥įà¤¥ à¤¿à¤¤
Ġà¤ħà¤« à¤Ĺà¤¾à¤¨
Ġà¤¬ à¤¾à¤ģ
à¥įà¤µ à¤¿à¤ķ
à¤¿à¤¸à¥įà¤ķ à¥ĭ
Ġà¤¬à¤¾à¤¯à¥ĭ à¤ĥ
oh n
à¤µ à¤¾à¤¡à¤¼
Ġà¤Ĩà¤¶à¥įà¤ļà¤°à¥įà¤¯ à¤ľà¤¨à¤ķ
6 00
Ġà¤Ĺ à¤¼
Ġà¤ħà¤¸ à¤¾à¤§à¤¾à¤°à¤£
Ġà¤µà¥ĩà¤° à¤¿à¤ı
Ġà¤Ĺà¥ĭà¤ªà¤¨à¥Ģà¤¯ à¤¤à¤¾
Ġin vol
Ġf ood
Ġf ile
198 6
Ġuser s
Ġà¤¸à¤Ĥ à¤²à¤Ĺà¥įà¤¨
Ġà¤ħà¤¸ à¤Ĥà¤Ńà¤µ
à¤īà¤ª à¤¯à¥ĭà¤Ĺ
p ar
Ġà¤ħà¤¨à¥ģà¤ªà¥įà¤°à¤¯à¥ĭà¤Ĺ à¥ĭà¤Ĥ
N T
Ġà¤¸à¤Ĥ à¤¬à¤¦à¥įà¤§
Ġà¤ªà¥įà¤°à¤¬à¤Ĥà¤§ à¤¿à¤¤
Ġà¤¬à¥ģ à¤°à¥Ģ
Ġà¤¸à¥ģà¤µà¤¿à¤§ à¤¾à¤ľà¤¨à¤ķ
à¤ļà¤° à¤¿à¤¤à¥įà¤°
Ġà¤²à¤¿à¤® à¤¿à¤Ł
Ġprogram ming
ĠGener ate
à¥ĭà¤¨ à¤¿à¤¯à¤¾
Ġà¤¬à¥ĩà¤Ł à¤¾
Ġà¤°à¥ģà¤ª à¤ı
à¤µ à¤¿à¤Ń
Ġà¤° à¤¾à¤µ
Ġà¤ļ à¤¿à¤¡à¤¼
à¤¨à¥Ģ à¤ļà¥ĩ
Ġà¤Ī à¤¶à¥įà¤µà¤°
à¤¾à¤· à¥įà¤ª
à¥ģà¤Ĩ à¤¨
[ à¤ªà¥įà¤°
Ġà¤ľ à¤°à¥įà¤¨à¤²
Ġà¤Ĩ à¤¨à¤¾
Ġde p
à¤²à¥įà¤² à¤¾
Ġacc ess
r al
Ġà¤® à¤ľà¤¼
Ġà¤¬ à¤Ĺà¤²
Ġm ov
Ġà¤¶ à¤¾à¤¸à¥įà¤¤à¥įà¤°à¥Ģà¤¯
à¤¡à¤¼ à¤¾à¤Ī
ĠAdd itionally
Ġà¤ª à¥Īà¤¨à¤²
Ġà¤° à¥ĩà¤¤
Ġex pl
Ġà¤¨à¥įà¤¯à¥Ĥà¤ľ à¥Ģà¤²à¥Īà¤Ĥà¤¡
Ġà¤Ĩà¤ª à¤¦à¤¾
Ġà¤ķà¤¿à¤Ĥ à¤¤à¥ģ
Ġà¤Ĺ à¥įà¤µ
à¤ĸ à¤¾à¤¨à¥ĩ
Ġà¤¬à¤¦à¤² à¤¤à¥ĩ
Ġà¤¨à¥ĩ à¤ª
à¤¨ à¥ĩà¤¶à¤¨à¤²
Ġà¤µà¤¿à¤ķ à¤²à¤¾à¤Ĥà¤Ĺ
Ġà¤¸à¤Ĥà¤° à¤ļà¤¿à¤¤
cl u
Ġà¤® à¥ĩà¤ķà¥įà¤¸à¤¿à¤ķà¥ĭ
Ġà¤¤à¥ģà¤® à¥įà¤¹
" à¤ı
. P
Ġà¤ª à¤¾à¤ĩà¤ª
à¥įà¤¯ à¤µ
ut ure
Ġà¤¬à¥įà¤° à¤¾à¤¹
Ġcom b
Ġà¤¬à¥ĩà¤¹ à¤¤
à¤¾à¤°à¥įà¤Ł à¤®à¥ĩà¤Ĥà¤Ł
à¤¬ à¤¾à¤Ĥà¤Ĺà¥įà¤²à¤¾à¤¦à¥ĩà¤¶
à¥įà¤¤ à¥Ģ
oc k
Ġind ust
y si
Ġ z
Ġà¤Ĩà¤¯ à¤¾à¤¤
Ġà¤®à¤§à¥ģà¤® à¤ķà¥įà¤ĸ
à¤¾à¤² à¥Ĥ
Ġà¤ħà¤Ĥà¤Ĺ à¥ĭà¤Ĥ
à¤§à¤¾à¤¨ à¤¿à¤ķ
Ġà¤¬à¤¾à¤² à¥ĭà¤Ĥ
Ġà¤¸à¤Ĥà¤¦ à¤¿à¤Ĺà¥įà¤§
r on
Ġà¤« à¤¸
ĠA PI
Ġà¤¸à¥Ģà¤ĸ à¤¨à¤¾
Ġà¤¯ à¥ĭà¤ľà¤¨
Ġà¤¬à¤¾à¤¤à¤ļà¥Ģ à¤¤à¤ĥ
Ġà¤¸à¤Ń à¥įà¤¯à¤¤à¤¾
g s
Ġà¤®à¥Ī à¤¥
iel d
" S
à¤¶ à¥įà¤¯à¥ĭà¤Ĥ
Ġà¤¬à¤¨ à¤¤à¥ĩ
Ġà¤¸à¥įà¤ķ à¥įà¤°
Ġà¤¹à¤¿à¤¸ à¤¾à¤¬
à¥įà¤¯à¥Ĥ à¤ķ
Ġà¤¸à¤Ĥà¤ĸà¥įà¤¯ à¤¾à¤¤à¥įà¤®à¤ķ
t on
Ġà¤¬ à¥ģà¤°à¤¾
Ġà¤Ĩ à¤ķà¥įà¤°à¤¾à¤®à¤ķ
Ġà¤¤ à¤¾à¤°à¥ĭà¤Ĥ
Ġà¤¸à¤® à¤ķà¤¾à¤²à¥Ģà¤¨
à¤¾à¤Ĥà¤Ł à¤®
htt ps
Ġà¤ĸà¥ģà¤° à¤¾à¤ķ
A s
Ġà¤µ à¤¾à¤Ĥ
Ġà¤¸à¥įà¤ķ à¥ĩà¤²
Ġcon nect
Ġà¤Ĺ à¤¹à¤°à¤¾
Ġà¤ļ à¥Īà¤Ł
Ġà¤¸à¤° à¤¾à¤¹
à¥¨ à¥«
Ġà¤®à¤¾à¤¸ à¤¿à¤ķ
a u
Ġà¤Ī à¤®à¤¾à¤¨
Ġà¤Ĭà¤ģ à¤ļà¥Ģ
à¤ķà¥ĩ à¤²
Ġà¤¸à¥Ģà¤§ à¤¾
à¤°à¥įà¤® à¤¨
à¤¿à¤¹ à¤¾à¤Ī
à¤¿à¤¥ à¤¿
à¥īà¤ķ à¤²à¥ĩà¤Ł
Ġà¤ĭ à¤¤à¥ģ
7 1
à¤¸à¤¾à¤Ĥà¤ĸà¥įà¤¯ à¤¿à¤ķà¥Ģ
Ġv isual
Ġà¤¸à¤Ĥà¤¤ à¥ģà¤·à¥įà¤Ł
Ġà¤¯à¥Ĥà¤¨ à¤¿à¤¯à¤¨
à¤¯ à¤¾à¤¬
re di
à¤°à¥įà¤§ à¤¨
F or
à¥įà¤µ à¤¾
à¤¿à¤Ĥ à¤¬
-à¤ļ à¤°à¤£
Ġw ater
Ġare a
Ġà¤ļà¥ģà¤¨à¤¾à¤µ à¥ĭà¤Ĥ
Ġadd ition
print ln
re en
Ġà¤ľà¤µà¤¾à¤¬ à¤ĥ
Ġeffect ive
Ġà¤®à¥ģà¤²à¤¾à¤ķ à¤¾à¤¤
Ġà¤ªà¤¡à¤¼ à¥ĭà¤¸à¥Ģ
Ġà¤¬ à¤Ĺ
à¤¸à¥įà¤¤ à¥ĩ
Ġà¤®à¤¨à¥ĭà¤µ à¤¿à¤ľà¥įà¤ŀà¤¾à¤¨
Ġà¤Ńà¥ĩà¤¦ à¤Ńà¤¾à¤µ
l ing
à¤®à¥Ģ à¤Łà¤°
Ġà¤¨à¤¿à¤· à¥įà¤ªà¤¾à¤¦
Ġà¤ªà¥Ģ à¤²à¥ĩ
Ġà¤® à¤¾à¤īà¤Ĥà¤Ł
à¤® à¤¿à¤¤
are d
Ġà¤µà¤¿à¤ľà¥įà¤ŀ à¤¾à¤¨à¥Ģ
Ġà¤¬à¥ģà¤¦à¥įà¤§à¤¿à¤® à¤¤à¥įà¤¤à¤¾
Ġà¤ĳ à¤¨
Ġà¤ķà¤¾à¤°à¥įà¤¯ à¤¾à¤¨à¥įà¤µ
Ġà¤¦à¥ĩà¤µ à¤¤à¤¾
Ġà¤¹à¤¾à¤° à¥įà¤®à¥ĭà¤¨
Ġo per
Ġà¤ĵ à¤®
Ġl a
Ġà¤° à¥ģà¤Ŀ
Ġà¤ĺ à¥ĩà¤°
l u
Ġà¤Ĺ à¤²à¥ĩ
Ġà¤ļà¤¾à¤° à¥įà¤ľ
Ġà¤° à¤¿à¤¯à¤²
à¤¶ à¤¬à¥įà¤¦
ct or
à¤ķ à¥įà¤¯à¥Ĥ
Ġà¤ļà¤¾à¤² à¥Ĥ
Ġà¤ĺ à¥ģà¤Ł
à¤ªà¥įà¤° à¤¾à¤°
Ġà¤®à¥Į à¤ķà¥ĩ
Ġà¤ľà¥ĭà¤¡à¤¼ à¤¤à¥ĩ
à¤¬ à¤¿à¤¨
Ġpro f
un d
Ġalgorith ms
( à¤ī
à¤° à¥Ĥà¤®
Ġà¤ĺ à¥ģà¤¸
Ġà¤ľà¥Ģà¤µ à¤Ĥà¤¤
Ġà¤¬à¤¢à¤¼ à¤¾à¤¯à¤¾
Ġà¤ªà¥įà¤°à¤¦à¤°à¥įà¤¶ à¤¨à¥Ģ
Ġà¤ķà¥ģà¤¤à¥įà¤¤ à¤¾
à¤¹ à¥Ī
Ġà¤µà¤¿à¤«à¤² à¤¤à¤¾
Ġà¤¸à¤¿à¤¦à¥įà¤§ à¤¾à¤¨à¥įà¤¤
Ġà¤µ à¤¾à¤¦
Ġà¤¬ à¤²à¥ĭà¤Ĥ
Ġà¤¢ à¥ĩà¤°
Ġà¤¸à¤Ĥà¤Ńà¤¾à¤² à¤¨à¥ĩ
à¤¬ à¥ĩà¤°
um n
Ġà¤Ľà¥ģà¤Ł à¥įà¤Łà¥Ģ
Ġsign ific
Ġà¤ı à¤¨à¥įà¤ķ
à¤¿à¤ı à¤Łà¤°
Ġà¤¬à¤¾à¤¤ à¥ĩà¤Ĥ
v ant
Ġà¤¬à¥Īà¤ł à¥ĩ
7 3
b ody
Ġà¤¤ à¤¿à¤¬à¥įà¤¬
Ġst ore
c el
d ent
l ight
Ġà¤Ĩ à¤°à¥įà¤¦à¥įà¤°
Ġà¤ªà¤¶à¥įà¤ļ à¤¾à¤¤
Ġà¤ķ à¤£à¥ĭà¤Ĥ
Ġà¤Ł à¥ĩà¤¨à¤¿à¤¸
Ġf ore
" s
( à¤ıà¤¸
à¤¤à¥įà¤° à¥Ģ
à¥įà¤¯ à¥ĭ
Ġà¤µà¤¿à¤¦ à¥įà¤¯à¤¾à¤°à¥įà¤¥
Ġsk ills
- m
à¥ĩà¤Ĥ à¤¶à¤¨
à¥įà¤¯ à¤¾à¤ªà¥įà¤¤
Ġà¤¸à¥įà¤µ à¤°à¥įà¤Ĺ
Ġà¤ľà¤° à¤¿à¤ı
Ġà¤ħà¤ªà¤¨ à¤¾à¤¯à¤¾
Ġtr ue
Ġà¤ľ à¤¿à¤²à¥ĭà¤Ĥ
à¥įà¤² à¥ĩà¤·à¤£
ar r
Ġà¤ļ à¤¤à¥ģ
à¤¨à¥įà¤ ľ
à¤°à¥įà¤¤ à¤Ĺ
Ġà¤ª à¤¾à¤ª
Ġà¤ªà¥įà¤° à¥Ģ
Ġà¤ľà¤¿à¤¨ à¤¸à¥ĩ
Ġà¤¬à¤¦à¤² à¤¨à¤¾
à¤µ à¤¿à¤·
à¤Ĥà¤¡ à¤¿à¤¤
à¥ģà¤¤ à¥įà¤ª
Ġag ain
Ġà¤īà¤ª à¤°
à¤¾à¤īà¤¡ à¤°
198 7
Ġà¤¸ à¤¾à¤ĩà¤¨
Ġpro du
Ġà¤¦à¤¾à¤°à¥įà¤¶à¤¨ à¤¿à¤ķ
Ġà¤¸à¥ĩ à¤®
à¤ķà¥ĭ à¤ª
à¤¦ à¤°à¤¾à¤¬à¤¾à¤¦
à¤ĩ à¤Ĥà¤Ł
Ġà¤¸à¥įà¤µ à¥Ģà¤¡
à¤¾à¤¹ à¤Ł
Ġà¤¶à¤¿à¤ķ à¤¾à¤Ĺà¥ĭ
Ġà¤ħà¤°à¥įà¤ľ à¤¿à¤¤
à¤¤ à¤¾à¤µ
Ġà¤Ĺ à¥ĩà¤Ł
Ġà¤ªà¤° à¤¨à¥įà¤¤à¥ģ
à¥ĩà¤· à¤¿à¤¤
Ġà¤ªà¥įà¤°à¤¸à¥įà¤¤à¥ģà¤¤ à¤¿
Ġà¤² à¤¾à¤°
Ġà¤ªà¤¢à¤¼ à¤¨à¤¾
Ġà¤ħà¤Ĺà¥įà¤° à¤£à¥Ģ
à¤¸ à¥į
à¤¦ à¤¾à¤¤à¤¾à¤ĵà¤Ĥ
Ġà¤ªà¤¤à¥įà¤° à¥ĭà¤Ĥ
Ġà¤¦ à¤®
Ġà¤ķà¥Ģà¤ľà¤¿à¤ı à¤ĥ
Ġà¤ħà¤¨ à¥ģà¤¦
Ġà¤Ĩà¤µ à¤°à¤£
Ġà¤¬à¥įà¤° à¤¾à¤ľà¥Ģà¤²
ot ion
à¥Į à¤²à¥Ģ
Ġà¤®à¥ģà¤¦à¥įà¤¦ à¤¾
Ġà¤¨à¤¿à¤·à¥įà¤ķ à¥įà¤°à¤¿à¤¯
" à¤«
O n
Ġà¤ľ à¥ĩà¤«
à¤¿à¤ª à¥Ģà¤¡à¤¿à¤¯à¤¾
à¤µ à¥ĩà¤Ĥà¤Ł
Ġà¤Ľ à¥ĭà¤°
Ġà¤ªà¤°à¥ĩà¤¶ à¤¾à¤¨à¥Ģ
à¥ĩ à¤¸à¥Ģ
Ġà¤ľ à¤¾à¤¸
Ġà¤ıà¤ķ à¤¡à¤¼
Ġà¤ĺ à¤¡à¤¼à¥Ģ
à¥Ģ à¤ľ
Ġà¤ľ à¤®à¥įà¤®à¥Ĥ
Ġà¤« à¥Ģà¤¸
Ġà¤īà¤ª à¤¾à¤§à¤¿
Ġs er
Ġl ast
à¤Ĥà¤ļ à¤¾à¤Ī
à¤ıà¤¨ à¤ı
Ġà¤¸à¤¾à¤ķà¥įà¤· à¤°à¤¤à¤¾
Ġà¤ľà¤¾à¤µ à¤¾à¤¸à¥įà¤ķà¥įà¤°à¤¿à¤ªà¥įà¤Ł
Ġà¤ķ à¤¾à¤µà¥įà¤¯
Ġà¤ª à¥Ĥà¤²
Ġà¤¹à¥Ī à¤°à¥Ģ
Ġà¤ħà¤¸ à¤Ĥà¤¤
Ġà¤Ĩà¤¦ à¤¿à¤µ
à¤¶ à¤¾à¤¸à¥įà¤¤à¥įà¤°à¥Ģ
à¤® à¤§à¥įà¤¯
à¤Ł à¥ĩà¤²
à¤¸à¥įà¤¤ à¤¾
-à¤¸à¤® à¤¯
i ver
à¥ ¥
à¤¿à¤¦ à¤®
Ġà¤°à¥Ĥ à¤¬à¥Ģ
l and
Ġà¤ª à¥ĩà¤Ĥà¤¸à¤¿à¤²
à¤ª à¤¿
à¤µ à¤¾à¤°à¥ĭà¤Ĥ
à¤¾à¤ĩ à¤¯
Ġà¤Ĺà¥įà¤° à¥ĩà¤Ł
à¤µà¤¾à¤¦ à¤¿à¤¯à¥ĭà¤Ĥ
Ġà¤ªà¤Ĥà¤ļ à¤¾à¤¯à¤¤
++ )
Ġchall eng
à¤¹ à¤¾à¤Ĥ
Ġà¤¹ à¥įà¤¯à¥Ĥ
Ġà¤ª à¤°à¥įà¤¸
à¤¹ à¤¿à¤Ĥà¤¦à¥Ģ
Ġan s
end ing
Ġà¤ĸà¥ģà¤² à¤¾
ot al
Ġà¤®à¤¸ à¥įà¤ľà¤¿à¤¦
Ġà¤ħà¤Łà¤² à¤¾à¤Ĥà¤Łà¤¿à¤ķ
à¤¨ à¤¹à¥Ģà¤Ĥ
à¥Ī à¤£
Ġà¤° à¥Ĥà¤Ł
Ġà¤īà¤¨ à¤ķà¥ĭ
SE LECT
9 8
à¤Ĩ à¤ĩ
ĠF ind
Ġà¤ªà¥ģà¤°à¤¸à¥įà¤ķ à¥ĥà¤¤
Ġro w
à¤Ł à¤¿à¤Ĥà¤Ĺ
Ġà¤°à¤¾à¤ľà¤¨à¥Ģ à¤¤à¤¿à¤ľà¥įà¤ŀ
Ġà¤®à¥ģ à¤°à¥įà¤Ĺ
Ġà¤ľà¥ĭà¤¡à¤¼ à¤ķà¤°
Ġà¤īà¤ªà¤Ńà¥ĭà¤ķà¥įà¤¤ à¤¾à¤ĵà¤Ĥ
Ġà¤¬à¥ĩà¤¹à¤¤ à¤°à¥Ģà¤¨
Ġà¤ĩ à¤¨à¥įà¤«
le ft
Ġà¤¸à¤®à¤¾à¤µ à¥ĩà¤¶
2 50
à¤¿à¤ Ĩ
à¤ª à¤¾à¤ł
à¤µ à¤¾à¤²à¥Ģ
Ġà¤¨ à¥ĭà¤¡
à¤¿à¤® à¥ĩà¤Ĥà¤Ł
Ġà¤¡à¥ĩà¤µà¤² à¤ª
a ve
à¤ªà¥ģ à¤°à¥Ģ
Ġà¤¬à¤Ĺà¥Ģ à¤ļà¥ĩ
Ġà¤Łà¥Ģ à¤ķà¤¾
Ġà¤®à¤Ĥà¤ľ à¥Ĥà¤°à¥Ģ
Ġà¤¬ à¤Ł
Ġà¤ļ à¤¨à¥įà¤¦à¥įà¤°
à¤¾à¤Ĺ à¤¢
are n
à¤ªà¤°à¤¿à¤ļ à¤¯
à¥Ī à¤¸
à¤µ à¤¿à¤ľà¥įà¤ŀ
à¤¬ à¥ī
Ġà¤¸à¤¾à¤ª à¥ĩà¤ķà¥įà¤·
Ġà¤ªà¤° à¤Ĥà¤¤à¥ģ
Ġà¤ķà¤¾à¤° à¥įà¤²
Ġà¤¹à¥ĭà¤Ĥ à¤Ĺà¥Ģ
Ġà¤¨à¤° à¤®
à¤¦ à¤¾à¤¸
Ġà¤ªà¥įà¤° à¤¾à¤µ
Ġà¤¶ à¥Ĥà¤Ł
à¤¤à¥Ģ à¤¨
ĠW or
à¤¸à¥įà¤ª à¤°
Ġà¤¤à¥įà¤¯ à¤¾à¤Ĺ
} ;
à¤¿à¤µ à¤¾à¤¦
Ġà¤¸à¥ĭà¤ļ à¥ĩà¤Ĥ
val u
ici ent
à¤Ĺ à¥ģ
Ġà¤¨à¤¿à¤°à¥įà¤® à¤¾à¤¤à¤¾à¤ĵà¤Ĥ
Ġmult i
( b
in ed
Ġl ine
Ġà¤¸à¤¾à¤ĩ à¤Ĥà¤¸
Ġh im
Ġà¤¦à¤¿à¤ĸ à¤¤à¤¾
Ġà¤ĩà¤®à¤¾à¤° à¤¤à¥ĭà¤Ĥ
Ġà¤ª à¤µà¤¨
Ġà¤¬ à¥Ŀ
Ġà¤¸à¤¬à¥įà¤ľ à¤¿à¤¯à¥ĭà¤Ĥ
Ġà¤Ĺ à¤¡à¤¼
à¤¿à¤ª à¥Ĥà¤°à¥įà¤£
Ġà¤¨à¤¿à¤°à¥įà¤¦à¥ĩà¤¶ à¥ĭà¤Ĥ
Ġem ploy
Ġà¤ķà¥įà¤¯à¥Ĥ à¤¬
Ġà¤ħà¤¸à¥įà¤¥ à¤¿à¤°
' );
Ġà¤ī à¤¨à¥įà¤®
Ġc out
Ġà¤¸à¥įà¤ª à¥ĩà¤¸
198 5
Ġà¤ªà¥įà¤°à¤¾à¤° à¥įà¤¥
Ġà¤µà¤¿à¤¶à¥ĩà¤· à¤£
Ġà¤¨à¤¿à¤ķà¤Ł à¤¤à¤®
à¤¸à¤Ĥà¤Ĺ à¤¤
Ġdat abase
Ġà¤¤à¥ĥ à¤¤à¥Ģà¤¯
8 00
i or
Ġà¤ķà¥įà¤· à¤¤à¤¿
S T
à¥ĩà¤² à¥ĭ
Ġà¤¸à¤Ĥà¤ľà¥įà¤ŀà¤¾à¤¨ à¤¾à¤¤à¥įà¤®à¤ķ
à¥ĭà¤ª à¤¾à¤²
Ġà¤īà¤ľ à¥įà¤ľ
Ġà¤«à¤¸ à¤²à¥ĭà¤Ĥ
à¤ķ à¤²à¤¾
à¥Ī à¤µ
à¤¡ à¤¬à¥įà¤²à¥įà¤¯à¥Ĥ
] .
à¤ķ à¤ķà¥įà¤·
Ġà¤¬à¤¿à¤² à¥įà¤²
Ġà¤²à¥ĭà¤ķ à¤¤à¤Ĥà¤¤à¥įà¤°
Ġà¤¸à¥įà¤µ à¤¾à¤Ń
Ġà¤¨ à¤¾à¤¯à¤ķ
ul a
Ġch ange
Ġà¤«à¥ĩà¤¸ à¤¬à¥ģà¤ķ
Ġà¤ĩ à¤Ĥà¤¦à¥įà¤°
à¤ıà¤® à¤ıà¤²
Ġà¤°à¥ĩà¤¸ à¤¿à¤ªà¥Ģ
Ġà¤Łà¤¿à¤ķ à¤¾à¤Ĭ
Ġà¤ĸà¥Ĥà¤¬ à¤¸à¥Ĥà¤°
Ġà¤¦à¥ģà¤°à¥įà¤Ń à¤¾à¤Ĺà¥įà¤¯
Ġà¤ª à¤¾à¤¯à¤²
Ġà¤¬ à¤°à¥įà¤¨
Ġà¤¯ à¥ĭ
Ġà¤Ĺà¥įà¤° à¥ģà¤ª
ĠEn g
Ġà¤¹ à¤¤à¥įà¤¯
Ġà¤ħ à¤Ńà¤¾à¤µ
à¥įà¤µ à¥ĩ
Ġre port
à¤¾à¤°à¥įà¤¥ à¥Ģ
Ġà¤ıà¤Ĥà¤ľ à¤¿à¤²à¥įà¤¸
Ġà¤ķà¤¿à¤Ĥà¤Ĺ à¤¡à¤®
Ġà¤° à¥ĭà¤¹
Ġd el
Ġà¤®à¥ĭà¤Ł à¤¾à¤ª
Ġà¤¸à¤°à¥įà¤µà¥ĭ à¤¤à¥įà¤¤à¤®
Ġà¤ªà¥įà¤°à¤¤à¤¿à¤¦ à¥įà¤µ
' à¤®
Ġà¤ħà¤°à¥įà¤¥ à¤¶à¤¾à¤¸à¥įà¤¤à¥įà¤°
Ġà¤Ĺà¥įà¤² à¥ĭà¤¬à¤²
à¥ģà¤¦ à¥įà¤¦
Ġà¤®à¥ģà¤ĸà¥įà¤¯ à¤¤à¤ĥ
ff ect
Ġweb site
Ġà¤¬à¤¾à¤¸à¥įà¤ķà¥ĩà¤Ł à¤¬à¥īà¤²
Ġà¤® à¤Ĥà¤Ĺ
Ġà¤Ĺ à¤¿à¤Łà¤¾à¤°
Ġe very
Ġà¤ķà¤¾à¤¨ à¥Ĥà¤¨à¥ĭà¤Ĥ
ical ly
ĠHow ever
Ġà¤ªà¥įà¤°à¤¸à¤¾à¤° à¤£
à¤¨ à¤¿à¤§à¤¨
Ġà¤¸à¤°à¥įà¤µ à¤¾à¤§à¤¿à¤ķ
Ġà¤Ĺà¥ĭ à¤¦
Ġà¤ķà¥Īà¤® à¤°à¤¾
Ġs ci
Ġà¤ħà¤² à¥įà¤«
Ġà¤Ĩà¤Ĥà¤ķ à¤¡à¤¼à¥ĩ
Ġquest ion
Ġd own
à¥ Ĩ
Ġà¤ħ à¤¬à¥įà¤¦
Ġbe h
Ġà¤®à¥ģ à¤¸à¥įà¤ķ
Ġà¤Ĺ à¤Ĥà¤§
Ġà¤Ł à¤®
à¤µà¤¿à¤¶à¥įà¤µ à¤¾à¤¸
Ġ Âł
à¤§ à¤°à¥Ģ
à¥Ĥà¤° à¥ĭ
Ġà¤ªà¥įà¤°à¥ĭà¤¤à¥įà¤¸ à¤¾à¤¹à¤¨
Ġà¤¹ à¥ģ
Ġà¤®à¥ģà¤¹ à¤®à¥įà¤®à¤¦
Ġà¤¸à¤®à¥įà¤ª à¥Ĥà¤°à¥įà¤£
Ġà¤µà¥ĭà¤² à¥įà¤Ł
C on
à¤¿à¤® à¥įà¤¬
à¤ķà¥ĭ à¤Ī
Ġà¤«à¥Ģ à¤ļà¤°
( d
à¤¿à¤Ĥà¤¦ à¤Ĺà¥Ģ
Ġà¤ļà¥ģà¤Ĥà¤¬ à¤ķà¥Ģà¤¯
Ġà¤ĺà¥ĭ à¤¡à¤¼à¥ĩ
ater ial
E le
à¤¾à¤µ à¤¾à¤¹à¤¿à¤ķ
Ġn et
Ġà¤Ł à¥ĩà¤®à¥įà¤ª
Ġà¤¦à¥ĩ à¤°à¥Ģ
ro ss
Ġà¤ªà¥ģà¤° à¤¾à¤£
Ġperform ance
Ġà¤Ĩà¤ķ à¥ĥà¤¤à¤¿
à¤ħà¤ª à¤¨à¥Ģ
Ġà¤ķà¤ª à¤¡à¤¼à¥ĭà¤Ĥ
Ġà¤ªà¤ķ à¤¾à¤¨à¥ĩ
Ġà¤ľà¤Łà¤¿à¤² à¤¤à¤¾
Ġà¤ķà¥įà¤°à¤®à¤¶ à¤ĥ
Ġà¤¹ à¤¿à¤Ł
Ġa fter
Ġbre ak
Ġà¤ķ à¤¡à¤¼
à¤¿à¤¨ à¤²
Ġà¤ķà¤¹ à¥ĩà¤Ĥà¤Ĺà¥ĩ
ch ie
Ġbet ter
H T
à¤¨ à¤«à¤²
Ġà¤¬à¤¹ à¤¾à¤¦
ÂłÂł Âł
Ġcomp any
Ġà¤µ à¤¾à¤¦à¤¾
Ġre search
à¥įà¤¹ à¤¾
Ġà¤ł à¤¾à¤ķà¥ģà¤°
ous e
Ġà¤ªà¤¹à¥ģà¤ģà¤ļ à¤¨à¥ĩ
Ġà¤Łà¥įà¤µ à¤¿à¤Łà¤°
( à¤«
Ġà¤¶ à¤¾à¤¸à¥įà¤¤à¥įà¤°
Ġà¤« à¥Ģà¤²à¥įà¤¡
Ġà¤īà¤·à¥įà¤£ à¤ķà¤Łà¤¿à¤¬à¤Ĥà¤§à¥Ģà¤¯
à¤ķà¥ĩ à¤¨
-à¤µ à¤¿à¤¶
Ġà¤¡à¥įà¤° à¤¾à¤ĩ
Ġà¤ªà¤¹à¤¾à¤¡à¤¼ à¥ĭà¤Ĥ
( à¤¯
Ġà¤ª à¤¾à¤īà¤¡à¤°
Ġà¤¬ à¥Īà¤Ĥ
in s
Ġà¤ķà¥įà¤· à¤¤
Ġà¤¨à¥ĩà¤µ à¤¿à¤Ĺ
à¤ª à¥Ģà¤°
Ġà¤² à¥Īà¤ª
à¤¾à¤ļ à¤¿à¤¤
an a
Ġà¤ļ à¥īà¤ķà¤²à¥ĩà¤Ł
Ġà¤ªà¥Į à¤¡à¤¼à¥Ģ
Ġà¤® à¤¾à¤¨à¥ĩ
Ġà¤ľ à¥Ĥà¤²
Ġà¤ħ à¤¹
Ġà¤¨ à¤²
Ġà¤Ńà¤° à¥ĭà¤¸à¤¾
Ġch ang
à¤°à¥įà¤ª à¤£
Ġcl assif
Ġà¤ķà¤° à¤¾
à¤Ĥà¤Ĺ à¤¨à¥Ģ
Ġà¤ĸà¤¿à¤² à¥Į
. /
à¥įà¤¤ à¤¾à¤¨
à¥įà¤Ł à¤¿à¤ķ
Ġà¤ħà¤Ĥà¤¤ à¤ĥ
-à¤ķ à¥įà¤²
Ġà¤ķà¥ģà¤¶à¤² à¤¤à¤¾
Ġà¤Ĩà¤Ĥà¤ĸ à¥ĭà¤Ĥ
Ġà¤°à¤¿à¤²à¥Ģ à¤ľ
n ot
Ġà¤¨ à¤µà¥Ģ
à¤¿à¤¨ à¤¿à¤¯à¤¾
( à¤ļ
à¤¦ à¤¿à¤ķ
à¤¾à¤Ĺà¥įà¤° à¤¾à¤«
in clude
à¤ª à¥ĩà¤Ł
Ġc ap
à¥ĩà¤ķ à¥įà¤ľ
à¤¿à¤® à¤¯
Ġà¤īà¤¦ à¥įà¤ĺà¤¾à¤Łà¤¨
ĠP l
Ġà¤ı à¤¯
Ġà¤ªà¥įà¤°à¤¤ à¤¿à¤ķ
à¤ĩ à¤Ĥà¤Ĺ
Ġw rit
ag ement
our ce
Ġà¤Ĺà¥įà¤°à¥Ģà¤¨ à¤¹à¤¾à¤īà¤¸
à¥įà¤µ à¤¾à¤¨
à¥įà¤² à¤¾à¤¹
Ġà¤ļà¤² à¤¾à¤¯à¤¾
Ġà¤Ńà¥Ĥà¤® à¤§à¥įà¤¯
Ġà¤ĵà¤¬ à¤¾à¤®à¤¾
Ġà¤ķà¤¾à¤° à¥ĭà¤Ĥ
à¤¾à¤Ĥà¤¤à¤¿à¤ķ à¤¾à¤°à¥Ģ
Ġà¤¸à¤®à¤Ŀ à¤¾à¤¯à¤¾
Ġà¤¹à¤¾à¤¸ à¥įà¤¯
à¤¦ à¤ķà¥įà¤·à¤¿à¤£
Ġà¤ªà¥įà¤°à¤µ à¤¿à¤·à¥įà¤Ł
Ġà¤¡à¤¾à¤² à¤¤à¤¾
Ġà¤µà¤¾à¤° à¥įà¤®
Ġà¤¸à¤Ĥà¤ķ à¤²à¥įà¤ª
à¤ª à¤¿à¤Ľ
Ġà¤° à¥ĩà¤Ĥà¤ľ
à¥įà¤ª à¤¦
Ġf ound
Ġà¤¸à¥įà¤Ł à¥ĩà¤¡à¤¿à¤¯à¤®
Ġà¤ħà¤® à¤°à¥Ģ
Ġà¤®à¥Ĥ à¤µà¥Ģ
Ġà¤¬à¥ģà¤ĸ à¤¾à¤°
Ġà¤¤ à¤¾à¤ľ
à¤¾à¤£ à¥ģà¤ĵà¤Ĥ
ĠC O
Ġso ft
Ġà¤ķà¤¿à¤¤à¤¾à¤¬ à¥ĩà¤Ĥ
Ġà¤²à¤¿à¤®à¤¿à¤Ł à¥ĩà¤¡
Ġà¤² à¤¾à¤ª
à¥ĭà¤¬ à¤¾à¤°
à¤Ĥà¤¦à¤° à¥įà¤¯
Ġà¤ªà¥įà¤°à¤¤à¤¿à¤¬à¤Ĥà¤§ à¤¿à¤¤
à¤¦à¥ĩà¤ĸ à¥ĩà¤Ĥ
Ġà¤Ĩà¤¯ à¤¤
cess ary
â Ī
à¤¤ à¤¾à¤Ĥà¤¤à¥įà¤°à¤¿à¤ķ
Ġà¤® à¥ĭà¤Ĥà¤Ł
Ġà¤¶ à¥ģà¤ķ
at ri
à¤Ĺà¤£ à¤¿à¤¤
-à¤¦à¤¿à¤¸ à¤®à¥įà¤¬à¤°
Ġst yle
à¤¬à¤° à¤¾
âĢį à¤Ł
Ġà¤ıà¤¡ à¤µà¤°à¥įà¤¡
Ġà¤®à¥Īà¤ļ à¥ĭà¤Ĥ
à¤¤ à¤¾à¤Ľ
Ġà¤µ à¤¾à¤¦à¥įà¤¯
on y
Ġà¤ħà¤ª à¤®à¤¾à¤¨
Ġà¤ªà¤¿à¤ĺ à¤²
Ġà¤® à¥ĩà¤¸
Ġà¤Ĺà¥ģ à¤¸
Ġà¤¬à¤Ĥà¤¦ à¥Ĥà¤ķ
à¤° à¤¾à¤¯
Ġà¤¯ à¤®à¤ķ
à¤¸à¥įà¤Ł à¥Ģà¤¨
Ġà¤ª à¥ĩà¤¨
Ġà¤Ľ à¥ĭ
Ġà¤īà¤ªà¤²à¤¬à¥įà¤§ à¤¿
Ġà¤²à¤¡à¤¼ à¤ķà¤¾
Ġà¤°à¤¾à¤ľà¤ķà¥ģà¤® à¤¾à¤°
Ġà¤ľà¥ĭà¤¸ à¥ĩà¤«
Ġà¤¨à¤¿à¤ķà¤¾à¤² à¥ĩ
Ġà¤¸à¥įà¤Łà¥Ĥà¤¡ à¤¿à¤¯à¥ĭ
Ġà¤Ń à¤µà¥įà¤¯
à¤Ĩ à¤ľ
à¤¾à¤¶ à¤¿à¤¤
198 2
Ġà¤Ĺà¥įà¤°à¤¹ à¥ĭà¤Ĥ
à¤¶à¤¿à¤ķà¥įà¤· à¤¾
Ġà¤¬ à¤°à¥įà¤¤à¤¨
Ġà¤®à¥Ī à¤Ĺ
Ġà¤¶à¥įà¤µ à¥ĩà¤¤
Ġà¤¸ à¥ģà¤¦
Ġà¤ķà¥ĩ à¤°à¤²
Ġà¤ªà¥įà¤° à¤¾à¤§à¤¿à¤ķà¤°à¤£
Ġsu g
ĠO n
Ġà¤µà¤¿à¤¦à¥įà¤µ à¤¾à¤¨à¥ĭà¤Ĥ
Ġà¤ĳà¤¡ à¤¿à¤¯à¥ĭ
Ġà¤¹ à¤Ĥà¤¸
Ġà¤° à¥Ģà¤¡
ect ion
Ġà¤¶à¥įà¤°à¥Ģ à¤²à¤Ĥà¤ķà¤¾
Ġà¤ľà¤¿à¤¤ à¤¨à¥Ģ
Ġredu ce
à¤¹ à¤¿à¤¤
à¤¾à¤¯ à¥ĩà¤Ĥ
ul l
og n
Ġstr ateg
à¥Īà¤ķà¥įà¤¸ à¤¨
" à¤Ĩà¤ª
Ġà¤¸à¥ģ à¤§
Ġà¤ħà¤¸ à¤²à¥Ģ
Ġform at
Ġele ments
Ġcount ry
à¤¤ à¥į
Ġin vest
Ġà¤¬à¥Ģ à¤¸
à¥įà¤¬ à¥Ģ
Ġà¤ħà¤°à¥įà¤¥ à¤¾à¤¤
. out
Ġà¤µ à¤¾à¤·à¥įà¤ª
Ġà¤ķà¤¾à¤° à¥įà¤Ł
Ġà¤¶à¤ķà¥įà¤¤ à¤¿à¤¯à¥ĭà¤Ĥ
cur ity
Ġp uzz
Ġsm all
à¤¾à¤¤à¥įà¤® à¤¾
à¤¤à¤¨ à¤¾à¤®
ile d
Ġà¤¨à¤¾à¤Ł à¤ķà¥Ģà¤¯
Ġà¤¯à¥ģà¤µ à¤ķ
i ous
Ġà¤ļ à¥Ĥ
à¤¢à¤¼ à¤¿à¤¯à¥ĭà¤Ĥ
à¤ªà¥įà¤° à¤¥à¤®
Ġbe fore
à¤¬ à¥Ģà¤¨
ar get
Ġà¤ļà¥Īà¤Ĥà¤ª à¤¿à¤¯à¤¨à¤¶à¤¿à¤ª
Ġà¤¯à¤®à¤ķ à¥ĩà¤¶à¥įà¤µà¤°
Ġà¤« à¤Ĥà¤¸
Ġà¤¦à¤¿à¤µ à¤¸à¥Ģà¤¯
ateg ory
à¤¬ à¥īà¤Ł
Ġà¤ħà¤¨ à¤¿à¤¶à¥įà¤ļà¤¿à¤¤
Ġà¤¨ à¥ĭ
Ġà¤µà¥įà¤¯ à¤Ĥà¤ľ
Ġà¤īà¤¦ à¤¾à¤°
( G
à¤ľ à¥įà¤ľ
à¤¥ à¤°
Ġim plement
Ġresult s
Ġà¤¶ à¤¾à¤ķ
pl ace
Ġà¤¹ à¥ĩà¤®
Ġà¤® à¥ĩà¤¥
Ġà¤Ķ à¤¸
Ġà¤²à¥ĩà¤ĸ à¥ĭà¤Ĥ
b al
Ġà¤¦ à¤¿à¤Ĺ
à¤¾à¤ĩ à¤Ĥà¤Ł
Ġà¤µà¤¿à¤§ à¥ĩà¤¯
on d
ir d
-à¤ª à¤¾à¤¸
Ġà¤°à¤¾à¤¹ à¥ģà¤²
Ġà¤ļà¥Įà¤¥ à¥Ģ
à¤¶ à¤¿à¤¯à¤¾
Ġà¤ħà¤¤ à¤ĥ
Ġà¤¨à¤¿à¤° à¥įà¤¯à¤¾à¤¤
Ġà¤Łà¤® à¤¾à¤Łà¤°
à °
à¤¯ à¥ģ
Ġà¤« à¥ĭà¤°
ur l
ĠC l
Ġneed s
, -
Ġà¤«à¥Ī à¤¶à¤¨
Ġcont ent
Ġev en
Ġp ract
à¤ķà¥ĭ à¤²
197 2
val ue
Ġà¤µà¥ĩà¤°à¤¿à¤ı à¤¬à¤²
à¥Ģà¤° à¤¾
Ġà¤® à¤¿à¤ł
à¤¹ à¤¤à¥įà¤¯à¤¾
Ġà¤¨ à¤¹à¤°
" à¤Ł
Ġrel ations
à¤ķà¥įà¤· à¤¾à¤ıà¤ģ
ĠI m
Ġà¤¸ à¤µà¤¾à¤°
à¤¾à¤¯ à¤®
à¥Ģà¤¯ à¤°
res ult
Ġj ob
Ġà¤®à¥ĩà¤¨ à¥Ĥ
Ġà¤¸à¥įà¤Ł à¤¾à¤ĩà¤²
à¤¿à¤Ĺ à¤¨
Ġà¤¹à¤¾à¤¥ à¥Ģ
Ġà¤īà¤ª à¤¨à¤¾à¤®
Ġc lo
à¤¾à¤ı à¤Ĥà¤Ĺà¥ĩ
Ġà¤¦à¤¿à¤¸ à¤®à¥įà¤¬à¤°
Ġà¤ªà¥ĩà¤Ł à¥įà¤°à¥ĭà¤²
Ġà¤¤à¤¤à¥įà¤ķà¤¾à¤² à¥Ģà¤¨
Ġà¤¤ à¤ª
Ġact iv
à¤¾à¤° à¥įà¤§
Ġf riend
Ġg row
Ġà¤ļà¥Įà¤¥ à¥ĩ
. t
à¤¨ à¤Ī
à¤® à¥ĭà¤¹
Ġà¤µ à¤°à¥įà¤®à¤¾
Ġà¤° à¤¿à¤¯
Ġà¤µà¤¿à¤ķ à¥įà¤°
à¥ģà¤ģ à¤¹
Ġà¤ķà¤Ł à¤¾à¤Ī
Ġà¤ļà¥ģà¤¨à¥Įà¤¤à¥Ģ à¤ªà¥Ĥà¤°à¥įà¤£
à¥ĩ à¤¨à¥Ģ
à¤ªà¥įà¤° à¤ĥ
(à¤ħ à¤¨
. Z
Ġà¤ª à¥Įà¤°à¤¾à¤£à¤¿à¤ķ
à¤ª à¤¥
à¤¡ à¤°
Ġà¤Ł à¥īà¤ª
à¤¸à¥įà¤Ł à¤¿à¤¨
à¥įà¤° à¤¿à¤ľ
Ġl ibr
à¤µà¥įà¤¯ à¤¾à¤ªà¥Ģ
Ġà¤ļà¥Į à¤¡à¤¼à¤¾à¤Ī
Ġà¤¦à¥ģà¤°à¥įà¤ĺ à¤Łà¤¨
' à¤ħ
Ġà¤¸ à¤¾à¤ĩà¤¡
à¤ļ à¤¯
Ġp age
Ġà¤Ķ à¤·
à¤Ĥ à¤ķà¥Ģ
Ġà¤¬à¥Ī à¤Ĺ
ĠIndi an
Ġà¤¶ à¤¹
à¤¾à¤² à¥ĭà¤Ĥ
Ġà¤¶ à¥īà¤Ł
à¤¨à¥įà¤ Ĺ
end er
Ġà¤®à¥ĭà¤¹ à¤®à¥įà¤®à¤¦
à¤¦ à¥Ĥà¤¤
à¥įà¤ª à¤²
à¤Ĥà¤Ł à¤¾à¤°à¥įà¤ķ
Ġà¤¤à¥ģà¤² à¤¨à¤¾à¤¤à¥įà¤®à¤ķ
Ġà¤Ĩà¤ĸà¤¿à¤° à¤ķà¤¾à¤°
n et
Ġà¤¬ à¤ļà¥ĩ
Ġà¤ħà¤¨à¥ģà¤¸ à¥Ĥ
à¤¿ à¤°à¥įà¤¦
Ġà¤¥ à¥įà¤°
à¤ķ à¤¾à¤¤à¤¾
Ġà¤ĸ à¤ľ
à¥ģà¤° à¥ģ
Ġà¤ľà¥īà¤¨ à¤¸à¤¨
Ġà¤° à¥ĩà¤¨
Ġà¤ªà¥ģà¤¨ à¤°à¥įà¤ľ
Ġà¤ĩà¤ķ à¤¾à¤ĩà¤¯à¥ĭà¤Ĥ
Ġà¤¬à¤¾à¤§ à¤¾à¤ĵà¤Ĥ
Ġà¤µ à¤¨à¥ĭà¤Ĥ
Ġcon f
à¥§à¥¯à¥ ª
à¤¾à¤ĩà¤ľ à¥ĩà¤¶à¤¨
Ġà¤¸à¥įà¤µà¤¾à¤Ń à¤¾à¤µà¤¿à¤ķ
Ġà¤ĸ à¥Ĥà¤¨
à¤ľà¤¼à¤° à¤¾à¤ĩà¤²
Ġà¤ļà¤Łà¥įà¤Ł à¤¾à¤¨à¥ĭà¤Ĥ
à¥Ĥà¤² à¥įà¤¯
Ġà¤Ĩà¤µ à¤Ĥà¤Ł
Ġà¤¦à¥Ĥà¤° à¤¸à¥įà¤¥
Ġà¤¡à¤¾à¤² à¤¤à¥ĩ
Ġà¤Ĺà¤°à¥įà¤Ń à¤µà¤¤à¥Ģ
Ġà¤¹à¥ī à¤ķà¥Ģ
p x
Ġà¤¸à¤Ĥà¤¸à¥įà¤ķ à¤¾à¤°
og le
Ġà¤¸à¤¬à¥įà¤ľ à¥Ģ
à¤¾à¤° à¤¤
ĠU se
à¤ĩ à¤¸à¥ĩ
b ot
d ition
Ġbe st
Ġà¤²à¥Ģ à¤ľà¤¿à¤ı
! "
Ġà¤¬à¤¾à¤¤ à¥ĭà¤Ĥ
à¥Ī à¤¥
Ġà¤ħà¤° à¤¬à¥Ģ
Ġà¤¸à¤¦à¤¸à¥įà¤¯ à¤¤à¤¾
Ġà¤ªà¥įà¤°à¤¤à¤¿à¤¦à¥įà¤µ à¤Ĥà¤¦
S cript
Ġà¤¶ à¥ģà¤·à¥įà¤ķ
ĠB y
Ġà¤¸à¤Ĥà¤¤ à¥ģà¤·à¥įà¤Łà¤¿
' à¤ķ
à¤® à¤£
à¥įà¤¯à¥Ĥ à¤¶à¤¨
o ot
Ġà¤īà¤¤à¥įà¤¸ à¥ģà¤ķ
Ġà¤ļà¤¯à¤¨ à¤¿à¤¤
" à¤ĸ
Ġà¤® à¥Ĥà¤°à¥įà¤
Ġà¤¥ à¤¾à¤Ī
à¤¾à¤¦ à¤°
Ġà¤¦à¥ĩà¤¶ à¥Ģ
Ġà¤ķà¥įà¤µ à¤¾à¤Ĥà¤Łà¤®
Ġà¤¶à¤¿à¤² à¥įà¤ª
à¤¸ à¥įà¤¯à¤®
à¤¾à¤ĩà¤Ł à¥įà¤¸
Ġse arch
: =
p r
à¥ĭà¤° à¤¿à¤¯à¤²
-à¤µ à¤°à¥įà¤·
Ġrep resent
0 8
Ġà¤® à¤ł
à¥ģ à¤¨à¥Ģ
Ġà¤¸à¤® à¥įà¤Ń
197 5
Ġd ouble
Ġà¤ķà¥įà¤° à¤¾à¤Ĥà¤¤à¤¿à¤ķà¤¾à¤°à¥Ģ
Ġà¤¨ à¤¾à¤Ń
Ġà¤Ĩ à¤ĺà¤¾à¤¤
Ġà¤¯ à¥Ģ
Ġà¤ķà¥įà¤· à¤£
197 1
Ġà¤ħà¤µà¤§à¤¾à¤°à¤£ à¤¾à¤ĵà¤Ĥ
Ġà¤¨ à¤ľ
Ġà¤¯ à¤Ĥà¤¤à¥įà¤°
Ġà¤ıà¤¯ à¤°à¤²
( à¤¸à¥įà¤Ł
Ġà¤µà¤¿à¤ķ à¥įà¤Ł
Ġà¤¡à¤¿à¤µ à¤¾à¤ĩà¤¸
à¤¾à¤Ĥ à¤¸à¥Ģ
Ġh tt
ch ar
196 2
Ġà¤ħà¤¡à¥įà¤¡ à¥ĩ
Ġà¤® à¤Ĥà¤¡
Ġà¤¸à¤® à¤¸à¥įà¤¤
Ġà¤Ľ à¥Ĥ
Ġà¤¸à¥ģ à¤¨à¥Ģ
ĠI I
Ġà¤ħà¤²à¤Ĺ à¤¾à¤µ
Ġà¤Ĺà¤¿à¤° à¤¨à¥ĩ
à¥įà¤¯à¤¾à¤¦ à¤¾
à¤µà¤¿à¤ľà¥įà¤ŀ à¤¾à¤¨à¥Ģ
0 2
Ġà¤ķà¥ĭ à¤¹
Ġà¤ªà¥Ĥà¤Ľ à¤¤à¤¾à¤Ľ
Ġà¤ĸà¥ĭà¤² à¤¨à¥ĩ
.W rite
( à¤ıà¤®
Ġà¤ª à¤Ĥà¤¥
Ġà¤¤ à¤¾à¤ľà¤¾
Ġà¤ªà¥įà¤°à¤ľà¤¾à¤¤ à¤¿à¤¯à¤¾à¤ģ
Ġà¤ĩà¤²à¤¾à¤ķ à¥ĩ
0 7
à¤µ à¤¾à¤¨à¥Ģ
à¥įà¤Ł à¤¿à¤¯à¥ĭà¤Ĥ
Ġt ri
Ġre al
Ġà¤Łà¤¾à¤ĩà¤® à¥įà¤¸
à¤¶ à¤¾à¤¹
Ġà¤ķà¤¹ à¥ĩà¤Ĥ
Ġà¤µà¤¿à¤µ à¥ĩà¤ķ
197 7
Ġà¤¸à¥ĩà¤Ł à¤¿à¤Ĥà¤Ĺ
Ġcustom ers
F F
w ay
Ġà¤ª à¤Ĥà¤ª
à¤¨à¥įà¤¦ à¥įà¤°à¥Ģà¤¯
à¤īà¤¨ à¤ķà¥ĩ
Ġà¤®à¥īà¤¨ à¤¿à¤Łà¤°
Ġà¤Ķà¤¸ à¤¤à¤¨
Ġà¤°à¤¹ à¤¸à¥įà¤¯à¤®
à¥ĭà¤¨ à¤¾à¤²à¥įà¤¡
196 7
Ġà¤Ĩà¤² à¥Ĥ
Ġà¤¸ à¥ģà¤¶
Ġà¤¸à¥Ģ à¤ľà¤¼à¤¨
"à¤µ à¤¹
Ġà¤ķà¤¿à¤¶à¥ĭà¤° à¥ĭà¤Ĥ
Ġà¤ķà¥ĭ à¤°à¥įà¤¸
à¤¶ à¤¾à¤²
à¤ĺ à¤Łà¤¨
Ġà¤« à¤¿à¤¨
à¤¾à¤¡ à¤¾à¤Ī
( à¤Ł
Ġà¤ª à¥ĭà¤Ł
-à¤ľ à¥ĭ
à¤ľà¥Ģ à¤¤
Ġà¤Łà¥įà¤° à¤ķ
Ġà¤ħà¤¸ à¥įà¤µà¥Ģ
Ġà¤¸à¤°à¥įà¤ľ à¤°à¥Ģ
à¤¸à¤® à¤¾à¤§à¤¾à¤¨
Ġà¤¤à¤¾à¤² à¤¾à¤¬
Ġw ant
Ġà¤¨à¥Ģ à¤¤
ĠR ew
Ġà¤¨à¤Ĥà¤¬à¤° à¥ĭà¤Ĥ
à¤¾à¤ļ à¤¾
Ġà¤¸à¥Į à¤Ĥà¤¦à¤°à¥įà¤¯
Ġà¤²à¥Įà¤Ł à¤¨à¥ĩ
ER E
c ore
g er
à¥ĭà¤¨ à¥ĩà¤¶à¤¿à¤¯à¤¾
Ġà¤¸à¤Ĥà¤¦à¤°à¥įà¤Ń à¥ĭà¤Ĥ
pl it
Ġà¤Ĩà¤Ĺ à¤®à¤¨
Ġsum m
Ġà¤ľà¤Ĺà¤¹ à¥ĭà¤Ĥ
Ġà¤µà¤¿à¤¶à¥ĩà¤·à¤ľà¥įà¤ŀ à¤¤à¤¾
Ġà¤¶à¥Īà¤² à¤¿à¤¯à¥ĭà¤Ĥ
( l
Ġà¤² à¤¾à¤¹
el s
Ġà¤µà¤¿à¤¸à¥įà¤¤à¤¾à¤° à¤¿à¤¤
p ython
Ġà¤¡ à¤ļ
Ġà¤¦à¥Ģà¤µ à¤¾à¤°à¥ĭà¤Ĥ
Ġm essage
ail s
Ġà¤Ńà¥įà¤° à¤·à¥įà¤Ł
Ġà¤¬ à¥ĥà¤¹
Ġà¤¸à¥įà¤Ł à¥ĩà¤¨
Ġà¤¨à¤¾à¤° à¤¾à¤¯à¤£
' à¤¬
Ġà¤® à¤¾à¤°à¤¾
à¥ĩà¤ Ĩ
Ġà¤®à¤¹ à¤¾à¤ķ
ĠS wift
à¤°à¥įà¤µ à¥ĩà¤¦
Ġse e
Ġà¤°à¤¿à¤²à¥Ģ à¤ľà¤¼
Ġà¤« à¤°à¥įà¤¨
à¤²à¤Ĺ à¤Ńà¤Ĺ
Ġà¤Ĩà¤ĩ à¤ı
Ġà¤ķà¥įà¤² à¤¾à¤īà¤¡
à¥ĩà¤Ĺ à¤¨
Ġà¤ķ à¤¾à¤Ĥà¤ļ
Ġf uture
Ġà¤°à¤¸ à¥ĭà¤Ī
Ġà¤ķà¥ĭà¤²à¤Ĥà¤¬ à¤¿à¤¯à¤¾
Ġà¤Ĺ à¤¡
Ġà¤« à¤¾à¤¯à¤¦à¤¾
Ġà¤ķà¤°à¥ĩà¤Ĥ à¤ĥ
" à¤ī
e le
à¥įà¤ ¢
Ġà¤° à¥ĩà¤¶
à¥© à¥¦
ell ig
Ġà¤ĳà¤Ł à¥ĭà¤®
- l
à¤¿à¤¯ à¤Ĥà¤¸
Ġà¤ľà¤¨à¥įà¤® à¤¦à¤¿à¤¨
htt p
" P
à¤ķ à¤¿à¤¨
à¤ļ à¤¿à¤¯à¥ĭà¤Ĥ
Ġà¤µà¤¿à¤² à¥ģà¤ªà¥įà¤¤
à¤¯ à¥ģà¤Ĺ
ur ther
Ġà¤Ĺà¥Ģ à¤¤à¥ĭà¤Ĥ
Ġà¤¦à¥ĥà¤¢à¤¼ à¤¤à¤¾
( à¤¯à¥Ĥ
- à¤ĩà¤¨
Ġà¤īà¤ª à¤ľà¤¼
à¤¸à¤® à¥įà¤®
Ġà¤¸à¤Ĥà¤¸à¥įà¤ķà¥ĥà¤¤ à¤¿à¤¯à¥ĭà¤Ĥ
Ġà¤¨à¥Ģ à¤Ĥà¤µ
Ġà¤ħà¤¨à¥ģà¤Ń à¤¾à¤Ĺ
Ġà¤¬à¥ī à¤²à¥Ģà¤µà¥ģà¤¡
Ġà¤¸à¤¾à¤Ŀ à¥ĩà¤¦à¤¾à¤°à¥Ģ
Ġinter act
Ġà¤ĩ à¤¨à¥įà¤¹
Ġa chie
ic ult
Ġm is
Ġà¤ķà¥ĩà¤Ĥà¤¦à¥įà¤° à¥ĭà¤Ĥ
Ġcomm on
Ġà¤ħà¤µà¤¶ à¥ĭà¤·à¤¿à¤¤
Ġà¤ħà¤¶ à¥ĭà¤ķ
Ġà¤Ĩà¤ģà¤ĸ à¥ĭà¤Ĥ
Ġà¤¸à¤¾à¤ī à¤¥
Ġne cessary
ĠIn t
Ġà¤ªà¥įà¤°à¤¤à¤¿à¤ķà¥įà¤° à¤¿à¤¯
Ġà¤®à¤¾à¤°à¥įà¤ķ à¥ĩà¤Ł
Ġà¤°à¥Ģ à¤¢à¤¼
Ġà¤ªà¤Ł à¥įà¤Łà¥Ģ
à¤ªà¥ģ à¤¸à¥įà¤¤
Ġà¤¹à¤¾à¤°à¥įà¤¡ à¤µà¥ĩà¤¯à¤°
Ġà¤ªà¤¾à¤¤à¥įà¤° à¥ĭà¤Ĥ
à¤¦à¥įà¤¯ à¤ªà¤¿
Ġà¤Ń à¤¾à¤²à¥Ĥ
Ġà¤¹à¤® à¤²à¥ĭà¤Ĥ
à¤¿à¤ļ à¥įà¤Ľ
ĠĠĠĠĠĠĠĠĠĠĠĠĠĠĠĠ ĠĠĠĠĠĠĠĠĠĠĠĠĠĠĠĠ
Ġpart ic
Ġà¤¬à¥įà¤¯ à¥Ĥà¤°à¥ĭ
Ġav ail
à¤ª à¤¾à¤°
197 9
atri x
Ġà¤ħà¤°à¥įà¤¥ à¤¾à¤¤à¥į
Ġà¤®à¥ģ à¤Ĥà¤¹
à¤¸à¤Ĥ à¤¸à¥įà¤ķ
Ġà¤µà¥ĩà¤² à¥įà¤¸
Ġà¤« à¤°à¥įà¤®
(à¤ľà¤¿à¤¸ à¥ĩ
à¤¸ à¥ĩà¤Ł
Ġs ame
Ġcreat ing
Ġposit ive
Ġà¤Łà¥įà¤° à¥ĩà¤¡
Ġà¤® à¥ģà¤ģà¤¹
à¤¯ à¤¾à¤¤
à¥ĭà¤° à¥ĩà¤Ł
Ġà¤°à¥ī à¤¯à¤²
Ġà¤ªà¤°à¤¿à¤ļ à¥įà¤Ľà¥ĩà¤¦
Ġà¤¶à¥ģà¤Ń à¤ķà¤¾à¤®
m t
Ġà¤īà¤¤à¥įà¤¤ à¤®
Ġmed ia
Ġà¤¨ à¤¿à¤²
198 1
/ à¤ħà¤Ĥà¤¤à¤°
Ġd uring
à¤¾à¤¡ à¥Ģ
oo ks
Ġà¤ķà¤¿à¤² à¥ĭà¤Ĺà¥įà¤°à¤¾à¤®
Ġà¤¸à¥Ģà¤¨ à¥ĩà¤Ł
Ġà¤ªà¤¾à¤¯à¤² à¤Ł
Ġà¤¸à¤Ĥ à¤¹
à¤¤à¥įà¤¤ à¤°à¥Ģ
Ġà¤ªà¥ī à¤ĩà¤Ĥà¤Ł
à¤¬à¤¾à¤¯ à¥ĭà¤Łà¤¿à¤ķ
à ®
Ġà¤® à¤Ĺ
à¥ģà¤ ¥
Ġà¤¥ à¤¿à¤ıà¤Łà¤°
198 3
/ à¤¯à¤¾
t ime
Ġ edu
à¤ª à¤Ĥà¤¥
Ġà¤Ł à¥ĭà¤ªà¥Ģ
à¤¸à¥įà¤¤ à¥ģ
à¤ħ à¤Ń
( T
Ġre f
à¤Ĺà¤° à¤¾
Ġse lect
Ġà¤ľà¥Ģà¤¨ à¥ĭà¤®
- à¤ķà¤¾à¤°à¥įà¤¯
Ġà¤² à¥ĩà¤¬
à¥ĩà¤ ł
à¤Łà¤¨ à¤¾à¤¶
Ġà¤ªà¥ģ à¤°à¥įà¤¤à¤Ĺ
Ġà¤¬à¤¾à¤Ĺ à¥ĩà¤¶à¥įà¤µà¤°
Ġà¤¤à¥Īà¤¨ à¤¾à¤¤
8 4
Ġà¤¸à¤ķ à¤¾
ĠI f
Ġà¤ħà¤¶à¥įà¤µ à¥ĩà¤¤
à¤ķ à¥ģ
Ġs elf
Ġà¤¸à¥Ģ à¤°
Ġà¤ħà¤¨à¥ģ à¤®
à¥Ģà¤µ à¤¨
Ġà¤ı à¤ªà¥Ģ
Ġl ight
Ġà¤¬à¤ļ à¥ĩà¤Ĥ
Ġex am
Ġà¤ªà¥įà¤°à¤¤à¤¿à¤ķà¥įà¤° à¤¿à¤¯à¤¾à¤ĵà¤Ĥ
Ġgo vernment
eg in
Ġà¤° à¤¿à¤µ
à¤¨à¥įà¤¨ à¤Ī
Ġà¤ļà¥Į à¤§à¤°à¥Ģ
-à¤¦ à¤°
Ġà¤Ĺà¥ģà¤« à¤¾
Ġà¤ļ à¤¾à¤ª
Ġà¤Ł à¤°à¥įà¤®
à¥ģà¤² à¥ĩà¤¶à¤¨
Ġà¤Ĺà¤Ĥà¤Ńà¥Ģà¤° à¤¤à¤¾
Ġà¤® à¥ģà¤Ŀ
-à¤Ĩà¤° à¤Ĩà¤°à¤¬à¥Ģ
à¥įà¤¡ à¤°
/ à¤Ĺà¥ģà¤£
Ġà¤ĩ à¤Ĥà¤ķ
Ġà¤ħà¤µ à¤¿à¤¶à¥įà¤µ
" à¤ĩà¤¸
# include
h ar
t ed
Ġà¤¬à¤¾à¤° à¤¹
Ġcont in
_ list
Ġà¤ªà¥įà¤° à¤¿à¤Ĥà¤¸
à¤Ń à¥ģ
Ġà¤ħà¤£ à¥ģ
Ġà¤Ĩà¤¸ à¤®à¤¾à¤¨
Ġme as
à¤ªà¤¾à¤² à¤¿à¤ķà¤¾
Ġt ask
à¤¿à¤¸ à¤¿à¤¨
à¥ģà¤ĩ à¤¸
Ġyear s
Ġà¤ªà¥įà¤°à¤¤à¤¿à¤Ńà¤¾à¤Ĺ à¤¿à¤¯à¥ĭà¤Ĥ
ĠRew rite
Ġà¤Ĩ à¤Ĺà¥įà¤°à¤¹
à¥Ģà¤ķ à¥ĥà¤¤à¤¿
/à¤Ĺà¥ģà¤£ à¤¨à¤«à¤²
à¤¾à¤¸à¥įà¤ķ à¤¾
Ġà¤ªà¥Īà¤° à¤¾à¤Ĺà¥įà¤°à¤¾à¤«
Ġà¤ĸ à¤¿à¤¤à¤¾à¤¬
Ġà¤¡ à¤¬à¤²
Ġà¤ľà¤Ĥà¤Ĺ à¤²à¥ĭà¤Ĥ
Ġà¤ªà¥įà¤°à¤¾à¤°à¥įà¤¥ à¤¨à¤¾
al k
à¤¾à¤¶ à¤¾
à¤°à¥ĭ à¤ļà¤ķ
p re
Ġà¤¸à¥ģà¤µà¤¿à¤§ à¤¾à¤ıà¤Ĥ
Ġproble m
à¥Ĥ à¤ľ
Ġà¤ªà¥įà¤°à¤¥ à¤¾à¤ĵà¤Ĥ
Ġà¤¬ à¥ĭà¤°
19 30
ĠA pp
194 7
à¤¾à¤¬ à¥ĩà¤¥
Ġà¤ķà¥ĭà¤² à¤ķà¤¾à¤¤à¤¾
Ġà¤µà¥įà¤¯à¤Ĥà¤ľ à¤¨à¥ĭà¤Ĥ
- à¤°à¥ĩ
Ġà¤Łà¥įà¤° à¤¾à¤Ĥ
Ġt yp
Ġà¤ļà¤¿à¤Ĥ à¤¤à¤¾à¤ĵà¤Ĥ
Ġà¤ªà¥įà¤°à¤¤à¤¿à¤¬ à¤¿à¤Ĥà¤¬
t il
à¤¨ à¥įà¤¯à¥Ĥ
Ġà¤¢ à¤²
Ġà¤ľà¥Ĥ à¤¤à¥ĩ
Ġ sit
Ġà¤¹ à¤Ĥà¤Ĺ
th e
Ġà¤¸à¥įà¤Ł à¥Īà¤Ĥà¤¡
à¤¦à¥Ģ à¤ª
Ġne g
Ġà¤¬à¤¾à¤§ à¤¿à¤¤
à¥ģ à¤Ĥà¤§
Ġà¤¤ à¤®
ro l
Ġhe ad
Ġà¤²à¤¾à¤ĩ à¤µ
Ġà¤Łà¥Ģà¤ķ à¤¾à¤ķà¤°à¤£
n a
Ġà¤¬à¥ĩà¤ļ à¤¨à¥ĩ
Ġà¤¨à¥įà¤¯à¥Ĥà¤° à¤²
" C
. println
Ġà¤¨ à¤¹à¥Ģ
Ġà¤ĸ à¤¡à¤¼à¥Ģ
Ġà¤īà¤¤ à¤¨à¥Ģ
à¤¾à¤¯à¤¦ à¥įà¤µà¥Ģà¤ª
Ġm aking
Ġà¤łà¤Ĥà¤¡ à¥ĩ
Ġà¤² à¥Ĥ
à¤°à¥įà¤¨ à¥Ĥà¤²à¥ģ
Âł à¤Ńà¥Ģ
Ġà¤²à¤¿à¤ĸà¥ĩà¤Ĥ à¤ĥ
Ġà¤¦à¤°à¥įà¤¶ à¤ķ
Ġà¤¸à¥įà¤¨ à¤¾à¤¨
Ġà¤ªà¤¹à¥ģà¤ģ à¤ļà¤¾
Ġà¤Łà¥ģà¤ķ à¤¡à¤¼à¤¾
Ġà¤ķà¤¿à¤° à¤¦à¤¾à¤°
Ġà¤µà¤¿à¤§à¥ĩà¤¯ à¤ķ
à¤· à¥įà¤®à¤¾
Ġà¤ªà¥įà¤°à¤¾à¤¯ à¤ĥ
Ġà¤¨à¤µ à¤®à¥įà¤¬à¤°
N D
à¥ĩà¤ ı
Ġà¤ĸà¤°à¥Ģ à¤¦à¤¾
à¤¬ à¥ĭ
Ġà¤¤ à¤¿à¤¤
Ġà¤ķà¤® à¥įà¤¯
Ġà¤ķà¥Ī à¤Ł
Ġà¤¦à¤°à¥įà¤¶ à¤¾à¤¯à¤¾
Ġunderstand ing
Ġà¤ļ à¤Ł
id d
à¤¬à¥įà¤² à¤¿à¤ķ
Ġà¤ĩà¤Ĥà¤¡ à¤¿à¤¯à¤¨
à¤¿à¤¯à¤¾à¤¨ à¥ĭ
W ord
à¥įà¤° à¤¾à¤®
Ġà¤ĸà¥ĭ à¤²à¤¾
Ġà¤§à¥ĭ à¤ĸ
Ġ Z
Ġst and
Ġà¤²à¥ģà¤Ī à¤¸
as et
Ġà¤ħà¤ª à¥Ģà¤²
à¤°à¥įà¤¤ à¤¾
Ġà¤¬à¤¢à¤¼ à¤¾à¤¨à¤¾
Ġà¤ıà¤ķà¥įà¤¸ à¥ĩà¤¸
Ġà¤ª à¤¾à¤¤à¤¾
à¥Ĥà¤° à¥ĭà¤ª
Ġà¤ıà¤ľ à¥ĩà¤Ĥà¤¸
Ġà¤¶à¥įà¤µ à¤¸à¤¨
Ġà¤¬ à¤¿à¤Ł
Ġà¤ıà¤ķ à¥įà¤Ł
à¤¾à¤¹ à¤ķ
Ġà¤¬à¥ģ à¤ľ
à¤¾à¤¶ à¥Ģà¤²
Ġà¤¸à¤² à¤¾à¤¦
Ġà¤ªà¥įà¤°à¤¤à¤¿à¤Ń à¤¾
Ġà¤¸à¥įà¤®à¤¾à¤°à¥įà¤Ł à¤«à¥ĭà¤¨
Ġà¤¸à¤¾à¤¥ à¤¿à¤¯à¥ĭà¤Ĥ
Ġà¤ħà¤ķà¥įà¤· à¤¯
Ġà¤Łà¤¿à¤ªà¥įà¤ªà¤£ à¤¿à¤¯à¥ĭà¤Ĥ
Ġà¤¸à¥įà¤µ à¤Ńà¤¾à¤µ
Ġà¤µà¤¿à¤ķ à¤¿à¤ªà¥Ģà¤¡à¤¿à¤¯à¤¾
Ã Ĥ
Ġà¤Ĺ à¥ĩà¤¹
Ġà¤ªà¥įà¤°à¤ķà¤¾à¤° à¥ĭà¤Ĥ
197 6
Ġà¤ĩà¤Ĥà¤Łà¤° à¤«à¥ĩà¤¸
Ġinter est
Ġà¤¹à¤¿à¤® à¤¾à¤²à¤¯
Ġà¤ķà¥Īà¤°à¥ĭà¤² à¤¿à¤¨à¤¾
Ġà¤°à¥Ĥà¤ª à¤¾à¤Ĥà¤¤à¤°à¤¿à¤¤
Ġà¤Ī à¤¸à¥įà¤Ł
Ġà¤¶à¤°à¥įà¤¤ à¥ĭà¤Ĥ
Ġà¤¨à¥Ģ à¤²à¤¾
Ġà¤Ĺà¤¡à¤¼ à¤¬
Ġà¤² à¤ĸà¤¨à¤Ĭ
Ġà¤Ĩ à¤£
à¥Ī à¤¸à¤¾
Ġà¤ľ à¥ĩà¤°
id th
ast e
Ġà¤Ńà¥įà¤° à¥Ĥà¤£
Ġs un
Ġà¤¬à¥Ģ à¤ĥ
r ame
Ġà¤ª à¤¿à¤Ł
Ġà¤« à¤¾à¤¯à¤°
à¤¿à¤Ĥ à¤ļ
Ġo pen
Ġà¤ªà¥įà¤°à¥Ģà¤® à¤¿à¤¯à¤°
c er
Ġà¤¹à¥Ī à¤¦à¤°à¤¾à¤¬à¤¾à¤¦
à¤¿à¤ı à¤Ł
V al
à¤¬ à¤¾à¤ľ
Ġà¤Ł à¥ī
Ġà¤ıà¤ķà¥įà¤¸ à¤ªà¥įà¤°à¥ĩà¤¸
Ġà¤ķà¥Īà¤² à¥ĩà¤Ĥà¤¡à¤°
Ġà¤ıà¤ķ à¥Ģà¤ķà¤°à¤£
à¤Ĥà¤¦ à¤¾à¤ľ
Ġà¤Łà¥įà¤° à¤®à¥įà¤ª
Ġà¤ªà¤ķà¥įà¤· à¥ĭà¤Ĥ
Ġgo od
Ġa verage
Ġà¤Ĩà¤Ī à¤¡à¥Ģ
Ġà¤²à¥ĭà¤ķà¤ªà¥įà¤°à¤¿à¤¯ à¤¤à¤¾
Ġà¤ľà¥įà¤µà¤¾à¤²à¤¾à¤® à¥ģà¤ĸà¥Ģ
Ġà¤® à¥Ĥà¤°à¥įà¤¤à¤¿
Ġà¤ªà¥įà¤°à¤¾à¤ªà¥įà¤¤ à¤¿
Ġr is
Ġà¤Ĩà¤ļà¤¾à¤° à¥įà¤¯
s er
Ġà¤ķ à¤Ĥà¤ķ
Ġà¤ĩà¤Ĥà¤Łà¤° à¥Īà¤ķà¥įà¤Ł
Ġà¤¸à¥ģà¤Ĥà¤¦à¤° à¤¤à¤¾
Ġà¤ľà¥įà¤¯ à¤¾à¤®
Ġcor rect
Ġà¤Ĺà¥ģ à¤°à¥įà¤¦à¥ĩ
Ġsignific ant
Ġà¤ª à¤¤à¤¨
Ġà¤«à¤¼ à¥Ģà¤²à¥įà¤¡
à¤°à¥įà¤¦ à¤¨
Ġà¤Ĩà¤¤à¥įà¤® à¤¹à¤¤à¥įà¤¯à¤¾
Ġà¤«à¥įà¤°à¤¾à¤Ĥà¤¸ à¤¿à¤¸à¥įà¤ķà¥ĭ
Ġà¤ıà¤ķà¤¤à¥įà¤° à¤¿à¤¤
th ing
Ġà¤¶à¤¿à¤ķà¥įà¤· à¤¿à¤¤
Ġà¤ļà¤¿à¤¤à¥įà¤° à¤£
à¥ĭà¤¨ à¤¿à¤ķ
Ġà¤° à¤¦à¥įà¤¦
th or
comm end
à¤ªà¥įà¤° à¤¤
âĢ ¢
Ġne xt
-à¤ıà¤² à¤Ĩà¤°à¤¬à¥Ģ
R L
Ġà¤ªà¥įà¤° à¤¾à¤¯à¤¦à¥įà¤µà¥Ģà¤ª
Ġà¤¬à¤¹ à¤¤à¥Ģ
Ġà¤ķà¥Ģà¤® à¤¤à¥ĭà¤Ĥ
Ġà¤¸à¤°à¤ķà¤¾à¤° à¥ĭà¤Ĥ
gr ound
Ġà¤ªà¤Ĥ à¤ķà¥įà¤¤à¤¿à¤¯à¥ĭà¤Ĥ
ĠM an
ex ample
Ġà¤¸à¥įà¤ķà¥īà¤Ł à¤²à¥Īà¤Ĥà¤¡
Ġrele vant
H ERE
m e
er ing
à¥īà¤°à¥įà¤¡ à¤¨
Ġà¤ªà¥įà¤°à¤¤à¥Ģ à¤ķà¥įà¤·à¤¾
Ġto ols
19 40
Ġà¤«à¤¼ à¥įà¤²
à¤Ľ à¤¿à¤¤
Ġà¤ªà¤° à¤¸à¥įà¤ªà¤°
Ġd ire
Ġà¤¸à¥Ģ à¤°à¥Ģà¤ľ
Ġà¤µà¤¿à¤¨ à¤¿à¤®à¤¯
Ġrel ated
Ġà¤® à¤¨à¤¾
à¤¿à¤¶ à¤ª
ate gor
Ġà¤«à¤¼ à¤¾à¤°
Ġà¤¹ à¥īà¤Ł
Ġà¤² à¤ļà¥Ģ
Ġà¤µà¥įà¤¯ à¥ģà¤¤à¥įà¤ª
Ġà¤¹à¤° à¤¾à¤¯à¤¾
Ġà¤¦à¤° à¥ĭà¤Ĥ
8 1
n ew
Ġà¤¶ à¥īà¤ª
à¥ĭà¤ľ à¤ķ
Ġà¤¬à¤¦à¤² à¤ķà¤°
Ġà¤¯à¥Ĥ à¤ıà¤¸
Ġsc ore
in al
à¤¡à¤¼ à¤ķ
Ġà¤ĳ à¤¸à¥įà¤Łà¥įà¤°
m an
Ġà¤¦à¥ĩ à¤Ĺà¥Ģ
Ġà¤§à¤¾à¤° à¤¾à¤µà¤¾à¤¹à¤¿à¤ķ
Ġà¤²à¤¿à¤ª à¤¿
Ġà¤°à¥ĭà¤®à¤¾à¤Ĥà¤ļ à¤ķ
à¤¹ à¤£
à¤µà¥įà¤¯ à¤ķà¥įà¤¤
Ġà¤ªà¥įà¤°à¥ĩà¤® à¥Ģ
s q
à¤° à¤¸à¤¨
à¤² à¤®
Ġà¤Ĺ à¤¯
à¤¥ à¥ĩà¤¨
Ġà¤µà¤¿à¤ķ à¥įà¤°à¤®
Ġà¤ļà¤¿à¤ķ à¤¨
Ġà¤ªà¥įà¤°à¥ĭà¤¸à¥ĩà¤¸ à¤¿à¤Ĥà¤Ĺ
> <
Ġà¤° à¥Ĥà¤®
Ġà¤µà¤¾à¤°à¥įà¤® à¤¿à¤Ĥà¤Ĺ
à¤ĸ à¤£à¥įà¤¡
Ġà¤¬à¤¢à¤¼ à¥Ģ
197 3
Ġà¤ıà¤Ĥà¤Łà¥Ģ à¤¬à¤¾à¤¯à¥ĭà¤Łà¤¿à¤ķ
ĠMinist er
Ġà¤¬à¥ģà¤ľ à¥ģà¤°à¥įà¤Ĺ
ra w
à¤¸à¤®à¥Ģ à¤ķà¥įà¤·à¤¾à¤ıà¤ģ
Ġà¤°à¤¹à¤¸à¥įà¤¯à¤® à¤¯
an cial
à¤¿à¤ª à¥įà¤¶à¤¨
à¥ĩà¤¨ à¤¿à¤ķ
Ġà¤Ĩà¤¹ à¥įà¤µà¤¾à¤¨
à¥ģà¤¦à¥įà¤¦ à¥Ģà¤¨
à¥ĩ à¤¨à¤¾
à¤ķ à¥įà¤Łà¤°
à¤£ à¤¾à¤²à¥Ģ
Ġà¤¸à¥įà¤ª à¥ĩà¤ķà¥įà¤Łà¥įà¤°
à¤¾à¤¯à¤° à¤¸
Ġà¤®à¥ĭà¤¹ à¤¨
Ġà¤ķà¤°à¥įà¤¨ à¤¾à¤Łà¤ķ
t ers
à¤Ń à¤°
Ġà¤ħà¤¨à¥ģ à¤ļà¤¿à¤¤
Ġà¤¸à¤¾à¤® à¤Ĺà¥įà¤°
à¤¬à¥Į à¤ķà¥įà¤¸
Ġà¤¬à¤¨ à¤¾à¤µà¤Ł
Ġà¤ªà¥įà¤°à¤¦ à¤¾à¤¤à¤¾
Ġà¤ĩà¤Ĥà¤Łà¤° à¤¨à¥ĩà¤¶à¤¨à¤²
Ġà¤Ĩà¤Ĺ à¤¾à¤®à¥Ģ
St ep
à¥ĭà¤ľ à¥Ģ
Ġà¤µà¤¿à¤² à¤¯
Ġar r
à¥ĩà¤°à¥ĩ à¤ªà¥Ģ
Ġke ep
clu sion
Ġ ide
Ġà¤ľ à¤¤
à¤µ à¥ĭà¤Ĥ
à¥įà¤« à¥Ģ
Ġà¤¸à¤¾à¤µ à¤§à¤¾à¤¨
Ġà¤ľà¤¨à¤ľà¤¾à¤¤ à¤¿
mer ic
Ġà¤®à¥ĩà¤® à¥ĭà¤°à¥Ģ
Ġà¤ķà¤¾à¤°à¥įà¤¯à¤¾à¤¨à¥įà¤µ à¤¯à¤¨
- à¤¯à¤¹
à¤® à¥ĭ
à¤¾à¤¨ à¤¿à¤¯à¤¾
Ġà¤ĸ à¤¾à¤°
Ġà¤°à¤¿à¤¸ à¤°à¥įà¤ļ
à¥Ģ à¤ļà¤°
Ġà¤¹ à¤¿à¤°
à¤Ĺ à¤Ĥà¤Ĺà¤¾
Ġà¤īà¤¤à¥įà¤¸ à¤¾à¤¹à¤¿à¤¤
Ġà¤¸à¥ĩà¤µà¤¾à¤¨à¤¿à¤µ à¥ĥà¤¤à¥įà¤¤
Ġà¤Ĩà¤¦à¤¿à¤µ à¤¾à¤¸à¥Ģ
à¤® à¥Į
à¤Ľ à¤¾à¤¤à¥įà¤°
Ġar ound
Ġà¤ħ à¤Ĥà¤ľ
Ġà¤°à¥Ĥà¤ª à¤¾à¤Ĥà¤¤à¤°à¤£
à¤¿à¤µ à¤°à¥įà¤¤à¤¨
0 3
Ġà¤¦ à¥ģà¤·
Ġà¤Ĩ à¤ľà¤¼
Ġà¤ķà¥Ģ à¤Łà¤¨à¤¾à¤¶
Ġà¤¶ à¥ĩà¤ĸ
Âł à¤¦à¥ĩà¤ĸà¥ĩà¤Ĥ
Ġà¤ķà¤¨ à¤¾à¤¡à¤¾à¤Ī
Ġà¤ĩà¤Ĥà¤¸à¥įà¤Ł à¥Ģà¤Ł
Ġà¤ķ à¤¿à¤Ł
Ġà¤¦ à¤²à¥ĭà¤Ĥ
Ġà¤Ĳ à¤²
à¤¦ à¤¿à¤²à¥įà¤²à¥Ģ
à¤ĸ à¥Ģ
Ġà¤ļ à¤¿à¤²à¥įà¤²
à¥įà¤¸ à¥įà¤ķà¥Ģ
Ġà¤Ł à¥ĩà¤ª
à¥ĭà¤Ł à¥ĭ
Ġà¤ķà¥ĭ à¤·
Ġà¤¡ à¤¿à¤¸
Ġs n
Ġst d
Ġà¤ķà¥Īà¤® à¤°à¥ĩ
Ġà¤ħà¤ªà¥įà¤°à¤¤à¥įà¤¯ à¤¾à¤¶à¤¿à¤¤
(à¤¸ à¤¦à¤°
oug ht
à¤µ à¤°à¥įà¤¤à¤®à¤¾à¤¨
Ġà¤¦ à¤¾à¤¹
Ġà¤Ľ à¤¾à¤¯à¤¾
Ġà¤ĸà¥ģà¤¦ à¤¾à¤Ī
Ġà¤µà¥įà¤¯à¤¾à¤ĸ à¥įà¤¯à¤¾à¤¨
Ġhum an
à¤Ĺ à¥ĭà¤²à¥Ģ
Ġà¤¸à¤ª à¤¨à¥ĩ
Ġess ential
Ġà¤µ à¤¾à¤°à¥įà¤¡
à¥Į à¤°à¥Ģ
âĢį à¤µ
Ġà¤¸à¤¾à¤Ĥà¤ĸà¥įà¤¯ à¤¿à¤ķà¥Ģà¤¯
Ġa ut
Ġà¤µà¤¨ à¤¡à¥ĩ
à¤¡à¥ĩà¤Ł à¤¾
Ġà¤°à¥Ĥà¤¢à¤¼ à¤¿à¤µà¤¾à¤¦à¥Ģ
l abel
Ġ u
Ġà¤¹ à¤¾à¤°à¥įà¤Ł
Ġà¤ª à¤¾à¤ĩ
Ġà¤° à¥ĩà¤ľ
Ġà¤¡ à¤¾à¤īà¤¨
Ġà¤īà¤ªà¤²à¤¬à¥įà¤§ à¤¿à¤¯à¥ĭà¤Ĥ
Ġà¤¸à¤®à¤¾à¤¨ à¤¾à¤Ĥà¤¤à¤°
our n
Ġà¤Ĩ à¤°à¥įà¤®
Ġà¤¤ à¤¿à¤²
Ġà¤Ł à¤¾à¤ĩà¤Ł
ĠU S
Ġà¤ĩà¤¸à¥įà¤² à¤¾à¤®à¥Ģ
Ġà¤¦à¤µ à¤¾à¤ıà¤Ĥ
à¥Īà¤Ĥ à¤¸
9 6
à¤¾à¤Ĺ à¤²
Ġà¤ķà¤¿à¤¸ à¤ķà¥ĩ
Ġse ver
Ġà¤ĸà¥ĩà¤¤ à¥ĭà¤Ĥ
Ġlar ge
Ġans wer
w h
à¤ķ à¤°à¥įà¤®à¥Ģ
ĠP re
8 7
Ġà¤¨à¥ĩ à¤¤à¥įà¤°
Ġa ge
Ġà¤¤à¥Ģà¤µà¥įà¤° à¤¤à¤¾
Ġà¤ķà¥įà¤°à¤¿à¤¸ à¤®à¤¸
.Write Line
. ),
Ġà¤ī à¤Ľ
Ġà¤Ĩ à¤ķà¤°
à¤¡ à¥įà¤¸
il ities
Ġit em
0 4
Ġà¤ĺ à¤¿à¤°à¤¾
Ġà¤®à¤¨ à¥ĭ
ĠR es
i res
à¤«à¤¼ à¤¿à¤²à¥įà¤®
Ġà¤¦à¤°à¥įà¤¶ à¤¾à¤¨à¥ĩ
ain ing
à¤¬ à¤¾à¤°à¤¾
Ġà¤µà¤¿à¤° à¥ģà¤¦à¥įà¤§
Ġà¤¤à¥įà¤°à¥ģà¤Ł à¤¿à¤¯à¥ĭà¤Ĥ
Ġau di
Ġà¤¡à¤¿à¤¬à¥įà¤¬ à¥ĩ
à¥īà¤®à¥įà¤ª à¥įà¤Ł
Ġà¤¶à¥įà¤°à¥ĩà¤£à¥Ģ à¤¬à¤¦à¥įà¤§
à¥ĭà¤¤à¥įà¤¸ à¤µ
Ġà¤ħà¤Ĥà¤Ĺà¥įà¤°à¥ĩà¤ľ à¥ĭà¤Ĥ
p g
Ġà¤¸à¥įà¤µà¤¯à¤Ĥ à¤¸à¥ĩà¤µ
Ġà¤°à¥ī à¤¯
Ġà¤¦à¤¸à¥įà¤¤à¤¾à¤µà¥ĩà¤ľ à¥ĭà¤Ĥ
app end
Ġà¤¶à¥Į à¤ķ
r ime
Ġà¤ķà¥ĭ à¤²à¥ĩ
Ġà¤ĩ à¤Ĥà¤¦
Ġà¤¥ à¤°à¥įà¤®
Ġà¤¬à¥ĭà¤² à¤¤à¥ĩ
Ġacc ount
Ġdeci sion
( I
Ġà¤ª à¤ļ
à¤¸ à¤ķ
as ks
Ġc ity
Ġà¤µà¤°à¥įà¤£ à¤®à¤¾à¤²à¤¾
ud e
Ġj ust
Ġà¤¸à¤¿à¤¨à¥ĩà¤® à¤¾
Ġche ck
à¤¸ à¤¾à¤¥
à¤¸ à¤¬à¤¸à¥ĩ
Ġà¤ħà¤§ à¤¿à¤Ĺà¥įà¤°
con t
Ġsent iment
Ġà¤®à¤¾à¤ĩà¤ķà¥įà¤° à¥ĭà¤¸
Ġà¤ĭà¤· à¤¿
à¤°à¥įà¤ ĸ
Ġà¤° à¤ļà¤¨
à¤°à¥įà¤ķ à¤°à¤¾
ut ions
à¥ĭ à¤µà¤°
Ġà¤ħà¤²à¥įà¤ª à¤¸à¤Ĥà¤ĸà¥įà¤¯à¤ķ
Ġà¤¡à¥ĩà¤¸ à¥įà¤ķ
0 6
Ġà¤ķ à¥īà¤¨
Ġc al
le an
à¤µà¤¿à¤¦ à¥ĭà¤Ĥ
à¤¹à¤® à¤¾à¤°à¥ĩ
Ġà¤¬à¤¾à¤¬ à¤¾
- à¤¥
P ro
Ġà¤ª à¥ĭà¤ª
à¤¿à¤¸ à¤¾
à¤ł à¤¨
Ġà¤ªà¤¢à¤¼ à¤¾
à¤Łà¥įà¤° à¤¿à¤ķ
Ġà¤²à¤¾à¤ĩ à¤«
Ġà¤®à¥ĭà¤Ł à¥ĩ
Ġà¤ħà¤¨à¥ģà¤¦ à¤¾à¤¨
Ġsoft ware
Ġà¤¹à¥Ī à¤°
à¤® à¤Ĥà¤¡
à¤ļ à¥ĩà¤¨
Ġà¤² à¥ģà¤ªà¥įà¤¤
< p
Ġà¤¨ à¥ĭà¤¬à¥ĩà¤²
Ġse cond
Ġà¤®à¤¾à¤ª à¤¾
Ġd ocument
à¤¾à¤ĩà¤² à¥įà¤¡
t able
à¤¿à¤¯ à¥ĭà¤ª
oc us
Ġà¤ĸà¤¨ à¤¨
Ġà¤® à¥ĩà¤Ĺ
Ġm od
00 00
ĠS o
Ġà¤°à¤¿à¤ķà¥īà¤°à¥įà¤¡ à¤¿à¤Ĥà¤Ĺ
-à¤Ĭ à¤Ĥà¤ļà¤¾à¤Ī
à¤ªà¥įà¤°à¤¾à¤° à¤Ĥà¤Ńà¤¿à¤ķ
à¥ģà¤¦ à¤¾
196 9
Ġà¤Ĩà¤°à¥įà¤ķ à¤Łà¤¿à¤ķ
Ġà¤¹à¤«à¥įà¤¤ à¥ĭà¤Ĥ
e ch
Ġp riv
Ġà¤¬à¤¢à¤¼ à¤¾à¤¤à¥ĩ
à¤Ĥ à¤Ľ
à¤¿à¤ı à¤Ĥà¤Ł
Ġà¤¡ à¤¿à¤Ł
Ġà¤ªà¥įà¤°à¤¤ à¤¾à¤ª
Ġà¤¹à¥ģà¤Ī à¤Ĥ
Ġà¤®à¤¾à¤¨à¤µ à¥Ģà¤¯
Ġà¤¸à¥įà¤¤ à¥įà¤°à¥Ģ
ĠCon sole
Ġà¤ª à¤¿à¤¨
Ġà¤ĩ à¤ľà¤¼à¤°à¤¾à¤ĩà¤²
Ġà¤¬à¥ĩà¤¸ à¤¬à¥īà¤²
à¤µà¤¿à¤µ à¤°à¤£
Ġà¤ĸ à¤¾à¤¦
le ction
Ġà¤¸à¥įà¤ª à¤°à¥įà¤¶
" M
y a
à¥Ī à¤£à¥įà¤¡
à¤¿à¤Ĥ à¤Łà¤¨
Ġà¤®à¤¹ à¤¾à¤ª
Ġà¤¥à¥Ģ à¤®
ut es
lo ad
Ġadd ress
à¤¸ à¤¿à¤¦à¥įà¤§
à¤Ĥà¤¦ à¤¾
-à¤¸ à¤Ĥ
ag ing
9 2
à¤Ĺ à¥ĩà¤Ł
à¥ĭà¤Ĥ à¤¡
à¤¾à¤¨ à¥ĭ
Ġà¤« à¤°à¥įà¤¶
à¤ĩ à¤²
Ġl ength
à¤Ĩà¤ª à¤ķà¥ĩ
195 2
Ġà¤ķà¤Ĥà¤ªà¤¨ à¤¿à¤¯à¤¾à¤Ĥ
Ġà¤¨à¤ķ à¥įà¤¶
Ġcharact ers
' ;
b er
Ġà¤ħà¤µ à¤ķà¤¾à¤¶
per ature
à¤ķ à¤¸
Ġà¤µ à¥ģà¤¡
à¤¸à¥įà¤¥ à¤¾à¤ĵà¤Ĥ
à¤Ĥà¤Ĺ à¤¤
ĠC ol
Ġbu ild
d ex
à¤¿à¤ª à¤¿
- d
à¥ĩ à¤¨à¥įà¤¸
Ġà¤¸ à¤¿à¤¡
Ġà¤ħ à¤¯
Ġe st
ict ion
à¥ĩ à¤¨à¥ĩ
Ġà¤ķ à¤°à¥įà¤£
196 8
Ġà¤¯à¥Ģ à¤¶à¥ģ
Ġà¤¬à¥ģà¤² à¤¾à¤¯à¤¾
Ġpop ulation
Ġn atural
Ġà¤²à¥ĭà¤ķ à¤¤à¤¾à¤Ĥà¤¤à¥įà¤°à¤¿à¤ķ
iz ing
Ġà¤Ĩà¤¦ à¤¤
Ġà¤¸à¥ģà¤² à¤Ń
Ġà¤ħà¤«à¤Ĺà¤¾à¤¨ à¤¿à¤¸à¥įà¤¤à¤¾à¤¨
à¤¸ à¥ģà¤°
iv ing
S QL
i o
à¤¥ à¤²
Ġà¤µà¤¿à¤¨ à¥įà¤¯à¤¾à¤¸
Ġà¤®à¤¿à¤¸ à¤¾à¤ĩà¤²
Ġà¤ħà¤ªà¤¨ à¤¾à¤¨à¥ĩ
emb er
Ġà¤¨ à¤¯à¥ĩ
20 22
Ġà¤¸à¥įà¤µ à¤¿à¤ļ
ro p
il es
Ġà¤¹à¤²à¥įà¤ķ à¤¾
à¤¯ à¤¿à¤ķ
Ġa ble
Ġà¤¸à¤¹ à¤¨
à¥ĥà¤Ĥà¤ĸ à¤²
Ġà¤®à¤¾à¤¹ à¥Įà¤²
Ġà¤ªà¤°à¤¿à¤ª à¤¥
Ġà¤ľà¥ĭ à¤¶à¥Ģ
ou ra
Ġà¤¸à¥įà¤ªà¤·à¥įà¤Ł à¥Ģà¤ķà¤°à¤£
Ġà¤ªà¤¡à¤¼ à¤¨à¥ĩ
Ġà¤ªà¥Ģ à¤Ł
Ġà¤¬à¤¦ à¤®
Ġà¤°à¥īà¤ķ à¥ĩà¤Ł
Ġappro ach
( à¤¤
Ġà¤¦ à¤°à¥įà¤ľà¤¾
à¤ľ à¥īà¤¨
Ġà¤¸à¤¾à¤Ĥ à¤ª
Ġà¤ļà¤¿à¤¨ à¥įà¤¹
Ġà¤° à¥ĭà¤Łà¥Ģ
an ces
er c
Ġà¤¸à¤Ĥ à¤¸à¤¾à¤°
Ġà¤¸à¥Ģà¤ĸ à¤¾
Ġà¤¨à¥Īà¤¤à¤¿à¤ķ à¤¤à¤¾
ar ies
à¤¿à¤¸à¥įà¤Ł à¥įà¤°à¥Ģ
Ġà¤ĸà¤¿à¤¡à¤¼ à¤ķà¥Ģ
Ġà¤² à¥ĩà¤Ĥà¤¸
m it
Ġà¤¸ à¥ĥ
Ġà¤² à¥īà¤ķ
à¤¼ à¥Ģ
à¤Ĩ à¤¨
Ġà¤¸à¥Ģ à¤¡à¥Ģ
Ġà¤ħà¤Ĥà¤¡ à¤°
Ġà¤¨à¤¿à¤°à¥įà¤µ à¤¾à¤ļà¤¿à¤¤
( à¤¡à¥Ģ
Ġà¤¹ à¤µ
à¤¬ à¥ĩà¤²
as ing
à¤ªà¤° à¥įà¤¯
ir c
Ġà¤° à¥ĩà¤Ł
Ġà¤ªà¥įà¤°à¤¤à¥įà¤¯ à¤¾à¤°
- à¤µà¥įà¤¯à¤µà¤¸à¤¾à¤¯
Ġà¤µ à¥ĩà¤Ĥ
Ġà¤² à¤µ
à¤µ à¤°à¥įà¤Ĺ
Ġà¤¡ à¤¾à¤Łà¤¾
à¥įà¤¦ à¤¿à¤ķ
196 4
Ġà¤²à¥ĭà¤¹ à¥ĩ
Ø §
Ġà¤ľà¥ĭà¤¡à¤¼ à¥ĭà¤Ĥ
Ġà¤¸à¤Ĥà¤ªà¤¾à¤¦ à¤¨
Ġà¤īà¤¤à¥įà¤¤à¥ĩà¤ľ à¤¿à¤¤
Ġà¤¦à¤¾à¤Ĥà¤¤ à¥ĭà¤Ĥ
Ġà¤¨ à¤¾à¤¥
Ġà¤° à¤¤à¥įà¤¨
Ġà¤ħà¤² à¥ĩà¤ķà¥įà¤ľ
Ġà¤Ĺà¥įà¤° à¥Īà¤Ĥà¤¡
à¥ĩà¤® à¤Ĥà¤¦
Ġà¤ĩà¤° à¤¾à¤ķ
Ġà¤Ń à¤ķà¥įà¤¤
à¥ī à¤°à¥įà¤¨
Ġà¤°à¤¹ à¥ĩà¤Ĥà¤Ĺà¥ĩ
Ġà¤Ŀ à¤¾à¤°
Ġph ysi
à¤° à¤¿à¤¶
Ġà¤® à¥ĥ
à¤« à¤¿à¤ķ
Ġà¤¸à¥įà¤Ł à¥Ģ
Ġà¤µà¤°à¥įà¤¤ à¤¨à¥Ģ
Ġà¤ķà¥ĭà¤² à¥ĭà¤°
" -
a ur
Ġà¤¬ à¥ĩà¤¡
Ġà¤ªà¥įà¤° à¥īà¤®à¥įà¤ªà¥įà¤Ł
Ġà¤ĸà¤Ĥà¤¡ à¥ĭà¤Ĥ
Ġà¤²à¥Īà¤ª à¤Łà¥īà¤ª
k ey
Ġà¤¯ à¤ķà¥ĥà¤¤
Ġà¤¶ à¥ĥà¤Ĥà¤ĸà¤²à¤¾
Ġà¤ļà¥Ĥà¤¹ à¥ĭà¤Ĥ
Ġà¤ªà¥ģà¤°à¤¾à¤¤ à¤¤à¥įà¤µ
8 3
m y
Ġà¤ķà¥ĭ à¤µà¤¿à¤¡
Ġà¤¥ à¤¾à¤¨à¤¾
à¤Ĩ à¤¤
Ġà¤ħà¤¸à¥įà¤µà¥Ģ à¤ķà¤¾à¤°
ellig ence
à¥ĭ à¤¹à¥Ģ
à¤Ĺ à¥įà¤²
Ġà¤¶ à¤°à¥įà¤®
Ġà¤¨à¤¾à¤® à¤¾à¤Ĥà¤ķà¤¨
t le
Ġà¤® à¥ģà¤¨
Ġà¤¬à¤¦à¤² à¥ĩà¤Ĥ
196 5
Ġpl ace
Ġà¤µà¥įà¤¯à¤¾à¤ĸ à¥įà¤¯
Ġdeterm ine
Ġà¤¶ à¤°à¥įà¤ķà¤°à¤¾
Ġà¤Ĩà¤ª à¤¸à¥ĩ
Ġà¤¸à¥ĭ à¤¸à¤¾à¤ĩà¤Ł
Ġà¤µà¤¿à¤° à¤¾à¤®
à¤°à¤¾à¤ľ à¤¸à¥įà¤¥à¤¾à¤¨
Ġà¤Ĭà¤ģ à¤ļà¤¾
Ġà¤®à¤¾à¤¨ à¤¦à¤Ĥà¤¡à¥ĭà¤Ĥ
Ġà¤ħà¤® à¥ĩà¤ľà¤¼
Ġà¤«à¥įà¤° à¥ĩà¤¡
" à¤¤
Ġà¤ħà¤¸ à¥įà¤µ
Ġà¤µà¤¸à¥įà¤¤ à¥ģà¤ıà¤ģ
Ġà¤ľ à¤¾à¤®
Ġà¤ħà¤¨à¥ģ à¤ķà¤°à¤£
a iled
à¤ķà¥Ģ à¤°à¥įà¤£
à¤ħ à¤¦
à¥ĭà¤ķ à¥įà¤¸
ĠF ROM
Ġpo st
Ġà¤¸à¥Ģà¤§ à¥Ģ
Ġà¤®à¤¹à¤¾à¤° à¤¾à¤ľ
Ġà¤ľà¤¹à¤¾à¤ľ à¥ĭà¤Ĥ
Ġà¤ķà¤¹à¤¾à¤¨ à¤¿à¤¯à¤¾à¤ģ
< li
Ġà¤ħà¤§à¤¿à¤ķ à¥ĥà¤¤
ou d
Ġà¤ħà¤¨à¥ģà¤Ń à¤µà¥Ģ
Ġà¤ħà¤ªà¥ĩ à¤ķà¥įà¤·à¤¾
Ġà¤ªà¤¹à¤ļ à¤¾à¤¨à¤¾
8 6
à¥įà¤µ à¥ĩà¤¨à¤¿à¤¯à¤¾
Ġà¤¬à¥ĭ à¤¸à¥įà¤Łà¤¨
Ġà¤ªà¤°à¤¿à¤ª à¤ķà¥įà¤µ
................ ................
b egin
à¥įà¤¸ à¥įà¤¯
à¤ķà¤¾à¤° à¥įà¤¡
à¤¾à¤ĸ à¤Ĥà¤¡
à¤¾à¤Ń à¤¾à¤°à¤¤
Ġà¤ªà¥ģà¤¨à¤°à¥įà¤¨ à¤¿à¤°à¥įà¤®à¤¾à¤£
Ġà¤¬ à¤¾à¤ıà¤Ĥ
à¤« à¥ĩ
Ġà¤ķà¤Ĥà¤ª à¥įà¤¯à¥Ĥà¤Łà¤¿à¤Ĥà¤Ĺ
Ġà¤¸à¤¦ à¤¨
as on
à¥¨ à¥ª
lo bal
r t
Ġà¤µà¥įà¤¯à¤¾à¤ª à¤¾à¤°à¥Ģ
Ġproduct s
Ġà¤ªà¤Ĥà¤ĸ à¥ĭà¤Ĥ
Ġà¤¨à¥Įà¤ķà¤° à¤¿à¤¯à¥ĭà¤Ĥ
Ġà¤¡à¥ĩà¤® à¥ĭà¤ķà¥įà¤°
Ġpatter ns
Ġà¤®à¥Ĥà¤°à¥įà¤ ĸ
: -
à¥ĩà¤² à¤°
Ġd ig
Ġà¤¸à¤Ĥà¤¸à¥įà¤¥ à¤¾à¤ĵà¤Ĥ
1 10
à¤ª à¤¶à¥įà¤ļà¤¿à¤®
Ġà¤¶ à¤°à¤¦
Ġà¤Ĺà¤¤à¤¿à¤µà¤¿à¤§ à¤¿à¤¯à¤¾à¤ģ
197 4
Ġà¤¶à¤¿à¤ķ à¤¾à¤°à¥Ģ
Ġbenef its
Ġà¤ĩà¤Ĥà¤¸à¥įà¤Łà¥Ģà¤Ł à¥įà¤¯à¥Ĥà¤Ł
Ġà¤¬ à¤¸à¥įà¤¤à¥Ģ
Ġà¤®à¤¾à¤°à¥įà¤Ĺ à¥ĭà¤Ĥ
Ġà¤ħà¤°à¥įà¤ľ à¥ģà¤¨
Ġà¤§à¥Ģ à¤®à¤¾
Ġà¤Ĩà¤¶à¥įà¤° à¤¯
Ġà¤¦ à¤¾à¤¯à¤¿à¤¤à¥įà¤µ
19 20
Ġà¤Ĩà¤¯ à¥ĩ
Ġà¤®à¤¨ à¤¾à¤¨à¥ĩ
Ġà¤¤ à¤¿à¤®
si b
à¤°à¤£ à¥Ģ
à¥įà¤¶ à¥įà¤µ
lo at
Ġà¤ĩà¤¤à¤¿à¤¹à¤¾à¤¸ à¤ķà¤¾à¤°
Ġà¤°à¥ĭ à¤ķà¤¾
194 8
à¤¦à¥ĩà¤¶ à¥Ģ
Ġà¤īà¤² à¤Ŀ
Ġà¤¦ à¤¾à¤ĸ
à¤ªà¥įà¤° à¤¾à¤¯
à¤Ĩà¤ª à¤ķà¤¾
Ġà¤ķà¤ķà¥įà¤· à¤¾à¤ĵà¤Ĥ
ert ain
Ġà¤¸à¥įà¤µà¤ļà¥įà¤Ľ à¤¤à¤¾
Ġà¤¬à¤¹à¤¾à¤¦ à¥ģà¤°
Ã ©
à¥ĭà¤Ł à¤¾à¤ĩà¤ª
Ġe ar
Ġà¤ħà¤® à¤¿à¤¤
Ġà¤«à¤¼ à¤°
à¤ªà¥įà¤¤ à¤¿
Ġà¤¸à¤Ĥà¤¦à¥ĩà¤¶ à¥ĭà¤Ĥ
Ġà¤Ĩà¤ģ à¤ķ
ward s
à¤Ĺà¥ĭà¤²à¥Ģ à¤¯
à¤ªà¥įà¤° à¤¤à¥įà¤¯
ge ther
à¤°à¥įà¤² à¤¿à¤¨
à¤¬à¤¹ à¥ģà¤¤
Ġà¤ĩà¤Ĥà¤Łà¤°à¥Īà¤ķà¥įà¤Ł à¤¿à¤µ
b y
Ġà¤¬ à¥ĩà¤¬
Ġà¤¬ à¤¾à¤ľà¤¼
à¤¾à¤¨ à¥ģà¤Ń
à¤¬ à¤¨
Ġà¤ªà¤°à¥įà¤¯ à¤µà¥ĩ
Ġà¤®à¤¶à¥Ģà¤¨ à¥ĭà¤Ĥ
Ġà¤¸à¤ª à¤¨à¤¾
Ġà¤Ĺà¥įà¤° à¤¿à¤¡
Ġà¤¢à¥Ĥà¤Ĥà¤¢ à¤¨à¥ĩ
à¤® à¥ĭà¤°
Ġà¤ħ à¤Ĥà¤Łà¤¾à¤°à¥įà¤ķ
Ġà¤¨à¤¿à¤·à¥įà¤ķà¤°à¥įà¤· à¥ĭà¤Ĥ
à¥ĩà¤² à¥įà¤«
Ġà¤¦à¤¿à¤ĸ à¤¾
Ġà¤µà¤¿à¤· à¤®
Ġà¤¶à¥Ģà¤¤ à¤ķà¤¾à¤²à¥Ģà¤¨
E S
Ġà¤¬ à¥ĩà¤°à¥Ģ
Ġà¤¸à¤®à¤¾à¤§à¤¾à¤¨ à¥ĭà¤Ĥ
Ġà¤ªà¥ģ à¤£
Ġà¤¶à¥įà¤°à¥Ģ à¤®à¤¤à¥Ģ
Ġà¤¹à¤¥à¤¿à¤¯ à¤¾à¤°à¥ĭà¤Ĥ
Ġà¤ ·
à¥¤ )
Ġà¤Ł à¥ĩà¤°
Ġm ath
à¤²à¥Ī à¤Ĥà¤Ĺà¤¿à¤ķ
Ġà¤¬à¤°à¥įà¤¬ à¤¾à¤¦
Ġà¤¨à¤¾à¤ĩà¤Łà¥įà¤° à¥ĭà¤ľà¤¨
Ġà¤µ à¥Īà¤ķà¥įà¤¸
Ġà¤¸à¤Ĥà¤¸à¤¾à¤§ à¤¿à¤¤
Ġà¤¨à¤¿à¤¯à¥ģà¤ķà¥įà¤¤ à¤¿
Ġà¤® à¥įà¤¯à¥Ĥà¤ľ
Ġà¤° à¥Ģà¤¸
ent ion
pl ot
Ġà¤ĺà¤Łà¤¨ à¤¾à¤ıà¤Ĥ
Ġà¤¦à¥ģà¤¶ à¥įà¤®à¤¨
à¤ķà¥įà¤· à¤¾à¤¤à¥įà¤®à¤ķ
Ġà¤ľà¤¾à¤¨ à¥ĩà¤Ĥ
à¤ª à¤Ł
Ġà¤¦ à¤¿à¤¯à¥ĩ
à¤ļ à¤°à¥įà¤¸
à¤Ń à¥ĩà¤¦
cl ass
Ġr un
Ġà¤ķà¤¾à¤°à¥įà¤¬ à¤¨à¤¿à¤ķ
Ġà¤«à¤¾à¤¯à¤¦ à¥ĩà¤®à¤Ĥà¤¦
à¥ĭà¤® à¤¨
Ġà¤²à¤¿à¤¯ à¥ĭà¤¨
Ġà¤¸à¥ĭà¤¸à¤¾à¤ĩà¤Ł à¥Ģ
Ġà¤Ĺ à¤°à¥įà¤¦à¤¨
à¥Ĥà¤ª à¥Ģ
Ġà¤¸à¤¾à¤®à¤Ĺà¥įà¤° à¤¿à¤¯à¥ĭà¤Ĥ
à¤® à¥įà¤¯
à¤ª à¥Ĥ
196 6
Ġà¤Ĩà¤°à¤¾à¤® à¤¦à¤¾à¤¯à¤ķ
Ġà¤ľ à¥ĩà¤¡
Ġà¤ħà¤§ à¤¿à¤µ
à¤¾à¤Ĥà¤Ĺà¥įà¤² à¤¾
9 7
Ġà¤¸à¤¿à¤¤ à¤¾à¤°à¥ĭà¤Ĥ
Ġà¤Ĺà¤°à¥įà¤Ń à¤¾à¤¶à¤¯
Ġà¤²à¤¿à¤Ĥà¤ķ à¤¨
Ġà¤ªà¤¦à¥įà¤§ à¤¤à¤¿
Ġà¤Ńà¥Ĥà¤® à¤¿à¤ķà¤¾à¤ĵà¤Ĥ
Ġà¤ıà¤²à¥įà¤Ĺà¥ĭà¤° à¤¿à¤¦à¤®
Ġà¤ķà¤Ĥà¤Ł à¥įà¤°à¥ĭà¤²
Ġà¤Ńà¥įà¤°à¤® à¤¿à¤¤
à¤ī à¤®à¥įà¤®à¥Ģà¤¦
Ġà¤Ĺà¥įà¤°à¤Ĥà¤¥ à¥ĭà¤Ĥ
d it
Ġà¤ªà¥Ĥà¤°à¥įà¤µ à¥ĭà¤¤à¥įà¤¤à¤°
194 5
à¥įà¤¯ à¤¾à¤®
ing redi
Ġà¤īà¤¤à¥įà¤ª à¥Ģ
à¤¸à¥įà¤ķ à¤°
Ġà¤µà¤¿à¤ ĺ
' m
in ary
à¤¿à¤ª à¥įà¤°
Ġà¤® à¤¾à¤¦
Ġà¤ļ à¤®à¥įà¤ª
Ġà¤¤à¥įà¤° à¤¿à¤ķà¥ĭà¤£
Ġà¤¸à¤² à¥įà¤«
à¤°à¥įà¤ª à¥įà¤°
Ġà¤¤à¤¸à¥įà¤µà¥Ģà¤° à¥ĭà¤Ĥ
Ġà¤®à¤ľ à¤¾à¤ķ
Ġà¤ªà¤¹à¤¨ à¤¨à¥ĩ
Ġà¤¬à¥ĭà¤¤ à¤²
Ġà¤ķ à¤Ĥà¤§
-à¤ħ à¤Ńà¥Ģ
Ġde v
" c
_ id
à¥įà¤¯ à¥ģà¤¤
Ġà¤¦ à¤¾à¤²
Ġà¤ķà¤® à¤¾à¤Ī
Ġà¤¸à¥įà¤ķ à¥Ģ
lo ck
Ġà¤Ĺà¤¡ à¥įà¤¢
Ġà¤® à¤£
à¤¦ à¥Ĥ
à¤¡ à¤ª
à¤¬à¥įà¤² à¤¿à¤ķà¤¨
à¤°à¤¾à¤ľ à¤¨à¥Ģ
Ġà¤®à¤¾à¤°à¥įà¤Ĺ à¤¦à¤°à¥įà¤¶
195 7
Ġà¤ªà¥ģà¤¨à¤° à¤¾à¤µ
: **
à¥ĩà¤¨à¤¹ à¤¾à¤ĩà¤Ł
à¤¸à¥įà¤ķ à¥ĭ
197 8
Ġà¤ķà¥ĭ à¤¨à¥ĩ
à¥įà¤¤ à¥ĩ
Ġà¤¬à¥ģà¤² à¥ĩà¤Ł
Ġà¤ľà¥īà¤°à¥įà¤ľ à¤¿à¤¯à¤¾
Ġà¤¶à¤¿à¤¶ à¥ģà¤ĵà¤Ĥ
Ġà¤¯à¤¥ à¤¾à¤°à¥įà¤¥
Ġagain st
w ays
à¤® à¤¿à¤¯à¤¾
à¤¦ à¤®à¤¾
Ġc rit
Ġà¤¬à¤¾à¤° à¥Ģ
Ġà¤¦à¥ĥ à¤¶à¥įà¤¯à¥ĭà¤Ĥ
Ġà¤ķà¤¬ à¥įà¤ľ
à¥įà¤ª à¤ķà¥įà¤·
our s
Ġà¤¡à¥īà¤ķà¥įà¤Łà¤° à¥ĭà¤Ĥ
Ġserv ice
à¥Ĥà¤² à¤¨
Ġà¤®à¤¾à¤° à¥įà¤¶
Ġem ail
Ġdis play
Ġà¤¹à¤¾à¤ĩ à¤ªà¤°
à¤« à¤¿à¤°
im um
Ġà¤Ĩà¤¤à¥įà¤® à¤µà¤¿à¤¶à¥įà¤µà¤¾à¤¸
à¤µ à¥ī
Ġà¤¶ à¤¾à¤°
Ġc re
ord ing
Ġpuzz le
j son
à¤¸ à¤Ĥà¤ļ
Ġà¤Ĩà¤§ à¥Ģ
Ġas s
(à¤ħà¤Ĥà¤Ĺà¥įà¤° à¥ĩà¤ľà¤¼à¥Ģ
Ġà¤¸à¤°à¤¾à¤¹ à¤¨à¤¾
Ġà¤īà¤¤à¥įà¤¤à¤° à¤¾à¤§à¤¿à¤ķà¤¾à¤°à¥Ģ
Ġà¤ªà¥ī à¤²à¥Ģ
Ġà¤Ĺà¤° à¤®
à¤¿à¤ľ à¥įà¤ľà¤¾
Ġà¤¸à¥įà¤Ł à¥Ģà¤²
à¤¾à¤ĩà¤¨ à¤°à¥Ģ
Ġà¤§à¤® à¤ķà¥Ģ
Ġà¤ĸà¥Ĥà¤¬à¤¸à¥Ĥà¤° à¤¤
Ġà¤ķ à¤²à¥įà¤ª
Ġà¤® à¥Ģà¤¨
Ġà¤² à¥Ģà¤¡
à¤ĸ à¥ĩà¤¤
Ġà¤Ł à¤¾à¤°
es sion
Ġà¤ľà¤¾à¤¨ à¤ķà¤¾à¤°
à¤¾à¤¤à¥įà¤° à¤¿
Ġà¤ħà¤¸ à¥ģà¤°
Ġà¤µà¤¾à¤¸à¥įà¤¤ à¥ģ
Ġà¤²à¤¡à¤¼ à¤ķà¥ĭà¤Ĥ
Ġà¤¸à¤¾à¤ĩ à¤¬à¤°
Ġà¤ľà¤¼à¤° à¥Ĥà¤°
Ġà¤¹ à¤¤
Ġà¤® à¤Ĺà¤°
à¥įà¤°à¥Ģ à¤ķà¤¾
Ġà¤¬à¤¢à¤¼ à¤ķà¤°
Ġà¤®à¥ģà¤ķà¥įà¤¤ à¤¿
Ġà¤Ĺà¥įà¤°à¥ĩà¤Ĺ à¥ĭà¤°à¥Ģ
d f
Ġà¤ªà¤°à¥įà¤¯ à¤Łà¤ķ
. append
à¤ķ à¥įà¤¶à¤¨
Ġà¤ĩ à¤ľà¤°
Ġà¤¬à¤¹ à¤¾à¤²
Ġstruct ure
& &
Ġe valu
à¤¨à¥įà¤¨ à¥Ģ
Ġà¤¸à¤Ĥà¤Ńà¤¾à¤µ à¤¨à¤¾à¤ĵà¤Ĥ
Ġà¤ħà¤²à¥įà¤® à¥ĭà¤¡à¤¾
( L
à¤Ĺ à¤°à¥Ģà¤¯
Ġà¤² à¥ĩà¤Ĥà¤Ĺà¥ĩ
à¤Ł à¤ķà¥ĭà¤Ĥ
Ġà¤¡ à¥Īà¤¨
Ġà¤²à¤Ĺ à¤¾à¤ķà¤°
Ġst or
Ġform ula
- à¤ĵ
à¤¬ à¥įà¤¸
Ġt arget
à¤Ĥà¤¡ à¤¾
Ġà¤ħà¤µ à¤¾à¤°à¥įà¤¡
Ġpro per
Ġà¤ħà¤¨à¥ģà¤¶ à¤Ĥà¤¸
à¥ī à¤«à¥Ģ
à¤¾à¤¦ à¥ĩ
ic ial
à¤¾à¤ī à¤Ł
Ġà¤ķà¥ī à¤°à¥įà¤¨
Ġà¤¬à¤Ĥà¤Ĺ à¤¾à¤²à¥Ģ
à¤ļ à¥Į
Ġm aterial
Ġà¤ħà¤¸ à¤¹
Ġà¤«à¤¼à¤¾à¤ĩà¤² à¥ĭà¤Ĥ
Ġfe el
à¤¸à¤®à¤¾à¤§à¤¾à¤¨ à¤ĥ
ĠĠĠĠĠĠĠĠ ĠĠĠĠĠĠĠĠĠĠĠ
Ġà¤ķà¥ĥà¤·à¥įà¤£ à¤¾
Ġà¤¸à¤¾à¤µà¤§à¤¾à¤¨à¥Ģ à¤ªà¥Ĥà¤°à¥įà¤µà¤ķ
Ġà¤¸ à¤¿à¤¯
Ġà¤°à¤¾à¤ľ à¤¾à¤ĵà¤Ĥ
à¥ĩà¤¸ à¤¿à¤¸
Ġre ach
Ġà¤¨à¤¿à¤ķà¤² à¤¤à¤¾
Ġà¤Łà¥įà¤°à¥ĩà¤¨ à¤¿à¤Ĥà¤Ĺ
Ġà¤® à¤¾à¤¨à¥Ģ
à¤¼ à¤¾
Ġà¤¸à¤Ĥ à¤§
Ġà¤ªà¥įà¤°à¤¯à¥ĭà¤Ĺ à¥ĭà¤Ĥ
act ion
à¤¸à¥įà¤Łà¥įà¤° à¥īà¤²
Ġà¤ķ à¤¨à¥įà¤¨
à¥ĭ à¤¸à¥ĩ
Ġà¤¹ à¥ģà¤¸
Ġà¤Ń à¤Łà¥įà¤Ł
Ġà¤īà¤ªà¤¯à¥ĭà¤Ĺ à¤¿à¤¤à¤¾
à¥ģà¤² à¤¨
Ġà¤²à¤Ĺ à¤¾à¤¤à¤¾
à¤°à¥įà¤¤ à¤ķ
m ed
à¤ķà¤¾à¤° à¤¾
Ġan im
ĠA S
Ġà¤ĸà¥ģà¤² à¥Ģ
A M
à¤ļ à¥ĩà¤¸à¥įà¤Łà¤°
si ze
Ġà¤ªà¤¦ à¥ĭà¤Ĥ
à¥ħ à¤¨
Ġà¤ħà¤ªà¥ĩ à¤ķà¥įà¤·à¤¿à¤¤
o ice
à¤ľ à¤¿à¤¸
qu ence
Ġà¤ªà¤¾à¤¦ à¤ª
Ġà¤ªà¥įà¤° à¤¥à¤¾
Ġà¤¦à¤¿à¤ĸ à¤¨à¥ĩ
à¥§à¥¯à¥ ©
à¤µ à¤¿à¤²à¥ĩ
Ġà¤ĵ à¤ª
à¥Īà¤Ĺ à¤¨
Ġà¤ĳà¤ªà¤° à¥ĩà¤Łà¤¿à¤Ĥà¤Ĺ
Ġà¤ļà¥Ī à¤®à¥įà¤ª
Ġà¤°à¥ĩà¤Ĺ à¤¿à¤¸à¥įà¤¤à¤¾à¤¨
Ġà¤ķ à¥Ĥà¤²
à¤¹ à¤¿à¤¨à¥įà¤¦
Ġà¤² à¥ģà¤ķ
Ġà¤² à¥ģà¤ĩà¤¸
Ġà¤¨ à¤ķà¤²
à¤ľà¤¨ à¤¸à¤¾à¤Ĥà¤ĸà¥įà¤¯à¤¿à¤ķà¥Ģ
à¤ĵ à¤ĵ
Ġsol ve
( (
Ġà¤¦ à¤Ĥà¤¤
Ġe th
ĠA d
Th ere
Ġgr oup
Ġà¤µ à¤ķà¥įà¤°
Ġà¤ıà¤¨ à¤¾à¤²
Ġpol ic
à¤¡ à¥ĭà¤°
à¥įà¤¶ à¤¿à¤¯à¤®
Ġà¤¦à¥ĩà¤ĸà¥ĩà¤Ĥ à¤Ĺà¥ĩ
Ġà¤ªà¥ĥà¤·à¥įà¤ł à¥ĭà¤Ĥ
Ġdes cription
Ġà¤® à¤¿à¤®à¥Ģ
à¤¾à¤¸ à¥įà¤ªà¤¦
Ġà¤ªà¥įà¤°à¤¤ à¤¿à¤ª
Ġà¤Ĩà¤¯ à¤°à¤¿à¤¶
Ġà¤¸ à¤¾à¤ľ
Ġs ources
à¤¿à¤¶ à¤¾
à¤ķà¥ĭ à¤°
Ġà¤ħà¤² à¥įà¤²à¤¾à¤¹
Ġà¤Ĩà¤° à¥įà¤¯
à¤¿à¤·à¥įà¤ķ à¥ĥà¤¤
Ġà¤®à¤Ľ à¤²à¤¿à¤¯à¥ĭà¤Ĥ
led ge
Â ·
Ġà¤ª à¤¡à¤¼à¥Ģ
Ġà¤« à¥ĩà¤°
Ġà¤¸à¤¿à¤¤ à¤®à¥įà¤¬à¤°
( F
à¤ķ à¤¾à¤Ĥ
à¤¹ à¥Ĥà¤°
Ġà¤¬à¤¨ à¤¨à¤¾
Ġà¤ªà¥Ĥ à¤Ĥà¤Ľ
Ġv oid
ĠT e
Ġà¤¸à¤¾à¤°à¤¾à¤Ĥà¤¶ à¤ĥ
à¤¿à¤Ĺà¥įà¤° à¤¸à¥įà¤¤
Ġà¤ķà¥ĭà¤¯ à¤²à¤¾
Ġà¤ı à¤Ĥà¤Ĺ
Ġà¤ªà¥įà¤² à¥īà¤Ł
à¤¾à¤ĩà¤ķ à¥įà¤²
Ġà¤¬ à¤¿à¤¨
Ġà¤Ĺ à¤°à¥įà¤µ
Ġà¤¥ à¥Ī
à¥ĩà¤° à¤¿à¤¯à¤¨
à¤ħ à¤®à¥ĩà¤°à¤¿à¤ķà¥Ģ
Ġà¤¦à¥ĩà¤µ à¤¤à¤¾à¤ĵà¤Ĥ
Ġstud ents
à¤µ à¥ĩà¤¶
Ġà¤¸à¥ģà¤² à¤Ŀ
Ġà¤ªà¥įà¤°à¤ļ à¥ģà¤°
Ġà¤µà¤¿à¤¨à¤¾à¤¶ à¤ķà¤¾à¤°à¥Ģ
Ġà¤ªà¤° à¤µà¤¾à¤¹
Ġà¤Ĩà¤ª à¤°
Ġin it
Ġà¤¸à¥ģà¤¨ à¤µà¤¾à¤Ī
Ġà¤ķà¥ī à¤¨à¥įà¤¸
Ġdes cri
Ġà¤ľ à¤¡à¤¼à¥Ģ
à¤¬ à¤¾à¤¦
Ġd ate
ĠĠĠĠĠĠĠĠ ĠĠ
Ġà¤ľà¤¼ à¥įà¤¯à¤¾à¤¦à¤¾
à¤®à¥ĩà¤° à¤¿à¤ķà¤¾
Ġà¤Īà¤¸ à¥įà¤µà¥Ģ
Ġà¤ħà¤¬à¥įà¤¦ à¥ģà¤²
à¤ľà¤¼ à¥Ģ
à¥ĩà¤ª à¥įà¤Ł
Ġà¤ķà¥Īà¤² à¤Ĥà¤¡à¤°
ry pt
Ġà¤¨à¤¿à¤ķà¤² à¤¤à¥Ģ
à¥įà¤° à¤¹
Ġà¤¡à¥Ģ à¤ıà¤¨à¤ı
Ġà¤ķà¤¹à¤² à¤¾à¤¤à¤¾
Ġà¤®à¥ģà¤ķà¤¾à¤¬ à¤²à¥ĩ
Ġà¤®à¤ķà¥įà¤ĸ à¤¨
b on
à¥ĩ à¤¤à¤¾à¤ĵà¤Ĥ
Ġà¤ª à¤¾à¤Ĺà¤²
in ce
Ġfe ed
Ġstat ic
Ġà¤¸à¤¿à¤µ à¤¿à¤²
à¥§à¥¯à¥ ¯
Ġfam ily
Ġin si
Ġb ook
Ġà¤¨à¤¿à¤ķà¤Ł à¤¤à¤¾
Ġà¤ķà¤¸ à¥įà¤¬
à¤µ à¤¾à¤ģ
Ġà¤ķà¥Į à¤¶
Ġà¤®à¥ĩà¤ľà¤¬ à¤¾à¤¨
Ġà¤¦ à¤Ĥà¤¡
Ġà¤¦ à¤«à¤¨
Ġs yn
Ġl im
-à¤ªà¤¶à¥įà¤ļà¤¿à¤® à¥Ģ
is ed
à¥ĭà¤²à¥ī à¤ľ
Ġà¤¹à¤¿à¤® à¤¾à¤ļà¤²
Ġactiv ities
à¥įà¤° à¤¿à¤¯à¤¾
Ġà¤¬ à¥ĭà¤¨
à¤¿à¤¦ à¥įà¤°
Ġà¤µà¥ĩà¤¬à¤¸à¤¾à¤ĩà¤Ł à¥ĭà¤Ĥ
ĠThe y
ĠWor ld
Ġà¤ª à¤¾à¤ļà¤¨
à¤¸ à¤¿à¤¨
Ġà¤ªà¥įà¤° à¤ķà¥ĭà¤ª
en e
Ġa ir
Ġà¤¸à¥įà¤ª à¥ĭà¤°à¥įà¤Ł
Ġà¤ªà¥ģà¤¨ à¤°à¥įà¤ªà¥įà¤°
ĠTh ese
à¤® à¤¾à¤²
à¤« à¤¾à¤¦
Ġà¤¨à¤¿à¤ķ à¥ĭà¤²
Ġà¤īà¤®à¥įà¤®à¥Ģà¤¦ à¤µà¤¾à¤°à¥ĭà¤Ĥ
Ġà¤łà¤Ĥà¤¡ à¥Ģ
à¤ļà¥Ģ à¤¨à¥Ģ
Ġà¤ľà¥Ģ à¤¨à¥ĩ
Ġà¤®à¥Ī à¤°
Ġch ild
Ġà¤¤à¥įà¤° à¤¿à¤ª
Ġà¤²à¥ī à¤°
à¥ģà¤®à¥įà¤¬ à¤ķà¥Ģà¤¯
Ġà¤ľ à¤¿à¤Ĥà¤¦à¤Ĺà¥Ģ
à¤¦ à¤°à¥įà¤¦
à¤¯ à¤Ĥà¤¤à¥įà¤°
Ġà¤Ĩà¤ª à¤¸
Ġà¤ľà¥Ģ à¤¤à¥Ģ
Ġà¤ħà¤¡à¥įà¤¡ à¤¾
à¤¾à¤ĩà¤¯ à¤¾à¤ģ
G B
Ġà¤ľ à¥ĩà¤Ł
Ġà¤¦ à¤¤à¥įà¤¤
Ġà¤ı à¤¸à¥įà¤Ł
Ġt ry
Ġc lear
Ġà¤ĺ à¥ĭà¤Ĥà¤¸
Ġà¤ľà¥Ģà¤µ à¤¾à¤£à¥ģ
à¤¾à¤ļ à¥ģà¤¸
Ġà¤¡à¤¿à¤µ à¥Ģà¤ľà¤¨
à¤¾à¤¯ à¤¤à¥įà¤¤
-à¤ª à¥Ģ
Ġà¤īà¤ł à¤¾à¤ı
(à¤ķ à¥ĥà¤·à¥įà¤£à¤¾
Ù Ħ
Ġth ose
Ġà¤ķà¥ī à¤ªà¥Ģà¤°
à¤¬à¥įà¤° à¤¿à¤Ł
Ġà¤ħà¤¨à¥ģà¤® à¥ĭà¤¦
. length
Ġà¤ª à¥ĩà¤²
à¥Ģà¤µ à¤°
Ġà¤ıà¤® à¥įà¤¬
à¥ĩ à¤ªà¥Ģ
o ad
Ġà¤¬ à¤¾à¤ĺ
à¥ĩà¤¶ à¤¨à¥ĭà¤Ĥ
Ġà¤µà¤¿à¤ķ à¤¾à¤°à¥ĭà¤Ĥ
Ġà¤Ĩà¤µ à¥ĩà¤¶
Ġim age
Ġres ources
Ġquest ions
à¤¦ à¤°à¤²à¥Īà¤Ĥà¤¡
Ġà¤° à¥Īà¤Ĥà¤¡
à¤ķà¥įà¤° à¤¿à¤¯
ĠA meric
à¥ĩà¤¯ à¤°à¥Ģ
à¤ľà¥Ģà¤µ à¥Ģ
Ġà¤°à¤¸à¤¾à¤¯ à¤¨à¥ĭà¤Ĥ
Ġstate ment
à¤® à¥ĩà¤¨
Ġà¤ªà¤Ĥà¤ľà¤¾à¤¬ à¥Ģ
à¤¤ à¤¯à¤¾
Ġà¤ªà¥įà¤° à¥ĭà¤¡
in a
à¥ĭà¤¤ à¤¿à¤·
Ġà¤¤à¥ĩà¤² à¥ģà¤Ĺ
ĠHT TP
Ġà¤¨à¤¿à¤· à¥įà¤ªà¤ķà¥įà¤·
hen sive
à¤ħà¤Ĺ à¤²à¤¾
Ġà¤ªà¤¾à¤ķ à¤¿à¤¸à¥įà¤¤à¤¾à¤¨à¥Ģ
Ġà¤ķà¥īà¤ªà¥Ģà¤° à¤¾à¤ĩà¤Ł
Ġà¤«à¤¿à¤² à¥įà¤Łà¤°
Ġà¤ļà¤¾à¤Ĥ à¤¦à¥Ģ
Ġà¤ķà¥įà¤·à¤¤ à¤¿à¤Ĺà¥įà¤°à¤¸à¥įà¤¤
Ġà¤® à¥ĭà¤²
à¤« à¤¾à¤°à¥įà¤®
Ġà¤ªà¥įà¤°à¤¤à¤¿à¤¦ à¤¿à¤¨
" à¤ľà¤¬
n um
à¥ĩà¤¨ à¤°
Ġà¤ıà¤ķà¥įà¤¸ à¤ª
Ġà¤§à¥įà¤µ à¤¨
Ġà¤¸à¤®à¥įà¤¬ à¤Ĥà¤§à¤¿à¤¤
Ġsa f
Ġsug gest
p ri
il ar
Ġà¤¹à¤° à¤¿à¤¤
à¤¤à¤¨ à¥įà¤¤à¥įà¤°
Ġà¤¨à¤¿à¤ķà¤¾à¤² à¤¨à¤¾
Ġà¤ªà¤Ł à¥ĩà¤²
( à¤ĸ
i i
Ġà¤Ĺ à¤Ĥà¤¤
à¤ļ à¤Ĥà¤¦à¥įà¤°
Ġà¤ĩà¤¸ à¤ķà¥ĭ
Ġse curity
Ġà¤°à¥ĭà¤® à¤¾à¤Ĥà¤Łà¤¿à¤ķ
Ġà¤¶à¤¾à¤ĸ à¤¾à¤ĵà¤Ĥ
E T
à¤¶ à¥ĩà¤°
ĠS he
Ġà¤¨à¥įà¤¯à¥Ĥ à¥Ľ
Ġà¤ĩà¤¸à¥įà¤¤ à¥Ģ
Ġà¤®à¥ĩà¤Ł à¥įà¤°à¥ĭ
à¤¦ à¥ĩà¤¨
à¤²à¥Ģ à¤¨
Ġà¤ļà¤¾à¤¹ à¥ĩà¤Ĥà¤Ĺà¥ĩ
Ġà¤ļà¤² à¤¾à¤¤à¥ĩ
Ġà¤®à¤° à¤¾à¤łà¥Ģ
Ġà¤¨à¤®à¥Ĥ à¤¨à¥ĭà¤Ĥ
Ġ assi
Ġà¤Ł à¤¾à¤ĩ
à¤ħ à¤®
Ġre commend
Ġà¤¤ à¤Ĥà¤¬
Ġà¤¸à¥ģà¤Ŀà¤¾à¤µ à¥ĭà¤Ĥ
195 6
Ġsi ze
vers e
ĠJava Script
à¤ª à¥Ĥà¤¤
ĠS ing
Ġà¤µ à¤¾à¤¨
Ġà¤²à¤Ĺ à¤¾à¤Ī
Ġà¤¦à¥Ĥà¤° à¤¬à¥Ģà¤¨
Ġà¤µà¤¾à¤° à¥įà¤¤
Ġlear n
Ġcult ural
à¤¾à¤ļà¥ģà¤¸ à¥ĩà¤Łà¥įà¤¸
Ġà¤² à¤¿à¤¬
Ġm ar
Ġà¤¸à¤Ĥà¤µ à¥Ī
Ġà¤ļà¥Īà¤Ł à¤¬à¥īà¤Ł
Ġà¤¡à¥įà¤°à¤¾à¤ĩ à¤µà¤°
Ġà¤ķ à¤¸à¥įà¤Ł
Ġf ocus
à¤¾à¤ī à¤¥
Ġsystem s
Ġà¤ªà¤° à¤¿à¤®
à¤ķà¥įà¤· à¤®à¤¤à¤¾
Ġe lect
Ġà¤ķà¥ĭà¤¡ à¤¿à¤Ĥà¤Ĺ
if ied
Ġà¤¸à¥Ģà¤ĸ à¤¤à¥ĩ
Ġhtt ps
9 1
Ġo wn
Ġà¤¸à¤¹ à¤¾à¤¨à¥ģà¤Ń
Ġà¤µà¤¿à¤ļà¤¾à¤° à¤§à¤¾à¤°à¤¾
Ġà¤¸à¥ģà¤² à¥įà¤¤à¤¾à¤¨
Ġà¤§ à¤¬à¥įà¤¬
Ġaccur acy
- r
Ġà¤¦ à¤¯à¤¾à¤²
Ġà¤° à¤¿à¤®
à¥įà¤¡ à¤¿à¤Ĥà¤Ĺ
à¤ªà¥įà¤° à¤£à¤¾à¤²à¥Ģ
Ġà¤ĸà¥ĩà¤² à¤¨à¤¾
ist ic
Ġà¤ªà¥įà¤² à¤¾à¤¨
Ġà¤®à¤¾à¤² à¤¿à¤ķà¥ĭà¤Ĥ
à¤ķà¤¾à¤°à¥įà¤¬ à¤¨
8 2
Ġà¤¯ à¤¦à¥įà¤¯à¤ªà¤¿
Ġà¤¡ à¤¿à¤²
Ġà¤¬à¥įà¤°à¤¾à¤¹ à¥įà¤®à¤£
Ġà¤ĺà¥ģà¤Ł à¤¨à¥ĩ
Ġà¤° à¤¿à¤«
Ġwith out
Ġun til
Ġà¤®à¤¶ à¤¹à¥Ĥà¤°
Ġavail able
Ġà¤¸à¤Ĥà¤µà¥Ī à¤§à¤¾à¤¨à¤¿à¤ķ
Ġà¤¬ à¤ķ
Ġth ink
Ġto gether
Ġà¤ªà¥Īà¤° à¤¾à¤®à¥Ģà¤Łà¤°
Ġà¤¸à¤¤à¥įà¤¯ à¤¾à¤ªà¤¿à¤¤
Ġà¤ķà¤¿à¤° à¤¾à¤ı
Ġneg ative
n g
Ġà¤¥ à¤ķà¤¾à¤¨
à¥Ģà¤µ à¥Ģà¤¡à¥Ģ
Ġà¤®à¤¾à¤¨ à¤¤à¤¾
Ġà¤ķà¥ī à¤¨à¥įà¤«
Ġà¤®à¥ĩà¤² à¥ĩ
Ġcommun ication
à¤¶ à¥ĩ
Ġà¤¸à¥Ĥà¤¤à¥įà¤° à¥ĭà¤Ĥ
Ġà¤Łà¥įà¤°à¥Ī à¤«à¤¿à¤ķ
Ġà¤ķ à¤¿à¤²à¤¾
Ġà¤® à¥ĭà¤®
Ġà¤ª à¤¿à¤ļ
à¤¿à¤· à¥įà¤£à¥ģ
Ġà¤¨à¤µ à¤¾à¤ļà¤¾à¤°
Ġà¤ļà¤® à¥ĭà¤²à¥Ģ
Ġà¤ªà¤Ĥà¤ľ à¥Ģà¤ķà¥ĥà¤¤
Ġà¤¨à¤° à¥ĩà¤Ĥà¤¦à¥įà¤°
Ġà¤ĵà¤¹ à¤¿à¤¯à¥ĭ
à ½
à¤§ à¥ģà¤¨à¤¿à¤ķ
Ġà¤¨à¤¾à¤° à¤Ĥà¤Ĺà¥Ģ
Ġà¤ĸà¤¾à¤° à¤¿à¤ľ
Ġà¤Ĺ à¥ĭà¤µ
à¤¿à¤¸à¥įà¤Ł à¤¿à¤ķ
âĢį à¤¥
Ġchalleng es
Ġà¤īà¤ľà¥įà¤ľ à¥įà¤µà¤²
Ġà¤¯ à¤¾à¤Ĥà¤¤à¥įà¤°à¤¿à¤ķ
Ġà¤ļ à¤¤
Ġà¤°à¤¹ à¤¿à¤¤
Ġà¤ħà¤Ń à¤¯
Ġà¤«à¤¼à¤¿à¤²à¥įà¤® à¥ĭà¤Ĥ
Ġà¤¬à¤¾à¤ľ à¤¾à¤°à¥ĭà¤Ĥ
Ġà¤µ à¥Īà¤²
à¤¬ à¤°à¥įà¤¨
Ġà¤¸à¤°à¥įà¤¦ à¥Ģ
Ġà¤¸à¤® à¤ķà¤ķà¥įà¤·
à¤µà¥įà¤¯à¤ķà¥įà¤¤ à¤¿à¤Ĺà¤¤
Ġà¤ķ à¤Ľ
à¤¯ à¤¾à¤Ĺ
à¤¿à¤¯ à¤°à¥įà¤¸
ic ro
à¤ªà¥įà¤° à¤ķà¤¾à¤¶
à¤Ĥà¤¬ à¤Ĥà¤§à¤¿à¤¤
ab or
à¥ģà¤ı à¤Ĥ
Ġà¤ıà¤ª à¤¿à¤¸
l t
Ġà¤ī à¤°à¥įà¤µ
à¤¿à¤¨ à¥ĩ
à¤¾à¤ª à¥Ĥà¤°à¥įà¤£
Ġh ere
-à¤ľ à¤¿à¤¸
Ġà¤°à¤¿à¤ª à¤¬à¥įà¤²à¤¿à¤ķà¤¨
Ġà¤®à¤¾à¤ª à¤¦à¤Ĥà¤¡
Ġà¤ıà¤Ĥà¤ľ à¤¾à¤ĩà¤®
Ġà¤ķà¤®à¥įà¤¯ à¥ģà¤¨
à¤¿à¤ķ à¤°à¤£
à¥ģà¤ ĥ
à¤¾à¤ľ à¥ĭà¤Ĥ
à¤¿à¤¯à¤® à¤¿à¤¤
Ġà¤Ńà¥Ĥà¤® à¤¿à¤Ĺà¤¤
Ġà¤ķà¥ĭà¤²à¥ĩ à¤¸à¥įà¤Łà¥įà¤°à¥īà¤²
( data
Ġà¤ıà¤ķ à¤¤à¤¾
Ġà¤¯ à¤ķà¥Ģà¤¨
Ġà¤Ł à¤¾à¤īà¤¨
à¥ģà¤² à¥Ģ
Ġà¤¨à¥įà¤¯à¥Ĥ à¤Łà¥įà¤°
so ci
Ġà¤Ĩà¤°à¥ĭà¤ª à¥Ģ
Ġà¤¨à¤ķ à¤²à¥Ģ
Ġcount ries
Ġà¤² à¤¾à¤¯à¤ķ
Ġt ren
Ġà¤¦à¥ĭà¤¸à¥įà¤¤ à¥Ģ
Ġà¤®à¥ģà¤ķ à¤¦à¤®à¤¾
Ġà¤¬à¥Įà¤¦à¥įà¤§ à¤¿à¤ķ
à¤µ à¤¾à¤¸à¥Ģ
Ġà¤¨ à¤²à¥Ģ
ĠP h
In t
Ġà¤ĩà¤²à¥ĩà¤ķà¥įà¤Łà¥įà¤° à¤¿à¤ķ
Ġà¤µà¤¿à¤¯ à¤¤à¤¨à¤¾à¤®
Ġà¤ĩà¤¶ à¤¾à¤°à¤¾
à¤¸ à¤¿à¤²
Ġà¤° à¤¹à¥Ģà¤Ĥ
à¥ĭà¤§ à¤ķ
Ġà¤¸à¥ģà¤¨ à¤¾à¤Ī
Ġà¤¸à¤¤ à¤¤
Ġà¤ħà¤µà¤° à¥ģà¤¦à¥įà¤§
à¥ģ à¤¸à¤¾à¤°
al t
Ġre st
Ġà¤ľà¥ĭà¤ĸà¤¿à¤® à¥ĭà¤Ĥ
Ġà¤µà¤°à¥įà¤ľ à¤¿à¤¨à¤¿à¤¯à¤¾
à¤®à¤¿à¤ķ à¥įà¤¸
-à¤¦à¤¿à¤¸ à¤Ĥà¤¬à¤°
an ced
Ġà¤ªà¤¾à¤° à¥įà¤¶à¥įà¤µ
à¤ªà¥ģà¤° à¥ģà¤·
Ġà¤¬à¥ģà¤¦à¥įà¤§ à¤¿
Ġà¤¦à¥ģà¤· à¥įà¤ªà¥įà¤°
L P
à¤ķ à¥ĥà¤·à¥įà¤£
Ġà¤ª à¤¿à¤ľà¥įà¤ľà¤¾
à¤¡ à¤²
à¤¡ à¥ģ
Ġà¤¡ à¤¿à¤¸à¥įà¤ª
Ġà¤ħà¤Ĥà¤¤ à¤°à¥įà¤¦
196 3
oo p
Ġà¤ķà¥ĭà¤° à¤¿à¤¯à¤¾à¤Ī
Ġà¤¹à¥ģà¤¸ à¥Īà¤¨
Ġà¤² à¥ĩà¤«
Ġà¤ĩ à¤°à¥įà¤¦
Ġà¤« à¤Ĥà¤¡
Ġà¤®à¥ģ à¤¡à¤¼
Ġà¤®à¤¾à¤ª à¤¦à¤Ĥà¤¡à¥ĭà¤Ĥ
Ġà¤¸à¤®à¤¾à¤ªà¥įà¤¤ à¤¿
Ġà¤īà¤ªà¤¨ à¤¿à¤·à¤¦
' à¤¦
à¤¤ à¤ķà¥ĭà¤Ĥ
Ġà¤¹ à¤¡à¤¼
Ġà¤ī à¤Ĥà¤Ĺà¤²
à¤ľà¤¼ à¤¾
Ġà¤Ńà¤¾à¤Ĺ à¤¨à¥ĩ
Ġà¤¸à¤¾à¤Ĥ à¤¦à¥įà¤°
umb ers
Ġà¤®à¤° à¤¨à¥ĩ
alcul ate
Ġà¤ªà¥įà¤°à¤ķà¥įà¤·à¥ĩà¤ª à¤£
Ġà¤ľ à¤¾à¤¹
à¤Ł à¤ķà¤¾
à¤¾à¤§ à¤°
à¤¨ à¥ĭ
à¤¤ à¥įà¤¤à¤°
Ġà¤Ł à¥įà¤°à¥Ģ
Ġas k
Ġà¤ªà¥įà¤°à¤®à¤¾à¤£ à¤¿à¤¤
" f
à¤¨ à¤¾à¤¡à¥ģ
à¤¹à¤° à¥Ĥ
et er
Ġà¤ªà¥ĭ à¤·à¤¿à¤¤
ub y
à¤Ńà¥Ĥ à¤Ĺà¥ĭà¤²
( E
a per
Ġà¤ħà¤° à¥ģà¤£
196 1
Ġà¤¬à¥ī à¤¯
Ġà¤¸à¤¾à¤°à¥įà¤µ à¤Ńà¥Į
Ġà¤Ĺà¤¾à¤° à¤Ĥà¤Łà¥Ģ
à¥ģà¤² à¤¿à¤¨
Ġn ames
à¤¾à¤ĩà¤¡ à¤°
à¥¨à¥¦ à¥§à¥§
ard s
Ġà¤ªà¤Ł à¤¨à¤¾
Ġt er
Ġà¤°à¤ĸ à¤ķà¤°
à¤¿à¤£ à¥Ģ
Ġà¤¶à¥Ģ à¤Ł
pport un
p os
à¤ļ à¥Ģà¤¨
an e
à¥ĭà¤¹ à¤¾à¤ĩà¤¡à¥įà¤°
Ġà¤ķ à¤Ĥà¤¸
à¤Ĥà¤¤à¥įà¤° à¤£
à¥ĭà¤ª à¥įà¤²
Ġà¤ıà¤¨ à¤¿à¤®
Ġà¤µà¥įà¤¹ à¥ĩà¤²
Ġà¤ªà¥įà¤°à¤¾à¤£ à¤¿à¤¯à¥ĭà¤Ĥ
Ġeconom ic
Ġà¤Ĩà¤£ à¤µà¤¿à¤ķ
à¤¾à¤Ĥ à¤ķà¥ĭà¤Ĥ
Ġà¤ķà¥įà¤² à¥ĭà¤°
res pon
Ġà¤¸à¤¿à¤Ĥ à¤ļà¤¾à¤Ī
Ġà¤¬à¥ī à¤¬
à¤° à¥ĩà¤ĸ
Ġà¤Ń à¤¾à¤ĩà¤¯à¥ĭà¤Ĥ
à¤¾à¤¤ à¥ĭà¤Ĥ
à¤¾à¤Ĺ à¤¾à¤°
Ġà¤¸à¤¾à¤² à¥ĭà¤Ĥ
à¤²à¥įà¤² à¥Ģ
ĠD ef
à¤¿à¤ķà¤¿à¤¤ à¥įà¤¸à¤¾
( à¤ľà¥Ģ
Ġà¤® à¤¸à¥Ģ
Ġà¤µ à¤¾à¤¸
à¤¶ à¤¾à¤ķ
à¤«à¤¼ à¤¾à¤ĩà¤²
Ġsu re
Ġà¤¬à¥Īà¤ł à¤¨à¥ĩ
à¤īà¤¸ à¤¨à¥ĩ
à¤¾à¤«à¤¼ à¥Ģ
ĠCS V
Ġà¤¶ à¤¿à¤ª
f ace
Ġà¤ľ à¤°à¥įà¤¸à¥Ģ
Ġà¤² à¥Ĥà¤Ł
Ġà¤° à¤¾à¤§
Ġà¤ľà¥ĭ à¤¨à¥įà¤¸
Ġà¤¡ à¥ĭà¤°
à¤« à¥ĩà¤°
Ġà¤ķà¤¹ à¤¾à¤ĥ
Ġà¤ĵ à¤ķ
à¤°à¥įà¤¸ à¥įà¤Ł
Ġà¤ħà¤µà¤¿à¤¶à¥įà¤µ à¤¸à¤¨à¥Ģà¤¯
à¥Ī à¤¨à¥Ģ
Ġà¤ħ à¤¨à¥įà¤¨
à¤¾à¤¦ à¤¾à¤¬à¤¾à¤¦
Ġà¤ıà¤² à¤¨
Ġà¤ľà¤Ĺ à¤¤
Ġà¤¬ à¥ĭà¤¸
Ġà¤§ à¥ģà¤Ĥà¤§
à¤¤à¥įà¤¤ à¤¿à¤¯à¥ĭà¤Ĥ
Ġà¤° à¤¾à¤ĩ
Ġà¤¶ à¤¤à¥įà¤°
à¤¿à¤Ł à¤¿à¤µ
Ġtra ck
Ġà¤ªà¥įà¤°à¤¤à¤¿à¤·à¥įà¤ł à¤¾
Ġà¤¯à¥ĭ à¤¦à¥įà¤§
Ġbeh av
' à¤ª
i pp
Ġà¤¹ à¤¾à¤ĩà¤²
Ġà¤µ à¥ĥà¤¦à¥įà¤§
à¤¶ à¥įà¤¨
à¥ĩà¤· à¤ķ
Ġincre ase
à¤ªà¤¿à¤Ľ à¤²à¥ĩ
i um
u ro
Ġà¤ľ à¥ģà¤¨
à¥įà¤µ à¤°à¥įà¤¡
Ġà¤« à¥ĭ
Ġà¤µà¥Ī à¤¦à¤¿à¤ķ
à¤«à¤¼ à¥Ģ
à¤µà¤¿à¤ķà¤²à¥įà¤ª à¥Ģà¤¯
à¤¶à¥įà¤° à¥ĩà¤£
Ġà¤¸à¥ĩà¤Ĥ à¤¸à¤°
, à¤Ńà¤¾à¤°à¤¤
s et
à¤¹ à¤°à¤£
à¤Ĺà¥įà¤° à¤¸à¥įà¤¤
Ġà¤¹à¤¡à¥įà¤¡ à¤¿à¤¯à¥ĭà¤Ĥ
Ġà¤ħà¤§à¤¿à¤Ĺà¥įà¤° à¤¹à¤£
! =
à¤® à¤¯
Ġà¤µ à¤«à¤¾à¤¦
Ġà¤ļà¥Į à¤¥à¤¾
Ġà¤µà¥Īà¤ķà¥įà¤¸ à¥Ģà¤¨
Ġà¤ľ à¤¿à¤²
Ġà¤ľ à¤®à¥Ģ
Ġà¤Ł à¤¾à¤¯à¤°
ak en
Ġà¤µà¤¸à¥įà¤¤ à¥įà¤°
Ġà¤ķà¤¦à¤® à¥ĭà¤Ĥ
Ġpr ime
Ġt ag
à¥ĩà¤® à¥Ģ
Ġà¤®à¤¿à¤¶ à¤¿à¤Ĺà¤¨
Ġà¤ķà¥Īà¤² à¥įà¤¶à¤¿à¤¯à¤®
Ġà¤°à¥Īà¤Ĥà¤ķ à¤¿à¤Ĥà¤Ĺ
Ġà¤¹à¥Ī à¤¶
Ġà¤¬ à¤°à¥įà¤ķ
Ġt asks
Ġà¤ĸà¥ĭà¤ľ à¤¨à¤¾
Ġà¤ªà¥įà¤°à¤µ à¤ķà¥įà¤¤à¤¾
Ġà¤®à¥ĩà¤² à¤¾
P ython
Ġà¤¸à¤® à¤²à¥Īà¤Ĥà¤Ĺà¤¿à¤ķ
Ġà¤īà¤ª à¤¾à¤§à¥įà¤¯à¤ķà¥įà¤·
Ġà¤Ĺà¤¯ à¤¾à¤ĥ
9 3
c are
à¥ĩà¤¡ à¤°
Ġà¤ªà¥įà¤°à¤ķà¥įà¤° à¤¿à¤¯
Ġà¤µà¤¿à¤Ńà¤¾à¤Ĺ à¥ĭà¤Ĥ
Ġà¤ľà¤¾à¤² à¤¸à¥įà¤¥à¤²
Ġà¤¨à¤µà¥Ģ à¤¨à¥Ģà¤ķà¤°à¤£
Ġm ove
-à¤ªà¥įà¤° à¤¤
Ġà¤¥à¥ĭ à¤¡à¤¼à¥ĩ
Ġcol umn
Ġà¤ħà¤Ĺà¥įà¤¨ à¤¿
à¤¶ à¤¾à¤¹à¥Ģ
it ude
Ġà¤¬à¤¨ à¤¾à¤¯à¥ĩ
Ġà¤ªà¥įà¤°à¤¾à¤° à¤®à¥įà¤Ń
Ġà¤Łà¥ĩà¤² à¤°
Ġà¤®à¥ģà¤ķà¤¾à¤¬ à¤²à¤¾
à¤¨à¥ĩ à¤²
in ter
Ġm aint
à¥ĭà¤ķ à¤¸
Ġà¤Ĺà¥ģà¤ªà¥įà¤¤ à¤¾
Ġà¤ľà¥ĩà¤¸ à¤¨
Ġà¤¹ à¤¿à¤°à¤£
Ġà¤Ĩà¤¯ à¤¤à¤¨
Ġà¤µà¤¿à¤ķà¤¾à¤¸ à¤¶à¥Ģà¤²
Ġà¤µà¤°à¥įà¤£ à¥ĭà¤Ĥ
Ġpr ice
9 4
Ġà¤ķà¤¾à¤® à¤¯à¤¾à¤¬
em at
Ġà¤ªà¥įà¤¯ à¤¾à¤ľ
Ġfin ancial
à¥įà¤° à¤¿à¤ªà¥įà¤¶à¤¨
Ġà¤« à¥Ĥà¤¡
à¤¾à¤µ à¤¾à¤¸
âĢĻ s
Ġà¤¹à¤²à¥įà¤ķ à¥Ģ
Ġrequ ires
Ġà¤ĩà¤Ĥà¤Ł à¥ĩà¤²
à¤¦ à¥ģà¤¨à¤¿à¤¯à¤¾
Ġà¤ªà¤° à¤®à¥įà¤ª
à¤¾à¤¸à¥įà¤¤ à¤µ
Ġà¤¬à¤¦à¤² à¤¤à¥Ģ
Ġà¤¦à¤¿à¤µ à¥įà¤¯
à¥ģà¤ı à¤²
à¤¡ à¤¿à¤¯à¤®
à¤ľ à¥Īà¤¸à¥ĩ
à¤ĺ à¥įà¤°
Ġà¤®à¥ĩà¤ľ à¤°
Ġele ment
Ġà¤« à¥Īà¤ķà¥įà¤Ł
Ġb i
à¤¾à¤ļ à¤¾à¤°à¥Ģ
Ġha pp
Ġà¤ķà¥ĭà¤²à¥ĭà¤° à¤¾à¤¡à¥ĭ
Ġà¤Ĺ à¤¿à¤¨à¥Ģ
Ġà¤Ĺà¥įà¤° à¥ĩ
Ġà¤¸à¥įà¤Ł à¥ĩà¤ª
Ġà¤ħà¤µ à¤¤à¤¾à¤°
Ġà¤¸à¤¿à¤Ĥ à¤§
-------------------------------- --------------------------------
it er
Ġà¤¬à¤¢à¤¼ à¤¿à¤¯à¤¾
Ġà¤¸à¤®à¥Ģ à¤ª
à¤ħà¤¨ à¥ģ
Ġà¤²à¥ĩà¤¨ à¤¦à¥ĩà¤¨
Ġdat aset
à¤¶à¥Ģà¤°à¥įà¤·à¤ķ à¤ĥ
à¤²à¥Ģ à¤¸
à¤¡ à¥ī
à¤¿à¤ª à¤²
Ġà¤ĵ à¤¡
ĠI S
Ġà¤ıà¤ļ à¤Łà¥Ģ
Ġj son
Ġà¤¹à¤¿à¤Ĥ à¤¸à¤ķ
Ġà¤Ń à¤¿à¤ķ
Ġà¤¸à¤® à¥ģ
Ġà¤ħà¤¨ à¤Ĥà¤¤
à¤¸à¤Ĥ à¤ĺ
Ġà¤Ĺà¥Īà¤¸ à¥ĭà¤Ĥ
à¤¾à¤·à¥įà¤Łà¥įà¤° à¤ªà¤¤à¤¿
Ġà¤īà¤ªà¤ľ à¤¿à¤²à¤¾
Ġà¤ľà¤¿à¤¸ à¤®à¥ĩ
Ġà¤¶à¥įà¤° à¥ĥà¤Ĥà¤ĸà¤²
con st
Ġà¤ļà¤® à¤ķà¥Ģ
Ġà¤ªà¥įà¤°à¤Ĺ à¤¤
Ġà¤ħà¤£ à¥ģà¤ĵà¤Ĥ
ĠCS S
Ele ment
Ġà¤ıà¤ľà¥ĩà¤Ĥà¤¸ à¤¿à¤¯à¥ĭà¤Ĥ
Ġ Ð
Ġà¤ľ à¥Īà¤ķà¥įà¤¸à¤¨
Ġg ame
Ġà¤Ľà¥ĭà¤¡à¤¼ à¤¨à¤¾
à¥« à¥¦
Ġanaly z
Ġà¤®à¥Įà¤¸à¤® à¥Ģ
" B
à¤° à¥ĩà¤Łà¤°
Ġà¤ķà¥ĩ à¤¨à¥įà¤¦à¥įà¤°à¥Ģà¤¯
à¤¹à¥Ģ à¤¦
re es
en ge
Ġà¤®à¤¾à¤ĩà¤ķà¥įà¤°à¥ĭà¤¸ à¥īà¤«à¥įà¤Ł
Ġà¤¸à¥Ĥ à¤Ł
ĠA m
Ġà¤µà¤¿à¤ľ à¤¼
Ġà¤ķà¤¨à¥ĩà¤ķ à¥įà¤Ł
Ġà¤¶à¥Į à¤ļ
Ġà¤Ĺà¥Įà¤° à¤µ
Ġà¤¸à¥ĥ à¤ľà¤¨
d ing
à¤¹ à¤¤
Ġà¤¸à¤Ĥ à¤ķà¥Ģà¤°à¥įà¤£
à¥įà¤ł à¥Ģ
Ġà¤®à¥ĩà¤¡ à¤¿à¤¸à¤¿à¤¨
Ġà¤ļà¥ĩ à¤¨à¥įà¤¨à¤Ī
Ġend l
Ġà¤¸à¤Ĥà¤ļ à¤¯
Ġà¤ķà¤°à¥Ģ à¤¬à¥Ģ
Ġà¤¬à¤¾à¤ĩ à¤¬à¤²
Ġtrain ing
Ġà¤° à¤®
Ġl ove
Ġà¤ıà¤² à¤¿à¤ľ
Ġà¤Ĺà¥ģà¤² à¤¾à¤¬à¥Ģ
Ġà¤Ĺ à¥ģà¤®
Ġà¤ĸ à¤¾à¤¯à¤¾
Ġà¤¡ à¤¾à¤°
ĠD el
Ġà¤¸à¥įà¤Łà¥įà¤° à¥ĭà¤ķ
Ġà¤¸à¤¤à¥įà¤¯ à¤¾à¤ªà¤¨
Ġà¤ªà¥ģà¤¨à¤°à¥įà¤ªà¥įà¤° à¤¾à¤ªà¥įà¤¤
Ġf requ
Ġà¤®à¤¿à¤² à¤¾à¤¨
Ġà¤ķ à¤ļà¥įà¤ļà¥ĩ
à¤¬ à¥Ī
Ġà¤ļ à¤ķà¥įà¤ķà¤°
à¤ħ à¤µ
Ġà¤Ŀ à¤°
à¤®à¥ĩà¤° à¥ĩ
Ġam ount
Ġaccur ate
Ġà¤¬à¤¹à¥ģà¤® à¤¤
Ġà¤® à¤ļà¥įà¤Ľ
Ġà¤¬ à¥ģà¤¶
Ġà¤ıà¤ķ à¥įà¤¶à¤¨
Ġà¤¸à¥įà¤µ à¤¾à¤¯à¤¤à¥įà¤¤
Ġà¤®à¤¾à¤® à¥Ĥà¤²à¥Ģ
Ġext ract
Ġà¤ªà¥įà¤°à¤¤à¤¿à¤¸à¥įà¤¥ à¤¾à¤ªà¤¨
Ġà¤ªà¥įà¤°à¤¤à¤¿à¤¸à¥įà¤¥ à¤¾à¤ªà¤¿à¤¤
à¤¨ à¤µ
Ġà¤ķà¤¾à¤° à¥ĭà¤¬à¤¾à¤°
à¥¨à¥¦à¥§à¥ ª
Ġà¤ļà¥Īà¤Ĥà¤ª à¤¿à¤¯à¤¨
odi f
Ġà¤®à¤ľà¤¦ à¥Ĥà¤°
Ġexp lo
Ġequ ation
Ġà¤ĩ à¤¬
Ġà¤ªà¤° à¤¿à¤ķà¥įà¤°
Ġc ategor
Ġin cor
Ġà¤Łà¥įà¤¯à¥Ĥ à¤¬
- à¤¡à¥Ģ
à¤¿à¤Ł à¥įà¤ľ
ĠB e
Ġà¤µà¤¾à¤¯à¤° à¤²
à¤¶à¤¿à¤ķà¥įà¤· à¤ķ
Ġà¤®à¥Īà¤¸ à¤¾à¤ļà¥ģà¤¸à¥ĩà¤Łà¥įà¤¸
Ġà¤¶à¥Ĥà¤Ł à¤¿à¤Ĥà¤Ĺ
Ġà¤¶à¥ģà¤Ńà¤ķà¤¾à¤® à¤¨à¤¾à¤ıà¤Ĥ
à¤ªà¤Ĥà¤¥ à¥Ģ
à¥įà¤² à¥Ĥ
Ġà¤ĸà¥ģà¤¦ à¤°à¤¾
Ġà¤¬à¤¸ à¤¨à¥ĩ
Ġà¤ķà¥įà¤°à¤¿à¤¸à¥įà¤Ł à¤²
- p
at form
Ġof fer
ent al
Ġv ir
Ġà¤®à¥ĩà¤ľà¤¬ à¤¾à¤¨à¥Ģ
Ġà¤ıà¤ªà¤¿à¤¸ à¥ĭà¤¡
u k
Ġà¤ª à¤¬à¥įà¤²à¤¿à¤ķ
Ġà¤¬ à¤Ĥà¤§à¤¨
Ġà¤² à¥īà¤°à¥įà¤¡
Ġà¤°à¥Ĥà¤ª à¤°à¥ĩà¤ĸà¤¾
Ġà¤ķà¤® à¤²
Ġà¤®à¤¾à¤¨ à¤¦à¤Ĥà¤¡
à¥Ģà¤¯ à¥Ĥ
à¤¸à¥įà¤ķ à¥Ģ
à¤¸à¥įà¤ķ à¥Ĥà¤²
Ġà¤¸à¤Ĥà¤° à¤ļà¤¨à¤¾à¤¤à¥įà¤®à¤ķ
Ġà¤¦à¥ģà¤ķ à¤¾à¤¨à¥ĭà¤Ĥ
Ġà¤¸à¤ļà¥įà¤ļ à¤¾à¤Ī
à¤¿à¤ ħ
Ġà¤µà¥įà¤¯à¤¾à¤ªà¤¾à¤° à¤¿à¤ķ
Ġà¤¸à¥ģà¤ĸ à¤¦
à¤¸ à¥ĩà¤Ĥà¤Ł
Ġà¤¸à¤® à¤¤à¤²
à¤¾à¤µ à¤¤à¥Ģ
Ġà¤«à¥Ī à¤²à¥Ģ
Ġà¤¬ à¤§
si c
Ġà¤Ĭ à¤·à¥įà¤®à¤¾
Ġà¤Ĭ à¤¤à¤ķà¥ĭà¤Ĥ
Ġcom e
Ġà¤ļà¥Į à¤ķ
Ġà¤«à¤¼à¤¿à¤²à¥įà¤® à¥ĩà¤Ĥ
Ġà¤®à¥Īà¤¦à¤¾à¤¨ à¥ĭà¤Ĥ
Ġà¤®à¤°à¥Ģà¤ľ à¥ĭà¤Ĥ
Ġà¤¦à¥ģà¤·à¥įà¤ªà¥įà¤° à¤Ńà¤¾à¤µ
' à¥¤
I T
Ġ ed
Ġà¤Ń à¥ĭà¤ľ
Ġà¤Ľ à¤¾à¤¤à¥Ģ
à¤ĳ à¤¸à¥įà¤Łà¥įà¤°à¥ĩà¤²
Ġmean ing
à¤¯ à¤¾à¤ª
Ġà¤¤ à¥ĩà¤ľà¤¼
Ġà¤īà¤¤à¥įà¤ª à¤°
Ġà¤ķà¤¾à¤°à¥įà¤¯ à¤µà¤¾à¤¹à¥Ģ
Ġà¤ķà¥īà¤® à¥ĩà¤¡à¥Ģ
Ġà¤¬à¤¿à¤¤ à¤¾à¤¯à¤¾
à §
Ġà¤¬ à¤¾à¤¸
à¤¿à¤¯ à¤¾à¤°
à¤Ĥà¤ľ à¤ķ
à¥ĥà¤¥ à¥įà¤µà¥Ģ
Ġà¤®à¤¾à¤ª à¤¨
Ġart icle
à¤µà¤¿à¤· à¤¯
ist ics
Ġà¤¸à¤®à¤°à¥įà¤¥ à¤ķ
Ġà¤¹à¥ĩà¤² à¥įà¤¥
Ġà¤ªà¥įà¤°à¤¾à¤µ à¤§à¤¾à¤¨
- à¤ĺ
à¤¶ à¥ģà¤°
-à¤Ĺ à¤¿à¤°à¥įà¤¦
Ġev ent
Ġà¤¸à¤Ĥà¤¸à¤¦ à¥Ģà¤¯
Ġsever al
Ġà¤¨ à¤®à¥Ģ
Ġfil ter
Ġg ra
- à¤¸à¥įà¤¥à¤¿à¤¤à¤¿
Ġà¤Ł à¥Īà¤Ĥà¤ķ
Ġà¤Łà¥Ĥà¤Ł à¤¨à¥ĩ
| ----------------
Ġo pportun
à¤¸à¥įà¤Ł à¤¾à¤°
à¤¾à¤°à¥įà¤¥ à¤¿à¤¯à¥ĭà¤Ĥ
Ġeffect s
Ġà¤«à¤¿à¤Ł à¤¨à¥ĩà¤¸
.j pg
d is
Ġà¤§ à¤ķà¥ĩà¤²
à¥ĩà¤¦ à¥Ģ
Ġà¤¸à¥įà¤¥à¤¾à¤¨ à¤¾à¤Ĥà¤¤à¤°à¤£
Ġà¤«à¥Ī à¤²à¥ĩ
Ġà¤ªà¤Ĥà¤ļ à¤¾à¤Ĥà¤Ĺ
Ġà¤µà¤¿à¤ķà¥įà¤Ł à¥ĭà¤°à¤¿à¤¯à¤¾
Ġà¤¸ à¤°à¤£à¥Ģ
à¤¾à¤° à¥įà¤ľ
Ġà¤µà¤¿à¤¨ à¤¿à¤°à¥įà¤®à¤¾à¤£
à¤¤à¤¾à¤ª à¥Ĥà¤°à¥įà¤£
" H
O R
Ġà¤Ń à¥ģ
Ġà¤Ĺà¥ģà¤² à¤¾à¤¬
Ġà¤¯ à¤¾à¤ļ
à¤¾à¤µ à¤¶à¥įà¤¯à¤ķ
Ġà¤¬à¤¤ à¤¾à¤ıà¤ģ
à¤°à¥įà¤Ĺ à¤¨
Ġsu st
Ġà¤®à¥ģà¤Ŀ à¤¸à¥ĩ
Ġà¤° à¤¾à¤ĩà¤Ł
à¤¾à¤ľ à¤¿à¤¤
Ġà¤¸à¥ģ à¤ª
à¥Īà¤ķ à¥įà¤Łà¤°
Ġà¤¨à¥ī à¤°à¥įà¤¥
Ġà¤¸à¤Ĥà¤¹ à¤¿à¤¤à¤¾
. D
à¥Ĥà¤¸ à¤°à¥Ģ
Ġare as
Ġvi ew
Ġprovid ed
Ġà¤® à¥ĩà¤µ
Ġà¤¤ à¤Ĥà¤Ĺ
à¤¾à¤¡ à¥ĩà¤²à¥įà¤«
Ġà¤ħà¤Ĥà¤Ĺ à¥Ĥà¤ł
Ġr ate
Ġà¤ļà¥Ĥà¤¹ à¥ĩ
Ġà¤Ńà¤¿à¤ķ à¤¿à¤¯à¤¾à¤¸
a f
m a
à¤ĩà¤¸ à¤®à¥ĩà¤Ĥ
Ġà¤ķà¤¿à¤¨ à¤¾à¤°à¥ĭà¤Ĥ
à¥įà¤µ à¤¾à¤°
Ġappro pri
Ġcomput er
à ª
Ġà¤ķ à¥įà¤°à¥Ģ
Ġà¤¦ à¤¾à¤¦à¤¾
à¥ģà¤· à¥įà¤ª
Ġà¤ķà¥ĭà¤¶ à¤¿à¤ķà¤¾à¤ıà¤ģ
ĠG iven
Ġà¤°à¤¾à¤¯ à¤Ĺà¤¢à¤¼
Ġà¤¬ à¤¿à¤¨à¥įà¤¦
Ġà¤° à¤Ĺ
Ġà¤°à¤¾à¤ľ à¤ªà¥Ĥà¤¤
Ġà¤¬à¤¿à¤ľ à¤¨à¥ĩà¤¸
Ġà¤¸à¤¾à¤¹ à¤¸
Ġà¤ľà¤¯ à¤ªà¥ģà¤°
Ġà¤¬à¥įà¤°à¤¾à¤ī à¤ľà¤¼à¤°
Ġà¤¶à¤¾à¤ķ à¤¾à¤¹à¤¾à¤°à¥Ģ
à¥ĩà¤Ĥ à¤¶
à¤¾à¤® à¤Ĥà¤¡à¤²
Ġà¤§ à¤¾à¤°à¥Ģ
Ġà¤ªà¥įà¤°à¤¦ à¥Ĥ
Ġstr ong
Ġà¤¨à¤¦ à¤¿à¤¯à¤¾à¤ģ
à¤ªà¥ģà¤¸à¥įà¤¤ à¤ķ
O S
à¤¬ à¥īà¤ķà¥įà¤¸
Ġà¤¸à¤¹ à¤¾à¤°à¤¾
Ġà¤ķà¥Ī à¤®à¥įà¤¬
Ġà¤ªà¥įà¤°à¥Įà¤¦à¥įà¤¯à¥ĭà¤Ĺ à¤¿à¤ķà¤¿à¤¯à¥ĭà¤Ĥ
à¤ªà¤¨ à¤¿à¤µà¥ĩà¤¶
Ġà¤ļà¥Īà¤®à¥įà¤ª à¤¿à¤¯à¤¨à¤¶à¤¿à¤ª
Ġappropri ate
Ġà¤² à¥ĩà¤ľà¤°
à¤¯ à¤¾à¤®à¥Ģ
Ġà¤ħà¤ª à¤µà¤¾à¤¦
Ġo cc
Ġà¤Ľ à¤¿à¤¡à¤¼
ve y
Ġà¤Ĩà¤¦ à¤¤à¥ĭà¤Ĥ
Ġà¤µà¤¿à¤µà¤¾à¤¦ à¤¾à¤¸à¥įà¤ªà¤¦
( à¤ĵ
Ġà¤ıà¤² à¤¿à¤¸
Ġà¤ļà¥ģà¤¨ à¤¨à¤¾
Ġà¤²à¥ĩà¤Ł à¥ĩà¤ķà¥įà¤¸
Ġsit u
\ end
g g
à¥ģ à¤ķà¤¾
à¤Ĺ à¤°à¥Ģ
Ġà¤Ł à¥Ĥà¤°
Ġà¤¬à¤¤ à¤¾à¤ı
Ġà¤¨à¤¿à¤Ń à¤¾à¤¤à¥ĩ
(à¤ı à¤ļ
Ġà¤īà¤¦à¥įà¤§ à¥ĥà¤¤
Ġà¤ķ à¤¾à¤¬
Ġà¤¶à¥įà¤° à¤µà¤£
Ġà¤ľà¥Ģà¤µà¤¨ à¤ķà¤¾à¤²
Ġà¤Ĩà¤¦ à¤¾à¤¨
Ġà¤Ńà¤¿à¤ķà¤¿à¤¯à¤¾à¤¸ à¥Īà¤£
à¤Ł à¥ĩà¤¨
an n
Ġà¤¡ à¥Ģà¤µà¥Ģà¤¡à¥Ģ
Ġl and
Ġà¤µà¥ĭà¤²à¥įà¤Ł à¥ĩà¤ľ
- à¤ķà¥ĩ
Ġà¤¢ à¤ķ
ĠW ith
195 5
Ġqu ery
Ġà¤¬à¥Īà¤Ĥà¤ķ à¤¿à¤Ĥà¤Ĺ
Ġà¤¹à¥Īà¤Ĥà¤¡ à¤²
Ġà¤¡à¥ĭà¤® à¥ĩà¤¨
Ġà¤¸à¤¾à¤°à¥įà¤µà¤Ńà¥Į à¤®à¤¿à¤ķ
à¤¨ à¤¾à¤°
Ġà¤ľ à¤µ
Ġà¤ļ à¤¾à¤ģ
à¥įà¤¥ à¤¾à¤¨
Ġà¤Ĩà¤¯ à¥ģà¤ķà¥įà¤¤
Ġà¤¸à¥ģà¤° à¤Ĥà¤Ĺ
à¤ļà¥ĩ à¤¤
Ġà¤ķà¥įà¤µ à¤¾à¤°
Ġà¤ªà¥Ĥà¤Ľ à¥ĩà¤Ĥ
Ġà¤§à¤® à¤¨à¥Ģ
W h
Ġà¤ľ à¤¿à¤ľà¥įà¤ŀ
Ġà¤Ńà¥ĩà¤ľ à¥ĩ
Ġà¤īà¤² à¤Ł
Ġfil m
Ġà¤«à¥Ģà¤¸ à¤¦à¥Ģ
( -
\ begin
Ġà¤ į
à¤² à¥ĭà¤Ĺ
à¤Ĥà¤¡ à¥ĩ
ver all
Ġà¤ªà¤¤ à¤²à¥Ģ
Ġà¤ľ à¤¶à¥įà¤¨
Ġà¤Ĺ à¥ĭà¤®
à¤¸à¤® à¤¯
ist s
Ġà¤¶à¥ģà¤ķ à¥įà¤²
à¤¿à¤ķ à¤°
Ġà¤ĩ à¤ľ
Ġà¤¸à¤® à¤¾à¤ªà¤¨
Ġà¤ĸ à¤Ĺà¥ĭà¤²à¥Ģà¤¯
Ġà¤ħà¤¨ à¥ĭ
Ġà¤®à¥Ī à¤Ł
Ġà¤¦à¤¿à¤ĸ à¤¾à¤ı
Ġà¤¦à¤¿à¤ĸ à¤¾à¤¤à¥ĩ
Ġà¤ķà¤° à¥Ĥà¤ģ
is sion
Ġf ac
Ġà¤Ĺà¥ģà¤ľà¤° à¤¨à¥ĩ
Ġcomp re
Ġà¤īà¤¤à¥įà¤ªà¥Ģ à¤¡à¤¼à¤¨
Ġà¤¯ à¥īà¤°à¥įà¤ķ
à¤¾à¤¬ à¥įà¤¦à¤¿à¤ķ
Ġà¤īà¤¦ à¤¾à¤¸
o in
à¤¬ à¤°à¥Ģ
Ġà¤ļà¤®à¥įà¤ª à¤¾à¤µà¤¤
à¥įà¤¯à¥ĭà¤Ĥ à¤ķà¤¿
à¥¨ à¥§
ass word
p ublic
Ġsust ain
à¤¿à¤® à¥įà¤®
Ġà¤¸à¥įà¤µ à¤¦à¥ĩà¤¶à¥Ģ
Ġà¤®à¤Ĥà¤¦à¤¿à¤° à¥ĭà¤Ĥ
Ġà¤ķà¤¾à¤°à¥įà¤¬ à¥ĭà¤¹à¤¾à¤ĩà¤¡à¥įà¤°
Ġà¤Łà¥ĩà¤®à¥įà¤ª à¤²à¥ĩà¤Ł
Ġà¤ķà¥ĭ à¤®à¤²
Ġà¤ķà¥Ģ à¤¡à¤¼à¥ĩ
à¤¾à¤¦ à¤¨
ĠM y
à¤ªà¥ģà¤° à¤¾
ang le
Ġà¤«à¤¿à¤² à¤¿à¤ª
ony ms
Ġà¤¸à¥įà¤Ł à¤¾à¤°à¥įà¤Ł
à¤¸à¥įà¤µ à¤¾à¤¸à¥įà¤¥à¥įà¤¯
Ġà¤®à¥īà¤¡à¤² à¤¿à¤Ĥà¤Ĺ
Ġrequ est
Ġà¤¸à¥įà¤µà¥Ģà¤¡ à¤¨
(à¤ħà¤¨ à¤Ĥà¤¤à¤ªà¥ģà¤°
Ġ à¥
Ġà¤¯ à¤¾à¤¨à¤¿
à¥ĩà¤Ł à¤¿à¤µ
Ġà¤Łà¥Ģ à¤ķà¥ĩ
Ġbe aut
Ġà¤¶à¥ĭ à¤·à¤£
Ġindust ry
a e
Ġà¤ķ à¤¿à¤®
Ġà¤µ à¤¾à¤Łà¤°
Ġà¤° à¤¾à¤ķà¥įà¤·
Ġà¤ĩ à¤µà¥ĩà¤Ĥà¤Ł
Ġà¤§ à¤°à¥ĭ
Ġcon clusion
Ġà¤ħà¤ķ à¤¬à¤°
Ġà¤®à¥ģà¤¦à¥įà¤° à¤¿à¤¤
" t
Ġà¤¦ à¤¾à¤®
à¥ĩà¤Ł à¥įà¤°
à¤¥ à¤¿à¤¤
Ġà¤¸à¤¾à¤° à¥įà¤¥
Ġà¤°à¥ĩà¤¡ à¤¿à¤¯
ĠSing h
H ere
Ġà¤¤ à¤¾à¤¨
Ġf alse
Ġw rite
Ġà¤µà¤¿à¤¶à¥įà¤µà¤µà¤¿à¤¦à¥įà¤¯à¤¾à¤²à¤¯ à¥ĭà¤Ĥ
Ġà¤Ł à¥ĭà¤°
Ġà¤¸à¤Ĥà¤¦à¤°à¥įà¤Ń à¤ĥ
" à¤ķà¥įà¤¯à¤¾
. ]:
Ġà¤ķ à¥įà¤°à¥Ģà¤®
à¥ĭ à¤Ĩ
Ġà¤° à¥ĩà¤«
or ing
Ġà¤¦à¥Ĥ à¤·à¤¿à¤¤
Ġsuccess ful
Ġà¤Ĩ à¤¶à¥Ģ
Ġh ome
Ġà¤ªà¥Ģ à¤²à¤¾
Ġà¤¨à¤¿à¤ķ à¤¾à¤¸à¥Ģ
un c
Ġà¤¸à¤Ĥà¤° à¤ļà¤¨
Ġà¤¸à¤¦ à¤¿à¤¯à¥ĭà¤Ĥ
ĠF inally
Ġà¤ķà¥Īà¤Ĥ à¤ª
Ġà¤¸à¤ª à¤¨à¥ĭà¤Ĥ
Ġà¤ªà¥įà¤°à¤Ń à¤¾à¤°à¥Ģ
à¥ĩà¤Ĩ à¤īà¤Ł
Ġphysi cal
à¤ľ à¥ģà¤Ł
à¥¨ à¥©
Ġeff icient
à¤¾à¤¡à¥ĩà¤²à¥įà¤« à¤¿à¤¯à¤¾
Ġà¤ļà¥ģ à¤ª
à¥ģà¤ª à¤¯à¥ĭà¤Ĺ
Ġà¤ħà¤ªà¤° à¥įà¤¯à¤¾à¤ªà¥įà¤¤
"à¤¦ à¥ĭ
Ġenvironment al
Ġmon th
Ġc r
à¤°à¥įà¤µ à¥ĩ
Ġà¤ħà¤¤ à¤¿à¤¥à¤¿
Ġà¤Ĩà¤°à¥įà¤¥ à¤°
Ġinclud es
Ġà¤®à¤ķ à¤Ī
Ġà¤ħà¤ľ à¤¯
Ġrec ogn
Ġà¤ľ à¤Ĥà¤ķà¥įà¤¶à¤¨
it ch
à¤īà¤¨ à¤ķà¥Ģ
Ġà¤ªà¤¤à¥įà¤¤ à¤¿à¤¯à¥ĭà¤Ĥ
Ġà¤ħà¤¨à¥ģà¤¶à¤Ĥà¤¸ à¤¿à¤¤
Ġà¤¸à¤¾à¤Ĥà¤¦à¥įà¤° à¤¤à¤¾
Ġà¤§à¤°à¥ĭ à¤¹à¤°
à¤µ à¤¦
à¤¾à¤ķ à¤¾à¤Ĥ
Ġà¤¸à¤Ĥà¤° à¤ķà¥įà¤·à¤ķ
Ġà¤ħà¤§à¥įà¤¯à¤ķà¥įà¤· à¤¤à¤¾
à¤ªà¥Ĥà¤°à¥įà¤µ à¥Ģ
Ġà¤¸à¤®à¥įà¤¬à¤¨à¥įà¤§ à¤¿à¤¤
Ġà¤®à¥ģà¤¸à¤²à¤®à¤¾à¤¨ à¥ĭà¤Ĥ
Ġà¤®à¥ĭà¤Łà¤¾à¤ª à¥ĩ
. in
g ing
Ġà¤¬ à¤¾à¤Ĥà¤Ĺà¥įà¤²à¤¾
Ġà¤Ĺ à¥ģà¤Ł
un k
Ġà¤®à¥ģ à¤Ĺà¤²
Ġà¤¨à¤¾à¤° à¤¾à¤ľ
Ġà¤°à¤¿à¤¸ à¤¾à¤µ
Ġà¤ķà¤ļ à¤°à¤¾
Ġmark et
Ġà¤Ń à¤¾à¤ª
Ġf our
Ġà¤Ī à¤°à¤¾à¤¨à¥Ģ
à¤¿à¤¸à¥įà¤Ł à¥įà¤°
Ġà¤¸à¤°à¥įà¤µ à¤¿à¤¸
Ġà¤¸à¤¾à¤®à¤¾à¤¨à¥įà¤¯ à¤¤à¤ĥ
Ġà¤ªà¥įà¤°à¤¤à¤¿à¤¸à¥įà¤ªà¤°à¥įà¤§ à¥Ģ
Ġà¤¤à¤² à¤¾à¤ķ
Ġdif f
" à¤ĩ
Ġà¤ª à¤¿à¤¯à¤¾à¤¨à¥ĭ
st ance
Ġst ep
ific ial
Ġà¤ļà¤°à¤¿à¤¤à¥įà¤° à¥ĭà¤Ĥ
à¤Ĥà¤ľ à¤¾
Ġà¤¸à¥ĭ à¤¡à¤¿à¤¯à¤®
Ġdo es
Ġdisc us
Ġà¤¬à¤¿à¤²à¥įà¤² à¤¿à¤¯à¥ĭà¤Ĥ
Ġa ction
Ġà¤¸à¤¬ à¤ķ
Ġà¤ªà¥Ģ à¤¢à¤¼à¤¿à¤¯à¥ĭà¤Ĥ
ĠI s
Ġà¤ªà¥ģ à¤°à¥Ģ
à¥įà¤Ĺà¥ĭà¤° à¤¿à¤¥
ĠGo ogle
Ġpoint s
Ġà¤ªà¥ĩà¤Ĥà¤¸à¤¿à¤² à¥įà¤µà¥ĩà¤¨à¤¿à¤¯à¤¾
Ġfeed back
Ġà¤ªà¤°à¤¿à¤ķà¥įà¤° à¤®à¤¾
Ġ ant
Ġà¤¸à¤Ĥ à¤ķà¥įà¤°à¤¾à¤®à¤ķ
à¤¸à¥įà¤¤ à¤°à¥Ģà¤¯
Ġà¤¬à¥įà¤° à¤¿à¤ľ
Ġqu ick
Ġà¤īà¤ªà¤ľ à¤¿à¤²à¥ĩ
Ġloc al
Ġà¤¬à¥ĩà¤° à¥ĭà¤ľ
Ġà¤Ńà¤¿à¤¨à¥įà¤¨ à¤¤à¤¾
Ġà¤¸à¥įà¤¤à¤¨ à¤§à¤¾à¤°à¥Ģ
Ġloc ation
à¤ªà¤°à¤¿à¤ļà¤¯ à¤ĥ
Ġà¤ķ à¥ģà¤ķ
à¤ª à¤Ĥà¤ļ
à¤Ĺ à¥įà¤µ
Ġà¤¬ à¤¿à¤¶à¤ª
Ġà¤ļ à¥ĭà¤°
Ġà¤ļ à¥Īà¤¨
Ġà¤ķà¤® à¤¾à¤¨
Ġà¤¶à¥Ģ à¤ĺà¥įà¤°
Ġà¤ªà¥įà¤² à¥ĩà¤¸
Ġwe ight
Ġà¤ªà¥įà¤°à¤¤à¥įà¤¯à¤¾à¤° à¥ĭà¤ªà¤£
Ġà¤¨ à¤¾à¤¯
Ġd id
Ġà¤¸à¥ĭ à¤ļà¤¨à¤¾
à¥¨à¥¦ à¥§à¥¦
Ġà¤ļà¤¾à¤ª à¤²
Ġà¤ħà¤Ĥà¤¤à¤°à¥įà¤¦ à¥ĥà¤·à¥įà¤Łà¤¿
( e
Ġà¤² à¤¿à¤Ł
Ġà¤¤ à¤¾à¤¤
à¤ħ à¤§à¥įà¤¯
Ġà¤ªà¤¾à¤° à¥įà¤¸
Ġà¤Ĩà¤Ī à¤ªà¥Ģ
Ġà¤¸à¤Ĥà¤Ĺ à¤®
Ġà¤« à¤¿à¤ľ
Ġà¤¨à¤¿à¤ķ à¤²à¤¾
| align
à¤ ĵà¤Ĥ
Ġà¤ª à¤¿à¤¤
à¤µ à¤¿à¤ľ
Ġà¤Ĺ à¤¾à¤ľ
or m
Ġà¤ķà¥Ī à¤¸
-à¤µ à¤°à¥įà¤¤à¤®à¤¾à¤¨
Ġà¤ķà¤Ł à¥įà¤Łà¤°
Ġà¤ªà¥įà¤°à¤Ĺà¤¤ à¤¿à¤¶à¥Ģà¤²
à¤¸ à¤¦
Ġà¤² à¤¾à¤¤à¤¾
Ġà¤¸à¤ķ à¥ĩà¤Ĥà¤Ĺà¥ĩ
à¤Ĥà¤¡ à¤²à¥Ģà¤¯
Ġà¤īà¤²à¥įà¤² à¤¿à¤ĸà¤¿à¤¤
à¤¸à¤Ĥ à¤¹à¤¾à¤°
Ġà¤¤à¤¿à¤¥ à¤¿à¤ĥ
à¤ª à¥ĩà¤ľ
à¤¾à¤¸ à¤¿à¤ķ
at ic
Ġà¤¡ à¤¿à¤¶
Ġà¤Ĺà¥įà¤° à¤¾à¤īà¤Ĥà¤¡
Ġà¤ªà¥įà¤°à¤Ńà¤¾à¤µ à¤¶à¥Ģà¤²à¤¤à¤¾
à¤Ĥà¤ļ à¤¿à¤¤
Ġà¤ªà¥įà¤°à¤¾à¤ªà¥įà¤¤ à¤ķà¤°à¥įà¤¤à¤¾
Ġcont rib
à¤¾à¤Ĺà¥įà¤° à¤¹
à¥ģà¤®à¥įà¤¬ à¤Ī
Ġà¤Ĩà¤Ń à¤¾à¤¸à¥Ģ
" (
Ġà¤ľà¤² à¤¨
Ġà¤¬à¤¦à¤² à¤¤à¤¾
-à¤ªà¥įà¤° à¤¦à¤¾à¤¨
Ġà¤īà¤¨à¥įà¤¨ à¤¯à¤¨
Ġà¤ħà¤²à¥ĩà¤ķà¥įà¤ľ à¥ĩà¤Ĥà¤¡à¤°
A r
Ġà¤¸à¥įà¤µ à¥Ģà¤ķà¥ĥà¤¤à¤¿
Ġà¤¸à¤Ĥà¤ļ à¤°à¤£
sit ion
Ġà¤Ĩà¤µà¤¾à¤¸ à¥Ģà¤¯
à¥ĭà¤Ĥ à¤ķ
Ġà¤µà¤¿à¤¶à¥įà¤µ à¤ķà¥ĭà¤¶
Transl ation
In dex
Ġà¤¹à¤¾à¤° à¥įà¤µà¤°à¥įà¤¡
Ġà¤µà¤¿à¤Ĥà¤¡ à¥ĭà¤ľ
Ġà¤ªà¤¶ à¥ģà¤ĵà¤Ĥ
Ġà¤®à¤¹à¤¤à¥įà¤¤à¥įà¤µ à¤ªà¥Ĥà¤°à¥įà¤£
Ġà¤ªà¥įà¤°à¤¤à¤¿à¤¦à¥įà¤µà¤Ĥà¤¦ à¥įà¤µà¥Ģ
g an
à¤Ł à¤¿à¤ķà¤¾
Ġà¤ħà¤ª à¤¹à¤°à¤£
Ġà¤ķà¥ĭà¤¶ à¤¿à¤ķà¤¾à¤ıà¤Ĥ
Ġà¤ĳà¤Ł à¤¿à¤ľà¥įà¤®
Ġà¤°à¥ģà¤Ŀ à¤¾à¤¨à¥ĭà¤Ĥ
(à¤¸à¥įà¤Ł à¥ĩà¤¶à¤¨
à¤Ĥà¤Ĺ à¤°
à¤Ĩ à¤µ
Ġà¤¨à¥Ģ à¤¦à¤°à¤²à¥Īà¤Ĥà¤¡
Ġà¤ķà¤°à¤µ à¤¾à¤¯à¤¾
à¤ªà¥ģà¤² à¤¿à¤¸
Ġà¤ļà¤¾à¤ªà¤² à¥Ĥà¤¸à¥Ģ
Ġà¤® à¥ĩà¤ķ
Ġre view
g es
à¥ģà¤Ń à¤¾à¤·
à¥įà¤« à¤¼
Ġà¤ĩà¤Ĥà¤¡ à¥ĭà¤¨à¥ĩà¤¶à¤¿à¤¯à¤¾
Ġà¤Ĩà¤¤à¤Ĥà¤ķ à¤µà¤¾à¤¦à¥Ģ
Ġà¤°à¤¾à¤ľà¤ķà¥ģà¤® à¤¾à¤°à¥Ģ
Ġà¤« à¥ĩà¤²
à¤ªà¥įà¤° à¤¯à¤¾à¤Ĺ
à¤ķà¤° à¤¾à¤°
Ġà¤¸à¥įà¤¥à¤¾à¤¨ à¤¿à¤ķ
Ġà¤Ŀ à¥ģà¤Ĥà¤¡
Ġà¤¯à¥Įà¤Ĺ à¤¿à¤ķà¥ĭà¤Ĥ
Ġà¤¸à¤¶ à¤¸à¥įà¤¤à¥įà¤°
à¥ģà¤¤ à¤¿
un ch
Ġwith in
Ġà¤ªà¤ķ à¤¡à¤¼à¥ĩ
Ġà¤¸à¥Ī à¤¦à¥įà¤§
Ġà¤°à¤ļà¤¨à¤¾à¤¤à¥įà¤®à¤ķ à¤¤à¤¾
Ġnet work
) );
à¥įà¤° à¥ĩà¤¡
Ġà¤° à¤¿à¤¹
à¤¶ à¤¹à¤°
ri or
Ġà¤¸à¥ī à¤¸
Ġà¤ħà¤²à¥įà¤¬ à¤°à¥įà¤Ł
Ġà¤ıà¤²à¤¿à¤ľ à¤¾à¤¬à¥ĩà¤¥
à¤§ à¥įà¤¯à¤¾à¤¨
Ġà¤ĸ à¤¦à¤¾à¤¨
à¤ħ à¤Ĥà¤Ĺà¥įà¤°
à¤µà¤¿à¤¦ à¥įà¤¯à¥ģà¤¤
Ġà¤§à¤¾à¤° à¤¾à¤ĵà¤Ĥ
Ġà¤¸à¤Ĥà¤¶ à¥įà¤²à¥ĩà¤·à¤£
Ġà¤¤à¤¾à¤°à¥Ģà¤ĸ à¤¼
Ġà¤¦à¤¾à¤¯à¤° à¥ĩ
Ġà¤¨ à¤¿à¤¯à¥ĭ
Ġà¤¥ à¤¾à¤ĥ
Ġà¤ªà¥įà¤°à¤¤ à¤¿à¤®à¤¾
Ġà¤¸à¤¿à¤° à¤¦à¤°à¥įà¤¦
Ġà¤Ĩ à¤¨à¥įà¤¦
Ġe cho
Ġà¤Łà¥įà¤° à¥ĩà¤Ĥà¤¡
Ġà¤®à¥Ī à¤ª
Ġsu bject
Ġà¤ĩà¤®à¥ĩà¤ľ à¤¿à¤Ĥà¤Ĺ
Ġà¤ķ à¥Ĥà¤Ł
Ġà¤ªà¤° à¤¾à¤Ĺ
à¤¾à¤¦ à¥įà¤µà¥Ģà¤ª
Ġs ym
th ers
à¤·à¥įà¤Ł à¤¿à¤ķ
fer ences
Ġqu ality
Ġà¤ĸà¤¾à¤¸ à¤ķà¤°
Ġà¤ıà¤¸ à¥įà¤ª
ĠI II
Ġà¤«à¥ĭà¤Ł à¥ĭà¤Ĺà¥įà¤°à¤¾à¤«
Ġsol ution
Ġà¤¤à¥ĭà¤¡à¤¼ à¤¨à¥ĩ
] à¥¤
Ġà¤¸ à¤¨à¥įà¤¦à¤°à¥įà¤Ń
à¤¹ à¤¾à¤¨à¥Ģ
à¥ĩà¤ ¢à¤¼
Ġà¤¤ à¤¿à¤¹à¤¾à¤Ī
Ġà¤ķà¤µ à¤ķ
Ġà¤¬à¥ī à¤¸
hi ps
Ġà¤²à¤¾à¤¹ à¥Įà¤°
Ġà¤¬ à¤¾à¤ī
Ġs ales
Ġà¤¸à¥Ģ à¤°à¤¿à¤¯à¤¾
Ġg lobal
à¤¯à¤¾à¤² à¤®
Ġà¤¬à¥Īà¤Ĥ à¤ķà¥ĭà¤Ĥ
Ġà¤µ à¥įà¤°
à¤Ĺ à¥ģà¤ªà¥įà¤¤
Ġà¤² à¤¾à¤ı
Ġà¤¸à¥ĩ à¤°
Ġà¤ıà¤ķ à¤ľà¥ģà¤Ł
Ġà¤ĩ à¤®à¥įà¤ª
-à¤ħ à¤®à¥ĩà¤°à¤¿à¤ķà¥Ģ
Ġà¤¸à¤« à¤¼
Ġà¤«à¤¿à¤² à¤¿à¤¸à¥įà¤¤
Ġà¤ª à¤Ĥà¤¡à¤¿à¤¤
Ġà¤² à¥ĭà¤®
Ġà¤² à¥ĩà¤Ĩà¤īà¤Ł
Ġs ch
Ġà¤¸à¤¦ à¤°
() `
ear ch
f rom
Ġà¤ī à¤§à¤¾à¤°
Ġà¤Ł à¤¾à¤¸à¥įà¤ķ
Ġà¤ľà¤¨ à¤ªà¤¦
Ġà¤ıà¤® à¤ıà¤¸
Ġà¤¸à¤¤ à¤°à¥įà¤ķ
ind ex
Ġtrans port
Ġà¤ħà¤ĸ à¤¿à¤²
s erv
Ġà¤ªà¤°à¥įà¤¯ à¤Łà¤ķà¥ĭà¤Ĥ
ĠD ata
Ġà¤¬à¤² à¥įà¤¬
à¥ĩà¤ķà¥įà¤¸ à¥įà¤Ł
Ġà¤īà¤¨à¥įà¤¨ à¤¤à¤¿
Ġà¤ķà¤®à¤¾à¤Ĥà¤¡ à¤°
Ġtem perature
à¤¯à¤¾à¤ª à¤ļà¤¯
% )
e es
Ġà¤¨ à¤«
ay er
Ġà¤¸à¥ĩà¤Ĥà¤Ł à¥įà¤°à¤²
Ġà¤¸à¥įà¤¤à¤Ĥà¤Ń à¥ĭà¤Ĥ
Ġà¤ĺà¥Ĥà¤® à¤¨à¥ĩ
Ġknow ledge
Ġà¤ıà¤ªà¥Ģ à¤Ĩà¤Ī
. e
Ġà¤® à¤¾à¤¦à¤¾
Ġà¤µà¤¿à¤ķ à¥ĥà¤¤
à¤®à¤¾à¤¨ à¤¾
Ġà¤¸à¥įà¤ª à¥Ģ
Ġà¤¬à¤ļ à¤¾à¤¯à¤¾
Ġà¤°à¥ĭ à¤ļà¤ķ
.c sv
( a
à¤¹ à¥ĩà¤¡
à¤°à¥įà¤§ à¥įà¤µ
Ġà¤®à¥ģà¤ķ à¤¦à¤®
Ġà¤¬à¥Ĥ à¤Ĥà¤¦
Ġà¤łà¤¹à¤° à¤¾à¤¯à¤¾
à¤¿à¤¨ à¤¿à¤ķ
Ġà¤ħà¤ª à¤¾à¤°à¥įà¤Łà¤®à¥ĩà¤Ĥà¤Ł
à¤¾à¤ļ à¤¾à¤°à¥ĭà¤Ĥ
Ġà¤¨à¤¾à¤¶ à¥įà¤¤à¥ĩ
Ġà¤Ĺà¤Ĥà¤¤ à¤µà¥įà¤¯
le x
Ġà¤µà¤°à¥įà¤ ¡
Ġà¤µà¤¿à¤Ń à¥Ĥà¤¤
Ġà¤¨à¤¿à¤°à¥įà¤£à¤¯ à¥ĭà¤Ĥ
195 8
à¤Ĭ à¤¦à¥Ģ
Ġà¤ªà¤Ĥà¤ľ à¥Ģà¤ķà¤°à¤£
Ġspe cial
Ġà¤ļà¥ĩ à¤¹à¤°à¤¾
Ġà¤¡ à¤¾à¤¯à¤°
Ġà¤ļà¥ĩà¤¤ à¤¨à¤¾
si dent
Ġà¤¬à¥Ģ à¤¯à¤°
Ġà¤ħà¤² à¥įà¤ľ
à¥īà¤² à¥įà¤Ł
Ġà¤µà¤¿à¤¸ à¥įà¤¥
Ġà¤¸à¤Ĥà¤¤ à¥ĭà¤·
à¥Īà¤° à¥įà¤¯
à¥ĩà¤Ĥ à¤ľà¤°
Ġà¤° à¥ģà¤ĸ
_c ount
Ġà¤°à¤¾à¤ľà¤¨ à¥Īà¤¤à¤¿à¤ķ
Ġà¤° à¤ķà¥įà¤·à¤ķ
Ġà¤¹à¥ĭ à¤¸à¥įà¤Ł
Ġà¤ķà¤¾à¤°à¥įà¤¯ à¤ķà¤°à¥įà¤¤à¤¾à¤ĵà¤Ĥ
ĠW h
Ġà¤¦à¥įà¤µà¥Ģà¤ª à¤¸à¤®à¥Ĥà¤¹
Ġrespon se
A l
à ¬
Ġà¤¨ à¤¯à¥Ģ
Ġà¤ļ à¤¾à¤ļà¤¾
st it
à¤ªà¥įà¤° à¤¾à¤ķà¥ĥà¤¤à¤¿à¤ķ
ut il
Ġà¤¬à¥ĩà¤¸ à¤¿à¤¨
Ġà¤µà¤¿à¤ķà¥įà¤° à¥ĩà¤¤à¤¾
à¥Į à¤ªà¤ļà¤¾à¤°à¤¿à¤ķ
Ġà¤īà¤ª à¤ļ
Ġà¤¡ à¥įà¤¯à¥Ĥà¤ķ
Ġà¤īà¤¤à¥įà¤¤à¤° à¥ĭà¤Ĥ
A S
a pt
à¤ķ à¤°à¥įà¤®
re f
à¥Īà¤Ĥ à¤£
à¤ĺà¤Łà¤¨ à¤¾à¤ıà¤ģ
Ġà¤²à¥ģà¤ªà¥įà¤¤ à¤ªà¥įà¤°à¤¾à¤¯
( U
à¤ª à¤Ĥà¤ľ
à¤Ĺ à¤¾à¤Ĥ
à¤ħ à¤ľà¥įà¤ŀà¤¾à¤¤
à¤°à¥įà¤¥ à¤¿à¤ķ
Ġà¤Ĺà¤¿à¤° à¤ľ
Ġà¤¬à¥ĭ à¤Ŀ
cal a
Ġà¤Ĩà¤ªà¤° à¤¾à¤§à¤¿à¤ķ
Ġà¤¶ à¤¾à¤°à¥įà¤ķ
à¤¿à¤® à¤Ĥà¤¡à¤²
Ġà¤ħà¤¦ à¤¿à¤²à¤¾à¤¬à¤¾à¤¦à¥ģ
Ġà¤¸à¤®à¥Ģà¤ķà¤°à¤£ à¥ĭà¤Ĥ
à¤®à¤² à¤µ
Ġà¤ªà¤¾à¤°à¤¿à¤¸à¥įà¤¥à¤¿à¤¤ à¤¿à¤ķ
Ġl ess
Ġex c
ĠG u
Ġà¤¸à¤®à¤¾à¤ľ à¤µà¤¾à¤¦à¥Ģ
Ġcol lect
Ġà¤¸à¥Ģà¤Ł à¥ĭà¤Ĥ
Ġà¤ķà¥ĭà¤¯ à¤²à¥ĩ
Ġà¤ī à¤®
Ġa ffect
Ġf ield
ĠH ere
Ġà¤ªà¥ĭ à¤¶à¤¾à¤ķ
Ġà¤ļà¤¢à¤¼ à¤¾à¤Ī
à¥¤ '
Ġà¤ļ à¤Ĥà¤¦
Ġà¤Ńà¤¾à¤· à¤¾à¤Ī
Ġà¤²à¥ī à¤ľ
à¤ľà¤¹ à¤¾à¤ģ
Ġà¤¹ à¤µà¤¾à¤²à¤¾
Ġà¤° à¤¿à¤ľà¤¼
à¤¾à¤² à¤¾à¤ª
Ġà¤¸à¤¾à¤ ģ
à¤ķà¥ĭ à¤Łà¤¾
Ġm ind
Ġsh ort
oo se
Ġà¤¬à¤° à¤¾à¤®
Ġfin al
Ġà¤ıà¤ļà¤Łà¥Ģ à¤ıà¤®à¤ıà¤²
" <
7 00
Ġà¤® à¤¾à¤«à¥Ģ
Ġà¤Ĩà¤ª à¤¦
à¤¾à¤ĩà¤® à¤°
Ġà¤¸à¤¾à¤§ à¤¨à¥ĭà¤Ĥ
Ġpop ular
Ġà¤§à¥ĭà¤ĸ à¤¾à¤§
- à¤īà¤ª
Ġà¤µ à¤Ĥà¤ļà¤¿à¤¤
Ġà¤° à¤¾à¤ĸ
à¥ĩà¤Ł à¤¾
fer ence
à¤ªà¤¨à¤¿à¤µà¥ĩà¤¶ à¤¿à¤ķ
< h
Ġà¤ª à¤¾à¤°à¥Ģ
Ġà¤ı à¤¸à¥Ģ
à¥ĭà¤Ĺ à¥Ģ
à¤¡à¤¼ à¤¿à¤¯à¥ĭà¤Ĥ
à¤ķà¥įà¤· à¤¤à¥įà¤°
à¥ĩà¤° à¤¿à¤¯à¤¾
Ġà¤ªà¥ĩà¤Ĥà¤Ł à¤¿à¤Ĥà¤Ĺ
Ġà¤¡à¥ĩà¤µà¤²à¤ª à¤®à¥ĩà¤Ĥà¤Ł
Ġà¤Ĺà¥ĩà¤¹ à¥Ĥà¤Ĥ
Ġà¤¸à¤¿à¤¡ à¤¨à¥Ģ
à¤¿à¤¨ à¥įà¤¹
à¥įà¤ķ à¥ĭ
Ġà¤¨à¥ĩ à¤¹à¤°à¥Ĥ
Ġf ew
à¥ĩà¤Ĥà¤Ł à¥įà¤¸
Ġà¤®à¤¹à¤¾à¤° à¤¾à¤ľà¤¾
Ġà¤ķà¤¾à¤°à¥įà¤¬à¥ĭà¤¹à¤¾à¤ĩà¤¡à¥įà¤° à¥ĩà¤Ł
Ġà¤¨à¤« à¤°à¤¤
o pp
Ġà¤¬ à¥īà¤²
à¤µ à¤¾à¤¯à¤¾
Ġà¤¯à¤¹ à¥Ĥà¤¦
Ġà¤¢ à¤¾à¤²
âĢĭ âĢĭ
Ġà¤ªà¥įà¤°à¤¤à¤¿à¤ķ à¥Ĥà¤²
Ġt aken
à¤¾à¤ª à¤¤à¤¿
à¤¾à¤§ à¥Ģà¤¨
Ġl ow
Ġà¤Ŀà¥Ģà¤² à¥ĭà¤Ĥ
à¤¿à¤²à¥įà¤² à¤¾
Ġà¤¦à¤¾à¤µ à¥ĩ
" name
à¥ĭ à¤ķà¥ĭ
Ġà¤ļ à¤¯à¤¾à¤ªà¤ļà¤¯
Ġà¤ľà¥ĭ à¥ľ
à¤¿à¤µ à¤°à¥įà¤¤
Ġà¤¦à¥ĩ à¤¹
à¤ĺ à¤®
ĠTh ere
Ġà¤¡à¥ĩà¤µà¤² à¤ªà¤°
Ġà¤ķà¤°à¥įà¤¤ à¤µà¥įà¤¯
C om
d own
Ġà¤¸à¤¬ à¥įà¤¸
el lo
Ġà¤µà¤¿à¤¦à¥įà¤¯à¤¾à¤²à¤¯ à¥ĭà¤Ĥ
Ġpol it
[ j
à¤¨ à¤¿à¤°
Ġà¤¡ à¤¿à¤«
Ġà¤ķà¤¾à¤Ĥ à¤¸à¥įà¤¯
Ġà¤µà¤¾à¤° à¥įà¤¤à¤¾
Ġj ourn
Ġà¤°à¥īà¤¬ à¤¿à¤¨
Ġà¤¹à¤¿à¤¤ à¥ĭà¤Ĥ
Ġà¤ıà¤Ĥà¤¡à¥įà¤° à¤¯à¥Ĥ
Ġà¤«à¤¼à¥īà¤°à¥įà¤® à¥ĩà¤Ł
( string
A L
Ġà¤® à¤¨à¥Ģ
Ġà¤¸à¥ĩ à¤ķà¥įà¤¸
Ġà¤¸à¤ķ à¤¨à¥ĩ
à¥ĭà¤° à¥ĩà¤¶à¤¨
Ġà¤¸à¤Ĥà¤ĸà¥įà¤¯ à¤¾à¤ıà¤ģ
ĠUn ited
Ġà¤ħà¤Ńà¤¿à¤¯ à¤¾à¤¨à¥ĭà¤Ĥ
Ġà¤Łà¥ĩà¤²à¥Ģ à¤«à¥ĭà¤¨
à¤° à¤¬
Ġà¤ª à¤¤à¥ĩ
Ġà¤ı à¤Ĥà¤¥
st ruct
à¥ĩà¤ľ à¤®à¥ĩà¤Ĥà¤Ł
Ġm ag
Ġm atch
à¥ĭà¤² à¥ĭ
Ġà¤ľà¥įà¤¯ à¥ĭà¤¤à¤¿à¤·
Ġà¤Ĺà¤¤à¤¿à¤¶à¥Ģà¤² à¤¤à¤¾
Ġanim als
à¤ ĭ
Ġà¤¬ à¤¸à¤¾
à¤ķà¥įà¤· à¥įà¤¯
à¥ĩà¤¡ à¤ķà¤°
Ġà¤¬à¤° à¤ķà¤°à¤¾à¤°
Ġiss ues
Ġà¤®à¤Ĺ à¤§
Ġà¤ķ à¤¹à¥Ģ
Ġà¤µà¤¿à¤ ¹
Ġà¤¡ à¥ĩà¤°
Ġà¤°à¥ĭà¤ķ à¤¤à¤¾
Ġà¤¶à¤¾à¤¸à¤¨ à¤ķà¤¾à¤²
193 9
Ġà¤¡à¥ĩà¤µ à¤¿à¤¸
à¤Ĺà¥ĭ à¤¶
Ġà¤ķà¤®à¥įà¤ª à¥įà¤¯à¥Ĥà¤Łà¤°
Ġchall enge
i ent
à¤Ĺ à¤°à¥įà¤Ń
Ġà¤° à¤¿à¤ķà¥įà¤¤
à¤§ à¤¾
à¤¾à¤¹ à¤¾à¤¬à¤¾à¤¦
Ġà¤ªà¤¹à¥ģà¤Ĥà¤ļ à¥Ģ
ĠDe velop
) /
g th
Ġà¤¹ à¥ģà¤ķ
à¤¾à¤ĩ à¤Ĥà¤¸
Ġà¤¸à¤®à¤Ŀ à¥ĩà¤Ĥ
Ġà¤«à¤¿à¤² à¤¾à¤¡à¥ĩà¤²à¥įà¤«à¤¿à¤¯à¤¾
Ġà¤Ľà¤¤à¥įà¤¤à¥Ģà¤¸ à¤Ĺà¤¢
Ġà¤ľà¤¨à¤ľà¤¾à¤¤ à¤¿à¤¯à¤¾à¤Ĥ
Ġindividual s
I M
P T
Ġà¤Ĩ à¤Ĺà¤°à¤¾
Ġà¤¶ à¤¹à¥Ģà¤¦
Ġà¤®à¤¹ à¤¾à¤Ńà¤¾à¤°à¤¤
() )
Ġà¤ľà¤Łà¤¿à¤² à¤¤à¤¾à¤ĵà¤Ĥ
Ġà¤¬à¥Ģà¤ľ à¥ĩà¤ªà¥Ģ
Ġà¤ķà¥įà¤²à¤¾à¤¸ à¤¿à¤ķ
Ġà¤¹à¤¾à¤ĩà¤² à¤¾à¤ĩà¤Ł
à¤¾à¤¹ à¤®
Ġc ell
à¤¢à¤¼ à¥ĩ
Ġà¤ķà¤¾à¤°à¥įà¤¯ à¤°à¤¤
Ġhist ory
Ġà¤® à¤²à¤¬
Ġà¤« à¥Ģà¤¡
Ġb ody
Ġà¤¶à¥ģà¤°à¥Ĥ à¤Ĩà¤¤
Ġà¤¤à¤² à¤µà¤¾à¤°
Ġso ci
à¤¿à¤ľà¤¼ à¤¨
Ġà¤Ĺà¥ĥà¤¹ à¤¯à¥ģà¤¦à¥įà¤§
o on
Ġà¤°à¤¾à¤·à¥įà¤Łà¥įà¤° à¥ĭà¤Ĥ
Ġopt ions
Ġà¤ĳà¤ªà¥įà¤Ł à¤¿à¤®
à¤¸à¤Ĥà¤ļ à¤¾à¤°
à¤¨à¥ĩ à¤ªà¤¾à¤²
Ġà¤¯à¥Ĥ à¤Ł
Ġà¤¸à¤¶ à¤ķà¥įà¤¤
Ġà¤¹ à¤¾à¤ĩà¤ª
à¤¦ à¥Ĥà¤¸à¤°à¥Ģ
Ġà¤ļ à¥ĭà¤ª
Ġle ft
194 9
eg er
Ġà¤®à¥ģà¤¸à¥įà¤ķ à¥ģà¤°
} {
Ġà¤ª à¤Ĥà¤¦à¥įà¤°
à¤¹ à¤¾à¤°à¥ĭà¤Ĥ
à¤« à¥ģà¤²
à¥įà¤¨ à¤°
à¤Ĥà¤ļ à¤²
Ġà¤§à¥ĭ à¤ĸà¤¾
# #
Ġà¤ķà¤° à¤¨
à¤¬ à¤¨à¥įà¤§
à¥įà¤¹ à¥ĩ
à¤ıà¤¸ à¤ıà¤¸
Ġà¤Ĩà¤ľ à¤ķà¤²
. The
à¤ķ à¤Ī
Ġà¤ľ à¤¾à¤ĵ
à¥¨ à¥¨
Ġà¤Ĺà¥ĭ à¤ł
Ġà¤¸à¤Ĥà¤ķ à¤²à¤¨
Ġcompre hensive
à¤¾à¤µ à¤¨à¤¾
om an
12 3
olog ical
Ġà¤¯à¤¹à¥Ģ à¤Ĥ
Ġà¤®à¥Ģà¤ł à¥ĩ
Ġà¤ļà¤¿à¤¡à¤¼ à¤¿à¤¯
Ġà¤µà¤¾à¤Ĥ à¤Ľà¤¿à¤¤
Ġd ue
Ġà¤ķà¥įà¤° à¥Ĥà¤°
à¤¾à¤ļ à¤ķ
Ġbe come
Ġus es
ĠEx cel
à¥Ģ à¤¦à¤¾à¤°
Ġà¤¨ à¤¾à¤ĸ
Ġà¤ªà¤¹ à¤¾à¤¡à¤¼à¤¿à¤¯à¥ĭà¤Ĥ
Ġp ast
à¥ĭà¤° à¤®
Ġà¤ªà¥įà¤°à¤¸ à¤µ
Ġà¤°à¤¿à¤¶à¥įà¤¤ à¥ĩ
Ġà¤¹à¤«à¥įà¤¤ à¥ĩ
k e
Ġà¤¬ à¤°à¥įà¤²à¤¿à¤¨
à¥Ģà¤¨ à¥ĭ
à¤¿à¤ľ à¥įà¤¯à¤¾
Ġà¤¸à¥įà¤¥à¤¾à¤¨ à¤ĥ
à¥ĩà¤ļ à¤°
Ġà¤°à¥Ī à¤ĸà¤¿à¤ķ
Ġpur ch
-à¤ķà¥įà¤² à¤¬
Ġà¤¸à¤¹à¤¾à¤¨à¥ģà¤Ń à¥Ĥà¤¤à¤¿
à¤Ĥ à¤ķà¤¾à¤°
Ġà¤Ľ à¤¿à¤¦à¥įà¤°
Ġà¤¸à¤¤ à¤¨à¤¾à¤®
Ġà¤®à¥Īà¤ķà¥įà¤¸ à¤¿à¤ķà¤¨
1 30
Ġ ÃĤ
à¤¬ à¥ĩà¤¨
Ġm odif
Ġà¤¦à¤° à¤¬à¤¾à¤°
Ġà¤ķà¥ģ à¤ķà¥Ģ
195 9
Ġà¤®à¥ĭà¤Ł à¥Ģ
Ġà¤®à¥ĭ à¤°à¥įà¤ļ
Ġà¤§à¥Ĥà¤® à¤ķà¥ĩ
Ġà¤ķà¤µà¤° à¥ĩà¤ľ
u di
à¤¸ à¤¾à¤¤
Ġà¤¸à¤¹ à¥ĩà¤ľ
Ġà¤¸à¤Ĥà¤¤ à¤¾à¤¨
os s
ren gth
à¤¿à¤¨à¥ĭ à¤ĩà¤¸
à¤¿à¤°à¤¾à¤® à¤¿à¤¡
' à¤ı
Ġà¤ķà¥ĩ à¤¬à¤²
Ġà¤µ à¤ķà¥įà¤¤à¤¾
Ġà¤ļ à¥ĩà¤¨
am s
Ġà¤Ĺà¥ģà¤² à¤¾à¤®
Ġinf lu
Ġà¤ķà¥ĩ à¤ª
à¤Ī à¤ĵ
Ġà¤ħà¤® à¥ĥà¤¤
Ġà¤¦à¤°à¥įà¤¦ à¤¨à¤¾à¤ķ
à¤¸ à¤¾à¤Ī
Ġà¤ķà¥ĩ à¤Ĥà¤Ł
à¤¦ à¤¾à¤¯à¥Ģ
Ġà¤¸à¤Ĥ à¤¯à¥ĭà¤Ĺ
à¥Į à¤ķ
Ġà¤®à¤¤ à¥įà¤¸à¥įà¤¯
Ġdet ailed
Ġà¤¸à¤Ĥà¤Ĺà¥įà¤° à¤¾à¤®
Ġà¤Ńà¥įà¤°à¤·à¥įà¤Ł à¤¾à¤ļà¤¾à¤°
J P
\ n
in ci
Ġà¤¸à¥įà¤Ł à¥ĩà¤®
à¤°à¤¾à¤¯ à¤Ĺà¤¢à¤¼
à¤® à¤¹à¤¾à¤°
Ġcl imate
Ġà¤«à¥īà¤² à¥ĭ
Ġà¤¦à¤¿à¤Ĺ à¥įà¤Ĺ
. N
Â ²
Ġà¤¬ à¤°à¥įà¤Ĺ
à¤¾à¤® à¥įà¤¬
à¥ī à¤«
Ġà¤« à¤Ł
à¥ĩà¤Ĥà¤Ł à¥Ģà¤¨à¤¾
Ġà¤§à¥ĭ à¤¨à¥ĩ
Ġà¤Ĩà¤¶à¥įà¤µ à¤¸à¥įà¤¤
g ed
à¤Ĺ à¤¾à¤°à¥Ģ
Ġà¤¸à¤Ĥà¤ķ à¤¾à¤¯
Ġcont rol
Ġà¤ªà¤°à¤Ĥà¤ªà¤° à¤¾à¤ĵà¤Ĥ
à¤¬à¥Ĥ à¤Ŀ
à¤¿à¤Ł à¥įà¤ľà¤¼
Ġà¤ĵ à¤Ł
ers e
Ġà¤¸à¥Įà¤Ĥà¤ª à¤¾
Ġmulti ple
Ġgrow th
ou th
Ġà¤ķà¤¾à¤°à¥įà¤¯ à¤¸à¥įà¤¥à¤²
à¥ĩà¤¬ à¤¾à¤ľà¥Ģ
Ġà¤¸à¥įà¤ķ à¥Ĥà¤²à¥Ģ
Ġà¤®à¤¾à¤° à¥įà¤¸
Ġà¤®à¥Ī à¤¡
Ġà¤ªà¥Ĥ à¤Ĥà¤ľà¥Ģ
Ġà¤¬à¤ļ à¤¨à¤¾
Ġà¤²à¤¾à¤Ń à¤¦à¤¾à¤¯à¤ķ
Ġà¤µà¤¿à¤² à¥įà¤¸à¤¨
Ġà¤¤à¤Ł à¥ĭà¤Ĥ
195 4
Ġà¤ķà¤¾à¤ī à¤Ĥà¤¸
Ġà¤µà¤¿à¤²à¤¿à¤¯à¤® à¥įà¤¸
Ġà¤¶à¥Įà¤ļ à¤¾à¤²à¤¯
Ġ ingredi
à¤¯ à¥Ĥà¤°à¥ĭà¤ª
Ġà¤¸à¥Ģ à¤ıà¤®
Ġà¤Ńà¥Ĥ à¤·à¤£
Ġà¤ħà¤ķà¥ĩ à¤²à¤¾
Ġà¤Ł à¥ĭà¤¨
am b
Ġà¤ļà¤² à¤¨à¤¾
Ġà¤ķà¥ī à¤®à¥įà¤ª
ast er
Ġà¤¤à¤¿à¤® à¤¾à¤¹à¥Ģ
Ġà¤µà¤¿à¤Ńà¥Ĥà¤¤ à¤¿à¤¯à¤¾à¤ģ
Ġà¤µ à¥ĩà¤ķà¥įà¤Łà¤°
Ġà¤² à¥ģ
ro du
arch ive
Ġà¤µà¤¿à¤¶à¥įà¤µà¤¸à¤¨à¥Ģà¤¯ à¤¤à¤¾
Ġà¤¤à¤¿à¤¬à¥įà¤¬ à¤¤
Ġà¤§à¥ĭà¤ĸà¤¾à¤§ à¤¡à¤¼à¥Ģ
j oy
à¥Ģ à¤°à¥įà¤£
à¤ļ à¤¿à¤µ
un g
Ġpl atform
Ġà¤¢à¤¾à¤Ĥà¤ļ à¤¾
c ount
195 1
Ġà¤Ńà¤¾à¤µà¤¨ à¤¾à¤ıà¤ģ
' à¤¹
e k
à¥įà¤° à¤¾à¤¸
à¥ĩà¤ ĵ
Ġà¤¸à¤Ĥ à¤ľà¤¯
in ing
Ġà¤µà¤¿à¤¦ à¥įà¤¯à¤¾
Ġà¤Ńà¤¾à¤°à¤¤à¥Ģà¤¯ à¥ĭà¤Ĥ
Ġà¤°à¥ĩà¤ĸ à¤¾à¤ĵà¤Ĥ
Ġà¤Łà¥įà¤µà¥Ģà¤Ł à¤ĥ
Ġà¤Ĩà¤¨à¥įà¤¦ à¥ĭà¤²à¤¨
e cho
r ice
à¤Ĺà¥įà¤° à¥ĩà¤¡
à¤¡à¥Ģ à¤ªà¥Ģ
Ġà¤īà¤¤à¥įà¤¸ à¤°à¥įà¤ľ
Ġà¤¦à¥ģà¤° à¥ģà¤ªà¤¯à¥ĭà¤Ĺ
" à¤Ķà¤°
( à¤ıà¤²
Ġà¤° à¤¿à¤ı
Ġà¤¥ à¤²à¥Ģà¤¸
Ġà¤ªà¤°à¤¿à¤µ à¥ĩà¤¶
Ġà¤ļà¥ĭà¤Ł à¥Ģ
ĠEng lish
Ġà¤¶ à¤°à¥įà¤Ł
à¤¾à¤µ à¤ķ
à¤« à¤¿à¤²
Ġà¤¨à¥įà¤¯à¥Ĥ à¤ľà¤¼
Ġchang es
' à¤°
[ [
g ress
Ġà¤ķ à¤Ĥ
Ġà¤īà¤ªà¤Ń à¥ĭà¤Ĺ
Ġopt im
Ġbehav ior
C l
à¤¾à¤¤ à¥įà¤µà¤¿à¤ķ
Ġt itle
Ġà¤¸à¥įà¤ª à¤¿à¤¨
à¥¨ à¥Ń
à¤¿à¤·à¥įà¤ł à¤¾
à¤®à¥Īà¤Ĥ à¤¨à¥ĩ
Ġvi sit
Ġà¤¬à¤¾à¤Ī à¤Ĥ
Ġà¤Ķà¤° à¤Ĥà¤Ĺà¤¾à¤¬à¤¾à¤¦
Ġà¤®à¤¹ à¥ĭà¤¤à¥įà¤¸à¤µ
dit ions
Ġà¤®à¤¾à¤°à¥įà¤¶ à¤²
= '
Ġà¤µ à¥ĩà¤¶
Ġà¤¬ à¤¾à¤ĩà¤¨à¤°à¥Ģ
Ġà¤īà¤ª à¤¦à¥ĩà¤¶
à¤¾à¤ķ à¥ĭà¤Ł
Ġw ays
ĠR s
. add
à¤¿à¤Ĥà¤Ĺ à¤°
à¤ĩ à¤¸à¥Ģ
Ġman agement
Ġlet ter
Ġprocess ing
vol ution
En ter
Ġachie ve
Ġedu cation
s elf
Ġà¤Ł à¤¿à¤®
Ġà¤¬à¤¢à¤¼ à¥ĩ
Ġgo als
cho ol
Ġà¤®à¤¸à¥Ģ à¤¹
à¤¨ à¤¾à¤¸
à¤¸ à¥ĭ
Ġà¤² à¥įà¤¯à¥Ĥ
Ġà¤ħà¤¨ à¥ģà¤·
Ġà¤¬à¥ĭ à¤²à¥ĩ
Ġà¤ķà¤¿à¤¤à¤¾à¤¬ à¥ĭà¤Ĥ
Ġà¤¥à¤²à¥Ģà¤¸ à¥Īà¤Ĥà¤£
i od
r c
Ù Ĩ
à¤Ł à¤¾à¤īà¤¨
Ġà¤¸à¤®à¤Ŀ à¥Ģ
Ġà¤¶à¥įà¤° à¥ĩà¤·à¥įà¤ł
Ġà¤¸à¤« à¤°
Ġà¤ªà¤¹à¥ģà¤Ĥà¤ļ à¤¾à¤¨à¥ĩ
Ġà¤²à¤ķà¥įà¤· à¥įà¤®à¥Ģ
Ġà¤ħà¤ªà¤°à¤¾à¤§ à¥Ģ
à¤®à¤¹ à¤¿à¤²à¤¾
Ġà¤¬ à¥ĩà¤Ĺ
Ġà¤Ł à¤ķà¥įà¤ķà¤°
Ġp ers
Ġà¤§ à¤¾à¤Ĺ
Ġà¤Ĩà¤° à¥ĩà¤ĸ
Ġà¤®à¥Īà¤ķà¥įà¤¸ à¤¿à¤ķà¥ĭ
Ġà¤§à¥įà¤°à¥ģà¤µ à¥Ģà¤¯
à¤ĸ à¥ĩ
19 00
Ġà¤¬à¤¿à¤² à¤¿à¤¯à¤¨
Ġà¤¸à¤¾à¤ª à¥įà¤¤
Ġapplic ations
Val ue
Ġà¤ı à¤²à¥Ģ
Ġà¤¶ à¤Ĥà¤ķ
Ġof ten
à¤ķà¥įà¤° à¤£
à¤µà¤¿à¤ķ à¤¾à¤¸
Ġà¤ļà¤¿à¤¤à¥įà¤° à¤ķà¤¾à¤°
T ext
p an
Ġà¤ħ à¤¸à¥Ģ
à¥ī à¤¸à¥įà¤Ł
Ġà¤ĺ à¤¨à¥ĩ
Ġà¤ķà¥Ī à¤¶
Ġà¤ķà¥Ī à¤®à¥įà¤ª
ud get
Ġà¤ħà¤¨à¥ģà¤¶ à¤¾à¤¸à¤¨
< =
Ġà¤ª à¤¾à¤Ł
Ġf urther
à¤Ĺà¥įà¤° à¤¾à¤¹à¤ķ
Ġà¤ªà¤¡à¤¼ à¤¤à¥Ģ
Ġpo em
Ġà¤¬à¥ī à¤¨à¥įà¤¡
Ġà¤¸à¥įà¤Łà¥ĭà¤° à¥ĩà¤ľ
Ġà¤¸à¤°à¥įà¤ķ à¤¿à¤Ł
Ġtyp es
à¤¿à¤¯ à¤Ł
à¥ĭà¤° à¥ĭ
à¤¿à¤· à¥ĩà¤ķ
Ġà¤¯à¥Ĥ à¤ķà¥įà¤°
Ġà¤ªà¥įà¤°à¤¤à¤¿à¤¬à¤¿à¤Ĥà¤¬ à¤¿à¤¤
" D
n ov
à¤ªà¥įà¤° à¤¾à¤ļà¥Ģà¤¨
Ġà¤¸à¥ĭ à¤¨à¤¾
à¥ĭà¤¡ à¥Ģ
Ġà¤Ĺà¤£ à¤¤à¤Ĥà¤¤à¥įà¤°
Ġà¤¦à¤¶ à¤®à¤²à¤µ
Ġà¤ªà¥ĭà¤² à¥Īà¤Ĥà¤¡
à¤Ĺ à¤¿à¤¤
Ġà¤Ķ à¤ªà¤¨à¤¿à¤µà¥ĩà¤¶à¤¿à¤ķ
Ġà¤Ĺ à¤°à¥įà¤²
Ġà¤¬à¥Ģ à¤¬à¥Ģà¤¸à¥Ģ
Ġà¤ķà¥įà¤² à¥Ģà¤¨
Ġtra vel
à¥Ĥà¤ģ à¤ķà¤¿
Ġà¤¬à¤¿à¤¤ à¤¾à¤¨à¥ĩ
-à¤ķà¤¾à¤°à¥įà¤¯ à¤ķà¤¾à¤²
l a
Ġà¤« à¥ĭà¤ķà¤¸
Ġà¤ħà¤¨ à¤¿à¤¯à¤®à¤¿à¤¤
à¤¾à¤Ĺ à¤°à¥Ģà¤¯
Ġà¤ĳ à¤°
à¥įà¤ľ à¤¿à¤¯à¤®
Ġà¤¸à¤¾à¤°à¥įà¤¥ à¤ķ
Ġà¤Ĺà¤¿à¤°à¤ľ à¤¾à¤ĺà¤°
Ġà¤Ńà¥Ģ à¤®
à¤Ĥà¤Ĺ à¤¨
à¥¨ à¥¬
Ġà¤ĺà¥Ĥà¤® à¤¤à¥ĩ
à¤¦ à¥ģ
Ġà¤¶ à¥īà¤°à¥įà¤Ł
à¤¶ à¤ķà¥įà¤¤à¤¿
Ġà¤Łà¥įà¤° à¥īà¤«à¥Ģ
ĠT r
Ġà¤ĩà¤Ĥà¤ľ à¥ĩà¤ķà¥įà¤¶à¤¨
à¤¸à¥įà¤° à¤¾à¤µ
Ġà¤¤à¤Ĥà¤¬ à¤¾à¤ķà¥Ĥ
Ġtren ds
Ġà¤Ĺ à¥ĭà¤Ĥ
ĠE m
Ġà¤¸à¤Ĥà¤¸à¥įà¤ķà¤°à¤£ à¥ĭà¤Ĥ
Ġà¤ªà¤¾à¤ı à¤Ĥà¤Ĺà¥ĩ
Ġà¤ªà¥ĩà¤Ł à¥ĩà¤Ĥà¤Ł
Ġserv ices
' à¤Ĩ
( à¤Ĩà¤°
Ġ verb
à¤ķ à¥į
Ġà¤¬ à¤¾à¤¥
à¤¬ à¤Ł
à¥įà¤Ł à¥ĩ
à¤¾à¤Ī à¤Ĥ
à¤§à¤¾à¤° à¤¿à¤¯à¥ĭà¤Ĥ
(à¤ķ à¤°à¥įà¤¨à¥Ĥà¤²à¥ģ
Ġà¤¸à¤¿à¤Ĥà¤Ĺ à¤¾à¤ªà¥ģà¤°
Ġà¤ĩà¤¸à¥įà¤¤à¥Ģ à¤«à¤¾
Ġincor por
à¥įà¤¯ à¥ģ
Ġà¤ħà¤¨ à¥Įà¤ªà¤ļà¤¾à¤°à¤¿à¤ķ
Ġà¤ķà¤¾à¤°à¥įà¤¯ à¤ķà¥įà¤·à¤®à¤¤à¤¾
ĠA ir
co ver
à¤ħà¤Ĥà¤¤ à¤¿à¤®
Ġà¤¸à¥įà¤Łà¥ĩà¤Ł à¤®à¥ĩà¤Ĥà¤Ł
Ġà¤ªà¥įà¤°à¤¤à¤¿à¤¬à¤¦à¥įà¤§ à¤¤à¤¾
HT ML
Ġs ound
Ġà¤ªà¥įà¤°à¤¤à¤¿à¤¨à¤¿à¤§ à¤¿à¤¯à¥ĭà¤Ĥ
Ġà¤ķà¤¥ à¤¾à¤ĵà¤Ĥ
Ġval id
à¤Ĳ à¤¸à¤¾
Ġprovid es
Ġà¤®à¤Ĥà¤Ĺ à¥ĭà¤²
Ġdiff icult
à¥ĭ à¤ķà¤°
Ġà¤ªà¥įà¤° à¤¿à¤Ĥ
Ġà¤ĺ à¥Ĥà¤°à¥įà¤£
Ġà¤Ĺà¥ĭ à¤µà¤¾
us ed
al le
Ġà¤Ĩà¤Ī à¤¸à¥Ģà¤¸à¥Ģ
Ġal ways
à¥ĭà¤¡à¤¼ à¥ĭà¤Ĥ
(n um
Ġà¤µà¤¾à¤¯à¥ģà¤® à¤Ĥà¤¡à¤²à¥Ģà¤¯
Ġà¤¶à¥īà¤ª à¤¿à¤Ĥà¤Ĺ
à¤ķà¥įà¤· à¤ķà¥ĭà¤Ĥ
Ġà¤ķà¤¾à¤°à¥įà¤¯ à¤¾à¤¤à¥įà¤®à¤ķ
Ġà¤°à¤£à¤¨à¥Ģ à¤¤à¤¿à¤ķ
Ġà¤ªà¥įà¤°à¥ĭ à¤¸à¥ĩ
Ġà¤¶à¤¾à¤¸ à¤ķà¥ĭà¤Ĥ
pect ive
Ġà¤īà¤Ĥà¤Ĺà¤² à¤¿à¤¯à¥ĭà¤Ĥ
Ġà¤¸à¤¾à¤ªà¥įà¤¤ à¤¾à¤¹à¤¿à¤ķ
Ġà¤¸ à¥Īà¤Ĥà¤ª
Ġà¤ª à¤¿à¤°à¤¾à¤®à¤¿à¤¡
à¤ª à¥ĩà¤ķà¥įà¤·
Ġh ard
Ġà¤ķà¥įà¤° à¤¿à¤¯à¤¾à¤ĵà¤Ĥ
Ġmodel s
Ġà¤ĩà¤²à¥ĩà¤ķà¥įà¤Łà¥įà¤°à¥īà¤¨ à¤¿à¤ķà¥įà¤¸
Ġà¤® à¤¾à¤īà¤¸
Ġà¤¸à¤® à¥ĥà¤¦à¥įà¤§à¤¿
Ġà¤ľà¤¾à¤¤ à¤¿à¤¯à¥ĭà¤Ĥ
Ġà¤Ĺà¥ĭà¤² à¤¾à¤°à¥įà¤§
Ġà¤ªà¥ĩà¤¶à¥ĩà¤µà¤° à¥ĭà¤Ĥ
à¤¾à¤§à¥įà¤¯ à¤¾à¤¯
à¥įà¤Łà¤¿à¤¨ à¥ĩà¤Ĥà¤Ł
Ġà¤µà¥įà¤¯ à¤¯
Ġà¤¦à¥ĭ à¤¬à¤¾à¤°à¤¾
Ġbe gin
we et
Ġà¤ĩà¤° à¤¾à¤¦à¤¾
A I
P M
à¤¹ à¥ĩà¤²
Ġà¤īà¤¸ à¤ķà¥ĭ
à¤«à¤¼ à¥ĩà¤¸
Ġà¤ļà¥Į à¤¹à¤¾à¤¨
Ġà¤«à¥įà¤°à¥ĩà¤® à¤µà¤°à¥įà¤ķ
Ġà¤®à¥ģà¤°à¥įà¤Ĺ à¥Ģ
" p
C ount
_ b
d b
e gr
f unction
à¤¾à¤² à¥ĩà¤ĸ
Ġà¤Łà¥įà¤° à¤¸à¥įà¤Ł
ac es
Ġà¤¸à¥įà¤¨ à¤¾à¤¤
194 2
Ġà¤¤à¥ģ à¤°à¥įà¤ķ
o int
à¥įà¤¡ à¤¾
à¤¿à¤¡ à¥Ģ
à¤Łà¥Ģ à¤¸à¥Ģ
Ġà¤¨à¤Ĺà¤° à¤ªà¤¾à¤²à¤¿à¤ķà¤¾
Ġà¤¸à¤Ĥà¤ķ à¤²à¤¿à¤¤
194 6
Ġà¤ķà¥ĭà¤° à¥ĭà¤¨
Ġà¤¦à¤°à¤µ à¤¾à¤ľà¤¾
< tr
Ġà¤ķ à¤¾à¤Ĥà¤Ĺ
Ġà¤ķ à¤¾à¤«à¤¼à¥Ģ
Ġà¤® à¤¾à¤¯à¤¾
à¤¸à¥įà¤ª à¥ĩà¤¨
Ġem otion
Ġà¤®à¥ĩà¤¹ à¤®à¤¾à¤¨
An d
Ġà¤Ĺà¤¾à¤°à¥įà¤¡ à¤¨
Ġà¤¬à¤²à¥įà¤²à¥ĩà¤¬ à¤¾à¤ľ
à¥įà¤«à¥Ģ à¤¤à¤¿
" à¤Ń
B ut
Q u
V ID
Ġà¤ªà¤° à¤¿à¤¶
Ġl en
Ġà¤¦à¥ģ à¤°à¥įà¤µ
à¤®à¤¹ à¤¾à¤¦à¥įà¤µà¥Ģà¤ª
à¤ħà¤¦ à¤¿à¤²à¤¾à¤¬à¤¾à¤¦à¥ģ
Ġeth ical
Ġc our
Ġto day
à¤ķà¥ĭ à¤·
Ġà¤¬à¤¹ à¤¨à¥ĩ
et ic
Ġà¤¹à¤¾à¤² à¤¿à¤¯à¤¾
Ġch art
Ġà¤ĩà¤² à¤¿à¤¨à¥ĭà¤ĩà¤¸
Ġcont ext
Ġà¤ħà¤Ĥà¤§ à¥ĩà¤°à¥ĩ
Ġà¤Łà¤ķà¤° à¤¾à¤µ
à¤¶à¥įà¤°à¥ĩà¤£ à¥Ģ
à¤ķ à¥ĥà¤¤à¤¿
Ġà¤° à¤¾à¤īà¤Ĥà¤¡
Ġs qu
Ġà¤¨à¤¿à¤¯ à¥ĭà¤ľà¤¿à¤¤
") .
à¤¦à¥ĭ à¤¨à¥ĭà¤Ĥ
R E
à¤ Ļ
Ġà¤ħ à¤Ĥà¤¦
Ġb al
Ġn ow
Ġà¤¡à¥Ģ à¤¡à¥Ģ
Ġà¤ķà¤² à¤¾à¤¤à¥įà¤®à¤ķ
" b
à¤Ł à¥Ģà¤µà¥Ģ
Ġà¤Ń à¤Ĥà¤Ĺ
Ġà¤§ à¥Īà¤°à¥įà¤¯
ic les
Ġà¤¯à¥Ĥà¤¨ à¤¿à¤Ł
] ]
à¥ĭà¤° à¤¸
ĠC alculate
Ġg raph
Ġà¤¸à¤¾à¤° à¤£à¥Ģ
Ġà¤ľà¥ģà¤¡à¤¼ à¤¨à¥ĩ
Ġinsi ght
- à¤ľà¤¨
Ġà¤¸ à¤¿à¤ı
Ġà¤ª à¥ĩà¤¸à¥įà¤Ł
Ġà¤¬ à¥Īà¤¨
à¤¿à¤¸ à¥įà¤¸
à¤²à¥ĩ à¤°à¤¿à¤¯à¤¾
Ġà¤īà¤¤à¥įà¤¤à¤° à¤¾à¤ĸà¤Ĥà¤¡
à¤ªà¥įà¤° à¤¤à¤¿à¤ķ
à¤¿à¤¦ à¤¾à¤¨
Ġà¤ªà¥įà¤°à¤£à¤¾à¤² à¤¿à¤¯à¤¾à¤ģ
Ġpol ice
à¤ķà¤¾à¤Ĥ à¤Ĺà¥įà¤°à¥ĩà¤¸
l ess
Ġà¤ľ à¥ģà¤²
Ġà¤¬à¥Ī à¤Ĥà¤Ĺà¤¨à¥Ģ
ĠD es
Ġà¤µà¤¿à¤°à¥ĭà¤§ à¤¾à¤Ń
à¤¾à¤°à¤£ à¥įà¤¯
Ġà¤ħà¤¨à¥Ĥà¤ł à¥Ģ
Ġà¤Ń à¤¿à¤ķà¥įà¤·
Ġà¤¥ à¤°
à¤ĩà¤¸ à¥įà¤²
à¥ĭà¤ª à¤¡à¤¼à¥Ģ
Ġà¤ķà¥įà¤² à¤¾à¤°à¥įà¤ķ
Ġà¤¨à¥Į à¤ķ
Ġà¤µà¤Ĥà¤¶ à¤ľ
Ġà¤Ĩà¤ĩà¤Łà¤® à¥ĭà¤Ĥ
à¥ģà¤¦à¥įà¤° à¤Ĺà¥įà¤°à¤¹
Ġà¤®à¤¿à¤ł à¤¾à¤Ī
Ġà¤µ à¤²
à¤Ĥà¤Ĺ à¤²à¥Ģ
Ġor ig
Ġà¤ªà¥Ĥà¤Ľ à¥ĩ
Ġà¤®à¥ĭ à¤¤à¥Ģ
Ġà¤ĸà¤°à¥įà¤ļ à¥ĭà¤Ĥ
Ġà¤ªà¥įà¤°à¤¤à¤¿à¤°à¥ĭà¤§ à¥Ģ
à¤¾à¤ ¢
à¤¾à¤µ à¤¿à¤¦
Ġà¤ĸ à¤¾à¤Ī
à¤¿à¤Ĥ à¤ĺà¤®
or k
Ġs at
Ġà¤ħà¤² à¤¾à¤¸à¥įà¤ķà¤¾
ur ation
Ġg ive
Ġst ay
-b ased
Ġsci ent
st yle
à¤¾à¤ª à¥įà¤°
à¤«à¤¼ à¥ĩà¤¯à¤°
à¤¸à¥įà¤µ à¤¤à¥Ģ
Ġà¤¬à¥Īà¤ł à¤¾
Ġà¤¨à¤¿à¤ķà¤² à¤¤à¥ĩ
Ġà¤§à¥įà¤µ à¤ľ
Ġà¤¨à¤° à¤¸à¤Ĥà¤¹à¤¾à¤°
Ġà¤ķà¥įà¤¯à¥Ĥ à¤¬à¤¾
Ġà¤¢à¥Ĥà¤Ĥà¤¢ à¥ĩà¤Ĥ
à¤° à¤¾à¤¹
er ed
à¥ĩà¤° à¥ĭ
Ġà¤®à¤¾à¤¨à¤µ à¤¤à¤¾
pl ic
Ġlevel s
Ġà¤¸à¥Īà¤¦à¥įà¤§ à¤¾à¤Ĥà¤¤à¤¿à¤ķ
à¥ĭ à¤¹à¤¾à¤°
Ġà¤¹ à¤ķ
Ġà¤Ī à¤¯à¤°
Ġà¤¬à¥įà¤° à¤¶
ĠM e
195 3
Ġà¤ªà¥ĭà¤¸à¥įà¤Ł à¤°
Ġà¤¨à¤¾à¤¶ à¥įà¤¤à¤¾
Ġà¤¦à¤¯à¤¾à¤² à¥ģ
Ġà¤¯à¤¹à¥Ĥà¤¦ à¤¿à¤¯à¥ĭà¤Ĥ
. log
Ġà¤¸à¤Ĥ à¤¤à¤°
Ġà¤Ł à¤¿à¤ªà¥įà¤¸
or ies
à¤¾à¤Ĺ à¤°à¤£
Ġp ati
à¥ĩà¤¨ à¤¿à¤¯à¤®
Ġà¤¸à¥įà¤Ł à¤¾à¤«
à¥¨ à¥®
ĠM ake
Ġà¤Ĺà¤¾à¤¯ à¤¨
Ġhealth care
à¤Ĥà¤¤à¥ģ à¤ķà¥ĭà¤Ĥ
Ġà¤Ĩà¤¶à¥įà¤° à¤®
à¤¬à¤¿à¤¨ à¥ĩà¤Ł
Ġà¤ªà¤° à¤¿à¤·à¥įà¤ķà¥ĥà¤¤
re l
Ġà¤¡à¤¿à¤ľà¤¾à¤ĩà¤¨ à¤°
Ġà¤µà¤¿à¤®à¤¾à¤¨ à¤ķà¥įà¤·à¥ĩà¤¤à¥įà¤°
Ġprovid ing
Ġà¤ķà¤¬à¥įà¤ľ à¥ĩ
à¤¤ à¥ģà¤²
Ġà¤¡ à¥ĩà¤ķ
Ġc amp
à¤ķà¥ĭ à¤£
ĠS ci
Ġint egr
Ġà¤Ľà¤¿à¤ª à¤¾
Ġà¤Ĺà¥Īà¤² à¤¨
Ġfriend s
à¤¨ à¤®
Ġà¤Ĩà¤ª à¥Ĥà¤°à¥įà¤¤
à¤ķà¤¾à¤² à¤¤
Ġà¤Ĺà¤¿à¤° à¥ĭà¤¹
Ġà¤°à¤¿à¤Ł à¤°à¥įà¤¨
Ġà¤¦à¤¿à¤¶à¤¾à¤¨à¤¿à¤°à¥įà¤¦à¥ĩà¤¶ à¥ĭà¤Ĥ
Ġà¤ľà¤¾à¤¸ à¥Ĥà¤¸
Ġà¤īà¤Ľ à¤¾à¤²
_ r
Ġà¤ª à¥ģà¤·à¥įà¤ª
à¥įà¤¡ à¥Ģ
Ġà¤®à¤¹ à¤Ĥà¤Ĺà¥ĩ
à¤°à¥įà¤ļ à¤ķà¥įà¤°à¤£
Ġà¤ķà¥Ģà¤Ł à¥ĭà¤Ĥ
Ġter ms
à¤ķ à¤¥
Ġà¤ª à¤¾à¤°à¤¾
Ġà¤¬ à¤¾à¤¡à¤¼
à¤ľ à¤¤à¤¨
-à¤ľ à¥ģà¤²
à¤¾à¤¸à¥įà¤ķ à¤°
Ġà¤µà¤¿à¤¦à¥įà¤¯à¤¾à¤°à¥įà¤¥ à¥Ģ
Ġà¤Ĺ à¤ľ
Ġà¤ķà¥īà¤² à¥ĭà¤¨à¥Ģ
Ġà¤¤à¥įà¤° à¤¿à¤ľà¥įà¤¯à¤¾
Ġà¤ķà¤®à¥įà¤ª à¤¨à¥Ģ
pro duct
Ġà¤¬à¥ģà¤° à¥ĩ
Ġà¤¨à¤¿à¤·à¥įà¤ªà¤¾à¤¦ à¤¿à¤¤
Ġà¤¸à¥įà¤ªà¥ĭà¤°à¥įà¤Ł à¥įà¤¸
o pe
Ġà¤¸à¤Ĥà¤° à¥ĩà¤ĸ
Ġà¤Ŀ à¤¿à¤²à¥įà¤²à¥Ģ
Ġà¤Ĺà¥ĭà¤² à¤¾à¤ķà¤¾à¤°
Ġà¤ªà¥įà¤°à¥ĩà¤° à¤ķ
Ġro le
Ġà¤Ĺà¤Ĥà¤Ĺ à¥ĭà¤²à¥Ģ
Ġà¤«à¤¼à¤° à¤µà¤°à¥Ģ
[ *
Ġà¤Ń à¤ķà¥įà¤¤à¤¿
Ġp and
à¥Įà¤° à¤¾
Ġà¤ªà¥Ģ à¤ıà¤®
", "
Ġà¤®à¥Į à¤¤à¥ĭà¤Ĥ
Ġà¤Ĩà¤¯ à¤°à¤¨
Ġà¤ªà¥įà¤°à¤Ń à¥ģà¤¤à¥įà¤µ
Ġà¤ľ à¥Į
à¤¿à¤¸ à¤¿à¤¸
à¥ĥ à¤Ĥà¤Ĺ
Ġà¤īà¤ª à¤®à¤¾
Ġà¤¨à¤¾à¤® à¤ķà¤°à¤£
ĠP ar
Ġà¤Ī à¤Ĥà¤Ł
ut put
Ġà¤Ĺà¥ģ à¤¡
à¤¸à¤Ĥà¤Ĺ à¥įà¤°à¤¹
angu ages
Ġà¤¨à¤ľà¤° à¤ħ
Ġà¤ªà¤ł à¤¾à¤°
Ġà¤ªà¤¿à¤¥ à¥ĭà¤°
> =
Ġà¤® à¤¾à¤ĩà¤¨
Ġà¤¥ à¤ķ
Ġw ind
Ġle ast
Ġà¤ķà¤¾à¤°à¥įà¤Ł à¥Ĥà¤¨
à¤¶à¤¾à¤² à¤¾à¤ĵà¤Ĥ
Ġà¤ķà¤¸à¥įà¤Ł à¤®
Ġà¤ļà¤¤ à¥ģà¤°
O ne
] [
Ġà¤¹ à¥īà¤ª
Ġà¤¢à¥Ĥà¤Ĥà¤¢ à¤¨à¤¾
Ġà¤¸à¤¾à¤ĩà¤Ł à¥ĭà¤Ĥ
Ġà¤ªà¤¿à¤¥à¥ĭà¤° à¤¾à¤Ĺà¤¢
- à¤¡à¥įà¤°
à¤® à¤Ĥà¤¦
à¤¯ à¥Ĥà¤¨
Ġà¤¤ à¥Ģà¤°
Ġà¤¸à¥ģ à¤¸
---- --
Ġreg ular
à¤¸à¤Ĥà¤¸à¥įà¤ķ à¥ĥà¤¤
Ġà¤ªà¥įà¤°à¥ĭà¤¸à¥ĩ à¤¸à¤°
" I
( g
Ġà¤ľ à¥īà¤°à¥įà¤¡à¤¨
Ġà¤ı à¤Ĥà¤Łà¤°
à¤¾à¤¸ à¥įà¤Łà¤°
à¤Ĥà¤¤ à¥ģà¤ķ
id ent
if ul
Ġà¤¯à¥Ĥ à¤ķà¥ĩ
Ġà¤¤à¤®à¤¿à¤² à¤¨à¤¾à¤¡à¥ģ
Ġà¤µà¥įà¤¯à¥ģà¤¤à¥įà¤ª à¤¨à¥įà¤¨
Ġà¤ķ à¥Ĥà¤ª
à¤Ĥ à¤¤à¥Ģ
Ġà¤ļ à¤¾à¤ķà¥Ĥ
à¤®à¥ĭà¤¹ à¤¨
Ġsumm ary
S h
à¥ĭ à¤£
à¤¸ à¤¹
Ġà¤¶ à¥įà¤²
Ġn on
Ġà¤¸à¥ģ à¤¨à¥įà¤¦à¤°
Ġà¤°à¤¹à¥ĩ à¤Ĺà¥Ģ
Ġà¤¸à¥Ģà¤® à¤¾à¤ıà¤ģ
Ġà¤ªà¥įà¤°à¤¤à¤¿à¤Ńà¤¾à¤Ĺ à¥Ģ
Ġà¤¨à¤¿à¤² à¤Ĥà¤¬
à¤® à¥Ģà¤¨
à¤ª à¤¾à¤ķ
à¤ª à¤¾à¤Ī
Ġà¤² à¥ĩà¤¸
Ġs w
à¥¨à¥¦à¥¦ à¥¯
AT E
Ġà¤ļà¤¿à¤¡à¤¼à¤¿à¤¯ à¤¾à¤ĺà¤°
à¤ķ à¥ģà¤Ł
à¥įà¤° à¥ĭà¤ª
ar ing
Ġà¤ĵ à¤ľ
Ġcon sum
Ġde ep
Ġà¤¸à¤¾à¤¬ à¥ģà¤¨
Ù ħ
à¤ĩ à¤Ĥà¤¡
Ġà¤¸à¤®à¤Ŀ à¤¦à¤¾à¤°
Ġà¤ªà¥įà¤°à¤µ à¤¾à¤¸à¥Ģ
Ġà¤ħà¤¸à¥įà¤¥ à¤®à¤¾
Ġà¤¸à¥Ĥà¤ĸ à¥Ģ
Ġeas y
3 50
Ġà¤ª à¤¾à¤£à¥įà¤¡
à¤¸ à¤Ńà¥Ģ
Ġà¤ķà¥ĩ à¤²
-à¤ķ à¥Īà¤ª
ĠN ational
(à¤ı à¤«
Ġà¤ªà¥įà¤°à¤¤à¤¿à¤¬à¤Ĥà¤§ à¥ĭà¤Ĥ
Ġà¤Ĺà¤Ĥà¤Ĺà¥ĭà¤²à¥Ģ à¤¹à¤¾à¤Ł
( à¤ķà¥ĩ
( à¤µà¤¿à¤ķà¤²à¥įà¤ªà¤ĥ
p ace
Ġà¤ķà¥ĩ à¤¶
Ġà¤¨ à¤¶à¥Ģ
à¤¿à¤² à¤°
à¤¾à¤µ à¤¾à¤¨
à¤¸à¤Ĥ à¤ķà¥įà¤·à¤¿à¤ªà¥įà¤¤
Ġà¤°à¤¿à¤ľ à¤°à¥įà¤µ
Ġmov ie
( K
Ġà¤ ĵà¤Ĥ
Ġà¤¹ à¤¾à¤ĩà¤ķ
Ġto ol
à¤®à¤° à¥įà¤°à¤¾
Ġà¤¨à¥ĩà¤µà¤¿à¤Ĺ à¥ĩà¤¶à¤¨
" ?
( word
- t
Ġà¤¹ à¤¾à¤¦
Ġc all
à¤¾à¤ķ à¤¥à¤¿à¤¤
Ġà¤ķà¤² à¤®
Ġà¤ķà¤®à¥įà¤¯à¥ģà¤¨ à¤¿à¤¸à¥įà¤Ł
Ġà¤ī à¤¬
Ġà¤ļ à¤¿à¤°
Ġà¤ļà¤² à¤¾à¤¨à¤¾
Ġcon c
ĠN ame
Ġà¤īà¤ł à¤¾à¤¤à¥ĩ
Ġà¤µ à¤¾à¤Ł
à¤Ĺ à¤Ĥà¤Ĺ
à¤¾à¤£ à¤¸à¥Ģ
Ġà¤Ĭ à¤°à¥įà¤§à¥įà¤µ
Ġà¤¦à¥Ĥ à¤Ĥà¤Ĺà¤¾
Ġà¤°à¥ĭ à¤¶à¤¨
Ġà¤¨à¤¿à¤°à¥įà¤Ńà¤° à¤¤à¤¾
Ġro bot
Ġà¤ķà¥Īà¤ª à¥įà¤Łà¤¨
à¤ļ à¥Ģà¤²
à¤ĸ à¥ģà¤¶
is f
Ġà¤¸à¥įà¤ķ à¤¾à¤Ī
Ġne ver
à¤¬à¥Ĥà¤Ŀ à¤ķà¤°
( O
Ð °
Ġà¤ķ à¥īà¤ķ
Ġà¤¬ à¥ĭà¤§
à¤µ à¤¿à¤¸à¥įà¤¤
Ġà¤ı à¤°à¤¿à¤ķ
Ġà¤¸à¤Ĥ à¤ªà¥Ģ
à¥ĩà¤² à¥įà¤¸
le ase
à¤¿à¤ª à¥ģà¤°
-à¤ª à¥ĭà¤·à¤£
-à¤® à¥ĩà¤²
po se
Ġà¤ħà¤¸à¤®à¤¾à¤¨ à¤¤à¤¾
Ġà¤Ŀà¤¾à¤° à¤ĸà¤Ĥà¤¡
A N
à¤¹ à¤¿à¤®
à¤ª à¥Ī
Ġà¤ľ à¤¡à¤¼à¥ĭà¤Ĥ
si de
Ġà¤¡ à¤¾
à¥ĭà¤ľ à¤¨à¥ĭà¤Ĥ
Ġm aj
à¥ĩà¤¬ à¥įà¤¯à¥Ĥ
Ġà¤Ĩà¤Ĺ à¤Ĥà¤¤à¥ģà¤ķà¥ĭà¤Ĥ
Ġà¤°à¤£à¤¨à¥Ģ à¤¤
Ġà¤Ĺà¥ģà¤ľà¤° à¤¤à¤¾
Ġà¤¨à¤¿à¤µà¥ĩà¤¶ à¤ķà¥ĭà¤Ĥ
à¤¬à¥įà¤¬ à¥Ģ
" L
à¤¬ à¤¤
Ġh y
Ġà¤¸à¤Ĥà¤Ń à¤¾à¤²à¤¾
ĠSt ates
Ġà¤ªà¥įà¤°à¥ĭà¤« à¤¾à¤ĩà¤²
Ġà¤¸à¤¿à¤¨ à¥įà¤¹à¤¾
à¤¹à¤¸ à¥ģà¤¨
O verall
is sions
Ġn ight
Ġà¤µà¤¿à¤¶à¥ĩà¤· à¤¤à¤¾à¤ıà¤ģ
Ġà¤¨à¤µ à¤ľà¤¾à¤¤
à¤¾à¤ľà¤¼ à¤¾
Ġà¤°à¤ķà¥įà¤¤ à¤¸à¥įà¤°à¤¾à¤µ
Ġà¤ªà¥įà¤°à¤Ń à¥ģ
Ġà¤¸à¤¾à¤Ĥà¤ĸà¥įà¤¯ à¤¿à¤ķà¥Ģ
( h
Ġà¤¦ à¥Ī
Ġà¤ªà¤° à¤¿à¤§à¤¿
Ġà¤ªà¤Ł à¤ķà¤¥à¤¾
Ġà¤°à¥ĭà¤ľ à¤¼
Ġev ents
- à¤¬à¥Ģ
o ard
y ear
Ġà¤¸à¤ªà¥įà¤¤à¤¾à¤¹ à¤¾à¤Ĥà¤¤
Ġspe cies
Ġà¤ªà¥ģà¤°à¤¾à¤¤ à¤¾à¤¤à¥įà¤µà¤¿à¤ķ
des cription
dition al
( ),
Ġ very
à¤² à¥ĭà¤¡
Ġà¤Ń à¥ĭà¤ªà¤¾à¤²
à¤« à¤²à¥Ģ
Ġà¤®à¤¹ à¤¾à¤¤à¥įà¤®à¤¾
Ġà¤¸à¤®à¤Ŀ à¤¤à¤¾
Ġà¤¸à¤Ĥà¤ª à¤¨à¥įà¤¨
Ġà¤ĩà¤Ĥà¤¡ à¥ĩà¤ķà¥įà¤¸
-à¤ļ à¤¢à¤¼
" m
r id
à¤¸ à¤Ĥà¤ª
à¤¾à¤° à¤¿à¤¯à¤¾
Ġà¤µ à¤ķà¤¾à¤²à¤¤
em ic
à¥ĭà¤® à¥ĩà¤Ł
Ġà¤¨à¤¿à¤°à¥įà¤¦à¥ĩà¤¶ à¤¿à¤ķà¤¾
Ġà¤¸à¤Ĥà¤ªà¥įà¤° à¤¦à¤¾à¤¯
Ġà¤¨à¤ľà¤°à¤ħ à¤Ĥà¤¦à¤¾à¤ľ
r ation
Ġà¤¸ à¤°à¥įà¤ļ
Ġm ight
Ġà¤ªà¥įà¤°à¤¶ à¤¾à¤¸
ri e
Ġà¤²à¥ĩà¤ĸ à¤¾
ĠM ath
Ġà¤¬à¥Ī à¤°
Ġà¤¸à¤°à¥įà¤µ à¤ªà¥įà¤°à¤¥à¤®
ĠU RL
Ġà¤ĩà¤Ĥà¤Łà¤° à¤«à¤¼à¥ĩà¤¸
") )
à¤¿à¤²à¥Ģ à¤ªà¥Ģ
à¤¾à¤Ĺà¥įà¤° à¤¸à¥įà¤¤
à¤¨à¥ģ à¤®à¤¾à¤¨
x ml
Ġà¤ĩ à¤ķà¥ĭ
Ġà¤¶ à¤ªà¤¥
Ġà¤ľà¥ĭ à¤¶
à¤¿à¤µ à¤¾à¤°à¥Ģ
Ġà¤§ à¥ģà¤¨
Ġà¤ħà¤¬ à¥įà¤°
Ġà¤ĳà¤ķà¥įà¤¸ à¤«à¥ĭà¤°à¥įà¤¡
Ġà¤ªà¤¿à¤¥ à¥Įà¤°
à¤Ĺ à¤¿à¤²
Ġe t
Ġg en
à¤Łà¥Ģ à¤®
.P rint
u ff
Ġà¤Ĺ à¤¾à¤ģ
Ġt aking
Ġà¤Ńà¤¾à¤° à¤¤à¥Ģ
Ġà¤¸à¥įà¤Ł à¥ĩà¤¶à¤¨à¥ĭà¤Ĥ
um ents
Ġà¤«à¥įà¤°à¤¾à¤Ĥà¤¸ à¤¿à¤¸
Ġrequire d
Ġà¤Ķà¤· à¤§
Ġà¤Ĩ à¤¯à¤¨
à¤¡ à¤¨
Ġà¤¹à¥ĭ à¤²à¥Ģ
Ġà¤¨à¤¿à¤¯ à¤¾à¤®à¤ķ
Ġà¤¬à¤² à¤¾à¤¤à¥įà¤ķà¤¾à¤°
Ġà¤µà¥įà¤¯à¤µà¤¸à¤¾à¤¯ à¥Ģ
Ġà¤Ĺà¥įà¤² à¥Ĥà¤ķ
Ġà¤ª à¤°à¥įà¤ļ
à¤¾à¤¯ à¤¤à¥Ģ
Ġà¤ħà¤¨ à¤¾à¤µà¤¶à¥įà¤¯à¤ķ
ed ia
Ġà¤®à¤¾à¤° à¤¿à¤¯à¤¾
Ġà¤ĸà¤°à¥Ģà¤¦ à¤¨à¤¾
Ġmark eting
Ġà¤¸à¥ģà¤§ à¤¾à¤°à¥ĭà¤Ĥ
à¥ĭ à¤¯
Ġà¤¬ à¥ĩà¤¤
Ġà¤¶ à¤¾à¤¬à¥įà¤¦à¤¿à¤ķ
à¥įà¤ª à¤¾à¤¤
Ġo thers
Ġà¤¡à¤¾à¤² à¤¤à¥Ģ
Ġà¤ħà¤¨à¥ģà¤ª à¤¸à¥įà¤¥à¤¿à¤¤à¤¿
à¤Ńà¤¾à¤Ĺ à¥įà¤¯
Ġà¤¸à¤®à¤¾à¤¯ à¥ĭà¤ľà¤¨
Ġpass word
" ),
Ġà¤ī à¤Ĺà¥įà¤°
-à¤ª à¥Ĥà¤°à¤¾
port s
Ġà¤Ńà¥Ĥ à¤µà¥Īà¤ľà¥įà¤ŀà¤¾à¤¨à¤¿à¤ķ
Ġà¤¸à¤¾à¤¹ à¤¿à¤¬
iver sity
Ġà¤ľà¥įà¤¯à¤¾à¤® à¤¿à¤¤à¤¿
V i
a pe
à¤µ à¥ĩà¤¨
Ġà¤ļ à¥Īà¤ª
Ġà¤ĵ à¤¸
Ġimport ance
Ġà¤ªà¤¶à¥įà¤ļ à¤¾à¤¤à¥į
Ġà¤ĸà¤° à¤Ĺà¥ĭà¤¶
Ġà¤ľ à¤²à¥Ģà¤¯
à¤Ĺ à¤®
Ġà¤¬ à¤¢
Ġà¤Ĺ à¤¾à¤¨à¤¾
Ġà¤Ĺ à¥įà¤¯à¤¾à¤°
Ġà¤īà¤ª à¥ĩ
à¤¾à¤ľ à¤¨
Ġst rength
à¤®à¥įà¤ª à¤¿à¤ķ
Ġà¤ħà¤Ĥà¤ķ à¥ģà¤°
à¥¨à¥¦à¥¦ à¥®
Ġexp ect
po int
( J
Ġà¤¨ à¤¾à¤ľ
à¥ī à¤ľ
Ġà¤¦à¥ĩà¤ĸ à¤¤à¥Ģ
Ġà¤¸à¥ĭ à¤¨à¥Ģ
Ġà¤Ľà¥ģà¤Ł à¥įà¤Łà¤¿à¤¯à¥ĭà¤Ĥ
à¤°à¥Ģ à¤ľà¤¼
Ġs cript
Ġà¤¶à¥ģà¤° à¥ģ
Ġv ol
à¤¾à¤§à¤¿à¤ķ à¤¾à¤°à¥ĭà¤Ĥ
Ġà¤¸à¤Ĥà¤ªà¥įà¤° à¤Ńà¥ģ
Ġà¤ķà¥Īà¤®à¥įà¤¬ à¥įà¤°à¤¿à¤ľ
- à¤Ī
à¥ĩà¤¶ à¤¿à¤¯à¤°
Ġc ertain
Ġà¤¬à¤ļ à¤¾à¤¤à¤¾
à¤µà¤¿à¤§ à¤¾
Ġà¤¸à¤ª à¤¾à¤Ł
Ġà¤ªà¥įà¤°à¥ĩà¤® à¤¿à¤ķà¤¾
Ġà¤ªà¥Ģà¤¡à¤¼à¤¿à¤¤ à¥ĭà¤Ĥ
Ġà¤®à¥Īà¤°à¥Ģ à¤²à¥Īà¤Ĥà¤¡
Ġà¤¬à¥ĩà¤ķ à¤¿à¤Ĥà¤Ĺ
Ġsort ed
g o
Ġà¤¦ à¤¾à¤Ĺ
Ġà¤ĺ à¤¬à¤°
Ġà¤ķà¤°à¥ĩà¤Ĥ à¤Ĺà¥Ģ
Ġà¤ķà¥Ī à¤¬à¤¿à¤¨à¥ĩà¤Ł
ot s
Ġà¤®à¥īà¤¡ à¤²à¥ĭà¤Ĥ
Ġà¤¬à¥ī à¤¡à¥Ģ
à¤ķà¥įà¤¯à¥Ĥ à¤ıà¤²
Ġà¤¹à¤¿à¤° à¤¾à¤¸à¤¤
T ime
Ġà¤¸ à¤Ĭà¤¦à¥Ģ
à¤® à¥ĩà¤°à¥Ģ
Ġà¤ľ à¤¾à¤°
Ġà¤°à¤µ à¤¾à¤¨à¤¾
Ġà¤ªà¥ģà¤£ à¥ĩ
Ġà¤ħà¤Ńà¤¯ à¤¾à¤°à¤£à¥įà¤¯
à¥Ī à¤ļ
à¤¸ à¥įà¤®à¤¿à¤ķ
Ġà¤¡ à¥īà¤²
Ġà¤®à¤¹ à¤Ĥà¤Ĺà¤¾
-à¤ª à¤¾à¤°
à¥ĥà¤¤à¥įà¤¤ à¤¿à¤¯à¥ĭà¤Ĥ
Ġà¤¸à¥ģà¤ª à¥įà¤°à¥Ģà¤®
à¤¨ à¤¾à¤¨
Ġà¤« à¥ĭà¤°à¥įà¤Ł
Ġd one
ul es
Ġhe art
Ġà¤«à¤² à¤¨
Ġà¤¨à¤¿à¤Ń à¤¾à¤¤à¤¾
Ġà¤īà¤² à¥įà¤Łà¥Ģ
Ġà¤¨à¤¿à¤°à¤¾à¤¶ à¤¾
O f
Ġà¤¬ à¤¿à¤°
Ġà¤ķà¤¾à¤° à¤ĸà¤¾à¤¨à¥ĩ
Ġà¤ķà¥įà¤· à¥ģà¤¦à¥įà¤°à¤Ĺà¥įà¤°à¤¹
à¤ľà¤¨ à¥įà¤¯
Ġà¤ªà¤°à¥Ģ à¤ķà¥įà¤·
Ġà¤ķà¤¾à¤¨ à¤ªà¥ģà¤°
Ġà¤ªà¥Ĥà¤Ľ à¤¨à¥ĩ
Ġà¤¸à¥ĩà¤Ĥà¤Ł à¥Ģ
Ġà¤ªà¤°à¤¿à¤® à¤¾à¤£
Ġp ut
Ġà¤ļà¥ģà¤¨ à¤¤à¥ĩ
Ġà¤¤à¤°à¤Ĥà¤Ĺ à¥ĭà¤Ĥ
Ġà¤ķà¤¿à¤°à¤£ à¥ĭà¤Ĥ
(à¤ħà¤Ĥà¤Ĺà¥įà¤° à¥ĩà¤ľà¥Ģ
à¤°à¤¾à¤ľà¤¨à¥Ģ à¤¤à¤¿à¤ķ
P h
à ²
Ġà¤ļ à¥Ĥà¤ķ
à¤¾à¤ľ à¤ķ
à¤¿à¤¡ à¥ĩ
Ġà¤¸à¥įà¤ªà¤·à¥įà¤Ł à¤¤à¤¾
Ġse quence
194 4
Ġab ility
Ġhel ps
Ġover all
Ġà¤¨ à¤¿à¤Ĥà¤¦à¤¾
Ġà¤¦ à¤¾à¤¦à¥Ģ
ĠA ll
ĠW HERE
Ġà¤ªà¤² à¤Ł
Ġà¤°à¤¾à¤¨à¥Ģ à¤ĸà¥ĩà¤¤
Ġaut om
à¤¹à¤¿à¤¨à¥įà¤¦ à¥Ĥ
Ġà¤ĩà¤Ĥà¤Łà¥ĩà¤² à¤¿à¤ľ
à¤² à¤¾à¤Ī
à¤¦ à¤¾à¤°à¥ĭà¤Ĥ
Ġà¤Ł à¥įà¤¯à¥Ĥà¤Ł
Ġà¤²à¥ĩ à¤¯à¤°
à¤¿à¤Ĺ à¤®
Ġà¤Ĭà¤Ĥà¤ļ à¥Ģ
ĠCom m
Ġà¤®à¤¾à¤¯ à¤¨à¥ĩ
Ġà¤Ĺà¥ģà¤¸ à¥įà¤¸à¥ĩ
à¤Ĺ à¥ģà¤²
à¥Į à¤¦à¤¾
à¤¿à¤° à¥ĭà¤§à¥Ģ
à¤¹à¤° à¤¾à¤¦
à¤ľà¤¼ à¤¾à¤°
à¤¾à¤ĩà¤ķ à¤²
Ġà¤ĩà¤Ĥà¤ľà¥Ģà¤¨à¤¿à¤¯à¤° à¥ĭà¤Ĥ
Ġà¤ħà¤¸à¥įà¤ªà¤¤à¤¾à¤² à¥ĭà¤Ĥ
Ġà¤¸à¥Ģà¤Ł à¥ĩà¤Ĥ
Ġind ex
Ġà¤ļà¥Įà¤¥ à¤¾à¤Ī
Ġà¤īà¤ªà¤ľà¤¼ à¤¿à¤²à¤¾
Ġà¤² à¤¾à¤¨à¤¾
Ġà¤Ĺà¥ģ à¤ľà¤¼à¤°
Ġà¤ªà¥Ĥà¤°à¥įà¤µ à¤µà¤°à¥įà¤¤à¥Ģ
Ġà¤®à¥Ī à¤²
act er
Ġà¤ķà¤µ à¤¿à¤¤
Ġà¤²à¤®à¥įà¤¬ à¥Ģ
Ġcar bon
h er
Ġà¤ħ à¤¨à¥įà¤¦à¤°
Ġà¤¨ à¤ķà¥įà¤·à¤¤à¥įà¤°
à¤¬ à¤²à¥Ģ
à¤« à¤¿à¤¶
ĠC an
ph p
Ġà¤¸à¤¾à¤¹ à¤¸à¤¿à¤ķ
Ġà¤ĩà¤Ĥà¤¸ à¤¾à¤¨
Ġà¤¨à¤¤à¥Ģ à¤ľà¤¤à¤¨
Ġcre ated
Ġà¤ĺà¥ĭà¤Ĥà¤¸ à¤²à¥ĩ
à¥ĩà¤Ĥà¤¶ à¤¿à¤¯à¤²
à¤¿à¤ķ à¤¤à¤¾
-à¤ħ à¤¨
à¥¨à¥¦à¥§à¥ ©
Ġà¤ķà¤¬à¥įà¤° à¤¿à¤¸à¥įà¤¤à¤¾à¤¨
Ġà¤ķà¤° à¤¾à¤Ī
Ġà¤¤ à¤¾à¤Ĥ
Ġà¤¯ à¥ĭà¤¨
Ġs ing
Ġà¤ħà¤µ à¤§
Ġà¤¨à¥Ģ à¤²à¥Ģ
12 5
Ġà¤¨à¤¿à¤Ń à¤¾
Ġà¤ľà¤¾à¤¦ à¥ģà¤Ī
k en
à¤Ń à¥įà¤°
Ġà¤¸à¤® à¥įà¤ªà¥įà¤°
Ġà¤µà¤¿à¤¶ à¥įà¤°à¤¾à¤®
Ġà¤ªà¥įà¤°à¤¯à¥ĭà¤Ĺ à¤¾à¤¤à¥įà¤®à¤ķ
o res
Ġà¤¦ à¤¹à¥Ģ
Ġà¤ļ à¥ģà¤®à¥įà¤¬à¤ķà¥Ģà¤¯
Ġà¤¬à¥įà¤° à¤¾à¤¯à¤¨
Ġà¤¦à¥Ģà¤ª à¤ķ
à¤¬ à¤¸
Ġà¤¹à¤¾à¤² à¤¤
wor ks
Ġà¤¦à¥ĭà¤Ĺ à¥ģà¤¨à¤¾
Ġà¤ľà¤¼à¤°à¥Ĥà¤° à¤¤
Ġà¤ķà¥Įà¤¶ à¤²à¥ĭà¤Ĥ
C H
à¤® à¤Ĥà¤ļ
Ġc lean
Ġà¤ªà¥įà¤°à¤¤ à¤¿à¤µ
à¤°à¥įà¤® à¤¿à¤¤
à¥ĭà¤¸ à¥įà¤²
Ġà¤¤à¤Ł à¤¸à¥įà¤¥
Ġà¤Ĭà¤ģ à¤ļà¥ĩ
Ġf ru
Ġà¤ªà¤¤à¥įà¤° à¤¿à¤ķà¤¾à¤ĵà¤Ĥ
Ġsent ences
Ġà¤¡à¥ĩà¤¨ à¤¿à¤¯à¤²
S o
Ġ Ï
à¤ķ à¥įà¤°à¥Ģà¤®
Ġà¤¬ à¥Ĥà¤Ł
Ġà¤ĸ à¤£à¥įà¤¡
Ġd ays
om s
et ers
ĠS u
ur y
ĠC ent
Ġà¤¸à¥įà¤ª à¥Ģà¤¡
à¥ĩà¤ķà¥įà¤¸ à¤ª
Ġà¤¯à¥ģà¤¦à¥įà¤§ à¥ĭà¤Ĥ
Ġà¤Ĺà¥ģà¤ľà¤° à¤¤à¥ĩ
Ġstrateg ies
à¤¯à¥ģà¤Ĺ à¥Ģà¤¨
c an
{ '
Ġà¤¶ à¤¿à¤°
Ġà¤¬à¤¾à¤² à¤ķ
Ġà¤ĩà¤Ĥà¤¡ à¤¿à¤¯à¤¾à¤¨à¤¾
Ġcomp on
Ġà¤ĩà¤Ĥà¤¸ à¥ģà¤²à¤¿à¤¨
On ce
ĠDel hi
Ġà¤ªà¤Ĥà¤¦à¥įà¤° à¤¹
( à¤Łà¥Ģ
Ġà¤¹ à¥ĩà¤ª
Ġà¤® à¤¿à¤°
Ġà¤µ à¥ĩà¤§
Ġà¤¶ à¥ĩà¤«
Ġà¤Ł à¥ĭà¤¨à¥Ģ
Ġà¤Ĺà¥įà¤° à¥ĩà¤¨
ect or
à¤ļà¤ķ à¤¿à¤¤
Ġà¤ªà¤¡à¤¼à¥ĩ à¤Ĺà¤¾
Ġà¤ļà¤¾à¤ģ à¤¦
à¤ķ à¤¤à¥įà¤¤à¤¾
Ġà¤¬ à¤¿à¤¹
à¤µ à¥ĩà¤¬
Ġà¤ļ à¤®à¤¤
ra c
Ġwh e
Ġà¤¤à¤² à¤Ľ
à¤¹à¤°à¤¾à¤¦ à¥Ĥà¤¨
H ow
Ġà¤® à¤µà¥ĩà¤¶
à¥įà¤¯ à¤¾à¤²
Ġà¤¶ à¥ĭà¤ķ
à¥įà¤ª à¤°
Ġà¤¸à¥įà¤Ł à¤¡à¥Ģ
Ġà¤¢ à¥Ģ
âĢĺ âĢĺ
Ġà¤ļà¥ĭà¤Ł à¥ĭà¤Ĥ
Ġà¤¤à¥įà¤¯ à¥ĭà¤¹à¤¾à¤°
Ġà¤ªà¥įà¤°à¤¶à¤Ĥà¤¸ à¤ķ
Ġà¤¬à¤²à¥įà¤²à¥ĩà¤¬ à¤¾à¤ľà¥Ģ
à¥įà¤¯à¤µ à¤¹à¤¾à¤°
Ġà¤Łà¥įà¤°à¤¾à¤Ĥ à¤ľ
Ġà¤¸à¥Īà¤Ĥà¤ª à¤²
B N
à¤¸ à¤¿à¤¸
Ġt imes
en sity
Ġo ld
Ġn ut
im age
ly ing
ĠB Y
Ġà¤¶à¤¾à¤¸ à¤¿à¤¤
Ġeng ine
Ġà¤¬à¤¦à¤® à¤¾à¤¶à¥Ģ
Ġà¤ķà¥įà¤µà¤¾à¤° à¥įà¤Łà¤°
- à¤¶à¥Ģà¤°à¥įà¤·à¤ķ
à ´
Ġà¤® à¥ĩà¤ľà¤¼
Ġan imal
Ġà¤ľà¤¾à¤¨ à¤¬à¥Ĥà¤Ŀà¤ķà¤°
à¤¨à¥įà¤¯ à¤¾à¤¯
ual ly
Ġdire ct
( W
U n
Ġà¤¬à¤¢à¤¼ à¤¨à¤¾
Ġà¤ľà¤² à¤¾à¤¨à¥ĩ
Ġà¤Łà¥įà¤° à¤¿à¤Ĺà¤°
ĠL a
Ġà¤ªà¥ģà¤¨ à¤°à¥įà¤ļà¤ķà¥įà¤°à¤£
/ web
à¤¨ à¥į
Ġà¤¬ à¥ĩà¤¡à¤¼
Ġà¤¨ à¤¾à¤ª
Ġà¤ĸ à¤¨à¥įà¤¨à¤¾
Ġin s
à¤¸à¥įà¤Ł à¥ĭà¤¨
Ġà¤ªà¤°à¥įà¤¯ à¤¾à¤¯
Ġà¤ķà¤² à¤¾à¤ķà¥ĥà¤¤
Ġà¤ªà¤¢à¤¼ à¤¤à¥ĩ
Ġà¤²à¥Ģ à¤Łà¤°
Ġà¤¸à¤Ĥà¤ĸà¥įà¤¯ à¤¾à¤ıà¤Ĥ
Ġfe ature
Ġà¤ķà¥Ģà¤®à¤¤ à¥ĩà¤Ĥ
Ġà¤¹à¤¾à¤ĩà¤¡à¥įà¤° à¥ĭ
Ġact ivity
Ġmethod s
Ġà¤¸à¥įà¤Łà¥Ģ à¤«à¤¨
Ġà¤¯ à¤¶
à¤ľ à¤¾à¤°à¥Ģ
à¤ħ à¤¸à¤²
Ġà¤²à¤Ĺ à¥ĩà¤Ĺà¤¾
Ġà¤ĳ à¤°à¥įà¤ķ
à¤°à¥įà¤Ł à¥Ģ
Ġà¤ľà¤¨ à¤¸à¤¾à¤Ĥà¤ĸà¥įà¤¯
Ġà¤ªà¤¤à¥įà¤¥ à¤°à¥ĭà¤Ĥ
Ġph r
Ġà¤ľà¥įà¤µ à¤¾à¤°
à¤² à¥įà¤Ł
à¤µ à¥įà¤¯à¥ĭà¤Ĥ
ĠI NT
Ġwe ather
Ġacc ording
Ġà¤²à¥Ī à¤Ĥà¤Ĺ
Ġcomple te
Ġà¤¬à¤¿à¤Ĺ à¤¡à¤¼
" N
C O
à¥ĭ à¤²à¥ĩ
Ġà¤¶ à¤¿à¤·à¥įà¤¯
Ġà¤¶ à¥įà¤¯à¤¾à¤®
Ġà¤®à¤¾à¤¨à¤µ à¤¾à¤§à¤¿à¤ķà¤¾à¤°
one y
Ġrec ord
Ġà¤¸à¤¿à¤ķà¥įà¤ķ à¥ĩ
à¤ļà¥Ģà¤² à¤¾à¤ªà¤¨
. archive
f ile
o es
Ġà¤ķ à¤¾à¤¶à¥Ģ
Ġt akes
à¤¥ à¥Ģ
à¤Ĩ à¤®
à¤¾à¤Ĭ à¤Ĥà¤Ĺà¤¾
Ġà¤¸à¤Ĥà¤ķà¥ĩà¤¤ à¤ķ
à¤¾à¤¨à¥įà¤¤ à¤¿
-à¤¶ à¥Īà¤²à¥Ģ
Ġà¤ªà¥įà¤²à¥ĩà¤Ł à¤«à¤¾à¤°à¥įà¤®
Ġà¤¦à¥ģà¤ĸ à¤¦
Ġà¤¯à¤¾à¤ļ à¤¿à¤ķà¤¾
j ust
Ġal ong
Ġà¤ľà¥Ĥ à¤Ŀ
Ġà¤¤ à¤¿à¤µà¤¾à¤°à¥Ģ
Ġà¤ľà¥ĭ à¤¨
Ġà¤¸à¥Ģ à¤ľà¤¨
Ġà¤¸à¥įà¤Ł à¥įà¤°à¥Ģà¤®
Ġà¤¡à¥įà¤° à¤®
Ġà¤°à¥Ģ à¤¤à¤¿
ĉĉ ĉ
Ġpower ful
Ġà¤°à¥ĩà¤ľ à¤¿à¤®à¥ĩà¤Ĥà¤Ł
> >
T e
b ook
Ġà¤² à¤Łà¤ķ
à¤¡ à¥ĩà¤²
à¥ģà¤ ł
à¤Ĥà¤¡ à¤¨
Ġà¤ķà¤¿à¤¸ à¤¨à¥ĩ
ill ion
Ġà¤°à¤¿à¤ªà¥ĭà¤°à¥įà¤Ł à¥ĭà¤Ĥ
à¥ĩà¤ļ à¤¨
Ġà¤Łà¥ĩà¤¸à¥įà¤Ł à¤¿à¤Ĥà¤Ĺ
Ġà¤¨à¥ī à¤°à¥įà¤µà¥ĩ
Ġà¤ªà¤¾à¤¦ à¤°à¥Ģ
à¤µà¤¾à¤¡à¤¼ à¤¾
Ġà¤Łà¥įà¤¯à¥Ĥà¤Ł à¥ĭà¤°à¤¿à¤¯à¤²
" à¤µà¥ĩ
> </
Ġà¤¸ à¤¸à¥įà¤¤à¤¾
à¤¬ à¥īà¤²à¤°
Ġà¤ļ à¥Īà¤²
Ġà¤« à¥īà¤ķà¥įà¤¸
à¤¾à¤µ à¤¾à¤¦à¥Ģ
à¤¾à¤¹ à¥ĩ
à¤« à¥ĭà¤²
à¤Ĥà¤¬ à¤Ĥà¤§
Ġl oop
Ġà¤®à¤¿à¤¶ à¥įà¤°à¤¾
Ġà¤¤à¤¥ à¤¾à¤ķà¤¥à¤¿à¤¤
ide o
Ġà¤ķà¤¿à¤² à¥ĭ
à¥īà¤¸ à¥įà¤«
Ġmu ch
Ġà¤ªà¤° à¤¤à¥ĭà¤Ĥ
Ġà¤¬à¥Ģ à¤¤
Ġà¤®à¤¹à¤¤à¥įà¤µ à¤¾à¤ķà¤¾à¤Ĥ
Ġà¤ªà¤°à¤¿à¤¯ à¥ĭà¤ľà¤¨
Ġà¤Ĩà¤ı à¤Ĺà¤¾
à¤®à¥ĩà¤° à¤¾
Ġà¤īà¤¤à¥įà¤¤à¥ĩà¤ľ à¤¨à¤¾
10 1
ist an
à¥ĭà¤¬ à¤¾
Ġab ove
Ġà¤Ĺà¤¾à¤Ĥà¤µ à¥ĭà¤Ĥ
à¤¾à¤Ĺà¥įà¤° à¤¾à¤®
Ġà¤² à¤¿à¤«à¥įà¤Ł
à¤¤à¥Ģ à¤¶
Ġà¤Ĺà¤ł à¤¿à¤¤
" F
Ġà¤¸ à¤¸à¥įà¤¤à¥ĩ
ar a
à¤°à¥įà¤µ à¤¾à¤¦
ĠJ ohn
Ġvari ables
à¤µà¤¿à¤Ń à¤¿à¤¨à¥įà¤¨
Ġà¤¸ à¤°à¥įà¤ª
à¤µ à¥ĥà¤¤à¥įà¤¤à¤¿
Ġt ree
al a
à¥ĥà¤¤ à¤¿à¤¯à¥ĭà¤Ĥ
à¤· à¤¾
à¤ªà¥įà¤° à¤¿à¤Ĥà¤Ł
Ġà¤īà¤¤à¥įà¤ªà¤¾à¤¦ à¤ķà¥ĭà¤Ĥ
Ġà¤²à¤¾à¤ĩ à¤¨à¥ĭà¤Ĥ
à¤¦à¤°à¥įà¤¶ à¤¿à¤¤à¤¾
Ġà¤¤à¤¾à¤° à¤¾à¤®à¤Ĥà¤¡à¤²
à¤¬à¥ī à¤¡à¥Ģ
Ġà¤ħà¤¨à¥ģà¤· à¥įà¤ł
( st
i ps
o e
s h
Ġà¤¸à¤Ĥ à¤Ĺà¥Ģ
Ġà¤ıà¤² à¥ĩà¤ķà¥įà¤¸
ab it
Ġà¤¢ à¤¾à¤ķà¤¾
194 1
Ġà¤¶à¤¾à¤Ĥà¤¤ à¤¿à¤ªà¥Ĥà¤°à¥įà¤£
à¥§à¥¯ à¥¦
Ġà¤¬à¥įà¤²à¥īà¤ķ à¤ļà¥ĩà¤¨
Ġà¤ļà¤®à¤ķ à¤¦à¤¾à¤°
- in
it ing
Ġà¤ħà¤µ à¤¶à¥įà¤¯
Ġà¤¨à¤µ à¤¾à¤ļà¤¾à¤°à¥Ģ
Ġà¤ªà¤¹à¥ģà¤ģà¤ļ à¤¤à¥ĩ
-à¤² à¥ĩà¤ĸ
Ġà¤®à¥ģà¤¹ à¤¾à¤µ
sib ility
" à¤¸à¥įà¤µ
Ġà¤® à¥ĩà¤ĺ
à¤Ĺ à¤¾à¤¦
à¤ļ à¤ķà¥ĭà¤Ĥ
à¤¿à¤ľ à¥ĭà¤¨à¤¾
Ġkn own
- à¤ķà¤¾à¤°
- à¤ıà¤¨
Ġà¤µ à¤¾à¤ĩ
Ġà¤¬à¥įà¤° à¥ģà¤ķ
Ġà¤¨à¤¿à¤ķ à¤²à¥ĩ
Ġà¤µà¤¿à¤ľ à¥ģà¤ħà¤²
Ġà¤Ĺà¥ĭ à¤²à¥ĩ
emb ers
Ġà¤¸à¥įà¤ªà¥ĩà¤ķà¥įà¤Łà¥įà¤° à¤®
( String
Ġà¤® à¥Ĥà¤°
Ġà¤Ń à¥ģà¤ľ
Ġà¤« à¥ģà¤²
it ect
Ġà¤ķà¥įà¤° à¥ĭà¤§
Ġà¤ªà¥Ĥà¤°à¥įà¤µ à¤ľ
Ġà¤¸à¤¾à¤² à¤¾à¤¨à¤¾
Ġà¤«à¤² à¤¸à¥įà¤µà¤°à¥Ĥà¤ª
Ġfunction s
Ġà¤ħà¤°à¥įà¤ľ à¥ĩà¤Ĥà¤Łà¥Ģà¤¨à¤¾
Ġà¤Ĺà¥ĭà¤²à¥Ģ à¤¬à¤¾à¤°à¥Ģ
Ġà¤Łà¥ĭà¤ķ à¤¨
Ġcent er
Ġà¤¬à¥įà¤°à¤¾à¤ī à¤ľà¤¼
à¥ĭ à¤¨à¥įà¤¨
Ġà¤¡ à¥īà¤¨
on es
od ing
Ġar g
Ġme ans
Ġà¤Ĺà¤¾à¤¯ à¤¿à¤ķà¤¾
Ġà¤Īà¤®à¤¾à¤¨ à¤¦à¤¾à¤°à¥Ģ
Ġà¤§à¥Ĥà¤®à¤ķà¥ĩ à¤¤à¥ģ
Ġà¤ĺà¥Ĥà¤°à¥įà¤£ à¤¨
à¤° à¥Ĥ
à¤® à¥Ģà¤°
à¤¯à¥ĭà¤Ĺ à¥įà¤¯
Ġà¤¸à¤®à¤Ŀ à¤¾à¤ıà¤Ĥ
Ġà¤®à¤² à¤¯à¤¾à¤²à¤®
Ġà¤§à¤¾à¤¤ à¥ģà¤ĵà¤Ĥ
Ġà¤Ľà¤¿à¤ª à¥ĩ
Ġà¤¶à¤¿à¤² à¤¾à¤²à¥ĩà¤ĸ
9 00
Y ou
à¤¸ à¤°à¥įà¤µ
à¤¬à¥Ģ à¤Ĩà¤Ī
ĠL e
Re ad
à¤¿à¤²à¥Ģà¤ªà¥Ģ à¤Ĥà¤¸
p ur
à¤¦ à¤¿à¤µ
Ġà¤ļ à¥Ĥà¤ģà¤ķà¤¿
Ġà¤« à¤¿à¤¶
à¤ĸ à¥ĩà¤²
à¤ħ à¤®à¥ĩà¤°à¤¿à¤ķà¤¾
Ġb as
id ence
Ġà¤¸à¥ĭ à¤¡à¤¾
Ġà¤¯à¥Ĥ à¤ľà¤°
Ġà¤µà¤¾à¤¯à¤° à¤²à¥ĩà¤¸
Ġà¤®à¤¨à¥ĭà¤° à¤Ĥà¤ľà¤ķ
Ġsome thing
Ġà¤īà¤¤à¤° à¤¨à¥ĩ
Ġà¤Ĺà¤¡à¤¼à¤¬ à¤¡à¤¼à¥Ģ
Ġà¤ļà¥ĭà¤ª à¤¡à¤¼à¤¾
Ġà¤ĸ à¥Īà¤°
à¥įà¤¸ à¥įà¤Ł
or n
Ġà¤µà¤¿à¤¸ à¥įà¤ķ
Ġà¤ħà¤Ĥà¤Ĺ à¥Ĥà¤°
Ġà¤µà¤¿à¤® à¤¾à¤¨à¥ĭà¤Ĥ
Ġà¤¸à¥įà¤² à¤¾à¤ĩà¤¡
Ġà¤¸à¤¿à¤Ĺ à¤°à¥ĩà¤Ł
Ġprot ect
Ġà¤īà¤Ńà¤° à¤¤à¥ĩ
Ġà¤ªà¥ģà¤¨à¤°à¤¾à¤µ à¥ĥà¤¤à¥įà¤¤à¤¿
Ġà¤¯à¥ĭà¤¦à¥įà¤§ à¤¾
( arr
C S
à¤ķ à¤¾à¤Ĥà¤Ĺ
Ġà¤¸ à¥Ĥà¤ª
à¤ļ à¥ĩà¤Ĥà¤ľ
à¤¶ à¥Īà¤²à¥Ģ
à¤ķà¤¾à¤° à¤¿à¤¤à¤¾
à¤¾à¤ĸ à¤¾à¤²
ĠĠĠĠĠĠĠĠ ĠĠĠĠ
Ġà¤ªà¥įà¤°à¤ķ à¤°à¤£
-à¤¸ à¥įà¤µ
à¤ıà¤¸ à¤ªà¥Ģ
we ight
Ġà¤¬à¤¾à¤§ à¥įà¤¯
ĠDef ine
Ġà¤¦ à¤¹
Ġà¤° à¥Īà¤ª
à¥ģà¤ ĵ
Ġs q
Ġà¤ĺ à¥ĭà¤Ł
Ġà¤ķà¥įà¤· à¤®à¤¾
Ġà¤ĸà¥ĭà¤ľ à¤¾
Ġà¤ķà¤µ à¤¿à¤¤à¤¾à¤ĵà¤Ĥ
Ġà¤ľà¤¿à¤¤ à¤¨à¥ĩ
Ġà¤ħ à¤ļ
Ġà¤¨ à¤¾à¤°à¥Ģ
Ġà¤¦ à¥ģà¤ĸà¥Ģ
à¤¾à¤¸ à¥įà¤«à¥Ģà¤¤à¤¿
à¥įà¤ķ à¥ĭà¤¹
Ġas soci
Ġà¤«à¥įà¤° à¤Ĥà¤Ł
Ġà¤®à¤§à¥įà¤¯ à¤¸à¥įà¤¥
In di
Ġà¤¹à¤¸à¥įà¤¤ à¤¾à¤Ĥà¤¤à¤°à¤£
Ġà¤Ĩà¤¶à¥įà¤ļà¤°à¥įà¤¯ à¤ļà¤ķà¤¿à¤¤
Ġà¤«à¥įà¤°à¥ĩà¤¡ à¤°à¤¿à¤ķ
Ġà¤Ĺà¤¾à¤ľ à¤°
Ġà¤¨à¤¶à¥Ģ à¤²à¥Ģ
. M
Ġà¤µ à¥īà¤¨
à¤µ à¥īà¤²
Ġà¤¥ à¤¿à¤¯
Ġc irc
à¤°à¥įà¤· à¤¿
Ġà¤Ĩà¤ķà¤¾à¤° à¥ĭà¤Ĥ
Ġint elligence
vi ous
C ol
Ġà¤ı à¤Ĺ
Ġdist ance
Ġà¤Ĩà¤µà¤Ĥà¤Ł à¤¿à¤¤
Ġà¤ħ à¤Ĥà¤ļà¤²
Ġà¤² à¤ļà¥Ģà¤²à¤¾à¤ªà¤¨
Ġà¤ħà¤ªà¥įà¤°à¤¤à¥įà¤¯ à¤ķà¥įà¤·
Ġingredi ents
à¤² à¤ªà¥ģà¤°
Ġà¤Ĩ à¤Łà¤¾
à¤¬ à¥ģà¤²
à¤ķà¥įà¤· à¥Ģà¤¯
Ġà¤®à¥Ī à¤ķà¥įà¤°
Ġà¤¬à¥įà¤² à¥ī
ĠIn tern
Ġà¤ĸà¥ĭà¤² à¥ĩà¤Ĥ
Ġà¤²à¤¾à¤ª à¤¤à¤¾
Ġà¤ķà¤Ĥà¤§ à¥ĩ
Ġà¤¯à¥Ĥà¤Ł à¥įà¤¯à¥Ĥà¤¬
Ġà¤° à¤ļà¤¨à¤¾à¤ĵà¤Ĥ
à¤ķà¥ĩ à¤¸
à¥ĭà¤Ł à¥Ģà¤¨
ent iment
Ġà¤ķà¤¾à¤® à¥ĭà¤Ĥ
ĠR uby
Ġà¤Ĺà¥ĭà¤² à¥įà¤«
Ġà¤ªà¤°à¤¿à¤ļ à¤¾à¤²à¤¨
cre t
Ġà¤¯à¥ĭà¤ľà¤¨ à¤¾à¤ıà¤Ĥ
Ġà¤° à¤¾à¤Ĺ
à¤¾à¤¦ à¤¿à¤¤
à¥Ģà¤µ à¤°à¥Ģ
Ġà¤ħà¤µ à¤Ĺà¤¤
Ġà¤¦à¥Ģ à¤ľà¤¿à¤ı
Ġac ross
Ġà¤¸à¤®à¥įà¤Ń à¤µ
Ø ±
Ġà¤® à¥įà¤¯à¥Ĥ
Ġt erm
Ġà¤ªà¤¹à¥ģà¤Ĥà¤ļ à¤¤à¥Ģ
(à¤ª à¥Ģà¤¡à¥Ģ
-à¤² à¥ĩà¤ķà¤¿à¤¨
Ġà¤ıà¤¥ à¤²à¥ĩà¤Ł
Ġà¤Ĩà¤ķà¤¾à¤¶ à¤Ĺà¤Ĥà¤Ĺà¤¾
Ġà¤¸à¤Ĥà¤¯à¤Ĥà¤¤à¥įà¤° à¥ĭà¤Ĥ
Ġà¤īà¤¨à¥įà¤® à¥Ĥà¤²à¤¨
Ġaudi ence
Ġà¤ħà¤Ĥà¤Łà¤¾à¤°à¥įà¤ķ à¤Łà¤¿à¤ķà¤¾
Ġfrequ ency
Ġà¤® à¥ĩà¤¯à¤°
Ġà¤¨ à¥ĭà¤ķ
Ġà¤ļ à¥ģà¤ķ
à¤¿à¤¶ à¤¿à¤¯à¤²
Ġan other
Ġà¤Łà¥Ģ à¤®à¥ĩà¤Ĥ
Ġà¤°à¥ĭà¤ľ à¤®à¤°à¥įà¤°à¤¾
193 7
âĪ ļ
Ġà¤¦à¥ĩ à¤¨à¥Ģ
Ġà¤Ĺà¥ģ à¤¬à¥įà¤¬
à¤¡à¥Ģ à¤ı
Ġà¤¸à¤¾à¤Ĥ à¤¤à¤¾
Ġà¤¨à¥įà¤¯à¤¾à¤¯ à¤¿à¤ķ
Ġà¤Ĺà¥ģà¤ľà¤° à¤¾à¤¤à¥Ģ
- à¤¸à¥įà¤¤à¤°à¥Ģà¤¯
l s
Ġà¤¸ à¥ĩà¤ł
à¤¿à¤² à¤¿à¤Łà¥Ģ
or ical
un e
Ġà¤Ĩà¤¨ à¤¨à¥įà¤¦
Ġà¤ļà¤¤à¥ģ à¤°à¥įà¤¥
Ġà¤ķ à¥īà¤¨à¥įà¤Ł
Ġà¤² à¤¹à¤¸à¥ģà¤¨
Ġà¤¦ à¥ģà¤·à¥įà¤Ł
Ġà¤ı à¤²à¥ĩà¤¨
à¥įà¤µ à¤¾à¤ĩà¤Ĥà¤Ł
Ġs ample
Ġà¤ķà¥įà¤· à¤¯
à¤® à¤¾à¤īà¤¥
Ġà¤ľ à¤¾à¤¯à¥ĩ
Ġà¤¬ à¤¿à¤ĸ
à¤¾à¤¯ à¤¤à¥ĭà¤Ĥ
Ġà¤īà¤¤ à¤¨à¥ĩ
Ġb ro
Ġà¤Ĩà¤° à¤ķà¥įà¤·à¤¿à¤¤
Ġà¤ªà¤¸à¤Ĥà¤¦ à¥ĭà¤Ĥ
Ġà¤ļà¤¿à¤ķà¤¿à¤¤à¥įà¤¸ à¤ķà¥ĭà¤Ĥ
Ġà¤¸à¤¿à¤ĸ à¤¾à¤¨à¥ĩ
p ath
Ġà¤ı à¤¸à¥įà¤Łà¥įà¤°
à¤¡à¤¼ à¤¿à¤¯à¤¾
à¥įà¤¡ à¤¨
Ġà¤¸à¤®à¤Ŀ à¤¦à¤¾à¤°à¥Ģ
à¤ļà¤° à¥įà¤¯à¤¾
"à¤² à¥ĩà¤ķà¤¿à¤¨
Ġà¤²à¤®à¥įà¤¬ à¥ĩ
Ġà¤¸à¤Ĥà¤µà¥ĩà¤¦ à¤ķ
Ġà¤¦à¤¾à¤¹ à¤¿à¤¨à¥ĩ
Ġà¤ķà¤¾à¤īà¤Ĥà¤¸ à¤¿à¤²
Ġà¤Ĩà¤ªà¥Ĥà¤°à¥įà¤¤ à¤¿à¤ķ
C ont
à ¨
Ġà¤® à¤ķà¥įà¤ķà¤¾
Ġà¤® à¥ģà¤®à¥įà¤¬à¤Ī
Ġà¤¬ à¤µ
Ġà¤² à¤¿à¤¥
Ġà¤° à¥ĭà¤Ł
à¥įà¤² à¥ĩà¤ķà¥įà¤¸
Ġd og
il ter
ĠĠĠĠĠĠĠĠ ĠĠĠĠĠ
à¥ĩà¤¦ à¤¾à¤°à¥ĭà¤Ĥ
Ġà¤®à¥ģ à¤¹à¤°
Ġà¤ķà¤² à¤ķà¤¤à¥įà¤¤à¤¾
Ġà¤¶à¤¹ à¤¦
Ġà¤ĳà¤¸à¥įà¤Łà¥įà¤° à¤¿à¤¯à¤¾
à¥ĭà¤« à¤¿à¤²
à¤Ĭ à¤ªà¤°
Ġà¤¸à¤Ĥà¤ĺà¤°à¥įà¤· à¥ĭà¤Ĥ
Ġmath emat
à¤¦à¥Ĥ à¤¸à¤°à¤¾
Ġà¤īà¤¤à¥įà¤ªà¤° à¤¿à¤µà¤°à¥įà¤¤à¤¨
Ġà¤¦à¥ģà¤°à¥įà¤µ à¥įà¤¯à¤µà¤¹à¤¾à¤°
Ġà¤® à¥Įà¤°
Ġà¤ķà¤ª à¤¾à¤¸
Ġà¤µà¤¿à¤¤à¥įà¤¤ à¤ª
Ġà¤¸à¤Ĥà¤ķ à¥ģ
m at
Ġà¤ķ à¤¤
à¤µ à¥ĩà¤¦
Ġà¤ĩà¤¸ à¥įà¤ªà¤¾à¤¤
à¥ĥ à¤ªà¥įà¤¤
Ġà¤Ĩà¤ª à¥įà¤°
à¤Ĥà¤ķ à¥įà¤¶
Ġà¤®à¤§à¥ģà¤®à¤ķà¥įà¤ĸ à¤¿à¤¯à¥ĭà¤Ĥ
Ġà¤Ĩà¤¶à¥Ģ à¤°à¥įà¤µà¤¾à¤¦
# {
Ġà¤° à¤µà¤¿
Ġà¤°à¤¾à¤ľ à¥ĩà¤¶
Ġà¤ĵ à¤µà¤¨
-à¤¸ à¥įà¤ª
and om
Ġà¤¸à¤¿à¤Ĥà¤¹ à¤¾à¤¸à¤¨
à¤Ķà¤° à¤Ĥà¤Ĺà¤¾à¤¬à¤¾à¤¦
Ġà¤®à¤¿à¤¸ à¤¿à¤¸
Ġà¤ªà¥įà¤°à¥ĭ à¤«à¤¼à¤¾à¤ĩà¤²
Ġà¤®à¤¿à¤¥ à¤ķ
i ef
à¤ķ à¥įà¤ļà¤°
à¤ª à¥ĭ
à¤¦ à¥ĩà¤¹
à¤Ł à¤¿à¤¤
Ġà¤¯ à¤ľà¥įà¤ŀ
Ġb ring
et a
ĠĠĠĠĠĠĠĠ ĠĠĠĠĠĠ
Ġà¤ªà¤¾à¤° à¥įà¤Ł
Ġà¤®à¤¤ à¤Ńà¥ĩà¤¦
Ġad ject
Ġà¤¬à¥ĩà¤² à¥įà¤ľà¤¿à¤¯à¤®
Ġà¤µà¤¾à¤°à¥įà¤¤ à¤¾à¤²à¤¾à¤ª
Ġtransport ation
à¤ķ à¤¿à¤¯à¤¾à¤ģ
à¤¡ à¥ĩà¤¨
à¤ªà¥įà¤° à¤§à¤¾à¤¨
om en
Ġà¤¬à¤ļà¥įà¤ļ à¤¨
lo se
Ġà¤µà¤¿à¤¶à¥įà¤² à¥ĩà¤·à¤¿à¤¤
à¤µà¥įà¤¯ à¤¾à¤ĸ
Ġsu pp
Ġà¤Ĺà¥įà¤°à¥Ģ à¤ķ
Ġà¤Ĩà¤¤à¤Ĥà¤ķ à¤µà¤¾à¤¦
oura ge
> ";
à¤ķ à¤¹à¤¾à¤¨à¥Ģ
Ġà¤¤ à¤¤à¥įà¤¤à¥įà¤µ
à¤¾à¤² à¤¿à¤¯à¤¾
Ġà¤®à¤¾à¤¨ à¤¸
Ġl aw
Ġà¤¸à¥ĭ à¤¸à¤¾à¤¯
Ġà¤¨à¤¿à¤ķà¤¾à¤² à¤¤à¥ĩ
ĠO ne
Ġdis e
à¤īà¤¨ à¤ķà¤¾
Ġdeci sions
Ġà¤¬à¥ĩà¤°à¥Ģ à¤¨à¤¾à¤Ĺ
à¤¿à¤·à¥įà¤£à¥ģ à¤¤à¤¾
g en
Ġà¤¸ à¤¿à¤¸
à¥ģ à¤Ĥà¤Ĺ
à¤ª à¥ĩ
Ġà¤¨ à¤ķà¥įà¤ķ
à¤¬ à¥ĩà¤°à¥Ģ
Ġa way
Ġto wards
ĠP ra
Ġà¤¡à¥Ģ à¤ľà¤²
ĠR aj
Ġà¤Ĺà¥įà¤² à¤¾à¤¸
Ġà¤¤à¤¥à¥įà¤¯ à¤ĥ
Ġà¤¤à¤¾à¤°à¥Ģà¤ĸ à¤ĥ
Ġallow s
Ġapplic ation
u ck
à¤Ĺ à¥Īà¤°
à¤¿à¤² à¤¿à¤¯à¤¨
à¥ĩà¤¸ à¥ĭà¤Łà¤¾
ot ions
ĠD is
-à¤¬ à¥Ĥà¤Ł
Ġà¤ķà¥ģ à¤°à¥įà¤¸à¥Ģ
Ġà¤°à¤¿à¤ķà¥īà¤°à¥įà¤¡ à¥įà¤¸
Ġà¤ħà¤ªà¤°à¤¾à¤§ à¥ĭà¤Ĥ
Ġhigh light
Ġchild ren
Ġà¤¡à¤¿à¤¸à¥įà¤ª à¥įà¤²à¥ĩ
t y
à¤¨ à¤¨
à¤Ł à¤¾à¤ĩà¤®
à¤§ à¥ĩ
Ġà¤ļ à¤¶à¥įà¤®
Ġc ategory
Ġw ar
Ġà¤ĺà¤Ł à¤¾à¤¨à¥ĩ
Ġind ic
Ġca pt
Ġà¤¬à¤°à¤¾à¤® à¤¦
F inally
à¤° à¤¿à¤¯
Ġm em
Ġà¤¸à¥įà¤Ł à¥ĭà¤°à¥Ģ
à¤ıà¤¸ à¤Łà¥Ģ
form ation
Ġcol ors
-à¤« à¥įà¤°
Ġà¤¦à¥Įà¤¡à¤¼ à¤¨à¥ĩ
à¤īà¤¸ à¤ķà¥ĩ
Ġà¤«à¤°à¥įà¤¨ à¥Ģà¤ļà¤°
Ġanalyz ing
Ġà¤¸à¥ĭà¤¸à¤¾à¤¯ à¤Łà¥Ģ
. L
L L
Ġà¤¬ à¥ĩà¤Ĥà¤ľ
Ġà¤Ĺà¤£ à¥ĩà¤¶
Ġà¤ıà¤ª à¥įà¤ªà¤²
à¤µà¤¾à¤¹ à¤ķ
Ġà¤Ĺà¥Īà¤² à¤°à¥Ģ
Ġà¤ĩà¤Ĥà¤¸ à¥įà¤ª
Ġà¤ªà¥ģà¤°à¥įà¤¤à¤Ĺ à¤¾à¤²
à¥ĭ à¤ĥ
à¤Ł à¤¾à¤°
Ġà¤« à¤¾à¤¸
it ive
Ġà¤«à¤¼ à¥īà¤¨à¥įà¤Ł
pp er
Ġtest ing
Ġà¤µà¤¿à¤¦à¥įà¤¯à¤¾à¤°à¥įà¤¥ à¤¿à¤¯à¥ĭà¤Ĥ
à¤¸ à¤Ĥà¤¤
Ġà¤®à¥ĩà¤Ĥ à¤¢
à¤¿à¤¯ à¤¨à¥įà¤¸
à¤ľ à¤¾à¤²
Ġà¤ĩ à¤§à¤°
Ġà¤Ń à¤Łà¤ķ
Ġà¤Ľ à¥ĭà¤¡à¤¼à¤¾
Ġb rand
Ġà¤¬à¤¢à¤¼ à¤¾à¤¤à¥Ģ
Ġà¤¡à¥Ģ à¤¸à¥Ģ
lo cation
ci pe
à¤¬à¥įà¤° à¤¹à¥įà¤®
193 6
Ġà¤Ĺà¥ģà¤² à¤¾à¤®à¥Ģ
Ġà¤ħà¤®à¤°à¥Ģ à¤ķà¤¾
Ġà¤µà¤¾à¤¦à¥įà¤¯ à¤¯à¤Ĥà¤¤à¥įà¤°
Ġà¤ħà¤¨à¥ģà¤¸à¥Ĥ à¤ļà¥Ģ
à¤¿ à¤°à¥įà¤¦à¥ĩà¤¶
Ġà¤ķ à¤¡
Ġà¤® à¥īà¤°
Ġà¤ıà¤ķ à¤¦à¤®
Ġà¤ľà¥ĭ à¤§
id ed
à¤¿à¤« à¤¿à¤ķà¥ĩà¤¶à¤¨
com es
Ġà¤¦à¤°à¥įà¤ľ à¤¨
Ġà¤ªà¤¾à¤² à¤ķ
Ġà¤²à¥ĩà¤« à¥įà¤Łà¤¿à¤¨à¥ĩà¤Ĥà¤Ł
r ict
Ġà¤Ł à¤¾à¤µà¤°
à¥ĩà¤Ł à¤¾à¤ĩà¤Łà¤¿à¤¸
Ġp rior
Ġà¤ĺ à¤¾à¤¤
âĢ ¦
Ġà¤¢ à¥Ĥà¤ģ
ĠCom p
Ġbusiness es
Ġà¤ļ à¥Įà¤°
Ġà¤¡ à¥ĩà¤¯à¤°à¥Ģ
Ġp ort
25 5
Ġà¤ļà¤¾à¤² à¤ķà¥ĭà¤Ĥ
Ġà¤¸à¤ľ à¤¾à¤µà¤Ł
Ġà¤²à¤®à¥įà¤¬ à¤¾à¤Ī
Ġà¤¸à¥Īà¤Ĥà¤¡ à¤µà¤¿à¤ļ
Ġà¤Ĩà¤¯à¤¤ à¤¾à¤ķà¤¾à¤°
r ics
Ġà¤ķà¥Ģ à¤Ĥ
ch itect
à¤°à¥įà¤Ł à¤¨
Ġà¤°à¤ľ à¤¤
-à¤°à¤¾à¤·à¥įà¤Łà¥įà¤°à¥Ģà¤¯ à¤¤à¤¾
Ġlibr aries
Ġà¤¬à¥ĩà¤°à¥ĭà¤ľ à¤Ĺà¤¾à¤°à¥Ģ
N N
Ġà¤® à¤¾
à¥ģ à¤µà¤¾
à¥įà¤¦ à¤¿à¤¯à¥ĭà¤Ĥ
Ġà¤Ńà¤¾à¤Ĺ à¥Ģà¤¦à¤¾à¤°
Ġà¤¸à¥ģà¤¨ à¤¤à¥ĩ
à¤¾à¤°à¥įà¤¥ à¤ķ
Ġà¤¯à¤¾à¤¤à¥įà¤° à¤¾à¤ĵà¤Ĥ
Ġstud y
à¥Īà¤¤ à¤¿à¤ľ
Ġà¤ı à¤µà¤°
Ġà¤ķà¤° à¤¾à¤¨à¤¾
Ġà¤ľà¤¾à¤¤ à¤¿à¤¯à¤¾à¤ģ
Ġà¤ªà¥įà¤°à¤¤ à¤¿à¤²
Ġf ar
Ġà¤¸à¥Ģ à¤²
Ġà¤¯à¥ĭà¤Ĺ à¥Ģ
Ġà¤ķà¥Īà¤² à¤ķà¥ģà¤²
Ġà¤«à¥Ģ à¤ļà¤°à¥įà¤¸
à¥īà¤¨à¥įà¤¸ à¤¿à¤¨
Ġà¤¤à¤® à¤¾à¤®
Ġà¤ª à¤¿à¤¤à¥įà¤¤
Ġà¤¬ à¤¸à¥ĩ
Ġà¤¤ à¤¾à¤ĩ
Ġp ack
à¤ħ à¤°à¥įà¤¥
Ġà¤µà¤¿à¤§ à¤¾à¤¯
Ġà¤ķà¥įà¤² à¤¿à¤Ĥà¤Łà¤¨
Ġà¤Ĩà¤¦ à¤¿à¤¤à¥įà¤¯
Ġà¤ħà¤ķà¥įà¤· à¤®
Ġà¤µà¤¾à¤¹ à¤ķ
Ġà¤ķà¤łà¤¿à¤¨ à¤¾à¤ĩà¤¯à¥ĭà¤Ĥ
Ġà¤¨à¥ĭà¤Ł à¤¿à¤¸
Ġà¤µà¤Ĥà¤¶ à¤¾à¤µà¤²à¥Ģ
Ġvari able
à¤ħà¤Ĥà¤¤ à¤¤à¤ĥ
Ġà¤¨à¤¸à¥įà¤² à¥Ģà¤¯
Ġà¤¡à¥ĩà¤² à¥įà¤Łà¤¾
Ġjourn ey
. w
J ohn
ce an
ow s
Ġà¤ªà¥Ĥà¤°à¥įà¤µ à¤ľà¥ĭà¤Ĥ
Ġà¤ªà¥Ĥà¤°à¥įà¤£ à¤¤à¤¾
Ġà¤ªà¤¾à¤łà¥įà¤¯à¤ķà¥įà¤°à¤® à¥ĭà¤Ĥ
"à¤®à¥Īà¤Ĥ à¤¨à¥ĩ
Ġà¤¤à¤¿à¤¤ à¤²à¥Ģ
Ġà¤ķà¥ĩ à¤²à¥ĩ
Ġà¤² à¤¾à¤¤
à¤µ à¤¾à¤¤
à¤µ à¤¹à¥Ģà¤Ĥ
à¤« à¥ĩà¤²
Ġà¤ªà¤¹ à¥ĩà¤²
à¤Ĩ à¤¯
Ġre ce
Ġcon ditions
à¤¤à¤® à¤¿à¤²
Ġà¤¡à¥įà¤° à¥Īà¤Ĺà¤¨
Ġà¤®à¤¿à¤¸ à¥įà¤Łà¤°
Ġà¤®à¥įà¤¯à¥Ĥà¤ľ à¤¿à¤ķ
Ġà¤¦ à¤°à¥įà¤ªà¤£
à¤²à¥Ģ à¤«
Ġà¤¦à¥ĩà¤ĸ à¤°à¥ĩà¤ĸ
Ġà¤ķà¥įà¤° à¥Ĥ
Ġà¤¬à¥įà¤° à¥īà¤¡
-à¤ħ à¤²
Ġà¤ĩà¤Ĥà¤Łà¥ĩà¤²à¤¿à¤ľ à¥ĩà¤Ĥà¤¸
à¤¿à¤¯ à¤Ĥà¤¤à¥įà¤°à¤¿à¤¤
Ġà¤Ĺ à¤Ĥà¤¦
Ġà¤ļ à¤¿à¤²à¥Ģ
à¤¿à¤Ĥ à¤¡à¤¾
à¤¿à¤° à¥ĭà¤§
Ġà¤¸à¤¹ à¤ķà¤¾à¤°à¥Ģ
Ġl anguages
Ġà¤ľà¥ģ à¤°à¥įà¤®
Ġà¤«à¥įà¤² à¥Īà¤¶
Ġà¤Ĩà¤¦à¥ĩà¤¶ à¥ĭà¤Ĥ
Ġsp ace
à¤¿à¤¬à¥įà¤° à¥Ĥ
Ġà¤ªà¤¨ à¤¡à¥ģ
à¤¾à¤Ĥ à¤ľà¤²
Ġà¤Ł à¥ĭà¤²
Ġà¤¸à¥įà¤µ à¤¤à¤¨à¥įà¤¤à¥įà¤°
Ġb ir
à¤¾à¤¸à¥įà¤¤ à¤µà¤¿à¤ķ
Ġà¤ħà¤Ń à¥Ĥà¤¤
Ġà¤¤à¤¿à¤¥ à¤¿à¤¯à¤¾à¤ģ
Ġà¤¸à¤¬à¥įà¤ľ à¤¿à¤¯à¤¾à¤ģ
Ġà¤ĩà¤®à¤¾à¤°à¤¤ à¥ĩà¤Ĥ
Ġra di
Ġà¤Łà¥ĭà¤ķ à¥įà¤¯à¥ĭ
Ġà¤Ĺà¥ĭà¤²à¥įà¤¡ à¤¨
Ġà¤¨à¤¿à¤·à¥įà¤ªà¤¾à¤¦ à¤¨
Ġà¤ħà¤¬à¥įà¤° à¤¾à¤¹à¤®
Ġà¤ķ à¤Ĥà¤¬
Ġà¤¹ à¤ģ
Ġà¤® à¥ĭà¤ľ
Ġà¤ªà¥įà¤° à¤ľ
Ġà¤ĺ à¥ĥ
à¤īà¤¤ à¥įà¤ª
-à¤ķ à¥īà¤®
Ġà¤¯à¤¾à¤¦ à¤Ĺà¤¾à¤°
ap ers
Ġà¤²à¥īà¤° à¥ĩà¤Ĥà¤¸
Ġà¤® à¥īà¤¨à¥įà¤Ł
Ġà¤ĺ à¥ĭà¤¡à¤¼à¥ĭà¤Ĥ
Ġà¤¸à¥Ģà¤ĸ à¥ĩà¤Ĥ
Ġmin utes
Ġà¤²à¤¿à¤¨ à¤ķà¥įà¤¸
ĠQ u
Ġà¤®à¥Ĥà¤² à¤Ńà¥Ĥà¤¤
à¥įà¤°à¤¿à¤¯ à¤²
Ġà¤«à¥ĭà¤Ł à¥ĭà¤Ĺà¥įà¤°à¤¾à¤«à¥Ģ
____ ____
Ġà¤īà¤ªà¤ļ à¤¾à¤°à¥ĭà¤Ĥ
à¤° à¤Ĥà¤Ĺ
à¤¨ à¥Į
Ġà¤ªà¥įà¤° à¤¬à¤²
Ġà¤®à¥Ī à¤ķà¥ĩ
Ġà¤¸à¤µà¤¾à¤² à¥ĭà¤Ĥ
Ġà¤Ľà¤µ à¤¿à¤¯à¤¾à¤ģ
ca use
Ġà¤ķà¤°à¥Ĥà¤ģ à¤Ĺà¤¾
à¤µ à¤°à¥įà¤£
Ġà¤° à¥ĩà¤µ
à¤¸à¥ĩ à¤ķà¥įà¤¸
Ġre li
Ġà¤®à¤¨ à¥ĭà¤¦
Ġà¤ļà¥Į à¤¬à¤Ł
Ġà¤ªà¤ķ à¤¡à¤¼à¤¾
Ġposit ion
(à¤ªà¥Ģà¤¡à¥Ģ à¤ıà¤«
< string
Ġà¤ľ à¤²à¤¾
Ġà¤¶ à¥ĩà¤ķà¥įà¤¸à¤ª
à¤Ĩ à¤§à¥ģà¤¨à¤¿à¤ķ
à¥Ģà¤µ à¤¿à¤¤
ab lish
Ġà¤ªà¥įà¤² à¤¸
ure d
Ġà¤ªà¥ģà¤°à¤¸à¥įà¤ķ à¤¾à¤°à¥ĭà¤Ĥ
Ġà¤®à¤¿à¤¶ à¥ĩà¤²
Ġhe ight
à¤¶à¥Ģ à¤Ł
Ġà¤ľà¥ī à¤¨à¥Ģ
Ġà¤¬à¥įà¤°à¤¹à¥įà¤® à¤¾
Ġà¤ĩà¤ļà¥įà¤Ľ à¥ģà¤ķ
Ġà¤Ńà¤µà¤¿à¤·à¥įà¤¯à¤µ à¤¾à¤£
Ù Ī
Ġà¤ķ à¥Įà¤°
Ġà¤¹ à¤¾à¤µ
Ġà¤® à¤²à¥ĩà¤°à¤¿à¤¯à¤¾
à¤¾à¤¨ à¤¿à¤¯à¥ĭà¤Ĥ
Ġà¤ªà¥įà¤° à¤¾à¤Ĺ
Ġà¤Ĺ à¤µà¤¾à¤¹
Ġà¤ĩ à¤£à¥įà¤¡
Ġà¤Ł à¤¾à¤Łà¤¾
Ġà¤ħà¤® à¥įà¤¬
ast ic
Ġà¤Ĺà¥įà¤² à¥ĩà¤¶à¤¿à¤¯à¤°
Ġà¤ĩà¤Ĥà¤¸à¥įà¤Ł à¥īà¤²
Ġà¤®à¥ģà¤¦à¥įà¤° à¤¾à¤¸à¥įà¤«à¥Ģà¤¤à¤¿
Ġsim ilar
Ġprof ession
à¥ĭ à¤¤à¥įà¤°
Ġà¤ĩ à¤¨à¥įà¤¸
à¤¾à¤¥ à¤¨
Ġcan not
à¥ĭà¤« à¤°
Ġà¤®à¤¹à¤¾à¤¦ à¥ĩà¤µ
Ġà¤®à¤ľà¤¦ à¥Ĥà¤°à¥Ģ
Ġlibr ary
Ġà¤ħà¤Ńà¥Ĥà¤¤ à¤ªà¥Ĥà¤°à¥įà¤µ
" à¤¸à¤®
o or
à¥ĩ à¤ķà¥ĩ
à¤² à¤¿à¤¯à¤¾à¤ģ
à¤ª à¤¾à¤¤à¥Ģ
Ġà¤¡ à¤¾à¤Ĥà¤¸
à¤¾à¤ª à¤¿
à¥ĩà¤¬ à¥įà¤°
à¤¾à¤²à¥Ģ à¤¸
Ġà¤®à¥Ģ à¤Łà¤¿à¤Ĥà¤Ĺ
Ġà¤Ńà¥ĩà¤ľ à¤¤à¤¾
Ġà¤ªà¤¾à¤°à¥įà¤ķ à¤¿à¤Ĥà¤Ĺ
Ġsol utions
Ġà¤Ĺà¥ĭà¤ª à¤¾à¤²
Ġà¤Ĩà¤ªà¤¦ à¤¾à¤ĵà¤Ĥ
_ string
à¤¤ à¥ĩà¤Ĥ
Ġà¤ħà¤µ à¤¯
Ġà¤¤à¥ģà¤² à¤¸à¥Ģ
16 0
-à¤ļà¤¢à¤¼ à¤¾à¤µ
- c
Ġà¤¹à¥Ī à¤²
Ġà¤ħ à¤·à¥įà¤Ł
Ġà¤µà¤¿à¤ ¡
à¤¾à¤ģ à¤¸à¥Ģ
Ġm ot
à¤¸à¥įà¤Ł à¥įà¤°à¥Ģ
à¤«à¤¼ à¥īà¤°à¥įà¤®
Ġà¤µà¤¨ à¤¸à¥įà¤ª
op ulation
olog ies
Ġà¤ĳà¤ªà¤° à¥ĩà¤Łà¤°
Ġà¤Łà¥įà¤°à¥Īà¤ķ à¤¿à¤Ĥà¤Ĺ
ok en
Ch ar
_ words
Ġ ver
Ġà¤ķà¥ĭ à¤¸à¥įà¤Ł
à¤Ł à¥ĩà¤ķ
Ġà¤ªà¤° à¤ľà¥Ģà¤µà¥Ģ
Ġin nov
Ġe ver
Ġst ill
à¤ªà¥ģà¤° à¤¸à¥įà¤ķà¤¾à¤°
Ġà¤ħà¤ķ à¤¾à¤īà¤Ĥà¤Ł
Ġà¤ļà¤® à¤Ĺà¤¾à¤¦
ĠAr t
Ġà¤ļà¥Įà¤¬à¤Ł à¤¾à¤ĸà¤¾à¤²
W hat
Ġà¤¸ à¥įà¤°
Ġà¤¯ à¥Ĥà¤ªà¥Ģ
à¤ĸ à¤°à¥Ģ
Ġà¤¹à¤² à¥įà¤¦
Ġà¤°à¥Ĥ à¤ļà¤¿
Ġà¤ħà¤¨à¥ģà¤ª à¤¾à¤²à¤¨
Ġà¤ĺà¥ģà¤® à¤¾à¤µ
Ġà¤ĸà¤¿à¤²à¥Į à¤¨à¥ĩ
Ġà¤® à¤¾à¤«
Ġà¤¬ à¤¨à¥įà¤¦
à¤¦ à¤¹
Ġà¤« à¤¾à¤¸à¥įà¤Ł
Ġà¤¡ à¥ĭà¤¨à¤¾à¤²à¥įà¤¡
à¥ĩà¤Ł à¤¨
Ġà¤ķà¥įà¤° à¥ĭà¤§à¤¿à¤¤
Ġà¤¦à¤¿à¤ĸ à¤¾à¤¤à¥Ģ
Ġà¤Ĺà¥Ī à¤¸à¥įà¤Łà¥įà¤°
Ġà¤ĩà¤² à¤¾à¤¹à¤¾à¤¬à¤¾à¤¦
ĠO r
Ġà¤¨à¤¿à¤Ń à¤¾à¤¨à¥ĩ
Ġà¤®à¤¹à¤¾à¤¸ à¤ļà¤¿à¤µ
Ġcomm and
Ġà¤¸à¥Ĥà¤ķà¥įà¤·à¥įà¤® à¤ľà¥Ģà¤µ
Ġ à¦
à¥Ĥ à¤¤à¥Ģ
Ġà¤Ĺ à¤¾
à¥įà¤µ à¤¾à¤¨à¥Ģ
à¤ķà¥ĭ à¤°à¥įà¤Ł
Ġà¤ħà¤Ń à¤¿à¤Ń
Ġà¤®à¥Ĥ à¤Ĥà¤Ĺ
Ġà¤¸à¤¿à¤® à¥ģà¤²à¥ĩà¤¶à¤¨
Ġà¤¥à¥Ī à¤²à¥ĩ
Ġà¤ľà¥ĭà¤§ à¤ªà¥ģà¤°
B C
à¤Ĥ à¤ł
Ġà¤ħ à¤Ĥà¤¬
Ġà¤¤ à¥ĩà¤°
Ġà¤¶ à¤¨à¤¿
à¥ī à¤¨à¥ĭà¤Ĥ
Ġf low
Ġà¤§ à¤¡à¤¼
Ġà¤¹à¤° à¤¾à¤ķà¤°
Ġà¤¸à¥ģà¤¨ à¤¨à¤¾
Ġà¤®à¤¾à¤°à¥įà¤ķ à¥įà¤¸
Ġhigh est
Ġpriv ate
/ à¤ı
Ġà¤¸ à¤¤à¥įà¤¤
Ġà¤¸ à¤¸à¥įà¤¤à¥Ģ
à¤® à¤¿à¤¨
Ġà¤¨ à¥Ģà¤°
Ġà¤° à¤¿à¤Ĥà¤Ĺ
Ġà¤²à¤¿à¤ı à¤ĥ
à¤¾à¤ķ à¥ĩà¤¶
à¤¿à¤µ à¤¿à¤Łà¥Ģ
Ġf loat
à¤¿à¤Ł à¥ĩà¤ķ
Ġà¤¸à¤° à¤¦à¤¾à¤°
Ġà¤ķà¥įà¤° à¤¿à¤ªà¥įà¤Ł
Ġà¤ķà¥ī à¤ªà¥Ģ
Ġà¤®à¤¾à¤¨à¤µ à¥ĭà¤Ĥ
ub e
Ġà¤¸à¤Ĥà¤µà¤¾à¤¦ à¤¦à¤¾à¤¤à¤¾
Ġà¤«à¤¾à¤° à¤¸à¥Ģ
à¤ªà¤¹ à¤²à¤¾
yn am
à¤ªà¥ģà¤² à¥Ģ
Ġexplo re
Ġà¤ķ à¥Ĥ
à¤¾à¤¡ à¥ĭà¤°
Ġà¤¬à¥įà¤° à¥ĩà¤¨
oun ter
à¤¾à¤ĩà¤® à¤¨
Ġà¤ħà¤¨à¥ģà¤®à¤¾à¤¨ à¥ĭà¤Ĥ
ong ress
Ġà¤®à¤ķ à¤¾à¤¨
à¤ķà¤Ĥà¤ª à¤¨à¥Ģ
err or
Ġsim ple
Ġà¤®à¤¾à¤¦ à¤ķ
Ġà¤®à¥ģà¤ķà¤¦à¤® à¥ĩ
à¤¨ à¤¾à¤ıà¤ģ
Ġp ie
Ġà¤¬à¤¾à¤¦ à¤²à¥ĭà¤Ĥ
Ġà¤ªà¥Ģ à¤¸
Ġà¤ħà¤® à¥Ĥà¤°à¥įà¤¤
Ġcon cept
Ġà¤ªà¥įà¤°à¤µ à¤°à¥įà¤¤à¤¨
Ġà¤ªà¥įà¤² à¤¾à¤Ĥà¤Ł
sit ive
Ġà¤ķà¥īà¤°à¥įà¤ª à¥ĭà¤°à¥ĩà¤Ł
à¤ķ à¤¾à¤¸à¥įà¤Ł
Ġà¤¨ à¤¶à¥ĩ
à¤¿à¤¸ à¥įà¤®
Ġc at
ar ray
Ġà¤°à¤¾à¤ľ à¥Ģà¤µ
Ġb ooks
ĠP art
à¤Ĩà¤Ī à¤µà¥Ģ
Ġà¤¶à¥Ī à¤µà¤¾à¤²
Ġà¤¤à¤ķà¤¨à¥Ģà¤ķ à¥ĩà¤Ĥ
Ġà¤ªà¥ī à¤Łà¤°
à¤¿à¤¯ à¤¾à¤Ĥà¤Ĺ
à¤ļ à¤Ĥà¤¦
Ġà¤¸à¥Ĥ à¤ļà¤¿à¤¯à¥ĭà¤Ĥ
à¤¿à¤ļ à¤¾à¤°
Ġà¤®à¥ĭà¤Ł à¤¾
Ġà¤¸à¥ĩà¤ķ à¥įà¤Łà¤°
Ġà¤ħà¤Ĥà¤¶ à¥ĭà¤Ĥ
Ġà¤¸à¤¿à¤«à¤¾à¤°à¤¿à¤¶ à¥ĭà¤Ĥ
Ġam ong
-à¤Ľ à¥ĭà¤Łà¥ĩ
ven ue
D I
E N
à¤¬ à¤¾à¤¹
at ors
Ġg reen
Ġà¤ªà¥įà¤°à¤ķà¤¾à¤¶ à¤ķ
âĢį à¤¹
Ġà¤Ĩà¤ķ à¤¸à¥įà¤®à¤¿à¤ķ
Ġà¤īà¤¤à¥įà¤¸ à¤¾à¤¹à¥Ģ
Ġà¤ªà¤Ĥ à¤ķà¥įà¤¤
Ġà¤°à¤¾à¤ľà¤¨ à¤¯à¤¿à¤ķ
Ġpract ices
Ġà¤ĩà¤¬ à¥įà¤¨
/ http
[...]
