{
  "version": "1.0",
  "truncation": null,
  "padding": null,
  "added_tokens": [
    {
      "id": 0,
      "content": "<pad>",
      "single_word": false,
      "lstrip": false,
      "rstrip": false,
      "normalized": false,
      "special": true
    },
    {
      "id": 1,
      "content": "<s>",
      "single_word": false,
      "lstrip": false,
      "rstrip": false,
      "normalized": false,
      "special": true
    },
    {
      "id": 2,
      "content": "</s>",
      "single_word": false,
      "lstrip": false,
      "rstrip": false,
      "normalized": false,
      "special": true
    },
    {
      "id": 3,
      "content": "<unk>",
      "single_word": false,
      "lstrip": false,
      "rstrip": false,
      "normalized": false,
      "special": true
    },
    {
      "id": 4,
      "content": "<bos>",
      "single_word": false,
      "lstrip": false,
      "rstrip": false,
      "normalized": false,
      "special": true
    },
    {
      "id": 5,
      "content": "<eos>",
      "single_word": false,
      "lstrip": false,
      "rstrip": false,
      "normalized": false,
      "special": true
    },
    {
      "id": 6,
      "content": "<audio>",
      "single_word": false,
      "lstrip": false,
      "rstrip": false,
      "normalized": false,
      "special": true
    },
    {
      "id": 7,
      "content": "<image>",
      "single_word": false,
      "lstrip": false,
      "rstrip": false,
      "normalized": false,
      "special": true
    },
    {
      "id": 8,
      "content": "<video>",
      "single_word": false,
      "lstrip": false,
      "rstrip": false,
      "normalized": false,
      "special": true
    }
  ],
  "normalizer": null,
  "pre_tokenizer": {
    "type": "ByteLevel",
    "add_prefix_space": false,
    "trim_offsets": true,
    "use_regex": true
  },
  "post_processor": null,
  "decoder": {
    "type": "ByteLevel",
    "add_prefix_space": true,
    "trim_offsets": true,
    "use_regex": true
  },
  "model": {
    "type": "BPE",
    "dropout": null,
    "unk_token": null,
    "continuing_subword_prefix": null,
    "end_of_word_suffix": null,
    "fuse_unk": false,
    "byte_fallback": false,
    "ignore_merges": false,
    "vocab": {
      "<pad>": 0,
      "<s>": 1,
      "</s>": 2,
      "<unk>": 3,
      "<bos>": 4,
      "<eos>": 5,
      "<audio>": 6,
      "<image>": 7,
      "<video>": 8,
      "!": 9,
      "\"": 10,
      "#": 11,
      "$": 12,
      "%": 13,
      "&": 14,
      "'": 15,
      "(": 16,
      ")": 17,
      "*": 18,
      "+": 19,
      ",": 20,
      "-": 21,
      ".": 22,
      "/": 23,
      "0": 24,
      "1": 25,
      "2": 26,
      "3": 27,
      "4": 28,
      "5": 29,
      "6": 30,
      "7": 31,
      "8": 32,
      "9": 33,
      ":": 34,
      ";": 35,
      "<": 36,
      "=": 37,
      ">": 38,
      "?": 39,
      "@": 40,
      "A": 41,
      "B": 42,
      "C": 43,
      "D": 44,
      "E": 45,
      "F": 46,
      "G": 47,
      "H": 48,
      "I": 49,
      "J": 50,
      "K": 51,
      "L": 52,
      "M": 53,
      "N": 54,
      "O": 55,
      "P": 56,
      "Q": 57,
      "R": 58,
      "S": 59,
      "T": 60,
      "U": 61,
      "V": 62,
      "W": 63,
      "X": 64,
      "Y": 65,
      "Z": 66,
      "[": 67,
      "\\": 68,
      "]": 69,
      "^": 70,
      "_": 71,
      "`": 72,
      "a": 73,
      "b": 74,
      "c": 75,
      "d": 76,
      "e": 77,
      "f": 78,
      "g": 79,
      "h": 80,
      "i": 81,
      "j": 82,
      "k": 83,
      "l": 84,
      "m": 85,
      "n": 86,
      "o": 87,
      "p": 88,
      "q": 89,
      "r": 90,
      "s": 91,
      "t": 92,
      "u": 93,
      "v": 94,
      "w": 95,
      "x": 96,
      "y": 97,
      "z": 98,
      "{": 99,
      "|": 100,
      "}": 101,
      "~": 102,
      "¡": 103,
      "¢": 104,
      "£": 105,
      "¤": 106,
      "¥": 107,
      "¦": 108,
      "§": 109,
      "¨": 110,
      "©": 111,
      "ª": 112,
      "«": 113,
      "¬": 114,
      "®": 115,
      "¯": 116,
      "°": 117,
      "±": 118,
      "²": 119,
      "³": 120,
      "´": 121,
      "µ": 122,
      "¶": 123,
      "·": 124,
      "¸": 125,
      "¹": 126,
      "º": 127,
      "»": 128,
      "¼": 129,
      "½": 130,
      "¾": 131,
      "¿": 132,
      "À": 133,
      "Á": 134,
      "Â": 135,
      "Ã": 136,
      "Ä": 137,
      "Å": 138,
      "Æ": 139,
      "Ç": 140,
      "È": 141,
      "É": 142,
      "Ê": 143,
      "Ë": 144,
      "Ì": 145,
      "Í": 146,
      "Î": 147,
      "Ï": 148,
      "Ð": 149,
      "Ñ": 150,
      "Ò": 151,
      "Ó": 152,
      "Ô": 153,
      "Õ": 154,
      "Ö": 155,
      "×": 156,
      "Ø": 157,
      "Ù": 158,
      "Ú": 159,
      "Û": 160,
      "Ü": 161,
      "Ý": 162,
      "Þ": 163,
      "ß": 164,
      "à": 165,
      "á": 166,
      "â": 167,
      "ã": 168,
      "ä": 169,
      "å": 170,
      "æ": 171,
      "ç": 172,
      "è": 173,
      "é": 174,
      "ê": 175,
      "ë": 176,
      "ì": 177,
      "í": 178,
      "î": 179,
      "ï": 180,
      "ð": 181,
      "ñ": 182,
      "ò": 183,
      "ó": 184,
      "ô": 185,
      "õ": 186,
      "ö": 187,
      "÷": 188,
      "ø": 189,
      "ù": 190,
      "ú": 191,
      "û": 192,
      "ü": 193,
      "ý": 194,
      "þ": 195,
      "ÿ": 196,
      "Ā": 197,
      "ā": 198,
      "Ă": 199,
      "ă": 200,
      "Ą": 201,
      "ą": 202,
      "Ć": 203,
      "ć": 204,
      "Ĉ": 205,
      "ĉ": 206,
      "Ċ": 207,
      "ċ": 208,
      "Č": 209,
      "č": 210,
      "Ď": 211,
      "ď": 212,
      "Đ": 213,
      "đ": 214,
      "Ē": 215,
      "ē": 216,
      "Ĕ": 217,
      "ĕ": 218,
      "Ė": 219,
      "ė": 220,
      "Ę": 221,
      "ę": 222,
      "Ě": 223,
      "ě": 224,
      "Ĝ": 225,
      "ĝ": 226,
      "Ğ": 227,
      "ğ": 228,
      "Ġ": 229,
      "ġ": 230,
      "Ģ": 231,
      "ģ": 232,
      "Ĥ": 233,
      "ĥ": 234,
      "Ħ": 235,
      "ħ": 236,
      "Ĩ": 237,
      "ĩ": 238,
      "Ī": 239,
      "ī": 240,
      "Ĭ": 241,
      "ĭ": 242,
      "Į": 243,
      "į": 244,
      "İ": 245,
      "ı": 246,
      "Ĳ": 247,
      "ĳ": 248,
      "Ĵ": 249,
      "ĵ": 250,
      "Ķ": 251,
      "ķ": 252,
      "ĸ": 253,
      "Ĺ": 254,
      "ĺ": 255,
      "Ļ": 256,
      "ļ": 257,
      "Ľ": 258,
      "ľ": 259,
      "Ŀ": 260,
      "ŀ": 261,
      "Ł": 262,
      "ł": 263,
      "Ń": 264,
      "in": 265,
      "Ġa": 266,
      "Ġt": 267,
      "re": 268,
      "čĊ": 269,
      "on": 270,
      "he": 271,
      "er": 272,
      "ti": 273,
      "Ġc": 274,
      "ing": 275,
      "Ġs": 276,
      "es": 277,
      "nd": 278,
      "or": 279,
      "Ġthe": 280,
      "en": 281,
      "ou": 282,
      "Ġp": 283,
      "al": 284,
      "it": 285,
      "at": 286,
      "is": 287,
      "an": 288,
      "Ġf": 289,
      "Ġand": 290,
      "le": 291,
      "Ġw": 292,
      "tion": 293,
      "ar": 294,
      "Ġin": 295,
      "Ġo": 296,
      "Ġb": 297,
      "Ġd": 298,
      "Ġto": 299,
      "Ġe": 300,
      "Ġm": 301,
      "ed": 302,
      "ro": 303,
      "ic": 304,
      "Ġof": 305,
      "ly": 306,
      "st": 307,
      "--": 308,
      "Ġre": 309,
      "ra": 310,
      "ent": 311,
      "om": 312,
      "ve": 313,
      "Ġy": 314,
      "ĠA": 315,
      "ec": 316,
      "ol": 317,
      "Ġyou": 318,
      "id": 319,
      "as": 320,
      "ow": 321,
      "us": 322,
      "ation": 323,
      "Ġl": 324,
      "Ġth": 325,
      "et": 326,
      "Ġh": 327,
      "Ġn": 328,
      "ul": 329,
      "ac": 330,
      "ĠT": 331,
      "im": 332,
      "il": 333,
      "ep": 334,
      "el": 335,
      "Ġg": 336,
      "ant": 337,
      "ig": 338,
      "Ġfor": 339,
      "Ġst": 340,
      "Ġcon": 341,
      "ver": 342,
      "em": 343,
      "ist": 344,
      "Ġex": 345,
      "ce": 346,
      "ot": 347,
      "Ġon": 348,
      "ĠS": 349,
      "Ġor": 350,
      "ith": 351,
      "Ġyour": 352,
      "ate": 353,
      "ur": 354,
      "un": 355,
      "se": 356,
      "uc": 357,
      "Ġas": 358,
      "----": 359,
      "Ġpro": 360,
      "pp": 361,
      "Ġwith": 362,
      "ter": 363,
      "ess": 364,
      "ag": 365,
      "qu": 366,
      "ir": 367,
      "am": 368,
      "|>": 369,
      "<|": 370,
      "Ġhe": 371,
      "ĠC": 372,
      "if": 373,
      "tic": 374,
      "res": 375,
      "ad": 376,
      "ers": 377,
      "ay": 378,
      "ab": 379,
      "Ġan": 380,
      "ity": 381,
      "Ġal": 382,
      "Ġcom": 383,
      "ut": 384,
      "Ġare": 385,
      "ri": 386,
      "ĠI": 387,
      "ke": 388,
      "sist": 389,
      "out": 390,
      "her": 391,
      "Ġis": 392,
      "ĠP": 393,
      "Ġby": 394,
      "ain": 395,
      "ts": 396,
      "Ġen": 397,
      "Ġv": 398,
      "Ġac": 399,
      "Ġbe": 400,
      "ip": 401,
      "ure": 402,
      "si": 403,
      "ite": 404,
      "um": 405,
      "ud": 406,
      "ĠĠ": 407,
      "Ġch": 408,
      "od": 409,
      "ore": 410,
      "Ġ(": 411,
      "igh": 412,
      "ĠAI": 413,
      "Ġit": 414,
      "sistant": 415,
      "Ġthat": 416,
      "pl": 417,
      "Ġus": 418,
      "ĠE": 419,
      "ations": 420,
      "**": 421,
      "tions": 422,
      "th": 423,
      "Ġint": 424,
      "ful": 425,
      "low": 426,
      "ĠW": 427,
      "ĠD": 428,
      "ated": 429,
      "tive": 430,
      "Ġwh": 431,
      "Ġpre": 432,
      "ment": 433,
      "oc": 434,
      "ĠM": 435,
      "our": 436,
      "ĠF": 437,
      "ĠB": 438,
      "Ġhel": 439,
      "Ġcre": 440,
      "and": 441,
      "Ġhelp": 442,
      "ĠR": 443,
      "rac": 444,
      "ple": 445,
      "Ġapp": 446,
      "Ġle": 447,
      "Ġu": 448,
      "ial": 449,
      "ine": 450,
      "tep": 451,
      "ere": 452,
      "Ġun": 453,
      "ting": 454,
      "iz": 455,
      "rou": 456,
      "Ġne": 457,
      "os": 458,
      "cl": 459,
      "Ġad": 460,
      "Ġ1": 461,
      "Ġim": 462,
      "ap": 463,
      "ch": 464,
      "ĠH": 465,
      "--------": 466,
      "Ġsh": 467,
      "Ġsp": 468,
      "Ġ'": 469,
      "ies": 470,
      "yst": 471,
      "tu": 472,
      "ise": 473,
      "ide": 474,
      "nt": 475,
      "==": 476,
      "ill": 477,
      "##": 478,
      "ome": 479,
      "Ġr": 480,
      "ystem": 481,
      "ach": 482,
      "Ġcan": 483,
      "Ġthis": 484,
      "rom": 485,
      "hen": 486,
      "gh": 487,
      "'s": 488,
      "per": 489,
      "ight": 490,
      "end": 491,
      "Ġat": 492,
      "Step": 493,
      "ons": 494,
      "ge": 495,
      "oo": 496,
      "Ġwe": 497,
      "Ġha": 498,
      "ile": 499,
      "able": 500,
      "ĠG": 501,
      "are": 502,
      "Ġsu": 503,
      "You": 504,
      "ĠL": 505,
      "ard": 506,
      "iv": 507,
      "Ġpol": 508,
      "Ġ\"": 509,
      "ally": 510,
      "duc": 511,
      "for": 512,
      "Ġ2": 513,
      "Ġde": 514,
      "all": 515,
      "ld": 516,
      "ous": 517,
      "op": 518,
      "ong": 519,
      "Ġcont": 520,
      "king": 521,
      "cise": 522,
      "Ġfrom": 523,
      "ĠThe": 524,
      "ents": 525,
      "og": 526,
      "ance": 527,
      "ust": 528,
      "age": 529,
      "enti": 530,
      "ct": 531,
      "ther": 532,
      "Ġres": 533,
      "Ġpl": 534,
      "Ġhelpful": 535,
      "ks": 536,
      "Ġcreated": 537,
      "Ġprecise": 538,
      "ey": 539,
      "red": 540,
      "clud": 541,
      "Ġse": 542,
      "iti": 543,
      "Ġco": 544,
      "Ġpolite": 545,
      "ect": 546,
      "Ġassistant": 547,
      "cess": 548,
      "very": 549,
      "user": 550,
      "antra": 551,
      "lya": 552,
      "ĠTantra": 553,
      "system": 554,
      "tulya": 555,
      "ĠAtulya": 556,
      "assistant": 557,
      "ating": 558,
      "ces": 559,
      "ollow": 560,
      "ĠIn": 561,
      "ind": 562,
      "Ġcomp": 563,
      "Ġab": 564,
      "Ġnot": 565,
      "ĠU": 566,
      "Ġcl": 567,
      "ines": 568,
      "Ġ=": 569,
      "uid": 570,
      "ĠO": 571,
      "Ġtheir": 572,
      "est": 573,
      "ence": 574,
      "ex": 575,
      "les": 576,
      "Ġpar": 577,
      "ips": 578,
      "nder": 579,
      "ff": 580,
      "Ġfollow": 581,
      "Ġli": 582,
      "Ġhave": 583,
      "Ġ-": 584,
      "ort": 585,
      "ign": 586,
      "ion": 587,
      "ie": 588,
      "ical": 589,
      "ruc": 590,
      "ĠTh": 591,
      "tical": 592,
      "ates": 593,
      "Ġwor": 594,
      "Ġout": 595,
      "uidel": 596,
      "ue": 597,
      "Ġuse": 598,
      "Ġpo": 599,
      "ould": 600,
      "ell": 601,
      "âĢ": 602,
      "tiv": 603,
      "ry": 604,
      "Ġthese": 605,
      "ĠN": 606,
      "ary": 607,
      "ber": 608,
      "led": 609,
      "Ġsuc": 610,
      "als": 611,
      "Ġma": 612,
      "Ġj": 613,
      "Ġdis": 614,
      "Key": 615,
      "rough": 616,
      "av": 617,
      "clude": 618,
      "Ġtim": 619,
      "Ġar": 620,
      "ular": 621,
      "vel": 622,
      "ble": 623,
      "Ġhow": 624,
      "ress": 625,
      "Ġmo": 626,
      "Ġk": 627,
      "ari": 628,
      "di": 629,
      "ory": 630,
      "ors": 631,
      "Ġsec": 632,
      "ms": 633,
      "Ġdet": 634,
      "Ġem": 635,
      "Ġup": 636,
      "rite": 637,
      "Ġev": 638,
      "ext": 639,
      "Ġinto": 640,
      "ific": 641,
      "ang": 642,
      "Ġper": 643,
      "Ġ3": 644,
      "ail": 645,
      "Ġinst": 646,
      "Ġlike": 647,
      "Ġexam": 648,
      "Ġunder": 649,
      "one": 650,
      "ater": 651,
      "uring": 652,
      "Ġif": 653,
      "ans": 654,
      "Ġexp": 655,
      "ning": 656,
      "fere": 657,
      "ns": 658,
      "Ġthey": 659,
      "'.": 660,
      "act": 661,
      "Ġ$": 662,
      "Ġexpl": 663,
      "Ġwill": 664,
      "ric": 665,
      "Ġunit": 666,
      "tain": 667,
      "form": 668,
      "Ġrel": 669,
      "Ġqu": 670,
      "Ġthrough": 671,
      "ear": 672,
      "ities": 673,
      "Ġsc": 674,
      "====": 675,
      "Ġme": 676,
      "Ġimp": 677,
      "Ġstep": 678,
      "Ġdes": 679,
      "Ġwhen": 680,
      "Ġequ": 681,
      "Ġacc": 682,
      "here": 683,
      "Ġover": 684,
      "ace": 685,
      "ding": 686,
      "ast": 687,
      "oth": 688,
      "Ġother": 689,
      "Ġke": 690,
      "uidelines": 691,
      "Ġbet": 692,
      "Ġfe": 693,
      "ments": 694,
      "Ġtime": 695,
      "ĠSt": 696,
      "eg": 697,
      "Ġprac": 698,
      "ĠĠĠĠ": 699,
      "Ġtr": 700,
      "ich": 701,
      "Ġinter": 702,
      "ages": 703,
      "Ġthem": 704,
      ").": 705,
      "Ġeach": 706,
      "ack": 707,
      "stand": 708,
      "ech": 709,
      "ative": 710,
      "ĠThis": 711,
      "Ġcons": 712,
      "Ġsuch": 713,
      "tional": 714,
      "elf": 715,
      "Ġcomm": 716,
      "we": 717,
      "Ġconc": 718,
      "00": 719,
      "Ġ5": 720,
      "Ġabout": 721,
      "Ġgo": 722,
      "fore": 723,
      "ving": 724,
      "Ġinc": 725,
      "iting": 726,
      "Ġits": 727,
      "Ġso": 728,
      "Ġman": 729,
      "ng": 730,
      "----------------": 731,
      "Ġro": 732,
      "Ġind": 733,
      "Ġnew": 734,
      "Ġph": 735,
      "Ġcol": 736,
      "ily": 737,
      "\",": 738,
      "ize": 739,
      "Ġdep": 740,
      "now": 741,
      "Ġspec": 742,
      "roduc": 743,
      "ire": 744,
      "Ġfollowing": 745,
      "Ġnum": 746,
      "ase": 747,
      "ose": 748,
      "Ġinv": 749,
      "Ġval": 750,
      "Ġallow": 751,
      "Ġfun": 752,
      "ential": 753,
      "Ġop": 754,
      "ys": 755,
      "ility": 756,
      "Ġmore": 757,
      "Ġtop": 758,
      "art": 759,
      "Ġtra": 760,
      "ings": 761,
      "Ġsim": 762,
      "tim": 763,
      "Ġany": 764,
      "lic": 765,
      "Ġ&": 766,
      "Ġall": 767,
      "ough": 768,
      "Ġreg": 769,
      "ound": 770,
      "Ġprov": 771,
      "anc": 772,
      "lect": 773,
      "Ġone": 774,
      "Ġsub": 775,
      "Ġsome": 776,
      "Ġ4": 777,
      "round": 778,
      "ub": 779,
      "row": 780,
      "Ġcal": 781,
      "Ġexper": 782,
      "Ġwhile": 783,
      "sion": 784,
      "Ġdif": 785,
      "ward": 786,
      "ider": 787,
      "ass": 788,
      "ten": 789,
      "Ġrec": 790,
      "Ġusing": 791,
      "Ġdo": 792,
      "ween": 793,
      "Ġform": 794,
      "Ġrem": 795,
      "ook": 796,
      "Ġins": 797,
      "Ġoff": 798,
      "Ġeng": 799,
      "ph": 800,
      "Ġappro": 801,
      "Ġtext": 802,
      "ays": 803,
      "Ġvery": 804,
      "Ġcomple": 805,
      "ll": 806,
      "aging": 807,
      "Ġvari": 808,
      "Ġbetween": 809,
      "Ġrep": 810,
      "ond": 811,
      "ures": 812,
      "Ġneed": 813,
      "ĠDo": 814,
      "echn": 815,
      "Ġpers": 816,
      "Ġ+": 817,
      "Ġdec": 818,
      "ult": 819,
      "Ġwhich": 820,
      "oid": 821,
      "ake": 822,
      "Ġlong": 823,
      "Ġour": 824,
      "Ġinclude": 825,
      "Ġtw": 826,
      "ame": 827,
      "ues": 828,
      "ual": 829,
      "yp": 830,
      "Ġens": 831,
      "In": 832,
      "read": 833,
      "###": 834,
      "Ġread": 835,
      "',": 836,
      "ak": 837,
      "Ġthere": 838,
      "ice": 839,
      "Ġra": 840,
      "Ġevery": 841,
      "Ġunderstand": 842,
      "Ġcur": 843,
      "Ġsection": 844,
      "eng": 845,
      "iled": 846,
      "Ġkey": 847,
      "ree": 848,
      "ati": 849,
      "ired": 850,
      "ĠY": 851,
      "its": 852,
      "Ġbut": 853,
      "Ġknow": 854,
      "ased": 855,
      "Ġmod": 856,
      "ves": 857,
      "Ġeas": 858,
      "get": 859,
      "rib": 860,
      "ĠHow": 861,
      "ish": 862,
      "Ġstr": 863,
      "Write": 864,
      "eth": 865,
      "Ġdisc": 866,
      "ark": 867,
      "Ġam": 868,
      "cul": 869,
      "ailed": 870,
      "Ġtechn": 871,
      "hes": 872,
      "pec": 873,
      "Ġduring": 874,
      "Ġwr": 875,
      "Ġprocess": 876,
      "void": 877,
      "Ġ\\": 878,
      "oy": 879,
      "iqu": 880,
      "come": 881,
      "Ġimages": 882,
      "Ġexample": 883,
      "Ġwithin": 884,
      "The": 885,
      "ction": 886,
      "Ġwhere": 887,
      "ĠFor": 888,
      "Ġdetailed": 889,
      "Ġob": 890,
      "Ġdiffere": 891,
      "riend": 892,
      "enc": 893,
      "resent": 894,
      "Ġboth": 895,
      "ĠCon": 896,
      "olog": 897,
      "ount": 898,
      "ever": 899,
      "Ġmat": 900,
      "Ġrequ": 901,
      "Ġeff": 902,
      "Ġbec": 903,
      "ĠEx": 904,
      "ration": 905,
      "Ġadv": 906,
      "Ġwithout": 907,
      "erm": 908,
      "Ġmay": 909,
      "ive": 910,
      "Ġtopic": 911,
      "Ġsk": 912,
      "Ġsign": 913,
      "int": 914,
      "ia": 915,
      "Ġsol": 916,
      "Ġadd": 917,
      "ft": 918,
      "Ġgra": 919,
      "Ġconcep": 920,
      "yle": 921,
      "Ġte": 922,
      "Ġtwo": 923,
      "ild": 924,
      "Ġmain": 925,
      "irst": 926,
      "sive": 927,
      "ss": 928,
      "ood": 929,
      "Ġpartic": 930,
      "Ġcor": 931,
      "Ġfind": 932,
      "),": 933,
      "Ġchar": 934,
      "ĠK": 935,
      "ens": 936,
      "Ġhas": 937,
      "nce": 938,
      "ĠCh": 939,
      "ĠTips": 940,
      "vers": 941,
      "ĠV": 942,
      "apter": 943,
      "Ġwhat": 944,
      "ions": 945,
      "own": 946,
      "ĠJ": 947,
      "vered": 948,
      "ulti": 949,
      "Ġapply": 950,
      "Ġpractical": 951,
      "other": 952,
      "Ġass": 953,
      "aus": 954,
      "Ġthan": 955,
      "ost": 956,
      "Ġset": 957,
      "Ġchapter": 958,
      "ĠWe": 959,
      "Ġinstruc": 960,
      "Ġsm": 961,
      "ef": 962,
      "ocus": 963,
      "ath": 964,
      "Ġbefore": 965,
      "Ġlear": 966,
      "ember": 967,
      "ience": 968,
      "old": 969,
      "'t": 970,
      "ĠAd": 971,
      "hed": 972,
      "ivid": 973,
      "Ġ6": 974,
      "Ġfriend": 975,
      "Ġdepth": 976,
      "up": 977,
      "Ġgu": 978,
      "ering": 979,
      "ready": 980,
      "hie": 981,
      "til": 982,
      "Ġproduc": 983,
      "so": 984,
      "ĠâĢ": 985,
      "Ġalready": 986,
      "Ġresp": 987,
      "Ġachie": 988,
      "ently": 989,
      "Ġwriting": 990,
      "ĠCom": 991,
      "Ġshould": 992,
      "ĠYour": 993,
      "Ġag": 994,
      "Ġcle": 995,
      "Ġspecific": 996,
      "Ġstud": 997,
      "Ġdist": 998,
      "onom": 999,
      "acter": 1000,
      "Ġwho": 1001,
      "wor": 1002,
      "ness": 1003,
      "ma": 1004,
      "te": 1005,
      "Ġser": 1006,
      "orial": 1007,
      "ne": 1008,
      "Ġgen": 1009,
      "fter": 1010,
      "sions": 1011,
      "Ġcovered": 1012,
      "ife": 1013,
      "pport": 1014,
      "velop": 1015,
      "Ġwas": 1016,
      "ange": 1017,
      "ty": 1018,
      "erg": 1019,
      "Ġbu": 1020,
      "ĠĠĠ": 1021,
      "li": 1022,
      "Ġtit": 1023,
      "entif": 1024,
      "nit": 1025,
      "Ġtut": 1026,
      "bers": 1027,
      "Ġpot": 1028,
      "Ġstyle": 1029,
      "clus": 1030,
      "ead": 1031,
      "ement": 1032,
      "Ġperson": 1033,
      "========": 1034,
      "ĠInclude": 1035,
      "Ġtextb": 1036,
      "How": 1037,
      "Ġtutorial": 1038,
      "ower": 1039,
      "gan": 1040,
      "Ġmin": 1041,
      "ics": 1042,
      "Ġ**": 1043,
      ":**": 1044,
      "Ġref": 1045,
      "Ġposi": 1046,
      "ĠBy": 1047,
      "ick": 1048,
      "Ġtyp": 1049,
      "Ġpr": 1050,
      "Wh": 1051,
      "ĠGuidelines": 1052,
      "Ġ|": 1053,
      "alth": 1054,
      "ule": 1055,
      "Ġno": 1056,
      "roduction": 1057,
      "ĠStep": 1058,
      "Ġtips": 1059,
      "Ġmake": 1060,
      "ational": 1061,
      "Ġend": 1062,
      "Ġfl": 1063,
      "ici": 1064,
      "Ġconsider": 1065,
      "Ġtrans": 1066,
      "Ġsteps": 1067,
      "Ġguidelines": 1068,
      "ĠApp": 1069,
      "Ġincre": 1070,
      "Ġprof": 1071,
      "Ġeasily": 1072,
      "ik": 1073,
      "Ġhelps": 1074,
      "Ġloc": 1075,
      "ĠIt": 1076,
      "self": 1077,
      "Ġcalcul": 1078,
      "ĠPro": 1079,
      "Ġx": 1080,
      "Ġcommun": 1081,
      "Ġche": 1082,
      "hip": 1083,
      "ib": 1084,
      "ateg": 1085,
      "ution": 1086,
      "ĠAl": 1087,
      "ds": 1088,
      "Ġconf": 1089,
      ".,": 1090,
      "Ġvarious": 1091,
      "Ġsystem": 1092,
      "tice": 1093,
      "erest": 1094,
      "nsure": 1095,
      "ĠIf": 1096,
      "iel": 1097,
      "ps": 1098,
      "ecess": 1099,
      "Ġwork": 1100,
      "oun": 1101,
      "ored": 1102,
      "Ġmulti": 1103,
      "ining": 1104,
      "Ġreaders": 1105,
      "ob": 1106,
      "por": 1107,
      "Ġhigh": 1108,
      "We": 1109,
      "Ġinform": 1110,
      "Ġlead": 1111,
      "Ġachieve": 1112,
      "Ġbl": 1113,
      "Ġprev": 1114,
      "Ġdesired": 1115,
      "Ġinvol": 1116,
      "Ġalso": 1117,
      "Ġmaintain": 1118,
      "ved": 1119,
      "Ġdifferent": 1120,
      "ĠEnsure": 1121,
      "Ġplay": 1122,
      "ication": 1123,
      "Ġfirst": 1124,
      "arity": 1125,
      "inal": 1126,
      "Ġcomplex": 1127,
      "Ġback": 1128,
      "AA": 1129,
      "ĠâĢĵ": 1130,
      "Ġatt": 1131,
      "ata": 1132,
      "Ġchall": 1133,
      "Ġallowing": 1134,
      "Ġinstructions": 1135,
      "Ġnumber": 1136,
      "Ġexplan": 1137,
      "ethod": 1138,
      "Ġsur": 1139,
      "ately": 1140,
      "ective": 1141,
      "ances": 1142,
      "ove": 1143,
      "Ġdi": 1144,
      "lec": 1145,
      "Ġpe": 1146,
      "ather": 1147,
      "Ġcreate": 1148,
      "Ġcharacter": 1149,
      "iew": 1150,
      "ets": 1151,
      "Ġlet": 1152,
      "Ġdown": 1153,
      "Ġcap": 1154,
      "dition": 1155,
      "Ġprom": 1156,
      "Ġindivid": 1157,
      "ven": 1158,
      "Ġfact": 1159,
      "tern": 1160,
      "cc": 1161,
      "Ġexplanations": 1162,
      "iki": 1163,
      "ability": 1164,
      "ses": 1165,
      "Ġcould": 1166,
      "Ġunderstanding": 1167,
      "Ġprovid": 1168,
      "izing": 1169,
      "pt": 1170,
      "Ġreal": 1171,
      "Ġengaging": 1172,
      "ooks": 1173,
      "Ġsa": 1174,
      "ool": 1175,
      "Ġinterest": 1176,
      "Ġanother": 1177,
      "Ġ7": 1178,
      "Ġinteg": 1179,
      "Ġsch": 1180,
      "Ġguide": 1181,
      "ute": 1182,
      "reat": 1183,
      "ences": 1184,
      "ature": 1185,
      "Ġavoid": 1186,
      "Ġ20": 1187,
      "ties": 1188,
      "line": 1189,
      "arch": 1190,
      "Ġeven": 1191,
      "ross": 1192,
      "Ġcare": 1193,
      "Ġext": 1194,
      "Ġyourself": 1195,
      "oose": 1196,
      "Ġgrow": 1197,
      "ĠAs": 1198,
      "Ġparticular": 1199,
      "ĠAn": 1200,
      "du": 1201,
      "reate": 1202,
      "Ġinf": 1203,
      "Ġrelations": 1204,
      "Ġenc": 1205,
      "Ġsoc": 1206,
      "aterial": 1207,
      "Ġpos": 1208,
      "ikiHow": 1209,
      "}{": 1210,
      "ren": 1211,
      "ality": 1212,
      "Ġclarity": 1213,
      "Ġoutcome": 1214,
      "Ġhealth": 1215,
      "ural": 1216,
      "wards": 1217,
      "Ġmight": 1218,
      "ection": 1219,
      "Ġwater": 1220,
      "Ġid": 1221,
      "Ġdevelop": 1222,
      "arly": 1223,
      "ĠUse": 1224,
      "Ġent": 1225,
      "ĠBe": 1226,
      "aching": 1227,
      "ĠThese": 1228,
      "Ġline": 1229,
      "ĠWh": 1230,
      "Ġpracticality": 1231,
      "ights": 1232,
      "Ġvis": 1233,
      "Ġwell": 1234,
      "uideline": 1235,
      "Ġchalleng": 1236,
      "Ġpotential": 1237,
      "iness": 1238,
      "Ġactiv": 1239,
      "$$": 1240,
      "ways": 1241,
      "Ġbr": 1242,
      "Ġhand": 1243,
      "ases": 1244,
      "Ġfeel": 1245,
      "ĠRem": 1246,
      "rehen": 1247,
      "uding": 1248,
      "ious": 1249,
      "Ġec": 1250,
      "ĠWikiHow": 1251,
      "Ġensure": 1252,
      "ized": 1253,
      "ax": 1254,
      "Ġinl": 1255,
      "abl": 1256,
      "Ġaround": 1257,
      "Ġinluding": 1258,
      "over": 1259,
      "ples": 1260,
      "Ġdem": 1261,
      "Ġfocus": 1262,
      "wn": 1263,
      "Ġnecess": 1264,
      "frac": 1265,
      "itle": 1266,
      "ories": 1267,
      "Ġtail": 1268,
      "Ġconn": 1269,
      "Ġmethod": 1270,
      "Ġtitled": 1271,
      "Ġdeep": 1272,
      "Ġess": 1273,
      "Ġwould": 1274,
      "Ġinclud": 1275,
      "Ġbased": 1276,
      "ody": 1277,
      "Ġdata": 1278,
      "ix": 1279,
      "Ġanal": 1280,
      "Ġsignific": 1281,
      "Ġdire": 1282,
      "Ġimpro": 1283,
      "Ġlevel": 1284,
      "Ġgiv": 1285,
      "Con": 1286,
      "arm": 1287,
      "gin": 1288,
      "'re": 1289,
      "Ġdef": 1290,
      "Ġmon": 1291,
      "Ġbeh": 1292,
      "Ġorgan": 1293,
      "Ġexpres": 1294,
      "ique": 1295,
      "sing": 1296,
      "Ġrese": 1297,
      "Ġmed": 1298,
      "ditional": 1299,
      "tics": 1300,
      "ices": 1301,
      "ects": 1302,
      "Ġproper": 1303,
      "ord": 1304,
      "Ġele": 1305,
      "urn": 1306,
      "ject": 1307,
      "eep": 1308,
      "Ex": 1309,
      "ourn": 1310,
      "ency": 1311,
      "Ġtone": 1312,
      "ills": 1313,
      "Ġalong": 1314,
      "ause": 1315,
      "ram": 1316,
      "air": 1317,
      "Ġfriends": 1318,
      "ĠCons": 1319,
      "ession": 1320,
      "ints": 1321,
      "ctions": 1322,
      "fort": 1323,
      "ink": 1324,
      "Ġprovide": 1325,
      "fully": 1326,
      "Ġmaterial": 1327,
      "aking": 1328,
      "Ġequations": 1329,
      "ince": 1330,
      "Title": 1331,
      "Ġ10": 1332,
      "gg": 1333,
      "Ġmany": 1334,
      "urther": 1335,
      "Ġher": 1336,
      "ying": 1337,
      "Ġphra": 1338,
      "Ġhist": 1339,
      "Ġcar": 1340,
      "oura": 1341,
      "Ġ*": 1342,
      "Ġimport": 1343,
      "ntroduction": 1344,
      "Ġsmall": 1345,
      "Ġapproach": 1346,
      "Ġremain": 1347,
      "ĠWrite": 1348,
      "Ġpri": 1349,
      "ources": 1350,
      "ledge": 1351,
      "Ġpart": 1352,
      "Ġthose": 1353,
      "Ġconsist": 1354,
      "ames": 1355,
      "Ġsuccess": 1356,
      "ture": 1357,
      "Ġessential": 1358,
      "Ġ8": 1359,
      "Ġthen": 1360,
      "Ġlearn": 1361,
      "aw": 1362,
      "ym": 1363,
      "ew": 1364,
      "Ġinformation": 1365,
      "rehensive": 1366,
      "sible": 1367,
      "ants": 1368,
      "âĢĻ": 1369,
      "Ġsee": 1370,
      "Ġide": 1371,
      "Ġfunction": 1372,
      "Ġfound": 1373,
      "ĠHowever": 1374,
      "ted": 1375,
      "Ġbre": 1376,
      "ck": 1377,
      "Ġvalue": 1378,
      "Ġafter": 1379,
      "Ġtailored": 1380,
      "ply": 1381,
      "Ġmaking": 1382,
      "ĠTo": 1383,
      "inc": 1384,
      "Ġbegin": 1385,
      "Ġsignificant": 1386,
      "Ġdue": 1387,
      "Ġconst": 1388,
      "ĠYou": 1389,
      "ĠHere": 1390,
      "Ġphrases": 1391,
      "ization": 1392,
      "Ġway": 1393,
      "Ġaccess": 1394,
      "ser": 1395,
      "ared": 1396,
      "ination": 1397,
      "Ġlife": 1398,
      "Ġothers": 1399,
      "atter": 1400,
      "ending": 1401,
      "ergy": 1402,
      "Ġeconom": 1403,
      "to": 1404,
      "Ġprog": 1405,
      "els": 1406,
      "ade": 1407,
      "Ġstre": 1408,
      "ĠEng": 1409,
      "tives": 1410,
      "---": 1411,
      "Ġgener": 1412,
      "aring": 1413,
      "Ġjourn": 1414,
      "Ġdel": 1415,
      "Ġpur": 1416,
      "Ġcontent": 1417,
      "put": 1418,
      "de": 1419,
      "Ġsl": 1420,
      "Ġhis": 1421,
      "ield": 1422,
      "Ġevents": 1423,
      "nces": 1424,
      "Ġfac": 1425,
      "Ġthough": 1426,
      "ables": 1427,
      "Ġlist": 1428,
      "Ġ0": 1429,
      "atures": 1430,
      "Ġplan": 1431,
      "Ġdesign": 1432,
      "Ġless": 1433,
      "rate": 1434,
      "Ġthroughout": 1435,
      "Ġconcepts": 1436,
      "com": 1437,
      "ins": 1438,
      "Ġunits": 1439,
      "ople": 1440,
      "ars": 1441,
      "Ġexperi": 1442,
      "Ġartic": 1443,
      "ision": 1444,
      "ior": 1445,
      "Ġconcept": 1446,
      "Ġpersonal": 1447,
      "Ġmark": 1448,
      "\".": 1449,
      "rent": 1450,
      "Ġmeas": 1451,
      "Ġintroduc": 1452,
      "Ġet": 1453,
      "rect": 1454,
      "Ġproble": 1455,
      "Ġlight": 1456,
      "Ġapples": 1457,
      "ĠSh": 1458,
      "ĠRe": 1459,
      "Ġfin": 1460,
      "ĠKeep": 1461,
      "Ġkeep": 1462,
      "Ġapplic": 1463,
      "Ġget": 1464,
      "ĠPl": 1465,
      "ĠTip": 1466,
      "Ġright": 1467,
      "iron": 1468,
      "Ġgrou": 1469,
      "Ġstrateg": 1470,
      "hema": 1471,
      "eed": 1472,
      "ically": 1473,
      "gether": 1474,
      "Ġtogether": 1475,
      "ology": 1476,
      "ĠRemember": 1477,
      "Ġopen": 1478,
      "of": 1479,
      "oring": 1480,
      "Ġshe": 1481,
      "Ġmem": 1482,
      "Ġfam": 1483,
      "Ġchild": 1484,
      "Ġver": 1485,
      "ording": 1486,
      "Ġel": 1487,
      "rucial": 1488,
      "Ġbel": 1489,
      "Ġsupp": 1490,
      "Ġexc": 1491,
      "less": 1492,
      "day": 1493,
      "Ġcost": 1494,
      "hips": 1495,
      "Th": 1496,
      "tit": 1497,
      "clusion": 1498,
      "Ġperform": 1499,
      "Ġteaching": 1500,
      "Ġschool": 1501,
      "ety": 1502,
      "Ġcover": 1503,
      "iques": 1504,
      "ustom": 1505,
      "Ġnecessary": 1506,
      "Ġtowards": 1507,
      "ner": 1508,
      "Ġknowledge": 1509,
      "Ġcrucial": 1510,
      "ze": 1511,
      "Ġmost": 1512,
      "ave": 1513,
      "atis": 1514,
      "Ġnow": 1515,
      "ron": 1516,
      "Ġincluding": 1517,
      "Ġ19": 1518,
      "Ġcontin": 1519,
      "view": 1520,
      "anced": 1521,
      "Ġdra": 1522,
      "ox": 1523,
      "Ġgl": 1524,
      "Ġpositive": 1525,
      "Ġlar": 1526,
      "Ġter": 1527,
      "Ġupon": 1528,
      "ems": 1529,
      "Ġrepresent": 1530,
      "Ġprofession": 1531,
      "Ġchang": 1532,
      "Ġyear": 1533,
      "Ġpower": 1534,
      "ploy": 1535,
      "Ġday": 1536,
      "ible": 1537,
      "ered": 1538,
      "Ġsimple": 1539,
      "ental": 1540,
      "Ġenh": 1541,
      "tal": 1542,
      "Ġcri": 1543,
      "Create": 1544,
      "ied": 1545,
      "ined": 1546,
      "Ġpop": 1547,
      "Ġelect": 1548,
      "Ġoverall": 1549,
      "Introduction": 1550,
      "Ġyoung": 1551,
      "verse": 1552,
      "Ġcontrib": 1553,
      "ism": 1554,
      "Ġstand": 1555,
      "und": 1556,
      "Ġsit": 1557,
      "viron": 1558,
      "Ġoften": 1559,
      "uch": 1560,
      "Ġnumbers": 1561,
      "Ġtextbooks": 1562,
      "ides": 1563,
      "Ġeffective": 1564,
      "To": 1565,
      "ling": 1566,
      "Ġdeterm": 1567,
      "Ġresul": 1568,
      "pri": 1569,
      "ĠEn": 1570,
      "Ġpeople": 1571,
      "ract": 1572,
      "Ġacross": 1573,
      "app": 1574,
      "\\_": 1575,
      "Ġaim": 1576,
      "Ġjust": 1577,
      "Ġvalues": 1578,
      "ertain": 1579,
      "Ġown": 1580,
      "ush": 1581,
      "Ġagain": 1582,
      "Ġwant": 1583,
      "..": 1584,
      "Ġonly": 1585,
      "Ġtake": 1586,
      "Ġstruc": 1587,
      "Ġthree": 1588,
      "idence": 1589,
      "Ġunique": 1590,
      "mer": 1591,
      "Ġgrowth": 1592,
      "Ġclean": 1593,
      "Ġenergy": 1594,
      "asing": 1595,
      "Ġcir": 1596,
      "####": 1597,
      "Ġtry": 1598,
      "ital": 1599,
      "Ġarticle": 1600,
      "Ġsure": 1601,
      "Ġuntil": 1602,
      "Ġworld": 1603,
      "Ġprot": 1604,
      "Ġaud": 1605,
      "tory": 1606,
      "Ġtool": 1607,
      "Ġshow": 1608,
      "Ġexamples": 1609,
      "Ġinterac": 1610,
      "ĠRes": 1611,
      "Ġcurrent": 1612,
      "What": 1613,
      "Ġneg": 1614,
      "Ġve": 1615,
      "utes": 1616,
      "Ġdirect": 1617,
      "oci": 1618,
      "Ġwhe": 1619,
      "val": 1620,
      "Ġshap": 1621,
      "ogn": 1622,
      "pi": 1623,
      "Ġhead": 1624,
      "ĠWith": 1625,
      "Ġused": 1626,
      "Ġbody": 1627,
      "Ġlim": 1628,
      "Ġcomprehensive": 1629,
      "Ġhistory": 1630,
      "Ġmathema": 1631,
      "20": 1632,
      "bs": 1633,
      "duce": 1634,
      "xim": 1635,
      "Ġcalculus": 1636,
      "'ll": 1637,
      "Ġmove": 1638,
      "Guideline": 1639,
      "Ġcommon": 1640,
      "Ġidentif": 1641,
      "Ġstudents": 1642,
      "Ġsaf": 1643,
      "Ġskills": 1644,
      "Ġtechniques": 1645,
      "Ġdoes": 1646,
      "Ġallows": 1647,
      "angu": 1648,
      "Ġpresent": 1649,
      "ots": 1650,
      "Ġiniti": 1651,
      "rol": 1652,
      "Ġaut": 1653,
      "Ġbehav": 1654,
      "Ġregard": 1655,
      "Ġresearch": 1656,
      "Ġfactors": 1657,
      "Ġemp": 1658,
      "Ġsever": 1659,
      "ters": 1660,
      "Ġ<": 1661,
      "Ġques": 1662,
      "Ġtem": 1663,
      "ilities": 1664,
      "Ġaw": 1665,
      "tivity": 1666,
      "usiness": 1667,
      "lex": 1668,
      "Ġrespon": 1669,
      "Ġstra": 1670,
      "ĠUnit": 1671,
      "Ġsocial": 1672,
      "iod": 1673,
      "Ġamong": 1674,
      "Ġret": 1675,
      "Ġpoint": 1676,
      "ĠAvoid": 1677,
      "orous": 1678,
      "nderstand": 1679,
      "ĠThey": 1680,
      "Ġappear": 1681,
      "Ġwere": 1682,
      "Ġcent": 1683,
      "Ġfurther": 1684,
      "Ġgiven": 1685,
      "Ġbetter": 1686,
      "Ġenviron": 1687,
      "pportun": 1688,
      "ĠComp": 1689,
      "Be": 1690,
      "Ġbeing": 1691,
      "Ġcorrect": 1692,
      "Ġimportant": 1693,
      "ĠIm": 1694,
      "Ġrele": 1695,
      "rep": 1696,
      "Ġmus": 1697,
      "Ġtoo": 1698,
      "Ġcontain": 1699,
      "Now": 1700,
      "Ġseveral": 1701,
      "ended": 1702,
      "**:": 1703,
      "cle": 1704,
      "ĠWhen": 1705,
      "Ġindividual": 1706,
      "ock": 1707,
      "ĠSe": 1708,
      "tures": 1709,
      "Ġintroductory": 1710,
      "Ġself": 1711,
      "ferences": 1712,
      "Ġarea": 1713,
      "Ġlearning": 1714,
      "ublic": 1715,
      "Ġtextbook": 1716,
      "igorous": 1717,
      "Ġ9": 1718,
      "Ġiss": 1719,
      "Ġexpressions": 1720,
      "ĠčĊ": 1721,
      "just": 1722,
      "Ġey": 1723,
      "by": 1724,
      "Ġreduc": 1725,
      "ually": 1726,
      "Ġphys": 1727,
      "Ġcustom": 1728,
      "Ġnar": 1729,
      "au": 1730,
      "tle": 1731,
      "ĠSc": 1732,
      "Ġbal": 1733,
      "bra": 1734,
      "10": 1735,
      "lear": 1736,
      "Ġav": 1737,
      "Ġpress": 1738,
      "anguage": 1739,
      "Ġregular": 1740,
      "Ġdiscus": 1741,
      "Ġben": 1742,
      "joy": 1743,
      "Ġprior": 1744,
      "incip": 1745,
      "ĠUnited": 1746,
      "Ġactivities": 1747,
      "Ġencoura": 1748,
      "Ġexperiences": 1749,
      "Ġgood": 1750,
      "Ġemo": 1751,
      "lied": 1752,
      "ier": 1753,
      "Ġimprove": 1754,
      "mon": 1755,
      "Ġful": 1756,
      "Ġes": 1757,
      "Ġanim": 1758,
      "Ġcell": 1759,
      "ote": 1760,
      "Ġocc": 1761,
      "Ġterms": 1762,
      "ging": 1763,
      "ĠStates": 1764,
      "ĠĠĠĠĠĠĠĠ": 1765,
      "Ġcomb": 1766,
      "Ġstart": 1767,
      "abor": 1768,
      "ĠSp": 1769,
      "Ġconvers": 1770,
      "Ġpossible": 1771,
      "fer": 1772,
      "Ġaccording": 1773,
      "Ġclass": 1774,
      "Ġsetting": 1775,
      "Ġpric": 1776,
      "Ġfield": 1777,
      "Ġdiv": 1778,
      "the": 1779,
      "Ġsupport": 1780,
      "Ġang": 1781,
      "Ġwhether": 1782,
      "ĠConsider": 1783,
      "Ġcho": 1784,
      "tention": 1785,
      "Ġfil": 1786,
      "plan": 1787,
      "Ġopportun": 1788,
      "Ġequation": 1789,
      "Ġcalled": 1790,
      "Ġelements": 1791,
      "--------------------------------": 1792,
      "Ġtechnical": 1793,
      "ength": 1794,
      "ume": 1795,
      "onst": 1796,
      "Ġareas": 1797,
      "Ġmind": 1798,
      "Ġminim": 1799,
      "pon": 1800,
      "der": 1801,
      "Ġfunctions": 1802,
      "vices": 1803,
      "ash": 1804,
      "Ġmag": 1805,
      "ges": 1806,
      "Ġmean": 1807,
      "Ġrequire": 1808,
      "Ġinfl": 1809,
      "elcome": 1810,
      "agement": 1811,
      "Ġhapp": 1812,
      "ected": 1813,
      "ires": 1814,
      "Ġstory": 1815,
      "Ġmodule": 1816,
      "lying": 1817,
      "ĠMake": 1818,
      "omm": 1819,
      "Ġsum": 1820,
      "Ġneeded": 1821,
      "================": 1822,
      "ru": 1823,
      "Ġbecome": 1824,
      "Ġ201": 1825,
      "Ġprevent": 1826,
      "ulation": 1827,
      "rative": 1828,
      "raph": 1829,
      "Ġear": 1830,
      "ĠDe": 1831,
      "Ġspecial": 1832,
      "Ġill": 1833,
      "Ġinstead": 1834,
      "Ġsqu": 1835,
      "ablish": 1836,
      "ify": 1837,
      "Ġnat": 1838,
      "Ġmultiple": 1839,
      "Ġcour": 1840,
      "Ġfost": 1841,
      "Ġavail": 1842,
      "ĠPo": 1843,
      "text": 1844,
      "By": 1845,
      "adem": 1846,
      "ĠAc": 1847,
      "sequ": 1848,
      "Ġexperience": 1849,
      "Ġrest": 1850,
      "ios": 1851,
      "Ġappropri": 1852,
      "tically": 1853,
      "work": 1854,
      "Ġest": 1855,
      "Ġsince": 1856,
      "Ġbest": 1857,
      "Ġrelationships": 1858,
      "Ġhum": 1859,
      "ditions": 1860,
      "Ġaff": 1861,
      "aling": 1862,
      "Ġchallenging": 1863,
      "Ġaddress": 1864,
      "Ġrelated": 1865,
      "Ġz": 1866,
      "Ġcolor": 1867,
      "ails": 1868,
      "Ġitems": 1869,
      "sc": 1870,
      "Ġstrong": 1871,
      "Ġlanguage": 1872,
      "vice": 1873,
      "Ġleg": 1874,
      "Ġconcer": 1875,
      "Ġsitu": 1876,
      "dep": 1877,
      "Ġpoints": 1878,
      "Ġassoci": 1879,
      "Ġlo": 1880,
      "omes": 1881,
      "Ġgre": 1882,
      "uals": 1883,
      "âĢĶ": 1884,
      "Ġformat": 1885,
      "Ġemploy": 1886,
      "Ġchange": 1887,
      "ili": 1888,
      "ral": 1889,
      "ense": 1890,
      "ci": 1891,
      "Ġbecause": 1892,
      "planation": 1893,
      "Ġexist": 1894,
      "ilding": 1895,
      "ton": 1896,
      "Ġregarding": 1897,
      "Ġoper": 1898,
      "Ġchildren": 1899,
      "Ġmust": 1900,
      "uture": 1901,
      "ĠEm": 1902,
      "ale": 1903,
      "ysis": 1904,
      "Ġneeds": 1905,
      "tif": 1906,
      "Ġpractic": 1907,
      "Ġnames": 1908,
      "utions": 1909,
      "Ġtre": 1910,
      "Ġsame": 1911,
      "Ġcharacters": 1912,
      "Ġexplore": 1913,
      "itable": 1914,
      "Once": 1915,
      "Ġpractice": 1916,
      "Ġtri": 1917,
      "Ġbas": 1918,
      "Ġdeb": 1919,
      "rop": 1920,
      "Ġintegration": 1921,
      "Ġsom": 1922,
      "plic": 1923,
      "Ġpres": 1924,
      "Ġenjoy": 1925,
      "Ġlevels": 1926,
      "Ġnegative": 1927,
      "irm": 1928,
      "atch": 1929,
      "idd": 1930,
      "Unit": 1931,
      "Ġexplain": 1932,
      "Ġrole": 1933,
      "Ġbusiness": 1934,
      "Ġobj": 1935,
      "Ġstar": 1936,
      "Ġfood": 1937,
      "Ġorig": 1938,
      "ger": 1939,
      "Ġmet": 1940,
      "Ġscen": 1941,
      "Ġattention": 1942,
      "ane": 1943,
      "Ġaudience": 1944,
      "Ġpati": 1945,
      "Ġspace": 1946,
      "Ġdates": 1947,
      "ĠReg": 1948,
      "ator": 1949,
      "Ġcommunication": 1950,
      "ements": 1951,
      "Ġacadem": 1952,
      "ections": 1953,
      "orm": 1954,
      "Ġnon": 1955,
      "Ġmuch": 1956,
      "ump": 1957,
      "Ġonline": 1958,
      "ĠFocus": 1959,
      "Ġchanges": 1960,
      "Ġenvironment": 1961,
      "yn": 1962,
      "Ġtip": 1963,
      "akes": 1964,
      "Ġden": 1965,
      "Ġris": 1966,
      "ek": 1967,
      "ething": 1968,
      "Ġperiod": 1969,
      "Ġrather": 1970,
      "Ġproof": 1971,
      "Ġfre": 1972,
      "atterns": 1973,
      "Ġensuring": 1974,
      "Ġshort": 1975,
      "Ġdon": 1976,
      "Ġtas": 1977,
      "ĠKey": 1978,
      "kes": 1979,
      "Ġimag": 1980,
      "Ġtotal": 1981,
      "Ġprim": 1982,
      "{\\": 1983,
      "Ġagainst": 1984,
      "Ġvalu": 1985,
      "istic": 1986,
      "equ": 1987,
      "ĠEngaging": 1988,
      "Ġcontrol": 1989,
      "Ġstreng": 1990,
      "med": 1991,
      "Ġmathematical": 1992,
      "AAAA": 1993,
      "Ġcaus": 1994,
      "ring": 1995,
      "Ġi": 1996,
      "Ġhair": 1997,
      "be": 1998,
      "Ġalways": 1999,
      "Ġbeen": 2000,
      "Ġsecond": 2001,
      "ĠQ": 2002,
      "depth": 2003,
      "Ġsomething": 2004,
      "Ġtimes": 2005,
      "Ġlook": 2006,
      "Ġinstance": 2007,
      "Ġexer": 2008,
      "ats": 2009,
      "Ġcreating": 2010,
      "onents": 2011,
      "Ġcertain": 2012,
      ".\"": 2013,
      "Ġpublic": 2014,
      "acks": 2015,
      "Ġresources": 2016,
      "Ġside": 2017,
      "lines": 2018,
      "__": 2019,
      "Ġsurf": 2020,
      "ĠSet": 2021,
      "Ġeffici": 2022,
      "ancial": 2023,
      "aper": 2024,
      "olution": 2025,
      "ilar": 2026,
      "Ġvol": 2027,
      "Ġmarket": 2028,
      "io": 2029,
      "Conclusion": 2030,
      "Ġbenef": 2031,
      "osing": 2032,
      "Ġbra": 2033,
      "Ġhour": 2034,
      "ept": 2035,
      "Ġobser": 2036,
      "ards": 2037,
      "Ġprep": 2038,
      "Ġcome": 2039,
      "Ġcomfort": 2040,
      "ĠAt": 2041,
      "ĠChoose": 2042,
      "Ġclear": 2043,
      "Ġoptim": 2044,
      "Ġnarrative": 2045,
      "Ġknown": 2046,
      "Ġaccount": 2047,
      "aces": 2048,
      "Ġoffer": 2049,
      "Ġfrac": 2050,
      "isc": 2051,
      "Ġresults": 2052,
      "Ġmade": 2053,
      "Ġtype": 2054,
      "orpor": 2055,
      "Ġsimply": 2056,
      "Ġ/": 2057,
      "Ġdam": 2058,
      "Ġreac": 2059,
      "Ġoffering": 2060,
      "Ġgraph": 2061,
      "ries": 2062,
      "Ġtools": 2063,
      "Ġpatterns": 2064,
      "Ġed": 2065,
      "ĠPrac": 2066,
      "Ġquestions": 2067,
      "Ġliv": 2068,
      "Ġshare": 2069,
      "ditionally": 2070,
      "Ġstrategies": 2071,
      "Ġbehavior": 2072,
      "Ġbuild": 2073,
      "Ġplace": 2074,
      "tual": 2075,
      "Ġef": 2076,
      "Ġpi": 2077,
      "Ġhad": 2078,
      "ĠCont": 2079,
      "Ġmethods": 2080,
      "ĠSo": 2081,
      "Ġlit": 2082,
      "Ġavailable": 2083,
      "ĠRec": 2084,
      "Before": 2085,
      "Ġhome": 2086,
      "Ġsym": 2087,
      "ĠHe": 2088,
      "aries": 2089,
      "ope": 2090,
      "iosity": 2091,
      "000": 2092,
      "times": 2093,
      "Ġindividuals": 2094,
      "Ġideas": 2095,
      "Ġcolle": 2096,
      "Ġfuture": 2097,
      "Ġtypes": 2098,
      "Ġoptions": 2099,
      "icate": 2100,
      "Ġlay": 2101,
      "avig": 2102,
      "Ġcritical": 2103,
      "):": 2104,
      "bility": 2105,
      "Ġlength": 2106,
      "Ġacademic": 2107,
      "Ġsystems": 2108,
      "Ġmaintaining": 2109,
      "Ġcr": 2110,
      "Ġsti": 2111,
      "ĠSu": 2112,
      "any": 2113,
      "Ġhy": 2114,
      "play": 2115,
      "Ġconditions": 2116,
      "If": 2117,
      "Ġrelationship": 2118,
      "Ġrespect": 2119,
      "Ġmeasure": 2120,
      "Ġcuriosity": 2121,
      "Ġrequires": 2122,
      "ank": 2123,
      "ĠApplied": 2124,
      "ither": 2125,
      "Ġresult": 2126,
      "icro": 2127,
      "rip": 2128,
      "Ġdid": 2129,
      "Ġgover": 2130,
      "inciples": 2131,
      "ological": 2132,
      "ished": 2133,
      "Ġwords": 2134,
      "ĠUnderstand": 2135,
      "Ġsw": 2136,
      "Ġnatural": 2137,
      "Ġproofs": 2138,
      "Ġadditional": 2139,
      "Ġlocal": 2140,
      "Ġones": 2141,
      "Ġassociated": 2142,
      "Ġremember": 2143,
      "meric": 2144,
      "alk": 2145,
      "ample": 2146,
      "Ġfree": 2147,
      "Ġinsights": 2148,
      "echan": 2149,
      "ited": 2150,
      "ĠRigorous": 2151,
      "Ġissues": 2152,
      "``": 2153,
      "sition": 2154,
      "Ġenti": 2155,
      "wer": 2156,
      "Ġdemonst": 2157,
      "oms": 2158,
      "Ġgroup": 2159,
      "ĠPh": 2160,
      "Ġproduct": 2161,
      "Ġchallenges": 2162,
      "ĠCl": 2163,
      "Ġbeginning": 2164,
      "ĠTry": 2165,
      "zing": 2166,
      "br": 2167,
      "Ġfamily": 2168,
      "Ġvaluable": 2169,
      "ules": 2170,
      "Ġtrac": 2171,
      "oot": 2172,
      "Ġadjust": 2173,
      "anti": 2174,
      "pective": 2175,
      "ening": 2176,
      "Ġinvolves": 2177,
      "vant": 2178,
      "ition": 2179,
      "Ġcount": 2180,
      "Ġpiec": 2181,
      "Ġexperim": 2182,
      "Ġleft": 2183,
      "Ġsal": 2184,
      "Ġthought": 2185,
      "Ġappropriate": 2186,
      "Ġda": 2187,
      "ĠInt": 2188,
      "Ġsimilar": 2189,
      "Ġopportunities": 2190,
      "Ġpass": 2191,
      "Ġdri": 2192,
      "As": 2193,
      "Ġlog": 2194,
      "ocum": 2195,
      "Ġeffectively": 2196,
      "Ġfund": 2197,
      "aving": 2198,
      "Ġnet": 2199,
      "Ġinflu": 2200,
      "ode": 2201,
      "xt": 2202,
      "ches": 2203,
      "Ġclose": 2204,
      "lecting": 2205,
      "}}": 2206,
      "po": 2207,
      "Explanation": 2208,
      "ooking": 2209,
      "piration": 2210,
      "side": 2211,
      "Ġexpress": 2212,
      "Ġlines": 2213,
      "Ġproviding": 2214,
      "arget": 2215,
      "stead": 2216,
      "ĠWhile": 2217,
      "learning": 2218,
      "Ġeconomic": 2219,
      "fect": 2220,
      "Ġtrying": 2221,
      "Ġanaly": 2222,
      "Ġcomplete": 2223,
      "Ġvia": 2224,
      "ov": 2225,
      "Ġequal": 2226,
      "oh": 2227,
      "Ġhig": 2228,
      "ously": 2229,
      "Ġitself": 2230,
      "ian": 2231,
      "Ġenough": 2232,
      "hers": 2233,
      "Ġmar": 2234,
      "Ġgoals": 2235,
      "pects": 2236,
      "Ġtemper": 2237,
      "Ġeveryone": 2238,
      "ĠLet": 2239,
      "Ġpolic": 2240,
      "Ġquick": 2241,
      "Ġmaterials": 2242,
      "clusions": 2243,
      "Ġphysical": 2244,
      "Ġimpact": 2245,
      "Ġadvice": 2246,
      "St": 2247,
      "ĠAdditionally": 2248,
      "ĠUn": 2249,
      "dentif": 2250,
      "nds": 2251,
      "ises": 2252,
      "Ġscenari": 2253,
      "Ġengage": 2254,
      "ĠSome": 2255,
      "Ġstraight": 2256,
      "ern": 2257,
      "lo": 2258,
      "Ġeveryday": 2259,
      "Ġnext": 2260,
      "Ġproblems": 2261,
      "Ġincrease": 2262,
      "Ġmeet": 2263,
      "Ġskin": 2264,
      "Ġdraw": 2265,
      "Ġalign": 2266,
      "âĪ": 2267,
      "Ġnear": 2268,
      "Ġstat": 2269,
      "Ġtreat": 2270,
      "Ġpost": 2271,
      "ids": 2272,
      "Ġname": 2273,
      "ecting": 2274,
      "omial": 2275,
      "Ġsubject": 2276,
      "Ġcontinu": 2277,
      "Ġnumer": 2278,
      "Ġformul": 2279,
      "Ġleading": 2280,
      "Ġpay": 2281,
      "ĠAmeric": 2282,
      "ones": 2283,
      "Ġ$\\": 2284,
      "titu": 2285,
      "Ġconclusions": 2286,
      "Ġsignificantly": 2287,
      "Ġsoft": 2288,
      "ffici": 2289,
      "isions": 2290,
      "Ġinspiration": 2291,
      "avor": 2292,
      "ators": 2293,
      "Ġer": 2294,
      "Ġair": 2295,
      "Ġmis": 2296,
      "ĠTr": 2297,
      "Ġsuitable": 2298,
      "omin": 2299,
      "Ġsides": 2300,
      "thing": 2301,
      "Ġfeatures": 2302,
      "Ġ[": 2303,
      "Ġrun": 2304,
      "Ġdig": 2305,
      "ouse": 2306,
      "Ġlarge": 2307,
      "ĠAr": 2308,
      "Ġhor": 2309,
      "Ġtrust": 2310,
      "This": 2311,
      "ĠWor": 2312,
      "Ġaway": 2313,
      "Ġmembers": 2314,
      "Ġlaw": 2315,
      "Ġdistrib": 2316,
      "Ġthings": 2317,
      "Ġcourse": 2318,
      "orough": 2319,
      "Ġincorpor": 2320,
      "Ġsmo": 2321,
      "ray": 2322,
      "Ġgoal": 2323,
      "Ġaccur": 2324,
      "Ġposition": 2325,
      "pect": 2326,
      "port": 2327,
      "ret": 2328,
      "Ġwrite": 2329,
      "my": 2330,
      "irical": 2331,
      "Ġformatting": 2332,
      "Ġabove": 2333,
      "ĠAcc": 2334,
      "Ġland": 2335,
      "Ġoccur": 2336,
      "Ġsn": 2337,
      "Ġfrequ": 2338,
      "ĠThere": 2339,
      "Ġillust": 2340,
      "Ġdirectly": 2341,
      "Ġtraditional": 2342,
      "ware": 2343,
      "ilit": 2344,
      "Ġprofessional": 2345,
      "Ġminutes": 2346,
      "Ġdevelopment": 2347,
      "ason": 2348,
      "ny": 2349,
      "Ġfinancial": 2350,
      "eti": 2351,
      "iliar": 2352,
      "Ġanalysis": 2353,
      "resents": 2354,
      "rap": 2355,
      "Ġflow": 2356,
      "otes": 2357,
      "ference": 2358,
      "Ġprevious": 2359,
      "aves": 2360,
      "$.": 2361,
      "ĠPractice": 2362,
      "Ġtarget": 2363,
      "right": 2364,
      "Ġworking": 2365,
      "Ġperformance": 2366,
      "ancing": 2367,
      "Ġproblem": 2368,
      "gebra": 2369,
      "ime": 2370,
      "Ġjourney": 2371,
      "Ġproducts": 2372,
      "Ġmeans": 2373,
      "mun": 2374,
      "Ġconver": 2375,
      "ĠĠĠĠĠĠĠ": 2376,
      "vr": 2377,
      "me": 2378,
      "Ġquality": 2379,
      "Ġbalance": 2380,
      "Ġterm": 2381,
      "Ġjo": 2382,
      "alu": 2383,
      "tig": 2384,
      "Ġhere": 2385,
      "Ġsci": 2386,
      "Ġstill": 2387,
      "Ġmakes": 2388,
      "Ġrepresents": 2389,
      "Ġmechan": 2390,
      "Ġcoll": 2391,
      "icial": 2392,
      "Ġreturn": 2393,
      "omet": 2394,
      "leep": 2395,
      "Ġaltern": 2396,
      "lies": 2397,
      "Ġinves": 2398,
      "Ġyet": 2399,
      "Ġdesc": 2400,
      "arc": 2401,
      "plement": 2402,
      "Ġworks": 2403,
      "Ġreview": 2404,
      "ibility": 2405,
      "Ġpopular": 2406,
      "Ġactive": 2407,
      "ulations": 2408,
      "Ġanimals": 2409,
      "Ġsize": 2410,
      "Ġeither": 2411,
      "alls": 2412,
      "19": 2413,
      "ĠAlways": 2414,
      "Ġgain": 2415,
      "heck": 2416,
      "Ġprovides": 2417,
      "Ġonto": 2418,
      "ĠPer": 2419,
      "Ġaspects": 2420,
      "}\\": 2421,
      "Ġtrade": 2422,
      "ceed": 2423,
      "Ġbuilding": 2424,
      "Ġrecent": 2425,
      "Ġrequired": 2426,
      "50": 2427,
      "Ġbase": 2428,
      "Ġbi": 2429,
      "Ġteam": 2430,
      "ĠOr": 2431,
      "Ġbro": 2432,
      "//": 2433,
      "orts": 2434,
      "aintain": 2435,
      "ift": 2436,
      "Ġsing": 2437,
      "Ġmess": 2438,
      "Ġintern": 2439,
      "urely": 2440,
      "Ġ200": 2441,
      "Ġdemand": 2442,
      "Ġensures": 2443,
      "ude": 2444,
      "Ġsomeone": 2445,
      "ĠCol": 2446,
      "Ġdaily": 2447,
      "Ġonce": 2448,
      "Ġparticip": 2449,
      "Ġemb": 2450,
      "reci": 2451,
      "Ġrecogn": 2452,
      "Ġsugg": 2453,
      "Ġbo": 2454,
      "elling": 2455,
      "^{": 2456,
      "ĠSim": 2457,
      "ced": 2458,
      "Ġevalu": 2459,
      "ĠRegular": 2460,
      "Ġentire": 2461,
      "Ġabs": 2462,
      "ĠLate": 2463,
      "ium": 2464,
      "Ġstructure": 2465,
      "ounter": 2466,
      "Ġdetermine": 2467,
      "gen": 2468,
      "acy": 2469,
      "Ġhours": 2470,
      "Ġhigher": 2471,
      "Ġchoose": 2472,
      "Ġmen": 2473,
      "Ġetc": 2474,
      "Ġdepending": 2475,
      "welcome": 2476,
      "Ġgame": 2477,
      "pping": 2478,
      "Ġplat": 2479,
      "Ġdry": 2480,
      "Ġrate": 2481,
      "Ġcorres": 2482,
      "Ġadvent": 2483,
      "Ġded": 2484,
      "Ġmix": 2485,
      "Ġutil": 2486,
      "Ġconstruc": 2487,
      "Ġcirc": 2488,
      "Ġgroups": 2489,
      "Ġprogress": 2490,
      "Ġrout": 2491,
      "Ġcomponents": 2492,
      "olving": 2493,
      "ites": 2494,
      "ression": 2495,
      "Ġcult": 2496,
      "Ġinvest": 2497,
      "Ġpain": 2498,
      "$,": 2499,
      "ery": 2500,
      "Ġaddition": 2501,
      "earch": 2502,
      "amp": 2503,
      "Ġcy": 2504,
      "Ġmom": 2505,
      "ĠLateX": 2506,
      "ann": 2507,
      "isms": 2508,
      "ming": 2509,
      "Ġexcess": 2510,
      "12": 2511,
      "ĠOpt": 2512,
      "ists": 2513,
      "medi": 2514,
      "atives": 2515,
      "Ġcarefully": 2516,
      "Ġtitle": 2517,
      "Ġselect": 2518,
      "ror": 2519,
      "An": 2520,
      "Ġstatis": 2521,
      "Ġreflect": 2522,
      "Ġpurch": 2523,
      "Do": 2524,
      "Ġmodel": 2525,
      "Ġfeed": 2526,
      "Ġadvanced": 2527,
      "Ġinterests": 2528,
      "Ġcosts": 2529,
      "Ġpaper": 2530,
      "Ġsurround": 2531,
      "iddle": 2532,
      "Ġnavig": 2533,
      "Ġrece": 2534,
      "ologies": 2535,
      "Ġidentify": 2536,
      "ource": 2537,
      "Ġdecision": 2538,
      "ĠOp": 2539,
      "Ġdiff": 2540,
      "Ch": 2541,
      "based": 2542,
      "Ġ12": 2543,
      "Ġstress": 2544,
      "angle": 2545,
      "Ġoriginal": 2546,
      "ĠInd": 2547,
      "Ġcommunity": 2548,
      "Ġwhy": 2549,
      "Ġarc": 2550,
      "epar": 2551,
      "ynam": 2552,
      "Ġpractices": 2553,
      "osen": 2554,
      "Ġinitial": 2555,
      "Ġeduc": 2556,
      "Ġfour": 2557,
      "Ġcut": 2558,
      "ising": 2559,
      "Ġwebs": 2560,
      "Ġconsistent": 2561,
      "Ġexciting": 2562,
      "oming": 2563,
      "atisf": 2564,
      "Ġapplication": 2565,
      "unit": 2566,
      "ĠOne": 2567,
      "Ġmeaning": 2568,
      "ĠRep": 2569,
      "itor": 2570,
      "Ġder": 2571,
      "ields": 2572,
      "Ġgovern": 2573,
      "Ġbecomes": 2574,
      "Ġintroduction": 2575,
      "Ġ18": 2576,
      "ograph": 2577,
      "oph": 2578,
      "osed": 2579,
      "Ġharm": 2580,
      "rame": 2581,
      "igure": 2582,
      "Ġmaxim": 2583,
      "ĠUsing": 2584,
      "Ġinside": 2585,
      "Ġsurface": 2586,
      "sp": 2587,
      "ĠMore": 2588,
      "uting": 2589,
      "Ġhard": 2590,
      "omen": 2591,
      "imal": 2592,
      "*:": 2593,
      "ĠBut": 2594,
      "ĠMe": 2595,
      "ounts": 2596,
      "ĠDes": 2597,
      "Ġenhance": 2598,
      "Ġcheck": 2599,
      "Ġpare": 2600,
      "Ġthorough": 2601,
      "Ġsources": 2602,
      "Ġyears": 2603,
      "Ġaction": 2604,
      "oon": 2605,
      "reen": 2606,
      "Ġincreasing": 2607,
      "Ġpressure": 2608,
      "ths": 2609,
      "aches": 2610,
      "aps": 2611,
      "dentify": 2612,
      "Ġempirical": 2613,
      "resh": 2614,
      "Ġguid": 2615,
      "iring": 2616,
      "oss": 2617,
      "Ġpred": 2618,
      "omp": 2619,
      "Ġscenarios": 2620,
      "eterm": 2621,
      "back": 2622,
      "Ġlow": 2623,
      "Ġlast": 2624,
      "Ġtransform": 2625,
      "ĠEqu": 2626,
      "erson": 2627,
      "Ġview": 2628,
      "Ġhuman": 2629,
      "ordin": 2630,
      "ĠFun": 2631,
      "pite": 2632,
      "Ġten": 2633,
      "Ġreduce": 2634,
      "Ġstarting": 2635,
      "Ġhal": 2636,
      "Ġfore": 2637,
      "ners": 2638,
      "itize": 2639,
      "Ġprofessionals": 2640,
      "Ġremains": 2641,
      "go": 2642,
      "Ġfindings": 2643,
      "Ġperfect": 2644,
      "lection": 2645,
      "18": 2646,
      "Ġdocum": 2647,
      "Ġradi": 2648,
      "Ġbound": 2649,
      "Ġadding": 2650,
      "Ġcells": 2651,
      "Ġcontact": 2652,
      "Ġbot": 2653,
      "asc": 2654,
      "ĠAlex": 2655,
      "iss": 2656,
      "Ġlinear": 2657,
      "ero": 2658,
      "Ġschol": 2659,
      "ĠAnd": 2660,
      "Ġvisual": 2661,
      "Ġconnections": 2662,
      "Ġinvolving": 2663,
      "Ġcloth": 2664,
      "Ġearly": 2665,
      "Ġ{": 2666,
      "Ġspe": 2667,
      "ee": 2668,
      "Ġshape": 2669,
      "Ġamount": 2670,
      "Ġeye": 2671,
      "Ġappreci": 2672,
      "egin": 2673,
      "Ġtasks": 2674,
      "cles": 2675,
      "Ġlower": 2676,
      "Ġdiverse": 2677,
      "Ġbond": 2678,
      "Ġpath": 2679,
      "sh": 2680,
      "ĠCreate": 2681,
      "Ġapplying": 2682,
      "ightly": 2683,
      "ĠOn": 2684,
      "Ġindust": 2685,
      "Ġfull": 2686,
      "Ġexpression": 2687,
      "Ġrelevant": 2688,
      "indow": 2689,
      "ĠMaintain": 2690,
      "Ġsepar": 2691,
      "Ġrates": 2692,
      "Ġpatience": 2693,
      "Ġground": 2694,
      "ĠFin": 2695,
      "Ġpoly": 2696,
      "Ġnature": 2697,
      "Ġsatisf": 2698,
      "Ġstay": 2699,
      "Ġwarm": 2700,
      "ĠAdd": 2701,
      "Ġmoney": 2702,
      "time": 2703,
      "------------": 2704,
      "Ġ$$": 2705,
      "Ġwa": 2706,
      "Ġconcerns": 2707,
      "Ġcommit": 2708,
      "Ġorganiz": 2709,
      "Ġstudy": 2710,
      "Ġhaving": 2711,
      "Ġsquare": 2712,
      "atory": 2713,
      "Ġsuccessful": 2714,
      "Ġways": 2715,
      "Ġprocesses": 2716,
      "urity": 2717,
      "Ġcontribute": 2718,
      "Why": 2719,
      "light": 2720,
      "ient": 2721,
      "Ġnut": 2722,
      "Ġfinal": 2723,
      "ounting": 2724,
      "ests": 2725,
      "pecial": 2726,
      "Ġavoiding": 2727,
      "Ġdynam": 2728,
      "Ġseem": 2729,
      "tt": 2730,
      "Ġsafety": 2731,
      "ching": 2732,
      "ĠPrep": 2733,
      "Ġturn": 2734,
      "atic": 2735,
      "oration": 2736,
      "Ġprice": 2737,
      "Ġconstant": 2738,
      "Ġsolution": 2739,
      "ug": 2740,
      "Ġfinding": 2741,
      "Ġrange": 2742,
      "Ad": 2743,
      "Ġspeed": 2744,
      "Ġformula": 2745,
      "forms": 2746,
      "Ġ>": 2747,
      "sistance": 2748,
      "Ġtaking": 2749,
      "ĠNew": 2750,
      "Ġmedia": 2751,
      "Ġrecomm": 2752,
      "Ġapplications": 2753,
      "Ġrules": 2754,
      "con": 2755,
      "Ġforms": 2756,
      "ĠThat": 2757,
      "ident": 2758,
      "Ġpreferences": 2759,
      "versity": 2760,
      "head": 2761,
      "Ġprinciples": 2762,
      "Ġsolutions": 2763,
      "Ġhealthy": 2764,
      "aste": 2765,
      "ĠWhat": 2766,
      "Ġfocusing": 2767,
      "Let": 2768,
      "Ġestablish": 2769,
      "Ġbasic": 2770,
      "Ġparts": 2771,
      "Ġfeelings": 2772,
      "Ġbey": 2773,
      "Ġbeyond": 2774,
      "Ġsingle": 2775,
      "Ġ.": 2776,
      "ape": 2777,
      "ĠOnce": 2778,
      "Ġinstruction": 2779,
      "Ġevidence": 2780,
      "astic": 2781,
      ")^": 2782,
      "Ġexpect": 2783,
      "izes": 2784,
      "Ġsun": 2785,
      "Ġsmooth": 2786,
      "Ġindic": 2787,
      "Ġphot": 2788,
      "Ġemerg": 2789,
      "When": 2790,
      "(\\": 2791,
      "ĠDevelop": 2792,
      "Ġmast": 2793,
      "Ġchosen": 2794,
      "ĠMan": 2795,
      ":*": 2796,
      "ele": 2797,
      "ched": 2798,
      "Ġwhole": 2799,
      "Ġsuper": 2800,
      "Ġsafe": 2801,
      "yth": 2802,
      "qq": 2803,
      "Ġchem": 2804,
      "ctional": 2805,
      "eness": 2806,
      "ably": 2807,
      "Ġge": 2808,
      "Ġjob": 2809,
      "Ġinvestig": 2810,
      "Ġhold": 2811,
      "arg": 2812,
      "Ġservices": 2813,
      "Ġoptimal": 2814,
      "ĠNow": 2815,
      "Ġtoys": 2816,
      "apt": 2817,
      "ta": 2818,
      "entific": 2819,
      "Ġtypically": 2820,
      "Ġgr": 2821,
      "pro": 2822,
      "nomial": 2823,
      "Ġorder": 2824,
      "ĠSystem": 2825,
      "Ġsmaller": 2826,
      "Ġlessons": 2827,
      "ĠAfter": 2828,
      "Ġregularly": 2829,
      "Ġmiddle": 2830,
      "Ġforce": 2831,
      "ewis": 2832,
      "yl": 2833,
      "Ġvide": 2834,
      "inking": 2835,
      "ĠMich": 2836,
      "Ġsettings": 2837,
      "ael": 2838,
      "Ġsleep": 2839,
      "Ġdecisions": 2840,
      "Ġdu": 2841,
      "rt": 2842,
      "Ġkind": 2843,
      "Â°": 2844,
      "ĠDec": 2845,
      "ĠRef": 2846,
      "agine": 2847,
      "ĠPar": 2848,
      "Ġassess": 2849,
      "Ġsound": 2850,
      "mis": 2851,
      "ĠMon": 2852,
      "Ġfit": 2853,
      "imen": 2854,
      "ĠLewis": 2855,
      "dually": 2856,
      "Ġcase": 2857,
      "Ġeasy": 2858,
      "ĠHapp": 2859,
      "Ġthink": 2860,
      "Ġface": 2861,
      "Ġdeg": 2862,
      "Ġhim": 2863,
      "Ġderiv": 2864,
      "Ġwalk": 2865,
      "Ġtakes": 2866,
      "Ġinput": 2867,
      "itation": 2868,
      "ene": 2869,
      "Ġreach": 2870,
      "Ġlarger": 2871,
      "ird": 2872,
      "Ġbreak": 2873,
      "Ġcateg": 2874,
      "Ġexploring": 2875,
      "care": 2876,
      "Ġdetails": 2877,
      "ĠMichael": 2878,
      "Ġobtain": 2879,
      "tise": 2880,
      "ĠSk": 2881,
      "Ġinterp": 2882,
      "alities": 2883,
      "ground": 2884,
      "Ġbelow": 2885,
      "Ġcul": 2886,
      "Ġarg": 2887,
      "Ġpat": 2888,
      "Ġshared": 2889,
      "Ġreve": 2890,
      "life": 2891,
      "Ġpurely": 2892,
      "Ġillustrate": 2893,
      "Ġresearc": 2894,
      "Ġfacilit": 2895,
      "hib": 2896,
      "Ġcause": 2897,
      "Ġtemperature": 2898,
      "ury": 2899,
      "rating": 2900,
      "Ġquanti": 2901,
      "pr": 2902,
      "more": 2903,
      "Ġinteractions": 2904,
      "Ġbenefits": 2905,
      "pecific": 2906,
      "Ġsubt": 2907,
      "Ġtheore": 2908,
      "rup": 2909,
      "know": 2910,
      "Ġcollege": 2911,
      "load": 2912,
      "mit": 2913,
      "Ġincreased": 2914,
      "Ġsay": 2915,
      "Ġbelie": 2916,
      "Ġtest": 2917,
      "Ġmanagement": 2918,
      "Ġheadlines": 2919,
      "oting": 2920,
      "aster": 2921,
      "Ġlater": 2922,
      "ole": 2923,
      "Ġupd": 2924,
      "ĠBu": 2925,
      "ike": 2926,
      "su": 2927,
      "Ġprovided": 2928,
      "qrt": 2929,
      "ĠAss": 2930,
      "Ġactivity": 2931,
      "Ġeverything": 2932,
      "Ġheat": 2933,
      "Ġrisk": 2934,
      "af": 2935,
      "Ġcoverage": 2936,
      "Ġresearchers": 2937,
      "Ġsearch": 2938,
      "Ġquickly": 2939,
      "Ġleast": 2940,
      "Ġdistin": 2941,
      "timately": 2942,
      "Ġlocation": 2943,
      "Ġevent": 2944,
      "Ġcomes": 2945,
      "Ġmoving": 2946,
      "Ġcomplexity": 2947,
      "imin": 2948,
      "Ġintended": 2949,
      "Ġgreat": 2950,
      "epend": 2951,
      "Ġsimpl": 2952,
      "ĠTra": 2953,
      "Ġmy": 2954,
      "Ġproperties": 2955,
      "gle": 2956,
      "Ġstate": 2957,
      "arily": 2958,
      "Ġsharing": 2959,
      "Ġstatistical": 2960,
      "Ġdamage": 2961,
      "Ġlimit": 2962,
      "fficient": 2963,
      "Ġframe": 2964,
      "Ġfundam": 2965,
      "Ġbrow": 2966,
      "ĠExper": 2967,
      "tial": 2968,
      "min": 2969,
      "Ġoil": 2970,
      ">>": 2971,
      "rel": 2972,
      "ict": 2973,
      "Ġexpertise": 2974,
      "bol": 2975,
      "Ġeasier": 2976,
      "Ġslow": 2977,
      "rive": 2978,
      "Ġfavor": 2979,
      "'ve": 2980,
      "For": 2981,
      "Ġscientific": 2982,
      "uter": 2983,
      "Ġsubst": 2984,
      "Ġsolid": 2985,
      "ulate": 2986,
      "hedule": 2987,
      "ighting": 2988,
      "Ġapproxim": 2989,
      "atively": 2990,
      "Ġintric": 2991,
      "Ġgreater": 2992,
      "Ġold": 2993,
      "Ġextra": 2994,
      "stablish": 2995,
      "ĠGu": 2996,
      "ĠIdentify": 2997,
      "Ġsituations": 2998,
      "Ġinn": 2999,
      "Ġopp": 3000,
      "ands": 3001,
      "Ġbar": 3002,
      "ouble": 3003,
      "Ġ`": 3004,
      "par": 3005,
      "Ġcolors": 3006,
      "porary": 3007,
      "Ġhab": 3008,
      "Ġ15": 3009,
      "ĠOver": 3010,
      "Ġarr": 3011,
      "Ġtrack": 3012,
      "ĠResearch": 3013,
      "Ġcool": 3014,
      "=\\": 3015,
      "ores": 3016,
      "Ġmanage": 3017,
      "Ġproceed": 3018,
      "Ġpieces": 3019,
      "rams": 3020,
      "Ġprefer": 3021,
      "auti": 3022,
      "iety": 3023,
      "ener": 3024,
      "Ġcompared": 3025,
      "Ġdistance": 3026,
      "ĠBl": 3027,
      "ients": 3028,
      "cent": 3029,
      "pped": 3030,
      "arr": 3031,
      "ought": 3032,
      "Ġcomfortable": 3033,
      "iding": 3034,
      "Ġsolve": 3035,
      "âĢĿ": 3036,
      "Ġdebates": 3037,
      "Ġund": 3038,
      "Ġtrue": 3039,
      "jects": 3040,
      "Ġhalf": 3041,
      "iles": 3042,
      "Ġmodels": 3043,
      "ĠFollow": 3044,
      "hor": 3045,
      "sts": 3046,
      "Ġweight": 3047,
      "Ġhyd": 3048,
      "alcul": 3049,
      "erv": 3050,
      "Ġans": 3051,
      "Ġdog": 3052,
      "Ġpair": 3053,
      "Ġability": 3054,
      "ĠGra": 3055,
      "ified": 3056,
      "))": 3057,
      "ĠLe": 3058,
      "ĠOut": 3059,
      "ival": 3060,
      "bo": 3061,
      "Im": 3062,
      "Ġdiffic": 3063,
      "udget": 3064,
      "Ġfractions": 3065,
      "Ġpast": 3066,
      "15": 3067,
      "Ġcop": 3068,
      "Ġattem": 3069,
      "Ġpriv": 3070,
      "Ġvariables": 3071,
      "Ġfactor": 3072,
      "Ġcareful": 3073,
      "Ġbox": 3074,
      "_{": 3075,
      "elves": 3076,
      "Ġhighly": 3077,
      "ĠExp": 3078,
      "ups": 3079,
      "Ġgently": 3080,
      "Ġable": 3081,
      "ĠOb": 3082,
      "forts": 3083,
      "Ġaccessible": 3084,
      "Ġaccordingly": 3085,
      "Ġstandard": 3086,
      "Ġpersist": 3087,
      "Ġword": 3088,
      "comes": 3089,
      "Ġproduction": 3090,
      "ends": 3091,
      "Ġdeeper": 3092,
      "not": 3093,
      "works": 3094,
      "orting": 3095,
      "Ġemotional": 3096,
      "izon": 3097,
      "Ġangle": 3098,
      "Ġage": 3099,
      "pose": 3100,
      "Ġbring": 3101,
      "Ġdefin": 3102,
      "Ġsurrounding": 3103,
      "met": 3104,
      "Ġfoundation": 3105,
      "Ġfive": 3106,
      "uine": 3107,
      "Ġmir": 3108,
      "Ġvary": 3109,
      "Ġfriendly": 3110,
      "iment": 3111,
      "iet": 3112,
      "Ġcra": 3113,
      "Ġcross": 3114,
      "like": 3115,
      "Ġbott": 3116,
      "Ġresponsi": 3117,
      "Ġbehind": 3118,
      "let": 3119,
      "ĠMoreover": 3120,
      "Ġcontinue": 3121,
      "Ġprimary": 3122,
      "Ġsequ": 3123,
      "Ġusers": 3124,
      "Ġask": 3125,
      "Ġoffers": 3126,
      "cep": 3127,
      "Ġgive": 3128,
      "Ġinvolved": 3129,
      "ĠUtil": 3130,
      "Ġactions": 3131,
      "Ġsituation": 3132,
      "Ġstructures": 3133,
      "Ġefforts": 3134,
      "Ġincorporating": 3135,
      "being": 3136,
      "Ġrequirements": 3137,
      "Ġhon": 3138,
      "Ġencouraging": 3139,
      "ĠMod": 3140,
      "ĠAnal": 3141,
      "Ġlove": 3142,
      "oogle": 3143,
      "Ġdivid": 3144,
      "ĠIs": 3145,
      ",\"": 3146,
      "Ġresulting": 3147,
      "osure": 3148,
      "roll": 3149,
      "Ġfru": 3150,
      "60": 3151,
      "inter": 3152,
      "Ġmass": 3153,
      "Ġexisting": 3154,
      "ĠCle": 3155,
      "Ġjournal": 3156,
      "struc": 3157,
      "pecially": 3158,
      "ĠRegularly": 3159,
      "encies": 3160,
      "ensi": 3161,
      "ĠGuideline": 3162,
      "ĠâĢľ": 3163,
      "phas": 3164,
      "Ġconfidence": 3165,
      "obal": 3166,
      "where": 3167,
      "Ġcompeti": 3168,
      "ĠSec": 3169,
      "ĠDon": 3170,
      "Ġconsum": 3171,
      "Ġincreases": 3172,
      "Ġsent": 3173,
      "erful": 3174,
      "Ġoutcomes": 3175,
      "Ġheight": 3176,
      "Ġcreatures": 3177,
      "ĠPol": 3178,
      "Ġimmedi": 3179,
      "step": 3180,
      "Ġdoing": 3181,
      "ĠOff": 3182,
      "ifying": 3183,
      "orn": 3184,
      "Ġserve": 3185,
      "Ġcat": 3186,
      "Ġnutri": 3187,
      "forward": 3188,
      "Ġlif": 3189,
      "Ġemotions": 3190,
      "ĠEach": 3191,
      "Ġdays": 3192,
      "Ġthoughts": 3193,
      "hel": 3194,
      "Ġnote": 3195,
      "raction": 3196,
      "Ġfundamental": 3197,
      "Ġexercise": 3198,
      "ĠUnderstanding": 3199,
      "Ġtax": 3200,
      "ugg": 3201,
      "Ġespecially": 3202,
      "Ġhol": 3203,
      "}$": 3204,
      "Ġcred": 3205,
      "then": 3206,
      "Ġappearance": 3207,
      "Ġdesigned": 3208,
      "Ġeyes": 3209,
      "Ġstraightforward": 3210,
      "racy": 3211,
      "Ġexact": 3212,
      "ĠDis": 3213,
      "Ġrelax": 3214,
      "Ġtur": 3215,
      "rations": 3216,
      "Ġmental": 3217,
      "Ġfeedback": 3218,
      "ĠFurther": 3219,
      "Ġconduc": 3220,
      "plications": 3221,
      "Ġred": 3222,
      "Ġexpand": 3223,
      "enses": 3224,
      "Ġcollabor": 3225,
      "Ġobjects": 3226,
      "So": 3227,
      "Ġmut": 3228,
      "Ġ($": 3229,
      "Ġmeasures": 3230,
      "Ġsumm": 3231,
      "Ġart": 3232,
      "math": 3233,
      "rated": 3234,
      "Ġfoot": 3235,
      "Ġenables": 3236,
      "Ġexten": 3237,
      "Ġtran": 3238,
      "After": 3239,
      "Ġslightly": 3240,
      "yles": 3241,
      "Ġlearners": 3242,
      "Ġtrading": 3243,
      "Ġadventure": 3244,
      "Ġwhenever": 3245,
      "left": 3246,
      "Ġfunctional": 3247,
      "Ġdeeply": 3248,
      "Ġprote": 3249,
      "://": 3250,
      "Ġroom": 3251,
      "Ġexamination": 3252,
      "Ġcaptiv": 3253,
      "Ġunderlying": 3254,
      "Ġbreath": 3255,
      "âĢĵ": 3256,
      "tively": 3257,
      "ww": 3258,
      "Ġ30": 3259,
      "iliarize": 3260,
      "olve": 3261,
      "Ġcontext": 3262,
      "ĠInstead": 3263,
      "Ġdistinct": 3264,
      "Ġtoday": 3265,
      "Ġimplement": 3266,
      "Ġimagin": 3267,
      "Ġsho": 3268,
      "arking": 3269,
      "fact": 3270,
      "part": 3271,
      "Ġlearned": 3272,
      "esting": 3273,
      "Ġuser": 3274,
      "ĠAmerican": 3275,
      "ternal": 3276,
      "ourage": 3277,
      "Ġestim": 3278,
      "sequently": 3279,
      "âĤ": 3280,
      "Ġeffects": 3281,
      "verage": 3282,
      "Ġcompany": 3283,
      "ishing": 3284,
      "</": 3285,
      "ĠPresent": 3286,
      "Using": 3287,
      "Ġzero": 3288,
      "jor": 3289,
      "iter": 3290,
      "Ġparticularly": 3291,
      "Ġpromote": 3292,
      "Ġtravel": 3293,
      "Ġcard": 3294,
      "ĠFind": 3295,
      "Ġweek": 3296,
      "Ġapproaches": 3297,
      "Ġplatforms": 3298,
      "Ġplaying": 3299,
      "oti": 3300,
      "Ġblood": 3301,
      "ubs": 3302,
      "Ġlittle": 3303,
      "tick": 3304,
      "abilities": 3305,
      "Ġgenuine": 3306,
      "Ġsnacks": 3307,
      "action": 3308,
      "Ġcalculate": 3309,
      "iny": 3310,
      "term": 3311,
      "ratic": 3312,
      "Ġremo": 3313,
      "ĠQu": 3314,
      "entially": 3315,
      "iber": 3316,
      "Ġgames": 3317,
      "Ġsuccessfully": 3318,
      "Ġdiscuss": 3319,
      "Ġpoli": 3320,
      "Ġgeneral": 3321,
      "illing": 3322,
      "ĠMulti": 3323,
      "Ġspark": 3324,
      "Ġexploration": 3325,
      "Ġtou": 3326,
      "Ġfeet": 3327,
      "Ġtable": 3328,
      "Ġeffort": 3329,
      "ops": 3330,
      "eat": 3331,
      "Ġfresh": 3332,
      "ĠZ": 3333,
      "bon": 3334,
      "Ġplac": 3335,
      "Ġtrig": 3336,
      "Ġnumerous": 3337,
      "Ġexpectations": 3338,
      "Ġsometimes": 3339,
      "Ġinnov": 3340,
      "Ġcand": 3341,
      "ĠThrough": 3342,
      "Ġminimize": 3343,
      "Ã©": 3344,
      "ponding": 3345,
      "Ġservice": 3346,
      "ĠFam": 3347,
      "Ġspecifically": 3348,
      "Ġelse": 3349,
      "Ġstudies": 3350,
      "Ġcart": 3351,
      "Ġconversations": 3352,
      "lier": 3353,
      "Ġdevice": 3354,
      "Ġul": 3355,
      "ĠUp": 3356,
      "Ġidenti": 3357,
      "Ġeconomics": 3358,
      "ĠInter": 3359,
      "Ġgather": 3360,
      "Ġreducing": 3361,
      "Ġdescrib": 3362,
      "omain": 3363,
      "Ġseries": 3364,
      "```": 3365,
      "Ġlab": 3366,
      "ĠHappy": 3367,
      "Ġinteractive": 3368,
      "Ġrule": 3369,
      "Ġplanning": 3370,
      "Ġliving": 3371,
      "ĠProper": 3372,
      "Ġbig": 3373,
      "Ġdisplay": 3374,
      "Ġdiscover": 3375,
      "Ġexperiments": 3376,
      "Ġdiag": 3377,
      "Ġtraining": 3378,
      "Ġvolume": 3379,
      "Ġhorizon": 3380,
      "Ġdr": 3381,
      "Ġfostering": 3382,
      "nts": 3383,
      "Ġrati": 3384,
      "ĠX": 3385,
      "Ġrespective": 3386,
      "Ġvir": 3387,
      "ticip": 3388,
      "Pro": 3389,
      "sqrt": 3390,
      "AAAAAAAA": 3391,
      "reg": 3392,
      "Ġtheories": 3393,
      "Ġpow": 3394,
      "Ġfar": 3395,
      "Ġcustomer": 3396,
      "plication": 3397,
      "hold": 3398,
      "Ġmotiv": 3399,
      "Ġdifference": 3400,
      "osp": 3401,
      "Ġhowever": 3402,
      "oll": 3403,
      "hood": 3404,
      "year": 3405,
      "Ġchoices": 3406,
      "Ġextract": 3407,
      "Ġdenomin": 3408,
      "Ġforward": 3409,
      "ĠEstablish": 3410,
      "ares": 3411,
      "anging": 3412,
      "Ġbroad": 3413,
      "Ġimportance": 3414,
      "Ġpropor": 3415,
      "pper": 3416,
      "Ġcode": 3417,
      "Ġoutput": 3418,
      "etermine": 3419,
      "Ġoutside": 3420,
      "Ġisn": 3421,
      "ynt": 3422,
      "outh": 3423,
      "ĠBen": 3424,
      "ĠShe": 3425,
      "ativity": 3426,
      "Ġaccurate": 3427,
      "Ġfel": 3428,
      "ĠTw": 3429,
      "Ġmoment": 3430,
      "ecessary": 3431,
      "ĠAnother": 3432,
      "htt": 3433,
      "Ġmatter": 3434,
      "Ġmicro": 3435,
      "igu": 3436,
      "hem": 3437,
      "Ġmach": 3438,
      "Ġready": 3439,
      "irl": 3440,
      "ees": 3441,
      "Ġboundaries": 3442,
      "Ġgovernment": 3443,
      "Ġskill": 3444,
      "ification": 3445,
      "Ġflex": 3446,
      "Ġaiming": 3447,
      "ocate": 3448,
      "Ġmirror": 3449,
      "Ġcorresponding": 3450,
      "ĠEnc": 3451,
      "Ġconven": 3452,
      "Ġelectr": 3453,
      "Ġreferences": 3454,
      "ĠTime": 3455,
      "Ġheav": 3456,
      "pos": 3457,
      "ĠStay": 3458,
      "Ġremove": 3459,
      "...": 3460,
      "Ġfew": 3461,
      "going": 3462,
      "istics": 3463,
      "ĠDisc": 3464,
      "ectives": 3465,
      "ĠSpecific": 3466,
      "Ġcleaning": 3467,
      "Ġdifficult": 3468,
      "Ġrelate": 3469,
      "Ġposs": 3470,
      "Ġadded": 3471,
      "Ġmusic": 3472,
      "Ġalternative": 3473,
      "Ġhands": 3474,
      "Ġpolynomial": 3475,
      "Ġir": 3476,
      "Ġmultiply": 3477,
      "Ġimagine": 3478,
      "ĠStart": 3479,
      "Section": 3480,
      "Ġseeking": 3481,
      "Ġphen": 3482,
      "Ġdevices": 3483,
      "ged": 3484,
      "ull": 3485,
      "Ġscr": 3486,
      "ĠSelect": 3487,
      "pectives": 3488,
      "Ġselecting": 3489,
      "ĠCommun": 3490,
      "Ġindepend": 3491,
      "ĠGoogle": 3492,
      "sy": 3493,
      "Ġapplies": 3494,
      "ah": 3495,
      "Ġexerc": 3496,
      "valu": 3497,
      "Ġball": 3498,
      "ris": 3499,
      "Ġyounger": 3500,
      "ĠMark": 3501,
      "Ġproperty": 3502,
      "Ġunc": 3503,
      "Ġbed": 3504,
      "uck": 3505,
      "ĠFurthermore": 3506,
      "Ġcontaining": 3507,
      "Ġsoftware": 3508,
      "amet": 3509,
      "Ġemphas": 3510,
      "ĠExpl": 3511,
      "ĠConf": 3512,
      "One": 3513,
      "Ġinvolve": 3514,
      "Ġmovement": 3515,
      "Ġestabl": 3516,
      "ille": 3517,
      "Ġemail": 3518,
      "ĠLear": 3519,
      "Ġstrengthen": 3520,
      "Ġangles": 3521,
      "eal": 3522,
      "Ġing": 3523,
      "alle": 3524,
      "infor": 3525,
      "Ġvariable": 3526,
      "Ġbrush": 3527,
      "Ġgoing": 3528,
      "raw": 3529,
      "Ġconflic": 3530,
      "Ġrev": 3531,
      "Ġclick": 3532,
      "Al": 3533,
      "gar": 3534,
      "ĠPri": 3535,
      "Ġadapt": 3536,
      "Ġincome": 3537,
      "Ġconnection": 3538,
      "Ġexhib": 3539,
      "ream": 3540,
      "Ġabilities": 3541,
      "Ġquad": 3542,
      "NA": 3543,
      "oor": 3544,
      "ened": 3545,
      "Ġvect": 3546,
      "ront": 3547,
      "Ġnavigate": 3548,
      "Ġmotion": 3549,
      "ultane": 3550,
      "Des": 3551,
      "Ġmethodologies": 3552,
      "ĠDef": 3553,
      "rain": 3554,
      "ĠCheck": 3555,
      "Ġintricate": 3556,
      "Ġcomputer": 3557,
      "Ġmoist": 3558,
      "man": 3559,
      "ĠPlan": 3560,
      "ĠNum": 3561,
      "Ġguidance": 3562,
      "Ġorganizations": 3563,
      "Ġfollows": 3564,
      "ĠTherefore": 3565,
      "Ġcook": 3566,
      "Ġprogram": 3567,
      "ender": 3568,
      "Ġpromoting": 3569,
      "erve": 3570,
      "emporary": 3571,
      "Ġforces": 3572,
      "Ġinformed": 3573,
      "Ġcolorful": 3574,
      "Ġpossess": 3575,
      "Ġadvant": 3576,
      "titude": 3577,
      "Ġshows": 3578,
      "cy": 3579,
      "ĠJam": 3580,
      "Ġdocument": 3581,
      "Ġhouse": 3582,
      "vent": 3583,
      "ĠAll": 3584,
      "Ġexcessive": 3585,
      "Ġbudget": 3586,
      "Ġkeeping": 3587,
      "Ġinequ": 3588,
      "Ġheart": 3589,
      "Ġplayers": 3590,
      "Ġdifferences": 3591,
      "Ġtrends": 3592,
      "oday": 3593,
      "Ġspecies": 3594,
      "Ġdecre": 3595,
      "rates": 3596,
      "athy": 3597,
      "ĠForm": 3598,
      "30": 3599,
      "Ġroot": 3600,
      "ufact": 3601,
      "Ġintro": 3602,
      "Ġremaining": 3603,
      "enge": 3604,
      "ĠThen": 3605,
      "Ġthereby": 3606,
      "Ġengagement": 3607,
      "Ġcenter": 3608,
      "Ġelectron": 3609,
      "Ġdise": 3610,
      "itive": 3611,
      "Ġeth": 3612,
      "umb": 3613,
      "yd": 3614,
      "tier": 3615,
      "Ġexperienc": 3616,
      "ĠSm": 3617,
      "Ġbutton": 3618,
      ");": 3619,
      "ipment": 3620,
      "ĠStr": 3621,
      "Ġsense": 3622,
      "iors": 3623,
      "Ġtechnology": 3624,
      "Ġpowerful": 3625,
      "xy": 3626,
      "Ġcoordin": 3627,
      "Ġpic": 3628,
      "ersonal": 3629,
      "ĠPay": 3630,
      "Ġcall": 3631,
      "Ġlabor": 3632,
      "eral": 3633,
      "Ġshad": 3634,
      "ĠExam": 3635,
      "wh": 3636,
      "Ġconclusion": 3637,
      "rit": 3638,
      "Ġplayful": 3639,
      "Ġcausing": 3640,
      "Ġdoesn": 3641,
      "Ġperspectives": 3642,
      "ĠEar": 3643,
      "ĠAppro": 3644,
      "Ġsigns": 3645,
      "ĠPrepare": 3646,
      "orical": 3647,
      "Ġrecip": 3648,
      "Ġalgebra": 3649,
      "Ġscreen": 3650,
      "ĠComprehensive": 3651,
      "ĠApply": 3652,
      "ĠEngage": 3653,
      "Ġgetting": 3654,
      "change": 3655,
      "Ġearlier": 3656,
      "Ġthoroughly": 3657,
      "hentic": 3658,
      "Ġbackground": 3659,
      "Ġtopics": 3660,
      "ĠAre": 3661,
      "aged": 3662,
      "Ġreli": 3663,
      "though": 3664,
      "Ġbottom": 3665,
      "argon": 3666,
      "Ġput": 3667,
      "Find": 3668,
      "Ġfair": 3669,
      "ĠSam": 3670,
      "place": 3671,
      "Ġreduces": 3672,
      "onent": 3673,
      "ocks": 3674,
      "There": 3675,
      "Ġmajor": 3676,
      "ĠÃ": 3677,
      "Ġsubs": 3678,
      "ĠExperiment": 3679,
      "Ġoperations": 3680,
      "ilarly": 3681,
      "mselves": 3682,
      "Ġplants": 3683,
      "Ġjargon": 3684,
      "Ġcore": 3685,
      "Ġthemselves": 3686,
      "inating": 3687,
      "Welcome": 3688,
      "Example": 3689,
      "ĠRel": 3690,
      "Ġcorner": 3691,
      "Ġtoward": 3692,
      "Ġapproachable": 3693,
      "Ġplays": 3694,
      "rum": 3695,
      "ĠLook": 3696,
      "Ġknowledgeable": 3697,
      "Ġprob": 3698,
      "Mz": 3699,
      "Ġprotect": 3700,
      "word": 3701,
      "Ġattemp": 3702,
      "Ġchemical": 3703,
      "Ġvital": 3704,
      "ĠPre": 3705,
      "abling": 3706,
      "tis": 3707,
      "amed": 3708,
      "Ġdrawing": 3709,
      "Ġroutine": 3710,
      "Ġexec": 3711,
      "Ġstates": 3712,
      "https": 3713,
      "Ġfirm": 3714,
      "Ġcircum": 3715,
      "Ġestablished": 3716,
      "Ġpublication": 3717,
      "25": 3718,
      "Ġobserv": 3719,
      "ĠFirst": 3720,
      "Ġprec": 3721,
      "Ġtask": 3722,
      "Ġobject": 3723,
      "Ġenable": 3724,
      "Ġproject": 3725,
      "Ġwide": 3726,
      "vi": 3727,
      "Ġshapes": 3728,
      "ĠSince": 3729,
      "Ġsolving": 3730,
      "11": 3731,
      "acts": 3732,
      "Ġbooks": 3733,
      "ils": 3734,
      "Ġprompt": 3735,
      "Ġble": 3736,
      "ĠSupp": 3737,
      "Ġwond": 3738,
      "ĠGuide": 3739,
      "Ġdomain": 3740,
      "land": 3741,
      "Ġcondition": 3742,
      "Ġparties": 3743,
      "Ġchanging": 3744,
      "Ġpas": 3745,
      "ales": 3746,
      "Ġregion": 3747,
      "Ġslope": 3748,
      "Ġwebsite": 3749,
      "Ġjournals": 3750,
      "iver": 3751,
      "indows": 3752,
      "Ġphenomen": 3753,
      "Ġprices": 3754,
      "Ġconversational": 3755,
      "ĠNeed": 3756,
      "Ġapproximately": 3757,
      "ressive": 3758,
      "Ġcounter": 3759,
      "aks": 3760,
      "Ġlive": 3761,
      "Instead": 3762,
      "bilities": 3763,
      "Ġdistribution": 3764,
      "Ġimage": 3765,
      "Ġweak": 3766,
      "Ġbur": 3767,
      "Ġ100": 3768,
      "ĠShare": 3769,
      "Ġlonger": 3770,
      "Ġrob": 3771,
      "aim": 3772,
      "Ġcompan": 3773,
      "Ġhighl": 3774,
      "Ġrect": 3775,
      "Ġsections": 3776,
      "Ġstore": 3777,
      "Try": 3778,
      "zz": 3779,
      "wise": 3780,
      "Ġadop": 3781,
      "Ġcartoon": 3782,
      "sych": 3783,
      "Ġaware": 3784,
      "Ġbuy": 3785,
      "Ġsets": 3786,
      ")\\": 3787,
      "Ġ\\*": 3788,
      "essions": 3789,
      "Ġsensi": 3790,
      "stain": 3791,
      "othes": 3792,
      "Ġcannot": 3793,
      "ractions": 3794,
      "Ġconcent": 3795,
      "gment": 3796,
      "Ġfoster": 3797,
      "Ph": 3798,
      "ĠToday": 3799,
      "Ġpolicy": 3800,
      "Ġcustomers": 3801,
      "udd": 3802,
      "40": 3803,
      "Ġscholarly": 3804,
      "ilt": 3805,
      "ithm": 3806,
      "Ġlooking": 3807,
      "Ġpolicies": 3808,
      "Ġmodern": 3809,
      "Ġusually": 3810,
      "Ġgeomet": 3811,
      "world": 3812,
      "Ġpack": 3813,
      "Ġimaginative": 3814,
      "Ġongoing": 3815,
      "================================": 3816,
      "Ġeducation": 3817,
      "Ġvalid": 3818,
      "Ġfully": 3819,
      "abric": 3820,
      "ensity": 3821,
      "Ġfavorite": 3822,
      "Ġ199": 3823,
      "ocial": 3824,
      "Ġsparking": 3825,
      "Ġmanufact": 3826,
      "____": 3827,
      "ultaneously": 3828,
      "redients": 3829,
      "Ġvers": 3830,
      "Ġrot": 3831,
      "Ġfile": 3832,
      "Ġ(-": 3833,
      "Ġreinfor": 3834,
      "Ġefficiency": 3835,
      "Ġexternal": 3836,
      "racting": 3837,
      "Ġcos": 3838,
      "Ġmechanisms": 3839,
      "inary": 3840,
      "bal": 3841,
      "Ġlocated": 3842,
      "ifts": 3843,
      "MzMz": 3844,
      "ĠAllow": 3845,
      "eting": 3846,
      "Ġtheory": 3847,
      "ĠNever": 3848,
      "Ġmor": 3849,
      "Ġcircle": 3850,
      "Ġwhite": 3851,
      "aration": 3852,
      "Ġpopulation": 3853,
      "Ġinj": 3854,
      "Ġinstall": 3855,
      "Ġultimately": 3856,
      "Ġdive": 3857,
      "Ġfraction": 3858,
      "Ġdivide": 3859,
      "nding": 3860,
      "Ġorganization": 3861,
      "ĠTell": 3862,
      "Ġdisco": 3863,
      "Ġpan": 3864,
      "Ġidea": 3865,
      "Ġcultural": 3866,
      "Ġthus": 3867,
      "Ġcheerful": 3868,
      "Ġdirection": 3869,
      "ĠNot": 3870,
      "aming": 3871,
      "Rem": 3872,
      "Ġresponsible": 3873,
      "Ġ<<": 3874,
      "ĠSub": 3875,
      "uracy": 3876,
      "Ġpracticing": 3877,
      "ĠPr": 3878,
      "mission": 3879,
      "Ġmagical": 3880,
      "Pl": 3881,
      "Ġbehaviors": 3882,
      "Ġglobal": 3883,
      "Ġsustain": 3884,
      "Ġliter": 3885,
      "ĠGet": 3886,
      "Ġentren": 3887,
      "ership": 3888,
      "use": 3889,
      "ĠSpecifically": 3890,
      "ony": 3891,
      "box": 3892,
      "Ġpotentially": 3893,
      "ags": 3894,
      "herent": 3895,
      "Ġinfluence": 3896,
      "App": 3897,
      "Ġparents": 3898,
      "ĠSeek": 3899,
      "Ġacqu": 3900,
      "Ġlistening": 3901,
      "ounds": 3902,
      "Ġentrenched": 3903,
      "Ġindustry": 3904,
      "uff": 3905,
      "ĠOur": 3906,
      "Ġcurve": 3907,
      "Ġcommunities": 3908,
      "ĠConsequently": 3909,
      "aut": 3910,
      "Ġenvironmental": 3911,
      "Ġsix": 3912,
      "Ġsymbol": 3913,
      "board": 3914,
      "Ġvideo": 3915,
      "Ġjud": 3916,
      "Ġpage": 3917,
      "rix": 3918,
      "Ġauthor": 3919,
      "Ġnuc": 3920,
      "Ġhot": 3921,
      "Ġcaptivates": 3922,
      "urance": 3923,
      "Ġreput": 3924,
      "Ġgives": 3925,
      "Ġtow": 3926,
      "align": 3927,
      "Ġplant": 3928,
      "Ġproduce": 3929,
      "Ġreceiv": 3930,
      "ĠVol": 3931,
      "](": 3932,
      "nswer": 3933,
      "Ġconversation": 3934,
      "ĠCo": 3935,
      "brace": 3936,
      "Ġdial": 3937,
      "Ġexercises": 3938,
      "Ġaccurately": 3939,
      "Ġann": 3940,
      "Ġrisks": 3941,
      "icious": 3942,
      "Ġreadership": 3943,
      "Ġgradually": 3944,
      "opic": 3945,
      "ĠCar": 3946,
      "Ġengine": 3947,
      "Ġconsistency": 3948,
      "olute": 3949,
      "Ġreactions": 3950,
      "making": 3951,
      "ĠUtilize": 3952,
      "Ġdemonstrate": 3953,
      "rm": 3954,
      "ormal": 3955,
      "Ġnever": 3956,
      "Ġtherap": 3957,
      "ĠAm": 3958,
      "Ġencourage": 3959,
      "Ġclothing": 3960,
      "rees": 3961,
      "Ġtheoretical": 3962,
      "allel": 3963,
      "Ġresponse": 3964,
      "ĠJust": 3965,
      "Ġdynamics": 3966,
      "Ġmuscle": 3967,
      "Ġbecoming": 3968,
      "Ġcou": 3969,
      "anges": 3970,
      "Ġgene": 3971,
      "Ġstring": 3972,
      "iversity": 3973,
      "Ġdigital": 3974,
      "Ġstage": 3975,
      "tivate": 3976,
      "ĠMicro": 3977,
      "Ġstability": 3978,
      "bit": 3979,
      "Ġquestion": 3980,
      "Ġspread": 3981,
      "Ġsecure": 3982,
      "Ġbusinesses": 3983,
      "Here": 3984,
      "ert": 3985,
      "ĠLine": 3986,
      "Ġchann": 3987,
      "reating": 3988,
      "ĠEncourage": 3989,
      "ĠTrans": 3990,
      "Ġsales": 3991,
      "14": 3992,
      "Ġprioritize": 3993,
      "ĠWorld": 3994,
      "ned": 3995,
      "Ġdimen": 3996,
      "Ġtechnique": 3997,
      "orage": 3998,
      ")(": 3999,
      "umption": 4000,
      "ĠTechn": 4001,
      "Ġstarted": 4002,
      "Ġstri": 4003,
      "Ġhealthcare": 4004,
      "Ġproced": 4005,
      "Ġsecurity": 4006,
      "Ġprop": 4007,
      "Ġconfirm": 4008,
      "Ġalg": 4009,
      "Ġstyles": 4010,
      "Ġfix": 4011,
      "Ġgas": 4012,
      "Ġax": 4013,
      "Ġabsor": 4014,
      "Cl": 4015,
      "ĠMed": 4016,
      "ĠOrgan": 4017,
      "tr": 4018,
      "II": 4019,
      "pid": 4020,
      "unch": 4021,
      "osite": 4022,
      "Ġfields": 4023,
      "pond": 4024,
      "bles": 4025,
      "Ġclos": 4026,
      "16": 4027,
      "Ġfrequently": 4028,
      "ised": 4029,
      "itten": 4030,
      "cd": 4031,
      "ĠTyp": 4032,
      "Ġla": 4033,
      "ĠHel": 4034,
      "Ġsessions": 4035,
      "Ġfollowed": 4036,
      "ĠNo": 4037,
      "Ġcapital": 4038,
      "First": 4039,
      "vity": 4040,
      "rors": 4041,
      "icon": 4042,
      "ĠProv": 4043,
      "Ġsave": 4044,
      "obb": 4045,
      "Ġoption": 4046,
      "Ġdat": 4047,
      "Ġaccuracy": 4048,
      "Ġconsistently": 4049,
      "Ġfilled": 4050,
      "netic": 4051,
      "Ġrational": 4052,
      "Ġsole": 4053,
      "17": 4054,
      "Ġnovel": 4055,
      "angles": 4056,
      "ĠÃĹ": 4057,
      "Ġacid": 4058,
      "ells": 4059,
      "Ġelectric": 4060,
      "Ġautom": 4061,
      "ellig": 4062,
      "Ġâ": 4063,
      "ĠPur": 4064,
      "Ġdelve": 4065,
      "Ġstrength": 4066,
      "Ġnamed": 4067,
      "Ġlesson": 4068,
      "alking": 4069,
      "Ġkne": 4070,
      "itch": 4071,
      "Ġaddressing": 4072,
      "abol": 4073,
      "Ġveget": 4074,
      "Ġreading": 4075,
      "Ġusage": 4076,
      "Ġidentity": 4077,
      "ĠAtt": 4078,
      "Ġrights": 4079,
      "book": 4080,
      "Ġdil": 4081,
      "bf": 4082,
      "ided": 4083,
      "Ġpet": 4084,
      "Ġacknow": 4085,
      "Ġhabits": 4086,
      "Ġdark": 4087,
      "Ġfing": 4088,
      ")=": 4089,
      "ĠPhys": 4090,
      "Ġcapac": 4091,
      "ĠDem": 4092,
      "ython": 4093,
      "ĠCur": 4094,
      "Ġrecommend": 4095,
      "Ġanti": 4096,
      "idden": 4097,
      "Ġmutual": 4098,
      "ĠFunctions": 4099,
      "Ġact": 4100,
      "tiveness": 4101,
      "Ġmanip": 4102,
      "ĠCommon": 4103,
      "ĠIntroduction": 4104,
      "fit": 4105,
      "ĠFrom": 4106,
      "Ġinterpret": 4107,
      "Col": 4108,
      "idth": 4109,
      "Ġchoosing": 4110,
      "Ġnotice": 4111,
      "Ġclim": 4112,
      "Ġtransport": 4113,
      "Ġrelative": 4114,
      "Ġdouble": 4115,
      "ĠLaw": 4116,
      "Ġdiscussions": 4117,
      "Ġconsequ": 4118,
      "active": 4119,
      "Ġbonds": 4120,
      "Ġrunning": 4121,
      "Ġenabling": 4122,
      "Ġdetail": 4123,
      "quality": 4124,
      "Ġhyp": 4125,
      "Ġreason": 4126,
      "Ġchallenge": 4127,
      "Ġsource": 4128,
      "cos": 4129,
      "Ġconsidering": 4130,
      "Ġdecimal": 4131,
      "Ġsentence": 4132,
      "Ġconsult": 4133,
      "Ġunn": 4134,
      "usion": 4135,
      "ĠSetting": 4136,
      "Ġvo": 4137,
      "uted": 4138,
      "Ġthinking": 4139,
      "lement": 4140,
      "Ġtend": 4141,
      "ĠComple": 4142,
      "titution": 4143,
      "Ġobjectives": 4144,
      "Ġroles": 4145,
      "onses": 4146,
      "Ġloss": 4147,
      "Ġchances": 4148,
      "Fin": 4149,
      "Ġconnect": 4150,
      "Ġpiece": 4151,
      "Ġgoods": 4152,
      "Ġanimal": 4153,
      "sin": 4154,
      "Ġstories": 4155,
      "icated": 4156,
      "ager": 4157,
      "Ġbacter": 4158,
      "Ġseek": 4159,
      "Ġcompletely": 4160,
      "Ġprograms": 4161,
      "Ġmaximum": 4162,
      "Ġfabric": 4163,
      "Ġfall": 4164,
      "istry": 4165,
      "ĠBas": 4166,
      "Ġ16": 4167,
      "hetic": 4168,
      "Ġnu": 4169,
      "ivide": 4170,
      "Ġculture": 4171,
      "ĠTake": 4172,
      "Ġmovements": 4173,
      "ĠTim": 4174,
      "ĠThus": 4175,
      "Ġimmediately": 4176,
      "otal": 4177,
      "imals": 4178,
      "Pr": 4179,
      "Ġexactly": 4180,
      "ĠList": 4181,
      "set": 4182,
      "Ġmeaningful": 4183,
      "Ġmedical": 4184,
      "Ġnetwork": 4185,
      "ĠEarth": 4186,
      "ĠâĪ": 4187,
      "ĠCan": 4188,
      "Ġloved": 4189,
      "Ġfasc": 4190,
      "Ġprojects": 4191,
      "cept": 4192,
      "Ġliqu": 4193,
      "rogen": 4194,
      "Ġparty": 4195,
      "tenance": 4196,
      "def": 4197,
      "Ġphone": 4198,
      "onomic": 4199,
      "Ġcredit": 4200,
      "ĠPrior": 4201,
      "Ġsupply": 4202,
      "Ġextensive": 4203,
      "ĠConsult": 4204,
      "Ġvertical": 4205,
      "plac": 4206,
      "Rec": 4207,
      "Ġimprovement": 4208,
      "Ġassistance": 4209,
      "Ġenhancing": 4210,
      "Ġsimultaneously": 4211,
      "Ġcoe": 4212,
      "Ġmindful": 4213,
      "roc": 4214,
      "Ġcases": 4215,
      "ube": 4216,
      "ĠAccess": 4217,
      "ĠStud": 4218,
      "ĠPlace": 4219,
      "ĠClean": 4220,
      "ibri": 4221,
      "ĠUS": 4222,
      "inations": 4223,
      "Ġcele": 4224,
      "oud": 4225,
      "atching": 4226,
      "lor": 4227,
      "Ġban": 4228,
      "eration": 4229,
      "Ġhonest": 4230,
      "Ġrigorous": 4231,
      "Ġmatters": 4232,
      "str": 4233,
      "Ġdate": 4234,
      "Ġrefers": 4235,
      "Ġbook": 4236,
      "Ġelement": 4237,
      "Ġaverage": 4238,
      "rene": 4239,
      "oint": 4240,
      "80": 4241,
      "Ġdeveloping": 4242,
      "Ġhost": 4243,
      "NT": 4244,
      "Ġpolitical": 4245,
      "ville": 4246,
      "ĠFact": 4247,
      "Ġdivision": 4248,
      "Ġresid": 4249,
      "Ġcollec": 4250,
      "ĠGo": 4251,
      "anted": 4252,
      "Ġtransfer": 4253,
      "Op": 4254,
      "Ġanswer": 4255,
      "ilibri": 4256,
      "Ġpor": 4257,
      "irt": 4258,
      "Ġauthentic": 4259,
      "lege": 4260,
      "ĠWar": 4261,
      "ications": 4262,
      "Ġrequiring": 4263,
      "Ġinches": 4264,
      "Ġdress": 4265,
      "Ġdespite": 4266,
      "Ġmil": 4267,
      "=\"": 4268,
      "eli": 4269,
      "ptoms": 4270,
      "Ġefficient": 4271,
      "Ġinherent": 4272,
      "mosp": 4273,
      "Ġpersonality": 4274,
      "Ġleads": 4275,
      "Ġwhereas": 4276,
      "Ġmanaging": 4277,
      "Ġleaving": 4278,
      "Ġequival": 4279,
      "Ġgreen": 4280,
      "Ġchec": 4281,
      "ĠInst": 4282,
      "ĠVal": 4283,
      "Ġdealing": 4284,
      "ĠSer": 4285,
      "Ġrapid": 4286,
      "ĠMo": 4287,
      "}$$": 4288,
      "Ġassign": 4289,
      "Ġopportunity": 4290,
      "Ġimplications": 4291,
      "Ġperiods": 4292,
      "Ġrestric": 4293,
      "Ġegg": 4294,
      "osition": 4295,
      "ĠGood": 4296,
      "Ġgar": 4297,
      "ĠÎ": 4298,
      "Ġasking": 4299,
      "Ġnight": 4300,
      "Get": 4301,
      "(-": 4302,
      "Ġdedication": 4303,
      "Ġactual": 4304,
      "Ġvel": 4305,
      "Ġbeauti": 4306,
      "Ġrobust": 4307,
      "Ġfosters": 4308,
      "Ġthird": 4309,
      "Ġcharacteristics": 4310,
      "Ġcapable": 4311,
      "Ġever": 4312,
      "engu": 4313,
      "Ġroots": 4314,
      "Ġcreativity": 4315,
      "Ġresponses": 4316,
      "ĠFamiliarize": 4317,
      "ĠMethod": 4318,
      "Ġlik": 4319,
      "Ġmessage": 4320,
      "gi": 4321,
      "Ġcontinuous": 4322,
      "Ġparticles": 4323,
      "Ġlegal": 4324,
      "Next": 4325,
      "Ġtree": 4326,
      "Ġsolely": 4327,
      "odies": 4328,
      "Ġexamine": 4329,
      "Ġmill": 4330,
      "Ġofficial": 4331,
      "Ġexposure": 4332,
      "Ġclosely": 4333,
      "Ġcarbon": 4334,
      "Ġconsequences": 4335,
      "Ġalgor": 4336,
      "eds": 4337,
      "Ġlayer": 4338,
      "Ġnor": 4339,
      "ifies": 4340,
      "Ġcommitment": 4341,
      "Ġbir": 4342,
      "ina": 4343,
      "Ġhelping": 4344,
      "Ġincludes": 4345,
      "Ġcaused": 4346,
      "Ġquantity": 4347,
      "With": 4348,
      "Ġweb": 4349,
      "Ġrepresenting": 4350,
      "Ġsil": 4351,
      "Ġswe": 4352,
      "Ġidentifying": 4353,
      "Â²": 4354,
      "And": 4355,
      "Ġtreatment": 4356,
      "sequent": 4357,
      "Ġequipment": 4358,
      "Ġbul": 4359,
      "Ġur": 4360,
      "Ġ14": 4361,
      "Ġuseful": 4362,
      "Ġcarry": 4363,
      "ords": 4364,
      ")$": 4365,
      "Sc": 4366,
      "Ġ11": 4367,
      "Ġicon": 4368,
      "Ġlaws": 4369,
      "list": 4370,
      "Ġ#": 4371,
      "ĠImagine": 4372,
      "Ġcentral": 4373,
      "fs": 4374,
      "Remember": 4375,
      "inks": 4376,
      "Ġfiles": 4377,
      "Ġdialog": 4378,
      "Ġaspect": 4379,
      "ĠBenny": 4380,
      "asure": 4381,
      "----------------------------": 4382,
      "ifications": 4383,
      "Ġedge": 4384,
      "Ġinternal": 4385,
      "exp": 4386,
      "Ġrefer": 4387,
      "lation": 4388,
      "Ġlies": 4389,
      "Ġhandling": 4390,
      "Ġsav": 4391,
      "Ġenhances": 4392,
      "Ġseason": 4393,
      "Ġ}": 4394,
      "Ġaffect": 4395,
      "cules": 4396,
      "Ġblack": 4397,
      "Ġgiving": 4398,
      "Ġingredients": 4399,
      "Ġdiss": 4400,
      "Ġachieving": 4401,
      "Ġanalyze": 4402,
      "face": 4403,
      ",\\": 4404,
      "Ġdifferen": 4405,
      "reneur": 4406,
      "ĠDuring": 4407,
      "Ġmarketing": 4408,
      "ĠAltern": 4409,
      "Ġarrang": 4410,
      "Ġperspective": 4411,
      "ĠPok": 4412,
      "Ġcamp": 4413,
      "Ġmenu": 4414,
      "Ġpatient": 4415,
      "Ġhidden": 4416,
      "Ġanx": 4417,
      "Ġserves": 4418,
      "Ġsurfaces": 4419,
      "ĠPart": 4420,
      "Ġdiet": 4421,
      "Ġstrategy": 4422,
      "Ġprotection": 4423,
      "quad": 4424,
      "Ġseparate": 4425,
      "Inter": 4426,
      "repreneur": 4427,
      "Ġempathy": 4428,
      "ĠĠĠĠĠĠĠĠĠĠĠ": 4429,
      "Ġtriangle": 4430,
      "vey": 4431,
      "hic": 4432,
      "Ġlimits": 4433,
      "Ġ17": 4434,
      "rable": 4435,
      "Ġargum": 4436,
      "âĢ¢": 4437,
      "att": 4438,
      "Ġwar": 4439,
      "Ġdedicated": 4440,
      "obbies": 4441,
      "way": 4442,
      "ĠHigh": 4443,
      "Ġexamining": 4444,
      "At": 4445,
      "Ġhistorical": 4446,
      "Ġpercent": 4447,
      "Ġexperiment": 4448,
      "Ġparallel": 4449,
      "Ġconsideration": 4450,
      "Ġsus": 4451,
      "ĠSocial": 4452,
      "Ġissue": 4453,
      "Ġnecessit": 4454,
      "Ġagre": 4455,
      "Ġpursu": 4456,
      "Ġreaction": 4457,
      "Ġcompati": 4458,
      "entle": 4459,
      "Ġlives": 4460,
      "inning": 4461,
      "Ġintegr": 4462,
      "Ġclearly": 4463,
      "Ġport": 4464,
      "ompl": 4465,
      "Ġstorage": 4466,
      "Ġefficiently": 4467,
      "Ġatmosp": 4468,
      "Ġoccurs": 4469,
      "Ġcreative": 4470,
      "Ġedges": 4471,
      "ilience": 4472,
      "Ġreveal": 4473,
      "ĠBre": 4474,
      "Ġprepared": 4475,
      "ensive": 4476,
      "ĠSchedule": 4477,
      "Ġbow": 4478,
      "Ġcooking": 4479,
      "Ġarch": 4480,
      "begin": 4481,
      "ĠDetermine": 4482,
      "Ġroll": 4483,
      "Ġpros": 4484,
      "Ġ50": 4485,
      "ulating": 4486,
      "ĠWork": 4487,
      "Final": 4488,
      "ont": 4489,
      "Ġdenominator": 4490,
      "Ġice": 4491,
      "Ġcorrespond": 4492,
      "Ġcontemporary": 4493,
      "stances": 4494,
      "sitions": 4495,
      "hand": 4496,
      "Ġmolec": 4497,
      "Ġdefined": 4498,
      "Ġideal": 4499,
      "Ġappreciation": 4500,
      "ĠChar": 4501,
      "Ġpattern": 4502,
      "Ġmole": 4503,
      "Ġmultiplication": 4504,
      "Ġwon": 4505,
      "Ġopin": 4506,
      "Ġvector": 4507,
      "Ġhorizontal": 4508,
      "Ġcollect": 4509,
      "ĠMonitor": 4510,
      "Ġcompleting": 4511,
      "Ġwebsites": 4512,
      "ĠTheir": 4513,
      "ler": 4514,
      "cing": 4515,
      "21": 4516,
      "Ġwash": 4517,
      "Ġcharge": 4518,
      "Ġfascinating": 4519,
      "odes": 4520,
      "ĠSimilarly": 4521,
      "Ġveloc": 4522,
      "Ġparent": 4523,
      "Ġblue": 4524,
      "Ġforming": 4525,
      "ether": 4526,
      "ĠInv": 4527,
      "onomet": 4528,
      "Ġsynt": 4529,
      "ĠEu": 4530,
      "Ġpreferred": 4531,
      "ĠOpen": 4532,
      "ilibrium": 4533,
      "Ġcategories": 4534,
      "ĠPerform": 4535,
      "Ġcontra": 4536,
      "Ġwood": 4537,
      "Ġbeautiful": 4538,
      "ĠAnswer": 4539,
      "ĠShow": 4540,
      "Ġwritten": 4541,
      "Ġeffect": 4542,
      "ĠSch": 4543,
      "ederal": 4544,
      "Ġlimited": 4545,
      "Me": 4546,
      "Ġround": 4547,
      "Ġsoon": 4548,
      "ĠVis": 4549,
      "Ġadequ": 4550,
      "room": 4551,
      "eks": 4552,
      "Ġabsolute": 4553,
      "Ġdegrees": 4554,
      "Ġstret": 4555,
      "Ġexperienced": 4556,
      "Ġcompar": 4557,
      "ĠAdjust": 4558,
      "asons": 4559,
      "Ġyields": 4560,
      "Ġrow": 4561,
      "Ġahead": 4562,
      "Ġdetermining": 4563,
      "Ġcountry": 4564,
      "Ġexchange": 4565,
      "Imagine": 4566,
      "ĠSur": 4567,
      "Ġlayers": 4568,
      "Ġdiscip": 4569,
      "ĠRecogn": 4570,
      "Ġoverw": 4571,
      "Ġmachine": 4572,
      "Ġsubsequent": 4573,
      "ork": 4574,
      "urer": 4575,
      "Ġcreates": 4576,
      "Ġunnecessary": 4577,
      "Ġfruits": 4578,
      "Ġconcerning": 4579,
      "ĠOther": 4580,
      "asion": 4581,
      "ohn": 4582,
      "Ġexpon": 4583,
      "Ġboo": 4584,
      "Ġprimarily": 4585,
      "Ġpartners": 4586,
      "Ġlikely": 4587,
      "Ġshaping": 4588,
      "Sh": 4589,
      "ĠEmp": 4590,
      "cdot": 4591,
      "Ġmov": 4592,
      "ðŁ": 4593,
      "Ġord": 4594,
      "elligence": 4595,
      "Ġsymptoms": 4596,
      "Ġratio": 4597,
      "qqqq": 4598,
      "Ġwellbeing": 4599,
      "ĠProf": 4600,
      "Ġsuggest": 4601,
      "venue": 4602,
      "iling": 4603,
      "ighb": 4604,
      "oles": 4605,
      "ĠConn": 4606,
      "Ġfail": 4607,
      "Ġpromotes": 4608,
      "Ġcircumstances": 4609,
      "ĠPrioritize": 4610,
      "Ġinvestment": 4611,
      "Ġcritically": 4612,
      "Ġrelaxation": 4613,
      "osis": 4614,
      "bing": 4615,
      "Ġagg": 4616,
      "Ġpurpose": 4617,
      "Ġapart": 4618,
      "ians": 4619,
      "Ġmonth": 4620,
      "enguin": 4621,
      "itiz": 4622,
      "co": 4623,
      "ndom": 4624,
      "Ġ25": 4625,
      "ĠAg": 4626,
      "Ġbuilt": 4627,
      "ertif": 4628,
      "}{\\": 4629,
      "ocal": 4630,
      "Ġatom": 4631,
      "Ġwear": 4632,
      "ĠLim": 4633,
      "dom": 4634,
      "Ġpurchasing": 4635,
      "Ġsequence": 4636,
      "Ġbalanced": 4637,
      "rial": 4638,
      "Ġflexibility": 4639,
      "Ġpresence": 4640,
      "Ġlink": 4641,
      "ĠTest": 4642,
      "ĠCalcul": 4643,
      ")/": 4644,
      "iven": 4645,
      "Ġgrowing": 4646,
      "Ġappreciate": 4647,
      "bly": 4648,
      "ĠFe": 4649,
      "ĠOffer": 4650,
      "stract": 4651,
      "avors": 4652,
      "ĠRead": 4653,
      "Ġimproved": 4654,
      "minist": 4655,
      "Ġaccompl": 4656,
      "Ġfocused": 4657,
      "Ġworth": 4658,
      "ĠCare": 4659,
      "Input": 4660,
      "exts": 4661,
      "ĠMat": 4662,
      "amm": 4663,
      "Ġenter": 4664,
      "Ġhobbies": 4665,
      "Ġbrand": 4666,
      "Ġwait": 4667,
      "ĠDep": 4668,
      "Ġvisit": 4669,
      "lick": 4670,
      "Ġdownload": 4671,
      "aff": 4672,
      "Ġfold": 4673,
      "Ġinters": 4674,
      "Ġresistance": 4675,
      "ains": 4676,
      "Ġresilience": 4677,
      "Ġexcell": 4678,
      "ĠEquations": 4679,
      "Ġcup": 4680,
      "Ġmist": 4681,
      "Ġmessages": 4682,
      "Ġprint": 4683,
      "eling": 4684,
      "Ġreduced": 4685,
      "ĠTwo": 4686,
      "Finally": 4687,
      "Ġscale": 4688,
      "Ġconfid": 4689,
      "rew": 4690,
      "Ġcream": 4691,
      "Ġleave": 4692,
      "tor": 4693,
      "Ġdividing": 4694,
      "Ġreflec": 4695,
      "Guidelines": 4696,
      "Ġspaces": 4697,
      "ĠLearn": 4698,
      "100": 4699,
      "Ġcutting": 4700,
      "ffective": 4701,
      "Ġanalyzing": 4702,
      "Ġvi": 4703,
      "Ġste": 4704,
      "Ġinfluenc": 4705,
      "Ġdescrip": 4706,
      "ticipate": 4707,
      "Ġfrequency": 4708,
      "elihood": 4709,
      "Ġfellow": 4710,
      "des": 4711,
      "urally": 4712,
      "clusive": 4713,
      "Ġsell": 4714,
      "astly": 4715,
      "Ġrespond": 4716,
      "Se": 4717,
      "iction": 4718,
      "Ġapplied": 4719,
      "Ġgenerate": 4720,
      "theta": 4721,
      "Ġstatus": 4722,
      "Ġpush": 4723,
      "Ġyield": 4724,
      "ĠFl": 4725,
      "Ġhar": 4726,
      "Ġneut": 4727,
      "ÏĢ": 4728,
      "Ġattempting": 4729,
      "Ġinitially": 4730,
      "Ġenvironments": 4731,
      "Ġlikelihood": 4732,
      "Ġorigin": 4733,
      "Ġpreviously": 4734,
      "Ġoverwhel": 4735,
      "Ġretur": 4736,
      "riting": 4737,
      "!\"": 4738,
      "ads": 4739,
      "Ġerrors": 4740,
      "Ġgentle": 4741,
      "ĠPlay": 4742,
      "az": 4743,
      "13": 4744,
      "Ġencounter": 4745,
      "Ġinteraction": 4746,
      "Ġfigure": 4747,
      "Ġfluid": 4748,
      "Ġstrategic": 4749,
      "down": 4750,
      "Ġpen": 4751,
      "Ġglass": 4752,
      "ung": 4753,
      "Ġjoin": 4754,
      "Ġfish": 4755,
      "29": 4756,
      "coh": 4757,
      "Ġfacilitate": 4758,
      "Ġinterven": 4759,
      "Ġscholars": 4760,
      "Ġprevents": 4761,
      "Ġoutl": 4762,
      "Ġfur": 4763,
      "Ġteac": 4764,
      "Ġmarkets": 4765,
      "rief": 4766,
      "Ġmyst": 4767,
      "Ġmolecules": 4768,
      "Ġtiss": 4769,
      "Ġdest": 4770,
      "cohol": 4771,
      "Ġstatement": 4772,
      "Ġupper": 4773,
      "Ġvac": 4774,
      "icit": 4775,
      "ĠBal": 4776,
      "Ġchoice": 4777,
      "Ġcountries": 4778,
      "ĠNon": 4779,
      "pre": 4780,
      "Ġrecommended": 4781,
      "Ġaccept": 4782,
      "ĠEc": 4783,
      "Ġarise": 4784,
      "Ġformation": 4785,
      "Ġconstra": 4786,
      "ithms": 4787,
      "estyle": 4788,
      "ĠStrateg": 4789,
      "Ġnormal": 4790,
      "Ġunw": 4791,
      "optional": 4792,
      "Ġstrengths": 4793,
      "ĠInc": 4794,
      "Ġcommunicate": 4795,
      "Ġsociety": 4796,
      "rope": 4797,
      "Ġcam": 4798,
      "Ġcity": 4799,
      "augh": 4800,
      "Ġliquid": 4801,
      "Ġplans": 4802,
      "ucid": 4803,
      "rag": 4804,
      "Ġscience": 4805,
      "ogether": 4806,
      "Ġinsp": 4807,
      "Ġfoods": 4808,
      "Ġaimed": 4809,
      "Ġneighb": 4810,
      "200": 4811,
      "izz": 4812,
      "Ġreference": 4813,
      "Ġfaced": 4814,
      "raft": 4815,
      "Ġflat": 4816,
      "Ġmuscles": 4817,
      "Ġproperly": 4818,
      "Ġfeeling": 4819,
      "Ġvarying": 4820,
      "Ġvehic": 4821,
      "ocol": 4822,
      "Ġcontinued": 4823,
      "rant": 4824,
      "Ġevaluate": 4825,
      "ER": 4826,
      "Ġtwice": 4827,
      "ĠCap": 4828,
      "Ġmoisture": 4829,
      "Ġpu": 4830,
      "ĠApplic": 4831,
      "Ġfeature": 4832,
      "ĠReview": 4833,
      "Ġreceive": 4834,
      "Ġstim": 4835,
      "Ġconsumption": 4836,
      "Understand": 4837,
      "arp": 4838,
      "Ġliterature": 4839,
      "ĠVer": 4840,
      "Ġelimin": 4841,
      "dy": 4842,
      "Ġstrugg": 4843,
      "eck": 4844,
      "ĠIde": 4845,
      "akers": 4846,
      "Ġequivalent": 4847,
      "Ġtap": 4848,
      ".'": 4849,
      "Ġleaves": 4850,
      "Ġrich": 4851,
      "Ġenth": 4852,
      "Ġmaintenance": 4853,
      "ĠTe": 4854,
      "ĠDif": 4855,
      "ipped": 4856,
      "Ġspending": 4857,
      "nesses": 4858,
      "Ġstronger": 4859,
      "Principles": 4860,
      "Ġequals": 4861,
      "ognitive": 4862,
      "Ac": 4863,
      ".)": 4864,
      "Ġmeals": 4865,
      "Ġmakeup": 4866,
      "Ġchannels": 4867,
      "Ġdecided": 4868,
      "Ġinstitu": 4869,
      "Ġfear": 4870,
      "asts": 4871,
      "soft": 4872,
      "friend": 4873,
      "aby": 4874,
      "Ġworry": 4875,
      "ĠEvalu": 4876,
      "icking": 4877,
      "rick": 4878,
      "cer": 4879,
      "ĠContin": 4880,
      "Ġselection": 4881,
      "off": 4882,
      "Ġclaim": 4883,
      "oop": 4884,
      "aken": 4885,
      "Ġquadratic": 4886,
      "Ġsummary": 4887,
      "Ġdefinition": 4888,
      "While": 4889,
      "Ġinvestigation": 4890,
      "roup": 4891,
      "Ġencourages": 4892,
      "ivil": 4893,
      "Ġep": 4894,
      "Ġrelig": 4895,
      "Ġstick": 4896,
      "Ġboard": 4897,
      "erc": 4898,
      "Ġarray": 4899,
      "rack": 4900,
      "Ġdele": 4901,
      "ford": 4902,
      "aterials": 4903,
      "ript": 4904,
      "Ġcalm": 4905,
      "Ġtown": 4906,
      "Ġfig": 4907,
      "Ġ60": 4908,
      "Ġshowc": 4909,
      "ĠTopic": 4910,
      "ĠExamples": 4911,
      "Ġalongside": 4912,
      "ĠDesign": 4913,
      "Ġproceeding": 4914,
      "Ġschedule": 4915,
      "Ġhappens": 4916,
      "Ġ13": 4917,
      "Ġprepare": 4918,
      "ums": 4919,
      "-\\": 4920,
      "aid": 4921,
      "Ġ\\(": 4922,
      "xygen": 4923,
      "Ġfaster": 4924,
      "ĠLess": 4925,
      "mar": 4926,
      "axis": 4927,
      "Ġaf": 4928,
      "Ġregions": 4929,
      "ĠHealth": 4930,
      "Ġelucid": 4931,
      "Ġrelease": 4932,
      "ĠAnalysis": 4933,
      "Ġgenerally": 4934,
      "Ġimproving": 4935,
      "oli": 4936,
      "Ġmid": 4937,
      "Ġlandsc": 4938,
      "Ġrandom": 4939,
      "Ġadjustments": 4940,
      "Ġcontributes": 4941,
      "Ġquantities": 4942,
      "Ġexpan": 4943,
      "Ġmanufacturer": 4944,
      "umes": 4945,
      "Ġreson": 4946,
      "Ġmonths": 4947,
      "ĠPython": 4948,
      "name": 4949,
      "ĠBegin": 4950,
      "Ġcorrectly": 4951,
      "Ġstatements": 4952,
      "inder": 4953,
      "rehension": 4954,
      "Ġexpenses": 4955,
      "iology": 4956,
      "ĠPersonal": 4957,
      "Ġdead": 4958,
      "Ġsugar": 4959,
      "Ġtraits": 4960,
      "Ġpenc": 4961,
      "Ġdocuments": 4962,
      "Ġproteins": 4963,
      "ployment": 4964,
      "ĠFinally": 4965,
      "actions": 4966,
      "Ġaccum": 4967,
      "order": 4968,
      "ĠRed": 4969,
      "--------------------": 4970,
      "ĠEv": 4971,
      "Ġcontributing": 4972,
      "ancy": 4973,
      "lim": 4974,
      "Ġhandle": 4975,
      "Ġindicate": 4976,
      "Ġadvanc": 4977,
      "Ġmoves": 4978,
      "Ġstandards": 4979,
      "ingly": 4980,
      "Ġcalculations": 4981,
      "ĠMac": 4982,
      "Ġtouch": 4983,
      "urt": 4984,
      "ĠLife": 4985,
      "Ġcontains": 4986,
      "Ġrecords": 4987,
      "ĠInteg": 4988,
      "ĠVolume": 4989,
      "Ġuns": 4990,
      "Sk": 4991,
      "Ġproductivity": 4992,
      "ias": 4993,
      "Ġspir": 4994,
      "Ġslowly": 4995,
      "Ġdiving": 4996,
      "Ġcomprom": 4997,
      "Cons": 4998,
      "Ġregulations": 4999,
      "Ġalgebraic": 5000,
      "Ġphenomena": 5001,
      "ĠAlso": 5002,
      "Ġcloser": 5003,
      "Ġitem": 5004,
      "Ġprincip": 5005,
      "ogen": 5006,
      "Ġpsych": 5007,
      "Ġreward": 5008,
      "Ġ24": 5009,
      "Ġresource": 5010,
      "}^{": 5011,
      "Ġsatisfaction": 5012,
      "Ġmastering": 5013,
      "Ġtab": 5014,
      "ball": 5015,
      "Em": 5016,
      "Ġfast": 5017,
      "Ġcompanies": 5018,
      "Ġexcellent": 5019,
      "Ġplatform": 5020,
      "cel": 5021,
      "ĠEd": 5022,
      "Ġconnecting": 5023,
      "Ġacknowled": 5024,
      "Ġinner": 5025,
      "Ġpartner": 5026,
      "Ġanxiety": 5027,
      "Ġlocations": 5028,
      "Ġuni": 5029,
      "Ġelectrons": 5030,
      "Ġmatch": 5031,
      "irms": 5032,
      "Ġconnected": 5033,
      "Ġtransition": 5034,
      "Ġtack": 5035,
      "Ġattend": 5036,
      "Ġvs": 5037,
      "Ġtang": 5038,
      "vals": 5039,
      "Ġsizes": 5040,
      "Ġquan": 5041,
      "ĠEurope": 5042,
      "Ġvelocity": 5043,
      "Ġvib": 5044,
      "Ġphysics": 5045,
      "Ġsched": 5046,
      "Ġcauses": 5047,
      "Ġreaching": 5048,
      "Bu": 5049,
      "ĠGe": 5050,
      "ams": 5051,
      "Ġwaves": 5052,
      "uses": 5053,
      "Ġnetworks": 5054,
      "Ġsoap": 5055,
      "Ġattrib": 5056,
      "Ġuses": 5057,
      "Ġaccel": 5058,
      "Re": 5059,
      "Ġsample": 5060,
      "Ġappears": 5061,
      "Ġmac": 5062,
      "Ġdimensions": 5063,
      "inomial": 5064,
      "Ġpositions": 5065,
      "Ġexponential": 5066,
      "Ġgirl": 5067,
      "Com": 5068,
      "ĠLike": 5069,
      "azing": 5070,
      "Ġdepend": 5071,
      "ĠBefore": 5072,
      "rim": 5073,
      "Ġadequate": 5074,
      "Ġsubstanti": 5075,
      "Ġnewly": 5076,
      "Ġpurchase": 5077,
      "Ġevenly": 5078,
      "Ġbreathing": 5079,
      "Ġcapabilities": 5080,
      "Ġgoes": 5081,
      "eter": 5082,
      "tually": 5083,
      "Ġweather": 5084,
      "vis": 5085,
      "ysi": 5086,
      "ocation": 5087,
      "Ġblock": 5088,
      "ĠGather": 5089,
      "Ġcompl": 5090,
      "Ġoverl": 5091,
      "Ġthick": 5092,
      "Ġhappiness": 5093,
      "Ġintroduce": 5094,
      "Ġcompetition": 5095,
      "ĠSqu": 5096,
      "Ġwise": 5097,
      "ĠFriend": 5098,
      "ĠStruc": 5099,
      "Ġheavy": 5100,
      "Ġcomprehension": 5101,
      "Ġimm": 5102,
      "lig": 5103,
      "Ġgoverning": 5104,
      "Ġaren": 5105,
      "icy": 5106,
      "Ġprobability": 5107,
      "brate": 5108,
      "Ġbenefit": 5109,
      "Ġunders": 5110,
      "Ġdemonstrates": 5111,
      "Ġsensitive": 5112,
      "Ġcolum": 5113,
      "ĠSammy": 5114,
      "Ġapps": 5115,
      "75": 5116,
      "Ġperforming": 5117,
      "ĠProg": 5118,
      "------------------------------------": 5119,
      "Ġdone": 5120,
      "Ġled": 5121,
      "formation": 5122,
      "ĠPe": 5123,
      "Ġcards": 5124,
      "ĠPower": 5125,
      "Ġgard": 5126,
      "Ġspot": 5127,
      "overy": 5128,
      "Ġ\\\\": 5129,
      "Ġaccounting": 5130,
      "Ġdelicious": 5131,
      "itions": 5132,
      "Ġmeasurements": 5133,
      "arant": 5134,
      "Ġopposite": 5135,
      "Ġbatter": 5136,
      "ĠSkills": 5137,
      "Ġcareer": 5138,
      "Ġincreasingly": 5139,
      "check": 5140,
      "reme": 5141,
      "Ġversion": 5142,
      "ĠCost": 5143,
      "Ġgets": 5144,
      "Ġcapacity": 5145,
      "45": 5146,
      "Ġinsight": 5147,
      "Ġlimitations": 5148,
      "Ġsufficient": 5149,
      "Ġkn": 5150,
      "Ġment": 5151,
      "onge": 5152,
      "Ġtemperatures": 5153,
      "Ġ40": 5154,
      "Ġspeaking": 5155,
      "Ġdecor": 5156,
      "Ġenjoyable": 5157,
      "Ġdisease": 5158,
      "Ġfront": 5159,
      "Ġactively": 5160,
      "Context": 5161,
      "ĠFace": 5162,
      "Ġbrain": 5163,
      "Ġwindow": 5164,
      "Ġdecimals": 5165,
      "iteria": 5166,
      "Ġcash": 5167,
      "Ġsignificance": 5168,
      "Ġlegs": 5169,
      "ls": 5170,
      "Ġatoms": 5171,
      "vere": 5172,
      "ĠHist": 5173,
      "Ġsens": 5174,
      "yses": 5175,
      "Ġwanted": 5176,
      "Ġthreat": 5177,
      "Ġcycle": 5178,
      "ophistic": 5179,
      "Ġevaluating": 5180,
      "It": 5181,
      "ĠExplanation": 5182,
      "ĠNote": 5183,
      "Ġatmosphere": 5184,
      "outs": 5185,
      "Ġenthus": 5186,
      "ades": 5187,
      "ato": 5188,
      "ĠAlthough": 5189,
      "Ġtiny": 5190,
      "------------------------": 5191,
      "www": 5192,
      "Ġaccounts": 5193,
      "Ġamb": 5194,
      "Ġnucle": 5195,
      "Ġadhere": 5196,
      "Ġaccessories": 5197,
      "Ġdegree": 5198,
      "onomics": 5199,
      "Ġunf": 5200,
      "Ġaccomplish": 5201,
      "ae": 5202,
      "uly": 5203,
      "Ġrecommendations": 5204,
      "Who": 5205,
      "Ġsophistic": 5206,
      "Ġconstit": 5207,
      "Ġmemory": 5208,
      "crib": 5209,
      "ĠMin": 5210,
      "mathbf": 5211,
      "ĠPress": 5212,
      "Ġconsid": 5213,
      "ĠProvide": 5214,
      "Ġinternational": 5215,
      "Ġstudent": 5216,
      "otic": 5217,
      "Ġbroader": 5218,
      "poses": 5219,
      "ommod": 5220,
      "ĠDi": 5221,
      "Ġrecognizing": 5222,
      "Ġequilibrium": 5223,
      "ĠImplement": 5224,
      "Ġends": 5225,
      "Ġpossi": 5226,
      "Ġdesigns": 5227,
      "Ġwidth": 5228,
      "Ġconvert": 5229,
      "ĠGener": 5230,
      "Ġcollaboration": 5231,
      "Ġconfident": 5232,
      "ĠPokÃ©": 5233,
      "Ġselected": 5234,
      "racing": 5235,
      "ows": 5236,
      "utive": 5237,
      "Ġmedium": 5238,
      "Ġtransl": 5239,
      "ashion": 5240,
      "Ġcurious": 5241,
      "ĠAlternatively": 5242,
      "Ġmaximize": 5243,
      "ĠFr": 5244,
      "Ġamounts": 5245,
      "Ġcharacterized": 5246,
      "Ġpredic": 5247,
      "ticul": 5248,
      "ĠIns": 5249,
      "Ġinvent": 5250,
      "Ġnaturally": 5251,
      "Ġanything": 5252,
      "ison": 5253,
      "En": 5254,
      "ĠAb": 5255,
      "ĠProduc": 5256,
      "Ġsupporting": 5257,
      "assion": 5258,
      "Ġprivate": 5259,
      "Ġevolution": 5260,
      "Ġdynamic": 5261,
      "ĠAnaly": 5262,
      "Ġshoes": 5263,
      "Ġbank": 5264,
      "Ġinterval": 5265,
      "Ii": 5266,
      "Ġdiscussion": 5267,
      "Ġmoments": 5268,
      "Ġwish": 5269,
      "ster": 5270,
      "Ġphotos": 5271,
      "ĠWell": 5272,
      "ĠDist": 5273,
      "He": 5274,
      "pare": 5275,
      "ded": 5276,
      "atically": 5277,
      "ĠSl": 5278,
      "Ġhappy": 5279,
      "ults": 5280,
      "ĠMus": 5281,
      "tes": 5282,
      "Ġesc": 5283,
      "erge": 5284,
      "Ġdefine": 5285,
      "Ġpowers": 5286,
      "Ġcompare": 5287,
      "Ġinstrum": 5288,
      "ĠStand": 5289,
      "Ġwarr": 5290,
      "Cont": 5291,
      "AAAAAAAAAAAAAAAA": 5292,
      "Ġtables": 5293,
      "Ġprofile": 5294,
      "Ġfu": 5295,
      "Ġmeeting": 5296,
      "But": 5297,
      "auty": 5298,
      "Ġderivative": 5299,
      "ĠGreat": 5300,
      "Ġmas": 5301,
      "Ġappropriately": 5302,
      "Ġaest": 5303,
      "Ġpeace": 5304,
      "Understanding": 5305,
      "ĠCent": 5306,
      "Ġrepresentation": 5307,
      "'(": 5308,
      "Ġdrop": 5309,
      "Ġimmun": 5310,
      ".*": 5311,
      "Ġforget": 5312,
      "Ġ$(": 5313,
      "umin": 5314,
      "Ġexhibit": 5315,
      "ingu": 5316,
      "pe": 5317,
      "Ġcomplement": 5318,
      "ilos": 5319,
      "Ġdiagn": 5320,
      "Ġtaste": 5321,
      "Ġdiscussing": 5322,
      "ĠRight": 5323,
      "Ġoxygen": 5324,
      "22": 5325,
      "Ġprocedures": 5326,
      "Ġwaste": 5327,
      "onic": 5328,
      "ĠLog": 5329,
      "Ġdrive": 5330,
      "Ġtexture": 5331,
      "Ġanyone": 5332,
      "Ġopt": 5333,
      "Ġmultiplying": 5334,
      "Ġdenotes": 5335,
      "Ġparamet": 5336,
      "Ġpromptly": 5337,
      "Ġweeks": 5338,
      "Ġslic": 5339,
      "Ġfulf": 5340,
      "ĠBoth": 5341,
      "Ġsem": 5342,
      "tural": 5343,
      "Ġphase": 5344,
      "Ġanalyses": 5345,
      "Ġregardless": 5346,
      "Ġintelligence": 5347,
      "Ġpairs": 5348,
      "Ġsand": 5349,
      "Ġbecame": 5350,
      "Ġbelong": 5351,
      "Ġshowing": 5352,
      "Ġrealm": 5353,
      "point": 5354,
      "Ġsymmet": 5355,
      "Ġvegetables": 5356,
      "Ġdiscovered": 5357,
      "ĠWater": 5358,
      "Ġalcohol": 5359,
      "Ġemploying": 5360,
      "+\\": 5361,
      "Ġholding": 5362,
      "employment": 5363,
      "Ġcomponent": 5364,
      "Ġclasses": 5365,
      "Ġrecognize": 5366,
      "Ġvariations": 5367,
      "Ġlifestyle": 5368,
      "asting": 5369,
      "Ġobserve": 5370,
      "Ġincorporate": 5371,
      "Ġapplicable": 5372,
      "ĠSw": 5373,
      "Ġcandid": 5374,
      "Ġpreser": 5375,
      "ĠAut": 5376,
      "Ġreputable": 5377,
      "Ġimplementing": 5378,
      "Ġou": 5379,
      "Ġisol": 5380,
      "Ġintr": 5381,
      "Ġinequality": 5382,
      "Ġfunctionality": 5383,
      "AT": 5384,
      "Ġtension": 5385,
      "Ġwall": 5386,
      "Ġadvantage": 5387,
      "Ġtherm": 5388,
      "Ġprivacy": 5389,
      "Ġformal": 5390,
      "Ġperp": 5391,
      "ĠBusiness": 5392,
      "Ġrequest": 5393,
      "ĠGl": 5394,
      "ĠSol": 5395,
      "ĠRequ": 5396,
      "ĠProt": 5397,
      "Ġcombined": 5398,
      "Ġalle": 5399,
      "Ġvideos": 5400,
      "Ġcertif": 5401,
      "Ġappe": 5402,
      "Ġconsidered": 5403,
      "Ġplane": 5404,
      "Ġsports": 5405,
      "Ġrecord": 5406,
      "ĠBuild": 5407,
      "College": 5408,
      "Ġrealistic": 5409,
      "\\_{": 5410,
      "arithm": 5411,
      "On": 5412,
      "ography": 5413,
      "Ġwhose": 5414,
      "Ġorganized": 5415,
      "Ar": 5416,
      "Ġpick": 5417,
      "Ġfigures": 5418,
      "ĠReal": 5419,
      "Ġthin": 5420,
      "Ġsex": 5421,
      "AR": 5422,
      "ĠAmerica": 5423,
      "?\"": 5424,
      "Ġlemon": 5425,
      "Ġidentified": 5426,
      "Ġdialogue": 5427,
      "Ġselling": 5428,
      "Comp": 5429,
      "OS": 5430,
      "39": 5431,
      "Ġconstraints": 5432,
      "ĠMultiply": 5433,
      "Ġmotivation": 5434,
      "elta": 5435,
      "appro": 5436,
      "Ġdecide": 5437,
      "rust": 5438,
      "Ġamazing": 5439,
      "Ġmonitor": 5440,
      "coming": 5441,
      "Ġemployees": 5442,
      "Ġhom": 5443,
      "ighter": 5444,
      "expected": 5445,
      "ĠCustom": 5446,
      "Ġnotes": 5447,
      "Ġconfigu": 5448,
      "Ġaccommod": 5449,
      "ND": 5450,
      "uss": 5451,
      "plit": 5452,
      "Ġtaken": 5453,
      "Ġcapture": 5454,
      "Ġjoy": 5455,
      "ĠSaf": 5456,
      "Ġtrees": 5457,
      "ĠAf": 5458,
      "Ġpreference": 5459,
      "Ġcontrast": 5460,
      "ieties": 5461,
      "Ġbodies": 5462,
      "Ġpurposes": 5463,
      "Ġprotein": 5464,
      "Ab": 5465,
      "Ġresponsibility": 5466,
      "Ġentrepreneur": 5467,
      "ĠKnow": 5468,
      "Ġ198": 5469,
      "Ġadminist": 5470,
      "Ġsuppor": 5471,
      "onomy": 5472,
      "De": 5473,
      "Ġbreaking": 5474,
      "Ġminimal": 5475,
      "ĠMax": 5476,
      "ption": 5477,
      "ux": 5478,
      "apping": 5479,
      "Ġframeworks": 5480,
      "Ġrepe": 5481,
      "ĠObser": 5482,
      "Ġpaint": 5483,
      "ĠGraph": 5484,
      "Ġlasting": 5485,
      "Ġboost": 5486,
      "Ġmeticul": 5487,
      "ĠBuilding": 5488,
      "Ġdriving": 5489,
      "<<": 5490,
      "Ġsong": 5491,
      "Ġqualities": 5492,
      "Ġlic": 5493,
      "metic": 5494,
      "Ġoperating": 5495,
      "ĠAccording": 5496,
      "ait": 5497,
      "ault": 5498,
      "Ġblocks": 5499,
      "Ġfine": 5500,
      "Ġplaces": 5501,
      "Ġdiversity": 5502,
      "Ġinfin": 5503,
      "24": 5504,
      "ĠRo": 5505,
      "Ġopinions": 5506,
      "Ġansw": 5507,
      "Ġlived": 5508,
      "Ġqual": 5509,
      "ĠGradually": 5510,
      "Ġod": 5511,
      "Ġcriteria": 5512,
      "Ġri": 5513,
      "Ġlooks": 5514,
      "Ġgold": 5515,
      "ived": 5516,
      "Ġalter": 5517,
      "ĠElect": 5518,
      "Ġgratitude": 5519,
      "Ġprocessing": 5520,
      "ĠSun": 5521,
      "Ġdatas": 5522,
      "free": 5523,
      "Ġrepresented": 5524,
      "Ġloose": 5525,
      "ompass": 5526,
      "ĠAP": 5527,
      "ading": 5528,
      "Ġtrusted": 5529,
      "Ġundersc": 5530,
      "Ġsubtle": 5531,
      "Ġconflicts": 5532,
      "Ġcognitive": 5533,
      "Ġfeels": 5534,
      "arsh": 5535,
      "Ġfire": 5536,
      "Ġformed": 5537,
      "ĠAlgebra": 5538,
      "ervation": 5539,
      "orrow": 5540,
      "Ġincred": 5541,
      "ĠĠĠĠĠ": 5542,
      "ken": 5543,
      "Ġeconomy": 5544,
      "Ġguarant": 5545,
      "Ġsaid": 5546,
      "Ġunexpected": 5547,
      "Ġspecialized": 5548,
      "Ġnearby": 5549,
      "ĠIntern": 5550,
      "Ġexpressed": 5551,
      "ĠAddress": 5552,
      "iform": 5553,
      "Ġdoll": 5554,
      "Ġsin": 5555,
      "log": 5556,
      "Ġinteresting": 5557,
      "Ġgeometric": 5558,
      "Ġmathematics": 5559,
      "Ġencompass": 5560,
      "Ġpassword": 5561,
      "Ġbrief": 5562,
      "Our": 5563,
      "rat": 5564,
      "ention": 5565,
      "ĠExpon": 5566,
      "Ġmaster": 5567,
      "itig": 5568,
      "ultural": 5569,
      "ectiveness": 5570,
      "Ġethical": 5571,
      "ĠDespite": 5572,
      "ĠConsist": 5573,
      "ario": 5574,
      "Ġexpressing": 5575,
      "ĠJamie": 5576,
      "Ġmiles": 5577,
      "Ġrise": 5578,
      "Ġintegral": 5579,
      "Ġresolution": 5580,
      "ubl": 5581,
      "Ġhighlighting": 5582,
      "Ġvisible": 5583,
      "IiIi": 5584,
      "Ġutilizing": 5585,
      "Ġmob": 5586,
      "Ġbeliefs": 5587,
      "ulated": 5588,
      "ĠHave": 5589,
      "Ġmeasurement": 5590,
      "Ġmeasuring": 5591,
      "Ġdilig": 5592,
      "Ġcold": 5593,
      "oin": 5594,
      "Ġobserved": 5595,
      "Ġoccasion": 5596,
      "ĠWindows": 5597,
      "ĠSupport": 5598,
      "oman": 5599,
      "Ġmatrix": 5600,
      "arian": 5601,
      "ĠCour": 5602,
      "Ġparticipate": 5603,
      "known": 5604,
      "gers": 5605,
      "Ġmention": 5606,
      "Int": 5607,
      "ĠUl": 5608,
      "Ġprofit": 5609,
      "udden": 5610,
      "Ġalone": 5611,
      "illed": 5612,
      "Ġsecre": 5613,
      "ran": 5614,
      "Ġconsists": 5615,
      "une": 5616,
      "ese": 5617,
      "Ġtreats": 5618,
      "Add": 5619,
      "Ġjump": 5620,
      "Ġmixed": 5621,
      "rolling": 5622,
      "Ġprofici": 5623,
      "aly": 5624,
      ")}": 5625,
      "Ġreport": 5626,
      "ĠData": 5627,
      "Ġtesting": 5628,
      "ĠVari": 5629,
      "Ġrub": 5630,
      "Ġdream": 5631,
      "ressions": 5632,
      "eries": 5633,
      "Ġpayment": 5634,
      "Ġbacteria": 5635,
      "Ġeducational": 5636,
      "Ġdomin": 5637,
      "Ġfamiliar": 5638,
      "idge": 5639,
      "Ġsoil": 5640,
      "Ġvoice": 5641,
      "Ġviol": 5642,
      "num": 5643,
      "rics": 5644,
      "Choose": 5645,
      "Ġacknowledging": 5646,
      "Ġimpacts": 5647,
      "Ġbright": 5648,
      "ĠIniti": 5649,
      "Ġotherwise": 5650,
      "Ġindicating": 5651,
      "Ġreliable": 5652,
      "Ġshifts": 5653,
      "Ġreasons": 5654,
      "unte": 5655,
      "ĠStore": 5656,
      "ĠSettings": 5657,
      "Ġspots": 5658,
      "Ġnews": 5659,
      "ĠPenguin": 5660,
      "ĠExplore": 5661,
      "Ġobjective": 5662,
      "Ġmeditation": 5663,
      "aign": 5664,
      "Ġsod": 5665,
      "rict": 5666,
      "Ġdish": 5667,
      "ĠNet": 5668,
      "Ġupdates": 5669,
      "umptions": 5670,
      "Ġbeauty": 5671,
      "ĠBack": 5672,
      "Ġarti": 5673,
      "Ġeating": 5674,
      "Ġpositively": 5675,
      "ĠPokÃ©mon": 5676,
      "Ġnotation": 5677,
      "Ġmood": 5678,
      "ĠPhysics": 5679,
      "ĠSuch": 5680,
      "ĠYourself": 5681,
      "Ġcentury": 5682,
      "ĠRepeat": 5683,
      "Ġalike": 5684,
      "Ġsite": 5685,
      "*}": 5686,
      "ĠApple": 5687,
      "Ġsyn": 5688,
      "Ġcopy": 5689,
      "tices": 5690,
      "Ġinteract": 5691,
      "lessly": 5692,
      "Ġcollection": 5693,
      "Ġcauti": 5694,
      "Ġspend": 5695,
      "Ġfer": 5696,
      "Un": 5697,
      "Since": 5698,
      "Ġutilize": 5699,
      "Ġadvancements": 5700,
      "Ġdispar": 5701,
      "Ġfruit": 5702,
      "Ġattrac": 5703,
      "Ġmetal": 5704,
      "Ġhighlight": 5705,
      "ĠNe": 5706,
      "Ġtal": 5707,
      "tition": 5708,
      "ĠPat": 5709,
      "versely": 5710,
      "Ġminimum": 5711,
      "Ġsharp": 5712,
      "ĠTimmy": 5713,
      "Ġbuying": 5714,
      "Ġbreaks": 5715,
      "Ġdro": 5716,
      "ĠCal": 5717,
      "Ġregist": 5718,
      "unting": 5719,
      "atom": 5720,
      "Ġ_": 5721,
      "Ġconfidently": 5722,
      "Ġadds": 5723,
      "ĠFunction": 5724,
      "Ġeggs": 5725,
      "Ġseam": 5726,
      "ĠProcess": 5727,
      "ĠEmbrace": 5728,
      "inent": 5729,
      "Ġkids": 5730,
      "ĠEnter": 5731,
      "Ġearning": 5732,
      "ĠSystems": 5733,
      "Ġdistractions": 5734,
      "Ġwants": 5735,
      "ĠSally": 5736,
      "Ġlocate": 5737,
      "Ġâī": 5738,
      "Ġshed": 5739,
      "ĠAct": 5740,
      "Ġalignment": 5741,
      "Ġstages": 5742,
      "plicated": 5743,
      "ĠCho": 5744,
      "Ġseconds": 5745,
      "orable": 5746,
      "priate": 5747,
      "Ġhit": 5748,
      "Or": 5749,
      "ĠAim": 5750,
      "ĠMany": 5751,
      "Ġcritic": 5752,
      "Ġalternatives": 5753,
      "ĠAssess": 5754,
      "Life": 5755,
      "Ġaid": 5756,
      "Ġadvantages": 5757,
      "ava": 5758,
      "words": 5759,
      "Ġguideline": 5760,
      "Ġaffecting": 5761,
      "Ġminimizing": 5762,
      "Ġtransportation": 5763,
      "Ġknowing": 5764,
      "Ġseeds": 5765,
      "Ġexplicit": 5766,
      "Ġbarri": 5767,
      "Ġwind": 5768,
      "ĠDNA": 5769,
      "Ġarm": 5770,
      "Ġserving": 5771,
      "Ġreturns": 5772,
      "ffic": 5773,
      "Ġcontainer": 5774,
      "Ġindicates": 5775,
      "Ġcreation": 5776,
      "Ġlisten": 5777,
      "Ġstudying": 5778,
      "Ġcomput": 5779,
      "Ġbaking": 5780,
      "ishes": 5781,
      "hesis": 5782,
      "ĠII": 5783,
      "ĠMost": 5784,
      "Ġkindness": 5785,
      "Sub": 5786,
      "Ġindependent": 5787,
      "Ġsounds": 5788,
      "Ġfill": 5789,
      "Ġcomparing": 5790,
      "erate": 5791,
      "ĠHair": 5792,
      "Ġinterview": 5793,
      "hering": 5794,
      "matic": 5795,
      "Ġwomen": 5796,
      "ĠCor": 5797,
      "Ġpicture": 5798,
      "Ġlack": 5799,
      "ĠDown": 5800,
      "ithmetic": 5801,
      "Ġgender": 5802,
      "Ġthoughtful": 5803,
      "Ġpersistence": 5804,
      "Ġinteger": 5805,
      "Ġdiscom": 5806,
      "ĠNumber": 5807,
      "Use": 5808,
      "Ġclothes": 5809,
      "Ġdifferenti": 5810,
      "sitive": 5811,
      "Ġdance": 5812,
      "Ġease": 5813,
      "Ġcraf": 5814,
      "Ġavailability": 5815,
      "Ġproportional": 5816,
      "Ġmagnetic": 5817,
      "Ġawareness": 5818,
      "ĠAdding": 5819,
      "Ġlat": 5820,
      "ĠChange": 5821,
      "Ġdisrup": 5822,
      "Ġcalculated": 5823,
      "ĠBasic": 5824,
      "ĠComb": 5825,
      "ĠMr": 5826,
      "ĠBet": 5827,
      "ula": 5828,
      "Ġclimate": 5829,
      "gra": 5830,
      "Ġeight": 5831,
      "Ġelev": 5832,
      "ĠAnimal": 5833,
      "Ġinjury": 5834,
      "overn": 5835,
      "iner": 5836,
      "Ġmouth": 5837,
      "Ġhope": 5838,
      "Ġlibr": 5839,
      "ĠMicrosoft": 5840,
      "Ġcurrently": 5841,
      "lease": 5842,
      "Ġdiscomfort": 5843,
      "rich": 5844,
      "Ġoperation": 5845,
      "Ġchain": 5846,
      "Ġbaby": 5847,
      "Ġion": 5848,
      "Ġdepends": 5849,
      "Ġcontributions": 5850,
      "Ġwave": 5851,
      "acking": 5852,
      "Ġreviews": 5853,
      "Ġflo": 5854,
      "dig": 5855,
      "Sim": 5856,
      "nam": 5857,
      "ĠAccount": 5858,
      "aur": 5859,
      "timate": 5860,
      "ĠAng": 5861,
      "Ġpul": 5862,
      "ipe": 5863,
      "Ġshift": 5864,
      "Ġplot": 5865,
      "izations": 5866,
      "airs": 5867,
      "Ġderived": 5868,
      "que": 5869,
      "Ġplastic": 5870,
      "Ġstanding": 5871,
      "Ġgraphs": 5872,
      "Ġvariety": 5873,
      "Ġentertain": 5874,
      "Ġfixed": 5875,
      "Ġsophisticated": 5876,
      "ye": 5877,
      "ĠNumbers": 5878,
      "uctu": 5879,
      "Ġforest": 5880,
      "Ġpopulations": 5881,
      "Ġscienti": 5882,
      "Ġeffectiveness": 5883,
      "Ġspect": 5884,
      "rown": 5885,
      "oves": 5886,
      "ĠClub": 5887,
      "Ġseemingly": 5888,
      "Ġobservations": 5889,
      "Î¸": 5890,
      "ĠRelations": 5891,
      "ĠExample": 5892,
      "Ġexists": 5893,
      "ĠListen": 5894,
      "Ġexpansion": 5895,
      "Ġguess": 5896,
      "Ġlate": 5897,
      "Ġadhe": 5898,
      "roid": 5899,
      "Ġdevelopments": 5900,
      "Ġsupplies": 5901,
      "Ġcompatibility": 5902,
      "Ġlighting": 5903,
      "requ": 5904,
      "ĠWhe": 5905,
      "Ġoutd": 5906,
      "Ġconcentration": 5907,
      "\">": 5908,
      "Ġfunds": 5909,
      "oyal": 5910,
      "Ġow": 5911,
      "ĠLinear": 5912,
      "Gener": 5913,
      "Ġaxis": 5914,
      "Ġsmart": 5915,
      "Ġachievements": 5916,
      "ulner": 5917,
      "Ġcups": 5918,
      "zy": 5919,
      "ĠSelf": 5920,
      "Ġpreparation": 5921,
      "Ġthemes": 5922,
      "Ġpun": 5923,
      "Ġcong": 5924,
      "itoring": 5925,
      "Ġfacing": 5926,
      "body": 5927,
      "![": 5928,
      "ellec": 5929,
      "Ġpal": 5930,
      "Ġfashion": 5931,
      "vable": 5932,
      "Ġfacial": 5933,
      "....": 5934,
      "Ġadventures": 5935,
      "Ġsubstantial": 5936,
      "entials": 5937,
      "Ġfirms": 5938,
      "ĠColl": 5939,
      "Phone": 5940,
      "pha": 5941,
      "ĠHaving": 5942,
      "Ġchecking": 5943,
      "Ġstars": 5944,
      "Ġsubtracting": 5945,
      "Ġcues": 5946,
      "Ġresponsibilities": 5947,
      "ĠInf": 5948,
      "Ġmolecular": 5949,
      "ĠPric": 5950,
      "Ġinnovation": 5951,
      "ĠAfric": 5952,
      "intercept": 5953,
      "Ġentry": 5954,
      "ĠDocum": 5955,
      "Ġpreventing": 5956,
      "Ġassumptions": 5957,
      "ĠIntro": 5958,
      "Another": 5959,
      "crip": 5960,
      "AP": 5961,
      "bl": 5962,
      "ana": 5963,
      "Ġscrut": 5964,
      "Ġremoving": 5965,
      "ĠRespect": 5966,
      "Ġcompetitive": 5967,
      "zed": 5968,
      "iving": 5969,
      "Ġmagic": 5970,
      "orders": 5971,
      "Ġcombinations": 5972,
      "Ġhabit": 5973,
      "Ġfem": 5974,
      "Ġopening": 5975,
      "Ġfinger": 5976,
      "ĠThink": 5977,
      "alled": 5978,
      "ĠSpace": 5979,
      "etary": 5980,
      "iance": 5981,
      "Ġquiet": 5982,
      "ĠLimit": 5983,
      "ĠPot": 5984,
      "ĠClick": 5985,
      "Ġrevenue": 5986,
      "vert": 5987,
      "Ġimprovements": 5988,
      "Ġtriangles": 5989,
      "imming": 5990,
      "ĠTreat": 5991,
      "Ġtac": 5992,
      "uries": 5993,
      "ĠInvest": 5994,
      "Ġfarm": 5995,
      "ĠMag": 5996,
      "Ġsuit": 5997,
      "Ġsafely": 5998,
      "Ġconvey": 5999,
      "Ġregul": 6000,
      "Ġmath": 6001,
      "Ġtruly": 6002,
      "ĠTechniques": 6003,
      "Ġafford": 6004,
      "rete": 6005,
      "ĠAsk": 6006,
      "Ġdeveloped": 6007,
      "Ġcame": 6008,
      "Ġassist": 6009,
      "Ġdeliver": 6010,
      "ara": 6011,
      "etch": 6012,
      "Ġcircles": 6013,
      "Ġfloor": 6014,
      "Ġpredict": 6015,
      "ĠIts": 6016,
      "ĠLay": 6017,
      "ulture": 6018,
      "MzMzMzMz": 6019,
      "Ġample": 6020,
      "ĠPoly": 6021,
      "Ġabsorb": 6022,
      "Ġfluctu": 6023,
      "date": 6024,
      "Ġconsumer": 6025,
      "Ġpeers": 6026,
      "Ġvisually": 6027,
      "ĠMay": 6028,
      "Ġvirtual": 6029,
      "ĠEvaluate": 6030,
      "Ġtell": 6031,
      "eled": 6032,
      "itter": 6033,
      "Ġmistakes": 6034,
      "Ġartif": 6035,
      "Ġcitiz": 6036,
      "Ġbag": 6037,
      "Ġdemands": 6038,
      "Reg": 6039,
      "Ġactually": 6040,
      "amin": 6041,
      "ĠHand": 6042,
      "Ġcompleted": 6043,
      "Ġtoy": 6044,
      "sum": 6045,
      "roph": 6046,
      "Ġorganizational": 6047,
      "Ġsurv": 6048,
      "Ġcoordinate": 6049,
      "giene": 6050,
      "Ġstable": 6051,
      "Ġtheme": 6052,
      "Ġemerging": 6053,
      "Ġnational": 6054,
      "Ġarms": 6055,
      "ĠReflect": 6056,
      "ilosoph": 6057,
      "Ġstop": 6058,
      "Ġju": 6059,
      "Ġcharges": 6060,
      "Ġsalt": 6061,
      "Ġrough": 6062,
      "agers": 6063,
      "âĪĴ": 6064,
      "ĠDraw": 6065,
      "DP": 6066,
      "ĠNext": 6067,
      "Meet": 6068,
      "Ġnarrow": 6069,
      "Ġtall": 6070,
      "Ġstructural": 6071,
      "ĠSchool": 6072,
      "inse": 6073,
      "These": 6074,
      "Ġdivided": 6075,
      "Ġspeak": 6076,
      "stac": 6077,
      "Ġwaiting": 6078,
      "print": 6079,
      "Creating": 6080,
      "Ġneck": 6081,
      "Ġtests": 6082,
      "ĠBeing": 6083,
      "such": 6084,
      "ĠFound": 6085,
      "Ġequipped": 6086,
      "ooper": 6087,
      "Ġpromo": 6088,
      "Ġrecall": 6089,
      "Ġpoll": 6090,
      "ĠNor": 6091,
      "ĠEnergy": 6092,
      "uce": 6093,
      "Ġcraft": 6094,
      "Ġversati": 6095,
      "VV": 6096,
      "ĠFinancial": 6097,
      "ĠMathema": 6098,
      "Ġunless": 6099,
      "----------------------------------------": 6100,
      "Ġenhanced": 6101,
      "ector": 6102,
      "Ġouter": 6103,
      "Ġbon": 6104,
      "Ġnuanced": 6105,
      "Ġeat": 6106,
      "Ġmanageable": 6107,
      "Ġtalk": 6108,
      "hest": 6109,
      "NTU": 6110,
      "ĠPres": 6111,
      "Ġproduced": 6112,
      "Ġconflict": 6113,
      "Ġnegoti": 6114,
      "ĠÂ": 6115,
      "Ġstores": 6116,
      "uality": 6117,
      "Ġtape": 6118,
      "key": 6119,
      "Ġsupports": 6120,
      "Ġsmoothly": 6121,
      "Ġspent": 6122,
      "rie": 6123,
      "Ġtheorem": 6124,
      "uccess": 6125,
      "Ġlengths": 6126,
      "ĠRemove": 6127,
      "Ġrad": 6128,
      "ĠBr": 6129,
      "Ġcm": 6130,
      "Ġextended": 6131,
      "Ġinequalities": 6132,
      "Ġpricing": 6133,
      "Ġscenario": 6134,
      "ĠInterest": 6135,
      "gs": 6136,
      "$$\\": 6137,
      "ket": 6138,
      "Ġhumans": 6139,
      "Ġrock": 6140,
      "Ġdust": 6141,
      "Ġgear": 6142,
      "Ġexpected": 6143,
      "Ġamid": 6144,
      "Ġcurves": 6145,
      "Ġcurren": 6146,
      "Ġcampaign": 6147,
      "Ġconstruction": 6148,
      "ĠĠčĊ": 6149,
      "ĠCul": 6150,
      "Ġmel": 6151,
      "Ġunwanted": 6152,
      "Set": 6153,
      "Optional": 6154,
      "Ġspirit": 6155,
      "eu": 6156,
      "Ġ197": 6157,
      "Ġsuff": 6158,
      "Ġsupportive": 6159,
      "orem": 6160,
      "Ġdeli": 6161,
      "Ġvulner": 6162,
      "Ġbegan": 6163,
      "estions": 6164,
      "---|": 6165,
      "irc": 6166,
      "uests": 6167,
      "Ġbirth": 6168,
      "Ġsquares": 6169,
      "ĠMix": 6170,
      "Ġfeat": 6171,
      "Ġplayer": 6172,
      "Ġconstructive": 6173,
      "Ġshel": 6174,
      "oses": 6175,
      "Ġmeal": 6176,
      "ĠJohn": 6177,
      "ifting": 6178,
      "holders": 6179,
      "Ġbags": 6180,
      "Ġinstances": 6181,
      "Ġfriendship": 6182,
      "Ġsignals": 6183,
      "enty": 6184,
      "ĠMar": 6185,
      "Ġpercentage": 6186,
      "Ġstream": 6187,
      "Ġcombining": 6188,
      "Ġduration": 6189,
      "}^": 6190,
      "angular": 6191,
      "ĠMean": 6192,
      "Ġgenetic": 6193,
      "ĠHistory": 6194,
      "Ġrewarding": 6195,
      "ĠSn": 6196,
      "ĠDouble": 6197,
      "Ġinsurance": 6198,
      "aint": 6199,
      "Ġjoining": 6200,
      "Ġfees": 6201,
      "Ġperce": 6202,
      "Ġforeign": 6203,
      "Ġiden": 6204,
      "long": 6205,
      "Ġende": 6206,
      "Ġarri": 6207,
      "Ġshown": 6208,
      "Ġinterrup": 6209,
      "fficients": 6210,
      "bre": 6211,
      "pace": 6212,
      "top": 6213,
      "ĠNeg": 6214,
      "Ġorganic": 6215,
      "Ġstead": 6216,
      "Figure": 6217,
      "urb": 6218,
      "Ġplayed": 6219,
      "Ġorganisms": 6220,
      "Ġstrengthens": 6221,
      "ĠMem": 6222,
      "Ġinstitutions": 6223,
      "ĠPost": 6224,
      "Ġpark": 6225,
      "Ġportion": 6226,
      "Ġextreme": 6227,
      "ĠManagement": 6228,
      "gments": 6229,
      "Ġreplac": 6230,
      "Ġarchit": 6231,
      "ourse": 6232,
      "Ġpersistent": 6233,
      "90": 6234,
      "Ġremind": 6235,
      "Ġhous": 6236,
      "Ġ---": 6237,
      "ipl": 6238,
      "Ġmobile": 6239,
      "*,": 6240,
      "23": 6241,
      "Ġwalls": 6242,
      "Ġcolon": 6243,
      "bar": 6244,
      "ellow": 6245,
      "Ġprem": 6246,
      "Ġcot": 6247,
      "ached": 6248,
      "ographic": 6249,
      "tract": 6250,
      "versi": 6251,
      "Ġclar": 6252,
      "ilies": 6253,
      "However": 6254,
      "Ġtechnological": 6255,
      "och": 6256,
      "Ġcatch": 6257,
      "ratulations": 6258,
      "icular": 6259,
      "ĠMove": 6260,
      "uming": 6261,
      "ĠControl": 6262,
      "ĠGrow": 6263,
      "Ġmemories": 6264,
      "Ġconcise": 6265,
      "tionally": 6266,
      "Ġmomentum": 6267,
      "Ġoccup": 6268,
      "ĠPers": 6269,
      "Ġscal": 6270,
      "ĠInstall": 6271,
      "ĠProm": 6272,
      "Ġadj": 6273,
      "Ġrewards": 6274,
      "ĠFacebook": 6275,
      "erms": 6276,
      "Ġdistances": 6277,
      "Ġturns": 6278,
      "ĠEvery": 6279,
      "Ġcontexts": 6280,
      "mark": 6281,
      "isp": 6282,
      "ĠNavig": 6283,
      "Ġstock": 6284,
      "solving": 6285,
      "Ġtransitions": 6286,
      "Delta": 6287,
      "Ġratios": 6288,
      "Ġcompound": 6289,
      "Ġtransformations": 6290,
      "Ġmembr": 6291,
      "Ġleadership": 6292,
      "Ġyog": 6293,
      "new": 6294,
      "lean": 6295,
      "Ġfederal": 6296,
      "Ġobstac": 6297,
      "cement": 6298,
      "Ġextend": 6299,
      "rench": 6300,
      "Ġtight": 6301,
      "Ġtranspare": 6302,
      "Ġwilling": 6303,
      "Consider": 6304,
      "Ġworkers": 6305,
      "Ġinternet": 6306,
      "throp": 6307,
      "||": 6308,
      "ĠProble": 6309,
      "ette": 6310,
      "rome": 6311,
      "oted": 6312,
      "Ġattach": 6313,
      "}.": 6314,
      "tra": 6315,
      "Ġuniform": 6316,
      "Ġband": 6317,
      "ĠImpro": 6318,
      "Ġtackle": 6319,
      "Calcul": 6320,
      "Ġpolynomials": 6321,
      "utter": 6322,
      "Ġfreed": 6323,
      "hav": 6324,
      "Ġrh": 6325,
      "vision": 6326,
      "ĠTool": 6327,
      "ĠiPhone": 6328,
      "Ġrely": 6329,
      "Ġstaying": 6330,
      "enario": 6331,
      "Ġframework": 6332,
      "Ġparticipants": 6333,
      "Ġrectangle": 6334,
      "Bec": 6335,
      "Ġmitig": 6336,
      "undred": 6337,
      "Ġwire": 6338,
      "ĠElement": 6339,
      "Ġprinciple": 6340,
      "osph": 6341,
      "Ġwild": 6342,
      "Ġcredi": 6343,
      "ĠMatter": 6344,
      "Ġprecision": 6345,
      "Ġvent": 6346,
      "Ġpreserving": 6347,
      "Ġappeal": 6348,
      "char": 6349,
      "col": 6350,
      "Ġhousehold": 6351,
      "ĠRet": 6352,
      "],": 6353,
      ")\",": 6354,
      "Ġfant": 6355,
      "ĠTogether": 6356,
      "Ġreally": 6357,
      "antic": 6358,
      "Ġsunlight": 6359,
      "Ġdamp": 6360,
      "Ġmagnit": 6361,
      "ley": 6362,
      "Ġcategory": 6363,
      "Ġrecognition": 6364,
      "Ġcombination": 6365,
      "Ġinnovative": 6366,
      "Res": 6367,
      "Interactive": 6368,
      "ĠRecognize": 6369,
      "onometric": 6370,
      "rK": 6371,
      "Ġseen": 6372,
      "Ġcookies": 6373,
      "ĠStructure": 6374,
      "ĠBra": 6375,
      "Ġpoor": 6376,
      "ipping": 6377,
      "Ġroutines": 6378,
      "ĠDivide": 6379,
      "Ġharmful": 6380,
      "Ġmere": 6381,
      "Ġsaw": 6382,
      "ĠSuppose": 6383,
      "digit": 6384,
      "Ġneutral": 6385,
      "Ġdescribe": 6386,
      "ĠAttend": 6387,
      "Ġrespectful": 6388,
      "fered": 6389,
      "Ġplacing": 6390,
      "Ġtechnologies": 6391,
      "link": 6392,
      "Abstract": 6393,
      "ĠSave": 6394,
      "Ġpep": 6395,
      "points": 6396,
      "Ġelectrical": 6397,
      "Ġhealing": 6398,
      "tivities": 6399,
      "Ġranging": 6400,
      "Ġattending": 6401,
      "endicular": 6402,
      "ipp": 6403,
      "ĠPosition": 6404,
      "Tr": 6405,
      "anning": 6406,
      "Ġoffered": 6407,
      "Ġdiseases": 6408,
      "wide": 6409,
      "Ġintervals": 6410,
      "Ġuncertain": 6411,
      "Ġpuzz": 6412,
      "ky": 6413,
      "Pre": 6414,
      "Ġflavor": 6415,
      "Ġrespectively": 6416,
      "Ġexponents": 6417,
      "Ġoutlined": 6418,
      "atural": 6419,
      "Ġholds": 6420,
      "Ġidentical": 6421,
      "Ġunderp": 6422,
      "Ġtransformation": 6423,
      "AS": 6424,
      "ĠSoft": 6425,
      "alse": 6426,
      ")**": 6427,
      "Ġargue": 6428,
      "ĠSecond": 6429,
      "olved": 6430,
      "Ġmode": 6431,
      "Ġinflation": 6432,
      "Ġtissue": 6433,
      "anting": 6434,
      "Ins": 6435,
      "Ġwalking": 6436,
      "Ġlost": 6437,
      "Ġintegrity": 6438,
      "Ġsuits": 6439,
      "âĤĤ": 6440,
      "Ġaside": 6441,
      "Ġinverse": 6442,
      "ellectual": 6443,
      "roec": 6444,
      "Ġcompute": 6445,
      "Ġsusp": 6446,
      "Ġdiscussed": 6447,
      "Ġtowel": 6448,
      "Ġstands": 6449,
      "ĠSum": 6450,
      "tile": 6451,
      "Ġparticipating": 6452,
      ".**": 6453,
      "taining": 6454,
      "ĠDire": 6455,
      "Ġcorpor": 6456,
      "Ġsatisfied": 6457,
      "Ġsubtraction": 6458,
      "].": 6459,
      "Ġindustries": 6460,
      "Ġnoise": 6461,
      "Ġmer": 6462,
      "Ġnose": 6463,
      "Ġpowder": 6464,
      "Ġworksh": 6465,
      "Ġassets": 6466,
      "Ġvast": 6467,
      "Ġcautious": 6468,
      "ĠTV": 6469,
      "Ġmember": 6470,
      "ried": 6471,
      "Ġintegers": 6472,
      "CT": 6473,
      "Ġweaknesses": 6474,
      "hemistry": 6475,
      "Ġexplo": 6476,
      "\\)": 6477,
      "ĠBreak": 6478,
      "Ġflowers": 6479,
      "gest": 6480,
      "uit": 6481,
      "niture": 6482,
      "ĠExpress": 6483,
      "Ġimmediate": 6484,
      "Ġsam": 6485,
      "Ġnavigating": 6486,
      "ĠType": 6487,
      "Ġtex": 6488,
      "Ġcoefficients": 6489,
      "Ġdelicate": 6490,
      "Ġquar": 6491,
      "Ġvision": 6492,
      "Ġanalytical": 6493,
      "Ġerror": 6494,
      "Ġtast": 6495,
      "Ġ90": 6496,
      "ino": 6497,
      "Ġsecret": 6498,
      "Ġcomposition": 6499,
      "Ġstarts": 6500,
      "Ġhydrogen": 6501,
      "Ġdesignated": 6502,
      "Ġrefine": 6503,
      "Ġteams": 6504,
      "ES": 6505,
      "most": 6506,
      "ĠStar": 6507,
      "Ġorient": 6508,
      "Ġeventually": 6509,
      "Ġproducing": 6510,
      "ĠNeeded": 6511,
      "ĠCong": 6512,
      "udes": 6513,
      "ĠPop": 6514,
      "Ġguests": 6515,
      "*.": 6516,
      "Ġcentered": 6517,
      "Ġfewer": 6518,
      "lish": 6519,
      "ĠWhy": 6520,
      "Ġchest": 6521,
      "Ġliber": 6522,
      "Ġpressing": 6523,
      "ĠRational": 6524,
      "enth": 6525,
      "ĠMy": 6526,
      "Ġtick": 6527,
      "Ġdirt": 6528,
      "Ġbowl": 6529,
      "Â®": 6530,
      "vironment": 6531,
      "Ġbene": 6532,
      "Ġhyper": 6533,
      "acing": 6534,
      "feren": 6535,
      "Ġaffected": 6536,
      "uth": 6537,
      "Ġbath": 6538,
      "otyp": 6539,
      "Ġ&=": 6540,
      "Ġinvesting": 6541,
      "Ġgaps": 6542,
      "Ġ2018": 6543,
      "Ġdeal": 6544,
      "Ġengaged": 6545,
      "lam": 6546,
      "Ġgot": 6547,
      "ĠObserve": 6548,
      "Ġdelivery": 6549,
      "Ġrecovery": 6550,
      "Ġconversion": 6551,
      "Ġradius": 6552,
      "Ġmarked": 6553,
      "attle": 6554,
      "allow": 6555,
      "ĠEnjoy": 6556,
      "Ġoverwhelming": 6557,
      "ĠMet": 6558,
      "Ġbeneficial": 6559,
      "Ġhighlights": 6560,
      "ĠDet": 6561,
      "Ġsimplify": 6562,
      "Ġcontro": 6563,
      "ĠWhether": 6564,
      "Ġintroduced": 6565,
      "Ġadap": 6566,
      "Start": 6567,
      "backs": 6568,
      "Ġchick": 6569,
      "Ġimper": 6570,
      "Ġsold": 6571,
      "Ġjus": 6572,
      "ĠClear": 6573,
      "Ġletter": 6574,
      "Solve": 6575,
      "Ġlips": 6576,
      "ĠApplying": 6577,
      "acies": 6578,
      "Ġrac": 6579,
      "venues": 6580,
      "}$.": 6581,
      "Ġexclusive": 6582,
      "Ġbutter": 6583,
      "OU": 6584,
      "Ġprove": 6585,
      "Ġnumerator": 6586,
      "Ġnotable": 6587,
      "Ġembark": 6588,
      "Ġsuggests": 6589,
      "Ġblog": 6590,
      "Ġdemonstrating": 6591,
      "Ġmillion": 6592,
      "Ġpolar": 6593,
      "lets": 6594,
      "Ġelectronic": 6595,
      "Ġtargeted": 6596,
      "Select": 6597,
      "Ġturning": 6598,
      "tex": 6599,
      "Ġrestrictions": 6600,
      "Ġacting": 6601,
      "ĠDr": 6602,
      "ietal": 6603,
      "BC": 6604,
      "ament": 6605,
      "Ġsegment": 6606,
      "anks": 6607,
      "Ġmixture": 6608,
      "Ġsustainable": 6609,
      "working": 6610,
      "mo": 6611,
      "Ġinvestigations": 6612,
      "onal": 6613,
      "Ġ2017": 6614,
      "ED": 6615,
      "Ġemployed": 6616,
      "Ġwatch": 6617,
      "Ġmodeling": 6618,
      "Ġengineering": 6619,
      "Ġcoefficient": 6620,
      "Ġregulation": 6621,
      "Ġsummar": 6622,
      "Ġalgorithms": 6623,
      "rows": 6624,
      "Ġamidst": 6625,
      "inting": 6626,
      "ĠUltimately": 6627,
      "Ġdevi": 6628,
      "ĠTheorem": 6629,
      "cient": 6630,
      "Ġcollective": 6631,
      "Ġposture": 6632,
      "Ġcalls": 6633,
      "Ġmatches": 6634,
      "ĠRefrain": 6635,
      "Ġpainting": 6636,
      "Ġtherapy": 6637,
      "ĠProfession": 6638,
      "ĠTitle": 6639,
      "ĠBec": 6640,
      "Ġhero": 6641,
      "ancies": 6642,
      "},": 6643,
      "umps": 6644,
      "Ġintensity": 6645,
      "ĠLevel": 6646,
      "Divide": 6647,
      "Ġpassion": 6648,
      "Ġentirely": 6649,
      "Ġindex": 6650,
      "while": 6651,
      "Ġclicking": 6652,
      "Ġcomplicated": 6653,
      "}(": 6654,
      "Ġfinish": 6655,
      "Ġtreatments": 6656,
      "rest": 6657,
      "emble": 6658,
      "Ġconsumers": 6659,
      "ĠTheory": 6660,
      "Ġrace": 6661,
      "cepts": 6662,
      "âĤģ": 6663,
      "Ġinstallation": 6664,
      "\"\"": 6665,
      "Ġdecrease": 6666,
      "ĠBody": 6667,
      "ĠUnder": 6668,
      "Ġclubs": 6669,
      "opes": 6670,
      "Ġfat": 6671,
      "ĠHome": 6672,
      "Ġemployment": 6673,
      "Ġbeneath": 6674,
      "Ġmanual": 6675,
      "Ġgrade": 6676,
      "Ġgrasp": 6677,
      "era": 6678,
      "Ġsubjects": 6679,
      "Ġcorresponds": 6680,
      "})": 6681,
      "ĠLeg": 6682,
      "Ġtook": 6683,
      "Ġlights": 6684,
      "Ġkeeps": 6685,
      "ĠPhot": 6686,
      "Ġallowed": 6687,
      "Ġadvances": 6688,
      "Ġvehicle": 6689,
      "Ġenthusias": 6690,
      "Ġasym": 6691,
      "Ġexcit": 6692,
      "ney": 6693,
      "tify": 6694,
      "Ġcater": 6695,
      "sional": 6696,
      "Ġcourses": 6697,
      "ĠNecessary": 6698,
      "Ġtraffic": 6699,
      "aph": 6700,
      "Ġcoordinates": 6701,
      "Ġsocietal": 6702,
      "Ġmonitoring": 6703,
      "Ġarrangements": 6704,
      "Ġsavings": 6705,
      "lock": 6706,
      "Ġsat": 6707,
      "Ġemphasizing": 6708,
      "Ġletters": 6709,
      "{(": 6710,
      "Ġaims": 6711,
      "Ġcircular": 6712,
      "ocking": 6713,
      "Ġgarden": 6714,
      "ĠHelps": 6715,
      "Ġutility": 6716,
      "Ġacts": 6717,
      "Ġattract": 6718,
      "Determine": 6719,
      "Ġequally": 6720,
      "havior": 6721,
      "Ġeliminate": 6722,
      "Ġobstacles": 6723,
      "Ġnic": 6724,
      "ĠSign": 6725,
      "Ġworkshops": 6726,
      "Ġlean": 6727,
      "agram": 6728,
      "tors": 6729,
      "Ġincon": 6730,
      "Ġdefining": 6731,
      "ĠHelp": 6732,
      "Ġopenly": 6733,
      "ĠConfirm": 6734,
      "Ġacids": 6735,
      "Ġcultures": 6736,
      "Ġbelieve": 6737,
      "ai": 6738,
      "ĠOnline": 6739,
      "Ġasser": 6740,
      "Ġcombine": 6741,
      "ĠĠĠĠĠĠĠĠĠĠĠĠĠĠĠĠ": 6742,
      "rs": 6743,
      "ĠInformation": 6744,
      "Ġsuggestions": 6745,
      "tious": 6746,
      "ĠMaster": 6747,
      "Ġcitizens": 6748,
      "Ġcivil": 6749,
      "Ġbrowser": 6750,
      "Ġscientists": 6751,
      "fl": 6752,
      "Ġreflects": 6753,
      "Ġtun": 6754,
      "Ġpencil": 6755,
      "Ġcircul": 6756,
      "Ġrealized": 6757,
      "Ġ(\\": 6758,
      "Ġdisp": 6759,
      "orize": 6760,
      "Ġhundred": 6761,
      "Ġcultivate": 6762,
      "ĠLiber": 6763,
      "theless": 6764,
      "ĠNational": 6765,
      "house": 6766,
      "Ġexperimental": 6767,
      "Ġmovie": 6768,
      "Ġestablishing": 6769,
      "ĠBalance": 6770,
      "string": 6771,
      "net": 6772,
      "ĠAdv": 6773,
      "ushes": 6774,
      "uman": 6775,
      "water": 6776,
      "Ġsubmit": 6777,
      "plify": 6778,
      "Ġverify": 6779,
      "ĠChe": 6780,
      "ief": 6781,
      "Ġentering": 6782,
      "ĠDefine": 6783,
      "Ġmilest": 6784,
      "Ġsites": 6785,
      "Ġmissing": 6786,
      "hyd": 6787,
      "iences": 6788,
      "Ġprotective": 6789,
      "Ġalgorithm": 6790,
      "Ġflour": 6791,
      "dentifying": 6792,
      "Ġpreparing": 6793,
      "Ġupdate": 6794,
      "ĠComplete": 6795,
      "ĠDocument": 6796,
      "Ġminor": 6797,
      "Ġmission": 6798,
      "Ġmentioned": 6799,
      "apes": 6800,
      "ĠCommunication": 6801,
      "Ġbill": 6802,
      "Ġoutfit": 6803,
      "ongevity": 6804,
      "ĠSpe": 6805,
      "Ġpages": 6806,
      "Ġharsh": 6807,
      "ister": 6808,
      "tains": 6809,
      "ĠValue": 6810,
      "na": 6811,
      "Ġdensity": 6812,
      "inded": 6813,
      "agues": 6814,
      "Ġlogarithm": 6815,
      "Ġdigit": 6816,
      "Ġreceived": 6817,
      "ON": 6818,
      "64": 6819,
      "otor": 6820,
      "Ġgau": 6821,
      "Ġkit": 6822,
      "Ġpiv": 6823,
      "Ġarguments": 6824,
      "Ġuniverse": 6825,
      "Dec": 6826,
      "Ġpizz": 6827,
      "Ġfeaturing": 6828,
      "Ġreplace": 6829,
      "ka": 6830,
      "ĠRad": 6831,
      "ĠHer": 6832,
      "()": 6833,
      "weight": 6834,
      "ĠCultivate": 6835,
      "Ġbegins": 6836,
      "Ġfriendships": 6837,
      "Ġvolunte": 6838,
      "cut": 6839,
      "Ġquite": 6840,
      "png": 6841,
      "Ġtooth": 6842,
      "Ġgloves": 6843,
      "tire": 6844,
      "ĠPeriod": 6845,
      "oly": 6846,
      "Ġschools": 6847,
      "dx": 6848,
      "Ġinventory": 6849,
      "Ġlongevity": 6850,
      "}=": 6851,
      "opy": 6852,
      "Ġreflection": 6853,
      "ĠParticipate": 6854,
      "Ġacceleration": 6855,
      "Per": 6856,
      "ĠAir": 6857,
      "ĠSuccess": 6858,
      "omestic": 6859,
      "Ġ45": 6860,
      "ounters": 6861,
      "tage": 6862,
      "understand": 6863,
      "Ġearn": 6864,
      "Ġfitness": 6865,
      "Ġhelped": 6866,
      "ĠEven": 6867,
      "ĠLong": 6868,
      "ilitary": 6869,
      "Su": 6870,
      "Ġlabeled": 6871,
      "Ġadhering": 6872,
      "Ġmechanics": 6873,
      "anger": 6874,
      "Ġargument": 6875,
      "Ġvisibility": 6876,
      "bb": 6877,
      "Ġpull": 6878,
      "Ġshopping": 6879,
      "Ġlightly": 6880,
      "Ġintegrating": 6881,
      "antum": 6882,
      "ĠEnglish": 6883,
      "SE": 6884,
      "antly": 6885,
      "Ġcommonly": 6886,
      "Ġpayments": 6887,
      "Ġmorning": 6888,
      "idents": 6889,
      "ĠOper": 6890,
      "rig": 6891,
      "Ġdetermination": 6892,
      "Ġ2016": 6893,
      "Ġtaxes": 6894,
      "Ġdidn": 6895,
      "CA": 6896,
      "ĠWord": 6897,
      "Ġjobs": 6898,
      "Ġlandscape": 6899,
      "athe": 6900,
      "Ġsevere": 6901,
      "ĠJava": 6902,
      "range": 6903,
      "Ġdiscourse": 6904,
      "PS": 6905,
      "Ġmaturity": 6906,
      "Ġlip": 6907,
      "Ġpubl": 6908,
      "sis": 6909,
      "Ġwealth": 6910,
      "Ġcredibility": 6911,
      "Ġpreserve": 6912,
      "Ġperpendicular": 6913,
      "Ġdenominators": 6914,
      "ĠDry": 6915,
      "ĠBo": 6916,
      "Ġversus": 6917,
      "Ġinfluencing": 6918,
      "kary": 6919,
      "ĠClass": 6920,
      "flow": 6921,
      "Ġupdated": 6922,
      "--------------------------------------------": 6923,
      "ĠMeas": 6924,
      "Ġ2015": 6925,
      "Ġparticipation": 6926,
      "artment": 6927,
      "ĠPeople": 6928,
      "tivating": 6929,
      "Ġmarg": 6930,
      "plo": 6931,
      "Ġembracing": 6932,
      "ailing": 6933,
      "ĠMarket": 6934,
      "regate": 6935,
      "Ġmarginal": 6936,
      "Ġexpanding": 6937,
      "Ġdev": 6938,
      "Ġleaders": 6939,
      "Ġnutrients": 6940,
      "Ġloyal": 6941,
      "Ġcompassion": 6942,
      "Ġfamilies": 6943,
      "ĠRule": 6944,
      "Ġpossibilities": 6945,
      "Ġmodifications": 6946,
      "ĠHis": 6947,
      "Ġcorrel": 6948,
      "Ġdebris": 6949,
      "ĠDa": 6950,
      "Ġexcitement": 6951,
      "Ġbol": 6952,
      "Ġheld": 6953,
      "titute": 6954,
      "Ġrotation": 6955,
      "Ġfingers": 6956,
      "Ġwearing": 6957,
      "Ġindeed": 6958,
      "Ġshares": 6959,
      "Eng": 6960,
      "(\"": 6961,
      "Ġaligns": 6962,
      "Ġforth": 6963,
      "Despite": 6964,
      "irts": 6965,
      "Ġboxes": 6966,
      "Ġsequences": 6967,
      ",'": 6968,
      "ML": 6969,
      "Ġlayout": 6970,
      "Ġstrict": 6971,
      "Ġdecl": 6972,
      "Ġfirmly": 6973,
      "fortable": 6974,
      "Ġtracking": 6975,
      "Ġalt": 6976,
      "Ġcooper": 6977,
      "Ġinten": 6978,
      "ogene": 6979,
      "Ġcomplexities": 6980,
      "Ġbrings": 6981,
      "ewel": 6982,
      "Ġdetermined": 6983,
      "rical": 6984,
      "Ġca": 6985,
      "Ġcars": 6986,
      "Ġsaying": 6987,
      "Ġcoins": 6988,
      "Ġhappen": 6989,
      "Ġupward": 6990,
      "ĠCri": 6991,
      "Ġchance": 6992,
      "titative": 6993,
      "ĠArea": 6994,
      "Ġtrick": 6995,
      "Ġappoint": 6996,
      "Ġburn": 6997,
      "Ġdirections": 6998,
      "From": 6999,
      "Ġmemorable": 7000,
      "Ġmeets": 7001,
      "Ġinfluences": 7002,
      "Ġtimel": 7003,
      "Ġprovider": 7004,
      "Ġbattery": 7005,
      "Ġoptimize": 7006,
      "Generate": 7007,
      "fun": 7008,
      "Ġborrow": 7009,
      "Ġhygiene": 7010,
      "Ġsudden": 7011,
      "Ġhaz": 7012,
      "Ġediting": 7013,
      "Ġvit": 7014,
      "osystem": 7015,
      "Ġ80": 7016,
      "Ġinterface": 7017,
      "Ġdebt": 7018,
      "[^": 7019,
      "Ġdogs": 7020,
      "vb": 7021,
      "ĠLearning": 7022,
      "Ġweap": 7023,
      "alax": 7024,
      "Ġfacilitating": 7025,
      "Ġiron": 7026,
      "ĠApproach": 7027,
      "Ġpets": 7028,
      "Ġanswers": 7029,
      "Ġaudio": 7030,
      "tian": 7031,
      "ethe": 7032,
      "Ġdemoc": 7033,
      "Tube": 7034,
      "ĠEduc": 7035,
      "acent": 7036,
      "Ġcas": 7037,
      "Ġconsiderations": 7038,
      "Ġham": 7039,
      "ĠNevertheless": 7040,
      "Ġrapidly": 7041,
      "unt": 7042,
      "Ġpresented": 7043,
      "plies": 7044,
      "Ġvibrant": 7045,
      "Ġparabol": 7046,
      "Ġartificial": 7047,
      "Ġradiation": 7048,
      "Ġsolar": 7049,
      "Ġintervention": 7050,
      "Ġloop": 7051,
      "vec": 7052,
      "Ġenthusiasm": 7053,
      "Ġarithmetic": 7054,
      "^{-": 7055,
      "ĠEl": 7056,
      "oding": 7057,
      "Ġmeticulously": 7058,
      "Ġhorse": 7059,
      "Ġunderpinning": 7060,
      "Ġevaluation": 7061,
      "Ġreligious": 7062,
      "ĠCommunicate": 7063,
      "rist": 7064,
      "Ġfluctuations": 7065,
      "28": 7066,
      "Ġsymbols": 7067,
      "Ġfelt": 7068,
      "Ġreass": 7069,
      "tally": 7070,
      "ĠConversely": 7071,
      "Ġchat": 7072,
      "Ġexplored": 7073,
      "ĠGovern": 7074,
      "ev": 7075,
      "ĠSection": 7076,
      "OR": 7077,
      "Ġpaid": 7078,
      "ĠChall": 7079,
      "Ġpresentation": 7080,
      "ĠFuture": 7081,
      "Ġ2019": 7082,
      "Ġuncover": 7083,
      "Ġasked": 7084,
      "Ġecosystem": 7085,
      "Ġfurniture": 7086,
      "Ġmagnitude": 7087,
      "Ġdiligently": 7088,
      "Lastly": 7089,
      "ĠCollabor": 7090,
      "Ġhear": 7091,
      "Ġjudgment": 7092,
      "Ġdisag": 7093,
      "Ġcompletion": 7094,
      "ĠMeasure": 7095,
      "Ġmild": 7096,
      "Ġrom": 7097,
      "Ġdoc": 7098,
      "Ġsaving": 7099,
      "Ġgaming": 7100,
      "Ġworldwide": 7101,
      "Ġknew": 7102,
      "Ġscrew": 7103,
      "Ġarticles": 7104,
      "Ġnegatively": 7105,
      "Ġbrown": 7106,
      "Ġstrive": 7107,
      "ĠDiscuss": 7108,
      "Ġcharged": 7109,
      "oub": 7110,
      "Ġcolumn": 7111,
      "Ġincredible": 7112,
      "Ġappealing": 7113,
      "Ġseven": 7114,
      "ashes": 7115,
      "Ġdrying": 7116,
      "ĠStrategies": 7117,
      "ĠCity": 7118,
      "Ġobtained": 7119,
      "cling": 7120,
      "}=\\": 7121,
      "Ġnumerical": 7122,
      "Ġterrit": 7123,
      "Ġgenerated": 7124,
      "Ġimmune": 7125,
      "org": 7126,
      "Ġaccep": 7127,
      "Ġconstitu": 7128,
      "$)": 7129,
      "Ġdiscrep": 7130,
      "ban": 7131,
      "eles": 7132,
      "arent": 7133,
      "Ġlargest": 7134,
      "style": 7135,
      "itate": 7136,
      "cean": 7137,
      "fol": 7138,
      "ĠModel": 7139,
      "Ġintu": 7140,
      "cribe": 7141,
      "Ġsymmetry": 7142,
      "ĠTrade": 7143,
      "Ġintim": 7144,
      "Ġregulatory": 7145,
      "oxide": 7146,
      "Ġmarks": 7147,
      "Ġreveals": 7148,
      "Ġplaced": 7149,
      "Ġproposed": 7150,
      "ĠStre": 7151,
      "ste": 7152,
      "Ġfa": 7153,
      "ĠScenario": 7154,
      "Ġformulas": 7155,
      "ĠDress": 7156,
      "Ġtherefore": 7157,
      "ĠMatters": 7158,
      "ffee": 7159,
      "Ġ==": 7160,
      "Ġsweet": 7161,
      "Ġfo": 7162,
      "Ġaffects": 7163,
      "Ġgravity": 7164,
      "ĠEnvironment": 7165,
      "Ġspecified": 7166,
      "Ġolder": 7167,
      "Ġcompounds": 7168,
      "ercise": 7169,
      "Ġdifferently": 7170,
      "Solving": 7171,
      "Ġsignal": 7172,
      "Ġhypothes": 7173,
      "Ġcub": 7174,
      "Ġschedules": 7175,
      "IN": 7176,
      "Ġinterested": 7177,
      "Ġsegments": 7178,
      "Ġrefining": 7179,
      "Ġwent": 7180,
      "ĠAccounting": 7181,
      "ticed": 7182,
      "used": 7183,
      "Ġcorners": 7184,
      "Ġtriggers": 7185,
      "Ġpersonalized": 7186,
      "ĠConnect": 7187,
      "ĠAnalyze": 7188,
      "Ġcotton": 7189,
      "fidence": 7190,
      "70": 7191,
      "mic": 7192,
      "Ġpromp": 7193,
      "Ġemerged": 7194,
      "AD": 7195,
      "Ġintense": 7196,
      "add": 7197,
      "ĠEffective": 7198,
      "phone": 7199,
      "minded": 7200,
      "Ġmap": 7201,
      "adow": 7202,
      "tification": 7203,
      "Given": 7204,
      "Ġstake": 7205,
      "Ġdecay": 7206,
      "Ġrare": 7207,
      "Ġphenomenon": 7208,
      "Ġteachers": 7209,
      "Ġextrac": 7210,
      "Ġfro": 7211,
      "rought": 7212,
      "Thus": 7213,
      "apan": 7214,
      "Ġfantastic": 7215,
      "ĠGirl": 7216,
      "Ġreceiving": 7217,
      "Ġauthenticity": 7218,
      "Ġclassic": 7219,
      "cious": 7220,
      "Ġmindfulness": 7221,
      "Ġpartial": 7222,
      "Ġwashing": 7223,
      "turing": 7224,
      "Ġreact": 7225,
      "ured": 7226,
      "ĠJourn": 7227,
      "Ġstem": 7228,
      "ĠPositive": 7229,
      "Ġcolleagues": 7230,
      "AC": 7231,
      "Ġcriticism": 7232,
      "Ġbone": 7233,
      "ĠLight": 7234,
      "ĠName": 7235,
      "Ġrecur": 7236,
      "Ġshades": 7237,
      "Ġnutrition": 7238,
      "Ġarchitect": 7239,
      "Ġtom": 7240,
      "olar": 7241,
      "Ġnuances": 7242,
      "ergies": 7243,
      "Ġfreedom": 7244,
      "gl": 7245,
      "{{": 7246,
      "ĠGrowth": 7247,
      "Ġembrace": 7248,
      "position": 7249,
      "ascular": 7250,
      "ĠSuper": 7251,
      "oster": 7252,
      "Ġpanel": 7253,
      "\")": 7254,
      "td": 7255,
      "Ġfilter": 7256,
      "Ġspeech": 7257,
      "omb": 7258,
      "Ġtransactions": 7259,
      "ĠiP": 7260,
      "unning": 7261,
      "Ġseems": 7262,
      "Ġloves": 7263,
      "Therefore": 7264,
      "erb": 7265,
      "rary": 7266,
      "&=": 7267,
      "etheless": 7268,
      "Ġpit": 7269,
      "inner": 7270,
      "anches": 7271,
      "Ġfamiliarize": 7272,
      "Ġgeometry": 7273,
      "Ġlens": 7274,
      "Finding": 7275,
      "Ġinterpretation": 7276,
      "Ġvill": 7277,
      "Thought": 7278,
      "suit": 7279,
      "ship": 7280,
      "Ġteach": 7281,
      "ronic": 7282,
      "Ġfuel": 7283,
      "Ġwet": 7284,
      "Ġinfection": 7285,
      "Ġoffice": 7286,
      "Ġswitch": 7287,
      "Ġprofound": 7288,
      "eding": 7289,
      "Ġenfor": 7290,
      "36": 7291,
      "Ġnails": 7292,
      "Ġmanif": 7293,
      "ĠYouTube": 7294,
      "Ġtalking": 7295,
      "rot": 7296,
      "aneous": 7297,
      "Ġhorizontally": 7298,
      "ĠGoals": 7299,
      "Ġreasoning": 7300,
      "Ġaccomp": 7301,
      "ĠFood": 7302,
      "ĠSmall": 7303,
      "Ġlemonade": 7304,
      "imensional": 7305,
      "Wor": 7306,
      "Ġnorms": 7307,
      "ferent": 7308,
      "Ġnoticed": 7309,
      "Ġcrafting": 7310,
      "ĠUs": 7311,
      "Ġwidely": 7312,
      "ĠProfessional": 7313,
      "Recent": 7314,
      "ĠIncre": 7315,
      "ĠGerm": 7316,
      "Ġsecurely": 7317,
      "Ġchemistry": 7318,
      "night": 7319,
      "ĠHar": 7320,
      "structions": 7321,
      "Ġdoor": 7322,
      "ĠGiven": 7323,
      "ĠLesson": 7324,
      "Ġstored": 7325,
      "ĠPolynomial": 7326,
      "ĠFigure": 7327,
      "\\*": 7328,
      "32": 7329,
      "HE": 7330,
      "Ġbarriers": 7331,
      "ht": 7332,
      "ĠJoin": 7333,
      "Ġrevealing": 7334,
      "Ġexh": 7335,
      "osses": 7336,
      "Ġflavors": 7337,
      "Ġenjoying": 7338,
      "Which": 7339,
      "Ġcopies": 7340,
      "ĠSal": 7341,
      "ewelry": 7342,
      "ĠPreparation": 7343,
      "Ġdatab": 7344,
      "}}{": 7345,
      "plays": 7346,
      "ĠSolving": 7347,
      "Ġthr": 7348,
      "Ġrelatively": 7349,
      "Ġpig": 7350,
      "Ġtele": 7351,
      "Ġdescribed": 7352,
      "Ġtactics": 7353,
      "Ġconv": 7354,
      "emb": 7355,
      "Ġphysi": 7356,
      "Ġannual": 7357,
      "Identify": 7358,
      "Ġincluded": 7359,
      "direct": 7360,
      "Ġplanet": 7361,
      "ĠCharacter": 7362,
      "Ġworked": 7363,
      "Ġhappened": 7364,
      "acting": 7365,
      "Ġdesigning": 7366,
      "Ġshade": 7367,
      "Ġintellectual": 7368,
      "Ġposts": 7369,
      "ĠColor": 7370,
      "Ġsteady": 7371,
      "Ġcouns": 7372,
      "Ġyellow": 7373,
      "related": 7374,
      "Your": 7375,
      "Ġobserving": 7376,
      "ĠStudy": 7377,
      "Ġbus": 7378,
      "Ġtrain": 7379,
      "Ġcompet": 7380,
      "Ġentities": 7381,
      "Where": 7382,
      "ectors": 7383,
      "Ġadjusting": 7384,
      "Ġarrive": 7385,
      "Ġadver": 7386,
      "Ġcoat": 7387,
      "Def": 7388,
      "Ġattempt": 7389,
      "Ġgam": 7390,
      "Ġfol": 7391,
      "Ġobservation": 7392,
      "atoes": 7393,
      "Ġdemonstrated": 7394,
      "Ġdebate": 7395,
      "ln": 7396,
      "Cong": 7397,
      "ml": 7398,
      "romag": 7399,
      "Ġestimate": 7400,
      "otient": 7401,
      "ĠDay": 7402,
      "oe": 7403,
      "Ġthreats": 7404,
      "Ġindependence": 7405,
      "Ġaligned": 7406,
      "ission": 7407,
      "LE": 7408,
      "Ġsuppose": 7409,
      "Ġplate": 7410,
      "Ġtrip": 7411,
      "Ġevolving": 7412,
      "Ġpractition": 7413,
      "ceal": 7414,
      "**.": 7415,
      "Ġmeasured": 7416,
      "Ġroad": 7417,
      "tish": 7418,
      "ĠClearly": 7419,
      "Ġpassions": 7420,
      "Ġdishes": 7421,
      "cont": 7422,
      "hemical": 7423,
      "Expl": 7424,
      "Ġbind": 7425,
      "Acc": 7426,
      "Ġdomains": 7427,
      "35": 7428,
      "Ġgrace": 7429,
      "ĠAdvent": 7430,
      "Ġvectors": 7431,
      "ID": 7432,
      "ĠUpon": 7433,
      "ĠBlack": 7434,
      "ocolate": 7435,
      "Trans": 7436,
      "ĠFore": 7437,
      "ĠTrig": 7438,
      "Ġgenerating": 7439,
      "Ġlibrary": 7440,
      "Ġraise": 7441,
      "Ġchrom": 7442,
      "Ġsuggesting": 7443,
      "Ġbad": 7444,
      "igration": 7445,
      "Ġtempor": 7446,
      "iration": 7447,
      "Ġtrou": 7448,
      "Dis": 7449,
      "ĠRev": 7450,
      "Ġsac": 7451,
      "Ġple": 7452,
      "Ġconduct": 7453,
      "ĠGroup": 7454,
      "veness": 7455,
      "level": 7456,
      "Ġallevi": 7457,
      "Ġraised": 7458,
      "disc": 7459,
      "qqqqqqqq": 7460,
      "ashing": 7461,
      "Ġharmony": 7462,
      "Ġunemployment": 7463,
      "Ġcher": 7464,
      "Ġbases": 7465,
      "Ġintake": 7466,
      "Ġcontrolling": 7467,
      "Ġderivatives": 7468,
      "Ġraw": 7469,
      "Ġneighbor": 7470,
      "Ġfrust": 7471,
      "Ġtowels": 7472,
      "Ġyoga": 7473,
      "Ġpassing": 7474,
      "Ġvertex": 7475,
      "Ġmilitary": 7476,
      "worth": 7477,
      "Ġcelebrate": 7478,
      "haps": 7479,
      "ker": 7480,
      "ĠMaterials": 7481,
      "endit": 7482,
      "Ġprime": 7483,
      "Ġinterior": 7484,
      "Ġpaths": 7485,
      "ĠCat": 7486,
      "Ġwrong": 7487,
      "Ġdistingu": 7488,
      "Ġteacher": 7489,
      "Ġheavily": 7490,
      "Ġrepeated": 7491,
      "Ġscene": 7492,
      "ĠDemonst": 7493,
      "Ġintroducing": 7494,
      "pection": 7495,
      "dt": 7496,
      "ĠRate": 7497,
      "Ġscore": 7498,
      "Ġparameters": 7499,
      "gn": 7500,
      "Ġlegis": 7501,
      "Alex": 7502,
      "Ġdoors": 7503,
      "Ġdeath": 7504,
      "LS": 7505,
      "Ġcontinues": 7506,
      "ĠNorth": 7507,
      "sia": 7508,
      "Ġmilestones": 7509,
      "do": 7510,
      "Ġheard": 7511,
      "Ġinduc": 7512,
      "ĠCreating": 7513,
      "ĠManage": 7514,
      "\\[": 7515,
      "illi": 7516,
      "Ġdisciplines": 7517,
      "etit": 7518,
      "Ġblend": 7519,
      "Ġcomputing": 7520,
      "ĠKing": 7521,
      "ulf": 7522,
      "Ġexpert": 7523,
      "ĠEmploy": 7524,
      "ĠFinal": 7525,
      "ĠGently": 7526,
      "Ġcombat": 7527,
      "Ġ...": 7528,
      "Ġenem": 7529,
      "Ġconstitutes": 7530,
      "Ind": 7531,
      "Ġhighest": 7532,
      "Ġinterpre": 7533,
      "ideo": 7534,
      "Ġflexible": 7535,
      "Ġreinforce": 7536,
      "Ġcontroversi": 7537,
      "ĠFill": 7538,
      "Ġthing": 7539,
      "Ġunknown": 7540,
      "500": 7541,
      "Ġchecks": 7542,
      "bor": 7543,
      "orter": 7544,
      "Ġpercep": 7545,
      "atomy": 7546,
      "Ġours": 7547,
      "Ġsought": 7548,
      "ĠWriting": 7549,
      "ĠLa": 7550,
      "Ġpurchases": 7551,
      "Ġintegrals": 7552,
      "RL": 7553,
      "Ġ2014": 7554,
      "Ġmilk": 7555,
      "Ġcodes": 7556,
      "Ġrew": 7557,
      "asy": 7558,
      "++": 7559,
      "Ġsetup": 7560,
      "Ġattempts": 7561,
      "Ġcompelling": 7562,
      "Ġperfectly": 7563,
      "ĠComplex": 7564,
      "irable": 7565,
      "Ġinitiatives": 7566,
      "Ġgraphing": 7567,
      "using": 7568,
      "uler": 7569,
      "ĠInternational": 7570,
      "ĠSouth": 7571,
      "ellular": 7572,
      "27": 7573,
      "pirations": 7574,
      "ĠFactors": 7575,
      "ĠCr": 7576,
      "Ġcalculation": 7577,
      "Ġinconsist": 7578,
      "Sp": 7579,
      "Ġdisapp": 7580,
      "Ġaesthetic": 7581,
      "ĠLiberty": 7582,
      "ĠJapan": 7583,
      "wo": 7584,
      "uli": 7585,
      "ĠBar": 7586,
      "Ġdiffer": 7587,
      "Ġprogressive": 7588,
      "Ġrepeat": 7589,
      "Ġserious": 7590,
      "ĠBC": 7591,
      "ĠApplications": 7592,
      "Ġcandidates": 7593,
      "Ġreflecting": 7594,
      "Over": 7595,
      "ometric": 7596,
      "ece": 7597,
      "Ġphilosoph": 7598,
      "Ġvertically": 7599,
      "Algebra": 7600,
      "ued": 7601,
      "Ġgall": 7602,
      "nes": 7603,
      "ervous": 7604,
      "ĠChoosing": 7605,
      "urch": 7606,
      "Ġmeters": 7607,
      "Ġregional": 7608,
      "Ġcrow": 7609,
      "Ġhairst": 7610,
      "ĠGDP": 7611,
      "Ġfeas": 7612,
      "Ġbiological": 7613,
      "othe": 7614,
      "Ġchicken": 7615,
      "Ġmentors": 7616,
      "CO": 7617,
      "Ġbit": 7618,
      "Ġbanks": 7619,
      "Ġlinked": 7620,
      "mat": 7621,
      "Ġpin": 7622,
      "Ġinch": 7623,
      "ĠStyle": 7624,
      "Ġradio": 7625,
      "Ġdiver": 7626,
      "Ġbranches": 7627,
      "ĠNavigate": 7628,
      "Ġadults": 7629,
      "Ġox": 7630,
      "Ġcoming": 7631,
      "Ġfaces": 7632,
      "Ġmisunderstand": 7633,
      "Ġmal": 7634,
      "eros": 7635,
      "sub": 7636,
      "ercial": 7637,
      "erves": 7638,
      "Ġapple": 7639,
      "TP": 7640,
      "sm": 7641,
      "boxed": 7642,
      "Ġmonthly": 7643,
      "Ġfolder": 7644,
      "Ġmount": 7645,
      "Ġshell": 7646,
      "chie": 7647,
      "Ġsurpr": 7648,
      "Ġauthority": 7649,
      "abil": 7650,
      "/>": 7651,
      "Ġinstalled": 7652,
      "----------------------------------": 7653,
      "ĠEmo": 7654,
      "Ġgained": 7655,
      "even": 7656,
      "Ġmul": 7657,
      "Materials": 7658,
      "Ġspray": 7659,
      "Ġcommercial": 7660,
      "Ġemphasize": 7661,
      "ĠVir": 7662,
      "Ġload": 7663,
      "Ġmovies": 7664,
      "Ġtemporary": 7665,
      "ncy": 7666,
      "Ġgram": 7667,
      "ĠStat": 7668,
      "ĠDel": 7669,
      "Ġidentification": 7670,
      "Ġnuclear": 7671,
      "Ġperceived": 7672,
      "ĠCO": 7673,
      "ĠOptions": 7674,
      "Ġsecrets": 7675,
      "________": 7676,
      "Ġthous": 7677,
      "Ġexperiencing": 7678,
      "Ġoblig": 7679,
      "ĠModule": 7680,
      "ĠCarefully": 7681,
      "Ġstaff": 7682,
      "ĠAdop": 7683,
      "Ġdocumentation": 7684,
      "eted": 7685,
      "Ġattacks": 7686,
      "ĠRest": 7687,
      "Ġdeciding": 7688,
      "Ġimproves": 7689,
      "Through": 7690,
      "ĠPhysical": 7691,
      "65": 7692,
      "Ġgrains": 7693,
      "ĠVisit": 7694,
      "Ġadjacent": 7695,
      "Ġbub": 7696,
      "Ġsummer": 7697,
      "Ġvisiting": 7698,
      "Ġmembrane": 7699,
      "ocy": 7700,
      "Graph": 7701,
      "mates": 7702,
      "ĠRecent": 7703,
      "Ġgathering": 7704,
      "ĠApplication": 7705,
      "tistic": 7706,
      "Ġdiscrepancies": 7707,
      "Ġgauge": 7708,
      "Ġwatching": 7709,
      "New": 7710,
      "Ġautomatically": 7711,
      "\":": 7712,
      "Ġgro": 7713,
      "erious": 7714,
      "Ġnit": 7715,
      "Ġdefinitions": 7716,
      "Ġsignifies": 7717,
      "apers": 7718,
      "eta": 7719,
      "odynam": 7720,
      "fits": 7721,
      "ĠPati": 7722,
      "Ġquantitative": 7723,
      "Ġcoping": 7724,
      "Ġdrawn": 7725,
      "Real": 7726,
      "umber": 7727,
      "ĠRout": 7728,
      "Ġrain": 7729,
      "ĠAbout": 7730,
      "Ġresist": 7731,
      "Ġblank": 7732,
      "CH": 7733,
      "ĠCut": 7734,
      "Ġcovering": 7735,
      "Ġactionable": 7736,
      "Ġobtaining": 7737,
      "Ġprolong": 7738,
      "aining": 7739,
      "Ġtargets": 7740,
      "ĠDisplay": 7741,
      "Ġrib": 7742,
      "Ġfinance": 7743,
      "ĠMath": 7744,
      "Ġuncom": 7745,
      "Ġpil": 7746,
      "Ġsheet": 7747,
      "Ġap": 7748,
      "inegar": 7749,
      "gement": 7750,
      "Ġnail": 7751,
      "ĠHyd": 7752,
      ".âĢĿ": 7753,
      "fac": 7754,
      "Name": 7755,
      "Ġprominent": 7756,
      "ppy": 7757,
      "Ġdivis": 7758,
      "ĠHT": 7759,
      "Ġweigh": 7760,
      "ĠProduct": 7761,
      "Ġinvestments": 7762,
      "sue": 7763,
      "Ġrush": 7764,
      "iscal": 7765,
      "gal": 7766,
      "ĨĴ": 7767,
      "cluding": 7768,
      "dimensional": 7769,
      "Ġownership": 7770,
      "structure": 7771,
      "Ġbottle": 7772,
      "mathrm": 7773,
      "Ġloan": 7774,
      "friendly": 7775,
      "ĠMarketing": 7776,
      "ĠFrench": 7777,
      "ĠCy": 7778,
      "Ġcomments": 7779,
      "ĠAmericans": 7780,
      "Ġballs": 7781,
      "ĠWithin": 7782,
      "ĠBri": 7783,
      "ĠChris": 7784,
      "Ġemerge": 7785,
      "Ġgeneration": 7786,
      "ĠPoints": 7787,
      "ĠHappiness": 7788,
      "ĠStrong": 7789,
      "Ġmetabol": 7790,
      "ĠSometimes": 7791,
      "Ġdiscovery": 7792,
      "Ġcoffee": 7793,
      "cons": 7794,
      "Ġfram": 7795,
      "Ġtextures": 7796,
      "ĠNonetheless": 7797,
      "Ġswimming": 7798,
      "Ġencounters": 7799,
      "Ġreputation": 7800,
      "heses": 7801,
      "iation": 7802,
      "Ġversions": 7803,
      "Ġ180": 7804,
      "jective": 7805,
      "Ġclin": 7806,
      "ierarch": 7807,
      "Ġplacement": 7808,
      "Ġpractitioners": 7809,
      "zym": 7810,
      "ĠEuropean": 7811,
      "Ġbinomial": 7812,
      "Ġglue": 7813,
      "Ġcomputational": 7814,
      "Ġfilling": 7815,
      "ĠEss": 7816,
      "Ġchemicals": 7817,
      "Ġsubstances": 7818,
      "Congratulations": 7819,
      "Ġions": 7820,
      "Ġexecution": 7821,
      "ĠNotably": 7822,
      "ĠPrice": 7823,
      "Ġshoulders": 7824,
      "Ġreaches": 7825,
      "ĠwikiHow": 7826,
      "Ġclosed": 7827,
      "ĠBehavior": 7828,
      "fty": 7829,
      "Ġdeadlines": 7830,
      "Ġtells": 7831,
      "Ġgenuinely": 7832,
      "Ġlighter": 7833,
      "Ġdiges": 7834,
      "Ġpool": 7835,
      "Ġsimpler": 7836,
      "Ġpaying": 7837,
      "ĠAppropriate": 7838,
      "Ġweekly": 7839,
      "Ġintricacies": 7840,
      "Ġconventions": 7841,
      "Ġbrands": 7842,
      "Ġrepeti": 7843,
      "ameter": 7844,
      "Ġcarrying": 7845,
      "amount": 7846,
      "RO": 7847,
      "Ġstro": 7848,
      "ĠContinu": 7849,
      "Ġreality": 7850,
      "Ġaspirations": 7851,
      "Ġbirds": 7852,
      "Ġcongru": 7853,
      "gence": 7854,
      "ĠImport": 7855,
      "Ġoils": 7856,
      "ĠHy": 7857,
      "Ġmanipulation": 7858,
      "Ġinterplay": 7859,
      "ype": 7860,
      "Ġadvoc": 7861,
      "Ġdru": 7862,
      "Ġfactoring": 7863,
      "Ġ:": 7864,
      "lections": 7865,
      "Ġfailure": 7866,
      "Ġped": 7867,
      "Ġknows": 7868,
      "Ġneu": 7869,
      "Equ": 7870,
      "Ġcenters": 7871,
      "Ġcompromise": 7872,
      "Ġadopting": 7873,
      "CD": 7874,
      "Ġclients": 7875,
      "Ġeleg": 7876,
      "Ġmetrics": 7877,
      "Ġpressures": 7878,
      "Ġconverting": 7879,
      "ĠLastly": 7880,
      "Ġproportions": 7881,
      "Ġsearching": 7882,
      "ĠSym": 7883,
      "izer": 7884,
      "Ġvoltage": 7885,
      "Ġwis": 7886,
      "Ġcohe": 7887,
      "Ġaccommodate": 7888,
      "Ġattractive": 7889,
      "ĠFire": 7890,
      "Ġconfigurations": 7891,
      "Ġyours": 7892,
      "Ġproviders": 7893,
      "Ġking": 7894,
      "Ġly": 7895,
      "Ġcollected": 7896,
      "Ġproficiency": 7897,
      "0000": 7898,
      "Ġprofits": 7899,
      "anch": 7900,
      "Ġextending": 7901,
      "terior": 7902,
      "Ġranges": 7903,
      "Ġproportion": 7904,
      "Ġdomestic": 7905,
      "ĠWi": 7906,
      "Ġdiscipline": 7907,
      "Ġendeavors": 7908,
      "67": 7909,
      "pling": 7910,
      "Ġelectro": 7911,
      "Ġnecessitating": 7912,
      "da": 7913,
      "Ġwindows": 7914,
      "icating": 7915,
      "Ġdrag": 7916,
      "ĠProperties": 7917,
      "Ġancient": 7918,
      "Ġsession": 7919,
      "icine": 7920,
      "Ġminute": 7921,
      "Ġattributes": 7922,
      "Ġfamous": 7923,
      "Ġfinished": 7924,
      "ĠAndroid": 7925,
      "Ġsubtract": 7926,
      "Ġinh": 7927,
      "Ġorientation": 7928,
      "63": 7929,
      "Ġoutline": 7930,
      "mas": 7931,
      "Ġbasket": 7932,
      "Par": 7933,
      "onometry": 7934,
      "mediate": 7935,
      "Ġexcep": 7936,
      "Ġagree": 7937,
      "}$,": 7938,
      "Ġlift": 7939,
      "Ġspo": 7940,
      "Ġrelying": 7941,
      "organ": 7942,
      "Ġadm": 7943,
      "rimination": 7944,
      "Ġperiodically": 7945,
      "Ġsplit": 7946,
      "Ġsecondary": 7947,
      "Ġcontract": 7948,
      "Ġdepos": 7949,
      "Ġconfusion": 7950,
      "Ġhinder": 7951,
      "ĠExcel": 7952,
      "ĠActive": 7953,
      "Ġachieved": 7954,
      "Ġpursuing": 7955,
      "het": 7956,
      "Ġcompr": 7957,
      "Ġidentities": 7958,
      "Ġretail": 7959,
      "---|---|": 7960,
      "Ġ2020": 7961,
      "Ġcleans": 7962,
      "Ġcontrols": 7963,
      "Ġunlike": 7964,
      "Develop": 7965,
      "Ġassume": 7966,
      "hero": 7967,
      "ĠID": 7968,
      "Ġattached": 7969,
      "Ġdistribute": 7970,
      "Ġupwards": 7971,
      "Ġcommand": 7972,
      "Ġelastic": 7973,
      "Ġagreement": 7974,
      "ĠGame": 7975,
      "obe": 7976,
      "Ġrows": 7977,
      "oved": 7978,
      "ĠSecure": 7979,
      "Organ": 7980,
      "Ġpounds": 7981,
      "Ġcompetit": 7982,
      "Ġopens": 7983,
      "Ġdelves": 7984,
      "Ġcuts": 7985,
      "storm": 7986,
      "Ġfinally": 7987,
      "ĠGen": 7988,
      "ĠHold": 7989,
      "Ġmeat": 7990,
      "Ġachievable": 7991,
      "Ġentertainment": 7992,
      ")-": 7993,
      "Ġinvestors": 7994,
      "tiqu": 7995,
      "Ġcounting": 7996,
      "Ġprotecting": 7997,
      "Ġremoval": 7998,
      "Ġhormon": 7999,
      "Ġpermission": 8000,
      "anes": 8001,
      "abel": 8002,
      "ĠLocate": 8003,
      "anguages": 8004,
      "ĠOnly": 8005,
      "Ġdimin": 8006,
      "isk": 8007,
      "Ġneither": 8008,
      "Ġcloud": 8009,
      "Ġbrought": 8010,
      "ĠFile": 8011,
      "Ġjewelry": 8012,
      "Ġoutdoor": 8013,
      "Ġparticle": 8014,
      "}_{": 8015,
      "ĠRespon": 8016,
      "rability": 8017,
      "ĠTerms": 8018,
      "Ġinjuries": 8019,
      "Ġartists": 8020,
      "oning": 8021,
      "issions": 8022,
      "ateral": 8023,
      "ĠFollowing": 8024,
      "ented": 8025,
      "gent": 8026,
      "Ġbread": 8027,
      "ĠIndeed": 8028,
      "ĠAmong": 8029,
      "Ġplenty": 8030,
      "ommy": 8031,
      "ĠBetween": 8032,
      "Ġcontainers": 8033,
      "Ġalthough": 8034,
      "illa": 8035,
      "Ġwarmth": 8036,
      "98": 8037,
      "Ġaccomplishments": 8038,
      "Ġbasics": 8039,
      "opol": 8040,
      "Ġexceed": 8041,
      "ressing": 8042,
      "lows": 8043,
      "ears": 8044,
      "cription": 8045,
      "Ġstatistics": 8046,
      "Ġsoda": 8047,
      "ĠEquation": 8048,
      "Ġinspire": 8049,
      ")]": 8050,
      "Ġsort": 8051,
      "Ġgenerations": 8052,
      "Ġrig": 8053,
      "Ġrent": 8054,
      "Ġholes": 8055,
      "NS": 8056,
      "Clean": 8057,
      "Ġrecipe": 8058,
      "Ġclaims": 8059,
      "ials": 8060,
      "Ġinteracting": 8061,
      "Ġempty": 8062,
      "Ġrating": 8063,
      "edge": 8064,
      "ĠChanges": 8065,
      "ĠGod": 8066,
      "Ġknees": 8067,
      "Ġsky": 8068,
      "Ġmechanical": 8069,
      "Ġusern": 8070,
      "Ġexperts": 8071,
      "Ġgains": 8072,
      "Setting": 8073,
      "Ġsensitivity": 8074,
      "Ġreduction": 8075,
      "$:": 8076,
      "orrect": 8077,
      "Ġsocieties": 8078,
      "ĠTem": 8079,
      "Ġwonderful": 8080,
      "Ġsend": 8081,
      "ping": 8082,
      "Ġadaptability": 8083,
      "Ġphysically": 8084,
      "Ġdigits": 8085,
      "Ġruns": 8086,
      "Ġbird": 8087,
      "plied": 8088,
      "Ġstyl": 8089,
      "aware": 8090,
      "Ġadult": 8091,
      "Ġfacts": 8092,
      "Ġveter": 8093,
      "ĠPolicy": 8094,
      "Ġorganizing": 8095,
      "ĠBel": 8096,
      ")*": 8097,
      "Ġinfinite": 8098,
      "ountered": 8099,
      "ordinate": 8100,
      "ï¸": 8101,
      "Ġaccompan": 8102,
      "Ġpositivity": 8103,
      "Ġlatest": 8104,
      "Ġjoint": 8105,
      "Ġmisunderstandings": 8106,
      "ĠPotential": 8107,
      "Is": 8108,
      "}}\\": 8109,
      "ummy": 8110,
      "Ġsubstitution": 8111,
      "idity": 8112,
      "Ġpizza": 8113,
      "Ġteen": 8114,
      "Ġshop": 8115,
      "Ġrepair": 8116,
      "Ġfocuses": 8117,
      "embly": 8118,
      "Ġfrag": 8119,
      "Ġdefault": 8120,
      "ĠStatis": 8121,
      "AAAAAAAAAAAAAAAAAAAAAAAAAAAAAAAA": 8122,
      "ĠWait": 8123,
      "ielding": 8124,
      "Ġfra": 8125,
      "Ġperman": 8126,
      "Ġadherence": 8127,
      "Ġstic": 8128,
      "Ġencountered": 8129,
      "ticing": 8130,
      "Ġconservation": 8131,
      "Ġscar": 8132,
      "versal": 8133,
      "Ġhomes": 8134,
      "Ġagents": 8135,
      "Ġwisely": 8136,
      "Ġcapturing": 8137,
      "parts": 8138,
      "ĠOrganize": 8139,
      "33": 8140,
      "ĠIdeally": 8141,
      "Ġram": 8142,
      "Ġdiscount": 8143,
      "Ġtransparency": 8144,
      "IV": 8145,
      "Ġcollecting": 8146,
      "Ġteeth": 8147,
      "Ġrepresentations": 8148,
      "Ġsexual": 8149,
      "rational": 8150,
      "ĠYork": 8151,
      "ĠActivity": 8152,
      "which": 8153,
      "Ġrapport": 8154,
      "Ġhydro": 8155,
      "Ġindustrial": 8156,
      "cell": 8157,
      "Ġfilm": 8158,
      "Ġcleaner": 8159,
      "ohns": 8160,
      "Ġdistributions": 8161,
      "oroughly": 8162,
      "Ġearnings": 8163,
      "}_": 8164,
      "vit": 8165,
      "ĠBritish": 8166,
      "ĠPursuit": 8167,
      "Ġradical": 8168,
      ")$,": 8169,
      "inetic": 8170,
      "Ġrhyth": 8171,
      "Ġscales": 8172,
      "ĠMedia": 8173,
      "Ġexpensive": 8174,
      "Ġpeak": 8175,
      "Ġsy": 8176,
      "Ġmodify": 8177,
      "Ġattack": 8178,
      "Ġreliability": 8179,
      "Care": 8180,
      "Ġven": 8181,
      "oops": 8182,
      "Ġquantum": 8183,
      "Ġ2013": 8184,
      "rehe": 8185,
      "iff": 8186,
      "Ġtrigonometric": 8187,
      "ĠCompare": 8188,
      "Ġwarrant": 8189,
      "Ġhealthier": 8190,
      "Ġourselves": 8191,
      "PT": 8192,
      "Ġdx": 8193,
      "----------": 8194,
      "Ġbacterial": 8195,
      "ricular": 8196,
      "estures": 8197,
      "ĠAud": 8198,
      "Ġprocedure": 8199,
      "ĠContinue": 8200,
      "ĠCre": 8201,
      "ooting": 8202,
      "wear": 8203,
      "Ġpivotal": 8204,
      "09": 8205,
      "Ġrenew": 8206,
      "Ġcouple": 8207,
      "SS": 8208,
      "ĠConclusion": 8209,
      "ĠQues": 8210,
      "vance": 8211,
      "Ġcontrolled": 8212,
      "Ġaccessibility": 8213,
      "Ġhes": 8214,
      "Ġelucidate": 8215,
      "vas": 8216,
      "idation": 8217,
      "epl": 8218,
      "Ġknife": 8219,
      "Ġcaution": 8220,
      "Ġmoistur": 8221,
      "Ġera": 8222,
      "Ġatomic": 8223,
      "Ġdescriptions": 8224,
      "rots": 8225,
      "ĠPC": 8226,
      "Ġloans": 8227,
      "ĠExplain": 8228,
      "Ġfalls": 8229,
      "Ġdear": 8230,
      "Ġrecording": 8231,
      "ĠSpeak": 8232,
      "Ġoven": 8233,
      "Ġremark": 8234,
      "Ġimplies": 8235,
      "Ġ21": 8236,
      "Ġequality": 8237,
      "Ġbiases": 8238,
      "Ġwit": 8239,
      "Ġparamount": 8240,
      "othing": 8241,
      "Ġsqrt": 8242,
      "aught": 8243,
      "see": 8244,
      "ynthesis": 8245,
      "Ġconstruct": 8246,
      "Ġelectricity": 8247,
      "Ġharness": 8248,
      "infty": 8249,
      "ĠLanguage": 8250,
      "Ġemployee": 8251,
      "wood": 8252,
      "ĠAge": 8253,
      "Ġslices": 8254,
      "ĠRecall": 8255,
      "Ġpushing": 8256,
      "fulness": 8257,
      "Ġagric": 8258,
      ")$.": 8259,
      "ordination": 8260,
      "Ġcryst": 8261,
      "Ġatten": 8262,
      "Ġearth": 8263,
      "Begin": 8264,
      "Ġtempl": 8265,
      "Ġgift": 8266,
      "Ġfi": 8267,
      "Ġreports": 8268,
      "Ġsea": 8269,
      "Fi": 8270,
      "Keep": 8271,
      "Prep": 8272,
      "Ġlots": 8273,
      "Ġexac": 8274,
      "Ġcourt": 8275,
      "OT": 8276,
      "ensation": 8277,
      "estern": 8278,
      "Ġmeetings": 8279,
      "Ġniche": 8280,
      "Ġaudiences": 8281,
      "egu": 8282,
      "ĠâīĪ": 8283,
      "arrow": 8284,
      "sec": 8285,
      "Ġreciproc": 8286,
      "Ġexplicitly": 8287,
      "ticians": 8288,
      "ĠURL": 8289,
      "ello": 8290,
      "ĠYOU": 8291,
      "Ġcurrency": 8292,
      "Ġexacerb": 8293,
      "Ġscre": 8294,
      "Ġentries": 8295,
      "ĠDownload": 8296,
      "Ġmotor": 8297,
      "irrel": 8298,
      "ĠCalculate": 8299,
      "Ġprofiles": 8300,
      "riction": 8301,
      "Ġdisplac": 8302,
      "Ġimplementation": 8303,
      "Ġdenote": 8304,
      "Ġremoved": 8305,
      "Ġnation": 8306,
      "ĠEnt": 8307,
      "Ġlinks": 8308,
      "Ġ2021": 8309,
      "Have": 8310,
      "Ġreporting": 8311,
      "idesp": 8312,
      "liers": 8313,
      "ĠImp": 8314,
      "Ġuncomfortable": 8315,
      "Ġemails": 8316,
      "Ġreferred": 8317,
      "Ġromantic": 8318,
      "Ġhiding": 8319,
      "Ġlosing": 8320,
      "uum": 8321,
      "ĠUniversity": 8322,
      "Ġdifficulty": 8323,
      "Ġsongs": 8324,
      "Ġcontrac": 8325,
      ":_": 8326,
      "Ed": 8327,
      "Ġflows": 8328,
      "Ġguides": 8329,
      "Ġintentions": 8330,
      "Ass": 8331,
      "Ġlose": 8332,
      "Ġcounterparts": 8333,
      "idespread": 8334,
      "Table": 8335,
      "ĠPoli": 8336,
      "Ġdisplays": 8337,
      "Ġlung": 8338,
      ")+": 8339,
      "ĠDeb": 8340,
      "Ġnuts": 8341,
      "Ġlabel": 8342,
      "ohnson": 8343,
      "romagnetic": 8344,
      "Ġtends": 8345,
      "------------------------------": 8346,
      "Ġdaunting": 8347,
      "Ġmysterious": 8348,
      "Gra": 8349,
      "Ġoverly": 8350,
      "Ġstuff": 8351,
      "Ġshoulder": 8352,
      "Ġpictures": 8353,
      "Ġstretch": 8354,
      "redit": 8355,
      "Ġfulfilling": 8356,
      "stim": 8357,
      "Ġrectangular": 8358,
      "Ġavenues": 8359,
      "Ġbold": 8360,
      "ĠFree": 8361,
      "Ġperm": 8362,
      "ĠExpressions": 8363,
      "ĠPurch": 8364,
      "ĠMaintaining": 8365,
      "Ġallocation": 8366,
      "nic": 8367,
      "Place": 8368,
      "ĠCele": 8369,
      "Ġraising": 8370,
      "verbal": 8371,
      "ardro": 8372,
      "onds": 8373,
      "Ġreleasing": 8374,
      "Ġbedtime": 8375,
      "ĠCard": 8376,
      "Ġversatile": 8377,
      "Ġverbal": 8378,
      "Ġpace": 8379,
      "Ġreleased": 8380,
      "ĠStick": 8381,
      "No": 8382,
      "oral": 8383,
      "Ġears": 8384,
      "Ġhierarch": 8385,
      "Ġsunny": 8386,
      "Ġinputs": 8387,
      "Ġalleviate": 8388,
      "Ġlanguages": 8389,
      "Ġconcrete": 8390,
      "imeter": 8391,
      "Ġwidespread": 8392,
      "Ġeyel": 8393,
      "Ġfabrics": 8394,
      "Ġmixing": 8395,
      "ĠChina": 8396,
      "ĠMultiplying": 8397,
      "Ġclub": 8398,
      "Ġtank": 8399,
      "Ġchocolate": 8400,
      "Ġpresents": 8401,
      "Ġsurroundings": 8402,
      "Ġconducive": 8403,
      "Work": 8404,
      "arks": 8405,
      "click": 8406,
      "Ġdried": 8407,
      "ĠTou": 8408,
      "Ġexch": 8409,
      "Ġbeforehand": 8410,
      "Ġconventional": 8411,
      "lity": 8412,
      "Ġcats": 8413,
      "Ġcolored": 8414,
      "Ġdisparities": 8415,
      "ĠDiv": 8416,
      "chen": 8417,
      "Ġfats": 8418,
      "Ġcomprehe": 8419,
      "Ġstrain": 8420,
      "Ġcelebr": 8421,
      "Exp": 8422,
      "Ġexistence": 8423,
      "Ġhandy": 8424,
      "Ġreverse": 8425,
      "Ġcalculating": 8426,
      "tons": 8427,
      "neg": 8428,
      "Ġbuildup": 8429,
      "More": 8430,
      "ĠEle": 8431,
      "Ġarising": 8432,
      "Ġseparately": 8433,
      "Ġdifferential": 8434,
      "Ġconve": 8435,
      "Follow": 8436,
      "Ġrender": 8437,
      "Ġvinegar": 8438,
      "Ġcompatible": 8439,
      "ĠEth": 8440,
      "ossible": 8441,
      "Ġcommitted": 8442,
      "Skr": 8443,
      "ho": 8444,
      "jection": 8445,
      "Ġ28": 8446,
      "ĠChrist": 8447,
      "ested": 8448,
      "Man": 8449,
      "athered": 8450,
      "Ġneighborhood": 8451,
      "ĠId": 8452,
      "Ġindependently": 8453,
      "Ġmanufacturing": 8454,
      "Ġstakeholders": 8455,
      "Ġcycles": 8456,
      "Ġdict": 8457,
      "Ġgestures": 8458,
      "tituting": 8459,
      "ĠVerify": 8460,
      "Ġloyalty": 8461,
      "Ġbonding": 8462,
      "anas": 8463,
      "Ġconsiderable": 8464,
      "Ġfeeding": 8465,
      "Ġpose": 8466,
      "Ġparentheses": 8467,
      "Ġsecuring": 8468,
      "Ġleader": 8469,
      "Ġhardware": 8470,
      "avery": 8471,
      "Ġvic": 8472,
      "Ġbones": 8473,
      "Ġstruggle": 8474,
      "urturing": 8475,
      "Ġmanagers": 8476,
      "Ġshorter": 8477,
      "48": 8478,
      "Ġrevolution": 8479,
      "Ġmotions": 8480,
      "iday": 8481,
      "ĠActivities": 8482,
      "Ġtreating": 8483,
      "ĠImprove": 8484,
      "ĠExercise": 8485,
      "orporate": 8486,
      "Ġmother": 8487,
      "Ġclassical": 8488,
      "ĠTurn": 8489,
      "Ġenrich": 8490,
      "Ġexponent": 8491,
      "ĠTri": 8492,
      "ricks": 8493,
      "Ġassessment": 8494,
      "yling": 8495,
      "ĠDemand": 8496,
      "Ġcomposed": 8497,
      "ĠNetwork": 8498,
      "Ġperiodic": 8499,
      "Ġdataset": 8500,
      "Ġregression": 8501,
      "ĠMeanwhile": 8502,
      "Ġasp": 8503,
      "ĠSquare": 8504,
      "ĠOf": 8505,
      "Ġdownward": 8506,
      "Ġorganize": 8507,
      "Ġboy": 8508,
      "Ġ($\\": 8509,
      "Ġplus": 8510,
      "issors": 8511,
      "posal": 8512,
      "Ġcamera": 8513,
      "wing": 8514,
      "Ġdatasets": 8515,
      "hesi": 8516,
      "can": 8517,
      "Ġcouldn": 8518,
      "ĠWho": 8519,
      "etermining": 8520,
      "xic": 8521,
      "Ġdescription": 8522,
      "Ġ'ðŁ": 8523,
      "Ġdetermin": 8524,
      "Ġfacilitates": 8525,
      "ĠCurrent": 8526,
      "Ġscores": 8527,
      "Ġvehicles": 8528,
      "Ġdisplayed": 8529,
      "Ġnecessitates": 8530,
      "Ġvan": 8531,
      "confidence": 8532,
      "Ġcompeting": 8533,
      "Ġdesire": 8534,
      "Ġfoundational": 8535,
      "Ġsaved": 8536,
      "Ġwisdom": 8537,
      "Ġkid": 8538,
      "Ġhappening": 8539,
      "urrent": 8540,
      "Ġdanger": 8541,
      "conn": 8542,
      "iratory": 8543,
      "ĠContact": 8544,
      "World": 8545,
      "Ġtangent": 8546,
      "ĠSharing": 8547,
      "Ġassessing": 8548,
      "ĠpH": 8549,
      "Design": 8550,
      "Ġchlor": 8551,
      "Ġupcoming": 8552,
      "Ġshowcase": 8553,
      "Ġmachines": 8554,
      "Ġ36": 8555,
      "Ġmolecule": 8556,
      "ĠLo": 8557,
      "Ġign": 8558,
      "Ġspati": 8559,
      "Ġoverview": 8560,
      "zen": 8561,
      "aylor": 8562,
      "ague": 8563,
      "zon": 8564,
      "Ġtub": 8565,
      "Ġmoral": 8566,
      "Ġsubsc": 8567,
      "ĠNatural": 8568,
      "Ġinterpersonal": 8569,
      "Draw": 8570,
      "uits": 8571,
      "Ġast": 8572,
      "Ġpolitics": 8573,
      "List": 8574,
      "ĠAbs": 8575,
      "ĠEnh": 8576,
      "ĠDevelopment": 8577,
      "Ġscrutin": 8578,
      "Ġbuilds": 8579,
      "Ġpositioning": 8580,
      "ĠThought": 8581,
      "Ġinfra": 8582,
      "isit": 8583,
      "value": 8584,
      "AM": 8585,
      "ĠCir": 8586,
      "Ġrewrite": 8587,
      "Ġthanks": 8588,
      "Ġelig": 8589,
      "Ġenjoyment": 8590,
      "Ġ$<<": 8591,
      "ĠðŁ": 8592,
      "ardrobe": 8593,
      "aters": 8594,
      "ĠSte": 8595,
      "Ġindicators": 8596,
      ".$$": 8597,
      "img": 8598,
      "Ġspin": 8599,
      "Ġneat": 8600,
      "================================================": 8601,
      "ĠDifferent": 8602,
      "IiIiIiIi": 8603,
      "ĠHor": 8604,
      "Ġpredictions": 8605,
      "ĠHealthy": 8606,
      "anged": 8607,
      "party": 8608,
      "Ġaggressive": 8609,
      "Ġexcited": 8610,
      "Ġconceal": 8611,
      "ĠLand": 8612,
      "?'.": 8613,
      "usive": 8614,
      "Ġlosses": 8615,
      "agraph": 8616,
      "Ġinflamm": 8617,
      "ĠCD": 8618,
      "ĠLabor": 8619,
      "Ġchanged": 8620,
      "Ġtiming": 8621,
      "Ġseal": 8622,
      "born": 8623,
      "Ġempow": 8624,
      "Ġabsorption": 8625,
      "edding": 8626,
      "Ġemergency": 8627,
      "Ġfibers": 8628,
      "=-": 8629,
      "Ġtransmission": 8630,
      "ĠAssoci": 8631,
      "Proper": 8632,
      "ĠWhite": 8633,
      "itations": 8634,
      "ĠTools": 8635,
      "ĠEarly": 8636,
      "Ġfrequent": 8637,
      "Ġgathered": 8638,
      "ĠTotal": 8639,
      "ĠSoci": 8640,
      "Ġcasual": 8641,
      "Ġcities": 8642,
      "faceted": 8643,
      "Ġmanually": 8644,
      "Ġlists": 8645,
      "Ġencouragement": 8646,
      "lecular": 8647,
      "alpha": 8648,
      "Ġoccasionally": 8649,
      "folio": 8650,
      "ĠPublic": 8651,
      "Ġrice": 8652,
      "ĠPoint": 8653,
      "Ġgovernments": 8654,
      "partial": 8655,
      "length": 8656,
      "ĠConstruc": 8657,
      "bu": 8658,
      "ĠPerfect": 8659,
      "Take": 8660,
      "Ġconsisting": 8661,
      "Ġreached": 8662,
      "titudes": 8663,
      "bound": 8664,
      "Ġcast": 8665,
      "obby": 8666,
      "Ġrestaur": 8667,
      "44": 8668,
      "Ġmastery": 8669,
      "Ġbiology": 8670,
      "aired": 8671,
      "Ġpals": 8672,
      "igen": 8673,
      "ĠEast": 8674,
      "ologists": 8675,
      "Ġadopt": 8676,
      "Ġsnow": 8677,
      "oids": 8678,
      "Ġdw": 8679,
      "ticle": 8680,
      "Ġreleases": 8681,
      "Ġcellular": 8682,
      "ĠDirect": 8683,
      "Ġwra": 8684,
      "utri": 8685,
      "ĠMusic": 8686,
      "Subtract": 8687,
      "ĠPet": 8688,
      "Ġinterpretations": 8689,
      "Ġslide": 8690,
      "Ġshifting": 8691,
      "Ġbackgrounds": 8692,
      "ĠBudget": 8693,
      "Ġkil": 8694,
      "Ġperf": 8695,
      "Ġcovers": 8696,
      "Ġcarb": 8697,
      "itors": 8698,
      "Ġ35": 8699,
      "ĠState": 8700,
      "Ġdamaging": 8701,
      "ĠAma": 8702,
      "Ġremarkable": 8703,
      "Ġthread": 8704,
      "Ġfan": 8705,
      "Ġabstract": 8706,
      "Ġdiameter": 8707,
      "`.": 8708,
      "Ġdietary": 8709,
      "Ġcake": 8710,
      "Ġextant": 8711,
      "ĠDepending": 8712,
      "Ġtissues": 8713,
      "Ġcampaigns": 8714,
      "ĠAgain": 8715,
      "Ġphosph": 8716,
      "ugging": 8717,
      "Ġdecreases": 8718,
      "========================================": 8719,
      "ĠCount": 8720,
      "Ġtraditions": 8721,
      "Ġdisagre": 8722,
      "Ġartwork": 8723,
      "Ġspanning": 8724,
      "Ġattitude": 8725,
      "plicity": 8726,
      "ĠAllocate": 8727,
      "Ġhips": 8728,
      "Ġring": 8729,
      "aughter": 8730,
      "Ġbeloved": 8731,
      "Ġstit": 8732,
      "uters": 8733,
      "Ġjuice": 8734,
      "ĠSpecial": 8735,
      "emon": 8736,
      "ĠSolution": 8737,
      "cknow": 8738,
      "She": 8739,
      "phones": 8740,
      "dual": 8741,
      "Ġovercome": 8742,
      "Ġfunctioning": 8743,
      "Ġcomplementary": 8744,
      "Multi": 8745,
      "Ġ->": 8746,
      "arithms": 8747,
      "Ġench": 8748,
      "Ġ27": 8749,
      "Ġtwist": 8750,
      "Ġmini": 8751,
      "ĠVideo": 8752,
      "Ġbringing": 8753,
      "with": 8754,
      "Ġallocate": 8755,
      "Ġspecializing": 8756,
      "Ġtraject": 8757,
      "tising": 8758,
      "Ġdisorders": 8759,
      "ĠProperty": 8760,
      "Ġnavigation": 8761,
      "Ġsafegu": 8762,
      "Ġpathways": 8763,
      "Ġinterviews": 8764,
      "Ġgifts": 8765,
      "ĠExponential": 8766,
      "olf": 8767,
      "Ġharmon": 8768,
      "Ġassignments": 8769,
      "Ġfans": 8770,
      "umer": 8771,
      "Ġspeeds": 8772,
      "Ġdetection": 8773,
      "ĠFriends": 8774,
      "ĠAfrican": 8775,
      "Ġvisualize": 8776,
      "Ġ70": 8777,
      "Ġtargeting": 8778,
      "Ġusername": 8779,
      "Having": 8780,
      "Ġpackage": 8781,
      "Ġprotocol": 8782,
      "elfare": 8783,
      "Ġstrings": 8784,
      "Ġuncertainty": 8785,
      "Ġdesk": 8786,
      "Ġlock": 8787,
      "Ġaesthe": 8788,
      "Ġ75": 8789,
      "Ġlabels": 8790,
      "Ġcircuit": 8791,
      "ĠEconomic": 8792,
      "ĠBase": 8793,
      "Ġpron": 8794,
      "ĠEnd": 8795,
      "Ġsib": 8796,
      "Ġmindset": 8797,
      "ĠUtilizing": 8798,
      "ĠHTML": 8799,
      "case": 8800,
      "Solution": 8801,
      "ĠMass": 8802,
      "vantages": 8803,
      "Ġemotionally": 8804,
      "Ġpassed": 8805,
      "Ġconcern": 8806,
      "Ġretention": 8807,
      "Ġadvance": 8808,
      "Ġpromising": 8809,
      "Ġglance": 8810,
      "Ġdeepen": 8811,
      "Ġturned": 8812,
      "gue": 8813,
      "Applying": 8814,
      "ĠĠĠĠĠĠ": 8815,
      "Ġartistic": 8816,
      "Ġpollution": 8817,
      "Qu": 8818,
      "Ġgrab": 8819,
      "bell": 8820,
      "Ġdistress": 8821,
      "Ġdamaged": 8822,
      "':": 8823,
      "Ġdetailing": 8824,
      "ecraft": 8825,
      "Ġthrive": 8826,
      "Ġstation": 8827,
      "ĠNotice": 8828,
      "ĠLever": 8829,
      "Ġgreatly": 8830,
      "riving": 8831,
      "Ġformats": 8832,
      "Ġcolumns": 8833,
      "Ġarbit": 8834,
      "ĠMind": 8835,
      "Ġlever": 8836,
      "missions": 8837,
      "Ġfeasible": 8838,
      "ĠSleep": 8839,
      "Ġcultivating": 8840,
      "Ġbun": 8841,
      "Ġglasses": 8842,
      "earing": 8843,
      "ok": 8844,
      "otion": 8845,
      "Ġstatic": 8846,
      "awareness": 8847,
      "Ġeconomies": 8848,
      "Ġcompliance": 8849,
      "Ġequity": 8850,
      "During": 8851,
      "rices": 8852,
      "Ġvariation": 8853,
      "Ġphoto": 8854,
      "ĠAv": 8855,
      "Ġflash": 8856,
      "ĠQuality": 8857,
      "Ġdiscoveries": 8858,
      "Ġtypical": 8859,
      "ĠThoroughly": 8860,
      "ĠSoftware": 8861,
      "eem": 8862,
      "sian": 8863,
      "ĠCollege": 8864,
      "Ġfalse": 8865,
      "poon": 8866,
      "Ġdrinks": 8867,
      "Ġfulfill": 8868,
      "ĠHouse": 8869,
      "Ġrelevance": 8870,
      "Ġcredentials": 8871,
      "Ġconsume": 8872,
      "ĠMain": 8873,
      "Ġbriefly": 8874,
      "Ġtour": 8875,
      "Ġmusical": 8876,
      "99": 8877,
      "Ġ(\"": 8878,
      "ersion": 8879,
      "Ġmechanism": 8880,
      "uling": 8881,
      "Ġguarantees": 8882,
      "Ġremote": 8883,
      "Are": 8884,
      "kele": 8885,
      "Ġspr": 8886,
      "Ġrecy": 8887,
      "atches": 8888,
      "Ġmanager": 8889,
      "Ġacknowledge": 8890,
      "ĠDistrib": 8891,
      "Ġthumb": 8892,
      "Ġbridge": 8893,
      "Ġwin": 8894,
      "Ġbroken": 8895,
      "arding": 8896,
      "Ġcirculation": 8897,
      "Ġunsure": 8898,
      "Ġmaybe": 8899,
      "ometry": 8900,
      "Ġtens": 8901,
      "ucose": 8902,
      "Ġdurability": 8903,
      "Ġconstants": 8904,
      "ĠNegative": 8905,
      "ugs": 8906,
      "ĠCross": 8907,
      "Ġstrange": 8908,
      "John": 8909,
      "ref": 8910,
      "Ġdollars": 8911,
      "Ġnecessarily": 8912,
      "Ġvaries": 8913,
      "Ġmiss": 8914,
      "Ġheter": 8915,
      "ĠLocal": 8916,
      "Ġfertil": 8917,
      "Ġbak": 8918,
      "Ġmeant": 8919,
      "Ġrequests": 8920,
      "Ġscrub": 8921,
      "Ġthrow": 8922,
      "edia": 8923,
      "rays": 8924,
      "ĠChild": 8925,
      "comp": 8926,
      "ĠSubt": 8927,
      "ogram": 8928,
      "Ġteas": 8929,
      "ĠGreen": 8930,
      "Ġsetbacks": 8931,
      "ĠWithout": 8932,
      "scale": 8933,
      "rance": 8934,
      "Ġjack": 8935,
      "Ġsuperior": 8936,
      "Ġdestination": 8937,
      "ĠSurround": 8938,
      "oke": 8939,
      "Ġpriorities": 8940,
      "Ġexpanded": 8941,
      "iments": 8942,
      "Ġpresenting": 8943,
      "urities": 8944,
      "Ġinterventions": 8945,
      "Ġpencils": 8946,
      "Ġsustainability": 8947,
      "Ġenzym": 8948,
      "Establish": 8949,
      "Ġorb": 8950,
      "Ob": 8951,
      "Ġhypothesis": 8952,
      "Ġexposed": 8953,
      "data": 8954,
      "ĠGovernment": 8955,
      "Ġfits": 8956,
      "Ġguiding": 8957,
      "tism": 8958,
      "Ġdepression": 8959,
      "Ġtea": 8960,
      "Ġexplained": 8961,
      "Ġpepper": 8962,
      "Ġdefinite": 8963,
      "Ġseamless": 8964,
      "Throughout": 8965,
      "Ġbuck": 8966,
      "orean": 8967,
      "Ġcheese": 8968,
      "ĠPresident": 8969,
      "Ġ(*": 8970,
      "Ġ2000": 8971,
      "ĠMechan": 8972,
      "Ġmultifaceted": 8973,
      "ĠRelationships": 8974,
      "Ġgun": 8975,
      "Ġmanipulate": 8976,
      "ĠOptim": 8977,
      "ĠAB": 8978,
      "Ãł": 8979,
      "Ġpopularity": 8980,
      "Ġviews": 8981,
      "ders": 8982,
      "âģ": 8983,
      "imes": 8984,
      "Ġbasis": 8985,
      "Ġmaintains": 8986,
      "Ġorders": 8987,
      "Ġsto": 8988,
      "ulties": 8989,
      "Ġlaun": 8990,
      "ĠSupply": 8991,
      "brid": 8992,
      "Ġstrip": 8993,
      "ĠDog": 8994,
      "ĠAdventure": 8995,
      "enny": 8996,
      "ĠBro": 8997,
      "ymakers": 8998,
      "Ġgap": 8999,
      "ĠGive": 9000,
      "Ġgenes": 9001,
      "Ġinvolvement": 9002,
      "Ġrectangles": 9003,
      "Ġsubstance": 9004,
      "Ġstain": 9005,
      "Ġowner": 9006,
      "amps": 9007,
      "Ġsamples": 9008,
      "Disc": 9009,
      "ĠIndia": 9010,
      "Supp": 9011,
      "how": 9012,
      "ulates": 9013,
      "ulting": 9014,
      "illy": 9015,
      "istance": 9016,
      "Ġdetect": 9017,
      "Ġshadows": 9018,
      "Ġq": 9019,
      "Ġangular": 9020,
      "Micro": 9021,
      "iers": 9022,
      "Ġcoordination": 9023,
      "Ġresonate": 9024,
      "Ġwasn": 9025,
      "IS": 9026,
      "Mon": 9027,
      "ĠCalculus": 9028,
      "ĠAddition": 9029,
      "Ġlimiting": 9030,
      "Ġconfiguration": 9031,
      "oul": 9032,
      "Ġgalax": 9033,
      "Ġ${": 9034,
      "Ġcountless": 9035,
      "Ġexpendit": 9036,
      "Ġstrategically": 9037,
      "draw": 9038,
      "Ġquery": 9039,
      "ĠRemain": 9040,
      "Ġreviewing": 9041,
      "ĠSmith": 9042,
[...]
