{
  "version": "1.0",
  "truncation": null,
  "padding": null,
  "added_tokens": [
    {
      "id": 0,
      "content": "<pad>",
      "single_word": false,
      "lstrip": false,
      "rstrip": false,
      "normalized": false,
      "special": true
    },
    {
      "id": 1,
      "content": "<s>",
      "single_word": false,
      "lstrip": false,
      "rstrip": false,
      "normalized": false,
      "special": true
    },
    {
      "id": 2,
      "content": "</s>",
      "single_word": false,
      "lstrip": false,
      "rstrip": false,
      "normalized": false,
      "special": true
    },
    {
      "id": 3,
      "content": "<unk>",
      "single_word": false,
      "lstrip": false,
      "rstrip": false,
      "normalized": false,
      "special": true
    },
    {
      "id": 4,
      "content": "<bos>",
      "single_word": false,
      "lstrip": false,
      "rstrip": false,
      "normalized": false,
      "special": true
    },
    {
      "id": 5,
      "content": "<eos>",
      "single_word": false,
      "lstrip": false,
      "rstrip": false,
      "normalized": false,
      "special": true
    },
    {
      "id": 6,
      "content": "<|system|>",
      "single_word": false,
      "lstrip": false,
      "rstrip": false,
      "normalized": false,
      "special": true
    },
    {
      "id": 7,
      "content": "<|user|>",
      "single_word": false,
      "lstrip": false,
      "rstrip": false,
      "normalized": false,
      "special": true
    },
    {
      "id": 8,
      "content": "<|assistant|>",
      "single_word": false,
      "lstrip": false,
      "rstrip": false,
      "normalized": false,
      "special": true
    },
    {
      "id": 9,
      "content": "<audio>",
      "single_word": false,
      "lstrip": false,
      "rstrip": false,
      "normalized": false,
      "special": true
    },
    {
      "id": 10,
      "content": "<image>",
      "single_word": false,
      "lstrip": false,
      "rstrip": false,
      "normalized": false,
      "special": true
    },
    {
      "id": 11,
      "content": "<video>",
      "single_word": false,
      "lstrip": false,
      "rstrip": false,
      "normalized": false,
      "special": true
    },
    {
      "id": 12,
      "content": "<tool_call>",
      "single_word": false,
      "lstrip": false,
      "rstrip": false,
      "normalized": false,
      "special": true
    },
    {
      "id": 13,
      "content": "<tool_result>",
      "single_word": false,
      "lstrip": false,
      "rstrip": false,
      "normalized": false,
      "special": true
    },
    {
      "id": 14,
      "content": "<thought>",
      "single_word": false,
      "lstrip": false,
      "rstrip": false,
      "normalized": false,
      "special": true
    },
    {
      "id": 15,
      "content": "</thought>",
      "single_word": false,
      "lstrip": false,
      "rstrip": false,
      "normalized": false,
      "special": true
    },
    {
      "id": 16,
      "content": "<code>",
      "single_word": false,
      "lstrip": false,
      "rstrip": false,
      "normalized": false,
      "special": true
    },
    {
      "id": 17,
      "content": "</code>",
      "single_word": false,
      "lstrip": false,
      "rstrip": false,
      "normalized": false,
      "special": true
    },
    {
      "id": 18,
      "content": "।",
      "single_word": false,
      "lstrip": false,
      "rstrip": false,
      "normalized": false,
      "special": true
    },
    {
      "id": 19,
      "content": "॥",
      "single_word": false,
      "lstrip": false,
      "rstrip": false,
      "normalized": false,
      "special": true
    },
    {
      "id": 20,
      "content": "ॐ",
      "single_word": false,
      "lstrip": false,
      "rstrip": false,
      "normalized": false,
      "special": true
    }
  ],
  "normalizer": null,
  "pre_tokenizer": {
    "type": "Sequence",
    "pretokenizers": [
      {
        "type": "Split",
        "pattern": {
          "Regex": "(?i:'s|'t|'re|'ve|'m|'ll|'d)|[^\\r\\n\\p{L}\\p{N}]?[\\p{L}\\p{M}]+|\\p{N}+|[^\\s\\p{L}\\p{N}\\p{M}]+|\\s+(?!\\S)|\\s+"
        },
        "behavior": "Isolated",
        "invert": false
      },
      {
        "type": "ByteLevel",
        "add_prefix_space": false,
        "trim_offsets": true,
        "use_regex": false
      }
    ]
  },
  "post_processor": null,
  "decoder": {
    "type": "ByteLevel",
    "add_prefix_space": true,
    "trim_offsets": true,
    "use_regex": true
  },
  "model": {
    "type": "BPE",
    "dropout": null,
    "unk_token": null,
    "continuing_subword_prefix": null,
    "end_of_word_suffix": null,
    "fuse_unk": false,
    "byte_fallback": false,
    "ignore_merges": false,
    "vocab": {
      "<pad>": 0,
      "<s>": 1,
      "</s>": 2,
      "<unk>": 3,
      "<bos>": 4,
      "<eos>": 5,
      "<|system|>": 6,
      "<|user|>": 7,
      "<|assistant|>": 8,
      "<audio>": 9,
      "<image>": 10,
      "<video>": 11,
      "<tool_call>": 12,
      "<tool_result>": 13,
      "<thought>": 14,
      "</thought>": 15,
      "<code>": 16,
      "</code>": 17,
      "।": 18,
      "॥": 19,
      "ॐ": 20,
      "!": 21,
      "\"": 22,
      "#": 23,
      "$": 24,
      "%": 25,
      "&": 26,
      "'": 27,
      "(": 28,
      ")": 29,
      "*": 30,
      "+": 31,
      ",": 32,
      "-": 33,
      ".": 34,
      "/": 35,
      "0": 36,
      "1": 37,
      "2": 38,
      "3": 39,
      "4": 40,
      "5": 41,
      "6": 42,
      "7": 43,
      "8": 44,
      "9": 45,
      ":": 46,
      ";": 47,
      "<": 48,
      "=": 49,
      ">": 50,
      "?": 51,
      "@": 52,
      "A": 53,
      "B": 54,
      "C": 55,
      "D": 56,
      "E": 57,
      "F": 58,
      "G": 59,
      "H": 60,
      "I": 61,
      "J": 62,
      "K": 63,
      "L": 64,
      "M": 65,
      "N": 66,
      "O": 67,
      "P": 68,
      "Q": 69,
      "R": 70,
      "S": 71,
      "T": 72,
      "U": 73,
      "V": 74,
      "W": 75,
      "X": 76,
      "Y": 77,
      "Z": 78,
      "[": 79,
      "\\": 80,
      "]": 81,
      "^": 82,
      "_": 83,
      "`": 84,
      "a": 85,
      "b": 86,
      "c": 87,
      "d": 88,
      "e": 89,
      "f": 90,
      "g": 91,
      "h": 92,
      "i": 93,
      "j": 94,
      "k": 95,
      "l": 96,
      "m": 97,
      "n": 98,
      "o": 99,
      "p": 100,
      "q": 101,
      "r": 102,
      "s": 103,
      "t": 104,
      "u": 105,
      "v": 106,
      "w": 107,
      "x": 108,
      "y": 109,
      "z": 110,
      "{": 111,
      "|": 112,
      "}": 113,
      "~": 114,
      "¡": 115,
      "¢": 116,
      "£": 117,
      "¤": 118,
      "¥": 119,
      "¦": 120,
      "§": 121,
      "¨": 122,
      "©": 123,
      "ª": 124,
      "«": 125,
      "¬": 126,
      "®": 127,
      "¯": 128,
      "°": 129,
      "±": 130,
      "²": 131,
      "³": 132,
      "´": 133,
      "µ": 134,
      "¶": 135,
      "·": 136,
      "¸": 137,
      "¹": 138,
      "º": 139,
      "»": 140,
      "¼": 141,
      "½": 142,
      "¾": 143,
      "¿": 144,
      "À": 145,
      "Á": 146,
      "Â": 147,
      "Ã": 148,
      "Ä": 149,
      "Å": 150,
      "Æ": 151,
      "Ç": 152,
      "È": 153,
      "É": 154,
      "Ê": 155,
      "Ë": 156,
      "Ì": 157,
      "Í": 158,
      "Î": 159,
      "Ï": 160,
      "Ð": 161,
      "Ñ": 162,
      "Ò": 163,
      "Ó": 164,
      "Ô": 165,
      "Õ": 166,
      "Ö": 167,
      "×": 168,
      "Ø": 169,
      "Ù": 170,
      "Ú": 171,
      "Û": 172,
      "Ü": 173,
      "Ý": 174,
      "Þ": 175,
      "ß": 176,
      "à": 177,
      "á": 178,
      "â": 179,
      "ã": 180,
      "ä": 181,
      "å": 182,
      "æ": 183,
      "ç": 184,
      "è": 185,
      "é": 186,
      "ê": 187,
      "ë": 188,
      "ì": 189,
      "í": 190,
      "î": 191,
      "ï": 192,
      "ð": 193,
      "ñ": 194,
      "ò": 195,
      "ó": 196,
      "ô": 197,
      "õ": 198,
      "ö": 199,
      "÷": 200,
      "ø": 201,
      "ù": 202,
      "ú": 203,
      "û": 204,
      "ü": 205,
      "ý": 206,
      "þ": 207,
      "ÿ": 208,
      "Ā": 209,
      "ā": 210,
      "Ă": 211,
      "ă": 212,
      "Ą": 213,
      "ą": 214,
      "Ć": 215,
      "ć": 216,
      "Ĉ": 217,
      "ĉ": 218,
      "Ċ": 219,
      "ċ": 220,
      "Č": 221,
      "č": 222,
      "Ď": 223,
      "ď": 224,
      "Đ": 225,
      "đ": 226,
      "Ē": 227,
      "ē": 228,
      "Ĕ": 229,
      "ĕ": 230,
      "Ė": 231,
      "ė": 232,
      "Ę": 233,
      "ę": 234,
      "Ě": 235,
      "ě": 236,
      "Ĝ": 237,
      "ĝ": 238,
      "Ğ": 239,
      "ğ": 240,
      "Ġ": 241,
      "ġ": 242,
      "Ģ": 243,
      "ģ": 244,
      "Ĥ": 245,
      "ĥ": 246,
      "Ħ": 247,
      "ħ": 248,
      "Ĩ": 249,
      "ĩ": 250,
      "Ī": 251,
      "ī": 252,
      "Ĭ": 253,
      "ĭ": 254,
      "Į": 255,
      "į": 256,
      "İ": 257,
      "ı": 258,
      "Ĳ": 259,
      "ĳ": 260,
      "Ĵ": 261,
      "ĵ": 262,
      "Ķ": 263,
      "ķ": 264,
      "ĸ": 265,
      "Ĺ": 266,
      "ĺ": 267,
      "Ļ": 268,
      "ļ": 269,
      "Ľ": 270,
      "ľ": 271,
      "Ŀ": 272,
      "ŀ": 273,
      "Ł": 274,
      "ł": 275,
      "Ń": 276,
      "à¤": 277,
      "Ġà¤": 278,
      "à¥": 279,
      "à¤¾": 280,
      "à¥ĩ": 281,
      "à¤°": 282,
      "à¥į": 283,
      "à¤¿": 284,
      "Ġà¤ķ": 285,
      "à¥įà¤": 286,
      "à¤¾à¤": 287,
      "à¤¿à¤": 288,
      "à¤Ĥ": 289,
      "à¥Ģ": 290,
      "à¥ĭ": 291,
      "à¤¨": 292,
      "à¤ķ": 293,
      "čĊ": 294,
      "Ġà¤¸": 295,
      "à¤¤": 296,
      "Ġà¤¹": 297,
      "Ġt": 298,
      "à¥Ī": 299,
      "an": 300,
      "Ġà¤®": 301,
      "Ġà¤ª": 302,
      "in": 303,
      "à¤¸": 304,
      "he": 305,
      "à¥įà¤°": 306,
      "à¤²": 307,
      "Ġà¤ķà¥ĩ": 308,
      "Ġà¤¹à¥Ī": 309,
      "ar": 310,
      "à¥ģ": 311,
      "à¥ĩà¤Ĥ": 312,
      "à¤®": 313,
      "à¤¹": 314,
      "à¥¤": 315,
      "Ġs": 316,
      "Ġa": 317,
      "à¤¾à¤°": 318,
      "à¤ª": 319,
      "Ġà¤ľ": 320,
      "on": 321,
      "Ġk": 322,
      "at": 323,
      "er": 324,
      "Ġà¤µ": 325,
      "à¥įà¤¯": 326,
      "Ġà¤¬": 327,
      "Ġà¤ħ": 328,
      "à¤Ĺ": 329,
      "Ġà¤®à¥ĩà¤Ĥ": 330,
      "en": 331,
      "à¥ĭà¤Ĥ": 332,
      "or": 333,
      "à¥Ĥ": 334,
      "Ġh": 335,
      "is": 336,
      "Ġà¤²": 337,
      "Ġthe": 338,
      "à¤µ": 339,
      "Ġà¤¨": 340,
      "à¤°à¥įà¤": 341,
      "à¤¾à¤¨": 342,
      "à¤¦": 343,
      "es": 344,
      "Ġp": 345,
      "à¤¯": 346,
      "Ġb": 347,
      "Ġà¤¦": 348,
      "à¤¿à¤ķ": 349,
      "Ġà¤Ķ": 350,
      "al": 351,
      "Ġà¤ı": 352,
      "Ġà¤Ķà¤°": 353,
      "Ġà¤ī": 354,
      "Ġc": 355,
      "Ġm": 356,
      "à¤¿à¤¯": 357,
      "Ġà¤ķà¤°": 358,
      "it": 359,
      "Ġà¤°": 360,
      "à¤Ł": 361,
      "à¤¨à¥ĩ": 362,
      "Ġà¤ķà¥ĭ": 363,
      "Ġà¤ķà¥Ģ": 364,
      "Ġà¤Ĩ": 365,
      "Ġo": 366,
      "Ġà¤¸à¥ĩ": 367,
      "Ġw": 368,
      "Ġà¤ªà¥įà¤°": 369,
      "à¤¬": 370,
      "ed": 371,
      "à¤¡": 372,
      "as": 373,
      "à¤¿à¤¤": 374,
      "à¤ľ": 375,
      "Ġan": 376,
      "Ġà¤¤": 377,
      "Ġto": 378,
      "Ġf": 379,
      "à¥įà¤¤": 380,
      "Ġà¤Ĺ": 381,
      "Ġd": 382,
      "à¤¶": 383,
      "ur": 384,
      "Ġà¤¯": 385,
      "Ġà¤ıà¤ķ": 386,
      "Ġin": 387,
      "ing": 388,
      "à¤¤à¤¾": 389,
      "à¤¼": 390,
      "Ġha": 391,
      "à¤ļ": 392,
      "Ġof": 393,
      "Ġà¤ķà¤¾": 394,
      "Ġà¤¹à¥Īà¤Ĥ": 395,
      "Ġl": 396,
      "à¤¿à¤ı": 397,
      "||": 398,
      "re": 399,
      "Ġà¤ĩ": 400,
      "ic": 401,
      "à¤¾à¤²": 402,
      "à¤§": 403,
      "à¤£": 404,
      "à¤¾à¤¤": 405,
      "ro": 406,
      "Ġand": 407,
      "Ġà¤ªà¤°": 408,
      "am": 409,
      "Ġà¤Ń": 410,
      "Ġà¤¶": 411,
      "à¥įà¤µ": 412,
      "à¥ģà¤": 413,
      "il": 414,
      "ion": 415,
      "ak": 416,
      "Ġà¤¹à¥ĭ": 417,
      "Ġà¤²à¤¿à¤ı": 418,
      "à¥įà¤Ł": 419,
      "à¤¿à¤¯à¤¾": 420,
      "Ġn": 421,
      "Ġth": 422,
      "Ġà¤¸à¤Ĥ": 423,
      "Ġà¤ļ": 424,
      "us": 425,
      "ch": 426,
      "à¤¾à¤®": 427,
      "un": 428,
      "Ġe": 429,
      "Ġà¤µà¤¿à¤": 430,
      "à¥įà¤·": 431,
      "à¤¤à¥ĩ": 432,
      "ĠS": 433,
      "le": 434,
      "à¤¨à¤¾": 435,
      "ent": 436,
      "à¤Ń": 437,
      "à¤¿à¤²": 438,
      "ay": 439,
      "à¤¿à¤¸": 440,
      "ad": 441,
      "à¤¾à¤¸": 442,
      "Ġhai": 443,
      "hi": 444,
      "Ġà¤ĩà¤¸": 445,
      "à¤¿à¤¨": 446,
      "Ġà¤¥": 447,
      "à¥ĭà¤Ĺ": 448,
      "ol": 449,
      "à¤ĸ": 450,
      "ĠA": 451,
      "et": 452,
      "ut": 453,
      "ĠH": 454,
      "Ġg": 455,
      "ate": 456,
      "om": 457,
      "Ġà¤¸à¤®": 458,
      "à¤¾à¤¯": 459,
      "Ġis": 460,
      "id": 461,
      "19": 462,
      "à¤¾à¤Ĥ": 463,
      "20": 464,
      "ot": 465,
      "à¤¡à¤¼": 466,
      "el": 467,
      "à¥ī": 468,
      "ct": 469,
      "ĠT": 470,
      "ig": 471,
      "Ġà¤ķà¤¿": 472,
      "Ġà¤¸à¤ķ": 473,
      "à¤¾à¤µ": 474,
      "à¤¾à¤¦": 475,
      "Ġv": 476,
      "Ġkar": 477,
      "à¤¸à¥ĩ": 478,
      "à¤ķà¥ĩ": 479,
      "Ġà¤«": 480,
      "ĠC": 481,
      "Ġr": 482,
      "Ġj": 483,
      "à¥ĥ": 484,
      "ab": 485,
      "iv": 486,
      "im": 487,
      "à¤¹à¥Ģ": 488,
      "Ġà¤ĸ": 489,
      "ĠčĊ": 490,
      "à¥įà¤¥": 491,
      "à¥Į": 492,
      "Ġke": 493,
      "Ġà¤¯à¤¹": 494,
      "à¤ı": 495,
      "ĠM": 496,
      "à¤¤à¥Ģ": 497,
      "à¤¾à¤¹": 498,
      "Ġà¤ľà¥ĭ": 499,
      "à¥įà¤¸": 500,
      "à¤°à¥Ģ": 501,
      "Ġà¤ķà¤°à¤¨à¥ĩ": 502,
      "Ġà¤¡": 503,
      "um": 504,
      "à¤¾à¤ĩ": 505,
      "ul": 506,
      "à¤Ī": 507,
      "à¤ķà¥įà¤·": 508,
      "Ġà¤¨à¥ĩ": 509,
      "ir": 510,
      "ĠI": 511,
      "st": 512,
      "Ġà¤īà¤¨": 513,
      "ag": 514,
      "ah": 515,
      "Ġà¤īà¤ª": 516,
      "à¥įà¤®": 517,
      "ce": 518,
      "Ġà¤ħà¤ª": 519,
      "ĠP": 520,
      "Ġse": 521,
      "à¥įà¤ķ": 522,
      "Ġre": 523,
      "à¥įà¤ª": 524,
      "Ġà¤¦à¥ĩ": 525,
      "ya": 526,
      "âĢ": 527,
      "Ġà¤ķà¤¿à¤¯à¤¾": 528,
      "Ġà¤ħà¤¨": 529,
      "à¤¾à¤ľ": 530,
      "ran": 531,
      "à¤¨à¥Ģ": 532,
      "à¤·": 533,
      "Ġst": 534,
      "à¥įà¤²": 535,
      "Ġaur": 536,
      "Ġfor": 537,
      "à¤ĥ": 538,
      "di": 539,
      "à¥Ĥà¤ª": 540,
      "Ġà¤¸à¤¾à¤": 541,
      "Ġà¤Ńà¥Ģ": 542,
      "ĠB": 543,
      "à¤«": 544,
      "Ġà¤Ĩà¤ª": 545,
      "ap": 546,
      "ation": 547,
      "Ġki": 548,
      "Ġal": 549,
      "à¤²à¥ĩ": 550,
      "ow": 551,
      "à¤¹à¥Ģà¤Ĥ": 552,
      "ers": 553,
      "Ġà¤Ł": 554,
      "Ġà¤ħà¤§": 555,
      "are": 556,
      "à¤¾à¤ª": 557,
      "à¤¤à¥įà¤°": 558,
      "à¤¿à¤Ĥ": 559,
      "Ġon": 560,
      "à¥ģà¤°": 561,
      "ist": 562,
      "à¤¯à¤¾": 563,
      "Ġbe": 564,
      "Ġà¤¨à¤¹à¥Ģà¤Ĥ": 565,
      "Ġà¤²à¥ĩ": 566,
      "av": 567,
      "Ġà¤ľà¤¾à¤¤": 568,
      "ik": 569,
      "à¤¯à¥ĭà¤Ĺ": 570,
      "Ġà¤°à¥Ĥà¤ª": 571,
      "ain": 572,
      "Ġthis": 573,
      "à¤¿à¤¯à¥ĭà¤Ĥ": 574,
      "à¤ķà¤¾à¤°": 575,
      "ht": 576,
      "Ġch": 577,
      "Ġka": 578,
      "em": 579,
      "th": 580,
      "Ġà¤¥à¤¾": 581,
      "Ġwas": 582,
      "à¥ĩà¤¶": 583,
      "ata": 584,
      "ĵà¤Ĥ": 585,
      "à¤°à¤£": 586,
      "à¥įà¤¨": 587,
      "ĠL": 588,
      "Ġà¤ķà¤¾à¤°": 589,
      "Ġy": 590,
      "Ġà¤¸à¤¾à¤¥": 591,
      "Ġà¤¯à¤¾": 592,
      "op": 593,
      "rans": 594,
      "Ġà¤īà¤¤": 595,
      "00": 596,
      "ly": 597,
      "à¤¾à¤ķ": 598,
      "est": 599,
      "Ġko": 600,
      "Ġà¤ªà¤¹": 601,
      "ie": 602,
      "à¤¾à¤¨à¥ĩ": 603,
      "à¤¾à¤ı": 604,
      "og": 605,
      "her": 606,
      "ĠD": 607,
      "Ġpar": 608,
      "Ġà¤°à¤¹": 609,
      "à¥įà¤¹": 610,
      "ĠR": 611,
      "od": 612,
      "à¤¾à¤ĵà¤Ĥ": 613,
      "Ġas": 614,
      "à¤¿à¤°": 615,
      "ane": 616,
      "à¤ķà¥įà¤¤": 617,
      "à¤¿à¤µ": 618,
      "os": 619,
      "up": 620,
      "Ġà¤Ĺà¤¯à¤¾": 621,
      "ransl": 622,
      "ĠThe": 623,
      "ĠHin": 624,
      "à¤¿à¤¶": 625,
      "Ġà¤¹à¥ģà¤": 626,
      "à¤¾à¤ģ": 627,
      "ith": 628,
      "ĠHindi": 629,
      "Ġpr": 630,
      "Transl": 631,
      "Ġà¤īà¤ªà¤¯à¥ĭà¤Ĺ": 632,
      "Ġà¤ħà¤§à¤¿à¤ķ": 633,
      "Translate": 634,
      "ĠN": 635,
      "ess": 636,
      "Ġà¤µà¤¾à¤²": 637,
      "Ġhain": 638,
      "if": 639,
      "ĠF": 640,
      "à¤¥": 641,
      "à¥įà¤ļ": 642,
      "à¤¾à¤Ī": 643,
      "ĠG": 644,
      "à¥įà¤¯à¤¾": 645,
      "à¥ĩà¤²": 646,
      "and": 647,
      "à¥ĩà¤Ł": 648,
      "ĠJ": 649,
      "à¤Ĥà¤Ĺ": 650,
      "à¥Ģà¤¯": 651,
      "ri": 652,
      "Ġà¤ªà¥įà¤°à¤¤": 653,
      "à¤¿à¤®": 654,
      "à¤¾à¤Ĺ": 655,
      "à¥įà¤¦": 656,
      "ter": 657,
      "Ġà¤¬à¤¾à¤°": 658,
      "ĠE": 659,
      "Ġà¤¹à¤®": 660,
      "Ġà¤¸à¥įà¤¥": 661,
      "Ġpro": 662,
      "Ġà¤Ľ": 663,
      "ov": 664,
      "Ġà¤µà¥įà¤¯": 665,
      "à¥Ģà¤¨": 666,
      "à¤¸à¥įà¤¤": 667,
      "ac": 668,
      "Ġà¤µà¤¿à¤¶": 669,
      "Ġmen": 670,
      "Ġde": 671,
      "Ġthat": 672,
      "à¤Ĥà¤¡": 673,
      "Ġek": 674,
      "Ġà¤¬à¤¨": 675,
      "à¤Ĥà¤¦": 676,
      "à¥įà¤§": 677,
      "à¥ĥà¤¤": 678,
      "Ġà¤ľà¤¿à¤¸": 679,
      "Ġà¤ľà¤¾à¤¤à¤¾": 680,
      "oc": 681,
      "ight": 682,
      "à¥Ĥà¤°à¥įà¤": 683,
      "Ġhe": 684,
      "ber": 685,
      "à¤ķà¥Ģ": 686,
      "à¤ķà¤¾": 687,
      "ĠW": 688,
      "à¥ģà¤²": 689,
      "Ġà¤¤à¤ķ": 690,
      "Ġà¤ħà¤ªà¤¨à¥ĩ": 691,
      "Ġà¤ĺ": 692,
      "à¥ģà¤¨": 693,
      "Ġit": 694,
      "Ġà¤®à¤¹": 695,
      "à¤¢": 696,
      "200": 697,
      "à¤¾à¤°à¤¾": 698,
      "à¥ĭà¤ľ": 699,
      "Ġwith": 700,
      "à¥ĩà¤°": 701,
      "oun": 702,
      "Ġà¤§": 703,
      "Ġà¤ķà¤¹": 704,
      "à¤Ĥà¤¤": 705,
      "ne": 706,
      "ĠK": 707,
      "ill": 708,
      "ud": 709,
      "Ġsh": 710,
      "Ġà¤ķà¤®": 711,
      "Ġà¤µà¥ĩ": 712,
      "Ġor": 713,
      "Ġare": 714,
      "à¤°à¥įà¤®": 715,
      "Ġà¤¦à¥įà¤µ": 716,
      "Ġà¤¸à¤ķà¤¤à¥ĩ": 717,
      "à¤²à¥Ģ": 718,
      "ort": 719,
      "à¤¢à¤¼": 720,
      "rom": 721,
      "The": 722,
      "Ġcon": 723,
      "à¤Ńà¥Ģ": 724,
      "à¥Ĥà¤°": 725,
      "ity": 726,
      "à¤¿à¤Ĥà¤Ĺ": 727,
      "Ġcom": 728,
      "à¤¾à¤°à¥Ģ": 729,
      "Ġà¤µà¤°à¥įà¤": 730,
      "Ġà¤²à¤Ĺ": 731,
      "Ġà¤¸à¥Ģ": 732,
      "Ġus": 733,
      "Ġà¤ķà¤°à¥ĩà¤Ĥ": 734,
      "à¥ĭà¤Ł": 735,
      "Ġà¤īà¤¸": 736,
      "à¤Ĥà¤§": 737,
      "Ġle": 738,
      "Ġà¤¸à¤ķà¤¤à¤¾": 739,
      "Ġwh": 740,
      "art": 741,
      "à¥Ĥà¤²": 742,
      "Ġà¤ķà¤°à¤¤à¥ĩ": 743,
      "Ġà¤īà¤¨à¥įà¤¹": 744,
      "Ġà¤¸à¥įà¤µ": 745,
      "Ġby": 746,
      "à¥ģà¤¤": 747,
      "Ġun": 748,
      "ana": 749,
      "à¥įà¤¤à¤°": 750,
      "--": 751,
      "Ġà¤ħà¤¨à¥ģ": 752,
      "Ġà¤¤à¥ĭ": 753,
      "fe": 754,
      "ant": 755,
      "all": 756,
      "à¥įà¤¡": 757,
      "Ġà¤ľà¤¾à¤¨": 758,
      "à¤¾à¤¬": 759,
      "ha": 760,
      "ies": 761,
      "Ġho": 762,
      "à¥Īà¤¸à¥ĩ": 763,
      "Ġà¤¦à¥ĭ": 764,
      "ign": 765,
      "à¤¸à¥Ģ": 766,
      "har": 767,
      "à¤¾à¤·": 768,
      "à¥ģà¤¦": 769,
      "à¤ķà¥įà¤°": 770,
      "ish": 771,
      "end": 772,
      "Ġpl": 773,
      "à¤ĩ": 774,
      "Ġtoh": 775,
      "Ġà¤¬à¥Ģ": 776,
      "à¥ģà¤Ľ": 777,
      "ug": 778,
      "Ġà¤ķà¤°à¤¤à¤¾": 779,
      "à¤¿à¤ĸ": 780,
      "à¥Ģà¤µ": 781,
      "Ġà¤°à¤¾à¤ľ": 782,
      "à¥Īà¤Ĥ": 783,
      "18": 784,
      "ĠO": 785,
      "Ġà¤¦à¥įà¤µà¤¾à¤°à¤¾": 786,
      "Ġat": 787,
      "qu": 788,
      "ge": 789,
      "Ġà¤ķà¥ģà¤Ľ": 790,
      "âĢĶ": 791,
      "10": 792,
      "à¤ķà¤¿": 793,
      "te": 794,
      "Ġne": 795,
      "à¥įà¤Łà¥įà¤°": 796,
      "ver": 797,
      "Ġà¤²à¥ĩà¤ķ": 798,
      "ahi": 799,
      "|-": 800,
      "Ġà¤¬à¤¾à¤°à¥ĩ": 801,
      "Ġà¤µà¤¹": 802,
      "Ġfrom": 803,
      "à¤¾à¤§": 804,
      "Ġà¤ķà¥įà¤·": 805,
      "ĠU": 806,
      "ment": 807,
      "à¤®à¥ĩà¤Ĥ": 808,
      "Ġà¤¨à¤¿": 809,
      "à¥įà¤ŀ": 810,
      "ach": 811,
      "à¤¾à¤¨à¥Ģ": 812,
      "Ġà¤¹à¥Ģ": 813,
      "uch": 814,
      "iy": 815,
      "à¤ħ": 816,
      "our": 817,
      "Ġsam": 818,
      "à¤¾à¤¯à¤¾": 819,
      "'s": 820,
      "Ġap": 821,
      "à¥ĩà¤·": 822,
      "ve": 823,
      "Ġà¤ªà¥įà¤°à¤¦": 824,
      "à¥įà¤¯à¥ĭà¤Ĥ": 825,
      "à¤°à¥ĩ": 826,
      "Ġex": 827,
      "à¤²à¤¾": 828,
      "Ġà¤ľà¤¬": 829,
      "``": 830,
      "ĠIn": 831,
      "se": 832,
      "Ġbhi": 833,
      "à¤¿à¤·": 834,
      "Ġà¤¬à¤¹": 835,
      "à¤Ĺà¤¾": 836,
      "Ġme": 837,
      "Ġà¤²à¥ĭà¤Ĺ": 838,
      "à¥įà¤¯à¥Ĥ": 839,
      "à¤¤à¤¿": 840,
      "Ġà¤¸à¤¬": 841,
      "Ġà¤¥à¥ĩ": 842,
      "à¤Ńà¤¾à¤µ": 843,
      "Ġà¤¦à¥ĩà¤ĸ": 844,
      "ive": 845,
      "Ġà¤ķà¤°à¤¨à¤¾": 846,
      "à¤ł": 847,
      "Ġsak": 848,
      "à¤¿à¤ª": 849,
      "à¤¿à¤ľ": 850,
      "ust": 851,
      "Ġà¤µà¤¾à¤²à¥ĩ": 852,
      "Ġà¤µà¤¿à¤ķ": 853,
      "Ġhot": 854,
      "Ġà¤¸à¤¾à¤®": 855,
      "à¥ĭà¤²": 856,
      "à¥įà¤°à¥ĩ": 857,
      "ore": 858,
      "à¤°à¥įà¤¤": 859,
      "à¥įà¤°à¥Ģ": 860,
      "ue": 861,
      "Ġà¤¥à¥Ģ": 862,
      "Ġà¤Ĩà¤µ": 863,
      "Ġà¤¬à¤¾à¤¦": 864,
      "ub": 865,
      "à¤¨à¥ĭà¤Ĥ": 866,
      "à¤¾à¤¶": 867,
      "ast": 868,
      "Ġà¤¹à¥ĭà¤¤à¤¾": 869,
      "aj": 870,
      "à¤¿à¤Ł": 871,
      "à¤Ĩ": 872,
      "à¤ģ": 873,
      "pe": 874,
      "Ġà¤ļà¤¾à¤¹": 875,
      "han": 876,
      "199": 877,
      "Ġà¤²à¥ĩà¤ķà¤¿à¤¨": 878,
      "à¤ķà¥ĭà¤Ĥ": 879,
      "à¥Įà¤°": 880,
      "Ġà¤¸à¤®à¤¯": 881,
      "Ġà¤ħà¤²": 882,
      "Ġà¤¹à¥ģà¤ı": 883,
      "ake": 884,
      "ra": 885,
      "ard": 886,
      "Ġà¤ħà¤Ĥà¤¤": 887,
      "à¤ļà¥įà¤ļ": 888,
      "Ġà¤®à¤¾à¤¨": 889,
      "à¥ĭà¤°": 890,
      "ep": 891,
      "Ġlie": 892,
      "Ġà¤ľà¤¾": 893,
      "oo": 894,
      "ary": 895,
      "à¤¸à¥įà¤¥": 896,
      "Ġà¤¦à¤¿à¤¯à¤¾": 897,
      "à¥ģà¤ĸ": 898,
      "à¤¿à¤¦": 899,
      "Ġà¤ĳ": 900,
      "à¤ķà¥ĭ": 901,
      "Ġà¤ķà¤¿à¤¸": 902,
      "Ġup": 903,
      "ine": 904,
      "à¤ķà¥įà¤¸": 905,
      "âĢĵ": 906,
      "ian": 907,
      "ks": 908,
      "ath": 909,
      "Ġcan": 910,
      "201": 911,
      "rit": 912,
      "à¤¾à¤£": 913,
      "Ġà¤ķà¥įà¤¯à¤¾": 914,
      "ia": 915,
      "à¤¾à¤¤à¥įà¤°": 916,
      "à¤ªà¥įà¤°": 917,
      "Ġà¤ĩà¤¨": 918,
      "olor": 919,
      "Ġà¤Ĺà¤ı": 920,
      "ord": 921,
      "ial": 922,
      "pl": 923,
      "à¥ĩà¤¤à¥įà¤°": 924,
      "ure": 925,
      "ong": 926,
      "à¥ĩà¤¨": 927,
      "Ġà¤īà¤¤à¥įà¤ª": 928,
      "à¤¶à¥įà¤¯": 929,
      "ost": 930,
      "Ġà¤ķà¤¾à¤°à¥įà¤¯": 931,
      "ĠIt": 932,
      "Ġà¤°à¤ĸ": 933,
      "out": 934,
      "Ġà¤¤à¤°": 935,
      "ĠV": 936,
      "Ġhas": 937,
      "Ġad": 938,
      "na": 939,
      "Ġro": 940,
      "ame": 941,
      "Ġkya": 942,
      "Ġà¤ªà¤¹à¤²à¥ĩ": 943,
      "port": 944,
      "Ġà¤īà¤¦": 945,
      "Ġà¤®à¤¿à¤²": 946,
      "à¤Ĥà¤¤à¥įà¤°": 947,
      "Ġà¤¸à¤¬à¤¸à¥ĩ": 948,
      "ction": 949,
      "age": 950,
      "à¥Ĥà¤°à¥įà¤£": 951,
      "oor": 952,
      "à¤®à¤¾à¤¨": 953,
      "right": 954,
      "mer": 955,
      "ich": 956,
      "Ġà¤ĵ": 957,
      "à¤§à¤¾à¤°": 958,
      "Ġà¤ķà¥įà¤·à¥ĩà¤¤à¥įà¤°": 959,
      "Ġà¤ªà¥Ģ": 960,
      "à¤¿à¤ķà¤¾": 961,
      "Ġà¤¶à¤¾à¤®": 962,
      "ĠHe": 963,
      "),": 964,
      "Ġà¤ħà¤¨à¥įà¤¯": 965,
      "à¤Ĥà¤Ł": 966,
      "Ġà¤¬à¤¤": 967,
      "à¤Ĥà¤¬": 968,
      "à¤ī": 969,
      "à¤¤à¥įà¤µ": 970,
      "à¤¸à¥įà¤ķ": 971,
      "hen": 972,
      "iz": 973,
      "à¤ľà¤¨": 974,
      "ta": 975,
      "à¤¬à¤Ĥà¤§": 976,
      "Ġà¤¬à¤¹à¥ģà¤¤": 977,
      "color": 978,
      "Ġsn": 979,
      "Ġà¤¶à¤¾à¤®à¤¿à¤²": 980,
      "à¥ĩà¤ľ": 981,
      "à¥įà¤Ľ": 982,
      "Ġà¤¬à¤¢à¤¼": 983,
      "Ġman": 984,
      "Ġkm": 985,
      "à¤Ĺà¥Ģ": 986,
      "à¥ĭà¤Ĥà¤¨à¥ĩ": 987,
      "Ġalign": 988,
      "Ġà¤Ĳ": 989,
      "à¤Ĥà¤ª": 990,
      "Ġab": 991,
      "Ġà¤ħà¤ªà¤¨à¥Ģ": 992,
      "gcolor": 993,
      "ari": 994,
      "Ġà¤ķà¤¹à¤¾": 995,
      "ence": 996,
      "so": 997,
      "=#": 998,
      "=right": 999,
      "Ġà¤Ĺà¤Ī": 1000,
      "à¥įà¤ŀà¤¾à¤¨": 1001,
      "Ġtr": 1002,
      "à¤¾à¤ªà¥įà¤¤": 1003,
      "ars": 1004,
      "Ġbgcolor": 1005,
      "ount": 1006,
      "Ġjo": 1007,
      "ide": 1008,
      "Ġà¤¹à¥ĭà¤¤à¥Ģ": 1009,
      "à¤°à¥įà¤¥": 1010,
      "Ġà¤ķà¤Ī": 1011,
      "Ġte": 1012,
      "à¥ĭà¤§": 1013,
      "hy": 1014,
      "à¤ķà¤°": 1015,
      "à¤¸à¥įà¤Ł": 1016,
      "ell": 1017,
      "Ġhis": 1018,
      "Ġà¤¸à¥ģ": 1019,
      "à¥Īà¤¨": 1020,
      "à¤ļà¥įà¤Ľ": 1021,
      "Ġà¤īà¤¤à¥įà¤¤à¤°": 1022,
      "ice": 1023,
      "ise": 1024,
      "pr": 1025,
      "ime": 1026,
      "Ġà¤¨à¤¿à¤°à¥įà¤": 1027,
      "Ġsab": 1028,
      "Ġà¤ħà¤®": 1029,
      "Ġye": 1030,
      "Ġà¤īà¤¨à¥įà¤¹à¥ĩà¤Ĥ": 1031,
      "à¥Ĥà¤¸": 1032,
      "Ġà¤¸à¤¹": 1033,
      "ip": 1034,
      "Ġpe": 1035,
      "Ġà¤¸à¥Ĥ": 1036,
      "à¤Ĺà¥ĩ": 1037,
      "Ġà¤¹à¥ĭà¤¨à¥ĩ": 1038,
      "à¤°à¥įà¤¶": 1039,
      "à¥įà¤¬": 1040,
      "eg": 1041,
      "à¤°à¥įà¤ľ": 1042,
      "ib": 1043,
      "à¤¶à¥įà¤¯à¤ķ": 1044,
      "Ġà¤ľà¥Ģà¤µ": 1045,
      "Ġà¤°à¤¹à¥ĩ": 1046,
      "Ġà¤īà¤¨à¤ķà¥ĩ": 1047,
      "à¥Ģà¤ķ": 1048,
      "ass": 1049,
      "ase": 1050,
      "à¤¹à¤°": 1051,
      "ere": 1052,
      "Ġà¤Ĺà¥įà¤°": 1053,
      "Ġà¤ħà¤µ": 1054,
      "Ġya": 1055,
      "à¤¸à¤¾": 1056,
      "à¤ķà¥įà¤·à¤¾": 1057,
      "Ġim": 1058,
      "à¤¿à¤§": 1059,
      "one": 1060,
      "à¥ĥà¤·": 1061,
      "uc": 1062,
      "à¤°à¥įà¤ķ": 1063,
      "Ġà¤Ĩà¤µà¤¶à¥įà¤¯à¤ķ": 1064,
      "Ġhave": 1065,
      "ind": 1066,
      "Ġà¤¤à¤°à¤¹": 1067,
      "Ġà¤¨à¤¾à¤®": 1068,
      "à¥ģà¤ķ": 1069,
      "Ġà¤ķà¤¾à¤®": 1070,
      "ĠSt": 1071,
      "Ġkh": 1072,
      "à¤¡à¤¼à¥ĩ": 1073,
      "à¤¿à¤ķà¥įà¤·": 1074,
      "Ġso": 1075,
      "15": 1076,
      "Ġen": 1077,
      "Ġà¤ľà¥Īà¤¸à¥ĩ": 1078,
      "à¥ĭà¤ķ": 1079,
      "à¤¾à¤¤à¥įà¤®": 1080,
      "12": 1081,
      "Ġà¤ķà¤¿à¤¸à¥Ģ": 1082,
      "Ġja": 1083,
      "Ġhum": 1084,
      "Ġnot": 1085,
      "int": 1086,
      "Ġà¤ªà¥įà¤°à¤Ńà¤¾à¤µ": 1087,
      "ou": 1088,
      "Ġà¤Ĭ": 1089,
      "à¤¿à¤Ĺ": 1090,
      "In": 1091,
      "Ġà¤¸à¤°": 1092,
      "per": 1093,
      "à¥ĩà¤ķ": 1094,
      "à¤¿à¤¹": 1095,
      "ĠY": 1096,
      "Ġà¤µà¤¿à¤Ń": 1097,
      "à¤¦à¤¿": 1098,
      "ome": 1099,
      "Ġà¤°à¤¹à¤¾": 1100,
      "Ġwor": 1101,
      "Ġà¤Ńà¤¾à¤°": 1102,
      "à¤°à¥įà¤·": 1103,
      "Ġkarane": 1104,
      "Ġà¤¶à¥ģà¤°": 1105,
      "ati": 1106,
      "uj": 1107,
      "Ġà¤¸à¤Ńà¥Ģ": 1108,
      "à¤¤à¤°": 1109,
      "à¤¾à¤¸à¥įà¤¤": 1110,
      "à¤¾à¤²à¤¯": 1111,
      "à¤¾à¤ĸ": 1112,
      "Ġà¤ļà¤¾à¤¹à¤¿à¤ı": 1113,
      "Ġà¤µà¥įà¤¯à¤ķà¥įà¤¤": 1114,
      "ous": 1115,
      "à¤¾à¤¤à¥įà¤®à¤ķ": 1116,
      "à¤ķà¤¾à¤°à¥Ģ": 1117,
      "Ġà¤ĩà¤¸à¤ķà¥ĩ": 1118,
      "Ġà¤²à¥ĭà¤Ĺà¥ĭà¤Ĥ": 1119,
      "pt": 1120,
      "à¤¾à¤·à¥įà¤Łà¥įà¤°": 1121,
      "à¤¾à¤¤à¤¾": 1122,
      "à¥ĭà¤°à¥įà¤": 1123,
      "ack": 1124,
      "ld": 1125,
      "Ġcomp": 1126,
      "ult": 1127,
      "Ġsa": 1128,
      "ee": 1129,
      "ang": 1130,
      "à¤¿à¤£": 1131,
      "ry": 1132,
      "à¤µà¤¾": 1133,
      "Ġà¤µà¤¿à¤¶à¥ĩà¤·": 1134,
      "Ġdi": 1135,
      "ated": 1136,
      "à¥ĩà¤¦": 1137,
      "ther": 1138,
      "à¥ĭà¤¨": 1139,
      "ical": 1140,
      "Ġà¤¹à¥ĭà¤¤à¥ĩ": 1141,
      "à¤¾à¤¡": 1142,
      "Ġalso": 1143,
      "Ġà¤ľà¤¨": 1144,
      "Ġà¤®à¥Īà¤Ĥ": 1145,
      "Ġà¤ķà¤¾à¤°à¤£": 1146,
      "à¥Ģà¤²": 1147,
      "nd": 1148,
      "Ġà¤¸à¥įà¤¥à¤¾à¤¨": 1149,
      "Ġà¤ķà¥ĭà¤Ī": 1150,
      "cl": 1151,
      "à¤¾à¤ıà¤Ĥ": 1152,
      "Ġà¤īà¤¤à¥įà¤ªà¤¾à¤¦": 1153,
      "à¤Ĥà¤ļ": 1154,
      "Ġcl": 1155,
      "à¤¡à¤¼à¥Ģ": 1156,
      "Ġà¤¸à¥įà¤ķ": 1157,
      "à¤¾à¤¨à¤¾": 1158,
      "Ġà¤ıà¤¸": 1159,
      "ace": 1160,
      "17": 1161,
      "à¤ķà¥įà¤·à¤£": 1162,
      "Ġres": 1163,
      "Ġà¤ĩà¤¸à¥ĩ": 1164,
      "à¤¾à¤ī": 1165,
      "à¤ªà¥Ĥà¤°à¥įà¤£": 1166,
      "Ġtheir": 1167,
      "Ġà¤ªà¤°à¤¿à¤µ": 1168,
      "Ġà¤ªà¥Ī": 1169,
      "à¤¡à¤¼à¤¾": 1170,
      "oul": 1171,
      "Ġà¤ķà¥Ī": 1172,
      "orm": 1173,
      "Ġà¤ķà¥įà¤°": 1174,
      "Ġà¤ªà¥įà¤°à¤¶": 1175,
      "à¤°à¥ĭà¤Ĥ": 1176,
      "à¤¾à¤ĩà¤¨": 1177,
      "ions": 1178,
      "Ġar": 1179,
      "Ġà¤ľà¤¿à¤¨": 1180,
      "Ġmil": 1181,
      "à¤Ľ": 1182,
      "fefe": 1183,
      "Ġà¤ķà¥įà¤¯à¥ĭà¤Ĥ": 1184,
      "à¤¾à¤ĩà¤Ł": 1185,
      "Ġà¤īà¤¨à¥įà¤¹à¥ĭà¤Ĥà¤¨à¥ĩ": 1186,
      "à¥ĭà¤®": 1187,
      "à¤¾à¤«": 1188,
      "Ġà¤µà¤°à¥įà¤·": 1189,
      "Ġà¤Ī": 1190,
      "à¤¸à¥įà¤¯": 1191,
      "Ġdo": 1192,
      "Ġmein": 1193,
      "act": 1194,
      "à¥Ĥà¤®": 1195,
      "à¤ªà¤°": 1196,
      "Ġà¤¸à¥įà¤¥à¤¿à¤¤": 1197,
      "Ġà¤¹à¥ģà¤Ĩ": 1198,
      "Ġà¤®à¤¹à¤¤à¥įà¤µ": 1199,
      "Ġà¤°à¤¾à¤ľà¥įà¤¯": 1200,
      "à¥Ĥà¤°à¥įà¤µ": 1201,
      "198": 1202,
      "à¤Łà¤°": 1203,
      "à¤ĺ": 1204,
      "à¤¾à¤²à¥Ģ": 1205,
      "ould": 1206,
      "à¤ľà¤¼": 1207,
      "à¤Ŀ": 1208,
      "16": 1209,
      "ĠTh": 1210,
      "Ġà¤®à¥Ĥà¤²": 1211,
      "à¥ģà¤ķà¥įà¤¤": 1212,
      "à¥ĩà¤¸": 1213,
      "à¥īà¤²": 1214,
      "Ġà¤®à¤¦": 1215,
      "Ġà¤¸à¥įà¤Ł": 1216,
      "à¤Ĺà¥įà¤°": 1217,
      "à¤¯à¤¨": 1218,
      "à¤¾à¤Ł": 1219,
      "Ġà¤®à¤¾à¤°": 1220,
      "à¤ķà¥įà¤°à¤®": 1221,
      "Ġkuch": 1222,
      "Ġà¤¸à¤Ĥà¤¬à¤Ĥà¤§": 1223,
      "```": 1224,
      "à¥ĭà¤ª": 1225,
      "ood": 1226,
      "Ġz": 1227,
      "Ġà¤¬à¥Ģà¤ļ": 1228,
      "----": 1229,
      "orn": 1230,
      "Ġà¤µà¤¿à¤¶à¥įà¤µ": 1231,
      "Ġkaren": 1232,
      "Ġint": 1233,
      "ember": 1234,
      "ond": 1235,
      "à¤¤à¥įà¤¤": 1236,
      "à¤°à¥įà¤Ń": 1237,
      "Ġà¤ľà¤²": 1238,
      "Ġà¤ħà¤®à¥ĩà¤°": 1239,
      "\",": 1240,
      "ef": 1241,
      "Ġà¤ªà¤¾à¤°": 1242,
      "uk": 1243,
      "ĠCh": 1244,
      "Ġà¤Ĩà¤ªà¤ķà¥ĭ": 1245,
      "Ġlag": 1246,
      "à¥ģà¤Ŀ": 1247,
      "urn": 1248,
      "à¤£à¥įà¤¡": 1249,
      "Ġà¤Ĺà¥ģ": 1250,
      "à¤¿à¤¯à¤¾à¤ģ": 1251,
      "à¤¾à¤°à¥ĭà¤Ĥ": 1252,
      "ern": 1253,
      "Ġnum": 1254,
      "Ġwhich": 1255,
      "Ġstr": 1256,
      "à¤ĩà¤¸": 1257,
      "ican": 1258,
      "Ġà¤¨à¤¿à¤¯": 1259,
      "à¤¿à¤ķà¥Ģ": 1260,
      "kin": 1261,
      "à¤¾à¤ıà¤ģ": 1262,
      "Ġà¤®à¤¦à¤¦": 1263,
      "à¥Ĥà¤¨": 1264,
      "ujhe": 1265,
      "own": 1266,
      "ani": 1267,
      "à¤¾à¤¥": 1268,
      "yth": 1269,
      "irst": 1270,
      "Ġà¤¬à¤ļà¥įà¤ļ": 1271,
      "ople": 1272,
      "à¤µà¤²": 1273,
      "30": 1274,
      "à¥ģà¤Ł": 1275,
      "low": 1276,
      "sh": 1277,
      "à¤¬à¥įà¤¦": 1278,
      "ale": 1279,
      "Ġà¤ªà¥įà¤°à¤¦à¤¾à¤¨": 1280,
      "ĠUn": 1281,
      "à¥ģà¤®": 1282,
      "à¤Ĥà¤ľ": 1283,
      "ool": 1284,
      "Ġà¤¡à¥ĩà¤Ł": 1285,
      "Ġwere": 1286,
      "Ġà¤ħà¤§à¥įà¤¯": 1287,
      "ound": 1288,
      "Ġà¤ªà¤¾à¤¸": 1289,
      "à¤°à¥įà¤µ": 1290,
      "Ġac": 1291,
      "..": 1292,
      "Ġsp": 1293,
      "à¥īà¤¨": 1294,
      "Âł": 1295,
      "Ġà¤¹à¤¾à¤²": 1296,
      "able": 1297,
      "ict": 1298,
      "à¥Īà¤ķ": 1299,
      "Ġà¤ħà¤¸": 1300,
      "à¤²à¥įà¤ª": 1301,
      "à¤¦à¥įà¤§": 1302,
      "Ġhota": 1303,
      "Ġplay": 1304,
      "Ġà¤ħà¤ļà¥įà¤Ľ": 1305,
      "Ġà¤¬à¥įà¤°": 1306,
      "Ġpart": 1307,
      "Ġà¤Ĩà¤°": 1308,
      "à¥ĩà¤¡": 1309,
      "Ġà¤Łà¥Ģ": 1310,
      "hav": 1311,
      "Ġag": 1312,
      "ents": 1313,
      "Ġà¤ľà¤¾à¤¨à¥ĩ": 1314,
      "à¤ļà¥Ģ": 1315,
      "ram": 1316,
      "Ġà¤¨à¥Ģ": 1317,
      "Ġà¤ķà¤°à¤¤à¥Ģ": 1318,
      "197": 1319,
      "Ġthey": 1320,
      "Ġà¤¸à¥įà¤ª": 1321,
      "Ġà¤«à¤¿à¤°": 1322,
      "ree": 1323,
      "à¤¾à¤ļ": 1324,
      "Ġà¤¸à¤ķà¤¤à¥Ģ": 1325,
      "14": 1326,
      "à¤¾à¤°à¥ĩ": 1327,
      "à¥įà¤¯à¤®": 1328,
      "Ġmad": 1329,
      "à¥ĩà¤¹": 1330,
      "eb": 1331,
      "Ġà¤ħà¤Ń": 1332,
      "Ġà¤¬à¤¾à¤¤": 1333,
      "Ġà¤ªà¥įà¤°à¤¾à¤ªà¥įà¤¤": 1334,
      "Ġà¤®à¤¹à¤¤à¥įà¤µà¤ªà¥Ĥà¤°à¥įà¤£": 1335,
      "Ġà¤¡à¥Ģ": 1336,
      "fer": 1337,
      "ance": 1338,
      "Ġà¤ªà¥ģà¤°": 1339,
      "ark": 1340,
      "Ġtum": 1341,
      "Ġkn": 1342,
      "Ġtw": 1343,
      "Ġà¤ķà¤¿à¤ı": 1344,
      "Ġper": 1345,
      "à¤¸à¤¾à¤°": 1346,
      "à¥ĩà¤®": 1347,
      "Ġà¤¦à¤¿à¤¨": 1348,
      "Ġà¤¶à¤¬à¥įà¤¦": 1349,
      "Ġà¤®à¥Į": 1350,
      "ile": 1351,
      "à¥§": 1352,
      "Ġà¤ķà¤°à¤ķà¥ĩ": 1353,
      "der": 1354,
      "ations": 1355,
      "Ġà¤ıà¤²": 1356,
      "Ġà¤ľà¤¿à¤¸à¤®à¥ĩà¤Ĥ": 1357,
      "à¤¿à¤¨à¥įà¤¨": 1358,
      "ates": 1359,
      "à¤¦à¥Ģ": 1360,
      "Ġnahi": 1361,
      "ng": 1362,
      "ew": 1363,
      "Ġà¤µà¤¾à¤²à¥Ģ": 1364,
      "Ġma": 1365,
      "Ġà¤ķà¥įà¤¯à¥ĭà¤Ĥà¤ķà¤¿": 1366,
      "ual": 1367,
      "000": 1368,
      "EA": 1369,
      "à¤Ĺà¤°": 1370,
      "Ġà¤ªà¥įà¤°à¤ķ": 1371,
      "Ġtak": 1372,
      "à¤ıà¤ķ": 1373,
      "à¤Ĥà¤¦à¥įà¤°": 1374,
      "Ġà¤¹à¥ĭà¤Ĺà¤¾": 1375,
      "Ġà¤ªà¥įà¤°à¤ķà¤¾à¤°": 1376,
      "à¥ģà¤·": 1377,
      "ye": 1378,
      "les": 1379,
      "ython": 1380,
      "Ġban": 1381,
      "Ġwill": 1382,
      "à¤¾à¤µà¤¾": 1383,
      "Ġone": 1384,
      "Ġà¤µà¤¿à¤ľ": 1385,
      "aran": 1386,
      "arn": 1387,
      "ens": 1388,
      "à¤¾à¤¦à¥Ģ": 1389,
      "Ġà¤¸à¤®à¤Ŀ": 1390,
      "Ġà¤¦à¥ĩà¤¶": 1391,
      "50": 1392,
      "à¥įà¤ł": 1393,
      "ater": 1394,
      "Ġà¤¦à¥Ģ": 1395,
      "Ġtime": 1396,
      "Ġbec": 1397,
      "à¤¾à¤ĥ": 1398,
      "ash": 1399,
      "Ġà¤ļà¤²": 1400,
      "Ġpeople": 1401,
      "Ġà¤¬à¤¦": 1402,
      "Ġsc": 1403,
      "Ġà¤¯à¤¦à¤¿": 1404,
      "Ġà¤ĩà¤¤": 1405,
      "man": 1406,
      "Ġà¤°à¤¾à¤·à¥įà¤Łà¥įà¤°": 1407,
      "Ġph": 1408,
      "Ġà¤ķà¥ĩà¤µà¤²": 1409,
      "ory": 1410,
      "Ġà¤ľà¤¾à¤¨à¤ķà¤¾à¤°à¥Ģ": 1411,
      "à¥įà¤ľ": 1412,
      "Ġà¤Ľà¥ĭà¤Ł": 1413,
      "Ġcont": 1414,
      "Ġother": 1415,
      "à¤Ńà¤Ĺ": 1416,
      "ayog": 1417,
      "Ġà¤¨à¤¿à¤ķ": 1418,
      "à¥ĭà¤ľà¤¨": 1419,
      "ition": 1420,
      "ti": 1421,
      "à¤¿à¤¤à¥įà¤°": 1422,
      "Ġà¤¦à¥Ĥà¤¸": 1423,
      "Ġfirst": 1424,
      "oh": 1425,
      "ĠAmer": 1426,
      "):": 1427,
      "Ġà¤¦à¥Įà¤°": 1428,
      "Ġà¤¶à¥ģà¤°à¥Ĥ": 1429,
      "à¤°à¥įà¤¨": 1430,
      "à¥Īà¤Ĥà¤¡": 1431,
      "Ġà¤ķà¤Ĥà¤ª": 1432,
      "arch": 1433,
      "Ġyou": 1434,
      "à¤µà¥Ģ": 1435,
      "Ġà¤Ĩà¤¯": 1436,
      "amp": 1437,
      "Ġher": 1438,
      "Ġà¤ľà¤¾à¤ı": 1439,
      "Ġà¤Ĩà¤§à¤¾à¤°": 1440,
      "à¤ķà¤°à¥įà¤¤": 1441,
      "à¤ļà¤¾à¤°": 1442,
      "Ġà¤®à¥Ī": 1443,
      "à¤¿à¤²à¥įà¤®": 1444,
      "Ġà¤īà¤¨à¤ķà¥Ģ": 1445,
      "13": 1446,
      "ail": 1447,
      "Ġà¤ľà¥Ģà¤µà¤¨": 1448,
      "à¥įà¤¯à¤¾à¤¨": 1449,
      "Ġà¤ªà¥Ĥà¤°à¥įà¤µ": 1450,
      "Ġhad": 1451,
      "oot": 1452,
      "Ġà¤¸à¥ĭ": 1453,
      "ĠSoc": 1454,
      "à¤¿à¤¡": 1455,
      "Ġmain": 1456,
      "Ġmov": 1457,
      "Ġà¤²à¤¿à¤ĸ": 1458,
      "ru": 1459,
      "Ġà¤µà¥Ī": 1460,
      "Ġà¤ľà¥Ģ": 1461,
      "ob": 1462,
      "row": 1463,
      "Ġret": 1464,
      "à¤¸à¤®": 1465,
      "Ġà¤ªà¥Ĥ": 1466,
      "aya": 1467,
      "\"\"": 1468,
      "abhi": 1469,
      "amil": 1470,
      "Ġà¤ľà¤¹": 1471,
      "à¤Ĥà¤ķ": 1472,
      "Ġà¤²à¤Ĺà¤Ńà¤Ĺ": 1473,
      "à¤°à¤¾": 1474,
      "form": 1475,
      "Ġà¤Ńà¤¾à¤°à¤¤": 1476,
      "ces": 1477,
      "à¤¾à¤Ĥà¤¤": 1478,
      "kh": 1479,
      "à¥įà¤Ĺ": 1480,
      "cess": 1481,
      "Ġà¤«à¤¼": 1482,
      "Ġà¤ľà¥Ī": 1483,
      "Ġà¤Ĩà¤®": 1484,
      "Ġà¤Ĩà¤µà¤¶à¥įà¤¯à¤ķà¤¤à¤¾": 1485,
      "Ġser": 1486,
      "à¥ĩà¤Ĥà¤Ł": 1487,
      "Ġà¤īà¤¸à¥ĩ": 1488,
      "Ġà¤ħà¤Ĥà¤¤à¤°": 1489,
      "à¤¾à¤¤à¥ĩ": 1490,
      "ings": 1491,
      "Ġact": 1492,
      "Ġà¤ķà¥Īà¤¸à¥ĩ": 1493,
      "IN": 1494,
      "Ġà¤®à¥ģà¤ĸ": 1495,
      "Ġà¤¡à¥ĩà¤Łà¤¾": 1496,
      "196": 1497,
      "Ġà¤ħà¤²à¤Ĺ": 1498,
      "Ġà¤µà¤¾à¤¸à¥įà¤¤": 1499,
      ").": 1500,
      "à¤¿à¤¤à¤¾": 1501,
      "à¥ģà¤¦à¥įà¤§": 1502,
      "res": 1503,
      "25": 1504,
      "ans": 1505,
      "à¥ĭà¤¤": 1506,
      "Ġà¤¸à¤¾à¤²": 1507,
      "ick": 1508,
      "put": 1509,
      "Ġmore": 1510,
      "à¥Ĥà¤¹": 1511,
      "Ġà¤ľà¤¾à¤¤à¥Ģ": 1512,
      "à¥¦": 1513,
      "fter": 1514,
      "à¤°à¥įà¤¸": 1515,
      "à¥įà¤µà¥Ģ": 1516,
      "Ġà¤ªà¤¤à¤¾": 1517,
      "11": 1518,
      "ugh": 1519,
      "Ġà¤Ĩà¤ªà¤ķà¥ĩ": 1520,
      "Ġà¤Ńà¤¾à¤·": 1521,
      "à¤¾à¤¹à¤°à¤£": 1522,
      "Ġà¤µà¥įà¤¯à¤µ": 1523,
      "Ġdet": 1524,
      "Ġà¤¸à¤°à¤ķà¤¾à¤°": 1525,
      "Ġà¤®à¤¨": 1526,
      "Ġout": 1527,
      "ara": 1528,
      "Ġwho": 1529,
      "Ġà¤¶à¤¿à¤ķà¥įà¤·": 1530,
      "Ġà¤ħà¤¬": 1531,
      "Ġaap": 1532,
      "Ġall": 1533,
      "Ġà¤¨à¤¿à¤°à¥įà¤®": 1534,
      "à¤¾à¤Ĥà¤ļ": 1535,
      "à¤¾à¤¡à¤¼": 1536,
      "ff": 1537,
      "à¤¦à¤¾à¤°": 1538,
      "à¤²à¤¬": 1539,
      "Ġà¤µà¤¿à¤¸": 1540,
      "xt": 1541,
      "Ġà¤¹à¥ģà¤Ī": 1542,
      "use": 1543,
      "à¤¾à¤Ĥà¤Ĺ": 1544,
      "Ġà¤¸à¤Ĥà¤ĸ": 1545,
      "à¤¥à¤¾": 1546,
      "Ġà¤²à¥ĩà¤ĸ": 1547,
      "Ġà¤Ĩà¤Ī": 1548,
      "à¤°à¤¿à¤ķ": 1549,
      "à¤¿à¤¹à¤¾à¤¸": 1550,
      "Ġà¤ªà¥ģ": 1551,
      "à¤¾à¤Ĥà¤¶": 1552,
      "Ġdis": 1553,
      "elf": 1554,
      "Ġà¤ıà¤®": 1555,
      "à¤¾à¤ĩà¤ı": 1556,
      "Ġba": 1557,
      "reat": 1558,
      "Ġà¤µà¤¿à¤ķà¤¾à¤¸": 1559,
      "Ġà¤ªà¥įà¤°à¤®": 1560,
      "Ġà¤ªà¥Ĥà¤°": 1561,
      "orro": 1562,
      "Ġà¤¦à¥Įà¤°à¤¾à¤¨": 1563,
      "EAR": 1564,
      "Ġmujhe": 1565,
      "ĠThis": 1566,
      "à¤²à¤¿à¤ı": 1567,
      "ĠAmerican": 1568,
      "Ġtwo": 1569,
      "Ġbut": 1570,
      "ĠLIN": 1571,
      "ĠSocorro": 1572,
      "ĠLINEAR": 1573,
      "Ġits": 1574,
      "ok": 1575,
      "Ġupayog": 1576,
      "Ġlekin": 1577,
      "Ġà¤¸à¥ģà¤°": 1578,
      "ild": 1579,
      "ite": 1580,
      "à¤°à¥įà¤Ĺ": 1581,
      "à¤Łà¤¨": 1582,
      "Ġpol": 1583,
      "Ġkam": 1584,
      "Ġà¤¦à¥ĭà¤¨à¥ĭà¤Ĥ": 1585,
      "24": 1586,
      "Ġà¤°à¤¹à¥Ģ": 1587,
      "à¤¿à¤®à¥įà¤¨": 1588,
      "à¤¹à¤¾à¤°": 1589,
      "à¥įà¤Łà¥Ģ": 1590,
      "land": 1591,
      "Ġà¤¬à¤¤à¤¾à¤ĩà¤ı": 1592,
      "Ġshe": 1593,
      "ĠAl": 1594,
      "à¤°à¥įà¤¦": 1595,
      "à¤¦à¤¾": 1596,
      "und": 1597,
      "Ġbad": 1598,
      "à¤®à¤¾": 1599,
      "à¥Ģà¤¡": 1600,
      "ons": 1601,
      "à¤°à¥įà¤ļ": 1602,
      "Ġkabhi": 1603,
      "pan": 1604,
      "Ġspe": 1605,
      "Ġà¤µà¤¾à¤¸à¥įà¤¤à¤µ": 1606,
      "Ġà¤¹à¥Ĥ": 1607,
      "ational": 1608,
      "Ġnew": 1609,
      "Ġà¤µà¤¿à¤µ": 1610,
      "Ġà¤¬à¤¨à¤¾à¤¨à¥ĩ": 1611,
      "hik": 1612,
      "Ġà¤¤à¤°à¥Ģ": 1613,
      "à¥ģà¤Ŀà¥ĩ": 1614,
      "Ġif": 1615,
      "ited": 1616,
      "à¥ĩà¤¯": 1617,
      "du": 1618,
      "à¤¿à¤Ń": 1619,
      "Ġcomm": 1620,
      "Ġà¤Ńà¤¾à¤Ĺ": 1621,
      "vel": 1622,
      "ega": 1623,
      "-à¤ª": 1624,
      "Ġà¤µà¤¿à¤ļ": 1625,
      "à¤¿à¤²à¤¾": 1626,
      "Ġà¤¹à¤°": 1627,
      "à¤ľà¥Ģ": 1628,
      "Ġà¤®à¤¾à¤§": 1629,
      "à¤¾à¤¤à¥įà¤°à¤¾": 1630,
      "Ġabout": 1631,
      "Ġà¤µà¤¿à¤Ńà¤¿à¤¨à¥įà¤¨": 1632,
      "Ġà¤Ĩà¤§": 1633,
      "Ġà¤ĩà¤¸à¤ķà¤¾": 1634,
      "Ġà¤ªà¤°à¥įà¤¯": 1635,
      "Ġà¤ĵà¤°": 1636,
      "à¤Ĥà¤ĸ": 1637,
      "Ġwe": 1638,
      "Ġà¤¸à¤Ĥà¤¦": 1639,
      "à¤¸à¤¨": 1640,
      "Ġmany": 1641,
      "Ġchahi": 1642,
      "Ġfe": 1643,
      "à¥Īà¤²": 1644,
      "ike": 1645,
      "à¤ķà¤°à¤£": 1646,
      "à¤°à¥įà¤¡": 1647,
      "ec": 1648,
      "Ġà¤ªà¥įà¤°à¤¤à¥įà¤¯": 1649,
      "Ġà¤ķà¥ĩà¤Ĥà¤¦à¥įà¤°": 1650,
      "Ġà¤¦à¤¿à¤ĸ": 1651,
      "à¤·à¥įà¤Ł": 1652,
      "à¤¾à¤¸à¥įà¤¥": 1653,
      "à¤ļà¥ĩ": 1654,
      "-à¤¸": 1655,
      "Ġà¤¹à¤¿à¤¸": 1656,
      "à¥įà¤¸à¤¾": 1657,
      "ook": 1658,
      "à¥ģà¤Ĩ": 1659,
      "Ġthem": 1660,
      "à¥ĭà¤¸": 1661,
      "Ġà¤īà¤¦à¤¾à¤¹à¤°à¤£": 1662,
      "Ġà¤¸à¤®à¥ģà¤¦": 1663,
      "we": 1664,
      "clud": 1665,
      "21": 1666,
      "Ġwork": 1667,
      "à¥ģà¤¶": 1668,
      "Ġà¤®à¤¾à¤§à¥įà¤¯à¤®": 1669,
      "ft": 1670,
      "Ġà¤¬à¤¦à¤²": 1671,
      "Ġà¤ł": 1672,
      "à¤¯à¥ģà¤ķà¥įà¤¤": 1673,
      "à¤¿à¤¬": 1674,
      "Ġreturn": 1675,
      "Ġà¤ıà¤¨": 1676,
      "ays": 1677,
      "à¤¿à¤¯à¤¨": 1678,
      "Ġà¤®à¥ģà¤ĸà¥įà¤¯": 1679,
      "(b": 1680,
      "Ġà¤īà¤¸à¤ķà¥ĩ": 1681,
      "ki": 1682,
      "ĠIs": 1683,
      "à¥ĭà¤¡à¤¼": 1684,
      "Ġà¤ĩà¤¸à¤²à¤¿à¤ı": 1685,
      "Ġà¤ĺà¤°": 1686,
      "à¤µà¤Ĥ": 1687,
      "Ġà¤ħà¤§à¥įà¤¯à¤¯à¤¨": 1688,
      "à¤¾à¤¸à¥įà¤¥à¥įà¤¯": 1689,
      "à¤¿à¤ļ": 1690,
      "à¥įà¤Łà¤°": 1691,
      "Ġà¤Ĩà¤¸": 1692,
      "à¤¯à¤¹": 1693,
      "Ġà¤ľà¤¿à¤¸à¥ĩ": 1694,
      "erson": 1695,
      "à¥įà¤¶": 1696,
      "à¤¿à¤ĸà¤¿à¤¤": 1697,
      "à¤²à¥ĭà¤Ĥ": 1698,
      "à¤¬à¥Ģ": 1699,
      "à¤¾à¤Ĥà¤¸": 1700,
      "Ġà¤ľà¤¾à¤¤à¥ĩ": 1701,
      "à¥ĭà¤°à¥įà¤Ł": 1702,
      "à¤¾à¤Ń": 1703,
      "Ġà¤ľà¤¾à¤¨à¤¾": 1704,
      "Ġà¤Ľà¤¾à¤¤à¥įà¤°": 1705,
      "Ġev": 1706,
      "ke": 1707,
      "Ġhoon": 1708,
      "Ġà¤ħà¤¤": 1709,
      "à¥ĩà¤¶à¤¨": 1710,
      "Ġà¤ĸà¥ĭà¤ľ": 1711,
      "Ġà¤ªà¥įà¤°à¤ķà¤¾à¤¶": 1712,
      "ener": 1713,
      "Ġà¤µà¥įà¤¯à¤ķà¥įà¤¤à¤¿": 1714,
      "Ġqu": 1715,
      "Ġà¤µà¤¿à¤¦": 1716,
      "à¤µà¤°": 1717,
      "ics": 1718,
      "ident": 1719,
      "old": 1720,
      "Ġut": 1721,
      "iye": 1722,
      "Ġà¤ķà¥ī": 1723,
      "Ġinter": 1724,
      "Ġà¤ļà¥ģà¤¨": 1725,
      "à¤¿à¤¯à¤®": 1726,
      "Ġhi": 1727,
      "Ġbet": 1728,
      "Ġà¤Ŀ": 1729,
      "ns": 1730,
      "Ġà¤¸à¤Ĥà¤°": 1731,
      "à¤¿à¤£à¤¾à¤®": 1732,
      "ased": 1733,
      "à¤µà¤¾à¤²": 1734,
      "arg": 1735,
      "Ġà¤¶à¤¹à¤°": 1736,
      "Ġà¤¸à¥įà¤µà¤¾à¤¸à¥įà¤¥à¥įà¤¯": 1737,
      "à¤¶à¥įà¤ļ": 1738,
      "pro": 1739,
      "-à¤ħ": 1740,
      "Ġà¤¤à¥Ģà¤¨": 1741,
      "à¥ĭà¤·": 1742,
      "Ġbeen": 1743,
      "Ġà¤¤à¥ģà¤²": 1744,
      "Ġele": 1745,
      "à¤¿à¤ķà¤¾à¤°": 1746,
      "ren": 1747,
      "à¤²à¤¿à¤ĸà¤¿à¤¤": 1748,
      "à¤¿à¤²à¥ĩ": 1749,
      "à¤¸à¤°": 1750,
      "Ġà¤¦à¥ĩà¤¨à¥ĩ": 1751,
      "als": 1752,
      "à¤¿à¤¶à¥įà¤ļ": 1753,
      "ress": 1754,
      "Ġà¤ªà¤¾à¤¨à¥Ģ": 1755,
      "Ġyeh": 1756,
      "hed": 1757,
      "à¤¾à¤ł": 1758,
      "hit": 1759,
      "à¤¾à¤¨à¥įà¤¯": 1760,
      "Ġra": 1761,
      "**": 1762,
      "22": 1763,
      "à¤¿à¤·à¥įà¤Ł": 1764,
      "Ġà¤¬à¤ļ": 1765,
      "194": 1766,
      "Ġnumber": 1767,
      "ors": 1768,
      "Ġà¤¤à¥Ī": 1769,
      "Ġà¤§à¥įà¤¯à¤¾à¤¨": 1770,
      "Ġdes": 1771,
      "à¤¤à¤¾à¤ĵà¤Ĥ": 1772,
      "ose": 1773,
      "à¤¿à¤®à¥įà¤¨à¤²à¤¿à¤ĸà¤¿à¤¤": 1774,
      "Ġval": 1775,
      "à¤®à¥Ģ": 1776,
      "Ġà¤¯à¥Ĥ": 1777,
      "oy": 1778,
      "Ġà¤ķà¥įà¤²": 1779,
      "Ġinclud": 1780,
      "ife": 1781,
      "Ġà¤«à¤¿à¤²à¥įà¤®": 1782,
      "à¥ģà¤¨à¤¿à¤¯à¤¾": 1783,
      "à¤¡à¥Ģ": 1784,
      "à¥įà¤¹à¥ĩà¤Ĥ": 1785,
      "ect": 1786,
      "Ġyour": 1787,
      "à¥§à¥": 1788,
      "Ġà¤¸à¤®à¥Ĥà¤¹": 1789,
      "Ġhog": 1790,
      "Ġà¤Ĺà¥Ī": 1791,
      "Ġà¤®à¥ģà¤Ŀà¥ĩ": 1792,
      "à¤¦à¤¾à¤¨": 1793,
      "Ġà¤ķà¥ĭà¤¡": 1794,
      "à¤¿à¤¯à¥ĭ": 1795,
      "Ġà¤Ńà¥Ĥà¤®": 1796,
      "ĠAr": 1797,
      "Ġà¤¯à¥ĩ": 1798,
      "Ġà¤µà¤¿à¤·": 1799,
      "à¤¿à¤¸à¥įà¤Ł": 1800,
      "ery": 1801,
      "Ġà¤ªà¤°à¤¿à¤£à¤¾à¤®": 1802,
      "Ġà¤¤à¤¹": 1803,
      "Ġinto": 1804,
      "Ġà¤¸à¤Ĥà¤ĸà¥įà¤¯à¤¾": 1805,
      "Ġused": 1806,
      "hat": 1807,
      "Ġà¤ĸà¤¿à¤²": 1808,
      "ĠIndi": 1809,
      "Ġà¤īà¤ļà¥įà¤ļ": 1810,
      "hes": 1811,
      "Ġuse": 1812,
      "iss": 1813,
      "à¤¿à¤¶à¥įà¤ļà¤¿à¤¤": 1814,
      "à¤ªà¥Ģ": 1815,
      "Ġà¤¸à¥ģà¤¨": 1816,
      "Ġà¤¸à¤«": 1817,
      "Ġà¤ªà¥įà¤°à¤£": 1818,
      "Ġcount": 1819,
      "Ġà¤¬à¤¾à¤¹": 1820,
      "Ġà¤ĸà¥ĩà¤²": 1821,
      "à¥ĭà¤ľà¤¨à¤¾": 1822,
      "hip": 1823,
      "aw": 1824,
      "Ġthere": 1825,
      "à¥įà¤¯à¤¾à¤²à¤¯": 1826,
      "à¥įà¤«": 1827,
      "Ġliye": 1828,
      "ities": 1829,
      "à¤¿à¤¦à¥įà¤§": 1830,
      "Ġover": 1831,
      "Ġà¤¸à¤Ĥà¤Ńà¤¾à¤µ": 1832,
      "Ġà¤¦à¥ĩà¤Ĥ": 1833,
      "Ġà¤¶à¥įà¤°": 1834,
      "hal": 1835,
      "à¤µà¤¾à¤¬": 1836,
      "Ġrec": 1837,
      "à¥ģà¤Ń": 1838,
      "à¥įà¤¦à¥Ģ": 1839,
      "Ġà¤®à¤§": 1840,
      "Ġà¤ķà¥ĭà¤¶": 1841,
      "Ġkiya": 1842,
      "Ġlog": 1843,
      "Ġà¤ħà¤¨à¥ģà¤¸à¤¾à¤°": 1844,
      "à¤¾à¤ĩà¤¡": 1845,
      "Ġà¤īà¤®": 1846,
      "à¤°à¥įà¤Ł": 1847,
      "à¥¤\"": 1848,
      "Ġà¤¤à¥ģà¤²à¤¨à¤¾": 1849,
      "Ġrah": 1850,
      "à¥ĥà¤·à¥įà¤Ł": 1851,
      "Ġà¤Łà¥įà¤°": 1852,
      "Ġà¤¦à¥ģà¤¨à¤¿à¤¯à¤¾": 1853,
      "à¥įà¤¯à¥ĭà¤Ĺ": 1854,
      "à¤¨à¥įà¤¨": 1855,
      "ont": 1856,
      "Ġà¤ªà¥įà¤°à¤®à¥ģà¤ĸ": 1857,
      "Ġà¤ªà¥įà¤°à¤µ": 1858,
      "Ġsoch": 1859,
      "Ġà¤¦à¥ĩà¤¤à¤¾": 1860,
      "Ġà¤¦à¤ķà¥įà¤·": 1861,
      "à¥īà¤ķ": 1862,
      "à¥ĭà¤¡": 1863,
      "fefefe": 1864,
      "Ġà¤µà¤¿à¤ľà¥įà¤ŀà¤¾à¤¨": 1865,
      "Ġà¤¢": 1866,
      "Ġà¤µà¤¾à¤ķ": 1867,
      "à¤ľà¥įà¤ŀà¤¾à¤¨": 1868,
      "Ġà¤²à¤Ĥà¤¬": 1869,
      "Ġà¤¬à¥Ī": 1870,
      "ĠDe": 1871,
      "à¤¤à¥Ģà¤¯": 1872,
      "à¤¿à¤«": 1873,
      "ahan": 1874,
      "Ġbh": 1875,
      "Ġà¤µà¤¿à¤¸à¥įà¤¤": 1876,
      "ire": 1877,
      "Ġach": 1878,
      "Ġà¤¨à¤ı": 1879,
      "Ġà¤ªà¥įà¤°à¤¶à¥įà¤¨": 1880,
      "Ġà¤ħà¤°à¥įà¤¥": 1881,
      "à¤¿à¤·à¥įà¤ķ": 1882,
      "Ġà¤°à¥ĭà¤Ĺ": 1883,
      "à¤Ĥà¤¬à¤°": 1884,
      "Ġlagta": 1885,
      "Ġà¤¸à¥įà¤¤à¤°": 1886,
      "à¤µà¤¾à¤¦": 1887,
      "Ġhoti": 1888,
      "Ġà¤ªà¥įà¤°à¤¤à¤¿à¤¶": 1889,
      "Ġà¤¸à¤Ĥà¤Ń": 1890,
      "Ġà¤ļà¥Ģ": 1891,
      "Ġsy": 1892,
      "Ġà¤ªà¤°à¥Ģ": 1893,
      "Ġà¤µà¤¿à¤§": 1894,
      "Ġhel": 1895,
      "Ġà¤¶à¥ĭà¤§": 1896,
      "à¤µà¤¿à¤¦": 1897,
      "Ġà¤¶à¥Ģ": 1898,
      "à¤¾à¤ĩà¤²": 1899,
      "eng": 1900,
      "Ġtha": 1901,
      "()": 1902,
      "à¤ļà¤¨à¤¾": 1903,
      "Ġà¤ªà¥įà¤°à¤¦à¤°à¥įà¤¶": 1904,
      "Ġà¤ªà¥įà¤°à¤¤à¤¿à¤¶à¤¤": 1905,
      "Ġdif": 1906,
      "à¥ĩà¤ĸ": 1907,
      "ubl": 1908,
      "Ġà¤°à¤Ĥà¤Ĺ": 1909,
      "Ġà¤®à¥Ĥà¤²à¥įà¤¯": 1910,
      "Ġà¤¤à¥Īà¤¯": 1911,
      "aroor": 1912,
      "Ġà¤¸à¤¦": 1913,
      "here": 1914,
      "Ġà¤¸à¤®à¥Ģ": 1915,
      "Ġsakata": 1916,
      "rap": 1917,
      "ĠShe": 1918,
      "Ġà¤¤à¤¾à¤ķ": 1919,
      "Ġchahiye": 1920,
      "23": 1921,
      "ĠAn": 1922,
      "Ġam": 1923,
      "ĠLe": 1924,
      "Ġà¤ªà¥įà¤°à¤¤à¥įà¤¯à¥ĩà¤ķ": 1925,
      "Ġà¤¸à¥Ĥà¤ļà¥Ģ": 1926,
      "iyon": 1927,
      "à¤¿à¤¯à¤°": 1928,
      "inn": 1929,
      "olog": 1930,
      "Ġà¤Ńà¤µ": 1931,
      "à¥Ĥà¤¤": 1932,
      "2000": 1933,
      "à¤°à¥įà¤ľà¤¾": 1934,
      "ely": 1935,
      "Ġà¤¡à¤¿à¤ľ": 1936,
      "à¤¾à¤ĸà¤£à¥įà¤¡": 1937,
      "Ġà¤ħà¤®à¥ĩà¤°à¤¿à¤ķà¤¾": 1938,
      "Ġrak": 1939,
      "Ġx": 1940,
      "ward": 1941,
      "Ġà¤ķà¥Į": 1942,
      "40": 1943,
      "Ġem": 1944,
      "Ġdata": 1945,
      "Ġà¤Ĳà¤¸à¤¾": 1946,
      "Ġkarna": 1947,
      "60": 1948,
      "Ġà¤¯à¥ĭà¤Ĺ": 1949,
      "à¤ĩà¤¨": 1950,
      "Ġsec": 1951,
      "100": 1952,
      "Ġà¤¸à¤Ĥà¤ª": 1953,
      "Ġà¤®à¤¾à¤®": 1954,
      "gan": 1955,
      "Ġà¤¨à¤¿à¤°à¥įà¤®à¤¾à¤£": 1956,
      "Ġà¤¸à¤°à¥įà¤µ": 1957,
      "Ġmin": 1958,
      "à¥ĥà¤¤à¤¿à¤ķ": 1959,
      "Ġà¤ļà¤¿à¤ķ": 1960,
      "=\"": 1961,
      "Ġbl": 1962,
      "à¤®à¤¾à¤°": 1963,
      "Ġimport": 1964,
      "à¤¿à¤¥": 1965,
      "Ġà¤¸à¤¾à¤°": 1966,
      "Ġà¤¬à¤¡à¤¼à¥ĩ": 1967,
      "Ġsuch": 1968,
      "Ġà¤ļà¤¾à¤°": 1969,
      "fect": 1970,
      "à¤¤à¤¿à¤ķ": 1971,
      "Ġoff": 1972,
      "Ġà¤¸à¥įà¤¥à¤¿à¤¤à¤¿": 1973,
      "à¥ĥà¤¤à¤¿": 1974,
      "Ġà¤Ĩà¤¦": 1975,
      "à¤¬à¤²": 1976,
      "-à¤ķ": 1977,
      "Ġafter": 1978,
      "à¤µà¤¾à¤°": 1979,
      "Ġind": 1980,
      "à¤ªà¥įà¤¤": 1981,
      "Ġà¤ªà¥įà¤°à¤ķà¥įà¤°": 1982,
      "Ġà¤ªà¤¾à¤ł": 1983,
      "Ġà¤¸à¤®à¤¾à¤¨": 1984,
      "Ġthan": 1985,
      "ange": 1986,
      "Ġà¤¬à¤ľ": 1987,
      "195": 1988,
      "à¥¨": 1989,
      "ina": 1990,
      "à¤ķà¥įà¤·à¤¿à¤¤": 1991,
      "Ġà¤¸à¤Ĥà¤¬à¤Ĥà¤§à¤¿à¤¤": 1992,
      "Ġrel": 1993,
      "Ġà¤Ńà¤¾à¤·à¤¾": 1994,
      "Ġà¤ªà¤°à¤¿à¤µà¤°à¥įà¤¤": 1995,
      "Ġhoga": 1996,
      "Ġcall": 1997,
      "ert": 1998,
      "uring": 1999,
      "Ġà¤¹à¤®à¤¾à¤°à¥ĩ": 2000,
      "Ġà¤¬à¤²": 2001,
      "Ġplan": 2002,
      "à¤¾à¤µà¤°à¤£": 2003,
      "Ġhelp": 2004,
      "Ġpa": 2005,
      "à¥ĩà¤·à¤£": 2006,
      "à¤¸à¤¾à¤¯": 2007,
      "Ġà¤ľà¥ģ": 2008,
      "aki": 2009,
      "Ġsamaj": 2010,
      "à¤ļà¤¾à¤¨": 2011,
      "vas": 2012,
      "ept": 2013,
      "Ġà¤ªà¥ģà¤¸à¥įà¤¤": 2014,
      "Ġà¤²à¤¿à¤¯à¤¾": 2015,
      "Ġà¤¸à¤Ĥà¤ĺ": 2016,
      "Ġà¤µà¥ĩà¤¬": 2017,
      "à¤¾à¤²à¤¾": 2018,
      "ivers": 2019,
      "Ġà¤µà¤¿à¤ļà¤¾à¤°": 2020,
      "Ġmat": 2021,
      "igh": 2022,
      "Ġà¤¤à¤¥à¤¾": 2023,
      "à¤¿à¤¨à¤¾": 2024,
      "Ġà¤µà¤¾à¤ķà¥įà¤¯": 2025,
      "Ġà¤¨à¤¿à¤®à¥įà¤¨à¤²à¤¿à¤ĸà¤¿à¤¤": 2026,
      "à¥ĩà¤¤": 2027,
      "Ġà¤²à¤¾à¤Ĺ": 2028,
      "ten": 2029,
      "Ġsakate": 2030,
      "Ġham": 2031,
      "Ġset": 2032,
      "Ġchar": 2033,
      "ll": 2034,
      "à¤¾à¤Ĥà¤ķ": 2035,
      "Ġà¤¬à¥ĩà¤¹": 2036,
      "Ġà¤ħà¤Ĺ": 2037,
      "Ġà¤ªà¤¹à¥ģ": 2038,
      "ada": 2039,
      "Ġpre": 2040,
      "ober": 2041,
      "à¤¾à¤¯à¤ķ": 2042,
      "Ġà¤ķà¤Ńà¥Ģ": 2043,
      "Ġà¤ľà¤¬à¤ķà¤¿": 2044,
      "2001": 2045,
      "Ġà¤¬à¤ļà¥įà¤ļà¥ĭà¤Ĥ": 2046,
      "Ġà¤ħà¤²à¤¾à¤µà¤¾": 2047,
      "Ġà¤ªà¥įà¤²": 2048,
      "ĠPr": 2049,
      "Ġà¤¸à¥įà¤ķà¥Ĥà¤²": 2050,
      "à¤¸à¤¿à¤¤": 2051,
      "Ġà¤µà¥įà¤¯à¤¾à¤ª": 2052,
      "Ġà¤ªà¤¹à¥ģà¤Ĥà¤ļ": 2053,
      "Ġmade": 2054,
      "Ġmost": 2055,
      "Ġà¤µà¤¾à¤²à¤¾": 2056,
      "Ġlist": 2057,
      "Ġwhen": 2058,
      "27": 2059,
      "Ġà¤¸à¤¾à¤®à¤¾à¤¨à¥įà¤¯": 2060,
      "à¤¾à¤¯à¤°": 2061,
      "overn": 2062,
      "§à¤¾à¤°": 2063,
      "ex": 2064,
      "Ġany": 2065,
      "Ġà¤īà¤ªà¤ķà¤°à¤£": 2066,
      "à¤ıà¤¸": 2067,
      "Ġsath": 2068,
      "Ġzaroor": 2069,
      "Ġà¤¦à¤ķà¥įà¤·à¤¿à¤£": 2070,
      "rib": 2071,
      "Ġà¤ľà¤¿à¤¸à¤¸à¥ĩ": 2072,
      "Ġsm": 2073,
      "',": 2074,
      "Ġà¤¹à¥ĭà¤Ĥ": 2075,
      "à¤ľà¥įà¤ŀà¤¾à¤¨à¤¿à¤ķ": 2076,
      "Ġtumhe": 2077,
      "26": 2078,
      "à¤¬à¤°": 2079,
      "Ġmus": 2080,
      "à¥ģà¤ĵà¤Ĥ": 2081,
      "Ġgo": 2082,
      "ause": 2083,
      "Ġà¤Ĭà¤°à¥įà¤ľà¤¾": 2084,
      "à¥ģà¤Ĺ": 2085,
      "Ġà¤¤à¤ķà¤¨à¥Ģ": 2086,
      "Ġdr": 2087,
      "za": 2088,
      "Ġà¤Ńà¤°": 2089,
      "Ġà¤®à¤¾à¤¨à¤µ": 2090,
      "Ġkarne": 2091,
      "ught": 2092,
      "Ġsome": 2093,
      "Ġà¤®à¤ľ": 2094,
      "28": 2095,
      "Ġà¤¬à¤¨à¤¾": 2096,
      "Ġà¤Ĩà¤ķ": 2097,
      "ject": 2098,
      "29": 2099,
      "Ġprog": 2100,
      "à¤µà¥įà¤¯": 2101,
      "ts": 2102,
      "ames": 2103,
      "Ġreg": 2104,
      "eptember": 2105,
      "ision": 2106,
      "its": 2107,
      "Ġà¤ªà¤¢à¤¼": 2108,
      "Ġà¤µà¤°à¥įà¤Ĺ": 2109,
      "Ġà¤Ĺà¤£": 2110,
      "Ġà¤ĩà¤¤à¤¿à¤¹à¤¾à¤¸": 2111,
      "à¥īà¤¡": 2112,
      "ific": 2113,
      "Ġinv": 2114,
      "à¤Ĺà¥įà¤°à¤¹": 2115,
      "Ġknown": 2116,
      "ĠUnited": 2117,
      "à¥ĩà¤Ĺà¤¾": 2118,
      "Ġspec": 2119,
      "iven": 2120,
      "Ġeach": 2121,
      "Ġà¤ķà¤¾à¤°à¥įà¤¯à¤ķà¥įà¤°à¤®": 2122,
      "ular": 2123,
      "ala": 2124,
      "Ġà¤ķà¤²": 2125,
      "Ġà¤¦à¥ĩà¤ĸà¥ĩà¤Ĥ": 2126,
      "ollow": 2127,
      "à¥ĭà¤¹": 2128,
      "à¥Ĥà¤¦": 2129,
      "Ġà¤°à¤¾à¤·à¥įà¤Łà¥įà¤°à¥Ģà¤¯": 2130,
      "ures": 2131,
      "Ġà¤¸à¥įà¤¥à¤¾à¤ª": 2132,
      "à¤¾à¤¨à¥ĭà¤Ĥ": 2133,
      "ple": 2134,
      "tr": 2135,
      ")à¥¤": 2136,
      "ij": 2137,
      "Ġà¤¹à¤®à¥ĩà¤Ĥ": 2138,
      "à¤²à¤¬à¥įà¤§": 2139,
      "Ġà¤²à¤¡à¤¼": 2140,
      "Ġbah": 2141,
      "ss": 2142,
      "Ġà¤¸à¤Ĥà¤¸à¥įà¤ķ": 2143,
      "Ġà¤¦à¤¿à¤²": 2144,
      "Ġgr": 2145,
      "à¤Ĥà¤¸": 2146,
      "Ġà¤¨à¥įà¤¯à¥Ĥ": 2147,
      "akar": 2148,
      "ilk": 2149,
      "ph": 2150,
      "Ġà¤¤à¤¾à¤ķà¤¿": 2151,
      "Ġà¤®à¥ĩ": 2152,
      "Ġprov": 2153,
      "ms": 2154,
      "Ġmod": 2155,
      "itt": 2156,
      "Ġà¤Ĺà¤¤": 2157,
      "Ġà¤¦à¤¿à¤ı": 2158,
      "ween": 2159,
      "Ġà¤¤à¥Īà¤¯à¤¾à¤°": 2160,
      "Ġwould": 2161,
      "ĠSeptember": 2162,
      "âĢį": 2163,
      "Ġà¤ļà¤¿à¤ķà¤¿à¤¤": 2164,
      "ball": 2165,
      "Ġà¤ıà¤µà¤Ĥ": 2166,
      "ĠThey": 2167,
      "193": 2168,
      "str": 2169,
      "amily": 2170,
      "à¤¾à¤¹à¤¿à¤¤": 2171,
      "Ġà¤ľà¥ĭà¤¡à¤¼": 2172,
      "à¤ķà¤¾à¤²": 2173,
      "Ġdiffer": 2174,
      "Ġword": 2175,
      "Ġà¤µà¤¿à¤·à¤¯": 2176,
      "Ġà¤īà¤ªà¤²à¤¬à¥įà¤§": 2177,
      "Ġà¤ªà¥įà¤°à¤¤à¤¿": 2178,
      "à¤¾à¤Ĥà¤ķà¤¿": 2179,
      "Ġgro": 2180,
      "à¤¾à¤¤à¥Ģ": 2181,
      "âĢĻ": 2182,
      "stem": 2183,
      "Ġinc": 2184,
      "à¥ĥà¤¦à¥įà¤§": 2185,
      "Ġà¤Ľà¥ĭà¤Łà¥ĩ": 2186,
      "à¥įà¤¶à¤¨": 2187,
      "Ġà¤īà¤¤à¥įà¤¤à¤°à¤¾à¤ĸà¤£à¥įà¤¡": 2188,
      "ĠNew": 2189,
      "Ġà¤®à¥ģ": 2190,
      "Ġsaid": 2191,
      "(\"": 2192,
      "à¥Ĥà¤Ł": 2193,
      "ally": 2194,
      "à¥įà¤µà¤°": 2195,
      "à¤ķà¥įà¤¤à¤¿": 2196,
      "ets": 2197,
      "à¤Ĥà¤¦à¤°": 2198,
      "Ġdec": 2199,
      "cted": 2200,
      "Ġroop": 2201,
      "Ġsup": 2202,
      "ince": 2203,
      "Ġà¤«à¥įà¤°": 2204,
      "Ġà¤µà¤¿à¤ķà¤¸à¤¿à¤¤": 2205,
      "à¤ķà¤°à¥įà¤¤à¤¾": 2206,
      "Ġà¤Ĩà¤ľ": 2207,
      "Ġcre": 2208,
      "Ġà¤¯à¤¹à¤¾à¤ģ": 2209,
      "hir": 2210,
      "ize": 2211,
      "li": 2212,
      "ister": 2213,
      "Ġcol": 2214,
      "--------": 2215,
      "Ġà¤ªà¥įà¤°à¤¦à¥ĩà¤¶": 2216,
      "ork": 2217,
      "ahin": 2218,
      "tal": 2219,
      "alth": 2220,
      "red": 2221,
      "Ġpos": 2222,
      "Ġà¤¨à¤¿à¤µ": 2223,
      "à¤¤à¤®": 2224,
      "Ġmed": 2225,
      "Ġà¤¦à¥Ĥà¤°": 2226,
      "Ġà¤¸à¤¿à¤Ĥ": 2227,
      "à¤ķà¥įà¤¸à¤°": 2228,
      "Ġà¤¤à¤¬": 2229,
      "Ġco": 2230,
      "Ġbana": 2231,
      "à¥ĩà¤¯à¤°": 2232,
      "à¤Ĥà¤Ń": 2233,
      "Ġbu": 2234,
      "ower": 2235,
      "Ġmake": 2236,
      "Ġà¤ħà¤Ĥà¤Ĺ": 2237,
      "Ġbetween": 2238,
      "any": 2239,
      "à¥ĭà¤¬": 2240,
      "adi": 2241,
      "Ġà¤¹à¥ĭà¤¨à¤¾": 2242,
      "à¤Ĺà¥įà¤°à¥Ģ": 2243,
      "ene": 2244,
      "Ġà¤¸à¤Ĥà¤Ńà¤µ": 2245,
      "à¥įà¤²à¥ĩà¤·à¤£": 2246,
      "Ġà¤ħà¤ªà¤¨à¤¾": 2247,
      "ave": 2248,
      "Ġà¤¨à¥Ģà¤ļà¥ĩ": 2249,
      "rough": 2250,
      "Ġà¤¹à¥Īà¤ĥ": 2251,
      "Ġfollow": 2252,
      "ful": 2253,
      "Ġà¤ħà¤¨à¥ģà¤Ń": 2254,
      "Ġà¤ªà¥Ĥà¤°à¥Ģ": 2255,
      "Ġtar": 2256,
      "ives": 2257,
      "Ġatt": 2258,
      "ilkul": 2259,
      "Ġà¤¦à¤°à¥įà¤¶": 2260,
      "Ġà¤¦à¤°": 2261,
      "gy": 2262,
      "Ġhote": 2263,
      "Ġà¤ªà¥įà¤°à¤£à¤¾à¤²à¥Ģ": 2264,
      "Ġghar": 2265,
      "Ġà¤Ĺà¥ģà¤£": 2266,
      "Ġunder": 2267,
      "oth": 2268,
      "à¤µà¤¿à¤¦à¥įà¤¯à¤¾à¤²à¤¯": 2269,
      "à¥įà¤®à¥Ģ": 2270,
      "(d": 2271,
      "Ġfl": 2272,
      "aut": 2273,
      "Ġà¤ªà¤¹à¤ļà¤¾à¤¨": 2274,
      "à¤ªà¥ģà¤°": 2275,
      "Ġà¤µà¤°à¥įà¤£": 2276,
      "Ġà¤¸à¥įà¤ªà¤·à¥įà¤Ł": 2277,
      "à¤ľà¤¾à¤¤": 2278,
      "oj": 2279,
      "Ġà¤¸à¤Ĥà¤Ĺ": 2280,
      "à¥Ģà¤ķà¤°à¤£": 2281,
      "ital": 2282,
      "Ġop": 2283,
      "à¤¤à¤ĥ": 2284,
      "bers": 2285,
      "à¤°à¤¾à¤¬": 2286,
      "Ġà¤¸à¤Ĥà¤¯à¥ģà¤ķà¥įà¤¤": 2287,
      "Ġà¤ªà¥ģà¤¸à¥įà¤¤à¤ķ": 2288,
      "ein": 2289,
      "ement": 2290,
      "Ġà¤²à¤¾à¤Ń": 2291,
      "à¤ļà¤¿à¤¤": 2292,
      "enc": 2293,
      "Ġà¤ħà¤ķà¥įà¤¸à¤°": 2294,
      "à¤²à¤Ĺ": 2295,
      "ral": 2296,
      "Ġprogram": 2297,
      "à¤µà¤¿à¤ķ": 2298,
      "Ġà¤¬à¤¾à¤¹à¤°": 2299,
      "yon": 2300,
      "à¤®à¤¿à¤¤": 2301,
      "Ġà¤µà¤°à¥įà¤¤": 2302,
      "à¤¤à¥ĭà¤Ĥ": 2303,
      "Ġà¤īà¤¨à¤ķà¤¾": 2304,
      "à¤ľà¤°": 2305,
      "à¤¨à¤²": 2306,
      "à¤¿à¤Ľ": 2307,
      "Ġà¤ªà¤°à¥Ģà¤ķà¥įà¤·à¤£": 2308,
      "Ġstart": 2309,
      "Ġà¤¶à¥ģà¤°à¥ģà¤Ĩ": 2310,
      "à¤Łà¥Ģ": 2311,
      "ments": 2312,
      "ix": 2313,
      "Ġà¤¸à¤Ĥà¤¸": 2314,
      "à¤¾à¤®à¥Ģ": 2315,
      "à¤°à¥įà¤·à¤ķ": 2316,
      "Ġhue": 2317,
      "Ġà¤µà¤¿à¤¶à¥įà¤µà¤µà¤¿à¤¦à¥įà¤¯à¤¾à¤²à¤¯": 2318,
      "Ġà¤ļà¥ģ": 2319,
      "Ġadd": 2320,
      "à¤¶à¥įà¤ļà¤¿à¤®": 2321,
      "Ġyears": 2322,
      "Ġà¤ĳà¤«": 2323,
      "ode": 2324,
      "Ġneed": 2325,
      "iya": 2326,
      "get": 2327,
      "Ġacc": 2328,
      "à¤ªà¥ģà¤Ł": 2329,
      "Ġà¤ªà¥ģà¤¨": 2330,
      "Ġà¤¯à¥ģà¤¦à¥įà¤§": 2331,
      "Ġsur": 2332,
      "à¤īà¤¤": 2333,
      "Ġà¤ªà¥įà¤°à¤¸à¥įà¤¤": 2334,
      "ĠEng": 2335,
      "Ġpah": 2336,
      "Ġà¤ªà¥įà¤°à¤¯à¥ĭà¤Ĺ": 2337,
      "à¤²à¥įà¤²": 2338,
      "els": 2339,
      "Ġà¤¨à¤¿à¤¯à¤Ĥà¤¤à¥įà¤°": 2340,
      "python": 2341,
      "à¤ľà¥įà¤ŀ": 2342,
      "Ġà¤µà¤¸à¥įà¤¤": 2343,
      "outh": 2344,
      "Ġà¤ľà¤¨à¥įà¤®": 2345,
      "à¤Ĩà¤Ī": 2346,
      "Ġà¤¸à¥ģà¤§à¤¾à¤°": 2347,
      "Ġà¤ħà¤®à¥ĩà¤°à¤¿à¤ķà¥Ģ": 2348,
      "à¤¸à¤Ĥà¤¦": 2349,
      "Ġpop": 2350,
      "Ġà¤ľà¤¼": 2351,
      "à¤®à¤¿à¤ķ": 2352,
      "ather": 2353,
      "à¤¾à¤²à¤¨": 2354,
      "Ġadhik": 2355,
      "à¥ĩà¤µ": 2356,
      "Ġsun": 2357,
      "Ġà¤ĩà¤¸à¤®à¥ĩà¤Ĥ": 2358,
      "eh": 2359,
      "arm": 2360,
      "Ġà¤¨à¤¿à¤°à¥įà¤§à¤¾à¤°": 2361,
      "Ġdist": 2362,
      "Ġà¤¸à¤¾à¤®à¤Ĺà¥įà¤°à¥Ģ": 2363,
      "Ġraha": 2364,
      "Ġart": 2365,
      "ric": 2366,
      "Ġà¤ªà¥Ĥà¤°à¤¾": 2367,
      "à¤¡à¤¼à¥ĭà¤Ĥ": 2368,
      "velop": 2369,
      "Ġzaroori": 2370,
      "Ġà¤Łà¥Ģà¤®": 2371,
      "Ġà¤®à¤¤": 2372,
      "Ġteam": 2373,
      "Ġà¤ªà¥įà¤°à¤¯": 2374,
      "ative": 2375,
      "Ġà¤¤à¥ĩà¤ľ": 2376,
      ".\"": 2377,
      "Ġà¤ħà¤§à¤¿à¤ķà¤¾à¤Ĥà¤¶": 2378,
      "à¤¿à¤¤à¥įà¤µ": 2379,
      "Ġfun": 2380,
      "Ġà¤ħà¤ļà¥įà¤Ľà¤¾": 2381,
      "ird": 2382,
      "Ġà¤¨à¤¿à¤°à¥įà¤¦": 2383,
      "ating": 2384,
      "ton": 2385,
      "wn": 2386,
      "Ġsent": 2387,
      "Ġà¤¬à¤ļà¥įà¤ļà¥ĩ": 2388,
      "Ġapane": 2389,
      "Ġà¤®à¥ĩà¤°": 2390,
      "à¤¾à¤¸à¤¨": 2391,
      "Ġcalled": 2392,
      "ines": 2393,
      "Ġà¤µà¤¿à¤¶à¥įà¤²à¥ĩà¤·à¤£": 2394,
      "à¥ĩà¤ª": 2395,
      "ĠSh": 2396,
      "isi": 2397,
      "Ġà¤Ĺà¤°à¥įà¤®": 2398,
      "80": 2399,
      "Ġà¤¬à¤¡à¤¼à¥Ģ": 2400,
      "ution": 2401,
      "Ġpo": 2402,
      "Ġà¤¹à¥Ĥà¤Ĥ": 2403,
      "Ġhow": 2404,
      "Ġà¤¸à¤¹à¥Ģ": 2405,
      "Ġà¤Ńà¤¾à¤°à¤¤à¥Ģà¤¯": 2406,
      "Ġà¤¹à¤¾à¤²à¤¾à¤Ĥà¤ķà¤¿": 2407,
      "à¤¿à¤ķà¥ĭ": 2408,
      "Ġcons": 2409,
      "Ġà¤¦à¥ĩà¤¤à¥ĩ": 2410,
      "Ġperson": 2411,
      "Ġhim": 2412,
      "omm": 2413,
      "Ġà¤Ĺà¤¿à¤°": 2414,
      "He": 2415,
      "à¤°à¥Ģà¤°": 2416,
      "Ġà¤ªà¤¤à¥įà¤°": 2417,
      "Ġà¤µà¤¿à¤ķà¤²à¥įà¤ª": 2418,
      "Ġtotal": 2419,
      "Ġrem": 2420,
      "Ġnahin": 2421,
      "anu": 2422,
      "iver": 2423,
      "Ġkarata": 2424,
      "à¥ĥà¤¤à¥įà¤¯": 2425,
      "ci": 2426,
      "Ġà¤¸à¤Ĥà¤¦à¤°à¥įà¤Ń": 2427,
      "Ġwrit": 2428,
      "Ġà¤¸à¤¤": 2429,
      "Ġà¤¸à¥ĩà¤µà¤¾": 2430,
      "Ġà¤¹à¥ĭà¤Ĺà¥Ģ": 2431,
      "à¤¸à¥įà¤¥à¤¾": 2432,
      "Ġsub": 2433,
      "Ġà¤ķà¥įà¤·à¤®": 2434,
      "Ġà¤²à¥ĭà¤ķ": 2435,
      "Ġthrough": 2436,
      "à¤¾à¤¯à¥ģ": 2437,
      "yak": 2438,
      "à¤¾à¤¡à¤¼à¥Ģ": 2439,
      "Ġmet": 2440,
      "Ġjaise": 2441,
      "ices": 2442,
      "Th": 2443,
      "à¤¸à¥įà¤ª": 2444,
      "Ġà¤ªà¥įà¤°à¤ķà¥įà¤°à¤¿à¤¯à¤¾": 2445,
      "Ġà¤ħà¤Ńà¥Ģ": 2446,
      "Ġarr": 2447,
      "az": 2448,
      "Ġà¤ĺà¤Ł": 2449,
      "Ġà¤ķà¥įà¤·à¥ĩà¤¤à¥įà¤°à¥ĭà¤Ĥ": 2450,
      "Ġà¤ķà¤¾à¤¨": 2451,
      "à¤µà¤¿à¤§": 2452,
      "Ġà¤Ĩà¤Ĺà¥ĩ": 2453,
      "Ġà¤¦à¥ĥà¤·à¥įà¤Ł": 2454,
      "Ġlike": 2455,
      "Ġà¤¬à¥ĩà¤¹à¤¤à¤°": 2456,
      "Ġà¤ľà¤µà¤¾à¤¬": 2457,
      "ility": 2458,
      "tern": 2459,
      "anc": 2460,
      "Ġsk": 2461,
      "Ġà¤ĩà¤¸à¤¸à¥ĩ": 2462,
      "Ġserv": 2463,
      "ĠPython": 2464,
      "ock": 2465,
      "à¤¸à¤¾à¤ĩà¤Ł": 2466,
      "Ġjab": 2467,
      "Ġà¤ħà¤ļà¥įà¤Ľà¥Ģ": 2468,
      "Ġclass": 2469,
      "Ġà¤Ĩà¤ķà¤¾à¤°": 2470,
      "Ġà¤ĸà¤°à¥Ģ": 2471,
      "ĠMarch": 2472,
      "Ġà¤ªà¤¡à¤¼": 2473,
      "ctober": 2474,
      "une": 2475,
      "Ġà¤īà¤¤à¥įà¤ªà¤¾à¤¦à¤¨": 2476,
      "Ġlife": 2477,
      "Ġà¤īà¤¤à¥įà¤ªà¤¨à¥įà¤¨": 2478,
      "à¤¾à¤«à¥Ģ": 2479,
      "à¤¿à¤¯à¤¾à¤Ĥ": 2480,
      "Ġà¤Ńà¤¾à¤µ": 2481,
      "à¤µà¤¾à¤¨": 2482,
      "à¤¹à¤®": 2483,
      "imes": 2484,
      "Ġkarana": 2485,
      "Ek": 2486,
      "Ġà¤¬à¤¿à¤¨à¤¾": 2487,
      "à¤¿à¤ķà¥įà¤°": 2488,
      "Ġmah": 2489,
      "Ġà¤¸à¥ģà¤°à¤ķà¥įà¤·à¤¾": 2490,
      "à¤¨à¥įà¤¯": 2491,
      "Ġname": 2492,
      "Ġpas": 2493,
      "Ġrahe": 2494,
      "Ġpres": 2495,
      "Ġà¤µà¤¿à¤¤": 2496,
      "ĠStates": 2497,
      "Ġà¤ĩà¤¸à¤ķà¥Ģ": 2498,
      "Ġà¤ªà¥Į": 2499,
      "Ã©": 2500,
      "Ġà¤ªà¤°à¤¿à¤µà¤¾à¤°": 2501,
      "ax": 2502,
      "Ġà¤¶à¤¿à¤ķà¥įà¤·à¤¾": 2503,
      "Ġprodu": 2504,
      "Ġfamily": 2505,
      "Ġà¤¦à¥Ĥà¤¸à¤°à¥ĩ": 2506,
      "Ġi": 2507,
      "Ġà¤¶à¥Ī": 2508,
      "Ġhon": 2509,
      "Ġjan": 2510,
      "Ġmay": 2511,
      "wer": 2512,
      "Ġà¤ľà¤¾à¤°à¥Ģ": 2513,
      "Ġwhere": 2514,
      "à¤ļà¤¨": 2515,
      "Ġcent": 2516,
      "Ġà¤¨à¤µ": 2517,
      "à¤¬à¥įà¤²": 2518,
      "Ġà¤ªà¥įà¤°à¤¸": 2519,
      "apt": 2520,
      "Ġche": 2521,
      "à¤ķà¤°à¥įà¤¤à¤¾à¤ĵà¤Ĥ": 2522,
      "-à¤ľ": 2523,
      "Ġà¤µà¥Īà¤ľà¥įà¤ŀà¤¾à¤¨à¤¿à¤ķ": 2524,
      "Ġà¤ªà¥ģà¤²": 2525,
      "à¥ĥà¤·à¥įà¤ł": 2526,
      "Ġà¤®à¥īà¤¡": 2527,
      "Ġà¤ħà¤¨à¥ģà¤Ńà¤µ": 2528,
      "Ġà¤¸à¥Ģà¤ĸ": 2529,
      "Ġà¤ıà¤«": 2530,
      "Ġonly": 2531,
      "Ġà¤¶à¤°à¥Ģà¤°": 2532,
      "Ġà¤°à¤ĸà¤¨à¥ĩ": 2533,
      "Ġà¤Ľà¥ĭà¤¡à¤¼": 2534,
      "Ġmovie": 2535,
      "par": 2536,
      "Ġlong": 2537,
      "Ġà¤ªà¥įà¤°à¤Ńà¤¾à¤µà¤¿à¤¤": 2538,
      "Ġend": 2539,
      "__": 2540,
      "Ġdeta": 2541,
      "ugust": 2542,
      "à¥Ģà¤¸": 2543,
      "Ġfound": 2544,
      "ka": 2545,
      "Ġà¤¸à¤®à¤°à¥įà¤¥": 2546,
      "Ġà¤¨à¥Į": 2547,
      "Ġà¤¦à¤¶": 2548,
      "Ġyah": 2549,
      "Ġà¤ªà¤¿à¤Ľ": 2550,
      "à¤¿à¤¸à¥įà¤¤": 2551,
      "Ġexper": 2552,
      "Ġvis": 2553,
      "Ġà¤¨à¤Ī": 2554,
      "Ġà¤ªà¥įà¤°à¤¯à¤¾à¤¸": 2555,
      "à¤¤à¤¨": 2556,
      "ĠOctober": 2557,
      "à¤¾à¤¯à¤¦": 2558,
      "à¤¾à¤Ĥà¤¡": 2559,
      "Ġstate": 2560,
      "à¤¾à¤ľà¤¿à¤ķ": 2561,
      "Ġà¤ľà¤¾à¤Ĥà¤ļ": 2562,
      "Ġà¤ļà¤°à¥įà¤ļ": 2563,
      "à¤¿à¤Ĥà¤¦": 2564,
      "à¤¿à¤µà¤¿à¤§": 2565,
      "ĠZ": 2566,
      "à¤¾à¤ķà¥ĥà¤¤à¤¿à¤ķ": 2567,
      "Ġget": 2568,
      "line": 2569,
      "Ġgiven": 2570,
      "ĠMin": 2571,
      "Ġà¤µà¤°à¥įà¤¤à¤®à¤¾à¤¨": 2572,
      "Ġà¤ªà¤¹à¤²à¥Ģ": 2573,
      "Ġà¤¸à¤®à¥įà¤®": 2574,
      "Ġsamajh": 2575,
      "Ġà¤Ńà¥ĭà¤ľà¤¨": 2576,
      "à¥įà¤¹à¥ĭà¤Ĥà¤¨à¥ĩ": 2577,
      "Ġday": 2578,
      "Ġkarate": 2579,
      "Ġà¤ªà¤°à¤¿à¤µà¤°à¥įà¤¤à¤¨": 2580,
      "à¥ĭà¤µ": 2581,
      "à¥įà¤²à¥Ģ": 2582,
      "Ġà¤ķà¤¿à¤¤": 2583,
      "Ġà¤ľà¤¿à¤²à¥ĩ": 2584,
      "Ġlead": 2585,
      "chool": 2586,
      "à¤¸à¥Ģà¤²": 2587,
      "chn": 2588,
      "Ġel": 2589,
      "1999": 2590,
      "Ġà¤ķà¤¾à¤²": 2591,
      "Ġà¤²à¥ĩà¤¨à¥ĩ": 2592,
      "à¥ĭà¤Ĺà¥įà¤°": 2593,
      "Ġform": 2594,
      "Ġworld": 2595,
      ".)": 2596,
      "Ġfin": 2597,
      "ĠHow": 2598,
      "(s": 2599,
      "à¤²à¥ĩà¤ķ": 2600,
      "lish": 2601,
      "oon": 2602,
      "vent": 2603,
      "Ġjata": 2604,
      "Ġthen": 2605,
      "Ġprad": 2606,
      "ues": 2607,
      "-à¤¬": 2608,
      "Ġcar": 2609,
      "Ġà¤ıà¤ķà¥įà¤¸": 2610,
      "other": 2611,
      "Ġà¤µà¤¿à¤°": 2612,
      "Ġà¤ķà¤ª": 2613,
      "Ġsing": 2614,
      "urs": 2615,
      "Ġà¤ħà¤¦": 2616,
      "à¤µà¥ĩ": 2617,
      "ali": 2618,
      "\")": 2619,
      "Ġà¤¸à¤«à¤²": 2620,
      "Ġà¤Ĺà¤¤à¤¿à¤µà¤¿à¤§": 2621,
      "Ġagain": 2622,
      "ctions": 2623,
      "Ġà¤¤à¤¹à¤¸à¥Ģà¤²": 2624,
      "à¤¦à¥įà¤¯à¥ĭà¤Ĺ": 2625,
      "à¤¨à¥Ģà¤¯": 2626,
      "Ġà¤ķà¤Ĥà¤ªà¤¨à¥Ģ": 2627,
      "Ġà¤°à¥ĭà¤ķ": 2628,
      "Ġà¤ĩà¤Ĥà¤Ł": 2629,
      "Ġthree": 2630,
      "Ġsystem": 2631,
      "ural": 2632,
      "à¤¤à¤Ĥà¤¤à¥įà¤°": 2633,
      "Ġbahut": 2634,
      "Ġà¤°à¤¿à¤ª": 2635,
      "ctor": 2636,
      "Ġloc": 2637,
      "ĠAugust": 2638,
      "anuary": 2639,
      "à¥ĭà¤«": 2640,
      "Ġà¤²à¥Ģ": 2641,
      "Ġà¤ªà¥įà¤°à¤¬à¤Ĥà¤§": 2642,
      "angu": 2643,
      "ature": 2644,
      "Ġà¤ıà¤ļ": 2645,
      "Ġà¤§à¤¾à¤°": 2646,
      "Ġà¤®à¥ģà¤¦": 2647,
      "orth": 2648,
      "à¤¿à¤·à¥įà¤¯": 2649,
      "Ġà¤ķà¥ģà¤²": 2650,
      "Ġà¤¯à¤¾à¤¦": 2651,
      "Ġdef": 2652,
      "Ġà¤µà¤°à¥įà¤·à¥ĭà¤Ĥ": 2653,
      "Ġnam": 2654,
      "ko": 2655,
      "Ġà¤ªà¥ĩ": 2656,
      "Ġchh": 2657,
      "Ġà¤ľà¤¹à¤¾à¤ģ": 2658,
      "à¤¾à¤ģà¤µ": 2659,
      "Ġà¤ľà¤¾à¤ıà¤Ĺà¤¾": 2660,
      "Ġà¤¯à¥ĭà¤ľà¤¨à¤¾": 2661,
      "à¤¸à¥įà¤¯à¤¾": 2662,
      "ink": 2663,
      "Ġpolit": 2664,
      "Ġà¤²à¥ĩà¤ķà¤°": 2665,
      "à¤īà¤¤à¥įà¤¤à¤°": 2666,
      "ĠSp": 2667,
      "Ġcr": 2668,
      "Ġna": 2669,
      "Ġà¤Ĩà¤¨": 2670,
      "Ġà¤Łà¥ĩ": 2671,
      "ĠIndia": 2672,
      "val": 2673,
      "Ġà¤¸à¤®à¥Ģà¤ķà¥įà¤·à¤¾": 2674,
      "uss": 2675,
      "rand": 2676,
      "con": 2677,
      "erman": 2678,
      "à¥įà¤°à¥ĭà¤¤": 2679,
      "ician": 2680,
      "à¤°à¥įà¤«": 2681,
      "ages": 2682,
      "ele": 2683,
      "Ġvish": 2684,
      "Ġà¤Ľà¤¾à¤¤à¥įà¤°à¥ĭà¤Ĥ": 2685,
      "à¥ģà¤ª": 2686,
      "ible": 2687,
      "orld": 2688,
      "Ġà¤¨à¤¿à¤°à¥įà¤§à¤¾à¤°à¤¿à¤¤": 2689,
      "à¤ĵ": 2690,
      "Ġcould": 2691,
      "2002": 2692,
      "Ġmaza": 2693,
      "Ġà¤¬à¥įà¤²": 2694,
      "ublic": 2695,
      "Ġà¤ľà¤Ĺ": 2696,
      "Ġà¤ªà¥įà¤°à¤¾à¤°": 2697,
      "apan": 2698,
      "ruary": 2699,
      "ebruary": 2700,
      "Ġcity": 2701,
      "Ġà¤¸à¥įà¤®": 2702,
      "à¤Ńà¤¾": 2703,
      "Ġà¤¸à¥ĩà¤µ": 2704,
      "Ġà¤ľà¤¿à¤¸à¤ķà¤¾": 2705,
      "Ġà¤¬à¤¡à¤¼à¤¾": 2706,
      "à¤µà¤°à¥Ģ": 2707,
      "aks": 2708,
      "Ġà¤®à¥Ģ": 2709,
      "Ġà¤µà¥Ģ": 2710,
      "ology": 2711,
      "Ġjis": 2712,
      "ĠMay": 2713,
      "ants": 2714,
      "Ġà¤®à¤§à¥įà¤¯": 2715,
      "Ġred": 2716,
      "oorn": 2717,
      "à¥ĥà¤¦à¥įà¤§à¤¿": 2718,
      "Ġà¤ªà¥įà¤°à¤¾à¤ķà¥ĥà¤¤à¤¿à¤ķ": 2719,
      "def": 2720,
      "</": 2721,
      "Ġà¤ļà¥Į": 2722,
      "à¤£à¥Ģ": 2723,
      "Ġà¤¬à¤¨à¤¾à¤¯à¤¾": 2724,
      "aur": 2725,
      "Ġself": 2726,
      "à¤ľà¥Ĥà¤¦": 2727,
      "à¤®à¤¤à¤¿": 2728,
      "à¤¬à¤¾à¤¹": 2729,
      "Ġrele": 2730,
      "Ġà¤µà¥ĩà¤¬à¤¸à¤¾à¤ĩà¤Ł": 2731,
      "Ġmon": 2732,
      "Ġstud": 2733,
      "Ġà¤¸à¤Ĥà¤¸à¥įà¤¥": 2734,
      "Ġà¤¤à¤°à¥Ģà¤ķà¥ĩ": 2735,
      "Ġdifferent": 2736,
      "à¥įà¤¦à¥ĩà¤¶": 2737,
      "à¤¾à¤ķà¤°": 2738,
      "Ġdire": 2739,
      "ck": 2740,
      "ever": 2741,
      "uly": 2742,
      "Ġà¤¸à¤Ĥà¤Ĺà¤ł": 2743,
      "Ġà¤ªà¤ķ": 2744,
      "Ġà¤ªà¤¸à¤Ĥà¤¦": 2745,
      "ope": 2746,
      "Ġide": 2747,
      "Ġsim": 2748,
      "atv": 2749,
      "à¥ĩà¤Ĥà¤¸": 2750,
      "Ġà¤µà¤¾à¤ª": 2751,
      "à¤¿à¤ķà¤¾à¤°à¤¿à¤ķ": 2752,
      "à¥įà¤°à¥ĩà¤¸": 2753,
      "Ġà¤¸à¤Ĥà¤¸à¤¾à¤§": 2754,
      "Ġà¤¶à¥ģà¤°à¥ģà¤Ĩà¤¤": 2755,
      "Ġà¤¬à¥ĩ": 2756,
      "Ġà¤ļà¤¿à¤ķà¤¿à¤¤à¥įà¤¸à¤¾": 2757,
      "Ġà¤µà¤¿à¤¶à¤¿à¤·à¥įà¤Ł": 2758,
      "Ġrakh": 2759,
      "à¥ĥà¤¤à¥įà¤¤": 2760,
      "Ġresult": 2761,
      "Ġsakte": 2762,
      "Ġà¤Ĺà¥įà¤°à¤¾à¤¹": 2763,
      "Ġever": 2764,
      "ivid": 2765,
      "ĠJanuary": 2766,
      "Ġà¤¸à¤¾à¤®à¤¾à¤ľà¤¿à¤ķ": 2767,
      "air": 2768,
      "let": 2769,
      "Ġkuchh": 2770,
      "à¤£à¤¾": 2771,
      "Ġà¤Ńà¥Ĥ": 2772,
      "ĠAd": 2773,
      "Ġà¤ļà¤¿à¤¤à¥įà¤°": 2774,
      "arr": 2775,
      "Ġà¤¸à¤®à¤¸à¥įà¤¯à¤¾": 2776,
      "Ġà¤Ĳà¤¸à¥ĩ": 2777,
      "à¤¶à¤¨": 2778,
      "à¤µà¤¾à¤Ī": 2779,
      "Ġthi": 2780,
      "Ġà¤«à¥Ī": 2781,
      "à¥įà¤¦à¤°à¥įà¤Ń": 2782,
      "Ġà¤®à¤¾à¤¤à¥įà¤°à¤¾": 2783,
      "Ġimportant": 2784,
      "ins": 2785,
      "Ġbecause": 2786,
      "ĠPro": 2787,
      "à¤¤à¥Įà¤°": 2788,
      "Ġà¤¹à¤²": 2789,
      "70": 2790,
      "Ġà¤®à¤¿à¤¶": 2791,
      "Ġà¤īà¤¤à¥įà¤¤": 2792,
      "Ġà¤®à¤¹à¤¿à¤²": 2793,
      "Ġà¤ĸà¥ģà¤¦": 2794,
      "Ġà¤ķà¥įà¤·à¤®à¤¤à¤¾": 2795,
      "fore": 2796,
      "ove": 2797,
      "Ġmak": 2798,
      "Ġà¤®à¤ľà¤¬": 2799,
      "Ġsoc": 2800,
      "aan": 2801,
      "90": 2802,
      "Ġà¤ªà¤°à¥įà¤¯à¤¾à¤µà¤°à¤£": 2803,
      "Ġgroup": 2804,
      "Ġsnb": 2805,
      "riend": 2806,
      "Ġapne": 2807,
      "à¤Ĺà¥Ģà¤¤": 2808,
      "Ġà¤¬à¤¿à¤²": 2809,
      "Ġà¤Ĩà¤§à¤¿à¤ķà¤¾à¤°à¤¿à¤ķ": 2810,
      "Ġborn": 2811,
      "Ġprint": 2812,
      "ism": 2813,
      "à¤¾à¤¦à¥įà¤¯": 2814,
      "Ġbo": 2815,
      "Ġà¤ªà¤¤": 2816,
      "Ġà¤ªà¤ķà¥įà¤·": 2817,
      "Ġass": 2818,
      "Ġalag": 2819,
      "Ġhealth": 2820,
      "Ġà¤ķà¥ĥà¤·": 2821,
      "erm": 2822,
      "mber": 2823,
      "Ġà¤ħà¤¨à¥ģà¤¸": 2824,
      "ush": 2825,
      "à¤Ĥà¤Łà¥Ģ": 2826,
      "Ġà¤¯à¤¾à¤¤à¥įà¤°à¤¾": 2827,
      "Ġsecond": 2828,
      "\":": 2829,
      "à¤¾à¤¸à¥Ģ": 2830,
      "Ġà¤µà¤¿à¤Ńà¤¾à¤Ĺ": 2831,
      "-s": 2832,
      "ĠFebruary": 2833,
      "Ġà¤ªà¤¦à¤¾à¤°": 2834,
      "udi": 2835,
      "Ġpad": 2836,
      "à¤µà¥Ģà¤Ĥ": 2837,
      "overnment": 2838,
      "Ġà¤ħà¤§à¤¿à¤ķà¤¾à¤°": 2839,
      "Ġwhile": 2840,
      "Ġà¤ªà¥įà¤°à¤¦à¤°à¥įà¤¶à¤¨": 2841,
      "Ġà¤ªà¥įà¤°à¤¤à¤¿à¤ķà¥įà¤°": 2842,
      "Ġà¤¸à¥įà¤°à¥ĭà¤¤": 2843,
      "nal": 2844,
      "à¤¿à¤Ĺà¤¤": 2845,
      "Ġà¤¬à¤¨à¤¾à¤ı": 2846,
      "Ġà¤¤à¥Įà¤°": 2847,
      "Ġà¤¸à¤ķà¥ĩ": 2848,
      "Ġgener": 2849,
      "à¥ĥà¤¥": 2850,
      "==": 2851,
      "duc": 2852,
      "tar": 2853,
      "Ġà¤Ĺà¤¾à¤ģà¤µ": 2854,
      "à¤£à¥įà¤¡à¤²": 2855,
      "span": 2856,
      "ron": 2857,
      "Ġà¤īà¤¸à¤ķà¥Ģ": 2858,
      "Ġà¤Ńà¤µà¤¿à¤·à¥įà¤¯": 2859,
      "Ġà¤¸à¤Ĥà¤ķà¥ĩ": 2860,
      "à¥īà¤Ł": 2861,
      "Ġà¤¨à¥įà¤¯": 2862,
      "Ġfil": 2863,
      "Ġdevelop": 2864,
      "Ġà¤īà¤¦à¥įà¤¦à¥ĩà¤¶": 2865,
      "ustom": 2866,
      "Ġà¤ļà¤¾à¤¹à¤¤à¥ĩ": 2867,
      "Ġmark": 2868,
      "Ġdekh": 2869,
      "Ġfind": 2870,
      "à¤«à¤¼": 2871,
      "ĠNov": 2872,
      "à¤¸à¥įà¤¥à¤¿à¤¤": 2873,
      "ience": 2874,
      "Ġà¤ªà¤¦à¤¾à¤°à¥įà¤¥": 2875,
      "ank": 2876,
      "\".": 2877,
      "cember": 2878,
      "Ġty": 2879,
      "à¤¸à¤¨à¥įà¤¦à¤°à¥įà¤Ń": 2880,
      "Ġà¤ĸà¤°à¥Ģà¤¦": 2881,
      "à¥įà¤¯à¤¾à¤¦": 2882,
      "Ġà¤¸à¤Ĥà¤Ĺà¥įà¤°à¤¹": 2883,
      "Ġà¤ķà¤°à¥ĩà¤Ĥà¤Ĺà¥ĩ": 2884,
      "Ġà¤ªà¥ĩà¤¶": 2885,
      "Ġkarte": 2886,
      "Ġshow": 2887,
      "att": 2888,
      "Ġrahi": 2889,
      "Ġsol": 2890,
      "erv": 2891,
      "urr": 2892,
      "à¥Ĥà¤°à¥Ģ": 2893,
      "Ġà¤¸à¤¾à¤Ĥ": 2894,
      "Ġà¤²à¤Ĺà¤¤à¤¾": 2895,
      "Ġaav": 2896,
      "à¥Īà¤Ĥà¤ķ": 2897,
      "rid": 2898,
      "ious": 2899,
      "Ġgaya": 2900,
      "à¥įà¤®à¥Ģà¤¦": 2901,
      "Ġà¤ªà¥Įà¤§": 2902,
      "Ġà¤ļà¤°à¤£": 2903,
      "Ġà¤®à¥īà¤¡à¤²": 2904,
      "Ġà¤²à¤ķà¥įà¤·": 2905,
      "ena": 2906,
      "Ġdied": 2907,
      "à¤¿à¤ķà¥įà¤¸": 2908,
      "2010": 2909,
      "Ġà¤¸à¤¿à¤¦à¥įà¤§": 2910,
      "Ġà¤ķà¤Ĥà¤ªà¥įà¤¯à¥Ĥ": 2911,
      "à¤°à¤¾à¤ľ": 2912,
      "Ġed": 2913,
      "Ġà¤¦à¥ģ": 2914,
      "Ġà¤ķà¤®à¥Ģ": 2915,
      "day": 2916,
      "Ġà¤µà¥ĥà¤¦à¥įà¤§à¤¿": 2917,
      "ĠFran": 2918,
      "Ġà¤¦à¥ĩà¤ĸà¤¾": 2919,
      "Ġà¤¸à¤Ĥà¤Ĺà¥Ģà¤¤": 2920,
      "ade": 2921,
      "Ġbus": 2922,
      "af": 2923,
      "Ġà¤°à¤¹à¤¨à¥ĩ": 2924,
      "Ġà¤ķà¤°à¥ĩà¤Ĺà¤¾": 2925,
      "ote": 2926,
      "Ġà¤¹à¤¿à¤¸à¥įà¤¸": 2927,
      "iness": 2928,
      "Ġà¤ħà¤Ĥà¤¤à¤¿à¤®": 2929,
      "à¤Ĩà¤°": 2930,
      "à¤°à¤²": 2931,
      "à¤¸à¥įà¤Łà¥įà¤°": 2932,
      "Ġent": 2933,
      "Ġà¤¡à¤¾à¤²": 2934,
      "à¤¾à¤ģà¤ķà¤¿": 2935,
      "Ġge": 2936,
      "gor": 2937,
      "Ġkit": 2938,
      "Ġà¤īà¤ł": 2939,
      "à¤¬à¤¾à¤¹à¤°à¥Ģ": 2940,
      "Ġà¤ªà¤°à¤¿à¤¯": 2941,
      "way": 2942,
      "Ġà¤ªà¤¶à¥įà¤ļà¤¿à¤®": 2943,
      "à¥ĩà¤Ĥà¤Ĺà¥ĩ": 2944,
      "Ġà¤¯à¥Ĥà¤°": 2945,
      "Ġà¤¬à¤Ĥà¤¦": 2946,
      "Ġà¤¬à¤¤à¤¾à¤¯à¤¾": 2947,
      "Ġà¤Ĩà¤ªà¤ķà¥Ģ": 2948,
      "Ġmadad": 2949,
      "word": 2950,
      "-à¤®": 2951,
      "Ġà¤¸à¥ĭà¤ļ": 2952,
      "Ġsaath": 2953,
      "Ġà¤ķà¤¾à¤«à¥Ģ": 2954,
      "à¤¾à¤ļà¤¾à¤°": 2955,
      "à¥įà¤·à¤®": 2956,
      "Ġà¤µà¤¿à¤µà¤°à¤£": 2957,
      "Ġà¤°à¤¿à¤ªà¥ĭà¤°à¥įà¤Ł": 2958,
      "à¤Ĥà¤¶": 2959,
      "Ġà¤ľà¤¹à¤¾à¤Ĥ": 2960,
      "Ġà¤¸à¤ķà¥įà¤·à¤®": 2961,
      "Ġà¤Ĩà¤®à¤¤à¥Įà¤°": 2962,
      "Ġà¤Ĩà¤¤": 2963,
      "à¤¹à¤¨": 2964,
      "Ġbas": 2965,
      "Ġà¤Ĭà¤ªà¤°": 2966,
      "-à¤ħà¤²à¤Ĺ": 2967,
      "ional": 2968,
      "Ġà¤ħà¤Ĺà¤°": 2969,
      "ffect": 2970,
      "ats": 2971,
      "à¤ıà¤®": 2972,
      "Ġà¤¦à¥ĩà¤ĸà¤¤à¥ĩ": 2973,
      "Ġà¤®à¤¾à¤°à¥įà¤Ĺ": 2974,
      "eld": 2975,
      "Ġsamay": 2976,
      "pos": 2977,
      "//": 2978,
      "à¤Ĥà¤¤à¥įà¤°à¥Ģ": 2979,
      "ohn": 2980,
      "Ġà¤¸à¥ģà¤¨à¤¿à¤¶à¥įà¤ļà¤¿à¤¤": 2981,
      "Ġà¤µà¤¿à¤²": 2982,
      "à¤¶à¤²": 2983,
      "Ġà¤ķà¤¹à¤¤à¥ĩ": 2984,
      "Ġà¤īà¤¤à¥įà¤¸": 2985,
      "Ġduring": 2986,
      "Ġusing": 2987,
      "ootball": 2988,
      "Ġà¤Ĩà¤¦à¤¿": 2989,
      "Ġà¤¯à¥ģ": 2990,
      "ality": 2991,
      "à¥ĥà¤¤à¥įà¤¯à¥ģ": 2992,
      "à¤¡à¤¼à¤¿à¤¯à¤¾à¤ģ": 2993,
      "Ġdon": 2994,
      "ĠDecember": 2995,
      "ness": 2996,
      "33": 2997,
      "Ġà¤¸à¤Ĥà¤ļ": 2998,
      "à¥ĥà¤Ĥà¤ĸ": 2999,
      "à¤¾à¤·à¥įà¤Łà¥įà¤°à¥Ģà¤¯": 3000,
      "Ġwater": 3001,
      "à¥Ĥà¤°à¥įà¤¤": 3002,
      "ample": 3003,
      "à¤īà¤Ł": 3004,
      "à¥ĭà¤°à¥įà¤¡": 3005,
      "Ġà¤§à¤°à¥įà¤®": 3006,
      "-à¤¦": 3007,
      "à¥ĭà¤¸à¥įà¤Ł": 3008,
      "Ġwell": 3009,
      "arning": 3010,
      "à¤¤à¥įà¤¤à¤¾": 3011,
      "ty": 3012,
      "Ġlet": 3013,
      "esh": 3014,
      "ason": 3015,
      "pril": 3016,
      "Ġà¤¸à¤Ĥà¤Ńà¤¾à¤µà¤¨à¤¾": 3017,
      "ai": 3018,
      "atch": 3019,
      "Ġà¤ķà¥Įà¤¨": 3020,
      "Ġà¤°à¤ĸà¤¾": 3021,
      "Ġà¤¸à¤Ĥà¤¤": 3022,
      "Main": 3023,
      "à¤ĳ": 3024,
      "Ġà¤®à¥Īà¤Ĥà¤¨à¥ĩ": 3025,
      "Ġà¤µà¤¿à¤¨": 3026,
      "45": 3027,
      "Ġà¤ķà¥Īà¤Ĥ": 3028,
      "Ġcare": 3029,
      "ho": 3030,
      "Ġà¤µà¤¿à¤¸à¥įà¤¤à¥ĥà¤¤": 3031,
      "oda": 3032,
      "-à¤µ": 3033,
      "Ġà¤ķà¥Īà¤²": 3034,
      "iqu": 3035,
      "Ġà¤ªà¥ģà¤²à¤¿à¤¸": 3036,
      "Ġà¤®à¤¹à¤¿à¤²à¤¾": 3037,
      "Ġà¤ħà¤¨à¥ģà¤®à¤¾à¤¨": 3038,
      "Ġà¤ĸà¤¿à¤²à¤¾à¤«": 3039,
      "Ġà¤ªà¥ĥà¤¥": 3040,
      "à¥īà¤°à¥įà¤¡": 3041,
      "Ġyear": 3042,
      "Ġprab": 3043,
      "Bilkul": 3044,
      "Ġà¤īà¤®à¥įà¤®à¥Ģà¤¦": 3045,
      "ĠWorld": 3046,
      "Ġà¤¨à¤¿à¤°": 3047,
      "Ġà¤¸à¤¿à¤Ĥà¤¹": 3048,
      "à¥įà¤¬à¤¨": 3049,
      "à¤¿à¤ķà¥įà¤¤": 3050,
      "Ġà¤¹à¤¿à¤¸à¥įà¤¸à¤¾": 3051,
      "arth": 3052,
      "Ġà¤ªà¤¦": 3053,
      "Ġno": 3054,
      "Ġà¤ªà¤¿à¤Ľà¤²à¥ĩ": 3055,
      "(à¤ľ": 3056,
      "ĠNovember": 3057,
      "à¤¶à¥įà¤µ": 3058,
      "aron": 3059,
      "Ġà¤¹à¤¾à¤²à¤¾à¤ģà¤ķà¤¿": 3060,
      "à¤¶à¥Ģà¤²": 3061,
      "à¤¿à¤ķà¥ĭà¤£": 3062,
      "Ġà¤¹à¤¾à¤¥": 3063,
      "Ġà¤ħà¤¨à¥ģà¤®à¤¤à¤¿": 3064,
      "Ġà¤Ĩà¤¨à¥ĩ": 3065,
      "à¤¾à¤Ĥà¤ķà¤¨": 3066,
      "Ġà¤¸à¥Īà¤¨": 3067,
      "ps": 3068,
      "à¤¨à¥ĩà¤Ł": 3069,
      "Ġà¤¦à¥ĥ": 3070,
      "Ġà¤¨à¤¿à¤°à¥įà¤¦à¥ĩà¤¶": 3071,
      "à¤Ńà¤¾à¤°": 3072,
      "yada": 3073,
      "Ġà¤¹à¥Ĥà¤ģ": 3074,
      "ains": 3075,
      "à¤ªà¥įà¤°à¤¶": 3076,
      "Ġtrans": 3077,
      "(born": 3078,
      "Ġà¤¨à¤¦à¥Ģ": 3079,
      "Ġà¤ľà¤¿à¤¸à¤ķà¥ĩ": 3080,
      "Ġbecame": 3081,
      "ĠJuly": 3082,
      "ĠAust": 3083,
      "2020": 3084,
      "iet": 3085,
      "ĠGerman": 3086,
      "cc": 3087,
      "Ġlangu": 3088,
      "ually": 3089,
      "ient": 3090,
      "Ġback": 3091,
      "ied": 3092,
      "Ġà¤®à¤£à¥įà¤¡à¤²": 3093,
      "Ġà¤ķà¤¹à¤¾à¤¨à¥Ģ": 3094,
      "Ġà¤ħà¤ķ": 3095,
      "Ġthese": 3096,
      "Ġà¤ªà¥įà¤°à¤ľà¤¾à¤¤": 3097,
      "Ġsong": 3098,
      "Ġà¤®à¤¾à¤¨à¤¾": 3099,
      "2005": 3100,
      "à¤Ĥà¤Ĺà¤²": 3101,
      "Ġà¤ĩà¤Ĥà¤Łà¤°": 3102,
      "Ġà¤¤à¤¤à¥įà¤µ": 3103,
      "aar": 3104,
      "Ġà¤¶à¥įà¤°à¥ĩ": 3105,
      "ese": 3106,
      "Ġà¤µà¥įà¤¯à¤¾à¤ªà¤ķ": 3107,
      "Ġà¤¯à¤¹à¤¾à¤Ĥ": 3108,
      "ences": 3109,
      "à¤ķà¤¾à¤°à¤¾à¤¤à¥įà¤®à¤ķ": 3110,
      "omet": 3111,
      "Ġà¤¸à¤®à¤°à¥įà¤¥à¤¨": 3112,
      "iversity": 3113,
      "35": 3114,
      "Ġbeing": 3115,
      "Ġà¤łà¥Ģà¤ķ": 3116,
      "à¤§à¤¿": 3117,
      "Ans": 3118,
      "ergy": 3119,
      "Ġsee": 3120,
      "Ġà¤ĩà¤²": 3121,
      "ven": 3122,
      "Ġà¤¸à¤¾à¤°à¥įà¤µ": 3123,
      "ody": 3124,
      "à¥įà¤°à¤¿à¤¯": 3125,
      "ait": 3126,
      "Ġà¤ħà¤°": 3127,
      "2014": 3128,
      "##": 3129,
      "hel": 3130,
      "ries": 3131,
      "Answer": 3132,
      "2011": 3133,
      "Ġà¤¸à¤®à¤¾à¤ľ": 3134,
      "com": 3135,
      "Ġà¤«à¥įà¤²": 3136,
      "Ġdid": 3137,
      "Ġà¤®à¤¹à¥Ģ": 3138,
      "à¤¾à¤ĩà¤ķ": 3139,
      "ier": 3140,
      "Ġà¤µà¤¾à¤ªà¤¸": 3141,
      "Ġtechn": 3142,
      "à¤®à¤¨": 3143,
      "Ġà¤¸à¥įà¤Łà¥įà¤°": 3144,
      "à¤¯à¥ĩ": 3145,
      "Ġà¤ªà¤¾à¤¯à¤¾": 3146,
      "va": 3147,
      "Ġà¤īà¤²à¥įà¤²": 3148,
      "print": 3149,
      "aly": 3150,
      "Ġvyak": 3151,
      "iving": 3152,
      "Ġà¤¸à¤²": 3153,
      "ĠPe": 3154,
      "Ġà¤¤à¤¾à¤ª": 3155,
      "ĠAI": 3156,
      "ute": 3157,
      "Ġob": 3158,
      "aye": 3159,
      "Ġgu": 3160,
      "Ġà¤ĸà¤¾à¤¦à¥įà¤¯": 3161,
      "Ġà¤¸à¤¦à¤¸à¥įà¤¯": 3162,
      "Ġà¤¸à¥įà¤¥à¤¾à¤ªà¤¿à¤¤": 3163,
      "Ġbest": 3164,
      "Ġà¤¶à¥įà¤°à¥ĥà¤Ĥà¤ĸ": 3165,
      "))": 3166,
      "rict": 3167,
      "2012": 3168,
      "num": 3169,
      "à¤¿à¤¯à¥ĩ": 3170,
      "Ġà¤¤à¤Ł": 3171,
      "ĠApril": 3172,
      "Ġbel": 3173,
      "pp": 3174,
      "Ġà¤ħà¤«": 3175,
      "à¤°à¥ĭ": 3176,
      "Ġinform": 3177,
      "Ġà¤µà¥įà¤¯à¤µà¤¹à¤¾à¤°": 3178,
      "Ġà¤ªà¥Ĥà¤°à¥įà¤£": 3179,
      "ting": 3180,
      "Ġà¤¹à¤¾à¤°": 3181,
      "Ġà¤°à¤ķà¥įà¤¤": 3182,
      "Ġcharact": 3183,
      "dh": 3184,
      "Ġà¤¶à¤¬à¥įà¤¦à¥ĭà¤Ĥ": 3185,
      "ble": 3186,
      "Ġà¤ªà¥Ģà¤Ľ": 3187,
      "Ġà¤¹à¥Īà¤Ĥà¤ĥ": 3188,
      "iew": 3189,
      "kar": 3190,
      "me": 3191,
      "à¤¿à¤°à¤¿à¤ķà¥įà¤¤": 3192,
      "Ġà¤²à¤¾à¤Ĺà¥Ĥ": 3193,
      "Ġà¤ķà¥ĥ": 3194,
      "Ġà¤µà¤¾à¤¸à¥įà¤¤à¤µà¤¿à¤ķ": 3195,
      "ĠAs": 3196,
      "Ġhigh": 3197,
      "ague": 3198,
      "ists": 3199,
      "à¥įà¤£": 3200,
      "Ġsmall": 3201,
      "||||": 3202,
      "Ġright": 3203,
      "Ġfollowing": 3204,
      "2003": 3205,
      "à¤ıà¤²": 3206,
      "à¤®à¥įà¤¬": 3207,
      "Ġà¤¸à¥įà¤¥à¤¾à¤¨à¥Ģà¤¯": 3208,
      "Ġà¤ľà¤¿à¤¨à¥įà¤¹à¥ĩà¤Ĥ": 3209,
      "Ġà¤ľà¤Ĺà¤¹": 3210,
      "Ġà¤ħà¤Ĥà¤Ĺà¥įà¤°à¥ĩ": 3211,
      "Ġà¤ľà¤°": 3212,
      "à¥Ģà¤ª": 3213,
      "isht": 3214,
      "Ġà¤¸à¤®à¤¸à¥įà¤¯": 3215,
      "jan": 3216,
      "à¥ģà¤ģ": 3217,
      "nt": 3218,
      "Ġà¤ķà¤ł": 3219,
      "2004": 3220,
      "2008": 3221,
      "à¤¸à¤¾à¤¨": 3222,
      "ĠCon": 3223,
      "à¤ıà¤¨": 3224,
      "Ġhone": 3225,
      "Ġcommun": 3226,
      "ĠAnd": 3227,
      "Ġà¤¦à¤¶à¤ķ": 3228,
      "2013": 3229,
      "cept": 3230,
      "à¤®à¥įà¤ª": 3231,
      "Ġà¤ķà¤¡à¤¼à¤¿à¤¯à¤¾à¤ģ": 3232,
      "\"à¤®": 3233,
      "Ġà¤ķà¥ģà¤®": 3234,
      "Ġvery": 3235,
      "Ġà¤¡à¤¿à¤ľà¤¾à¤ĩà¤¨": 3236,
      "ized": 3237,
      "Ġà¤µà¤¾à¤°": 3238,
      "ury": 3239,
      "Ġà¤¸à¤¹à¤¾à¤¯": 3240,
      "Ġà¤¬à¥Īà¤ł": 3241,
      "Ġplayed": 3242,
      "Ġinst": 3243,
      "2007": 3244,
      "à¤¾à¤§à¤¾à¤¨": 3245,
      "Ġà¤ħà¤¤à¤¿à¤°à¤¿à¤ķà¥įà¤¤": 3246,
      "Ġà¤ķà¥ĭà¤¶à¤¿à¤¶": 3247,
      "Ġmar": 3248,
      "ograp": 3249,
      "Ġà¤¸à¥įà¤µà¤¤à¤Ĥà¤¤à¥įà¤°": 3250,
      "Ġà¤¨à¤®": 3251,
      "amen": 3252,
      "Ġcost": 3253,
      "bum": 3254,
      "2006": 3255,
      "à¤®à¥į": 3256,
      "aa": 3257,
      "Ġà¤ĩà¤ķ": 3258,
      "à¥Įà¤¦à¥įà¤¯à¥ĭà¤Ĺ": 3259,
      "ived": 3260,
      "Ġà¤ªà¥ĥà¤¥à¥įà¤µà¥Ģ": 3261,
      "Ġà¤¤à¥įà¤°": 3262,
      "Ġà¤¸à¥įà¤¤": 3263,
      "Ġav": 3264,
      "Ġchild": 3265,
      "à¤®à¤¤": 3266,
      "Ġà¤¦à¥ĩà¤¶à¥ĭà¤Ĥ": 3267,
      "à¥ĩà¤¶à¤¾": 3268,
      "Ġà¤ļà¤°": 3269,
      "Ġà¤ķà¤Ĥà¤ªà¥įà¤¯à¥Ĥà¤Łà¤°": 3270,
      "Ġbre": 3271,
      "Ġà¤ħà¤ªà¥įà¤°": 3272,
      "Ġà¤ªà¤¹à¤²à¤¾": 3273,
      "à¤§à¤¾à¤¨": 3274,
      "-b": 3275,
      "à¤¿à¤¤à¥Ģà¤¯": 3276,
      "Ġà¤¨à¤¿à¤ķà¤¾à¤²": 3277,
      "à¤ľà¤¨à¤¿à¤ķ": 3278,
      "à¤¬à¥įà¤²à¥įà¤¯à¥Ĥ": 3279,
      "Ġà¤®à¥ĩà¤°à¥ĩ": 3280,
      "Ġà¤ªà¥ĥà¤·à¥įà¤ł": 3281,
      "Ġcustom": 3282,
      "Ġà¤¶à¤¤": 3283,
      "à¤¿à¤¨à¤¿à¤§": 3284,
      "ga": 3285,
      "à¤°à¥įà¤§": 3286,
      "à¤Łà¥įà¤Ł": 3287,
      "over": 3288,
      "Ġà¤ªà¥Ĥà¤°à¥ĩ": 3289,
      "à¥Ģà¤¡à¤¿à¤¯à¤¾": 3290,
      "my": 3291,
      "ript": 3292,
      "Ġair": 3293,
      "à¤¿à¤Ńà¤¾à¤·": 3294,
      "Ġway": 3295,
      "Ġà¤¤à¤²": 3296,
      "à¤ªà¥įà¤°à¤¶à¥įà¤¨": 3297,
      "à¤¤à¤¿à¤¹à¤¾à¤¸": 3298,
      "Ġà¤¸à¤Ĥà¤µ": 3299,
      "2009": 3300,
      "Ġà¤¬à¥įà¤°à¤¿à¤Ł": 3301,
      "ĠCl": 3302,
      "Ġà¤®à¤¾à¤ª": 3303,
      "Ġà¤¸à¤ķà¤¾à¤°": 3304,
      "It": 3305,
      "Ġà¤ķà¤°à¥įà¤®": 3306,
      "ĠPar": 3307,
      "Ġà¤Ĺà¤²": 3308,
      "Ġvari": 3309,
      "à¥Īà¤Ł": 3310,
      "ava": 3311,
      "Ġà¤¸à¤ķà¤¾à¤°à¤¾à¤¤à¥įà¤®à¤ķ": 3312,
      "à¤¾à¤Ĺà¤°": 3313,
      "Ġvale": 3314,
      "Ġà¤®à¥ĥà¤¤à¥įà¤¯à¥ģ": 3315,
      "Ġorgan": 3316,
      "à¤Ĩà¤ª": 3317,
      "¯à¥": 3318,
      "Ġsame": 3319,
      "ĠBrit": 3320,
      "ret": 3321,
      "Ġà¤¥à¥Ģà¤Ĥ": 3322,
      "Ġà¤īà¤¸à¤¨à¥ĩ": 3323,
      "Ġà¤¦à¥ĥà¤·à¥įà¤Łà¤¿à¤ķà¥ĭà¤£": 3324,
      "Ġboth": 3325,
      "Ġà¤¬à¤¾à¤²": 3326,
      "Ġà¤Ĩà¤¬": 3327,
      "enge": 3328,
      "Ġbro": 3329,
      "Ġà¤Ńà¥Ĥà¤®à¤¿": 3330,
      "Ġà¤ıà¤Ĥà¤¡": 3331,
      "Ġshould": 3332,
      "ĠFor": 3333,
      "à¤¿à¤¸à¥įà¤¤à¤¾à¤¨": 3334,
      "Ġà¤ľà¥ĩ": 3335,
      "Ġà¤°à¤¿à¤ķ": 3336,
      "Ġà¤ªà¥ģà¤°à¥ģà¤·": 3337,
      "Ġà¤®à¤¾à¤®à¤²à¥ĩ": 3338,
      "Ġà¤¸à¤Ĥà¤ªà¤°à¥įà¤ķ": 3339,
      "Ġà¤¶à¥įà¤°à¥ĥà¤Ĥà¤ĸà¤²à¤¾": 3340,
      "Ġà¤¯à¥Ĥà¤°à¥ĭà¤ª": 3341,
      "Ġà¤µà¤¿à¤¸à¥įà¤¤à¤¾à¤°": 3342,
      "Ġà¤¸à¤¹à¤¾à¤¯à¤¤à¤¾": 3343,
      "reen": 3344,
      "Ġà¤ªà¥įà¤°à¤¤à¤¿à¤¨à¤¿à¤§": 3345,
      "Ġpass": 3346,
      "Ġà¤¸à¤®à¥ģà¤¦à¤¾à¤¯": 3347,
      "til": 3348,
      "Ġà¤Ĩà¤°à¥įà¤¥": 3349,
      "Ġà¤¹à¤®à¥ĩà¤¶à¤¾": 3350,
      "mak": 3351,
      "!'": 3352,
      "à¤¾à¤Ĭ": 3353,
      "Ġproduct": 3354,
      "75": 3355,
      "1998": 3356,
      "Ġà¤¡à¥įà¤°": 3357,
      "Ġmem": 3358,
      "Ġà¤Ĩà¤Ĺ": 3359,
      "à¤¿à¤µà¤¾à¤°": 3360,
      "36": 3361,
      "Ġà¤ªà¥įà¤°à¥Įà¤¦à¥įà¤¯à¥ĭà¤Ĺ": 3362,
      "Ġà¤ķà¤µ": 3363,
      "Ġà¤ĺà¤Ĥà¤Ł": 3364,
      "à¤¾à¤ľà¤¼": 3365,
      "Ġchal": 3366,
      "Ġkaise": 3367,
      "31": 3368,
      "Ġà¤°à¤¾à¤ľà¤¨à¥Ģ": 3369,
      "Ġplayer": 3370,
      "Ġvik": 3371,
      "ÂłÂł": 3372,
      "ĠQ": 3373,
      "Ġà¤Ńà¥Ģà¤¤à¤°": 3374,
      "Ġà¤®à¤¹à¤¿à¤²à¤¾à¤ĵà¤Ĥ": 3375,
      "Ġwhat": 3376,
      "Ġtri": 3377,
      "Ġagainst": 3378,
      "Ġà¤¶à¥Ģà¤°à¥įà¤·à¤ķ": 3379,
      "ull": 3380,
      "ika": 3381,
      "Ġpur": 3382,
      "à¤¿à¤Łà¥Ģ": 3383,
      "ĠYah": 3384,
      "190": 3385,
      "This": 3386,
      "ield": 3387,
      "Ġà¤¸à¥Į": 3388,
      "à¤ĸà¤¿à¤®": 3389,
      "Ġprocess": 3390,
      "Ġdisc": 3391,
      "Ġà¤ķà¥ĥà¤·à¤¿": 3392,
      "Ġà¤ĸà¤¤à¤°": 3393,
      "ikh": 3394,
      "Ġsign": 3395,
      "Ġà¤Ĺà¥Īà¤°": 3396,
      "Ġaut": 3397,
      "Input": 3398,
      "Ġà¤®à¤¶": 3399,
      "Ġà¤¸à¥Ģà¤®à¤¾": 3400,
      "Ġà¤¸à¤¾à¤°à¥įà¤µà¤ľà¤¨à¤¿à¤ķ": 3401,
      "Ġbr": 3402,
      "Ġarea": 3403,
      "Ġà¤µà¥įà¤¯à¤ķà¥įà¤¤à¤¿à¤Ĺà¤¤": 3404,
      "à¤¾à¤ĩà¤®": 3405,
      "Ġà¤īà¤ªà¤ļà¤¾à¤°": 3406,
      "à¥ĭà¤Ĺà¥įà¤°à¤¾à¤®": 3407,
      "Ġà¤ħà¤ķà¥įà¤·": 3408,
      "Ġzyada": 3409,
      "Ġà¤ªà¥ģà¤°à¤¸à¥įà¤ķ": 3410,
      "Ġbare": 3411,
      "Ġà¤µà¤°à¥įà¤£à¤¨": 3412,
      "itional": 3413,
      "à¥īà¤ª": 3414,
      "Ġà¤¸à¤¹à¤¯à¥ĭà¤Ĺ": 3415,
      "Ġincluding": 3416,
      "Ġwoh": 3417,
      "Ġà¤Ĳà¤¸à¥Ģ": 3418,
      "Ġà¤Ńà¥ĩà¤ľ": 3419,
      "Ġà¤ļà¥Ģà¤ľ": 3420,
      "Ġà¤ıà¤¡": 3421,
      "reate": 3422,
      "Ġà¤īà¤¦à¥įà¤¦à¥ĩà¤¶à¥įà¤¯": 3423,
      "à¥Ģà¤ķà¥ĥà¤¤": 3424,
      "ĠTr": 3425,
      "aka": 3426,
      "à¤ķà¥įà¤°à¤®à¤£": 3427,
      "Ġà¤¸à¤Ĥà¤ķà¥ĩà¤¤": 3428,
      "à¤¨à¤¿": 3429,
      "ĠMinister": 3430,
      "Ġins": 3431,
      "Ġà¤¬à¤¸": 3432,
      "à¤¯à¤Ĥ": 3433,
      "Ġà¤ľà¥ĭà¤ĸà¤¿à¤®": 3434,
      "Ġà¤¸à¥ģà¤µà¤¿à¤§": 3435,
      "Ġà¤¨à¥ģà¤ķ": 3436,
      "Ġà¤¨à¤Ĺà¤°": 3437,
      "ung": 3438,
      "à¤°à¥įà¤ª": 3439,
      "Ġsir": 3440,
      "Ġà¤ªà¥įà¤°à¤¸à¥įà¤¤à¥ģà¤¤": 3441,
      "istory": 3442,
      "Ġà¤ķà¥Īà¤Ĥà¤¸à¤°": 3443,
      "Ġenergy": 3444,
      "Ġà¤Ĺà¤¤à¤¿": 3445,
      "à¤¾à¤¬à¥įà¤¦à¥Ģ": 3446,
      "che": 3447,
      "à¥ĩà¤¦à¤¾à¤°": 3448,
      "à¤µà¤¾à¤¯à¥ģ": 3449,
      "ley": 3450,
      "pad": 3451,
      "urrent": 3452,
      "to": 3453,
      "Ġà¤²à¤¾à¤²": 3454,
      "Ġseries": 3455,
      "à¤¾à¤ģà¤ļ": 3456,
      "ough": 3457,
      "Ġà¤ķà¥ģ": 3458,
      "ni": 3459,
      "ved": 3460,
      "Ġà¤¹à¤Ł": 3461,
      "Ġà¤¨à¤¿à¤°à¥įà¤£": 3462,
      "Ġà¤¸à¤®à¤¾à¤ªà¥įà¤¤": 3463,
      "Ġschool": 3464,
      "list": 3465,
      "name": 3466,
      "à¥įà¤¯à¤¾à¤¸": 3467,
      "à¤¾à¤ķà¤¾à¤°": 3468,
      "iron": 3469,
      "99": 3470,
      "Ġà¤µà¤¿à¤ª": 3471,
      "aining": 3472,
      "Ġà¤¦à¥ĭà¤¸à¥įà¤¤": 3473,
      "à¥ĩà¤Ĥà¤¡": 3474,
      "à¤¿à¤ķà¤¾à¤ĵà¤Ĥ": 3475,
      "à¥ĭà¤ľà¤¿à¤¤": 3476,
      "fl": 3477,
      "Ġvib": 3478,
      "Ġà¤ªà¥įà¤°à¤¤à¤¿à¤ķà¥įà¤°à¤¿à¤¯à¤¾": 3479,
      "Ġà¤¤à¤¾à¤ªà¤®à¤¾à¤¨": 3480,
      "On": 3481,
      "à¤¾à¤¹à¤¿à¤¤à¥įà¤¯": 3482,
      "Ġà¤¸à¤¿à¤¦à¥įà¤§à¤¾à¤Ĥà¤¤": 3483,
      "Ġà¤¶à¥įà¤°à¥Ģ": 3484,
      "Ġà¤¨à¥ĩà¤Ł": 3485,
      "Ġà¤¸à¥ģà¤°à¤ķà¥įà¤·à¤¿à¤¤": 3486,
      "à¥ģà¤·à¥įà¤Ł": 3487,
      "à¤¿à¤¸à¥įà¤¥": 3488,
      "Ġà¤¸à¤ªà¥įà¤¤": 3489,
      "à¤¾à¤¯à¤¨": 3490,
      "('": 3491,
      "Ġfour": 3492,
      "Ġà¤Ĩà¤¬à¤¾à¤¦à¥Ģ": 3493,
      "à¥īà¤«": 3494,
      "hon": 3495,
      "Ġrun": 3496,
      "Ġà¤¶à¤¾à¤¯à¤¦": 3497,
      "à¤Ĥà¤¡à¤²": 3498,
      "ja": 3499,
      "ĠOn": 3500,
      "ĠRe": 3501,
      "ĠPres": 3502,
      "mp": 3503,
      "oman": 3504,
      "Ġà¤ªà¤°à¤¿à¤Ńà¤¾à¤·": 3505,
      "Ġapani": 3506,
      "Ġà¤¦à¥ĩà¤ĸà¤¨à¥ĩ": 3507,
      "Ġà¤ªà¥Īà¤¦à¤¾": 3508,
      "Ġà¤¤à¤¥": 3509,
      "Ġà¤ľà¥Īà¤¸à¥Ģ": 3510,
      "app": 3511,
      "à¤Ķ": 3512,
      "Ġà¤¸à¥ģà¤Ŀ": 3513,
      "Ġà¤¨à¥Ī": 3514,
      "Ġour": 3515,
      "à¤µà¤°à¥įà¤ķ": 3516,
      "Ġla": 3517,
      "Ġsum": 3518,
      "Ġà¤īà¤®à¥įà¤°": 3519,
      "ify": 3520,
      "à¤ľà¥Ģà¤µ": 3521,
      "Ġkarake": 3522,
      "à¥Ģà¤Ł": 3523,
      "Ġdesign": 3524,
      "Ġbefore": 3525,
      "à¥īà¤²à¤°": 3526,
      "Ġmahatv": 3527,
      "vasth": 3528,
      "Ġà¤¸à¤Ĥà¤Ńà¤¾à¤µà¤¿à¤¤": 3529,
      "Ġhar": 3530,
      "Ġage": 3531,
      "Ġà¤ļà¤¯à¤¨": 3532,
      "ĠCan": 3533,
      "ĠJapan": 3534,
      "ĠJune": 3535,
      "Ġà¤Ńà¥Į": 3536,
      "Ġà¤¨à¥ģà¤ķà¤¸à¤¾à¤¨": 3537,
      "Ġgrow": 3538,
      "ĠEnglish": 3539,
      "Ġà¤®à¥Įà¤¸à¤®": 3540,
      "Ġmusic": 3541,
      "Ġold": 3542,
      "Ġaavas": 3543,
      "Ġà¤Ĺà¤Ĥ": 3544,
      "à¥ĭà¤°à¥Ģ": 3545,
      "à¤ªà¤¯à¤¾": 3546,
      "Ġtake": 3547,
      "ĠX": 3548,
      "lex": 3549,
      "Ġà¤Ńà¥Ĥà¤®à¤¿à¤ķà¤¾": 3550,
      "à¥ĩà¤Ĥà¤¦": 3551,
      "Ġmuch": 3552,
      "Ġkisi": 3553,
      "Ġà¤ķà¤Ł": 3554,
      "à¤¦à¤®": 3555,
      "ulation": 3556,
      "à¤īà¤¨": 3557,
      "hyak": 3558,
      "Ġà¤¬à¥ĩà¤Ł": 3559,
      "Ġdin": 3560,
      "Ġshamil": 3561,
      "Ġkhud": 3562,
      "Ġmarket": 3563,
      "Ġoften": 3564,
      "Ġà¤¤à¤ķà¤¨à¥Ģà¤ķ": 3565,
      "Ġà¤¨à¤¿à¤¯à¤Ĥà¤¤à¥įà¤°à¤£": 3566,
      "Ġdep": 3567,
      "ĠKing": 3568,
      "Ġà¤¸à¥ĩà¤Ł": 3569,
      "Ġstring": 3570,
      "Ġtrad": 3571,
      "Ġà¤¦à¤¿à¤ĸà¤¾à¤Ī": 3572,
      "arly": 3573,
      "Ġà¤¤à¤¾à¤²": 3574,
      "Ġà¤¸à¤Ĥà¤¶": 3575,
      "à¤Ńà¥Ģà¤°": 3576,
      "Ġà¤¸à¤®à¥ģà¤¦à¥įà¤°": 3577,
      "à¤ļà¤¾": 3578,
      "ĠIf": 3579,
      "Ġà¤ľà¥Īà¤¸à¤¾": 3580,
      "Ġà¤ªà¥įà¤°à¤ķà¤¾à¤¶à¤¿à¤¤": 3581,
      "Ġà¤®à¤ľà¤¬à¥Ĥà¤¤": 3582,
      "Ġà¤īà¤ªà¤¯à¥ĭà¤Ĺà¤ķà¤°à¥įà¤¤à¤¾": 3583,
      "Ġrange": 3584,
      "Ġsupport": 3585,
      "Ġà¤®à¤¾à¤²": 3586,
      "ished": 3587,
      "Ġgame": 3588,
      "Ġgovernment": 3589,
      "plic": 3590,
      "Ġà¤¨à¤¿à¤¶à¥įà¤ļà¤¿à¤¤": 3591,
      "ator": 3592,
      "Ġequ": 3593,
      "Ġà¤¯à¥Ĥà¤¨": 3594,
      "Ġà¤¤à¥ĩà¤ľà¥Ģ": 3595,
      "Ġpata": 3596,
      "Ġà¤Ĺà¥ĭ": 3597,
      "à¤Ĥà¤§à¤¾à¤¨": 3598,
      "à¤¾à¤¹à¥Ģ": 3599,
      "Ġrequ": 3600,
      "Ġfootball": 3601,
      "Ġmaj": 3602,
      "Ġà¤¸à¥Ĥà¤°": 3603,
      "ĠII": 3604,
      "Ġà¤¶à¤¤à¤¾à¤¬à¥įà¤¦à¥Ģ": 3605,
      "Ġprof": 3606,
      "Ġà¤°à¥ĭ": 3607,
      "Ġuntil": 3608,
      "Ġà¤ľà¥įà¤¯à¤¾à¤¦": 3609,
      "Ġà¤¨à¤¿à¤·à¥įà¤ķ": 3610,
      "Ġown": 3611,
      "Ġà¤ªà¥įà¤°à¤¬à¤Ĥà¤§à¤¨": 3612,
      "à¥įà¤ķà¤¿": 3613,
      "Ġsentence": 3614,
      "Ġpradan": 3615,
      "Ġà¤ľà¥įà¤ŀà¤¾à¤¨": 3616,
      "à¥Ĥà¤Ĥ": 3617,
      "Ġbusiness": 3618,
      ");": 3619,
      "apoorn": 3620,
      "adhar": 3621,
      "à¥įà¤°à¥ĩà¤¡": 3622,
      "Ġà¤¤à¤Ĥà¤¤à¥įà¤°": 3623,
      "ady": 3624,
      "à¤°à¤¿à¤¯à¤¾": 3625,
      "ott": 3626,
      "Ġà¤°à¤¾à¤¤": 3627,
      "Ġà¤®à¤¿à¤¨": 3628,
      "Ġsuc": 3629,
      "Ġà¤Ĩà¤°à¥įà¤¥à¤¿à¤ķ": 3630,
      "à¥īà¤Ĺ": 3631,
      "Ġthoda": 3632,
      "Ġimpro": 3633,
      "Ġà¤ľà¤¿à¤®": 3634,
      "Ġprabhav": 3635,
      "Ġà¤²à¤Ĺà¤¾": 3636,
      "Ġeng": 3637,
      "à¤¤à¤¾à¤²": 3638,
      "Ġà¤¬à¤¾à¤ľ": 3639,
      "Ġà¤¸à¤®à¤¾à¤§à¤¾à¤¨": 3640,
      "Ġwon": 3641,
      "ĠMar": 3642,
      "Ġà¤Ľà¥ĭà¤Łà¥Ģ": 3643,
      "ĠAt": 3644,
      "Ġà¤¦à¥ĩà¤¤à¥Ģ": 3645,
      "eek": 3646,
      "Ġà¤ħà¤¨à¥ģà¤¸à¤Ĥà¤§à¤¾à¤¨": 3647,
      "48": 3648,
      "32": 3649,
      "cha": 3650,
      "Ġà¤¨à¤¿à¤°à¥įà¤£à¤¯": 3651,
      "Ġà¤ļà¤¿à¤Ĥ": 3652,
      "Ġagar": 3653,
      "Ġà¤²à¤Ĺà¤¾à¤¨à¥ĩ": 3654,
      "Ġà¤ħà¤Ĥà¤¤à¤°à¤¿à¤ķà¥įà¤·": 3655,
      "rop": 3656,
      "press": 3657,
      "à¥ĩà¤¦à¤¨": 3658,
      "Ġà¤¸à¤¾à¤®à¤¨à¥ĩ": 3659,
      "Ġà¤µà¤¿à¤Ńà¤¾à¤ľ": 3660,
      "Ġà¤Ĺà¤Ĥà¤Ńà¥Ģà¤°": 3661,
      "Yaar": 3662,
      "ĠBl": 3663,
      "Ġevery": 3664,
      "Ġactiv": 3665,
      "Ġà¤ªà¥Ģà¤Ľà¥ĩ": 3666,
      "Ġresp": 3667,
      "chi": 3668,
      "Ġà¤²à¤Ĥà¤¬à¥ĩ": 3669,
      "à¤¾à¤¯à¤²": 3670,
      "Ġcreat": 3671,
      "-d": 3672,
      "à¤¨à¤²à¤¾à¤ĩà¤¨": 3673,
      "Ġà¤ªà¥įà¤°à¥ĭà¤Ł": 3674,
      "Ġà¤ªà¥įà¤°à¤¶à¤¿à¤ķà¥įà¤·": 3675,
      "son": 3676,
      "Ġà¤¸à¤ªà¥įà¤¤à¤¾à¤¹": 3677,
      "br": 3678,
      "....": 3679,
      "Ġpower": 3680,
      "Ġperform": 3681,
      "à¤¸à¤Ĥ": 3682,
      "Ġà¤µà¥įà¤¯à¤µà¤¸à¤¾à¤¯": 3683,
      "Ġà¤¬à¤²à¥įà¤ķà¤¿": 3684,
      "Ġà¤ķà¤¥": 3685,
      "à¥Ĥà¤·": 3686,
      "Ġtry": 3687,
      "ĠPal": 3688,
      "Ġalbum": 3689,
      "Ġà¤ªà¤¹à¥ģà¤ģ": 3690,
      "à¤ªà¤¤à¤¿": 3691,
      "St": 3692,
      "Ġà¤¸à¤µà¤¾à¤²": 3693,
      "Ġincre": 3694,
      "Haan": 3695,
      "Ġà¤¯à¥ĭà¤Ĺà¥įà¤¯": 3696,
      "à¤¬à¥įà¤°": 3697,
      "Ġà¤²à¤¾à¤ĸ": 3698,
      "ides": 3699,
      "Ġà¤Ľà¤µ": 3700,
      "Ġdoes": 3701,
      "Ġà¤ªà¤°à¤¿à¤¯à¥ĭà¤ľà¤¨à¤¾": 3702,
      "à¤¾à¤¯à¥Ģ": 3703,
      "Ġà¤Ĩà¤¤à¥įà¤®": 3704,
      "65": 3705,
      "à¤Ĥà¤ľà¤¨": 3706,
      "ength": 3707,
      "ĠPl": 3708,
      "Ġà¤ªà¥įà¤°à¤¤à¥Ģ": 3709,
      "Ġud": 3710,
      "à¤¨à¥įà¤¤": 3711,
      "Ġhand": 3712,
      "Ġà¤®à¤¹à¤¸": 3713,
      "Ġhal": 3714,
      "Ġà¤Ĩà¤ªà¤ķà¤¾": 3715,
      "gorith": 3716,
      "Ġà¤ªà¥įà¤°à¤¸à¤¿à¤¦à¥įà¤§": 3717,
      "Ġà¤ĩà¤Ĥà¤ľ": 3718,
      "aus": 3719,
      "Ġà¤¸à¤¡à¤¼": 3720,
      "à¤Łà¤¿à¤²": 3721,
      "2019": 3722,
      "2017": 3723,
      "ases": 3724,
      "Ġà¤ħà¤¤à¥įà¤¯": 3725,
      "à¤¿à¤¯à¤¾à¤Ī": 3726,
      "ency": 3727,
      "Ġta": 3728,
      "à¤¿à¤¬à¤Ĥà¤§": 3729,
      "Ġfunction": 3730,
      "Ġfriend": 3731,
      "Ġà¤īà¤¤à¥įà¤¤à¤°à¥Ģ": 3732,
      "-à¤¸à¤¾à¤¥": 3733,
      "'t": 3734,
      "à¥īà¤¸": 3735,
      "à¤¤à¥įà¤¤à¤¿": 3736,
      "Ġà¤®à¤¹à¤¸à¥Ĥà¤¸": 3737,
      "Ġbach": 3738,
      "Ġinformation": 3739,
      "Ġlar": 3740,
      "Ġà¤¸à¤¹à¤¿à¤¤": 3741,
      "Ġà¤¸à¤¿à¤¸à¥įà¤Ł": 3742,
      "Ġà¤°à¥ĭà¤®": 3743,
      "?'": 3744,
      "Ġà¤ľà¤²à¤µà¤¾à¤¯à¥ģ": 3745,
      "ĠSc": 3746,
      "Ġà¤¹à¤®à¤¾à¤°à¥Ģ": 3747,
      "_s": 3748,
      "Ġexample": 3749,
      "Ġfood": 3750,
      "led": 3751,
      "à¤Łà¤²": 3752,
      "Ġà¤¦à¥įà¤µà¥Ģà¤ª": 3753,
      "Ġà¤¨à¤ķà¤¾à¤°à¤¾à¤¤à¥įà¤®à¤ķ": 3754,
      "for": 3755,
      "à¤¤à¤¿à¤¯à¥ĭà¤Ĥ": 3756,
      "Ġeffect": 3757,
      "Ġà¤ªà¤¿à¤¤à¤¾": 3758,
      "Ġexpl": 3759,
      "ning": 3760,
      "Ġà¤ľà¤¿à¤¨à¤®à¥ĩà¤Ĥ": 3761,
      "Ġà¤¨à¥įà¤¯à¤¾à¤¯": 3762,
      "Ġà¤¸à¥įà¤¨": 3763,
      "Ġcountry": 3764,
      "à¤ªà¥įà¤°à¤¶à¥įà¤¨à¤ĥ": 3765,
      "Ġlast": 3766,
      "Ġà¤ļà¤®": 3767,
      "Ġà¤Ĺà¥Īà¤¸": 3768,
      "Ġaavashyak": 3769,
      "Ġfeel": 3770,
      "...": 3771,
      "Ġà¤ļà¤²à¤¤à¤¾": 3772,
      "Ġà¤®à¤Ľ": 3773,
      "Ġbar": 3774,
      "à¤¿à¤·à¥įà¤ł": 3775,
      "à¤§à¤¿à¤ķ": 3776,
      "Ġà¤ļà¥ģà¤¨à¤¾à¤µ": 3777,
      "Ġà¤®à¥ĭà¤Ł": 3778,
      "Ġà¤¬à¤¿à¤ľ": 3779,
      "à¤¾à¤¸à¥įà¤Ł": 3780,
      "_d": 3781,
      "ichar": 3782,
      "ling": 3783,
      "Ġplace": 3784,
      "à¤¶à¥ģ": 3785,
      "à¤¨à¤¾à¤®": 3786,
      "(c": 3787,
      "Ġà¤¨à¤¯à¤¾": 3788,
      "ĠCol": 3789,
      "Ġà¤°à¥ĩ": 3790,
      "Ġà¤°à¤¹à¤¤à¥ĩ": 3791,
      "à¥¨à¥¦": 3792,
      "Ġà¤µà¤¿à¤¤à¥įà¤¤": 3793,
      "Ġsabko": 3794,
      "à¥įà¤Ń": 3795,
      "Ġà¤¸à¤¿à¤°": 3796,
      "à¤ĩà¤¨à¥įà¤¹à¥ĩà¤Ĥ": 3797,
      "Ġà¤ļà¤²à¤¾": 3798,
      "Ġà¤¸à¤Ĥà¤Ĺà¤łà¤¨": 3799,
      "Ġà¤¹à¥ĭà¤Ĥà¤Ĺà¥ĩ": 3800,
      "à¤¾à¤ªà¤¨": 3801,
      "Ġà¤Ĺà¥įà¤°à¤¹": 3802,
      "à¤°à¥įà¤¯": 3803,
      "Ġà¤ķà¤¹à¤¨à¤¾": 3804,
      "Ġà¤ªà¤¾à¤²à¤¨": 3805,
      "Ġà¤°à¤¿à¤ķà¥īà¤°à¥įà¤¡": 3806,
      "ves": 3807,
      "à¤Ĺà¥ĭà¤²": 3808,
      "Ġà¤®à¥ģà¤¦à¥įà¤¦": 3809,
      "Ġà¤ħà¤µà¤§à¤¿": 3810,
      "ze": 3811,
      "Ġpoor": 3812,
      "Ġmy": 3813,
      "à¤Ńà¤¾à¤²": 3814,
      "Ġvya": 3815,
      "Ġà¤ľà¥īà¤¨": 3816,
      "Ġà¤ĺà¥ĭà¤·": 3817,
      "Ġkhar": 3818,
      "omen": 3819,
      "Ġprat": 3820,
      "2018": 3821,
      "isa": 3822,
      "Ġaround": 3823,
      "Ġparty": 3824,
      "-à¤Ĩ": 3825,
      "ider": 3826,
      "Ġà¤ķà¥ĩà¤Ĥà¤¦à¥įà¤°à¤¿à¤¤": 3827,
      "icip": 3828,
      "à¤¾à¤¥à¤®à¤¿à¤ķ": 3829,
      "Ġà¤¶à¤ķà¥įà¤¤à¤¿": 3830,
      "ox": 3831,
      "à¤ªà¥įà¤°à¤¿à¤¯": 3832,
      "ĠCount": 3833,
      "à¥ģà¤¨à¤¿à¤ķ": 3834,
      "(à¤ħ": 3835,
      "rist": 3836,
      "Ġà¤¨à¤¾à¤Ĺ": 3837,
      "Ġà¤ĸà¥ĭ": 3838,
      "Ġà¤®à¤¹à¤¾à¤¨": 3839,
      "Ġà¤Ĩà¤§à¤¾à¤°à¤¿à¤¤": 3840,
      "Ġgood": 3841,
      "Ġà¤¸à¤¾à¤Ŀ": 3842,
      "Ġprak": 3843,
      "Ġcap": 3844,
      "Ġwords": 3845,
      "ĠBe": 3846,
      "ills": 3847,
      "Ġà¤¨à¤¿à¤¯à¤®": 3848,
      "à¤Ĥà¤Ĺà¤¾": 3849,
      "à¥ĭà¤§à¤¿à¤¤": 3850,
      "Ġà¤®à¥Ĥà¤²à¥įà¤¯à¤¾à¤Ĥà¤ķà¤¨": 3851,
      "Ġà¤īà¤¸à¤ķà¤¾": 3852,
      "Ġà¤²à¤ķà¥įà¤·à¥įà¤¯": 3853,
      "2016": 3854,
      "pres": 3855,
      "Ġà¤ªà¥ģà¤°à¤¸à¥įà¤ķà¤¾à¤°": 3856,
      "imate": 3857,
      "Ġpoint": 3858,
      "à¥©": 3859,
      "Ġlanguage": 3860,
      "inal": 3861,
      "à¤¿à¤¯à¤²": 3862,
      "Ġlik": 3863,
      "Ġà¤¡à¥ī": 3864,
      "Ġsever": 3865,
      "à¤¤à¤¿à¤¹à¤¾à¤¸à¤¿à¤ķ": 3866,
      "alk": 3867,
      "Ġà¤ªà¥įà¤°à¥Įà¤¦à¥įà¤¯à¥ĭà¤Ĺà¤¿à¤ķà¥Ģ": 3868,
      "Par": 3869,
      "à¤²à¥ĩà¤Ł": 3870,
      "Ġsirf": 3871,
      "à¤Ķà¤°": 3872,
      "Ġà¤®à¤¿à¤Ł": 3873,
      "Ġpolitician": 3874,
      "Ġà¤¡à¥īà¤²à¤°": 3875,
      "Ġà¤°à¤ĸà¤¤à¥ĩ": 3876,
      "pect": 3877,
      "Ġà¤ªà¥ĭà¤°à¥įà¤Ł": 3878,
      "ney": 3879,
      "Ġà¤ªà¥Īà¤°": 3880,
      "bs": 3881,
      "There": 3882,
      "Ġà¤¸à¤¾à¤¹à¤¿à¤¤à¥įà¤¯": 3883,
      "âĢĺ": 3884,
      "Ġà¤¬à¤ľà¤¾à¤¯": 3885,
      "Ġà¤µà¤¨": 3886,
      "Ġà¤¤à¤°à¥įà¤ķ": 3887,
      "Ġà¤īà¤¦à¥įà¤¯à¥ĭà¤Ĺ": 3888,
      "Ġà¤ľà¤Łà¤¿à¤²": 3889,
      "Ġidea": 3890,
      "ma": 3891,
      "à¤¾à¤°à¥įà¤¥": 3892,
      "ouse": 3893,
      "Ġsocial": 3894,
      "à¤§à¥Ģ": 3895,
      "utes": 3896,
      "à¤ªà¤¾à¤¸": 3897,
      "à¤¸à¤²": 3898,
      "vers": 3899,
      "Ġà¤Ĺà¥Ģ": 3900,
      "Ġà¤¸à¤¿à¤¤": 3901,
      "à¤µà¥ĩà¤¯à¤°": 3902,
      "ayega": 3903,
      "Ġcolle": 3904,
      "37": 3905,
      "Ġbal": 3906,
      "Ġinclude": 3907,
      "Ġsar": 3908,
      "Ġbanane": 3909,
      "à¤¸à¥įà¤µà¥Ģ": 3910,
      "Ġsakati": 3911,
      "Ġreleased": 3912,
      "ĠPresident": 3913,
      "vision": 3914,
      "Ġdown": 3915,
      "Ġà¤ħà¤¨à¥ģà¤ķ": 3916,
      "\"\"\"": 3917,
      ".S": 3918,
      "ared": 3919,
      "Ġà¤¬à¤¿à¤Ĥà¤¦": 3920,
      "Ġà¤ªà¥įà¤°à¤¾à¤°à¤Ĥà¤Ń": 3921,
      "Ġanim": 3922,
      "Ġà¤¡à¤¬à¥įà¤²à¥įà¤¯à¥Ĥ": 3923,
      "Ġà¤¸à¤¿à¤¸à¥įà¤Łà¤®": 3924,
      "viron": 3925,
      "Ġà¤ıà¤ľ": 3926,
      "Ġà¤ľà¤®": 3927,
      "Ġà¤ķà¥įà¤µ": 3928,
      "à¤¨à¥įà¤¦": 3929,
      "Ġà¤ªà¥Ĥà¤Ľ": 3930,
      "Ġà¤¸à¤Ĥà¤¯": 3931,
      "à¥Ĥà¤ķ": 3932,
      "95": 3933,
      "Ġà¤Ķà¤¸": 3934,
      "ĠJohn": 3935,
      "à¥ģà¤²à¤¾à¤Ī": 3936,
      "à¤¶à¥Ģ": 3937,
      "ĠPh": 3938,
      "Ġcal": 3939,
      "med": 3940,
      "ĠBritish": 3941,
      "Ġà¤¤à¥ĩà¤²": 3942,
      "Ġeven": 3943,
      "Ġnet": 3944,
      "Ġà¤ļà¤°à¥įà¤ļà¤¾": 3945,
      "Ġà¤°à¥ĩà¤ĸ": 3946,
      "Ġgl": 3947,
      "Ġà¤ĳà¤¨à¤²à¤¾à¤ĩà¤¨": 3948,
      "à¤ľà¤¾": 3949,
      "Ġà¤ķà¤¾à¤°à¥įà¤¬à¤¨": 3950,
      "Ġà¤ħà¤«à¥įà¤°à¥Ģ": 3951,
      "2015": 3952,
      "Ġà¤ªà¥įà¤°à¤¥": 3953,
      "Ġà¤®à¤Ĥà¤¦": 3954,
      "Ġleft": 3955,
      "ior": 3956,
      "Ġà¤ªà¥įà¤¯": 3957,
      "Ġshur": 3958,
      "(à¤ķ": 3959,
      "Ġhome": 3960,
      "à¤°à¥įà¤Ĺà¤¤": 3961,
      "Ġallow": 3962,
      "Ġà¤¨à¥ĩà¤Łà¤µà¤°à¥įà¤ķ": 3963,
      "arsh": 3964,
      "Ġà¤¬à¥ģ": 3965,
      "Ġà¤ľà¤¾à¤¨à¤¤à¥ĩ": 3966,
      "oss": 3967,
      "Ġà¤¥à¥ĭ": 3968,
      "Ġà¤®à¤¶à¥Ģà¤¨": 3969,
      "Ġsal": 3970,
      "ĠSw": 3971,
      "ĠWar": 3972,
      "Ġà¤¦à¥ĩà¤ĸà¤Ńà¤¾à¤²": 3973,
      "Ġland": 3974,
      "Ġà¤°à¤ĸà¥ĩà¤Ĥ": 3975,
      "ential": 3976,
      "ĠLeague": 3977,
      "Ġà¤¤à¤°à¥Ģà¤ķà¤¾": 3978,
      "à¤¦à¤¯": 3979,
      "Ġlater": 3980,
      "Ġbadal": 3981,
      "ique": 3982,
      "à¤¿à¤ķà¤²": 3983,
      "Ġà¤ļà¥ģà¤¨à¥Į": 3984,
      "Ġà¤¦à¤¿à¤¨à¥ĭà¤Ĥ": 3985,
      "wards": 3986,
      "34": 3987,
      "ffic": 3988,
      "Ġà¤ķà¤¿à¤¨": 3989,
      "Ġlogon": 3990,
      "ving": 3991,
      "Ġà¤ªà¥įà¤°à¤µà¥ĩà¤¶": 3992,
      "Ġrest": 3993,
      "Ġtext": 3994,
      "Ġcurrent": 3995,
      "Ġà¤ªà¥įà¤°à¤¾à¤¥à¤®à¤¿à¤ķ": 3996,
      "Ġtop": 3997,
      "à¤¾à¤£à¥ģ": 3998,
      "à¥ĭà¤¤à¥įà¤¸": 3999,
      "Ġà¤²à¤¾à¤Ĺà¤¤": 4000,
      "Ġà¤®à¥Ģà¤¡à¤¿à¤¯à¤¾": 4001,
      "Ġà¤®à¥Įà¤ľà¥Ĥà¤¦": 4002,
      "à¥Ĥà¤°à¥įà¤¤à¤¿": 4003,
      "urg": 4004,
      "à¤Łà¥įà¤°": 4005,
      "\"|": 4006,
      "Ġoper": 4007,
      "anik": 4008,
      "Ġà¤®à¤¾à¤Ĥà¤Ĺ": 4009,
      "ooks": 4010,
      "Ġà¤ľà¤¿à¤¨à¥įà¤¹à¥ĭà¤Ĥà¤¨à¥ĩ": 4011,
      "Ġà¤ħà¤¨à¥ģà¤ķà¥Ĥà¤²": 4012,
      "-à¤ªà¥įà¤°": 4013,
      "Ġà¤ķà¤²à¤¾": 4014,
      "ined": 4015,
      "Ġeas": 4016,
      "Ġà¤¦à¤°à¥įà¤ľ": 4017,
      "Ġà¤¸à¤®à¥įà¤®à¤¾à¤¨": 4018,
      "Ġà¤Ĺà¥įà¤²": 4019,
      "à¥Īà¤ª": 4020,
      "ahar": 4021,
      "Ġpain": 4022,
      "Ġà¤¦à¤¬": 4023,
      "Ġà¤ķà¤¨": 4024,
      "Ġà¤¤à¤¹à¤¤": 4025,
      "âĢĻs": 4026,
      "à¥ĩà¤²à¥Ģ": 4027,
      "Ġà¤ªà¥įà¤°à¤Ńà¤¾à¤µà¥Ģ": 4028,
      "Ġbased": 4029,
      "Ġà¤²à¥ĩà¤ĸà¤ķ": 4030,
      "Ġà¤ªà¤¾à¤°à¥įà¤Łà¥Ģ": 4031,
      "rol": 4032,
      "Ġà¤Ĩà¤ı": 4033,
      "Ġlo": 4034,
      "Ġtimes": 4035,
      "Ġà¤ķà¤¾à¤°à¥įà¤¯à¥ĭà¤Ĥ": 4036,
      "Ġtele": 4037,
      "à¤²à¥ĩà¤ķà¥įà¤Łà¥įà¤°": 4038,
      "Ġmodel": 4039,
      "Ġà¤īà¤²à¥įà¤²à¥ĩà¤ĸ": 4040,
      "Ġsv": 4041,
      "Ġà¤¬à¥Ģà¤®": 4042,
      "rite": 4043,
      "Ġà¤ªà¤°à¥įà¤¯à¤¾à¤ªà¥įà¤¤": 4044,
      "riya": 4045,
      "Ġpasand": 4046,
      "ica": 4047,
      "Ġà¤¸à¤Ĥà¤ļà¤¾à¤°": 4048,
      "':": 4049,
      "Ġchang": 4050,
      "Ġà¤ħà¤Ńà¤¿à¤¨": 4051,
      "Ġà¤¸à¥įà¤µà¤¯à¤Ĥ": 4052,
      "Ġà¤®à¤¾à¤¤à¤¾": 4053,
      "Ġà¤¦à¥Ĥà¤¸à¤°à¥Ģ": 4054,
      "rench": 4055,
      "yle": 4056,
      "Ġcult": 4057,
      "Ġprom": 4058,
      "conom": 4059,
      "gr": 4060,
      "ĠUniversity": 4061,
      "Ġmahatvapoorn": 4062,
      "ests": 4063,
      "à¤Ĺà¤²": 4064,
      "\"à¤ħ": 4065,
      "ament": 4066,
      "Ġcareer": 4067,
      "(C": 4068,
      "à¤°à¥įà¤²": 4069,
      "Ġà¤¹à¤µà¤¾": 4070,
      "hor": 4071,
      "Ġà¤ĺà¤Łà¤¨": 4072,
      "Ġà¤¸à¤Ĥà¤°à¤ķà¥įà¤·à¤£": 4073,
      "Ġà¤ªà¤ķà¤¡à¤¼": 4074,
      "ĠSe": 4075,
      "Ġà¤¸à¤¾à¤®à¤¨à¤¾": 4076,
      "Ġà¤ĩà¤¸à¥Ģ": 4077,
      "Ġà¤µà¤¿à¤¶à¥ĩà¤·à¤ľà¥įà¤ŀ": 4078,
      "ĠRep": 4079,
      "à¥§à¥¯à¥": 4080,
      "Ġsahi": 4081,
      "Ġà¤ªà¥įà¤°à¥ĭà¤Ĺà¥įà¤°à¤¾à¤®": 4082,
      "à¤®à¤°": 4083,
      "Ġdost": 4084,
      "Ġbuild": 4085,
      "Ġà¤ľà¤°à¥įà¤®": 4086,
      "Ġjiv": 4087,
      "Ġà¤Ĺà¥ĭà¤²": 4088,
      "Ġà¤¸à¥ģà¤Ŀà¤¾à¤µ": 4089,
      "Ġà¤ĸà¤Ĥà¤¡": 4090,
      "Ġext": 4091,
      "cul": 4092,
      "à¤µà¤¾à¤¦à¥Ģ": 4093,
      "\"à¤¸": 4094,
      "Ġà¤īà¤¡à¤¼": 4095,
      "ĠAm": 4096,
      "ross": 4097,
      "aky": 4098,
      "Ġà¤Ĺà¥ģà¤£à¤µ": 4099,
      "vironment": 4100,
      "Ġà¤ķà¥ĭà¤²": 4101,
      "Ġexperience": 4102,
      "Ġà¤®à¤¤à¤²à¤¬": 4103,
      "Ġcommon": 4104,
      "à¤¾à¤°à¥įà¤Ł": 4105,
      "à¤¾à¤²à¤¿à¤¤": 4106,
      "Ġappe": 4107,
      "à¤¾à¤Ĥà¤Ł": 4108,
      "ĠThere": 4109,
      "Ġapp": 4110,
      "Ġà¤¸à¤Ĥà¤¸à¥įà¤¥à¤¾à¤¨": 4111,
      "à¤ķà¤²": 4112,
      "à¤Ĥà¤Ĺà¥ĩ": 4113,
      "Ġorder": 4114,
      "iyan": 4115,
      "(A": 4116,
      "Ġà¤°à¥ī": 4117,
      "64": 4118,
      "à¤ķà¥įà¤ķ": 4119,
      "à¤°à¥įà¤£": 4120,
      "Ġà¤ľà¥Ĥà¤¨": 4121,
      "itive": 4122,
      "ĠComm": 4123,
      "Ġà¤²à¤ķà¥įà¤·à¤£": 4124,
      "à¤¡à¥įà¤¡": 4125,
      "Ġà¤§à¥Ģ": 4126,
      "à¤Ĥà¤ķà¥įà¤¶à¤¨": 4127,
      "Ġweb": 4128,
      "1990": 4129,
      "Ġà¤ķà¤°à¥Ģ": 4130,
      "atmak": 4131,
      "mat": 4132,
      "à¥ĩà¤ľà¤¼": 4133,
      "Ġcle": 4134,
      "ĠEur": 4135,
      "à¤¤à¤¾à¤¨": 4136,
      "Ġknow": 4137,
      "Ġlaw": 4138,
      "à¤¾à¤īà¤Ĥà¤¡": 4139,
      "co": 4140,
      "2021": 4141,
      "Ġà¤Ĩà¤¸à¤¾à¤¨": 4142,
      "Ġà¤ªà¤°à¤®": 4143,
      "lo": 4144,
      "à¤²à¥ĩà¤ľ": 4145,
      "Ġmonth": 4146,
      "Ġà¤Ĺà¥įà¤°à¤¾à¤¹à¤ķ": 4147,
      "-f": 4148,
      "Ġsah": 4149,
      "Ġà¤ħà¤¸à¥įà¤ª": 4150,
      "ĠIndian": 4151,
      "Ġsap": 4152,
      "Ġkaam": 4153,
      "ĠMan": 4154,
      "Ġà¤¸à¤°à¤²": 4155,
      "ĠSouth": 4156,
      "Ġà¤°à¥Ĥ": 4157,
      "38": 4158,
      "à¤µà¤°à¥ĭà¤Ĥ": 4159,
      "à¤ľà¤¼à¤°": 4160,
      "Ġinvest": 4161,
      "à¤®à¥ĩà¤Ĥà¤Ł": 4162,
      "à¤¾à¤°à¥įà¤ķ": 4163,
      "ired": 4164,
      "Ġà¤¸à¥įà¤µà¤¸à¥įà¤¥": 4165,
      "Ġà¤¹à¤¸à¥įà¤¤": 4166,
      "à¤ľà¤¨à¥įà¤®": 4167,
      "Ġà¤¹à¤¿à¤¸à¥įà¤¸à¥ĩ": 4168,
      "Ġà¤¨à¤¿à¤ķà¤²": 4169,
      "Ġà¤¨à¤¿à¤Ĺ": 4170,
      "Ġà¤°à¤¾à¤®": 4171,
      "Ġà¤µà¤¿à¤°à¥ĭà¤§": 4172,
      "yn": 4173,
      "Ġà¤¬à¤¾à¤¤à¤ļà¥Ģ": 4174,
      "à¤ķà¥įà¤¯à¤¾": 4175,
      "à¤¸à¥įà¤µà¤°": 4176,
      "ĠCom": 4177,
      "à¤ķà¥įà¤·à¥ĩà¤ª": 4178,
      "Ġà¤ħà¤Ĥà¤Ĺà¥įà¤°à¥ĩà¤ľà¥Ģ": 4179,
      "à¥īà¤°à¥įà¤®": 4180,
      "text": 4181,
      "Ġà¤µà¤¾à¤¹": 4182,
      "Ġsabase": 4183,
      "Ġà¤ĺà¤Ĥà¤Łà¥ĩ": 4184,
      "Ġoffic": 4185,
      "Ġà¤²à¥ĭà¤ķà¤ªà¥įà¤°à¤¿à¤¯": 4186,
      "Ġà¤ĩà¤Ĥà¤Ĺ": 4187,
      "Ġà¤Ĩà¤¸à¤ªà¤¾à¤¸": 4188,
      "Ġyaad": 4189,
      "à¤¾à¤°à¤£": 4190,
      "Ġà¤ķà¤¾à¤ī": 4191,
      "Ġà¤°à¤£": 4192,
      "500": 4193,
      "Ġspecial": 4194,
      "à¤¿à¤¯à¤¾à¤¨": 4195,
      "Ġlevel": 4196,
      "Ġà¤¸à¤®à¤¸à¥įà¤¯à¤¾à¤ĵà¤Ĥ": 4197,
      "Ġà¤¬à¤¿à¤ľà¤²à¥Ģ": 4198,
      "Ġutpad": 4199,
      "Ġtem": 4200,
      "],": 4201,
      "Ġsl": 4202,
      "Ġvah": 4203,
      "à¥ģà¤¤à¥įà¤¤": 4204,
      "Ġà¤µà¤¿à¤¦à¥įà¤¯": 4205,
      "ner": 4206,
      "(à¤¸": 4207,
      "Ġsu": 4208,
      "hys": 4209,
      "Ġà¤²à¥Į": 4210,
      "osp": 4211,
      "à¤¬à¤¦à¥įà¤§": 4212,
      "string": 4213,
      "Ġà¤Ĳà¤¤à¤¿à¤¹à¤¾à¤¸à¤¿à¤ķ": 4214,
      "à¤¸à¥įà¤¤à¤¿à¤·à¥įà¤ķ": 4215,
      "Ġbanaen": 4216,
      "Ġà¤µà¤¾à¤¯à¤°": 4217,
      "Ġmeans": 4218,
      "à¤¾à¤¸à¥įà¤¤à¥įà¤°": 4219,
      "ĠAll": 4220,
      "ger": 4221,
      "Ġdv": 4222,
      "Ġà¤¦à¥ĥà¤¶à¥įà¤¯": 4223,
      "Ġnir": 4224,
      "Ġproble": 4225,
      "OS": 4226,
      "Ġcomput": 4227,
      "Ġà¤¦à¤¿à¤¶": 4228,
      "à¤īà¤¤à¥įà¤¤à¤°à¤ĥ": 4229,
      "Ġà¤®à¤¹à¥Ģà¤¨à¥ĩ": 4230,
      "ced": 4231,
      "Ġà¤Ĩà¤ĩ": 4232,
      "Ġcompany": 4233,
      "Ġà¤ħà¤¨à¥įà¤¤": 4234,
      "Ġà¤®à¤°": 4235,
      "Ġmool": 4236,
      "Ġdeath": 4237,
      "Ġseveral": 4238,
      "à¤Ĥà¤¥": 4239,
      "Ġà¤ķà¤¾à¤¨à¥Ĥà¤¨": 4240,
      "Ġlarge": 4241,
      "Ġà¤ªà¤¹à¥ģà¤ģà¤ļ": 4242,
      "aman": 4243,
      "Ġà¤¸à¤Ĥà¤°à¤ļà¤¨à¤¾": 4244,
      "col": 4245,
      "work": 4246,
      "Ġpublic": 4247,
      "stit": 4248,
      "Ġsuccess": 4249,
      "Ġà¤¸à¤¤à¤¹": 4250,
      "Ġà¤ķà¤¾à¤Ĥà¤Ĺ": 4251,
      "à¤¾à¤Ĥà¤¤à¤¿": 4252,
      "Ġà¤°à¥ĩà¤²": 4253,
      "ĠNational": 4254,
      "Ġactor": 4255,
      "Ġà¤¦à¤²": 4256,
      "unch": 4257,
      "à¤¸à¥įà¤µà¤°à¥Ĥà¤ª": 4258,
      "Ġà¤ħà¤Ĥà¤¦à¤°": 4259,
      "ĠCar": 4260,
      "à¥įà¤°à¥ĩà¤¨": 4261,
      "Ġà¤Ńà¤Ĺ": 4262,
      "à¥īà¤«à¥įà¤Ł": 4263,
      "akon": 4264,
      "ĠAustral": 4265,
      "Tr": 4266,
      "Ġà¤¸à¤Ł": 4267,
      "39": 4268,
      "Ġà¤Ĺà¤¾à¤Ĥ": 4269,
      "à¤¾à¤¸à¥įà¤ķ": 4270,
      "abd": 4271,
      "Ġà¤¨à¤¿à¤¦": 4272,
      "Ġà¤ªà¤¾à¤Ĥà¤ļ": 4273,
      "Ġlarg": 4274,
      "Ġà¤¶à¥ĭà¤§à¤ķà¤°à¥įà¤¤à¤¾à¤ĵà¤Ĥ": 4275,
      "Ġà¤īà¤ļà¤¿à¤¤": 4276,
      "amata": 4277,
      "à¤¾à¤ļà¥Ģà¤¨": 4278,
      "key": 4279,
      "Ġà¤¬à¥ĭà¤²": 4280,
      "à¤¾à¤°à¥Ģà¤°à¤¿à¤ķ": 4281,
      "Ġà¤Ĺà¤£à¤¨à¤¾": 4282,
      "(S": 4283,
      "Ġà¤«à¤²": 4284,
      "Ġà¤¸à¤Ĥà¤¸à¥įà¤ķà¤°à¤£": 4285,
      "Ġà¤Ĺà¥ģà¤£à¤µà¤¤à¥įà¤¤à¤¾": 4286,
      "Ġcolor": 4287,
      "ense": 4288,
      "Ġà¤ªà¤°à¤¿à¤ļ": 4289,
      "odi": 4290,
      "Ġbat": 4291,
      "Ġcour": 4292,
      "à¤¨à¥ĩà¤ķ": 4293,
      "Ġà¤Ĩà¤¯à¤¾": 4294,
      "à¤¸à¤Ĥà¤ĸ": 4295,
      "Ġstarted": 4296,
      "Ġà¤¸à¥ĩà¤¨à¤¾": 4297,
      "à¥ģà¤ı": 4298,
      "Ġà¤ĸà¥ģà¤¶": 4299,
      "Ġà¤¹à¤¿à¤¨": 4300,
      "à¤¿à¤¸à¥įà¤¥à¤¿à¤¤": 4301,
      "Ġà¤¨à¤¿à¤°à¥įà¤Ń": 4302,
      "rowspan": 4303,
      "Ġrecord": 4304,
      "à¥«": 4305,
      "Ġonline": 4306,
      "Ġà¤īà¤¸à¤¸à¥ĩ": 4307,
      "à¤ļà¤¿à¤¤à¥įà¤°": 4308,
      "Ġsoo": 4309,
      "Ġkah": 4310,
      "Ġadv": 4311,
      "oney": 4312,
      "Ġjust": 4313,
      "Ġtas": 4314,
      "Ġà¤ķà¤¬": 4315,
      "Ġbhar": 4316,
      "Ġlab": 4317,
      "Ġopen": 4318,
      "Ġà¤¸à¤ķà¥įà¤°à¤¿à¤¯": 4319,
      "self": 4320,
      "ON": 4321,
      "Ġve": 4322,
      "iti": 4323,
      "Ġcreate": 4324,
      "Ġcontin": 4325,
      "à¤µà¤Ĥà¤¶": 4326,
      "à¤°à¥įà¤¤à¥Ģ": 4327,
      "An": 4328,
      "Ġà¤²à¤¿à¤ĸà¥ĩà¤Ĥ": 4329,
      "à¤°à¥įà¤ĺ": 4330,
      "à¤¾à¤¨à¤¿": 4331,
      "import": 4332,
      "aksh": 4333,
      "Ġà¤¨à¤¾à¤®à¤ķ": 4334,
      "Ġà¤µà¥Ģà¤¡": 4335,
      "Ġà¤ĩà¤Ĥà¤¡": 4336,
      "à¤ļà¤°": 4337,
      "Ġmaking": 4338,
      "Ġà¤¡à¥īà¤ķ": 4339,
      "acy": 4340,
      "Create": 4341,
      "amb": 4342,
      "à¤¾à¤ĩà¤ª": 4343,
      "Ġhead": 4344,
      "Ġà¤®à¤¿à¤Łà¥įà¤Łà¥Ģ": 4345,
      "Ġà¤ĺà¤Łà¤¨à¤¾": 4346,
      "Ġà¤ķà¤¿à¤²": 4347,
      "Ġnow": 4348,
      "Ġà¤ľà¤¾à¤¨à¤µà¤°à¥ĭà¤Ĥ": 4349,
      "Ġà¤¨à¤¿à¤°à¥įà¤Ńà¤°": 4350,
      "Ġopt": 4351,
      "Ġunhe": 4352,
      "ued": 4353,
      "à¥įà¤°à¤¾": 4354,
      "ony": 4355,
      "ĠWest": 4356,
      "à¤ªà¤¨": 4357,
      "Ġà¤°à¤¾à¤·à¥įà¤Łà¥įà¤°à¤ªà¤¤à¤¿": 4358,
      "à¤¦à¤°à¥įà¤¶": 4359,
      "oti": 4360,
      "à¥ĥà¤¤à¥įà¤µ": 4361,
      "ination": 4362,
      "à¥Ĥà¤¬à¤°": 4363,
      "à¥įà¤°à¤¾à¤·à¥įà¤Łà¥įà¤°à¥Ģà¤¯": 4364,
      "Ġà¤¬à¥Ģà¤®à¤¾à¤°à¥Ģ": 4365,
      "à¤¹à¤°à¥Ģ": 4366,
      "Ġbook": 4367,
      "Ġà¤µà¤¿à¤¶à¥įà¤µà¤¾à¤¸": 4368,
      "Ġà¤¦à¤¸à¥įà¤¤": 4369,
      "Ġà¤¤à¤¨": 4370,
      "ĠEx": 4371,
      "Ġà¤®à¥Ģà¤²": 4372,
      "Ġmember": 4373,
      "Ġà¤ªà¥įà¤°à¤¾à¤°à¤Ĥà¤Ńà¤¿à¤ķ": 4374,
      "78": 4375,
      "Ġà¤ķà¤¦à¤®": 4376,
      "Ġà¤ĩà¤²à¥ĩà¤ķà¥įà¤Łà¥įà¤°": 4377,
      "Ġà¤ħà¤ªà¤°": 4378,
      "Ġmer": 4379,
      "Ġkey": 4380,
      "Ġref": 4381,
      "Ġà¤µà¥įà¤¯à¤¾à¤ĸ": 4382,
      "Ġà¤ľà¤¿à¤²à¤¾": 4383,
      "à¤®à¥Īà¤¨": 4384,
      "à¤¬à¤¹": 4385,
      "Ġchange": 4386,
      "Ġà¤¸à¥ĩà¤²": 4387,
      "nb": 4388,
      "ĠYork": 4389,
      "Ġposs": 4390,
      "Ġelect": 4391,
      "Ġà¤¶à¤¾à¤°à¥Ģà¤°à¤¿à¤ķ": 4392,
      "ried": 4393,
      "Ġà¤µà¤¹à¤¾à¤ģ": 4394,
      "1997": 4395,
      "Ġà¤¸à¤Łà¥Ģà¤ķ": 4396,
      "Ġà¤ĭ": 4397,
      "Ġnational": 4398,
      "à¤¯à¤°": 4399,
      ".-": 4400,
      "Ġà¤¦à¥ĩà¤¨à¤¾": 4401,
      "')": 4402,
      "Ġà¤Ĩà¤§à¥ģà¤¨à¤¿à¤ķ": 4403,
      "Ġà¤¬à¤¾à¤ľà¤¾à¤°": 4404,
      "Ġà¤¤à¥Ģà¤¸": 4405,
      "ĠAp": 4406,
      "ĠPol": 4407,
      "Ġnamed": 4408,
      "min": 4409,
      "Ġest": 4410,
      "Ġproduc": 4411,
      "à¤¾à¤īà¤¨": 4412,
      "aces": 4413,
      "Ġà¤ªà¥ĭà¤·": 4414,
      "Ġcor": 4415,
      "ĠGe": 4416,
      "round": 4417,
      "Ġà¤¸à¥įà¤¥à¤²": 4418,
      "Ġà¤®à¤¾à¤Ĥà¤¸": 4419,
      "Ġà¤ķà¥Įà¤¶à¤²": 4420,
      "-à¤ķà¤Ńà¥Ģ": 4421,
      "Ġweek": 4422,
      "ĠOr": 4423,
      "ping": 4424,
      "à¥ĩà¤Ĺà¥Ģ": 4425,
      "ream": 4426,
      "Ġiss": 4427,
      "enn": 4428,
      "cent": 4429,
      "à¤µà¤¾à¤ĵà¤Ĥ": 4430,
      "ract": 4431,
      "Ġà¤¸à¤®à¤Ŀà¤¨à¥ĩ": 4432,
      "Ġà¤µà¥Ģà¤¡à¤¿à¤¯à¥ĭ": 4433,
      "oos": 4434,
      "Ġà¤®à¤¸à¥įà¤¤à¤¿à¤·à¥įà¤ķ": 4435,
      "Ar": 4436,
      "Ġà¤µà¥įà¤¯à¤¾à¤ªà¤¾à¤°": 4437,
      "akari": 4438,
      "Ġdvara": 4439,
      "Ġaata": 4440,
      "Ġphir": 4441,
      "ĠUS": 4442,
      "Ġter": 4443,
      "Ġà¤§à¥įà¤µ": 4444,
      "Ġà¤¬à¤¢à¤¼à¤¾à¤¨à¥ĩ": 4445,
      "Ġà¤¸à¤®à¥ģà¤¦à¥įà¤°à¥Ģ": 4446,
      "yun": 4447,
      "Ġà¤¬à¥ī": 4448,
      "Ġà¤ªà¥ĭà¤¸à¥įà¤Ł": 4449,
      "Ġà¤¸à¥Ģà¤ĸà¤¨à¥ĩ": 4450,
      "agar": 4451,
      "Ġà¤ķà¥ĥà¤ªà¤¯à¤¾": 4452,
      "io": 4453,
      "ĠCal": 4454,
      "ugg": 4455,
      "Ġà¤Ĺà¤²à¤¤": 4456,
      "à¤²à¥Īà¤Ĥà¤¡": 4457,
      "Ġà¤ľà¤¿à¤¸à¤¨à¥ĩ": 4458,
      "à¥ĩà¤°à¥Ģ": 4459,
      "esha": 4460,
      "Ġà¤ľà¥Ģà¤¨": 4461,
      "Ġà¤ĩà¤¸à¥įà¤¤": 4462,
      "Ġenvironment": 4463,
      "Ġyaar": 4464,
      "Ġà¤¨à¤¿à¤·à¥įà¤ķà¤°à¥įà¤·": 4465,
      "Ġà¤²à¤¿à¤ĸà¤¾": 4466,
      "Ġà¤ĩà¤Ĥà¤ľà¥Ģà¤¨": 4467,
      "à¤¾à¤°à¥įà¤¡": 4468,
      "Ġà¤ľà¤¿à¤®à¥įà¤®": 4469,
      "Ġà¤ªà¤¾à¤ı": 4470,
      "Ġconne": 4471,
      "Ġstor": 4472,
      "Ġformer": 4473,
      "ically": 4474,
      "Ġà¤¯à¥ĭà¤Ĺà¤¦à¤¾à¤¨": 4475,
      "Ġà¤ķà¥īà¤²à¥ĩà¤ľ": 4476,
      "Ġgames": 4477,
      "asht": 4478,
      "ivity": 4479,
      "ĠFrench": 4480,
      "Ġà¤°à¤¾à¤ľà¤¾": 4481,
      "Ġà¤¸à¥įà¤¥à¤¾à¤ªà¤¨à¤¾": 4482,
      "by": 4483,
      "Ġà¤¹à¤¾à¤ģ": 4484,
      "à¤¯à¤¾à¤¨": 4485,
      "Ġaas": 4486,
      "à¤¤à¥įà¤¯": 4487,
      "arta": 4488,
      "ayan": 4489,
      "Ġkoi": 4490,
      "Ġà¤¹à¤¾à¤¸": 4491,
      "Ġà¤īà¤ªà¤ķà¤°à¤£à¥ĭà¤Ĥ": 4492,
      "Ġlearning": 4493,
      "Ġnumbers": 4494,
      "Ġà¤¸à¤¾à¤Ŀà¤¾": 4495,
      "Ġà¤ħà¤Ĥà¤¡": 4496,
      "Ġvalue": 4497,
      "Ġhona": 4498,
      "Ġchildren": 4499,
      "à¤µà¤¿à¤ķà¤²à¥įà¤ª": 4500,
      "à¤¿à¤Ĥà¤ķ": 4501,
      "Ġà¤°à¤¾à¤ľà¤¨à¥Ģà¤¤à¤¿à¤ķ": 4502,
      "Ġà¤ķà¥įà¤°à¤®": 4503,
      "88": 4504,
      "Ġà¤Ĺà¥ģà¤°": 4505,
      "Ġlocal": 4506,
      "ĠHis": 4507,
      "Ġà¤¸à¥Ģà¤§": 4508,
      "Ġà¤¸à¥Ĥà¤ļà¤¨à¤¾": 4509,
      "à¥ĥà¤¤à¥įà¤¤à¤¿": 4510,
      "Ġeduc": 4511,
      "Ġà¤¸à¤Ĥà¤¦à¥ĩà¤¶": 4512,
      "Ġà¤īà¤¤à¥įà¤ªà¤¾à¤¦à¥ĭà¤Ĥ": 4513,
      "(à¤ı": 4514,
      "Ġà¤ªà¤¹à¤²": 4515,
      "Ġà¤Ķà¤¸à¤¤": 4516,
      "Ġappro": 4517,
      "ization": 4518,
      "Ġà¤¡à¤¿à¤Ĺ": 4519,
      "Ġà¤ħà¤Ĥà¤ķ": 4520,
      "Ġgrah": 4521,
      "Ġà¤¯à¥ģà¤µà¤¾": 4522,
      "ald": 4523,
      "Ġlight": 4524,
      "à¤¸à¤¿à¤ķ": 4525,
      "Ġà¤µà¤ľà¤¨": 4526,
      "Ġà¤²à¤¾à¤ĩ": 4527,
      "Ch": 4528,
      "à¥ģà¤¡": 4529,
      "ems": 4530,
      "py": 4531,
      "Ġà¤®à¤¿à¤¸": 4532,
      "Ġà¤¸à¤²à¤¾à¤¹": 4533,
      "Ġà¤µà¤¾à¤¤": 4534,
      "Ġband": 4535,
      "van": 4536,
      "Ġà¤ªà¥įà¤°à¥ĩà¤°": 4537,
      "Ġà¤ķà¤łà¤¿à¤¨": 4538,
      "96": 4539,
      "avel": 4540,
      "ĠCent": 4541,
      "Ġà¤¬à¤¾à¤¤à¤ļà¥Ģà¤¤": 4542,
      "Ġà¤¤à¤¸à¥įà¤µà¥Ģ": 4543,
      "ĠCounty": 4544,
      "Ġdays": 4545,
      "Ġà¤¸à¤Ĥà¤ķà¥įà¤°à¤®à¤£": 4546,
      "Ġà¤ªà¥įà¤°à¤¤à¤¿à¤°": 4547,
      "crib": 4548,
      "Ġà¤¸à¤®à¤¾à¤ļà¤¾à¤°": 4549,
      "à¥īà¤°à¥įà¤ķ": 4550,
      "Ġà¤ĸà¤°à¤¾à¤¬": 4551,
      "ĠSing": 4552,
      "Ġà¤ķà¥īà¤²": 4553,
      "yar": 4554,
      "itar": 4555,
      "haan": 4556,
      "à¥įà¤Ĺà¥ĭà¤°": 4557,
      "uck": 4558,
      "Ġà¤ļà¤¾à¤²": 4559,
      "à¤¾à¤§à¤¿à¤ķ": 4560,
      "ĠEk": 4561,
      "Ġà¤¸à¤¹à¤¾à¤¯à¤ķ": 4562,
      "à¤¿à¤ķà¥ĭà¤Ĥ": 4563,
      "Ġà¤¶à¥Īà¤²à¥Ģ": 4564,
      "ĠNorth": 4565,
      "acks": 4566,
      "Ġà¤Ľà¥ĭà¤Łà¤¾": 4567,
      "Ġà¤¨à¥ĩà¤¤": 4568,
      "Ġà¤ķà¤¾à¤°à¥įà¤¯à¤¾à¤²à¤¯": 4569,
      "Ġà¤ħà¤Ńà¥įà¤¯à¤¾à¤¸": 4570,
      "Ġmid": 4571,
      "----------------": 4572,
      "Ġà¤ķà¤ķà¥įà¤·à¤¾": 4573,
      "char": 4574,
      "ĠFl": 4575,
      "-à¤°": 4576,
      "Ġà¤®à¤¿à¤²à¥Ģ": 4577,
      "à¤īà¤Łà¤ªà¥ģà¤Ł": 4578,
      "Ġsat": 4579,
      "à¥įà¤¯à¤¤à¤¾": 4580,
      "Ġimp": 4581,
      ".'": 4582,
      "ĠEurope": 4583,
      "chit": 4584,
      "à¤¾à¤īà¤¸": 4585,
      "Ġà¤Ĩà¤¸à¤¾à¤¨à¥Ģ": 4586,
      "Ġà¤®à¤Ĥà¤¦à¤¿à¤°": 4587,
      "Ġtelevision": 4588,
      "à¥ĩà¤¶à¥Ģ": 4589,
      "à¤¶à¥įà¤°": 4590,
      "Yeh": 4591,
      "hod": 4592,
      "Ġà¤ªà¤°à¤¿à¤£à¤¾à¤®à¤¸à¥įà¤µà¤°à¥Ĥà¤ª": 4593,
      "Ġà¤ķà¥ģà¤¤à¥įà¤¤": 4594,
      "ĠEl": 4595,
      "Ġà¤Ĩà¤¤à¤¾": 4596,
      "Ġà¤°à¤£à¤¨à¥Ģ": 4597,
      "ĠBr": 4598,
      "à¥ģà¤«": 4599,
      "Ġà¤ľà¥Ģà¤µà¤¿à¤¤": 4600,
      "Ġcharacter": 4601,
      "à¤µà¥įà¤¯à¤µ": 4602,
      "Ġbody": 4603,
      "stand": 4604,
      "46": 4605,
      "uniya": 4606,
      "Ġà¤¬à¤¨à¥Ģ": 4607,
      "Ġà¤¬à¤¨à¤¾à¤¤à¤¾": 4608,
      "Ġà¤®à¥ģà¤¶": 4609,
      "Ġgreat": 4610,
      "à¥ĭà¤°à¥įà¤¨": 4611,
      "Ġà¤¡à¤¿à¤Ĺà¥įà¤°à¥Ģ": 4612,
      "Ġà¤¹à¤®à¤¨à¥ĩ": 4613,
      "ones": 4614,
      "['": 4615,
      "à¤Ĥà¤ªà¤°à¤¿à¤ķ": 4616,
      "Ġà¤¡à¥ĩ": 4617,
      "Ġrepres": 4618,
      "à¤ķà¥Ģà¤¯": 4619,
      "Ġant": 4620,
      "\"à¤ķ": 4621,
      "Ġtest": 4622,
      "-à¤ªà¤¿à¤¤à¤¾": 4623,
      "Ġà¤¦à¤¿à¤µ": 4624,
      "Ġmedia": 4625,
      "Ġpopulation": 4626,
      "Ġmean": 4627,
      "ideo": 4628,
      "ĠThese": 4629,
      "Ġà¤¸à¥įà¤¥à¤¿à¤°": 4630,
      "Ġhu": 4631,
      "Ġà¤ħà¤Ĺà¤²à¥ĩ": 4632,
      "à¥Ģà¤°": 4633,
      "Ġà¤®à¥Ģà¤Łà¤°": 4634,
      "hern": 4635,
      "illion": 4636,
      "uce": 4637,
      "irth": 4638,
      "Ġà¤¸à¤®à¥Ģà¤ķà¥įà¤·": 4639,
      "Ġsince": 4640,
      "Ġà¤®à¤¾à¤°à¥įà¤ļ": 4641,
      "Ġà¤®à¤¿à¤¨à¤Ł": 4642,
      "Ġà¤Ĩà¤¯à¥ģ": 4643,
      "Ġà¤ªà¥įà¤°à¤¦à¤°à¥įà¤¶à¤¿à¤¤": 4644,
      "ison": 4645,
      "Ġà¤°à¥ĩà¤¡": 4646,
      "à¤¶à¥įà¤µà¤¿à¤ķ": 4647,
      "Ex": 4648,
      "à¤¸à¥įà¤²": 4649,
      "à¥ĥà¤¦à¤¯": 4650,
      "Ġà¤¨à¤¾à¤Ĺà¤°à¤¿à¤ķ": 4651,
      "view": 4652,
      "Ġvaky": 4653,
      "Ġà¤«à¤¼à¤¿à¤²à¥įà¤®": 4654,
      "Ġà¤ªà¥įà¤°à¥ĭà¤¤à¥įà¤¸": 4655,
      "ival": 4656,
      "ĠTe": 4657,
      "à¤ľà¤µà¤¾à¤¬": 4658,
      "ained": 4659,
      "Ġà¤ªà¥įà¤°à¥ĭà¤«": 4660,
      "Ġà¤ªà¥įà¤°à¤¾à¤ļà¥Ģà¤¨": 4661,
      "Ġà¤¸à¤¡à¤¼à¤ķ": 4662,
      "à¤¾à¤¸à¤¾": 4663,
      "Ġtumne": 4664,
      "Ġdel": 4665,
      "Ġà¤¬à¤¢à¤¼à¤¾à¤µà¤¾": 4666,
      "Ġà¤ħà¤ļà¥įà¤Ľà¥ĩ": 4667,
      "Ġà¤¸à¥Ģà¤®à¤¿à¤¤": 4668,
      "Ġà¤¸à¤¨": 4669,
      "ĠAb": 4670,
      "Ġhours": 4671,
      "Ġà¤²à¤Ĺà¤¾à¤¯à¤¾": 4672,
      "illi": 4673,
      "Ġstudents": 4674,
      "1996": 4675,
      "Ġà¤ķà¤¾à¤Ĥà¤Ĺà¥įà¤°à¥ĩà¤¸": 4676,
      "egi": 4677,
      "à¤µà¤¾à¤¹": 4678,
      "ape": 4679,
      "Ġhamesha": 4680,
      "à¥įà¤ķà¤¿à¤²": 4681,
      "à¤²à¥įà¤ªà¤¨à¤¾": 4682,
      "Ġpariv": 4683,
      "Ġà¤®à¤¨à¥ģà¤·": 4684,
      "Ġà¤¨à¤¿à¤¯à¤Ĥà¤¤à¥įà¤°à¤¿à¤¤": 4685,
      "Ġà¤¶à¥įà¤°à¥ĩà¤£à¥Ģ": 4686,
      "Ġà¤°à¤ķà¥įà¤·à¤¾": 4687,
      "à¤¾à¤µà¤Ł": 4688,
      "atures": 4689,
      "itle": 4690,
      "Ġpopular": 4691,
      "Ġà¤Ńà¤¾à¤µà¤¨": 4692,
      "Ġorig": 4693,
      "Ġà¤«à¤¿à¤²": 4694,
      "Ġprofess": 4695,
      "cript": 4696,
      "Ġà¤¸à¤ļ": 4697,
      "Ġà¤¸à¤¾à¤ķ": 4698,
      "Ġà¤§à¤¨": 4699,
      "Ġà¤¤à¤¨à¤¾à¤µ": 4700,
      "47": 4701,
      "à¤¾à¤¤à¤¾à¤°": 4702,
      "Ġà¤ĳà¤¸à¥įà¤Łà¥įà¤°": 4703,
      "Ġfilm": 4704,
      "-l": 4705,
      "Ġchah": 4706,
      "Ġà¤°à¥ģ": 4707,
      "_t": 4708,
      "Ġhapp": 4709,
      "Ġà¤¨à¥ĩà¤¤à¥ĥà¤¤à¥įà¤µ": 4710,
      "Ġeconom": 4711,
      "Ġà¤µà¤¸à¥įà¤¤à¥ģ": 4712,
      "Ġmanag": 4713,
      "Ġà¤Ĩà¤²": 4714,
      "ĠPart": 4715,
      "Ġconf": 4716,
      "Ġà¤¶à¥Ģà¤°à¥įà¤·": 4717,
      "Ġpresent": 4718,
      "à¥ĭà¤ķà¥įà¤¤": 4719,
      "atural": 4720,
      "ĠEn": 4721,
      "ocus": 4722,
      "Ġbhav": 4723,
      "à¥įà¤Łà¥Ĥà¤¬à¤°": 4724,
      "Ġinterest": 4725,
      "Ġà¤¤à¤¥à¥įà¤¯": 4726,
      "Ġà¤¸à¥įà¤µà¥Ģ": 4727,
      "Ġsomet": 4728,
      "à¤¾à¤Ĥà¤¤à¤°": 4729,
      "ission": 4730,
      "à¤°à¥Ģà¤¤": 4731,
      "Ġà¤¬à¤¨à¤¾à¤ıà¤Ĥ": 4732,
      "Cl": 4733,
      "Ġà¤ªà¥įà¤°à¤¤à¤¿à¤¨à¤¿à¤§à¤¿à¤¤à¥įà¤µ": 4734,
      "Ġvikas": 4735,
      "Ġpay": 4736,
      "à¥ª": 4737,
      "à¤ªà¤¾à¤²": 4738,
      "1995": 4739,
      "Ġà¤«à¥Īà¤¸": 4740,
      "Ġcode": 4741,
      "ument": 4742,
      "Ġà¤µà¤¸à¥įà¤¤à¥ģà¤ĵà¤Ĥ": 4743,
      "Ġwar": 4744,
      "Ġà¤Łà¥ģà¤ķ": 4745,
      "Ġdistrict": 4746,
      "à¤§à¤¾à¤¨à¥Ģ": 4747,
      "Ġkill": 4748,
      "Ġà¤¬à¤¨à¥ĩ": 4749,
      "à¤¯à¥ĭà¤Ĥ": 4750,
      "Ġà¤®à¥ģà¤¶à¥įà¤ķà¤¿à¤²": 4751,
      "Ġshabd": 4752,
      "Ġà¤¦à¤¿à¤²à¥įà¤²à¥Ģ": 4753,
      "Ġà¤ªà¥įà¤°à¤¸à¥įà¤¤à¤¾à¤µ": 4754,
      "Ġà¤®à¥ģà¤ķà¥įà¤¤": 4755,
      ".,": 4756,
      "Ġfact": 4757,
      "Ġamount": 4758,
      "Ġà¤ľà¤°à¥Ĥà¤°": 4759,
      "Ġleg": 4760,
      "Ġà¤µà¤¿à¤µà¤¿à¤§": 4761,
      "Ġà¤¬à¥Ģà¤ľ": 4762,
      "Ġwo": 4763,
      "à¤Ĥà¤¤à¤°": 4764,
      "à¥ĥà¤¹": 4765,
      "Ġrece": 4766,
      "Ġhuman": 4767,
      "98": 4768,
      "à¥įà¤¨à¥Ģ": 4769,
      "Ġà¤ªà¤¾à¤°à¤Ĥà¤ªà¤°à¤¿à¤ķ": 4770,
      "Ġà¤¦à¥Ĥà¤¸à¤°à¤¾": 4771,
      "Ġà¤ľà¥Ģà¤¤": 4772,
      "Ġà¤Ĺà¤¤à¤¿à¤µà¤¿à¤§à¤¿": 4773,
      "(à¤®": 4774,
      "Ġà¤®à¤¾à¤®à¤²à¥ĭà¤Ĥ": 4775,
      "dom": 4776,
      "por": 4777,
      "Ġcaus": 4778,
      "So": 4779,
      "à¥īà¤®": 4780,
      "Ġtechnology": 4781,
      "55": 4782,
      "Ġà¤¸à¥ĩà¤Ĥà¤Ł": 4783,
      "Ġà¤Ĺà¥ģà¤ľà¤°": 4784,
      "Ġà¤ħà¤Ĥà¤¤à¤°à¥įà¤°à¤¾à¤·à¥įà¤Łà¥įà¤°à¥Ģà¤¯": 4785,
      "ots": 4786,
      "66": 4787,
      "ĠSam": 4788,
      "1980": 4789,
      "ways": 4790,
      "Ġinput": 4791,
      "Ġà¤ªà¤¶à¥ģ": 4792,
      "ured": 4793,
      "Ġdiv": 4794,
      "ĠFrance": 4795,
      "à¤¿à¤ķà¥ĩà¤Ł": 4796,
      "Ġà¤®à¥ĭ": 4797,
      "Ġà¤¦à¥Į": 4798,
      "Ġwant": 4799,
      "Ġà¤²à¤Ĺà¤¾à¤¤à¤¾à¤°": 4800,
      "ampions": 4801,
      "Ġà¤®à¤¾à¤°à¥įà¤ķ": 4802,
      "Ġà¤¤à¤°à¥Ģà¤ķà¥ĭà¤Ĥ": 4803,
      "Ġà¤ªà¥ĩà¤Ł": 4804,
      "Ġà¤®à¤¿à¤²à¤¤à¤¾": 4805,
      "Ġà¤¶à¤¿à¤µ": 4806,
      "ĠAir": 4807,
      "ĠRuss": 4808,
      "Ġà¤¹à¥ĥà¤¦à¤¯": 4809,
      "Ġsud": 4810,
      "Ġlen": 4811,
      "ĠEm": 4812,
      "ought": 4813,
      "Ġà¤®à¤¿à¤²à¤¾": 4814,
      "Ġà¤łà¤Ĥà¤¡": 4815,
      "Ġduniya": 4816,
      "eter": 4817,
      "Ġdek": 4818,
      "Ġà¤µà¤¿à¤ªà¤°à¥Ģà¤¤": 4819,
      "Ġà¤¬à¥Īà¤Ĥà¤ķ": 4820,
      "Ġà¤¦à¤°à¥įà¤¦": 4821,
      "ĠAf": 4822,
      "Ġà¤¸à¤ķà¥ĩà¤Ĥ": 4823,
      "ĠCity": 4824,
      "Ġà¤«à¥ģà¤Ł": 4825,
      "ek": 4826,
      "yaar": 4827,
      "à¥Īà¤Ĺ": 4828,
      "Ġà¤Ĺà¤¤à¤¿à¤µà¤¿à¤§à¤¿à¤¯à¥ĭà¤Ĥ": 4829,
      "iks": 4830,
      "à¤¯à¤¸à¥įà¤ķ": 4831,
      "ann": 4832,
      "ĠSpace": 4833,
      "Ġà¤²à¥Įà¤Ł": 4834,
      "Ġpadega": 4835,
      "Ġà¤¸à¥įà¤µà¥Ģà¤ķà¤¾à¤°": 4836,
      "au": 4837,
      "à¤ķà¤Ł": 4838,
      "Ġunhen": 4839,
      "à¤ķà¤¾à¤²à¥Ģà¤¨": 4840,
      "of": 4841,
      "Ġà¤¨à¤¿à¤¯à¤®à¤¿à¤¤": 4842,
      "Ġà¤Ĺà¤ł": 4843,
      "Ġà¤Ĩà¤ķà¤°à¥įà¤·": 4844,
      ".s": 4845,
      "Ġà¤Ĩà¤¹à¤¾à¤°": 4846,
      "Ġà¤°à¤¹à¤¤à¤¾": 4847,
      "Ġà¤¨à¤¿à¤µà¥ĩà¤¶": 4848,
      "Ġà¤ľà¥ģà¤¡à¤¼à¥ĩ": 4849,
      "Ġocc": 4850,
      "Ġà¤īà¤¨à¥įà¤¨": 4851,
      "Ġanother": 4852,
      "Ġà¤ħà¤µà¤¸à¤°": 4853,
      "Ġà¤¬à¤¾à¤§": 4854,
      "ports": 4855,
      "Ġà¤ªà¤°à¤¿à¤µà¤¹à¤¨": 4856,
      "bo": 4857,
      "Ġtarah": 4858,
      "Ġtype": 4859,
      "Ġris": 4860,
      "artment": 4861,
      "Ġà¤µà¥Īà¤¶à¥įà¤µà¤¿à¤ķ": 4862,
      "uture": 4863,
      "Ġbelie": 4864,
      "à¤¾à¤£à¥Ģ": 4865,
      "à¤¶à¤¿à¤¯à¤¾": 4866,
      "omar": 4867,
      "à¥ĩà¤ķà¥įà¤·": 4868,
      "à¤¤à¥ģ": 4869,
      "Ġfive": 4870,
      "âĢĿ": 4871,
      "ples": 4872,
      "Ġstrong": 4873,
      "ĠRiver": 4874,
      "Ġann": 4875,
      "Ġà¤®à¤Ľà¤²à¥Ģ": 4876,
      "Ġà¤¹à¤ľ": 4877,
      "Ġà¤ªà¤¾à¤²": 4878,
      "à¤Ńà¥Ĥà¤®": 4879,
      "Ġà¤«à¥Īà¤²": 4880,
      "Ġcompet": 4881,
      "ability": 4882,
      "ĠEd": 4883,
      "(n": 4884,
      "Ġà¤¸à¥įà¤¥à¤¾à¤¨à¥ĭà¤Ĥ": 4885,
      "à¤µà¤¨": 4886,
      "ita": 4887,
      "Ġà¤¬à¥įà¤°à¤¿à¤Łà¤¿à¤¶": 4888,
      "Ġcase": 4889,
      "hyan": 4890,
      "ches": 4891,
      "Ġà¤¨à¥ĭà¤Ł": 4892,
      "Ġtra": 4893,
      "Ġà¤īà¤¨à¤®à¥ĩà¤Ĥ": 4894,
      "Ġà¤ħà¤°à¤¬": 4895,
      "Ġà¤ªà¤¡à¤¼à¤¤à¤¾": 4896,
      "Ġkyun": 4897,
      "Ġà¤ĸà¤¾à¤¨à¥ĩ": 4898,
      "Ġpost": 4899,
      "à¤¿à¤ªà¥įà¤¤": 4900,
      "Ġprote": 4901,
      "Ġà¤ħà¤§à¥įà¤¯à¤ķà¥įà¤·": 4902,
      "à¤Ĺà¤¢à¤¼": 4903,
      "Ġpat": 4904,
      "ama": 4905,
      "Ġà¤µà¤¿à¤¶à¤¾à¤²": 4906,
      "âĢľ": 4907,
      "77": 4908,
      "à¤¯à¥Ģ": 4909,
      "Ġminutes": 4910,
      "Ġaa": 4911,
      "Ġnext": 4912,
      "Ġà¤ıà¤²à¥įà¤Ĺà¥ĭà¤°": 4913,
      "ily": 4914,
      "à¤¿à¤ªà¥įà¤ª": 4915,
      "à¤ļà¤ķ": 4916,
      "akarta": 4917,
      "Ġà¤Ńà¤¾à¤°à¥Ģ": 4918,
      "Ġà¤²à¥ĩà¤¤à¥ĩ": 4919,
      "1993": 4920,
      "Ġà¤ªà¤¾à¤łà¥įà¤¯": 4921,
      "Ġà¤ľà¥įà¤¯à¤¾à¤¦à¤¾": 4922,
      "ised": 4923,
      "Ġseason": 4924,
      "Ġà¤ķà¤°à¥Ģà¤¬": 4925,
      "Ġline": 4926,
      "Ġà¤¸à¤¾": 4927,
      "ĠHer": 4928,
      "Ġà¤¬à¤°à¥įà¤«": 4929,
      "Ġmoney": 4930,
      "Ġà¤¬à¥ģà¤¨": 4931,
      "Ġà¤«à¤°": 4932,
      "à¤¿à¤Łà¤²": 4933,
      "ĠChrist": 4934,
      "Ġelse": 4935,
      "à¤°à¥įà¤¬": 4936,
      "itions": 4937,
      "Ġà¤ĸà¤¤": 4938,
      "Ġà¤ĸà¥ģà¤²": 4939,
      "Ġread": 4940,
      "Ġà¤ªà¤¶à¥įà¤ļà¤¿à¤®à¥Ģ": 4941,
      "ography": 4942,
      "(M": 4943,
      "44": 4944,
      "à¤¸à¥įà¤µ": 4945,
      "à¤®à¥ĩà¤°": 4946,
      "ĠHowever": 4947,
      "ware": 4948,
      "Ġà¤«à¥ĭà¤¨": 4949,
      "ey": 4950,
      "Ġà¤Ńà¥ģà¤Ĺ": 4951,
      "oice": 4952,
      "eshan": 4953,
      "ushi": 4954,
      "Ġà¤¬à¤¿à¤Ĥà¤¦à¥ģ": 4955,
      "Ġà¤ªà¥įà¤°à¥ĩà¤°à¤¿à¤¤": 4956,
      "Ġà¤Ńà¥įà¤°": 4957,
      "Al": 4958,
      "Ġà¤¸à¥Ĥà¤°à¥įà¤¯": 4959,
      "Ġà¤¨à¤°": 4960,
      "Ġà¤Ĩà¤Ĥà¤§": 4961,
      "Ġcountries": 4962,
      "Ġà¤ľà¤¾à¤²": 4963,
      "Ġda": 4964,
      "Ġà¤¸à¤Ĥà¤ĺà¤°à¥įà¤·": 4965,
      "atic": 4966,
      "Ġà¤¸à¤°à¤ķà¤¾à¤°à¥Ģ": 4967,
      "Ġà¤µà¤¾à¤¤à¤¾à¤µà¤°à¤£": 4968,
      "Ġevent": 4969,
      "Ġmult": 4970,
      "Ġà¤¸à¤Ĥà¤¸à¤¾à¤§à¤¨": 4971,
      "à¤¿à¤¯à¤¾à¤ĵà¤Ĥ": 4972,
      "Ġfocus": 4973,
      "Ġà¤ľà¥ģà¤²à¤¾à¤Ī": 4974,
      "adhan": 4975,
      "1994": 4976,
      "Ġsnbnd": 4977,
      "à¤¿à¤¸à¥įà¤ķ": 4978,
      "Ġà¤ħà¤¸à¥įà¤ªà¤¤à¤¾à¤²": 4979,
      "Ġà¤ħà¤¨à¥įà¤¤à¤°à¥įà¤Ĺà¤¤": 4980,
      "à¥īà¤°": 4981,
      "ikal": 4982,
      "Ġà¤ķà¤°à¥ĭà¤¡à¤¼": 4983,
      "Ġà¤µà¤¿à¤®": 4984,
      "ards": 4985,
      "Ġden": 4986,
      "à¤¶à¤¾à¤²à¤¾": 4987,
      "ĠAss": 4988,
      "Ġlook": 4989,
      "Ġà¤¬à¥ĭ": 4990,
      "Ġtoget": 4991,
      "Ġtogether": 4992,
      "ĠPalomar": 4993,
      "Gener": 4994,
      "Ġà¤¸à¥įà¤ķà¥įà¤°": 4995,
      "Ġà¤¦à¥Ĥà¤°à¥Ģ": 4996,
      "Ġà¤ļà¥Ģà¤¨": 4997,
      "Ġà¤ķà¤Ĥà¤ªà¤¨": 4998,
      "aster": 4999,
      "iyar": 5000,
      "Ġdiya": 5001,
      "Ã¡": 5002,
      "read": 5003,
      "Ġà¤¬à¤¨à¤¾à¤¨à¤¾": 5004,
      "Ġà¤Ĩà¤°à¥ĭà¤ª": 5005,
      "Ġà¤ªà¥įà¤°à¤¶à¤¾à¤¸à¤¨": 5006,
      "Ġmilega": 5007,
      "ida": 5008,
      "Ġpot": 5009,
      "Ġà¤¸à¤Ĥà¤¸à¤¾à¤§à¤¨à¥ĭà¤Ĥ": 5010,
      "300": 5011,
      "Ġbich": 5012,
      "à¤ķà¤°à¥Ģ": 5013,
      "Ġà¤ħà¤¸à¥įà¤¤": 5014,
      "Ġà¤®à¤¾à¤ĩ": 5015,
      "(à¤ª": 5016,
      "Ġsnbhav": 5017,
      "Ġà¤¤à¥įà¤µ": 5018,
      "Ġà¤®à¤ķ": 5019,
      "Ġà¤Ĺà¤°à¥įà¤Ń": 5020,
      "Ġdig": 5021,
      "cer": 5022,
      "cial": 5023,
      "Ġà¤Ńà¤Ĺà¤µà¤¾à¤¨": 5024,
      "Ġà¤ªà¥įà¤°à¤Ĺ": 5025,
      "Ġà¤¨à¤®à¥Ĥ": 5026,
      "ayi": 5027,
      "We": 5028,
      "Ġchahie": 5029,
      "Ġkarati": 5030,
      "Ġnear": 5031,
      "Ġà¤¸à¤Ĥà¤ĸà¥įà¤¯": 5032,
      "à¤¯à¥īà¤°à¥įà¤ķ": 5033,
      "188": 5034,
      "à¥ĩà¤®à¤¾à¤²": 5035,
      "Ġà¤¸à¤¾à¤ķà¥įà¤·": 5036,
      "Ġvali": 5037,
      "à¤Ĥà¤§à¤¨": 5038,
      "à¥Īà¤¨à¤¿à¤ķ": 5039,
      "As": 5040,
      "Ġà¤¯à¥ģà¤Ĺ": 5041,
      "Ġà¤Ńà¥ģà¤Ĺà¤¤à¤¾à¤¨": 5042,
      "Ġà¤¸à¥Ī": 5043,
      "Ġtraditional": 5044,
      "Ġà¤¶à¤ķà¥įà¤¤": 5045,
      "Ġà¤µà¥įà¤¯à¤ķà¥įà¤¤à¤¿à¤¯à¥ĭà¤Ĥ": 5046,
      "Ġà¤Ĩà¤¨à¤Ĥà¤¦": 5047,
      "gi": 5048,
      "à¤ķà¥įà¤·à¤¿à¤ªà¥įà¤¤": 5049,
      "istan": 5050,
      "Ġà¤µà¤¿à¤§à¤¾à¤¨": 5051,
      "Ġà¤°à¤ĸà¤¨à¤¾": 5052,
      "Ġprovide": 5053,
      "Ġà¤ķà¤¾à¤Ł": 5054,
      "Ġstep": 5055,
      "oung": 5056,
      "Ġà¤ªà¥įà¤°à¤ķà¥ĥà¤¤à¤¿": 5057,
      "ĠLa": 5058,
      "à¤¿à¤¯à¤¸": 5059,
      "the": 5060,
      "oint": 5061,
      "Ġà¤®à¤¿à¤¶à¥įà¤°": 5062,
      "achan": 5063,
      "ided": 5064,
      "à¤¿à¤¹à¤¾à¤°": 5065,
      "Ġà¤ĩà¤¸à¥įà¤¤à¥ĩà¤®à¤¾à¤²": 5066,
      "Ġless": 5067,
      "Ġà¤Ńà¤¾à¤µà¤¨à¤¾": 5068,
      "ster": 5069,
      "Ġà¤µà¤¾à¤²à¥ĭà¤Ĥ": 5070,
      "oci": 5071,
      "Ġhumare": 5072,
      "Ġstory": 5073,
      "Ġà¤ªà¥įà¤°à¤¥à¤®": 5074,
      "cle": 5075,
      "Ġsvasth": 5076,
      "Ġà¤ľà¤¨à¤µà¤°à¥Ģ": 5077,
      "Ġà¤¸à¥īà¤«à¥įà¤Ł": 5078,
      "à¤¿à¤¸à¤Ĥà¤¬à¤°": 5079,
      "Ġvers": 5080,
      "ĠMic": 5081,
      "Ġsinger": 5082,
      "à¥įà¤®à¤¿à¤ķ": 5083,
      "Ġà¤Ĩà¤Ĥà¤§à¥įà¤°": 5084,
      "Ġvast": 5085,
      "Ġà¤ļà¤¾à¤¹à¤¤à¤¾": 5086,
      "Ġà¤ıà¤ª": 5087,
      "Ġkhoj": 5088,
      "Ġà¤¨à¤¾à¤Ł": 5089,
      "Ġà¤ħà¤¨à¥ģà¤°": 5090,
      "Ġdh": 5091,
      "à¤¾à¤ľà¥Ģ": 5092,
      "Ġà¤¸à¤«à¤²à¤¤à¤¾": 5093,
      "ler": 5094,
      "Ġà¤ªà¤¾à¤ķ": 5095,
      "Ġà¤®à¤Ī": 5096,
      "Ġà¤°à¥ģà¤ª": 5097,
      "Ġà¤ķà¥ĭà¤¶à¤¿à¤ķà¤¾à¤ĵà¤Ĥ": 5098,
      "Ġà¤ħà¤¤à¥įà¤¯à¤§à¤¿à¤ķ": 5099,
      "à¥ģà¤¸": 5100,
      "Ġreal": 5101,
      "Ġwent": 5102,
      "Ġinvol": 5103,
      "gorithm": 5104,
      "Ġà¤®à¥ĩà¤²": 5105,
      "97": 5106,
      "aul": 5107,
      "ources": 5108,
      "Ġthose": 5109,
      "Ġà¤īà¤¸à¥Ģ": 5110,
      "Ġà¤ªà¤¦à¤¾à¤°à¥įà¤¥à¥ĭà¤Ĥ": 5111,
      "she": 5112,
      "Ġà¤²à¥ĩà¤Ĥ": 5113,
      "Ġaadhar": 5114,
      "Ġà¤Ĩà¤Ĥà¤¤": 5115,
      "[i": 5116,
      "Ġdem": 5117,
      "à¤¿à¤ĥ": 5118,
      "Ġà¤ļà¥Ģà¤¨à¥Ģ": 5119,
      "à¤¿à¤²à¥Ģ": 5120,
      "à¤¸à¥įà¤ķà¥ĥà¤¤à¤¿à¤ķ": 5121,
      "Ġstudi": 5122,
      "Ġpolice": 5123,
      "à¥¬": 5124,
      "à¤¯à¥Ĥ": 5125,
      "Ġlive": 5126,
      "Ġà¤°à¥ĭà¤ķà¤¨à¥ĩ": 5127,
      "Ġà¤¯à¥Į": 5128,
      "_c": 5129,
      "Ġà¤Ľà¤¹": 5130,
      "Ġà¤Ńà¤¿à¤¨à¥įà¤¨": 5131,
      "à¤¸à¥įà¤¯à¥ĭà¤Ĥ": 5132,
      "Ġident": 5133,
      "Ġà¤ľà¤¿à¤¤": 5134,
      "hief": 5135,
      "Ġà¤¤à¤¸à¥įà¤µà¥Ģà¤°": 5136,
      "Ġà¤¶à¤¿à¤ķ": 5137,
      "Ġà¤īà¤ªà¤¯à¥ĭà¤Ĺà¥Ģ": 5138,
      "Ġà¤¨à¤¿à¤°à¥įà¤µ": 5139,
      "iction": 5140,
      "ĠSte": 5141,
      ":**": 5142,
      "ĠGu": 5143,
      "://": 5144,
      "Ġben": 5145,
      "Ġchall": 5146,
      "ertain": 5147,
      "-p": 5148,
      "icle": 5149,
      "Ġà¤ªà¥ģà¤°à¤¾à¤¨à¥ĩ": 5150,
      "']": 5151,
      "Ġà¤ħà¤¨à¥ģà¤ª": 5152,
      "Ġphot": 5153,
      "Ġà¤ĩà¤Ĥà¤ľà¥Ģà¤¨à¤¿à¤¯à¤°": 5154,
      "Ġà¤¨à¤¿à¤Ń": 5155,
      "ĠHar": 5156,
      "Ġexc": 5157,
      "à¤¾à¤ĵ": 5158,
      "Write": 5159,
      "Ġsamj": 5160,
      "Ġbetter": 5161,
      "ĠAg": 5162,
      "Ġà¤µà¤¿à¤§à¤¿": 5163,
      "Ġmust": 5164,
      "ilt": 5165,
      "Ġà¤¨à¤¿à¤µà¤¾à¤¸": 5166,
      "She": 5167,
      "Ġshort": 5168,
      "Ġusually": 5169,
      "Ġkitna": 5170,
      "Ġà¤®à¤¾à¤ģ": 5171,
      "Ġà¤ıà¤ķà¤¤à¥įà¤°": 5172,
      "à¤¾à¤¤à¤ķ": 5173,
      "agi": 5174,
      "1992": 5175,
      "Ġsabhi": 5176,
      "à¤Ńà¤¾à¤°à¤¤": 5177,
      "à¤Ĺà¤£": 5178,
      "Ġdhyan": 5179,
      "Ġà¤ĸà¤°à¥įà¤ļ": 5180,
      "Ġà¤¬à¤¨à¤¾à¤¤à¥ĩ": 5181,
      "Ġuser": 5182,
      "ividual": 5183,
      "Ġà¤ľà¤¾à¤ª": 5184,
      "umb": 5185,
      "Ġvyakt": 5186,
      "Ġà¤ĩà¤¨à¤®à¥ĩà¤Ĥ": 5187,
      "à¤°à¥įà¤ľà¤¨": 5188,
      "Ġà¤ħà¤µà¤§à¤¾à¤°": 5189,
      "Ġà¤¹à¤¿à¤Ĥ": 5190,
      "rog": 5191,
      "Ġmajor": 5192,
      "Ġà¤¦à¤¸à¥įà¤¤à¤¾à¤µ": 5193,
      "Ġexp": 5194,
      "Ġphys": 5195,
      "Ġà¤¦à¥ĩà¤µ": 5196,
      "Ġsit": 5197,
      "Ġà¤ĩà¤¨à¤ªà¥ģà¤Ł": 5198,
      "Ġà¤Ĩà¤¦à¥ĩà¤¶": 5199,
      "Ġà¤¤à¤¤à¥įà¤µà¥ĭà¤Ĥ": 5200,
      "Ġà¤µà¤¯à¤¸à¥įà¤ķ": 5201,
      "Ġà¤ħà¤ªà¥įà¤°à¥Īà¤²": 5202,
      "Ġdev": 5203,
      "à¥ģà¤²à¥ĩ": 5204,
      "Ġstar": 5205,
      "-à¤ıà¤ķ": 5206,
      "à¥ĩà¤ķà¥įà¤Ł": 5207,
      "Ġà¤ķà¥ģà¤¶": 5208,
      "Ġstill": 5209,
      "Ġà¤¢à¤Ĥà¤Ĺ": 5210,
      "Ġbud": 5211,
      "Ġmach": 5212,
      "68": 5213,
      "Ġà¤ªà¥įà¤°à¤¸à¤¾à¤°": 5214,
      "Ġactress": 5215,
      "Ġsingle": 5216,
      "à¥®": 5217,
      "iod": 5218,
      "riy": 5219,
      "Ġniy": 5220,
      "ending": 5221,
      "asha": 5222,
      "(l": 5223,
      "à¥įà¤ĸ": 5224,
      "Ġunake": 5225,
      "1991": 5226,
      "Ġà¤¸à¤«à¥ĩà¤¦": 5227,
      "Ġà¤µà¤¿à¤Ńà¤¾à¤ľà¤¿à¤¤": 5228,
      "Ġà¤īà¤ªà¤¯à¥ģà¤ķà¥įà¤¤": 5229,
      "ror": 5230,
      "à¤¤à¥į": 5231,
      "à¤¿à¤¡à¤¼": 5232,
      "à¥ĭà¤®à¥Ģ": 5233,
      "Ġtook": 5234,
      "Ġà¤ľà¤²à¥įà¤¦à¥Ģ": 5235,
      "Ġimprove": 5236,
      "Ġà¤¸à¤Ĥà¤¸à¥įà¤ķà¥ĥà¤¤à¤¿": 5237,
      "à¤®à¥Īà¤Ĥ": 5238,
      "ĠInd": 5239,
      "Ġà¤®à¤Ĥà¤¤à¥įà¤°à¥Ģ": 5240,
      "aph": 5241,
      "Ġà¤ľà¥ī": 5242,
      "esa": 5243,
      "alan": 5244,
      "Ġà¤µà¥įà¤¯à¤¾à¤µ": 5245,
      "EAT": 5246,
      "à¤²à¤¨": 5247,
      "Ġbata": 5248,
      "Ġstand": 5249,
      "Ġunique": 5250,
      "Ġmeet": 5251,
      "ino": 5252,
      "Ġà¤ĩà¤Ĥà¤Łà¤°à¤¨à¥ĩà¤Ł": 5253,
      "De": 5254,
      "à¤Ńà¥Ĥà¤®à¤¿": 5255,
      "cture": 5256,
      "ĠState": 5257,
      "Ġà¤ªà¥Ĥà¤°à¥įà¤µà¥Ģ": 5258,
      "Ġà¤ªà¤Ĥà¤ľ": 5259,
      "Ġneeds": 5260,
      "Ġmax": 5261,
      "\"à¤µ": 5262,
      "Ġthird": 5263,
      "ales": 5264,
      "olution": 5265,
      "Ġà¤ķà¤¾à¤°à¥įà¤¡": 5266,
      "aint": 5267,
      "Ġjanakari": 5268,
      "à¤²à¥ĭà¤ķ": 5269,
      "Ġrole": 5270,
      "hing": 5271,
      "Ġtakes": 5272,
      "Ġtown": 5273,
      "Ġà¤ªà¥ĭà¤°à¥įà¤Łà¤²": 5274,
      "Ġà¤¬à¤¾à¤µ": 5275,
      "Ġfre": 5276,
      "ĠSy": 5277,
      "oll": 5278,
      "Ġjal": 5279,
      "à¥ĩà¤ķà¥įà¤¸": 5280,
      "à¤¾à¤ĩà¤¡à¥įà¤°": 5281,
      "Ġà¤ªà¥ĩà¤¡à¤¼": 5282,
      "à¤¸à¤Ĥà¤ĸà¥įà¤¯à¤¾": 5283,
      "Ġbecome": 5284,
      "Ġcomb": 5285,
      "Ġcreated": 5286,
      "à¥Ń": 5287,
      "à¤¸à¤Ńà¤¾": 5288,
      "Ġà¤¨à¤¿à¤ľ": 5289,
      "ĠAfter": 5290,
      "ĠChar": 5291,
      "Ġintern": 5292,
      "Ġnaye": 5293,
      "Ġà¤¬à¤ľà¥ĩ": 5294,
      "Ġà¤ķà¤¾à¤°à¥įà¤°": 5295,
      "Ġpract": 5296,
      "Ġà¤Łà¥ĩà¤ķà¥įà¤¸": 5297,
      "watch": 5298,
      "Ġfuture": 5299,
      "hinn": 5300,
      "Ġà¤Ĩà¤ªà¥Ĥà¤°à¥įà¤¤à¤¿": 5301,
      "Ġà¤«à¥Ĥà¤²": 5302,
      "Ġpersonal": 5303,
      "Ġà¤¦à¤¬à¤¾à¤µ": 5304,
      "Ġà¤²à¤¿à¤¯à¥ĩ": 5305,
      "Ġmot": 5306,
      "Ġà¤¤à¤¿à¤¥": 5307,
      "1960": 5308,
      "Ġtre": 5309,
      "à¤¿à¤¸à¥įà¤ª": 5310,
      "Ġà¤¸à¥įà¤µà¤¤à¤Ĥà¤¤à¥įà¤°à¤¤à¤¾": 5311,
      "Ġà¤ĺà¥ĭà¤·à¤£à¤¾": 5312,
      "à¤°à¤¾à¤¨à¥Ģ": 5313,
      "à¤¸à¥įà¤¥à¤¾à¤¨": 5314,
      "Ġbegan": 5315,
      "Ġcustomer": 5316,
      "Ġhistory": 5317,
      "Ġkee": 5318,
      "Ġà¤¸à¥įà¤µà¤¾à¤¦": 5319,
      "Ġà¤²à¤ķ": 5320,
      "à¥ĩà¤¸à¤°": 5321,
      "à¤¬à¥īà¤²": 5322,
      "à¤ħà¤ª": 5323,
      "Ġturn": 5324,
      "Ġà¤ªà¥įà¤°à¤ľà¤¾à¤¤à¤¿à¤¯à¥ĭà¤Ĥ": 5325,
      "à¤¦à¥ĩà¤¶": 5326,
      "Ġà¤¸à¥īà¤«à¥įà¤Łà¤µà¥ĩà¤¯à¤°": 5327,
      "Ġà¤°à¥Ģ": 5328,
      "Ġapplic": 5329,
      "à¥ĭà¤°à¥įà¤¨à¤¿à¤¯à¤¾": 5330,
      "Ġà¤ªà¥Īà¤Ł": 5331,
      "Ġà¤¸à¤°à¥įà¤µà¥ĩ": 5332,
      "Ġjivan": 5333,
      "à¤ļà¤¿": 5334,
      "ĠSup": 5335,
      "Ġmethod": 5336,
      "Is": 5337,
      "orja": 5338,
      "_list": 5339,
      "Ġà¤®à¤²": 5340,
      "Ġà¤¬à¤¾à¤¯": 5341,
      "Ġà¤ķà¤¾à¤īà¤Ĥà¤Łà¥Ģ": 5342,
      "Ġà¤Ĩà¤¦à¤®à¥Ģ": 5343,
      "Ġà¤®à¥ĩà¤°à¥Ģ": 5344,
      "Ġà¤ªà¥įà¤°à¤¶à¤¿à¤ķà¥įà¤·à¤£": 5345,
      "Ġrepresent": 5346,
      "Ġà¤ľà¤¾à¤¨à¤µà¤°": 5347,
      "à¥ĭà¤²à¤¨": 5348,
      "Ġà¤ĸà¤¿à¤²à¤¾à¤¡à¤¼à¥Ģ": 5349,
      "à¤ļà¤¨à¤¾à¤¤à¥įà¤®à¤ķ": 5350,
      "Ġimpact": 5351,
      "Ġà¤°à¤¾à¤ľà¥įà¤¯à¥ĭà¤Ĥ": 5352,
      "Ġà¤ªà¥įà¤°à¤§à¤¾à¤¨": 5353,
      "Ġà¤¸à¤ª": 5354,
      "à¤¿à¤Ĥà¤Ł": 5355,
      "Ġà¤®à¤¹à¤¾à¤¸": 5356,
      "Ġmembers": 5357,
      "Ġà¤µà¤¾à¤¯à¤°à¤¸": 5358,
      "à¥ĩà¤¤à¤¾": 5359,
      "à¤«à¤²": 5360,
      "Ġà¤ľà¤¾à¤ıà¤Ĺà¥Ģ": 5361,
      "elebr": 5362,
      "Ġà¤Ľà¤µà¤¿": 5363,
      "(N": 5364,
      "ikhit": 5365,
      "Ġà¤ħà¤Ĥà¤¤à¤¤à¤ĥ": 5366,
      "ĠYou": 5367,
      "lands": 5368,
      "Ġà¤¨à¥įà¤¯à¥Ĥà¤¯à¥īà¤°à¥įà¤ķ": 5369,
      "Ġconsider": 5370,
      "Ġà¤®à¥ģà¤ķ": 5371,
      "à¤£à¥ĭà¤Ĥ": 5372,
      "afi": 5373,
      "ille": 5374,
      "Ġà¤¸à¥įà¤Łà¥ĩà¤¶à¤¨": 5375,
      "à¤¸à¥įà¤¥à¤¿à¤¤à¤¿": 5376,
      "ming": 5377,
      "à¤¾à¤¯à¤¾à¤®": 5378,
      "Ġà¤ĳà¤ķà¥įà¤¸": 5379,
      "Ġà¤¬à¤¢à¤¼à¤¤à¥Ģ": 5380,
      "Ġsudhar": 5381,
      "à¥ģà¤ħ": 5382,
      "Ġà¤¸à¥įà¤¥à¤¿à¤¤à¤¿à¤¯à¥ĭà¤Ĥ": 5383,
      "ights": 5384,
      "Ġmodern": 5385,
      "à¥ĭà¤¦": 5386,
      "pann": 5387,
      "Ġà¤ĳà¤¸à¥įà¤Łà¥įà¤°à¥ĩà¤²": 5388,
      "Ġanub": 5389,
      "1970": 5390,
      "Ġgre": 5391,
      "ĠDr": 5392,
      "à¤¾à¤¡à¤¾": 5393,
      "Ġbooks": 5394,
      "ula": 5395,
      "à¤Ĥà¤Ĺà¥Ģ": 5396,
      "ĠUs": 5397,
      "Ġà¤ħà¤Ĺà¤¸à¥įà¤¤": 5398,
      "Ġbig": 5399,
      "Ġà¤¤à¥ģà¤°": 5400,
      "Ġà¤ªà¥Įà¤§à¥ĭà¤Ĥ": 5401,
      "hesh": 5402,
      "à¤ľà¤µà¤¾à¤¬à¤ĥ": 5403,
      "Ġà¤ªà¤¾à¤ģà¤ļ": 5404,
      "Ġà¤®à¤¾à¤¨à¤ķ": 5405,
      "Ġà¤ħà¤¸à¥įà¤¥": 5406,
      "khya": 5407,
      "Ġà¤°à¤¸à¤¾à¤¯": 5408,
      "à¤¿à¤¯à¤¾à¤¦à¥Ģ": 5409,
      "ako": 5410,
      "ĠDel": 5411,
      "Ġfriends": 5412,
      "à¤®à¤¾à¤¨à¥ĩ": 5413,
      "42": 5414,
      "dal": 5415,
      "Ġworks": 5416,
      "ĠPeak": 5417,
      "Ġà¤ªà¤°à¤¿à¤Ńà¤¾à¤·à¤¿à¤¤": 5418,
      "à¥ĩà¤Łà¤¿à¤Ĥà¤Ĺ": 5419,
      "ĠKitt": 5420,
      "Ġnaya": 5421,
      "Ġà¤¸à¤Ĥà¤ķà¥įà¤·à¤¿à¤ªà¥įà¤¤": 5422,
      "ĠOne": 5423,
      "Ġà¤ªà¥įà¤°à¤£à¤¾à¤²": 5424,
      "Ġkal": 5425,
      "Ġà¤ħà¤§à¤¿à¤ķà¤¾à¤°à¥Ģ": 5426,
      "Ġà¤¦à¤µà¤¾": 5427,
      "à¤¡à¤¼à¤¿à¤¤": 5428,
      "Ġà¤¸à¥Ģà¤§à¥ĩ": 5429,
      "ole": 5430,
      "epend": 5431,
      "Ġindividual": 5432,
      "\"The": 5433,
      "Ġà¤¬à¥ģà¤¦à¥įà¤§": 5434,
      "Ġà¤°à¤¾à¤¸à¥įà¤¤": 5435,
      "Ġà¤¸à¤¾à¤¬": 5436,
      "à¤¿à¤ľà¤¼": 5437,
      "Ġà¤®à¥Ĥ": 5438,
      "amm": 5439,
      "hips": 5440,
      "Ġà¤¸à¥ĩà¤µà¤¾à¤ĵà¤Ĥ": 5441,
      "lab": 5442,
      "à¤ªà¥Ĥà¤°à¥įà¤µ": 5443,
      "à¤¾à¤¨à¥įà¤¤": 5444,
      "à¤°à¥ĩà¤ĸ": 5445,
      "ID": 5446,
      "var": 5447,
      "aves": 5448,
      "à¤¶à¥įà¤ļà¤°à¥įà¤¯": 5449,
      "Ġà¤Ĩà¤Ĥà¤ķ": 5450,
      "Ġà¤ªà¥įà¤¯à¤¾à¤°": 5451,
      "à¤µà¥ĩà¤Ĥ": 5452,
      "à¤¿à¤Ĥà¤Ĺà¤Łà¤¨": 5453,
      "Ġaccess": 5454,
      "Ġjahan": 5455,
      "Ġà¤¬à¥Ģà¤®à¤¾à¤°": 5456,
      "ĠGeor": 5457,
      "iment": 5458,
      "à¤¸à¥Ĥ": 5459,
      "Ġà¤ķà¥Ģà¤®à¤¤": 5460,
      "istor": 5461,
      "à¤¾à¤¬à¤¾à¤¦": 5462,
      "Ġà¤¸à¤¾à¤§": 5463,
      "ĠNEAT": 5464,
      "Ġtyp": 5465,
      "aced": 5466,
      "Ġà¤Ĩà¤¯à¥ĭà¤ľà¤¿à¤¤": 5467,
      "Ġà¤¬à¥Īà¤ķ": 5468,
      "Ġspace": 5469,
      "Ġspecies": 5470,
      "Ġà¤¨à¤¿à¤ª": 5471,
      "Ġà¤ļà¥ĭà¤Ł": 5472,
      "Ġvideo": 5473,
      "ĠEngland": 5474,
      "Ġà¤¸à¤¾à¤Ĥà¤¸à¥įà¤ķà¥ĥà¤¤à¤¿à¤ķ": 5475,
      "Ġdevelopment": 5476,
      "Ġfew": 5477,
      "Ġà¤ķà¤¾à¤°à¥įà¤°à¤µà¤¾à¤Ī": 5478,
      "Ġobject": 5479,
      "Ġtravel": 5480,
      "Ġà¤¸à¤®à¥Ĥà¤¹à¥ĭà¤Ĥ": 5481,
      "iter": 5482,
      "à¤¬à¤°à¥įà¤Ĺ": 5483,
      "lect": 5484,
      "Ġà¤®à¤¾à¤¨à¤¸à¤¿à¤ķ": 5485,
      "ording": 5486,
      "Ġà¤«à¥įà¤°à¤¾à¤Ĥà¤¸": 5487,
      "vi": 5488,
      "Ġà¤ªà¤¾à¤°à¥įà¤ķ": 5489,
      "Ġà¤ĩà¤²à¤¾à¤ľ": 5490,
      "Ġà¤ľà¤Ĥà¤Ĺ": 5491,
      "iding": 5492,
      "à¤Ĭ": 5493,
      "ask": 5494,
      "Ġà¤ªà¤¾à¤łà¥įà¤¯à¤ķà¥įà¤°à¤®": 5495,
      "Ġà¤°à¥ĭà¤ľ": 5496,
      "imnal": 5497,
      "Ġà¤¸à¤¾à¤«": 5498,
      "ĠYe": 5499,
      "Ġà¤°à¤¸": 5500,
      "hiks": 5501,
      "Ġà¤®à¤¿à¤²à¤¤à¥Ģ": 5502,
      "Ġà¤¹à¤¾à¤¸à¤¿à¤²": 5503,
      "imnalikhit": 5504,
      "à¤®à¥ĩà¤²": 5505,
      "à¤¾à¤ķà¥įà¤·": 5506,
      "à¤¾à¤®à¤ķ": 5507,
      "Ġstat": 5508,
      "raw": 5509,
      "Ġà¤¬à¤¾à¤¹à¤°à¥Ģ": 5510,
      "Ġà¤ªà¤¡à¤¼à¤¾": 5511,
      "Ġà¤ľà¥ĭà¤°": 5512,
      "Ġà¤¬à¤¨à¤¾à¤Ī": 5513,
      "à¤¸à¥įà¤Łà¤°": 5514,
      "à¤¿à¤«à¥ĭà¤°à¥įà¤¨à¤¿à¤¯à¤¾": 5515,
      "Ġdono": 5516,
      "Ġanaly": 5517,
      "Ġà¤ªà¥įà¤°à¤®à¤¾à¤£": 5518,
      "Ġà¤¸à¤¦à¤¸à¥įà¤¯à¥ĭà¤Ĥ": 5519,
      "Ġà¤¬à¤¾à¤µà¤ľà¥Ĥà¤¦": 5520,
      "era": 5521,
      "Ġpath": 5522,
      "Ġcamp": 5523,
      "Ġutpann": 5524,
      "(m": 5525,
      "Ġà¤ĩà¤ļà¥įà¤Ľ": 5526,
      "Ġà¤¸à¤¾à¤ĩ": 5527,
      "-à¤¨": 5528,
      "Ġbirth": 5529,
      "à¥ģà¤ľ": 5530,
      "ĠNe": 5531,
      "Ġà¤¸à¥ģà¤Ĥà¤¦à¤°": 5532,
      "Ġà¤ķà¥įà¤°à¤¿à¤ķà¥ĩà¤Ł": 5533,
      "à¤¾à¤Ĭà¤ģ": 5534,
      "¢à¤¼": 5535,
      "Ġà¤Łà¥ĩà¤²": 5536,
      "à¤¿à¤¹à¤¿à¤¤": 5537,
      "Ġà¤ªà¤°à¤¿à¤£à¤¾à¤®à¥ĭà¤Ĥ": 5538,
      "Ġà¤ªà¤°à¤®à¤¾à¤£à¥ģ": 5539,
      "Ġhig": 5540,
      "Ġà¤µà¥Īà¤ľà¥įà¤ŀà¤¾à¤¨à¤¿à¤ķà¥ĭà¤Ĥ": 5541,
      "(f": 5542,
      "inner": 5543,
      "à¤¿à¤ķà¤¨": 5544,
      "Ġà¤µà¤¿à¤ļà¤¾à¤°à¥ĭà¤Ĥ": 5545,
      "à¤µà¤¿à¤ķà¤²à¥įà¤ªà¤ĥ": 5546,
      "uka": 5547,
      "Ġpie": 5548,
      "Ġdoor": 5549,
      "ends": 5550,
      "Ġà¤¦à¤¿à¤¶à¤¾": 5551,
      "Ġà¤¡à¥īà¤ķà¥įà¤Łà¤°": 5552,
      "Ġà¤ķà¤¿à¤¶": 5553,
      "Ġà¤¬à¥ģà¤¨à¤¿à¤¯à¤¾à¤¦à¥Ģ": 5554,
      "Ġcontrol": 5555,
      "oom": 5556,
      "Ġnatural": 5557,
      "Ġà¤ļà¥ģà¤¨à¥Įà¤¤à¥Ģ": 5558,
      "Ġà¤Ĩà¤¶à¥įà¤ļà¤°à¥įà¤¯": 5559,
      "Ġmovies": 5560,
      "Ġà¤¬à¤°": 5561,
      "Ġjane": 5562,
      "Ġshar": 5563,
      "-à¤ļ": 5564,
      "Ġà¤¤à¥įà¤µà¤ļà¤¾": 5565,
      "Ġà¤Ĺà¥įà¤°à¤¾à¤¹à¤ķà¥ĭà¤Ĥ": 5566,
      "à¥Ĥà¤«": 5567,
      "Ġà¤®à¥Īà¤ķ": 5568,
      "Ġà¤¶à¤¿à¤ķà¥įà¤·à¤ķ": 5569,
      "Ġofficial": 5570,
      "Ġes": 5571,
      "Ġà¤¡à¤°": 5572,
      "à¥ĭà¤®à¥Ģà¤Łà¤°": 5573,
      "à¥ĭà¤¨à¥ĩ": 5574,
      "Ġkaafi": 5575,
      "andom": 5576,
      "Ġaavashyakata": 5577,
      "Ġà¤¤à¤¾à¤²à¤¿à¤ķà¤¾": 5578,
      "Ġà¤µà¤¿à¤¦à¥įà¤¯à¥ģà¤¤": 5579,
      "Ġà¤Ńà¤¾à¤Ī": 5580,
      "à¥Ģà¤µà¥Ģ": 5581,
      "ĠSec": 5582,
      "Ġà¤¸à¤¿à¤¤à¤Ĥà¤¬à¤°": 5583,
      "List": 5584,
      "la": 5585,
      "à¤«à¥įà¤¤": 5586,
      "ĠWe": 5587,
      "Ġà¤ľà¤²à¥įà¤¦": 5588,
      "ĠSpacewatch": 5589,
      "ted": 5590,
      "à¥įà¤ľà¤¼": 5591,
      "Ġà¤ªà¤°à¥ĩà¤¶": 5592,
      "ety": 5593,
      "Ġà¤ĺà¤¾à¤Ł": 5594,
      "Ġsabse": 5595,
      "Ġà¤¬à¤¦à¤²à¤¾à¤µ": 5596,
      "Ġfield": 5597,
      "Ġà¤ªà¥Īà¤Łà¤°à¥įà¤¨": 5598,
      "-t": 5599,
      "Ġà¤µà¤¾à¤¯à¥ģ": 5600,
      "150": 5601,
      "Ġà¤µà¤¿à¤¶à¥ĩà¤·à¤¤à¤¾à¤ĵà¤Ĥ": 5602,
      "Ġà¤ħà¤Ńà¤¿à¤¯à¤¾à¤¨": 5603,
      "ji": 5604,
      "Ġà¤°à¥ĭà¤Ĺà¤¿à¤¯à¥ĭà¤Ĥ": 5605,
      "Ġcelebr": 5606,
      "Ġà¤Ŀà¥Ģà¤²": 5607,
      "Ġà¤Ĩà¤¤à¥ĩ": 5608,
      "ternational": 5609,
      "Ġsng": 5610,
      "Ġà¤ĸà¤¤à¤°à¤¾": 5611,
      "Ġjour": 5612,
      "stru": 5613,
      "Ġà¤īà¤ªà¤Ń": 5614,
      "Ġproject": 5615,
      "400": 5616,
      "Ġoorja": 5617,
      "Ġà¤¡à¤¿à¤ľà¤¼": 5618,
      "Ġwomen": 5619,
      "-à¤«": 5620,
      "Ġà¤Ĺà¥ģà¤²": 5621,
      "ified": 5622,
      "Ġà¤¦à¤ķà¥įà¤·à¤¿à¤£à¥Ģ": 5623,
      "\"à¤¯à¤¹": 5624,
      "Ġsw": 5625,
      "Ġkarein": 5626,
      "ĠWhen": 5627,
      "1989": 5628,
      "-à¤¶": 5629,
      "Ġà¤¯à¥Ĥà¤°à¥ĭà¤ªà¥Ģà¤¯": 5630,
      "67": 5631,
      "arb": 5632,
      "Ġà¤²à¤Ĥà¤¬à¥Ģ": 5633,
      "(P": 5634,
      "urity": 5635,
      "amous": 5636,
      "Ġvir": 5637,
      "Ġà¤ľà¤¨à¤¸à¤Ĥà¤ĸà¥įà¤¯à¤¾": 5638,
      "Ġvibhinn": 5639,
      "ols": 5640,
      "Ġkeep": 5641,
      "ikon": 5642,
      "Ġcentury": 5643,
      "Ġà¤¸à¤¿": 5644,
      "Ġheart": 5645,
      "Ġà¤¡à¥ĩà¤µ": 5646,
      "Ġà¤®à¤§à¥ģà¤®": 5647,
      "Ġà¤Ĩà¤µà¤¾à¤¸": 5648,
      "Ġothers": 5649,
      "Ġà¤ªà¥įà¤°à¥ĭà¤¤à¥įà¤¸à¤¾à¤¹à¤¿à¤¤": 5650,
      "à¤¹à¥įà¤®": 5651,
      "Ġrese": 5652,
      "\"à¤ľ": 5653,
      "-à¤ı": 5654,
      "Ġjisase": 5655,
      "Ġà¤ķà¤¹à¥Ģà¤Ĥ": 5656,
      "Ġà¤¸à¤¾à¤¤": 5657,
      "Ġbaat": 5658,
      "Ġunderstand": 5659,
      "Ġà¤¦à¥įà¤°": 5660,
      "à¤¹à¤¾à¤²": 5661,
      "à¥įà¤²à¥Īà¤Ĥà¤¡": 5662,
      "Ġà¤ħà¤ķà¥įà¤Łà¥Ĥà¤¬à¤°": 5663,
      "49": 5664,
      "Ġnird": 5665,
      "Ġthings": 5666,
      "Ġà¤¸à¥įà¤µà¤°": 5667,
      "\"à¤ıà¤ķ": 5668,
      "à¥ĩà¤¶à¤ķ": 5669,
      "joy": 5670,
      "Ġà¤ķà¥ģà¤®à¤¾à¤Ĭà¤ģ": 5671,
      "Ġanubhav": 5672,
      "Ġaaj": 5673,
      "Ġà¤ªà¥įà¤°à¥ĭà¤Łà¥Ģà¤¨": 5674,
      "Ġkshe": 5675,
      "Ġà¤ĺà¤Łà¤¨à¤¾à¤ĵà¤Ĥ": 5676,
      "Ġpred": 5677,
      "Ġà¤¸à¥ģà¤¬à¤¹": 5678,
      "####": 5679,
      "Ġbenef": 5680,
      "Ġà¤Ĩà¤¤à¥Ģ": 5681,
      "à¤ľà¤¿à¤ı": 5682,
      "ĠMed": 5683,
      "Ġà¤¨à¥Ģà¤¤à¤¿": 5684,
      "Ġà¤ķà¤²à¤¾à¤ķà¤¾à¤°": 5685,
      "Ġà¤¸à¤°à¥įà¤µà¥ĩà¤ķà¥įà¤·à¤£": 5686,
      "Ġà¤ªà¤¢à¤¼à¤¨à¥ĩ": 5687,
      "à¥ģà¤µ": 5688,
      "Ġà¤Łà¤¿à¤ªà¥įà¤ª": 5689,
      "Ġà¤¬à¤¿à¤ķ": 5690,
      "Ġà¤¦à¥ģà¤ķ": 5691,
      "aharan": 5692,
      "Ġindust": 5693,
      "Ġà¤¤à¥ģà¤°à¤Ĥà¤¤": 5694,
      "Ġhard": 5695,
      "Ġlargest": 5696,
      "Ġà¤¸à¥Įà¤°": 5697,
      "Ġà¤¤à¤ķà¤¨à¥Ģà¤ķà¥Ģ": 5698,
      "Ġservice": 5699,
      "Ġà¤¸à¤¾à¤Ĥà¤¸": 5700,
      "à¤¾à¤Ĺà¥įà¤°": 5701,
      "Ġarray": 5702,
      "ĠSome": 5703,
      "eth": 5704,
      "à¤¤à¥įà¤¯à¤¾": 5705,
      "Ġà¤ļà¤¿à¤ķà¤¿à¤¤à¥įà¤¸": 5706,
      "à¥ĩà¤¦à¤¨à¤¶à¥Ģà¤²": 5707,
      "Ad": 5708,
      "Ġjisamen": 5709,
      "Ġà¤¤à¤°à¤«": 5710,
      "rown": 5711,
      "Generate": 5712,
      "Ġà¤Ĺà¤¹à¤°": 5713,
      "Ġà¤¶à¤¾à¤¸à¤¨": 5714,
      "Ġtab": 5715,
      "hte": 5716,
      "raft": 5717,
      "illiam": 5718,
      "Ġà¤²à¤¿à¤Ĥà¤ķ": 5719,
      "Ġcame": 5720,
      "ively": 5721,
      "Ġà¤Ĭà¤Ĥà¤ļ": 5722,
      "Ġmilta": 5723,
      "Ġà¤ķà¥Īà¤²à¤¿à¤«à¥ĭà¤°à¥įà¤¨à¤¿à¤¯à¤¾": 5724,
      "Ġabhi": 5725,
      "Ġwithout": 5726,
      "Ġdij": 5727,
      "Ġwritten": 5728,
      "Ġpossible": 5729,
      "Ġà¤¸à¤Ĥà¤µà¤¾à¤¦": 5730,
      "2022": 5731,
      "Ġà¤¶à¤¾à¤¦à¥Ģ": 5732,
      "unicip": 5733,
      "Ġconc": 5734,
      "Ġà¤ħà¤§à¤¿à¤ķà¤¾à¤°à¤¿à¤¯à¥ĭà¤Ĥ": 5735,
      "king": 5736,
      "Ġshare": 5737,
      "Ġà¤ªà¥ī": 5738,
      "Ġreduce": 5739,
      "Ġà¤¤à¤²à¤¾à¤¶": 5740,
      "Ġà¤µà¤¿à¤¤à¥įà¤¤à¥Ģà¤¯": 5741,
      "Ġà¤¨à¥ĩà¤¤à¤¾": 5742,
      "Ġchun": 5743,
      "Ġcomputer": 5744,
      "Ġà¤ªà¥įà¤°à¥ĭà¤«à¥ĩà¤¸à¤°": 5745,
      "njan": 5746,
      "Ġà¤ĩà¤¤à¤¨à¤¾": 5747,
      "Ġsoochi": 5748,
      "rest": 5749,
      "ĠSm": 5750,
      "Ġà¤Łà¥įà¤¯à¥Ĥ": 5751,
      "Ġachch": 5752,
      "Ġà¤¨à¥Įà¤ķà¤°à¥Ģ": 5753,
      "Ġà¤ªà¥įà¤°à¤Ĺà¤¤à¤¿": 5754,
      "Ġkie": 5755,
      "à¤ļà¤¸à¥įà¤ª": 5756,
      "Ġà¤ĸà¥ĭà¤ľà¤¨à¥ĩ": 5757,
      "à¥Ĥà¤·à¤£": 5758,
      ".com": 5759,
      "à¥Īà¤°": 5760,
      "Ġà¤ıà¤Ĥà¤Łà¥Ģ": 5761,
      "Ġà¤¥à¥ĭà¤¡à¤¼à¤¾": 5762,
      "Ġalong": 5763,
      "\"à¤ª": 5764,
      "main": 5765,
      "à¤®à¥ĩ": 5766,
      "Ġà¤¸à¥Ĥà¤¤à¥įà¤°": 5767,
      "Ġà¤ľà¤¹à¤¾à¤ľ": 5768,
      "ĠAng": 5769,
      "ells": 5770,
      "ication": 5771,
      "Ġà¤īà¤²": 5772,
      "Ġgen": 5773,
      "ĠGr": 5774,
      "à¥ĩà¤¬": 5775,
      "erc": 5776,
      "Ġà¤Ĺà¤¢à¤¼": 5777,
      "à¤¿à¤¶à¥įà¤µ": 5778,
      "Ġà¤Ĩà¤Ĥà¤¦": 5779,
      "Ġadvent": 5780,
      "Ġà¤®à¥Įà¤¤": 5781,
      "Ġà¤¨à¤¿à¤ªà¤Ł": 5782,
      "irl": 5783,
      "ows": 5784,
      "Ġquest": 5785,
      "ky": 5786,
      "Ġà¤ªà¥įà¤°à¤Ńà¤¾à¤µà¥ĭà¤Ĥ": 5787,
      "Ġregion": 5788,
      "Ġà¤ķà¥įà¤¯à¥Ĥ": 5789,
      "ila": 5790,
      "Ġthought": 5791,
      "Ġep": 5792,
      "play": 5793,
      "Ġtakanik": 5794,
      "Des": 5795,
      "Ġgee": 5796,
      "ogn": 5797,
      "Ġà¤¸à¤Ĥà¤ļà¤¾à¤²à¤¨": 5798,
      "à¥Ĥà¤¬": 5799,
      "Ġà¤¦à¤¸": 5800,
      "à¤¿à¤¤à¤¿": 5801,
      "ended": 5802,
      "init": 5803,
      "Ġà¤ªà¥įà¤°à¤¤à¤¿à¤Ń": 5804,
      "Ġnews": 5805,
      "Ġbreak": 5806,
      "Ġà¤¸à¤¿à¤°à¥įà¤«": 5807,
      "ĠMe": 5808,
      "Ġseva": 5809,
      "Ġsav": 5810,
      "resh": 5811,
      "ĠParty": 5812,
      "aim": 5813,
      "Ġkaran": 5814,
      "Ġflow": 5815,
      "à¤¾à¤ķà¥Ģ": 5816,
      "Ġà¤ªà¥įà¤²à¥ĩà¤Ł": 5817,
      "Ġà¤¦à¤¿à¤²à¤ļà¤¸à¥įà¤ª": 5818,
      "Ġà¤ļà¤Ĥà¤¦à¥įà¤°": 5819,
      "Ġput": 5820,
      "ilar": 5821,
      "Ġà¤ħà¤¨à¥ģà¤ªà¥įà¤°": 5822,
      "à¤¾à¤£à¤¿à¤ķ": 5823,
      "ĠGermany": 5824,
      "à¤¿à¤®à¥Ģ": 5825,
      "Ġvishesh": 5826,
      "ged": 5827,
      "à¥ģà¤µà¤Ĥà¤¶": 5828,
      "85": 5829,
      "Ġfr": 5830,
      "à¤¾à¤¬à¥ĩà¤¸": 5831,
      "à¤¿à¤·à¤¦": 5832,
      "Ġà¤ļà¤ķà¥įà¤°": 5833,
      "ĠPak": 5834,
      "Ġà¤īà¤¤à¥įà¤ķ": 5835,
      "Ġpeh": 5836,
      "\"à¤¹à¤®": 5837,
      "Ġà¤ļà¤Łà¥įà¤Ł": 5838,
      "Ġà¤«à¥ĭà¤Ł": 5839,
      "istics": 5840,
      "Ġeducation": 5841,
      "fic": 5842,
      "mujhe": 5843,
      "à¥ĩà¤Łà¤°": 5844,
      "Ġà¤°à¤ĸà¤¤à¤¾": 5845,
      "Ġà¤Ĩà¤°à¤¾à¤®": 5846,
      "Ġà¤¨à¤¿à¤ķà¤Ł": 5847,
      "Ġearly": 5848,
      "atam": 5849,
      "Ġà¤ķà¥ģà¤®à¤¾à¤°": 5850,
      "colspan": 5851,
      "de": 5852,
      "Ġà¤īà¤ªà¤¾à¤¯": 5853,
      "ĠSingh": 5854,
      "à¤®à¤¾à¤¤à¥įà¤°": 5855,
      "Ġà¤Ĺà¥Ģà¤¤": 5856,
      "à¤¨à¤¾à¤ķ": 5857,
      "à¤¾à¤®à¤¿à¤¨": 5858,
      "aper": 5859,
      "Ġà¤²à¤ķà¤¡à¤¼à¥Ģ": 5860,
      "Ġà¤¬à¥ĭà¤°à¥įà¤¡": 5861,
      "Ġkhel": 5862,
      "Ġvill": 5863,
      "Ġstore": 5864,
      "(B": 5865,
      "Ġstress": 5866,
      "ban": 5867,
      "Ġfather": 5868,
      "Ġà¤Ĺà¤°à¥Ģ": 5869,
      "ondon": 5870,
      "Ġà¤¯à¤¾à¤¤": 5871,
      "Ġà¤¸à¥Ģà¤®": 5872,
      "Ġà¤¸à¤Ńà¤¾": 5873,
      "à¤¸à¥Ģà¤¸à¥Ģ": 5874,
      "Ġupayogakarta": 5875,
      "Ġà¤ªà¥ģà¤°à¥ģà¤·à¥ĭà¤Ĥ": 5876,
      "Ġwebs": 5877,
      "attle": 5878,
      "Ġrespons": 5879,
      "à¥Ĥà¤¨à¥Ģ": 5880,
      "Ġyog": 5881,
      "Ġà¤µà¤¿à¤¦à¥įà¤¯à¤¾à¤²à¤¯": 5882,
      "Ġà¤¡à¤¿à¤ľà¤¼à¤¾à¤ĩà¤¨": 5883,
      "à¤¯à¤¦à¤¿": 5884,
      "à¤ıà¤ļ": 5885,
      "Ġà¤µà¥įà¤¯à¤µà¤¸à¥įà¤¥à¤¾": 5886,
      "Ġà¤ľà¤¿à¤®à¥įà¤®à¥ĩà¤¦à¤¾à¤°": 5887,
      "\"à¤¬": 5888,
      "Un": 5889,
      "adem": 5890,
      "ĠMc": 5891,
      "Ġmakes": 5892,
      "Ġhy": 5893,
      "à¤§à¥įà¤¯": 5894,
      "Ġkhush": 5895,
      "Ġà¤®à¥Īà¤ļ": 5896,
      "ys": 5897,
      "Ġnorth": 5898,
      "ender": 5899,
      "Ġà¤¨à¤¿à¤°à¤Ĥà¤¤à¤°": 5900,
      "Ġà¤µà¥įà¤¯à¤¾à¤¯à¤¾à¤®": 5901,
      "180": 5902,
      "ibility": 5903,
      "Ġà¤ªà¤¤à¥įà¤¤": 5904,
      "à¤Ĺà¤¾à¤°": 5905,
      "Ġbaar": 5906,
      "Ġshuru": 5907,
      "\"|-": 5908,
      "Ġmuk": 5909,
      "Ġà¤ªà¤°à¤¿à¤¸": 5910,
      "Ġhalf": 5911,
      "Ġsthan": 5912,
      "Ġà¤¸à¤¾à¤ĩà¤Ł": 5913,
      "Ġjob": 5914,
      "obal": 5915,
      "ml": 5916,
      "Ġterm": 5917,
      "Ġside": 5918,
      "isc": 5919,
      "yav": 5920,
      "Ġà¤¦à¤¿à¤¸à¤Ĥà¤¬à¤°": 5921,
      "Ġà¤ħà¤µà¤¶": 5922,
      "Ġà¤¸à¤¾à¤°à¤¾à¤Ĥà¤¶": 5923,
      "à¤¾à¤ĩà¤¯à¥ĭà¤Ĥ": 5924,
      "57": 5925,
      "(self": 5926,
      "ule": 5927,
      "Ġvarious": 5928,
      "For": 5929,
      "à¤¾à¤¨à¥ģ": 5930,
      "Ġbeg": 5931,
      "Ġà¤ħà¤ªà¤°à¤¾à¤§": 5932,
      "ÃŃ": 5933,
      "Ġà¤Ńà¤Ĥà¤¡": 5934,
      "ĠGo": 5935,
      "ploy": 5936,
      "à¤¾à¤¨à¤¦à¤¾à¤°": 5937,
      "Ġà¤¹à¤¡à¥įà¤¡": 5938,
      "agn": 5939,
      "Ġsoft": 5940,
      "\"|-||": 5941,
      "Ġà¤¨à¤¿à¤ľà¥Ģ": 5942,
      "Ġà¤¶à¤¿à¤ķà¤¾à¤°": 5943,
      "ĠMus": 5944,
      "Ġshop": 5945,
      "Ġà¤¹à¤µà¤¾à¤Ī": 5946,
      "Ġà¤ıà¤²à¥įà¤Ĺà¥ĭà¤°à¤¿à¤¥": 5947,
      "Ġà¤ĩà¤®à¤¾à¤°": 5948,
      "Ġrelations": 5949,
      "Ġhuaa": 5950,
      "Ġà¤ħà¤µà¤¸": 5951,
      "iki": 5952,
      "omin": 5953,
      "Ġà¤ħà¤§à¤¿à¤ķà¤¤à¤®": 5954,
      "à¤¿à¤¨à¥Ģ": 5955,
      "Ġà¤ªà¥Įà¤§à¥ĩ": 5956,
      "Ġcapital": 5957,
      "Ġperiod": 5958,
      "Ġà¤ªà¤Ł": 5959,
      "Ġcalcul": 5960,
      "urch": 5961,
      "Ġà¤ªà¥Ģà¤¡à¤¼à¤¿à¤¤": 5962,
      "Ġà¤¸à¥Ĥà¤ĸ": 5963,
      "ĠPrime": 5964,
      "Ġsqu": 5965,
      "Ġsakta": 5966,
      "Ġà¤ĵà¤²": 5967,
      "Ġà¤ľà¤¿à¤¨à¤ķà¥ĩ": 5968,
      "inc": 5969,
      "Ġà¤ľà¤¨à¤¤à¤¾": 5970,
      "120": 5971,
      "Ġinfl": 5972,
      "Ġà¤¶à¥ģ": 5973,
      "Ġattack": 5974,
      "Ġcome": 5975,
      "Ġà¤Ĺà¤£à¤¿à¤¤": 5976,
      "à¤¹à¤°à¥ĩ": 5977,
      "rem": 5978,
      "Ġbanana": 5979,
      "eta": 5980,
      "Ġise": 5981,
      "Ġà¤ªà¥įà¤°à¤¤à¤¿à¤¬à¤Ĥà¤§": 5982,
      "Ġcond": 5983,
      "Ġà¤ľà¥Īà¤µ": 5984,
      "Ġà¤¸à¤Ĥà¤ĺà¥Ģà¤¯": 5985,
      "à¤°à¤¾à¤ľà¥įà¤¯": 5986,
      "kya": 5987,
      "Ġdoos": 5988,
      "\"à¤¦": 5989,
      "ead": 5990,
      "less": 5991,
      "Ã¶": 5992,
      "Ġvichar": 5993,
      "Ġà¤¬à¤¦à¤²à¤¨à¥ĩ": 5994,
      "Ġà¤ªà¥įà¤°à¥ĩà¤®": 5995,
      "Ġà¤ħà¤°à¥įà¤¥à¤µà¥įà¤¯à¤µ": 5996,
      "Ġà¤Ĭà¤ģ": 5997,
      "Ġà¤¡à¥ĩà¤Łà¤¾à¤¬à¥ĩà¤¸": 5998,
      "Ġà¤ľà¥ģà¤¡à¤¼": 5999,
      "Ġà¤¸à¥įà¤¤à¤¨": 6000,
      "Ġà¤¸à¤Ĥà¤ªà¤¾à¤¦": 6001,
      "Ġbeaut": 6002,
      "Ġà¤īà¤¦à¥įà¤¯à¤¾à¤¨": 6003,
      "Ġà¤¦à¤¿à¤µà¤¸": 6004,
      "à¥Ĥà¤¡": 6005,
      "à¤¾à¤®à¤¾": 6006,
      "Ġhouse": 6007,
      "Ġà¤Ńà¤µà¤¿à¤·à¥įà¤¯à¤µ": 6008,
      "à¤¿à¤¨à¤¿à¤¯à¤®": 6009,
      "Ġà¤Łà¥Ĥà¤Ł": 6010,
      "Ġkhushi": 6011,
      "Ġà¤Ĺà¤¾à¤Ĥà¤µ": 6012,
      "Ġdene": 6013,
      "ounds": 6014,
      "Ġà¤¸à¤¿à¤²": 6015,
      "Ġà¤µà¤¾à¤¯": 6016,
      "ĠUnion": 6017,
      "Ġà¤¹à¤²à¥įà¤ķ": 6018,
      "Ġà¤°à¤¾à¤¸": 6019,
      "burg": 6020,
      "verage": 6021,
      "Ġà¤¸à¥ģà¤µà¤¿à¤§à¤¾": 6022,
      "Ġà¤ķà¤ķà¥įà¤·": 6023,
      "à¤¨à¤¿à¤®à¥įà¤¨à¤²à¤¿à¤ĸà¤¿à¤¤": 6024,
      "Ġliving": 6025,
      "Ġà¤«à¥Īà¤¸à¤²à¤¾": 6026,
      "Ġment": 6027,
      "à¤°à¥įà¤¤à¤¨": 6028,
      "à¤°à¥įà¤¨à¤¿à¤Ĥà¤Ĺ": 6029,
      "Ġà¤µà¥įà¤¯à¤¾à¤ĸà¥įà¤¯à¤¾": 6030,
      "avar": 6031,
      "Ġà¤¬à¤¤à¤¾à¤¨à¤¾": 6032,
      "Ġà¤ļà¤¿à¤Ĥà¤¤à¤¾": 6033,
      "-à¤²": 6034,
      "ML": 6035,
      "à¤ªà¤¾": 6036,
      "Ġrul": 6037,
      "Ġà¤Ĩà¤¨à¥ģà¤µà¤Ĥà¤¶": 6038,
      "Ġà¤Ńà¥Įà¤¤à¤¿à¤ķ": 6039,
      "ĠGod": 6040,
      "Ġà¤ļà¤²à¤¨à¥ĩ": 6041,
      "Ġà¤ķà¤¿à¤¤à¤¾à¤¬": 6042,
      "à¤ľà¤²": 6043,
      "Ġà¤µà¤¿à¤·à¤¯à¥ĭà¤Ĥ": 6044,
      "à¥ģà¤·à¥įà¤Łà¤¿": 6045,
      "uman": 6046,
      "Ġgun": 6047,
      "à¤ľà¤¨à¤ķ": 6048,
      "bit": 6049,
      "Ġà¤ĩà¤Ĥà¤Ĺà¥įà¤²à¥Īà¤Ĥà¤¡": 6050,
      "à¥Ĥà¤ł": 6051,
      "Ġà¤µà¤¿à¤«": 6052,
      "ivil": 6053,
      "Con": 6054,
      "à¥ĩà¤µà¤°": 6055,
      "à¤ķà¥ĥà¤¤": 6056,
      "Ġà¤ķà¤®à¤ľ": 6057,
      "Ġà¤īà¤ªà¤¯à¥ĭà¤Ĺà¤ķà¤°à¥įà¤¤à¤¾à¤ĵà¤Ĥ": 6058,
      "Ġà¤«à¤¼à¤¾à¤ĩà¤²": 6059,
      "Ġà¤®à¤¾à¤ĩà¤ķà¥įà¤°": 6060,
      "à¥ĭà¤²à¥ī": 6061,
      "-c": 6062,
      "à¤ĳà¤ķà¥įà¤¸": 6063,
      "Ġgrowth": 6064,
      "Ġmillion": 6065,
      "Ġjor": 6066,
      "Ġà¤¶à¥Ģà¤°à¥įà¤·à¤ķà¤ĥ": 6067,
      "Ġà¤µà¤¿à¤«à¤²": 6068,
      "Ġà¤µà¥įà¤¹": 6069,
      "à¤¾à¤¤à¤¾à¤ĵà¤Ĥ": 6070,
      "à¥ĩà¤°à¥ĩ": 6071,
      "Ġà¤Ĺà¤°à¥įà¤®à¥Ģ": 6072,
      "Ġkyon": 6073,
      "Ġà¤ļà¤¾à¤°à¥ĭà¤Ĥ": 6074,
      "Ġsamag": 6075,
      "Ġà¤²à¤Ĥà¤¬à¤¾à¤Ī": 6076,
      "Ġà¤ķà¥ĭà¤°": 6077,
      "Ġachha": 6078,
      "Ġà¤¸à¤Ĥà¤¶à¥ĭà¤§à¤¿à¤¤": 6079,
      "((": 6080,
      "Ġwa": 6081,
      "avy": 6082,
      "Ġable": 6083,
      "Ġdil": 6084,
      "Ġà¤¤à¤ķà¤¨à¥Ģà¤ķà¥ĭà¤Ĥ": 6085,
      "Ġson": 6086,
      "à¤¾à¤¦à¤¾": 6087,
      "One": 6088,
      "avid": 6089,
      "iety": 6090,
      "Ġà¤«à¤°à¤µà¤°à¥Ģ": 6091,
      "head": 6092,
      "à¤µà¤°à¥įà¤¡": 6093,
      "Ġdue": 6094,
      "Ġheld": 6095,
      "76": 6096,
      "Ã¼": 6097,
      "à¥įà¤®à¤¾": 6098,
      "Ġens": 6099,
      "Ġà¤ªà¥Īà¤®à¤¾à¤¨à¥ĩ": 6100,
      "à¤ķà¤¾à¤²à¤¿à¤ķ": 6101,
      "Ġà¤¬à¥ĩà¤²": 6102,
      "ĠCup": 6103,
      "yan": 6104,
      "à¥ĩà¤«": 6105,
      "ĠDo": 6106,
      "à¤¾à¤¡à¤¼à¤¿à¤¯à¥ĭà¤Ĥ": 6107,
      "Ġà¤ªà¥įà¤°à¤µà¤¾à¤¹": 6108,
      "ĠJapanese": 6109,
      "Ġlearn": 6110,
      "72": 6111,
      "be": 6112,
      "Ġà¤®à¥ĩà¤¡": 6113,
      "ories": 6114,
      "akes": 6115,
      "Ġà¤ªà¤Ĥ": 6116,
      "Ġà¤¸à¥įà¤²": 6117,
      "Ġsay": 6118,
      "Ġclub": 6119,
      "illa": 6120,
      "'M": 6121,
      "from": 6122,
      "Ġgot": 6123,
      "Ġà¤ķà¤¹à¤¾à¤ģ": 6124,
      "1988": 6125,
      "Ġà¤¹à¤¿à¤¨à¥įà¤¦à¥Ģ": 6126,
      "à¤¾à¤ľà¥įà¤¯": 6127,
      "ĠBy": 6128,
      "ĠJo": 6129,
      "Ġperfect": 6130,
      "Ġfeatures": 6131,
      "Ġsix": 6132,
      "Ġà¤¦à¥Ĥ": 6133,
      "Ġfamous": 6134,
      "Ġà¤ªà¥įà¤°à¤¶à¥įà¤¨à¤ĥ": 6135,
      "Ġà¤¸à¤®à¥Ģà¤ķà¥įà¤·à¤¾à¤ĥ": 6136,
      "à¥ĩà¤²à¥Ĥ": 6137,
      "ancial": 6138,
      "Ġà¤°à¥ĩà¤ĸà¤¾": 6139,
      "[]": 6140,
      "à¤Ĥà¤ľà¥Ģ": 6141,
      "sc": 6142,
      "Ġà¤µà¤Ĥà¤¶": 6143,
      "Ġnight": 6144,
      "à¤¨à¥įà¤¦à¥įà¤°": 6145,
      "ĠCong": 6146,
      "ĠWh": 6147,
      "à¤¾à¤Ĥà¤¤à¤°à¤¿à¤¤": 6148,
      "Ġà¤ķà¥ģà¤¶à¤²": 6149,
      "+=": 6150,
      "eder": 6151,
      "Ġà¤¬à¤¢à¤¼à¤¨à¥ĩ": 6152,
      "Ġpresident": 6153,
      "II": 6154,
      "Ġà¤ıà¤ķà¤²": 6155,
      "à¥ĩà¤¦à¤¾à¤°à¥Ģ": 6156,
      "à¥ĩà¤Ĥà¤ľ": 6157,
      "Ġenjoy": 6158,
      "Ġwriter": 6159,
      "ĠRoman": 6160,
      "Ġà¤Ĩà¤µà¤¶à¥įà¤¯à¤ķà¤¤à¤¾à¤ĵà¤Ĥ": 6161,
      "Ġà¤°à¥ģà¤ļà¤¿": 6162,
      "58": 6163,
      "Ġstudy": 6164,
      "Ġpubl": 6165,
      "Ġcharacters": 6166,
      "ĠAustralia": 6167,
      "Ġà¤¨à¤µà¤Ĥà¤¬à¤°": 6168,
      "à¤¾à¤°à¤¿à¤¶": 6169,
      "Ġà¤ħà¤¨à¥ģà¤ªà¥įà¤°à¤¯à¥ĭà¤Ĺ": 6170,
      "Ġà¤¹à¥ĭà¤ķà¤°": 6171,
      "Ġà¤ħà¤Ńà¤¿à¤µ": 6172,
      "Ġà¤µà¤¿à¤®à¤¾à¤¨": 6173,
      "Ġà¤®à¤¸": 6174,
      "ude": 6175,
      "Pro": 6176,
      "Ġà¤¦à¥ĩà¤Ĺà¤¾": 6177,
      "à¤ĸà¥įà¤¯": 6178,
      "Ġà¤¸à¤®à¤Ŀà¥Į": 6179,
      "Ġà¤¬à¥ģà¤²": 6180,
      "Ġà¤®à¥ĩà¤°à¤¾": 6181,
      "Ġà¤Ĩà¤Ĥà¤¤à¤°à¤¿à¤ķ": 6182,
      "à¤¾à¤®à¤¾à¤¨à¥įà¤¯": 6183,
      "Ġachie": 6184,
      "Ġmooly": 6185,
      "Ġà¤°à¤¾à¤¯": 6186,
      "Ġwithin": 6187,
      "Ġà¤¦à¥Ģà¤µ": 6188,
      "Ġà¤¬à¥įà¤°à¤¹à¥įà¤®": 6189,
      "Ġstyle": 6190,
      "ĠHouse": 6191,
      "Ġà¤¬à¤¨à¤¨à¥ĩ": 6192,
      "à¤¿à¤Łà¤°": 6193,
      "Ġà¤µà¤¿à¤ľà¥įà¤ŀ": 6194,
      "Ġà¤§à¤¾à¤°à¥įà¤®à¤¿à¤ķ": 6195,
      "Ġà¤ļà¥Ģà¤ľà¥ĭà¤Ĥ": 6196,
      "Ġà¤µà¥ĭ": 6197,
      "Ġà¤īà¤ľ": 6198,
      "à¥įà¤µà¥Ģà¤ª": 6199,
      "Ġà¤Ĩà¤ķà¤°à¥įà¤·à¤¿à¤¤": 6200,
      "à¤īà¤¦": 6201,
      "à¤ļà¤¾à¤°à¤¿à¤¯à¥ĭà¤Ĥ": 6202,
      "Ġmatch": 6203,
      "Ġà¤ªà¥ģà¤¸à¥įà¤¤à¤ķà¤¾à¤²à¤¯": 6204,
      "Ġà¤¸à¤Ĥà¤¦à¤°à¥įà¤Ńà¤¿à¤¤": 6205,
      "à¤ķà¥įà¤·à¥įà¤®": 6206,
      "Ġà¤¬à¤¢à¤¼à¤¾": 6207,
      "Ġmadhy": 6208,
      "Ġà¤®à¥Īà¤¦à¤¾à¤¨": 6209,
      "à¥Īà¤ľà¥įà¤ŀà¤¾à¤¨à¤¿à¤ķ": 6210,
      "Ġstru": 6211,
      "à¥ĭà¤¬à¤¾à¤ĩà¤²": 6212,
      "à¤¾à¤¯à¤¨à¤¿à¤ķ": 6213,
      "à¤¿à¤ľà¥įà¤ŀà¤¾à¤¨": 6214,
      "Ġsuna": 6215,
      "à¤Łà¤¾": 6216,
      "ilm": 6217,
      "Ġà¤ļà¤°à¤¿à¤¤à¥įà¤°": 6218,
      "à¤¾à¤¯à¤¤": 6219,
      "Ġrandom": 6220,
      "Ġà¤ļà¥ĩà¤¤": 6221,
      "Ġà¤¦à¥įà¤µà¤¿à¤¤à¥Ģà¤¯": 6222,
      "Ġbina": 6223,
      "à¤Ĥà¤¦à¤¨": 6224,
      "à¤¨à¤ķ": 6225,
      "ota": 6226,
      "vert": 6227,
      "Ġà¤ķà¥Īà¤°": 6228,
      "Ġà¤Īà¤Ĥà¤§à¤¨": 6229,
      "Ġà¤²à¤¡à¤¼à¤¾à¤Ī": 6230,
      "Ġfree": 6231,
      "Ġà¤Ĺà¤¾à¤¯": 6232,
      "Ġà¤¦à¥ĩà¤Ĥà¤ĥ": 6233,
      "à¤¾à¤°à¤ķ": 6234,
      "93": 6235,
      "Ġà¤®à¤Ĥà¤Ĺà¤²": 6236,
      "Ġà¤¶à¤°à¤¾à¤¬": 6237,
      "idd": 6238,
      "Ġà¤ĸà¥ĭà¤²": 6239,
      "Ġreport": 6240,
      "ishchit": 6241,
      "indagi": 6242,
      "ĠReg": 6243,
      "Ġsnr": 6244,
      "Ġà¤µà¤°à¥įà¤Ĺà¥Ģà¤ķà¥ĥà¤¤": 6245,
      "(x": 6246,
      "à¤ļà¤¾à¤°à¥Ģ": 6247,
      "Ġà¤ªà¤¾à¤°à¤¿à¤¸à¥įà¤¥à¤¿à¤¤": 6248,
      "ĠChampions": 6249,
      "Ġà¤ĩà¤²à¥ĩà¤ķà¥įà¤Łà¥įà¤°à¥īà¤¨": 6250,
      "Ġestab": 6251,
      "add": 6252,
      "Ġamong": 6253,
      "Ġà¤ħà¤«à¥įà¤°à¥Ģà¤ķà¤¾": 6254,
      "Ġaway": 6255,
      "Ġà¤¤à¥Ĥà¤«": 6256,
      "Ġà¤ªà¤¾à¤ķà¤¿à¤¸à¥įà¤¤à¤¾à¤¨": 6257,
      "Ġà¤¯à¤¹à¥Ģ": 6258,
      "à¤īà¤¨à¥įà¤¹à¥ĭà¤Ĥà¤¨à¥ĩ": 6259,
      ".c": 6260,
      "Ġtal": 6261,
      "à¤Ĺà¤¨": 6262,
      "ĠPer": 6263,
      "à¤ªà¤¤": 6264,
      "Ġà¤¶à¤¾à¤Ĥà¤¤": 6265,
      "à¥ĭà¤¸à¥ĩ": 6266,
      "Ġà¤®à¥ĩà¤ľ": 6267,
      "Ġdise": 6268,
      "Ġà¤ªà¤¤à¥įà¤¥": 6269,
      "Ġà¤ªà¤¤à¥įà¤¨à¥Ģ": 6270,
      "Ġà¤¸à¤Ĥà¤¤à¥ģà¤²": 6271,
      "à¥ĩà¤Ĥà¤¦à¥įà¤°": 6272,
      "Ġà¤°à¤¹à¤¤à¥Ģ": 6273,
      "Ġmauka": 6274,
      "Ġà¤ªà¥įà¤°à¤£à¤¾à¤²à¤¿à¤¯à¥ĭà¤Ĥ": 6275,
      "Ġà¤Łà¥įà¤°à¥ĩà¤¨": 6276,
      "ym": 6277,
      "Ġà¤Ĩà¤ªà¤¨à¥ĩ": 6278,
      "Ġengine": 6279,
      "à¤²à¥ĩà¤ĸ": 6280,
      "Ġà¤¨à¥Īà¤¤à¤¿à¤ķ": 6281,
      "Ġresearch": 6282,
      "(à¤µ": 6283,
      "ipp": 6284,
      "Ġà¤ķà¤¿à¤¶à¥ĭà¤°": 6285,
      "-S": 6286,
      "92": 6287,
      "Ġcook": 6288,
      "Ġà¤Ĩà¤ł": 6289,
      "Ġlaga": 6290,
      "Ġauthor": 6291,
      "Ġà¤§à¥Ģà¤°à¥ĩ": 6292,
      "Ġà¤«à¥Ģà¤Ł": 6293,
      "Ġdeb": 6294,
      "à¥ĭà¤ľà¤¨à¤¾à¤ĵà¤Ĥ": 6295,
      "abh": 6296,
      "à¤¶à¤¾à¤¸à¥įà¤¤à¥įà¤°": 6297,
      "Ġà¤¶à¤¾à¤ĸ": 6298,
      "Ġà¤ķà¤°à¥įà¤®à¤ļà¤¾à¤°à¤¿à¤¯à¥ĭà¤Ĥ": 6299,
      "Ġà¤¶à¤¾à¤¨à¤¦à¤¾à¤°": 6300,
      "Ġà¤²à¥ĩà¤¨à¤¾": 6301,
      "ĠLondon": 6302,
      "Ġcompos": 6303,
      "lymp": 6304,
      "Ġà¤§à¤¾à¤¤": 6305,
      "Ġà¤®à¤¾à¤¸": 6306,
      "à¤¿à¤ªà¥įà¤Ł": 6307,
      "1986": 6308,
      "Ġà¤¸à¥ĭà¤¶à¤²": 6309,
      "Ġà¤¸à¤Ĥà¤Ńà¤µà¤¤à¤ĥ": 6310,
      "94": 6311,
      "à¤¤à¤¾à¤ª": 6312,
      "Ġà¤ľà¤¿à¤¸à¤ķà¥Ģ": 6313,
      "à¤īà¤ª": 6314,
      "Ġpahale": 6315,
      "à¤°à¥įà¤ľà¥Ģ": 6316,
      "Ġà¤²à¥Ī": 6317,
      "Ġdest": 6318,
      "à¥ĩà¤Ĥà¤¸à¥Ģ": 6319,
      "Ġunaki": 6320,
      "à¥ĩà¤®à¥įà¤¸": 6321,
      "63": 6322,
      "ored": 6323,
      "à¤ķà¤Ĥà¤ª": 6324,
      "Ġà¤®à¤Ĥà¤¤à¥įà¤°": 6325,
      "à¤ıà¤«": 6326,
      "Ġà¤°à¤µ": 6327,
      "Ġprofessional": 6328,
      "kn": 6329,
      "Ġà¤¸à¤¿à¤«": 6330,
      "ids": 6331,
      "Ġareas": 6332,
      "Ġà¤¬à¤¢à¤¼à¤¤à¥ĩ": 6333,
      "lin": 6334,
      "Ġsnkhya": 6335,
      "à¥ĭà¤¶": 6336,
      "erb": 6337,
      "Ġà¤¦à¤¾à¤µà¤¾": 6338,
      "Ġà¤¸à¤Ĥà¤µà¥ĩà¤¦à¤¨à¤¶à¥Ģà¤²": 6339,
      "Ġpha": 6340,
      "ently": 6341,
      "new": 6342,
      "Ġaapake": 6343,
      "ration": 6344,
      "Ġà¤ľà¥įà¤ŀ": 6345,
      "Ġanus": 6346,
      "Ġport": 6347,
      "ĠIm": 6348,
      "Ġenc": 6349,
      "à¥īà¤ķà¥įà¤¸": 6350,
      "à¤Ĥà¤Ĺà¤¿à¤ķ": 6351,
      "Ġmount": 6352,
      "Ġantar": 6353,
      "Ġstation": 6354,
      "Ġpress": 6355,
      "à¤°à¥Ģà¤¯": 6356,
      "Ġbuilt": 6357,
      "Ġkshetr": 6358,
      "1987": 6359,
      "Ġmom": 6360,
      "Ġà¤°à¤¿à¤¸": 6361,
      "Ġservices": 6362,
      "à¤¾à¤ĺ": 6363,
      "à¤¡à¥įà¤°": 6364,
      "à¤¾à¤ľà¤¾": 6365,
      "Ġà¤ªà¥įà¤°à¤¯à¥ĭà¤Ĺà¤¶à¤¾à¤²à¤¾": 6366,
      "ontin": 6367,
      "ians": 6368,
      "Ġà¤«à¤¼à¤Ĥà¤ķà¥įà¤¶à¤¨": 6369,
      "Ġà¤¸à¥įà¤°à¥ĭà¤¤à¥ĭà¤Ĥ": 6370,
      "Ġlived": 6371,
      "Ġstop": 6372,
      "Ġà¤ªà¤°à¥įà¤µ": 6373,
      "iforn": 6374,
      "à¤¿à¤¯à¥ĭà¤Ĺ": 6375,
      "omes": 6376,
      "Ġà¤®à¤¿à¤¶à¤¨": 6377,
      "Ġdie": 6378,
      "à¥įà¤ķà¤¾à¤°": 6379,
      "Ġà¤¸à¤Ĥà¤Ĺà¥įà¤°à¤¹à¤¾à¤²à¤¯": 6380,
      "Ġà¤ļà¤²à¥ĩ": 6381,
      "back": 6382,
      "alse": 6383,
      "Ġà¤®à¤¾à¤¨à¤¨à¤¾": 6384,
      "uz": 6385,
      "Ġgh": 6386,
      "Ġalways": 6387,
      "à¤¿à¤ľà¥įà¤ŀ": 6388,
      "Ġtaken": 6389,
      "Pr": 6390,
      "ters": 6391,
      "Ġà¤¦à¥Ĥà¤¸à¤°à¥ĭà¤Ĥ": 6392,
      "Ġcontent": 6393,
      "Ġà¤²à¤°à¥įà¤¨à¤¿à¤Ĥà¤Ĺ": 6394,
      "Ġfar": 6395,
      "Ġà¤ĺà¤°à¥ĩà¤²à¥Ĥ": 6396,
      "Ġà¤¤à¤¿à¤¥à¤¿": 6397,
      "Ġà¤¸à¤¾à¤¹": 6398,
      "Ġtim": 6399,
      "à¥ģà¤Ī": 6400,
      "idence": 6401,
      "à¤ıà¤ĥ": 6402,
      "Ġà¤ıà¤ķà¤®à¤¾à¤¤à¥įà¤°": 6403,
      "ĠCo": 6404,
      "Ġseen": 6405,
      "Ġà¤¨à¤¿à¤¯à¥ģà¤ķà¥įà¤¤": 6406,
      "ium": 6407,
      "Ġtoday": 6408,
      "à¤ķà¥ĭà¤¶": 6409,
      "Ġà¤¦à¥Īà¤¨à¤¿à¤ķ": 6410,
      "Ġà¤ĩà¤°": 6411,
      "Ġgoals": 6412,
      "à¤Ńà¤¾à¤°à¤¤à¥Ģà¤¯": 6413,
      "Ġvyakti": 6414,
      "à¤ķà¥ĩà¤Ł": 6415,
      "Ġà¤ķà¤¾à¤°à¤ķ": 6416,
      "dhi": 6417,
      "uation": 6418,
      "Ġsikh": 6419,
      "Ġà¤¦à¥ĥà¤·à¥įà¤Łà¤¿": 6420,
      "Ġtemper": 6421,
      "-M": 6422,
      "Ġksh": 6423,
      "Ġpositive": 6424,
      "Ġmarketing": 6425,
      "ifornia": 6426,
      "Ġà¤¦à¤µà¤¾à¤ĵà¤Ĥ": 6427,
      "à¤¿à¤¹à¥įà¤¨": 6428,
      "Ġcheck": 6429,
      "\"S": 6430,
      "Ġveb": 6431,
      "Ġaapako": 6432,
      "''": 6433,
      "ĠAnderson": 6434,
      "Ġà¤¸à¥ĩà¤ķ": 6435,
      "akaran": 6436,
      "ĠMon": 6437,
      "Ġà¤ıà¤²à¥įà¤¬": 6438,
      "Ġkharid": 6439,
      "Ġà¤īà¤¡à¤¼à¤¾à¤¨": 6440,
      "ilities": 6441,
      "ĠBro": 6442,
      "à¤°à¥įà¤®à¤¾": 6443,
      "Ġà¤°à¤¾à¤¶": 6444,
      "à¥įà¤ªà¤¾à¤¦": 6445,
      "Ġdal": 6446,
      "order": 6447,
      "Ġproper": 6448,
      "action": 6449,
      "inter": 6450,
      "à¤ĩà¤¸à¤ķà¥ĩ": 6451,
      "Ġpahunch": 6452,
      "à¥Ĥà¤¦à¥Ģ": 6453,
      "Ġmere": 6454,
      "ami": 6455,
      "raz": 6456,
      "1984": 6457,
      "Ġpoints": 6458,
      "Ġà¤ħà¤ªà¤¨": 6459,
      "uble": 6460,
      "Ġà¤¨à¤¿à¤Ĺà¤°à¤¾à¤¨à¥Ģ": 6461,
      "Ġcrit": 6462,
      "Ġà¤¸à¤Ĥà¤ªà¤¤à¥įà¤¤à¤¿": 6463,
      "ww": 6464,
      "asya": 6465,
      "ĠBel": 6466,
      "à¤ľà¤¨à¤¨": 6467,
      "Ġà¤īà¤¤à¥įà¤ķà¥ĥà¤·à¥įà¤Ł": 6468,
      "fort": 6469,
      "Ġà¤ªà¤¾à¤¤à¥įà¤°": 6470,
      "à¤¸à¤¨à¥Ģà¤¯": 6471,
      "adesh": 6472,
      "Com": 6473,
      "How": 6474,
      "Ġtaki": 6475,
      "Ġacha": 6476,
      "ech": 6477,
      "à¤¾à¤µà¤°": 6478,
      "à¥ĩà¤²à¤¨": 6479,
      "Ġà¤¸à¥Īà¤¨à¥įà¤¯": 6480,
      "Ġdat": 6481,
      "à¤¾à¤Ĺà¤¤": 6482,
      "Ġbadh": 6483,
      "Ġà¤ħà¤§à¤¿à¤¨à¤¿à¤¯à¤®": 6484,
      "ource": 6485,
      "Ġà¤¸à¤¬à¥įà¤ľ": 6486,
      "Ġà¤¹à¤¿à¤¸à¥įà¤¸à¥ĭà¤Ĥ": 6487,
      "ĠSan": 6488,
      "Ġà¤¬à¤¨à¤¾à¤ıà¤ģ": 6489,
      "Ġlay": 6490,
      "Ġà¤ªà¥ģà¤°à¤¾à¤¨à¥Ģ": 6491,
      "Ġpahachan": 6492,
      "41": 6493,
      "à¥ĩà¤¸à¥įà¤Ł": 6494,
      "Ġraj": 6495,
      "Ġà¤°à¤¾à¤ľà¤§à¤¾à¤¨à¥Ģ": 6496,
      "à¥Ģà¤²à¥įà¤¡": 6497,
      "Ġvishles": 6498,
      "Ġtrip": 6499,
      "ĠKingdom": 6500,
      "-à¤ľà¤¨à¥įà¤®": 6501,
      "à¤ķà¤¤à¤¾": 6502,
      "Ġhumari": 6503,
      "Le": 6504,
      "à¥Ģà¤®": 6505,
      "Ġà¤¨à¤¾à¤°": 6506,
      "Ġà¤¤à¥ģà¤®": 6507,
      "aking": 6508,
      "à¥ģà¤ħà¤²": 6509,
      "56": 6510,
      "side": 6511,
      "à¤ľà¤¹": 6512,
      "Ġfail": 6513,
      "Ġà¤ĸà¥Ģ": 6514,
      "Ġcommunity": 6515,
      "Ġà¤¸à¤¿à¤«à¤¾à¤°à¤¿à¤¶": 6516,
      "rote": 6517,
      "Ġkoee": 6518,
      "ĠItal": 6519,
      "à¤ľà¥ĭà¤Ĥ": 6520,
      "à¤¾à¤¸à¤¤": 6521,
      "Ġà¤¨à¤µà¥Ģà¤¨": 6522,
      "SS": 6523,
      "Ġà¤īà¤Ĺ": 6524,
      "Ġà¤Ĩà¤ģ": 6525,
      "Ġà¤¦à¤¿à¤ĸà¤¾à¤¯à¤¾": 6526,
      "à¥įà¤°à¤¤à¤¾": 6527,
      "Ġà¤µà¤°": 6528,
      "à¤¦à¤¾à¤°à¥Ģ": 6529,
      "Ġà¤ĸà¤¨": 6530,
      "ĠOlymp": 6531,
      "Ġworking": 6532,
      "ER": 6533,
      "Ġskills": 6534,
      "Ġà¤¸à¥ĩà¤µà¤¨": 6535,
      "Ġà¤ķà¤¿à¤²à¥ĭà¤®à¥Ģà¤Łà¤°": 6536,
      "Ġà¤¡à¤¿à¤ľà¤¿à¤Łà¤²": 6537,
      "Ġà¤¦à¤°à¥įà¤¶à¤¾à¤¤à¤¾": 6538,
      "Ġà¤¬à¥Īà¤łà¤ķ": 6539,
      "elling": 6540,
      "Ġà¤¸à¤Ĥà¤ļà¤¾à¤²à¤¿à¤¤": 6541,
      "Ġinj": 6542,
      "à¥ĩà¤·à¥įà¤ł": 6543,
      "43": 6544,
      "Ġjag": 6545,
      "à¥Īà¤¨à¤²": 6546,
      "mar": 6547,
      "Ġnature": 6548,
      "Ġà¤µà¤¿à¤Ĥ": 6549,
      "Ġà¤ľà¥īà¤°à¥įà¤ľ": 6550,
      "Ġaay": 6551,
      "Ġmdal": 6552,
      "ocr": 6553,
      "portun": 6554,
      "Ġsym": 6555,
      "à¤¨à¥įà¤¯à¤¾à¤¸": 6556,
      "Ġà¤¸à¤¾à¤¬à¤¿à¤¤": 6557,
      "Ġcand": 6558,
      "Ġà¤¤à¤¾à¤°à¥Ģ": 6559,
      "Ġà¤Ĺà¥ĥà¤¹": 6560,
      "Ġà¤µà¤¿à¤Ł": 6561,
      "Ġavail": 6562,
      "-à¤Ĺ": 6563,
      "Ġyoung": 6564,
      "Ġà¤®à¥ģà¤¦à¥įà¤¦à¥ĭà¤Ĥ": 6565,
      "Ġà¤¬à¤¿à¤ķà¥įà¤°à¥Ģ": 6566,
      "Ġlene": 6567,
      "Ġà¤Ĺà¥įà¤°à¤¾à¤®à¥Ģ": 6568,
      "Ġuch": 6569,
      "inam": 6570,
      "Ġà¤ħà¤Ĺà¥įà¤°": 6571,
      "Ġmarried": 6572,
      "Ġà¤Ĩà¤Ĥà¤¦à¥ĭà¤²à¤¨": 6573,
      "à¥°": 6574,
      "Ġsamagri": 6575,
      "Ġà¤¬à¥ĩà¤¸": 6576,
      "ĠRs": 6577,
      "words": 6578,
      "Ġà¤ªà¤¾à¤Ī": 6579,
      "achar": 6580,
      "1979": 6581,
      "Ġà¤®à¤¿à¤²à¤¿à¤¯à¤¨": 6582,
      "Ġbhool": 6583,
      "Ġsouth": 6584,
      "à¥ģà¤°à¤¾": 6585,
      "Ġà¤¸à¥Ĥà¤ķà¥įà¤·à¥įà¤®": 6586,
      "Ġactivities": 6587,
      "Ġà¤ķà¥īà¤®": 6588,
      "Ġà¤ľà¤®à¥Ģà¤¨": 6589,
      "Ġthink": 6590,
      "à¥ĭà¤§à¤¨": 6591,
      "Ġà¤®à¤¨à¥ĭà¤°": 6592,
      "Ġà¤¤à¤¤": 6593,
      "Ġplant": 6594,
      "Ġà¤®à¤¾à¤¨à¤ļà¤¿à¤¤à¥įà¤°": 6595,
      "Ġà¤Ĺà¥įà¤°à¥Ģà¤¨": 6596,
      "Ġmiles": 6597,
      "Ġmeaning": 6598,
      "ris": 6599,
      "Ġà¤ķà¤°à¤¨à¥Ģ": 6600,
      "Ġà¤¸à¥įà¤ªà¥ĩà¤¨": 6601,
      "iting": 6602,
      "ĠCalifornia": 6603,
      "Ġà¤¤à¤¯": 6604,
      "icles": 6605,
      "Ġà¤«à¤¾à¤°": 6606,
      "Ġà¤¦à¥ĭà¤·": 6607,
      "Ġoffice": 6608,
      "ux": 6609,
      "Ġà¤Ĺà¥ĩà¤Ĥà¤¦": 6610,
      "à¥įà¤«à¥ĭà¤Ł": 6611,
      "Ġspecific": 6612,
      "Ġsystems": 6613,
      "alab": 6614,
      "akh": 6615,
      "Ġideas": 6616,
      "ĠWilliam": 6617,
      "Ġà¤īà¤¤à¥įà¤¸à¤°à¥įà¤ľà¤¨": 6618,
      "Ġchanges": 6619,
      "Ġlaks": 6620,
      "yl": 6621,
      "emb": 6622,
      "Ġà¤°à¤¾à¤¸à¤¾à¤¯à¤¨à¤¿à¤ķ": 6623,
      "à¤ªà¥ĥà¤·à¥įà¤ł": 6624,
      "Ġà¤µà¤¿à¤¦à¥ĩà¤¶à¥Ģ": 6625,
      "(num": 6626,
      "ground": 6627,
      "ĠRed": 6628,
      "Ġanimals": 6629,
      "alp": 6630,
      "Ġà¤ıà¤µ": 6631,
      "Ġvol": 6632,
      "Ġroad": 6633,
      "isions": 6634,
      "1985": 6635,
      "ĠChina": 6636,
      "Ġà¤ĩà¤ķà¤¾à¤Ī": 6637,
      "And": 6638,
      "Ġà¤¨à¤¿à¤·": 6639,
      "à¤¾à¤ķà¤°à¤£": 6640,
      "Ġscient": 6641,
      "Ġà¤¶à¥ģà¤ķà¥įà¤°": 6642,
      "à¥įà¤Łà¤¨": 6643,
      "Ġà¤Łà¤¿à¤ķ": 6644,
      "ĠNet": 6645,
      "1981": 6646,
      "Ġleader": 6647,
      "Ġpolitical": 6648,
      "Ġpan": 6649,
      "Ġdescrib": 6650,
      "ched": 6651,
      "Ġà¤¨à¤Ĥà¤¬à¤°": 6652,
      "Ġinte": 6653,
      "Ġdirector": 6654,
      "Ġà¤¬à¤°à¤¾à¤¬": 6655,
      "à¤¿à¤¶à¤¾à¤²à¥Ģ": 6656,
      "Ġà¤¤à¤°à¤²": 6657,
      "Ġà¤¸à¤¤à¥įà¤¯": 6658,
      "Ġà¤ķà¤¨à¤¾à¤¡à¤¾": 6659,
      "-m": 6660,
      "ĠTo": 6661,
      "........": 6662,
      "Ġà¤ľà¤¾à¤ģà¤ļ": 6663,
      "ĠHT": 6664,
      "odel": 6665,
      "Ġkarenge": 6666,
      "ĠAmerica": 6667,
      "Ġkyunki": 6668,
      "Ġà¤¸à¤¿à¤ĸ": 6669,
      "icket": 6670,
      "ridge": 6671,
      "After": 6672,
      "Ġà¤¸à¥ģà¤ªà¤°": 6673,
      "Ġà¤¸à¤Ĥà¤¬à¤Ĥà¤§à¥ĭà¤Ĥ": 6674,
      "overnor": 6675,
      "91": 6676,
      "Ġexpress": 6677,
      "Ġà¤Ĺà¥įà¤°à¤¾à¤®": 6678,
      "ago": 6679,
      "Ġà¤ķà¤¾à¤°à¤ķà¥ĭà¤Ĥ": 6680,
      "cient": 6681,
      "à¥ĩà¤Ĥà¤¡à¤°": 6682,
      "Ġprakriya": 6683,
      "(w": 6684,
      "itr": 6685,
      "hiyon": 6686,
      "Ġà¤¸à¤®à¥Ģà¤ķà¤°à¤£": 6687,
      "Ġà¤ªà¤°à¥Ģà¤ķà¥įà¤·à¤¾": 6688,
      "ĠAdd": 6689,
      "Ġdar": 6690,
      "ĠCongress": 6691,
      "If": 6692,
      "Ã³": 6693,
      "Ġà¤¨à¤¿à¤®à¥įà¤¨": 6694,
      "urt": 6695,
      "ĠHigh": 6696,
      "Ġà¤¡à¤¾à¤ĩ": 6697,
      "Ġaccha": 6698,
      "à¥Ģà¤ľà¤¨": 6699,
      "Ġà¤¸à¤¾à¤°à¥ĩ": 6700,
      "Ġlength": 6701,
      "Ġmeas": 6702,
      "Ġà¤ľà¥Īà¤µà¤¿à¤ķ": 6703,
      "Ġà¤§à¥įà¤µà¤¨à¤¿": 6704,
      "Ġà¤īà¤¨à¥įà¤¨à¤¤": 6705,
      "plement": 6706,
      "ses": 6707,
      "(R": 6708,
      "Â°": 6709,
      "Ġà¤ķà¤°à¥įà¤®à¤ļà¤¾à¤°à¥Ģ": 6710,
      "Ġà¤Ĺà¤¢à¤¼à¤µà¤¾à¤²": 6711,
      "1000": 6712,
      "itary": 6713,
      "Ġlim": 6714,
      "à¤£à¤¿à¤¯à¥ĭà¤Ĥ": 6715,
      "Ġà¤®à¤¹à¤¾à¤°": 6716,
      "ribut": 6717,
      "ittle": 6718,
      "ges": 6719,
      "Ġess": 6720,
      "Ġdirected": 6721,
      "Ġer": 6722,
      "1950": 6723,
      "rian": 6724,
      "pecial": 6725,
      "à¥¦à¥¦": 6726,
      "(à¤¬": 6727,
      "What": 6728,
      "Ġà¤Ĩà¤¶": 6729,
      "Ġlena": 6730,
      "à¤Ńà¤¾à¤Ĺ": 6731,
      "à¥ĩà¤°à¤¾": 6732,
      "à¤¤à¤¾à¤ıà¤Ĥ": 6733,
      "Ġà¤²à¤Ĺà¥ĩ": 6734,
      "plit": 6735,
      "used": 6736,
      "igat": 6737,
      "gg": 6738,
      "à¤¾à¤¦à¥ĩà¤¶": 6739,
      "arshan": 6740,
      "Ġbhasha": 6741,
      "à¥ĭà¤²à¥Ģ": 6742,
      "yog": 6743,
      "Ġprot": 6744,
      "à¥įà¤¯à¥Ĥà¤Ł": 6745,
      "Ġà¤ľà¤Ĥà¤Ĺà¤²": 6746,
      "Ġeffic": 6747,
      "Ġà¤ľà¥ĭà¤¡à¤¼à¤¾": 6748,
      "Ġà¤ħà¤¨à¥ģà¤µà¤¾à¤¦": 6749,
      "hai": 6750,
      "Ġplants": 6751,
      "Ġà¤ªà¥ģà¤¤à¥įà¤°": 6752,
      "à¤ĩà¤¨à¤ªà¥ģà¤Ł": 6753,
      "Ġà¤Ĺà¤¿à¤°à¤¾à¤µà¤Ł": 6754,
      "Ġresults": 6755,
      "Ġà¤ķà¥Ģà¤Ł": 6756,
      "lete": 6757,
      "Ġà¤ĸà¥ĩà¤¤": 6758,
      "Ġà¤¸à¤Ĥà¤¬à¤Ĥà¤§à¥Ģ": 6759,
      "Ġelements": 6760,
      "87": 6761,
      "ĠPhil": 6762,
      "Pl": 6763,
      "Ġà¤ļà¥Ģà¤ľà¤¼": 6764,
      "Ġculture": 6765,
      "à¤¾à¤¢à¤¼": 6766,
      "Ġà¤¬à¤¿à¤¤": 6767,
      "edy": 6768,
      "Ġà¤²à¥ĩà¤¤à¤¾": 6769,
      "-à¤ľà¥Īà¤¸à¥ĩ": 6770,
      "Ġà¤ħà¤°à¥įà¤¥à¤µà¥įà¤¯à¤µà¤¸à¥įà¤¥à¤¾": 6771,
      "Ġà¤¸à¤Ĥà¤Ĺà¥įà¤°": 6772,
      "usion": 6773,
      "ificant": 6774,
      "Ġviv": 6775,
      "ibr": 6776,
      "ais": 6777,
      "Ġà¤¸à¥Ģà¤Ł": 6778,
      "Ġà¤¦à¥Įà¤¡à¤¼": 6779,
      "Ġpotential": 6780,
      "Mujhe": 6781,
      "à¤¦à¤²": 6782,
      "ico": 6783,
      "bon": 6784,
      "iber": 6785,
      "ishy": 6786,
      "Ġà¤Ĳà¤ª": 6787,
      "Ġà¤ķà¤¿à¤¨à¤¾à¤°à¥ĩ": 6788,
      "Ġà¤¶à¤ķà¥įà¤¤à¤¿à¤¶à¤¾à¤²à¥Ģ": 6789,
      "Ġà¤¹à¤¿à¤®": 6790,
      "Ġrepl": 6791,
      "Ġà¤µà¤¿à¤µà¤¾à¤¦": 6792,
      "Ġsvasthy": 6793,
      "à¥īà¤¯": 6794,
      "ened": 6795,
      "Ġà¤ķà¤®à¤ľà¥ĭà¤°": 6796,
      "-w": 6797,
      "Ġà¤¬à¤¿à¤¹à¤¾à¤°": 6798,
      "Ġsamasya": 6799,
      "rd": 6800,
      "Ġà¤ıà¤¥": 6801,
      "Ġà¤ªà¤°à¤¿à¤·à¤¦": 6802,
      "Ġà¤¹à¤¥": 6803,
      "Ġtree": 6804,
      "Ġworked": 6805,
      "append": 6806,
      "Ġà¤ıà¤Ĩà¤Ī": 6807,
      "Ġhere": 6808,
      "Ġseekh": 6809,
      "To": 6810,
      "Ġpun": 6811,
      "Ġuses": 6812,
      "Ġà¤¸à¤°à¥įà¤¦": 6813,
      "Ġdog": 6814,
      "Ġvid": 6815,
      "Ġparts": 6816,
      "Ġaverage": 6817,
      "ump": 6818,
      "ĠAward": 6819,
      "Ġà¤µà¤¿à¤¶à¥ĩà¤·à¤¤à¤¾": 6820,
      "Ġà¤ķà¥įà¤°à¤¿à¤¯à¤¾": 6821,
      "Ġaayega": 6822,
      "itor": 6823,
      "inning": 6824,
      "Ġnav": 6825,
      "])": 6826,
      "à¤ķà¥įà¤·à¤ķ": 6827,
      "Ġà¤ķà¥Īà¤®": 6828,
      "Ġà¤µà¤¿à¤¤à¤°à¤£": 6829,
      "Ġgrahak": 6830,
      "ĠItalian": 6831,
      "not": 6832,
      "ateg": 6833,
      "Ġsns": 6834,
      "Ġà¤ķà¥ĩà¤Ĥà¤¦à¥įà¤°à¥Ģà¤¯": 6835,
      "Ġà¤ªà¥ģà¤¨à¤ĥ": 6836,
      "Ġsongs": 6837,
      "onse": 6838,
      "Ġunki": 6839,
      "Ġopportun": 6840,
      "ĠPark": 6841,
      "ukt": 6842,
      "itz": 6843,
      "Ġà¤ĸà¤¤à¤°à¥ĩ": 6844,
      "Ġvishleshan": 6845,
      "Amer": 6846,
      "ny": 6847,
      "Ġfinal": 6848,
      "Ġà¤¹à¤¾à¤ĩà¤¡à¥įà¤°": 6849,
      "Ġnever": 6850,
      "Ġà¤Īà¤¸": 6851,
      "Ġà¤¸à¤Ĥà¤°à¤ķà¥įà¤·à¤¿à¤¤": 6852,
      "rip": 6853,
      "Ġsignificant": 6854,
      "True": 6855,
      "Ġghat": 6856,
      "Ġdecision": 6857,
      "à¤¬à¥įà¤¬": 6858,
      "1973": 6859,
      "Ġà¤ªà¥įà¤°à¤ľà¤¾à¤¤à¤¿": 6860,
      "Ġwebsite": 6861,
      "Ġhistor": 6862,
      "à¤ķà¥įà¤·à¤£à¤¿à¤ķ": 6863,
      "Ġà¤¨à¤¿à¤°à¥įà¤®à¤¿à¤¤": 6864,
      "Ġà¤ķà¤Ĥà¤ªà¤¨à¤¿à¤¯à¥ĭà¤Ĥ": 6865,
      "aid": 6866,
      "Ġà¤ĳà¤ªà¤°": 6867,
      "Ġwhe": 6868,
      "tt": 6869,
      "Ġà¤ħà¤«à¥įà¤°à¥Ģà¤ķà¥Ģ": 6870,
      "Ġsist": 6871,
      "Ġfinancial": 6872,
      "Ġà¤°à¤¾à¤¹": 6873,
      "ĠChe": 6874,
      "Ġà¤°à¥ĭà¤Ĺà¥Ģ": 6875,
      "Ġaction": 6876,
      "Ġkshamata": 6877,
      "Ġview": 6878,
      "AS": 6879,
      "ering": 6880,
      "Ġà¤²à¤¾à¤ĩà¤¨": 6881,
      "Ġà¤Ĺà¥ĩà¤®": 6882,
      "Ġà¤Łà¥įà¤°à¥Īà¤ķ": 6883,
      "wood": 6884,
      "à¥Īà¤¡": 6885,
      "ĠGener": 6886,
      "Ġtoo": 6887,
      "Ġoffer": 6888,
      "Ġà¤¸à¤Ĥà¤¸à¥įà¤ķà¥ĥà¤¤": 6889,
      "à¤¤à¤ķ": 6890,
      "Ġtreat": 6891,
      "Ġdoc": 6892,
      "Ġà¤ķà¤¿à¤°": 6893,
      "Ġà¤ĸà¤¼": 6894,
      "Ġà¤ħà¤ķà¤¾à¤¦": 6895,
      "Ġincrease": 6896,
      "Ġà¤°à¥ĩà¤²à¤µà¥ĩ": 6897,
      "Ġversion": 6898,
      "Ġà¤¨à¤ķ": 6899,
      "ĠDon": 6900,
      "à¤¾à¤¶à¤¿à¤Ĥà¤Ĺà¤Łà¤¨": 6901,
      "Ġkhana": 6902,
      "aksha": 6903,
      "Ġpast": 6904,
      "Ġà¤ĸà¥ĩ": 6905,
      "Ġà¤ľà¥įà¤µ": 6906,
      "atives": 6907,
      "Ġalgorithm": 6908,
      "(p": 6909,
      "Ġà¤¨à¤¿à¤ļ": 6910,
      "Ġbrand": 6911,
      "Ġhost": 6912,
      "à¤¾à¤ļà¤¨": 6913,
      "Ġà¤ľà¤°à¥įà¤®à¤¨": 6914,
      "Ġà¤ķà¤²à¥įà¤ªà¤¨à¤¾": 6915,
      "Ġwest": 6916,
      "Ġproducts": 6917,
      "Ġà¤¸à¥ĩà¤Ĥ": 6918,
      "Ġelement": 6919,
      "Ġà¤ľà¥ĭà¤¡à¤¼à¤¨à¥ĩ": 6920,
      "Ġannoun": 6921,
      "ham": 6922,
      "à¥ĭà¤¥": 6923,
      "Ġwrote": 6924,
      "ĠAc": 6925,
      "ables": 6926,
      "54": 6927,
      "Ġà¤Ĩà¤¨à¥ģà¤µà¤Ĥà¤¶à¤¿à¤ķ": 6928,
      "(in": 6929,
      "alt": 6930,
      "ils": 6931,
      "ojana": 6932,
      "Ġà¤ķà¤µà¤¿à¤¤à¤¾": 6933,
      "Ġà¤¬à¥Į": 6934,
      "à¤¸à¥įà¤¯à¤¾à¤ĥ": 6935,
      "Ġpehle": 6936,
      "tain": 6937,
      "Ġhold": 6938,
      "Ġbi": 6939,
      "Ġemot": 6940,
      "Ġproblem": 6941,
      "Ġproblems": 6942,
      "Ġà¤Ĩà¤ķà¤¾à¤¶": 6943,
      "à¤¿à¤¸à¥įà¤ªà¤°à¥įà¤§": 6944,
      "ĠBar": 6945,
      "Ġà¤¬à¤ļà¤¾à¤¨à¥ĩ": 6946,
      "Ġmadhyam": 6947,
      "(D": 6948,
      "Ġà¤ĩà¤Ĥà¤ļ": 6949,
      "_num": 6950,
      "Ġmess": 6951,
      "Ġà¤¬à¥įà¤°à¤¿à¤Łà¥ĩà¤¨": 6952,
      "à¤¨à¤¿à¤ķ": 6953,
      "Ġà¤ıà¤²à¥įà¤¬à¤®": 6954,
      "Ġà¤¤à¤¾à¤°à¥Ģà¤ĸ": 6955,
      "hare": 6956,
      "à¥Īà¤®": 6957,
      "Ġsort": 6958,
      "Ġà¤¡à¤¾à¤¯": 6959,
      "Ġà¤¶à¤¹à¤°à¥ĭà¤Ĥ": 6960,
      "Ġà¤¬à¤°à¤¾à¤¬à¤°": 6961,
      "à¤¾à¤µà¤²à¥Ģ": 6962,
      "reek": 6963,
      "Ġcustomers": 6964,
      "Ġreduc": 6965,
      "à¤®à¥ģà¤ĸ": 6966,
      "Ġprice": 6967,
      "Ġfull": 6968,
      "à¤¾à¤¸à¥įà¤Łà¤¿à¤ķ": 6969,
      "Ġà¤¹à¤¾à¤Ī": 6970,
      "Ġdarsh": 6971,
      "Ġà¤¦à¥ģà¤ķà¤¾à¤¨": 6972,
      "ford": 6973,
      "Ġà¤®à¤¿à¤²à¤¨à¥ĩ": 6974,
      "à¤¿à¤¬à¥įà¤¬": 6975,
      "Ġgeneral": 6976,
      "(arr": 6977,
      "Ġur": 6978,
      "Ġà¤¸à¤¾à¤µ": 6979,
      "Ġmother": 6980,
      "rew": 6981,
      "roup": 6982,
      "ĠRec": 6983,
      "Ġà¤ľà¤¾à¤¨à¤¨à¥ĩ": 6984,
      "Ġbalance": 6985,
      "à¤¾à¤¤à¤°": 6986,
      "ĠNY": 6987,
      "alls": 6988,
      "Ġà¤Łà¥ĩà¤¸à¥įà¤Ł": 6989,
      "Ġà¤ľà¤°à¥Ĥà¤°à¤¤": 6990,
      "face": 6991,
      "ĠSchool": 6992,
      "Ġgave": 6993,
      "ĠCor": 6994,
      "Ġprapt": 6995,
      "Ġà¤®à¤¨à¥ĭà¤µ": 6996,
      "raph": 6997,
      "Ġà¤Ĩà¤ķà¤°à¥įà¤·à¤ķ": 6998,
      "uel": 6999,
      "à¤ļà¤²": 7000,
      "ĠGl": 7001,
      "ĠJames": 7002,
      "Ġà¤µà¤¾à¤¹à¤¨": 7003,
      "\"B": 7004,
      "oid": 7005,
      "à¥¯": 7006,
      "Ġà¤¹à¤¦": 7007,
      "Ġà¤ªà¤²": 7008,
      "athan": 7009,
      "Ġà¤¸à¤®à¤Ĺà¥įà¤°": 7010,
      "Ġshak": 7011,
      "Ġsaf": 7012,
      "Ġà¤¸à¥ĭà¤®": 7013,
      "Ġà¤ªà¤°à¤¿à¤ª": 7014,
      "Ġgreen": 7015,
      "Ġà¤¡à¥įà¤°à¤¾à¤ĩ": 7016,
      "à¤§à¥Ģà¤°à¥ĩ": 7017,
      "Ġdone": 7018,
      "Ġgive": 7019,
      "Ġsthit": 7020,
      "Ġà¤¤à¥ĭà¤¡à¤¼": 7021,
      "à¤¾à¤µà¤¨à¥Ģ": 7022,
      "ements": 7023,
      "arden": 7024,
      "Ġà¤ķà¤¾à¤°à¥įà¤¯à¤ķà¥įà¤°à¤®à¥ĭà¤Ĥ": 7025,
      "Ġchalleng": 7026,
      "Ġà¤¤à¤¾à¤°": 7027,
      "Ġran": 7028,
      "Ġà¤ĸà¤¾à¤¨": 7029,
      "Ġà¤¦à¥Ģà¤°à¥įà¤ĺ": 7030,
      "à¤¾à¤Ĥà¤Ĺà¥įà¤²": 7031,
      "Ġjayega": 7032,
      "arget": 7033,
      "Ġlow": 7034,
      "Ġhogi": 7035,
      "Ġsimilar": 7036,
      "Ġkind": 7037,
      "Ġkilled": 7038,
      "à¥įà¤¸à¤¨": 7039,
      "ift": 7040,
      "[\"": 7041,
      "Ġreceived": 7042,
      "AT": 7043,
      "ither": 7044,
      "à¥ĩà¤¶à¤¿à¤¯à¥ĭà¤Ĥ": 7045,
      "Ġmoved": 7046,
      "à¤ķà¥įà¤µ": 7047,
      "Ġtable": 7048,
      "asing": 7049,
      "à¤ĩà¤¡": 7050,
      "Ġà¤ªà¥ĩà¤¶à¥ĩà¤µà¤°": 7051,
      ".append": 7052,
      "Ġà¤¬à¤¤à¤¾à¤¤à¤¾": 7053,
      "Ġmunicip": 7054,
      "ĠMad": 7055,
      "ĠMesa": 7056,
      "Ġà¤ªà¥įà¤°à¤¤à¤¿à¤¬": 7057,
      "Ġinflu": 7058,
      "Ġà¤ªà¤Ĥà¤ļ": 7059,
      "Ġà¤²à¥ĩà¤ĸà¤¨": 7060,
      "Ġà¤ķà¤¿à¤¤à¤¨à¤¾": 7061,
      "Ġmukhy": 7062,
      "Ġaak": 7063,
      "à¤«à¥ĭà¤¨": 7064,
      "Ġà¤§à¥ĭ": 7065,
      "Ġà¤µà¤¿à¤µà¤¿à¤§à¤¤à¤¾": 7066,
      "ycl": 7067,
      "Ġà¤ªà¥Īà¤¸à¥ĩ": 7068,
      "1977": 7069,
      "Ġquick": 7070,
      "Ġà¤µà¤¿à¤¸à¥įà¤«à¥ĭà¤Ł": 7071,
      "JP": 7072,
      "ĠBut": 7073,
      "ĠRaj": 7074,
      "Ġrelax": 7075,
      "Ġbuy": 7076,
      "Ġbuilding": 7077,
      "Ġà¤ıà¤Ĥà¤ľ": 7078,
      "Ġnon": 7079,
      "Ġpras": 7080,
      "Ġà¤ªà¥įà¤°à¤¤à¤¿à¤¸à¥įà¤ªà¤°à¥įà¤§": 7081,
      "duct": 7082,
      "Ġà¤ľà¤°à¥įà¤®à¤¨à¥Ģ": 7083,
      "ĠCour": 7084,
      "Ġasli": 7085,
      "Ġà¤¸à¥įà¤¥à¤¾à¤¯à¥Ģ": 7086,
      "Ġà¤²à¤¿à¤ĸà¤¿à¤¤": 7087,
      "Ġà¤ªà¤ķà¥įà¤·à¥Ģ": 7088,
      "Ġà¤µà¤¿à¤²à¤¿à¤¯à¤®": 7089,
      "Ġà¤ĩà¤Ĥà¤ľà¥Ģà¤¨à¤¿à¤¯à¤°à¤¿à¤Ĥà¤Ĺ": 7090,
      "74": 7091,
      "ances": 7092,
      "Ġà¤īà¤ªà¤¸à¥įà¤¥à¤¿à¤¤à¤¿": 7093,
      "Ġà¤¶à¤¿à¤ķà¥įà¤·à¤ķà¥ĭà¤Ĥ": 7094,
      "Ġking": 7095,
      "\"à¤¹": 7096,
      "Ġsmart": 7097,
      "Ġà¤ħà¤Ĥà¤¡à¥ĩ": 7098,
      "-à¤§à¥Ģà¤°à¥ĩ": 7099,
      "Name": 7100,
      "Ġà¤ħà¤ķà¥ĩ": 7101,
      "à¤ľà¤¬": 7102,
      "Ġrefer": 7103,
      "Ġà¤¬à¤¹à¥ģ": 7104,
      "Ġà¤ķà¤łà¥ĭà¤°": 7105,
      "Ġà¤ħà¤¨à¥ĩà¤ķ": 7106,
      "Ġhuee": 7107,
      "Ġbrother": 7108,
      "Ġà¤¸à¤Ĥà¤¬": 7109,
      "Ġà¤¸à¤®à¥įà¤®à¥ĩà¤²à¤¨": 7110,
      "wo": 7111,
      "Ġà¤ªà¥ĩà¤°": 7112,
      "imal": 7113,
      "Ġà¤§à¤¾à¤°à¤¾": 7114,
      "AR": 7115,
      "à¥ģà¤ĩ": 7116,
      "ĠKe": 7117,
      "Ġà¤ªà¤¤à¥įà¤°à¤¿à¤ķà¤¾": 7118,
      "Ġà¤ĳà¤¸à¥įà¤Łà¥įà¤°à¥ĩà¤²à¤¿à¤¯à¤¾": 7119,
      "nj": 7120,
      "tem": 7121,
      "ĠLou": 7122,
      "estival": 7123,
      "Ġà¤µà¥įà¤¯à¤µà¤¸à¥įà¤¥à¤¿à¤¤": 7124,
      "à¥Ĥà¤ģ": 7125,
      "Ġà¤µà¤¸": 7126,
      "reet": 7127,
      "Ġà¤ĩà¤Ĥ": 7128,
      "ĠCO": 7129,
      "acher": 7130,
      "Ġà¤¸à¤¾à¤®à¥įà¤°": 7131,
      "Ġà¤®à¥Īà¤¨": 7132,
      "adian": 7133,
      "Ġà¤ĸà¥Ģà¤Ĥà¤ļ": 7134,
      "Ġjati": 7135,
      "Ġyat": 7136,
      "Ġexam": 7137,
      "Ġcapt": 7138,
      "Ġnov": 7139,
      "Ġà¤ķà¥įà¤²à¤¬": 7140,
      ".p": 7141,
      "à¤®à¤¹": 7142,
      "Ġà¤¨à¤¸à¥įà¤²": 7143,
      "à¤°à¥įà¤¦à¥ĩà¤¶": 7144,
      "Ġdirect": 7145,
      "à¤ľà¥Ĥ": 7146,
      "ached": 7147,
      "1983": 7148,
      "Ġà¤¨à¤¿à¤µà¤¾à¤¸à¥Ģ": 7149,
      "Ġbox": 7150,
      "Chal": 7151,
      "Ġfem": 7152,
      "ification": 7153,
      "Ġlives": 7154,
      "Ġà¤¢à¥Ĥà¤Ĥ": 7155,
      "Ġà¤¸à¤Ĥà¤¯à¥ĭà¤ľà¤¨": 7156,
      "Ġà¤¹à¥ĩà¤²": 7157,
      "à¤¾à¤ķà¥ĥà¤¤": 7158,
      "à¤«à¤°": 7159,
      "aterial": 7160,
      "Ġmachine": 7161,
      "à¤Łà¤ķ": 7162,
      "Ġà¤Ńà¤µà¤¨": 7163,
      "Ġà¤Ĩà¤īà¤Łà¤ªà¥ģà¤Ł": 7164,
      "hire": 7165,
      "Ġsimple": 7166,
      "ura": 7167,
      "à¥ĥà¤¶à¥įà¤¯": 7168,
      "ĠBo": 7169,
      "Ġperformance": 7170,
      "Ġà¤ªà¥įà¤°à¤¤à¥Ģà¤¤": 7171,
      "Ġà¤īà¤ªà¤Ńà¥ĭà¤ķà¥įà¤¤": 7172,
      "John": 7173,
      "Ġà¤«à¤¸à¤²": 7174,
      "Ġà¤¶à¥Īà¤ķà¥įà¤·à¤£à¤¿à¤ķ": 7175,
      "Ġà¤°à¥ĭà¤¬": 7176,
      "ĠHol": 7177,
      "Ġvi": 7178,
      "à¤¿à¤¶à¥Ģà¤²": 7179,
      "Ġà¤ķà¥įà¤²à¤¿à¤ķ": 7180,
      "à¤²à¥ĭà¤ķà¤¨": 7181,
      "Ġsearch": 7182,
      "1978": 7183,
      "ini": 7184,
      "atform": 7185,
      "aput": 7186,
      "Ġaccount": 7187,
      "Ġà¤ľà¤¾à¤ıà¤ģ": 7188,
      "Ġà¤¶à¥įà¤µ": 7189,
      "à¥įà¤ľà¤¾": 7190,
      "Ġshuroo": 7191,
      "à¤Ļ": 7192,
      "Ġà¤¹à¤¤à¥įà¤¯à¤¾": 7193,
      "Ġjate": 7194,
      "à¤¿à¤ľà¤¨": 7195,
      "ellig": 7196,
      "ughter": 7197,
      "ĠSch": 7198,
      "ĠDep": 7199,
      "Ġplayers": 7200,
      "Ġsuccessful": 7201,
      "ket": 7202,
      "Ġà¤ªà¥įà¤°à¤¾à¤®": 7203,
      "Ġà¤§à¥Ĥà¤®": 7204,
      "à¤¿à¤Ĥà¤¡": 7205,
      "ĠEast": 7206,
      "Ġà¤ĺà¥Ĥà¤®": 7207,
      "ĠInternational": 7208,
      "Ġupakaran": 7209,
      "-à¤Ł": 7210,
      "oes": 7211,
      "Ġà¤ĸà¤¾à¤¨à¤¾": 7212,
      "oyal": 7213,
      "ospital": 7214,
      "Ġà¤ħà¤µà¤§à¤¾à¤°à¤£à¤¾": 7215,
      "Ġvist": 7216,
      "Ġitna": 7217,
      "à¤¾à¤¶à¤¯": 7218,
      "rim": 7219,
      "ops": 7220,
      "ested": 7221,
      "ĠDay": 7222,
      "Ġà¤°à¥īà¤¬": 7223,
      "da": 7224,
      "Ġbase": 7225,
      "agon": 7226,
      "ĠDist": 7227,
      "mon": 7228,
      "Ġà¤¸à¤¤à¥įà¤°": 7229,
      "Ġpers": 7230,
      "Ġstars": 7231,
      "Ġà¤ĺà¤¾à¤¸": 7232,
      "à¤īà¤¸": 7233,
      "Ġhumein": 7234,
      "Ġzindagi": 7235,
      "Ġgroups": 7236,
      "Ġlakshy": 7237,
      "52": 7238,
      "]:": 7239,
      "à¤®à¤Ĥà¤¤à¥įà¤°à¥Ģ": 7240,
      "Ġways": 7241,
      "Ġà¤ľà¤¿à¤¨à¤ķà¤¾": 7242,
      "Ġtarike": 7243,
      "Ġà¤¬à¥ĩà¤Łà¥ĩ": 7244,
      "Ġinternational": 7245,
      "à¥įà¤µà¥Ģà¤Ł": 7246,
      "Ġtaiyar": 7247,
      "ĠPakistan": 7248,
      "Ġkyonki": 7249,
      "ean": 7250,
      "Ġevents": 7251,
      "Ġindepend": 7252,
      "class": 7253,
      "Ġà¤ľà¥ģà¤¡à¤¼à¤¾": 7254,
      "Ġà¤ľà¤¾à¤²à¤ªà¥ĥà¤·à¥įà¤ł": 7255,
      "Ġà¤īà¤ªà¤¨à¥įà¤¯à¤¾à¤¸": 7256,
      "Ġincludes": 7257,
      "à¤¾à¤Ĺà¤°à¥Ĥà¤ķ": 7258,
      "ez": 7259,
      "à¤¿à¤ķà¤¿à¤¯à¥ĭà¤Ĥ": 7260,
      "itation": 7261,
      "à¤®à¥įà¤¬à¤°": 7262,
      "EOS": 7263,
      "Ġà¤¨à¤·à¥įà¤Ł": 7264,
      "Ġarg": 7265,
      "à¤ļà¤¾à¤°à¤¿à¤ķ": 7266,
      "alie": 7267,
      "Ġà¤Ĩà¤Ĥà¤ĸ": 7268,
      "Chalo": 7269,
      "Ġregular": 7270,
      ".f": 7271,
      "Ġà¤¸à¤¿à¤¨": 7272,
      "Ġà¤ªà¥įà¤°à¤ľà¤¨à¤¨": 7273,
      "à¤¡à¥ĩà¤Ł": 7274,
      "ĠAct": 7275,
      "avor": 7276,
      "Ġà¤ķà¥Īà¤ª": 7277,
      "1982": 7278,
      "overed": 7279,
      "Ġà¤ªà¤¤à¥įà¤¥à¤°": 7280,
      "ĠFin": 7281,
      "Ġmultip": 7282,
      "Ġà¤ıà¤¯à¤°": 7283,
      "à¥įà¤·à¤¿à¤ķ": 7284,
      "à¥įà¤ķà¤¾à¤²": 7285,
      "1976": 7286,
      "cription": 7287,
      "Ġà¤°à¤¸à¤¾à¤¯à¤¨": 7288,
      "Ġlove": 7289,
      "Ġà¤ªà¥įà¤°à¤¤à¤¿à¤¯à¥ĭà¤Ĺ": 7290,
      "Ġsecurity": 7291,
      "_p": 7292,
      "Ġà¤¹à¥ĭà¤¨à¥Ģ": 7293,
      "ĠMy": 7294,
      "Ġclean": 7295,
      "Ġà¤ªà¥įà¤°à¤¾à¤®à¤¾à¤£à¤¿à¤ķ": 7296,
      "-à¤¹": 7297,
      "Ġà¤ªà¤Ĥà¤ĸ": 7298,
      "à¤¯à¤¹à¤¾à¤ģ": 7299,
      "Ġdho": 7300,
      "Ġdepartment": 7301,
      "Ġà¤ªà¥īà¤²": 7302,
      "Ġmiss": 7303,
      "Ġà¤°à¤¹à¥ĩà¤Ĥ": 7304,
      "Ġà¤ľà¥įà¤ŀà¤¾à¤¤": 7305,
      "artan": 7306,
      "Ġà¤Ńà¤¾à¤Ĺà¥Ģ": 7307,
      "Ġà¤ļà¤°à¤£à¥ĭà¤Ĥ": 7308,
      "-C": 7309,
      "reg": 7310,
      "à¤¿à¤¨à¥ĭ": 7311,
      "Ġà¤¯à¤¹à¥Ĥà¤¦à¥Ģ": 7312,
      "Ġà¤¶à¤¾à¤Ĥà¤¤à¤¿": 7313,
      "pyoot": 7314,
      "à¤µà¤°à¥įà¤¤à¥Ģ": 7315,
      "Ġà¤¬à¤¤à¤¾à¤¤à¥ĩ": 7316,
      "rama": 7317,
      "vin": 7318,
      "Ġà¤¶à¥ĭ": 7319,
      "ĠMain": 7320,
      "Ġà¤ķà¤¾à¤²à¥ĩ": 7321,
      "Ġà¤®à¤¾à¤²à¤¿à¤ķ": 7322,
      "à¥įà¤¯à¤¾à¤¤": 7323,
      "imum": 7324,
      "Ġà¤ĸà¤¾à¤¡à¤¼à¥Ģ": 7325,
      "à¤¾à¤ªà¤¿à¤¤": 7326,
      "à¤²à¥ĩà¤ķà¤¿à¤¨": 7327,
      "FA": 7328,
      "writ": 7329,
      "Ġà¤Ĺà¥įà¤°à¤Ĥà¤¥": 7330,
      "à¥Īà¤ķà¥įà¤Ł": 7331,
      "Ġtransport": 7332,
      "Ġà¤²à¤¾à¤¨à¥ĩ": 7333,
      "Ġà¤ıà¤¶à¤¿à¤¯à¤¾": 7334,
      "ria": 7335,
      "à¤¿à¤°à¤£": 7336,
      "Ġfur": 7337,
      "Ġclos": 7338,
      "Ġà¤ªà¤°à¥ĩà¤¶à¤¾à¤¨": 7339,
      "à¤ķà¥įà¤²": 7340,
      "istry": 7341,
      "Ġrock": 7342,
      "Ġà¤ªà¥įà¤°à¤¤à¥Ģà¤ķ": 7343,
      "89": 7344,
      "Kya": 7345,
      "ius": 7346,
      "Ġà¤ħà¤Ĥà¤¶": 7347,
      "Ġà¤ľà¤¿à¤¤à¤¨à¤¾": 7348,
      "Ġà¤¦à¥Ĥà¤§": 7349,
      "Ġà¤¢à¥Ĥà¤Ĥà¤¢": 7350,
      "Ġaks": 7351,
      "Ġà¤īà¤Ń": 7352,
      "Ġhaving": 7353,
      "Ġà¤ĸà¤¾à¤¤à¥ĩ": 7354,
      "Ġà¤ªà¥įà¤°à¤¦à¥Ĥà¤·à¤£": 7355,
      "Ġtrack": 7356,
      "à¤µà¤¿à¤§à¤¾à¤¨": 7357,
      "à¤°à¤²à¥Īà¤Ĥà¤¡": 7358,
      "Ġà¤¸à¥įà¤Łà¥įà¤°à¤¿à¤Ĥà¤Ĺ": 7359,
      "ĠNYS": 7360,
      "History": 7361,
      "Ġveg": 7362,
      "Ġrisk": 7363,
      ",mujhe": 7364,
      "Ġcir": 7365,
      "\"à¤¨": 7366,
      "1971": 7367,
      "Ġà¤¨à¤¿à¤¦à¥ĩà¤¶à¤ķ": 7368,
      "Ġà¤®à¤¾à¤Ĥà¤¸à¤ª": 7369,
      "Ġà¤¦à¤¸à¥įà¤¤à¤¾à¤µà¥ĩà¤ľ": 7370,
      "Ġbudget": 7371,
      "Ġcur": 7372,
      "Ġà¤īà¤¨à¤¸à¥ĩ": 7373,
      "berg": 7374,
      "ĠStr": 7375,
      "},": 7376,
      "war": 7377,
      "Ġà¤¹à¥ī": 7378,
      "Ġà¤Ĺà¥įà¤°à¤¾à¤«": 7379,
      "Ġà¤ķà¥Īà¤¥": 7380,
      "ĠQue": 7381,
      "wa": 7382,
      "Ġà¤ķà¥īà¤¨": 7383,
      "Ġtitle": 7384,
      "Ġsize": 7385,
      "td": 7386,
      "Ġà¤µà¤¾à¤¶à¤¿à¤Ĥà¤Ĺà¤Łà¤¨": 7387,
      "Ġà¤ªà¤°à¤¤": 7388,
      "Ġà¤¹à¤®à¤²à¤¾": 7389,
      "Ġjabaki": 7390,
      "à¤¿à¤¸à¥Ģ": 7391,
      "ĠBer": 7392,
      "ĠWith": 7393,
      "Ġsakti": 7394,
      "Ġsoftware": 7395,
      "Ġà¤Ĺà¥įà¤°à¤¾à¤®à¥Ģà¤£": 7396,
      "Ġà¤¸à¥ģà¤²": 7397,
      "à¤²à¥ĩà¤¨": 7398,
      "Ġà¤ªà¥įà¤°à¤¯à¤¾à¤¸à¥ĭà¤Ĥ": 7399,
      "Ġposition": 7400,
      "Ġà¤®à¤Ĥà¤ļ": 7401,
      "iful": 7402,
      "à¤§à¤¾à¤°à¤¿à¤¤": 7403,
      "Ġà¤¬à¤ļà¤¨à¥ĩ": 7404,
      "Ġà¤¸à¤¾à¤®à¥įà¤°à¤¾à¤ľà¥įà¤¯": 7405,
      "has": 7406,
      "Ġà¤Ĺà¥įà¤°à¥ĩ": 7407,
      "Ġà¤®à¥ĭà¤¬à¤¾à¤ĩà¤²": 7408,
      "ivate": 7409,
      "Ġà¤µà¤¿à¤ķà¤²à¥įà¤ªà¥ĭà¤Ĥ": 7410,
      "ae": 7411,
      "rect": 7412,
      "Ġà¤ĩà¤Ĥà¤ľà¤¨": 7413,
      "Ġà¤Ĺà¥ģà¤°à¥ģ": 7414,
      "hest": 7415,
      "Ġlost": 7416,
      "oms": 7417,
      "antic": 7418,
      "ikaran": 7419,
      "Ġà¤ħà¤²à¥įà¤ª": 7420,
      "Ġà¤¨à¤¿à¤¶": 7421,
      "Ġradi": 7422,
      "ashin": 7423,
      "Ġadventure": 7424,
      "Re": 7425,
      "à¥ģà¤£": 7426,
      "ĠMex": 7427,
      "Ġà¤īà¤ªà¤¨": 7428,
      "Ġà¤¨à¤¿à¤°à¥įà¤®à¤¾à¤¤à¤¾": 7429,
      "à¥ĭà¤Ĥà¤Ł": 7430,
      "omb": 7431,
      "à¤¿à¤®à¤¾": 7432,
      "Ġrow": 7433,
      "Ġà¤ļà¤®à¤ķ": 7434,
      "Ġcaused": 7435,
      "Ġà¤ħà¤Ńà¤¿à¤µà¥įà¤¯": 7436,
      "Ġà¤®à¤¾à¤¨à¥įà¤¯à¤¤à¤¾": 7437,
      "Ġà¤¹à¤Łà¤¾": 7438,
      "Ġkahani": 7439,
      "Ġparinam": 7440,
      "ĠSer": 7441,
      "Ġglobal": 7442,
      "Sh": 7443,
      "_f": 7444,
      "Ġà¤ķà¤¾à¤Ĺ": 7445,
      "Ġstates": 7446,
      "Ġà¤ªà¤¹à¤¨": 7447,
      "Ġpark": 7448,
      "à¤ľà¤¼à¥Ģ": 7449,
      "1972": 7450,
      "uff": 7451,
      "atan": 7452,
      "Ġrecogn": 7453,
      "||||||||": 7454,
      "à¤ªà¤°à¥Ģ": 7455,
      "itness": 7456,
      "à¤¹à¥Ģà¤¤": 7457,
      "ĠPaul": 7458,
      "ĠNo": 7459,
      "ails": 7460,
      "Ġà¤ľà¥ĩà¤®à¥įà¤¸": 7461,
      "Ġbaj": 7462,
      "ĠLON": 7463,
      "à¤Ĥà¤¡à¥Ģ": 7464,
      "Ġtraining": 7465,
      "Ġà¤¨à¤¿à¤¦à¤¾à¤¨": 7466,
      "atal": 7467,
      "Ġà¤Ĩà¤²à¥ĭ": 7468,
      "ĠLONEOS": 7469,
      "à¤®à¥įà¤®": 7470,
      "Ġvarn": 7471,
      "Ġà¤ªà¥ĭà¤·à¤£": 7472,
      "ĠDelhi": 7473,
      "Ġjagah": 7474,
      "Ġà¤¬à¤¤à¤¾": 7475,
      "Ġren": 7476,
      "pani": 7477,
      "Ġà¤¬à¥įà¤¯": 7478,
      "ayu": 7479,
      "à¤¾à¤Ĥà¤¤à¥įà¤°": 7480,
      "ĠTur": 7481,
      "ustain": 7482,
      "Ġrelig": 7483,
      "Ġgoing": 7484,
      "à¥ĭà¤²à¥īà¤ľà¥Ģ": 7485,
      "Ġavailable": 7486,
      "ander": 7487,
      "Ġacross": 7488,
      "volution": 7489,
      "Ġrng": 7490,
      "à¤¢à¤¼à¥Ģ": 7491,
      "1975": 7492,
      "Ġà¤¨à¤¿à¤¯à¤®à¥ĭà¤Ĥ": 7493,
      ".d": 7494,
      "Ġcertain": 7495,
      "Ġà¤ļà¤¿à¤¹à¥įà¤¨": 7496,
      "Ġà¤°à¥ģà¤ªà¤¯à¥ĩ": 7497,
      "Ġà¤µà¤¾à¤¯à¥ģà¤®": 7498,
      "Ġà¤¤à¥Ĥà¤«à¤¾à¤¨": 7499,
      "Ġà¤ªà¥įà¤°à¥ĩà¤¸": 7500,
      "à¥įà¤µà¤¿à¤¤à¥Ģà¤¯": 7501,
      "ĠEarth": 7502,
      "Ġà¤¦à¥ĩà¤ĸà¤¨à¤¾": 7503,
      "Ġoutput": 7504,
      "Ġà¤Ĩà¤¦à¤°à¥įà¤¶": 7505,
      "bilkul": 7506,
      "Ġfresh": 7507,
      "Ġà¤Ĺà¤¯à¥Ģ": 7508,
      "Ġà¤¸à¥įà¤Łà¤¾à¤°": 7509,
      "At": 7510,
      "à¤¨à¥įà¤§": 7511,
      "Ġprakar": 7512,
      "Ġà¤Ľà¤¿à¤ª": 7513,
      "à¤ĺà¤°": 7514,
      "Ġcomplex": 7515,
      "Ġà¤ķà¥ĭà¤¶à¤¿à¤ķà¤¾": 7516,
      "obert": 7517,
      "à¤īà¤¦à¤¾à¤¹à¤°à¤£": 7518,
      "American": 7519,
      "Ġà¤®à¥ĭà¤¹": 7520,
      "Ġà¤¸à¥įà¤¥à¤¾à¤¨à¤¾à¤Ĥà¤¤à¤°à¤¿à¤¤": 7521,
      "Ġmove": 7522,
      "à¥ĭà¤·à¤£": 7523,
      "Ġà¤¤à¥Īà¤¯à¤¾à¤°à¥Ģ": 7524,
      "aring": 7525,
      "à¤ļà¥įà¤Ľà¤¿à¤ķ": 7526,
      "Ġà¤ªà¥įà¤°à¤ķà¥įà¤°à¤¿à¤¯à¤¾à¤ĵà¤Ĥ": 7527,
      "à¤¾à¤Ĥà¤¸à¥Ģà¤¸à¥Ģ": 7528,
      "à¤¾à¤ĩà¤¸": 7529,
      "Ġserved": 7530,
      "Ġà¤ľà¤¾à¤ªà¤¾à¤¨": 7531,
      "51": 7532,
      "Ġà¤¸à¤°à¥įà¤µà¥ĭ": 7533,
      "Ġà¤¦à¥ĭà¤¸à¥įà¤¤à¥ĭà¤Ĥ": 7534,
      "62": 7535,
      "Ġà¤ľà¤¾à¤Ĺà¤°à¥Ĥà¤ķ": 7536,
      "Ġpal": 7537,
      "Ġusake": 7538,
      "à¤ķà¥įà¤°à¤¾à¤®à¤ķ": 7539,
      "Ġà¤¤à¥Ģà¤µ": 7540,
      "Ġà¤Łà¥įà¤µà¥Ģà¤Ł": 7541,
      "Ġnikal": 7542,
      "ĠRepublic": 7543,
      "aij": 7544,
      "à¤Łà¤®": 7545,
      "Ġfight": 7546,
      "Ġà¤¤à¥įà¤°à¥ģà¤Ł": 7547,
      "73": 7548,
      "à¤°à¤¾à¤·à¥įà¤Łà¥įà¤°à¥Ģà¤¯": 7549,
      "Ġwhite": 7550,
      "Ġà¤²à¤ķà¥įà¤·à¤£à¥ĭà¤Ĥ": 7551,
      "akshit": 7552,
      "Ġgan": 7553,
      "Ġsha": 7554,
      "Ġà¤ķà¤¿à¤¤à¤¨à¥Ģ": 7555,
      "Ġassist": 7556,
      "Ġà¤¸à¤¿à¤ķ": 7557,
      "Ġcomes": 7558,
      "Ġvalues": 7559,
      "Ġà¤¨à¤¦": 7560,
      "panish": 7561,
      "Ġhealthy": 7562,
      "Ġriver": 7563,
      "à¤ĳà¤ķà¥įà¤¸à¤¾à¤ĩà¤¡": 7564,
      "à¤¯à¤¨à¥ĭà¤Ĥ": 7565,
      "Ġquality": 7566,
      "Ġà¤ĺà¤¨": 7567,
      "Ġà¤Īà¤®à¥ĩà¤²": 7568,
      "ything": 7569,
      "Ġà¤¸à¥įà¤®à¤¾à¤°à¥įà¤Ł": 7570,
      "Ġgold": 7571,
      "ikt": 7572,
      "hara": 7573,
      "Ġfeet": 7574,
      "Ġà¤ªà¤¢à¤¼à¥ĩà¤Ĥ": 7575,
      "à¥įà¤°à¥ĭ": 7576,
      "Ġà¤ľà¤®à¤¾": 7577,
      "Ġmight": 7578,
      "Ġà¤ķà¤ªà¤¡à¤¼à¥ĩ": 7579,
      "ĠCanada": 7580,
      "Ġdeterm": 7581,
      "-à¤ªà¤¶à¥įà¤ļà¤¿à¤®": 7582,
      "1930": 7583,
      "Ġkarti": 7584,
      "Ġà¤®à¤¾à¤¨à¤¤à¥ĩ": 7585,
      "ords": 7586,
      "Ġà¤ıà¤¸à¤¿à¤¡": 7587,
      "Ġà¤Ńà¤µà¤¿à¤·à¥įà¤¯à¤µà¤¾à¤£à¥Ģ": 7588,
      "61": 7589,
      "adar": 7590,
      "Ġà¤īà¤¦à¥įà¤§": 7591,
      "à¤¤à¥įà¤¤à¥Ģà¤¸": 7592,
      "ensus": 7593,
      "vasay": 7594,
      "Ġfire": 7595,
      "---": 7596,
      "à¤ķà¥įà¤°à¤®à¤¿à¤¤": 7597,
      "kil": 7598,
      "Ġsi": 7599,
      "Ġang": 7600,
      "Ġthr": 7601,
      "ĠQu": 7602,
      "Ġà¤¸à¤Ĥà¤ĸà¥įà¤¯à¤¾à¤ĵà¤Ĥ": 7603,
      "men": 7604,
      "à¤ķà¤¾à¤¶": 7605,
      "Ġà¤ķà¤¾à¤°à¤£à¥ĭà¤Ĥ": 7606,
      "à¤¾à¤īà¤¡": 7607,
      "ĠSo": 7608,
      "Ġcomplet": 7609,
      "Ġphr": 7610,
      "Ġcounty": 7611,
      "Ġpublished": 7612,
      "à¤¸à¤®à¤¸à¥įà¤¯à¤¾à¤ĥ": 7613,
      "Ġà¤ķà¥ģà¤¤à¥įà¤¤à¥ĩ": 7614,
      "Ġà¤¸à¤Ĥà¤ķ": 7615,
      "ĠIts": 7616,
      "Ġà¤®à¤¿à¤¶à¥įà¤°à¤£": 7617,
      "Ġà¤²à¤Ĥà¤¦à¤¨": 7618,
      "Ġfac": 7619,
      "Ġà¤¹à¤®à¤¾à¤°à¤¾": 7620,
      "Ġitems": 7621,
      "Ġà¤§à¤¨à¥įà¤¯": 7622,
      "Ġgenerate": 7623,
      "à¤ªà¤¾à¤¨": 7624,
      "Ġà¤Ĩà¤ĸ": 7625,
      "Ġà¤ªà¥įà¤°à¤¿à¤Ĥà¤Ł": 7626,
      "ounc": 7627,
      "orthern": 7628,
      "à¤ĩà¤¸à¤ķà¤¾": 7629,
      "-à¤Ĩà¤§à¤¾à¤°à¤¿à¤¤": 7630,
      "Ġà¤ĺà¤¾à¤Łà¥Ģ": 7631,
      "Ġblack": 7632,
      "Ġà¤¬à¥ĩà¤ļ": 7633,
      "Ġpredict": 7634,
      "Ġwalk": 7635,
      "à¤ľà¥ĩ": 7636,
      "à¤¸à¥ĩà¤Ł": 7637,
      "Ġexperi": 7638,
      "icular": 7639,
      "Ġà¤ĳà¤Ł": 7640,
      "ario": 7641,
      "Ġà¤®à¤¨à¥ģà¤·à¥įà¤¯à¥ĭà¤Ĥ": 7642,
      "Ġà¤ķà¤ļ": 7643,
      "Ġsnbndhit": 7644,
      "Ġà¤«à¥ĩà¤Ĥ": 7645,
      "ĠNot": 7646,
      "anti": 7647,
      "Ġmaterial": 7648,
      "Ġwind": 7649,
      "1974": 7650,
      "Ġà¤®à¥Īà¤ķà¥įà¤¸": 7651,
      "Ġà¤Ńà¤¾à¤·à¤¾à¤ĵà¤Ĥ": 7652,
      "Ġà¤µà¤¿à¤Łà¤¾à¤®à¤¿à¤¨": 7653,
      "Ġà¤²à¤¾": 7654,
      "ington": 7655,
      "ĠMor": 7656,
      "Ġsamud": 7657,
      "Ġpair": 7658,
      "Ġà¤µà¤¾à¤°à¥įà¤·à¤¿à¤ķ": 7659,
      "kr": 7660,
      "à¤¦à¤Ĥà¤¡": 7661,
      "Ġlot": 7662,
      "Ġstay": 7663,
      "Ġà¤Ĺà¥ģà¤¨à¤¾": 7664,
      "Ġà¤ĭà¤£": 7665,
      "ili": 7666,
      "Ġà¤ħà¤µà¤²à¥ĭà¤ķà¤¨": 7667,
      "Ġchhoti": 7668,
      "Ġdikh": 7669,
      "vious": 7670,
      "Ġà¤ķà¤°à¥ĩà¤Ĺà¥Ģ": 7671,
      "Ġà¤ļà¥ģà¤¨à¥ĩà¤Ĥ": 7672,
      "hatar": 7673,
      "Ġà¤ĸà¤°à¥Ģà¤¦à¤¨à¥ĩ": 7674,
      "Ġfru": 7675,
      "Ġà¤ķà¤¹à¤¤à¤¾": 7676,
      "Ġdigital": 7677,
      "mi": 7678,
      "Ġà¤ĩà¤¤à¤¿": 7679,
      "Ġà¤ªà¤¹à¥ģà¤Ĥà¤ļà¤¨à¥ĩ": 7680,
      "iles": 7681,
      "istic": 7682,
      "Ġà¤²à¥ĩà¤¨": 7683,
      "à¤¿à¤µà¥ĩà¤¶": 7684,
      "Ġpromot": 7685,
      "Ġled": 7686,
      "à¤¾à¤¤à¥į": 7687,
      "ĠPort": 7688,
      "kshan": 7689,
      "Ġà¤²à¤Ĥà¤¬à¤¾": 7690,
      "Ġà¤ªà¤°à¥įà¤¯à¤¾à¤µà¤°à¤£à¥Ģà¤¯": 7691,
      "Ġà¤®à¤¹à¤¾à¤¸à¤¾à¤Ĺà¤°": 7692,
      "(i": 7693,
      "go": 7694,
      "à¥Īà¤ķà¥įà¤¸": 7695,
      "aries": 7696,
      "Ġà¤¸à¤®à¤¿à¤¤à¤¿": 7697,
      "Ġjana": 7698,
      "Ġmush": 7699,
      "Ġà¤¶à¥ģà¤°à¥ģà¤Ĩà¤¤à¥Ģ": 7700,
      "Ġà¤¸à¤®à¥įà¤®à¤¾à¤¨à¤¿à¤¤": 7701,
      "Ġà¤®à¤¨à¥ģà¤·à¥įà¤¯": 7702,
      "Ġà¤°à¤¾à¤¶à¤¿": 7703,
      "59": 7704,
      "Ġà¤¬à¤¯à¤¾à¤¨": 7705,
      "à¤¾à¤ĩà¤ľ": 7706,
      "Ġplays": 7707,
      "à¤®à¤¾à¤°à¥įà¤Ĺ": 7708,
      "Ġnetwork": 7709,
      "Ġà¤®à¤¹à¤¾à¤®": 7710,
      "Ġà¤µà¤¿à¤§à¤¾à¤¯à¤ķ": 7711,
      "Ġà¤®à¤¾à¤°à¥įà¤Ĺà¤¦à¤°à¥įà¤¶": 7712,
      "Ġoriginal": 7713,
      "ĠDes": 7714,
      "ledge": 7715,
      "à¥įà¤Ńà¥ģà¤¤": 7716,
      "ĠColle": 7717,
      "Ġà¤ħà¤ķà¤¾à¤¦à¤®à¥Ģ": 7718,
      "Ġsistam": 7719,
      "71": 7720,
      "Ġà¤ľà¥ģà¤¡à¤¼à¥Ģ": 7721,
      "Ġà¤ĸà¤¤à¤°à¤¨à¤¾à¤ķ": 7722,
      "Ġchi": 7723,
      "Ġmind": 7724,
      "Ġà¤Ĺà¤¹à¤°à¤¾à¤Ī": 7725,
      "ume": 7726,
      "Ġà¤ľà¥ĩà¤²": 7727,
      "Ġà¤ªà¥įà¤°à¤Ń": 7728,
      "ĠMal": 7729,
      "Ġrakhane": 7730,
      "Ġà¤ļà¥Ģà¤ľà¥ĩà¤Ĥ": 7731,
      "ficult": 7732,
      "à¤¿à¤¤à¥įà¤¤": 7733,
      "à¤¸à¤¾à¤¯à¤¿à¤ķ": 7734,
      "Ġà¤ļà¥ģà¤ķà¥ĩ": 7735,
      "sis": 7736,
      "arl": 7737,
      "asons": 7738,
      "ĠSen": 7739,
      "Ġà¤ĩà¤¸à¥įà¤²": 7740,
      "Ġinf": 7741,
      "Ġà¤ªà¥įà¤°à¤¤à¤¿à¤·à¥įà¤ł": 7742,
      "Ġà¤ħà¤¸à¤¾à¤®à¤¾à¤¨à¥įà¤¯": 7743,
      "à¤ľà¥įà¤ŀà¤¾à¤¤": 7744,
      "à¥ĭà¤¨à¥Ģ": 7745,
      "Ġà¤°à¤ļà¤¨à¤¾à¤¤à¥įà¤®à¤ķ": 7746,
      "Ġà¤ªà¤°à¤Ĥà¤ª": 7747,
      "Ġpoll": 7748,
      "(à¤īà¤¤à¥įà¤¤à¤°": 7749,
      "à¥ģà¤ªà¥įà¤¤": 7750,
      "à¤Łà¥įà¤ł": 7751,
      "hael": 7752,
      "Ġà¤µà¤¿à¤§à¤¾à¤¨à¤¸à¤Ńà¤¾": 7753,
      "à¤¶à¤¨à¤²": 7754,
      "à¤°à¥įà¤®à¤¾à¤£": 7755,
      "Ġspeed": 7756,
      "Ġelection": 7757,
      "Ġsomething": 7758,
      "Ġà¤¸à¤¾à¤§à¤¨": 7759,
      "à¤ľà¥Ĥà¤¦à¤¾": 7760,
      "ĠVir": 7761,
      "Ġà¤¸à¤Ĥà¤Ĺà¥įà¤°à¤¹à¥Ģà¤¤": 7762,
      "anta": 7763,
      "ĠSwed": 7764,
      "Ġà¤ªà¤ķà¤¡à¤¼à¤¨à¥ĩ": 7765,
      "Ġà¤§à¤¾à¤¤à¥ģ": 7766,
      ".m": 7767,
      "yr": 7768,
      "ashi": 7769,
      "Ġà¤ªà¥įà¤°à¤¤à¤¿à¤°à¥ĭà¤§": 7770,
      "-à¤Ń": 7771,
      "Ġsold": 7772,
      "Ġbag": 7773,
      "Ġcho": 7774,
      "ĠRussian": 7775,
      "pose": 7776,
      "QL": 7777,
      "off": 7778,
      "à¤Ĳ": 7779,
      "à¤¿à¤¯à¤¤": 7780,
      "à¥īà¤°à¥įà¤Ł": 7781,
      "value": 7782,
      "Ġeasy": 7783,
      "Ġwaq": 7784,
      "Ġà¤¬à¤¾à¤Ĥ": 7785,
      "Ġdena": 7786,
      "Ġmanage": 7787,
      "(t": 7788,
      "atar": 7789,
      "Ġà¤ĩà¤¸à¤¨à¥ĩ": 7790,
      "Ġà¤ķà¤¾à¤¨à¥Ĥà¤¨à¥Ģ": 7791,
      "Ġà¤µà¤¹à¥Ģà¤Ĥ": 7792,
      "Ġmanav": 7793,
      "ĠArt": 7794,
      "aign": 7795,
      "ĠSim": 7796,
      "Ġkary": 7797,
      "Ġpeace": 7798,
      "Ġphone": 7799,
      "ply": 7800,
      "à¤¤à¥Ĥ": 7801,
      "Ġkarega": 7802,
      "Ph": 7803,
      "Ġà¤ķà¤¿à¤®à¥Ģ": 7804,
      "à¤Ĥà¤ķà¤¾": 7805,
      "Ġà¤ħà¤¥": 7806,
      "Ġà¤¨à¤¾à¤¸à¤¾": 7807,
      "Ġà¤ħà¤ªà¥ĩà¤ķà¥įà¤·": 7808,
      "à¥Īà¤Ĥà¤ª": 7809,
      "\"M": 7810,
      "Ġà¤¸à¥ģà¤ĸ": 7811,
      "à¤µà¥ģà¤¡": 7812,
      "Ġà¤¤à¥ģ": 7813,
      "à¤¾à¤µà¤¸à¥įà¤¥à¤¾": 7814,
      "uments": 7815,
      "Ġà¤ķà¤®à¤°à¥ĩ": 7816,
      "Ġà¤°à¥ĭà¤¬à¥ĭà¤Ł": 7817,
      "600": 7818,
      "ising": 7819,
      "Ġdate": 7820,
      "Ġà¤«à¤¿à¤Ł": 7821,
      "Ġà¤¸à¥įà¤ķà¥Ĥà¤²à¥ĭà¤Ĥ": 7822,
      "Ġà¤®à¤¿à¤²à¥ĩ": 7823,
      "à¤°à¤¿à¤¤": 7824,
      "asait": 7825,
      "Ġà¤ħà¤¸à¤®": 7826,
      "aily": 7827,
      "Ġà¤ªà¥įà¤°à¤¶à¥įà¤¨à¥ĭà¤Ĥ": 7828,
      "Ġsugg": 7829,
      "adu": 7830,
      "Ġgat": 7831,
      "Ġdonon": 7832,
      "_data": 7833,
      "Ġà¤¬à¤¾à¤ķà¥Ģ": 7834,
      "à¤¾à¤ķà¥Ĥ": 7835,
      "à¥ģà¤²à¥įà¤ķ": 7836,
      "minist": 7837,
      "Ġà¤Ĩà¤°à¥įà¤ķ": 7838,
      "Ġreview": 7839,
      "Ġà¤ªà¤°à¤¿à¤Ńà¤¾à¤·à¤¾": 7840,
      "69": 7841,
      "Ġtrend": 7842,
      "-à¤¸à¤®": 7843,
      "79": 7844,
      "Ġà¤ħà¤¶": 7845,
      "Ġà¤¬à¤ļà¥įà¤ļà¤¾": 7846,
      "Ġparticip": 7847,
      "Ġdete": 7848,
      "Ġdiscuss": 7849,
      "Ġà¤¤à¤Ĥà¤¤à¥įà¤°à¤¿à¤ķà¤¾": 7850,
      "Ġà¤°à¤¾à¤¸à¥įà¤¤à¥ĩ": 7851,
      "aram": 7852,
      "Ġà¤¬à¤¾à¤Ĺ": 7853,
      "Ġmag": 7854,
      "Ġarth": 7855,
      "Ġplaces": 7856,
      "à¥ĭà¤²à¥įà¤¡": 7857,
      "Ġà¤®à¤§à¥įà¤¯à¤®": 7858,
      "vid": 7859,
      "|}": 7860,
      "Ġdifficult": 7861,
      "BC": 7862,
      "Ġpati": 7863,
      "Ġà¤ļà¥Įà¤¥": 7864,
      "Ġvivaran": 7865,
      "bal": 7866,
      "Ġlate": 7867,
      "Ġà¤¬à¤¾à¤°à¤¿à¤¶": 7868,
      "ĠOut": 7869,
      "Ġneg": 7870,
      "\"s": 7871,
      "Here": 7872,
      "Ġà¤°à¤¨": 7873,
      "ayal": 7874,
      "ips": 7875,
      "Ġstatement": 7876,
      "Ġchhote": 7877,
      "Ġnirn": 7878,
      "ĠEuropean": 7879,
      "Ġà¤¸à¤®à¤°à¥įà¤ª": 7880,
      "Ġudaharan": 7881,
      "Ġlikhen": 7882,
      "800": 7883,
      "ĠÃ": 7884,
      "asth": 7885,
      "Ġà¤Ńà¤²à¥ĩ": 7886,
      "à¤«à¥Ģ": 7887,
      "Ġcancer": 7888,
      "Ġà¤ľà¥įà¤¯à¤¾à¤¦à¤¾à¤¤à¤°": 7889,
      "Ġelectric": 7890,
      "à¥įà¤ļà¤°": 7891,
      "à¥įà¤Łà¥Ģà¤°à¤¿à¤¯à¤¾": 7892,
      "Ġsometimes": 7893,
      "\"C": 7894,
      "ushal": 7895,
      "Ġrob": 7896,
      "Ġà¤ĩà¤²à¤¾à¤ķ": 7897,
      "Ġà¤ħà¤ķà¥įà¤·à¤°": 7898,
      "Ġà¤®à¤§à¥ģà¤®à¥ĩà¤¹": 7899,
      "'m": 7900,
      "Ġfish": 7901,
      "Ġà¤¦à¥ĭà¤¹à¤°": 7902,
      "à¥ĩà¤¹à¤°à¥ĩ": 7903,
      "1969": 7904,
      "à¤ªà¥ģ": 7905,
      "Ġà¤Łà¥Ģà¤µà¥Ģ": 7906,
      "Ġà¤¸à¤¾à¤¥à¥Ģ": 7907,
      "Ġdijain": 7908,
      ".get": 7909,
      "Ġaudi": 7910,
      "Ġà¤¨à¤ľà¤°": 7911,
      "Ġà¤ķà¥Ģà¤ľà¤¿à¤ı": 7912,
      "Ġà¤ĩà¤®": 7913,
      "à¤Ĩà¤īà¤Łà¤ªà¥ģà¤Ł": 7914,
      "Ġrahega": 7915,
      "Ġshows": 7916,
      "Ġà¤Ĭà¤Ĥà¤ļà¤¾à¤Ī": 7917,
      "Ġà¤ľà¤Ĥà¤Ĺà¤²à¥Ģ": 7918,
      "ites": 7919,
      "à¤¸à¥įà¤¤à¤°": 7920,
      "Ġà¤ªà¥įà¤°à¤ķà¤¾à¤¶à¤¨": 7921,
      "Ġà¤Ĺà¤łà¤¨": 7922,
      "roll": 7923,
      "Ġplatform": 7924,
      "53": 7925,
      "à¤°à¥Ģà¤¨": 7926,
      "Ġbehav": 7927,
      "Ġà¤®à¥ĩà¤¨": 7928,
      "à¤°à¥įà¤®à¥Ģ": 7929,
      "Ġassoci": 7930,
      "Ġà¤¬à¥ĩà¤Łà¥Ģ": 7931,
      "Ġà¤ļà¤¿à¤ķà¤¿à¤¤à¥įà¤¸à¤ķ": 7932,
      "ams": 7933,
      "Ġà¤°à¤¹à¤¨à¤¾": 7934,
      "Ġà¤µà¤°à¥įà¤·à¤¾": 7935,
      "à¤¦à¥ĭ": 7936,
      "Ġdaur": 7937,
      "ĠMount": 7938,
      "Ġabove": 7939,
      "Ġcompan": 7940,
      "Ġà¤ªà¥įà¤²à¤¾à¤¸à¥įà¤Łà¤¿à¤ķ": 7941,
      "most": 7942,
      "Ġusers": 7943,
      "Ġà¤ĩà¤¤à¤¨à¥Ģ": 7944,
      "Ġplanning": 7945,
      "Ġà¤ªà¤¾à¤°à¤¿à¤¸à¥įà¤¥à¤¿à¤¤à¤¿à¤ķà¥Ģ": 7946,
      "Ġà¤¹à¤¥à¤¿à¤¯": 7947,
      "Ġwaqt": 7948,
      "Ġwarm": 7949,
      "Ġlower": 7950,
      "ahit": 7951,
      "Ġà¤Łà¤¾à¤ĩà¤®": 7952,
      "Ġplaying": 7953,
      "Ġà¤ħà¤¦à¥įà¤Ńà¥ģà¤¤": 7954,
      "Ġà¤®à¤ľà¤¬à¥Ĥà¤°": 7955,
      "Ġfarm": 7956,
      "Ġreach": 7957,
      "ĠDem": 7958,
      "Ġà¤Ĺà¥ģà¤ªà¥įà¤¤": 7959,
      "Ġà¤ªà¥ģà¤·à¥įà¤Łà¤¿": 7960,
      "Ġcases": 7961,
      "Ġà¤¤à¤®": 7962,
      "à¤¾à¤¯à¥ĩ": 7963,
      "Ġrain": 7964,
      "Ġà¤ħà¤§à¥įà¤¯à¤¯à¤¨à¥ĭà¤Ĥ": 7965,
      "des": 7966,
      "Ġà¤ıà¤ľà¥ĩà¤Ĥà¤¸à¥Ģ": 7967,
      "Ġà¤µà¤¨à¥įà¤¯": 7968,
      "Ġà¤®à¤¿à¤²à¤ķà¤°": 7969,
      "inese": 7970,
      "Ġà¤ªà¤°à¤¿à¤ļà¤¯": 7971,
      "Ġà¤ķà¤¨à¥ĩà¤ķ": 7972,
      "Ġinn": 7973,
      "1967": 7974,
      "board": 7975,
      "à¥ħ": 7976,
      "aker": 7977,
      "ĠHam": 7978,
      "à¥įà¤°à¥ĩà¤®": 7979,
      "-à¤Ķà¤°": 7980,
      "Ġà¤®à¥ĩà¤¹": 7981,
      "ĠRo": 7982,
      "ello": 7983,
      "Ġà¤ĸà¥ģà¤¶à¥Ģ": 7984,
      "Ġà¤¸à¤Ĥà¤¬à¥ĭà¤§à¤¿à¤¤": 7985,
      "?\"": 7986,
      "Ġfund": 7987,
      "à¤ĸà¤Ĥà¤¡": 7988,
      "Ġà¤®à¥ĩà¤Ł": 7989,
      "à¤¾à¤¨à¤ķ": 7990,
      "rel": 7991,
      "Ġà¤®à¥Ĥà¤²à¥įà¤¯à¥ĭà¤Ĥ": 7992,
      "1940": 7993,
      "Ġà¤Łà¥ĩà¤ķà¥įà¤¸à¤¾à¤¸": 7994,
      "ĠTV": 7995,
      "Ġà¤Ĩà¤µà¤¾à¤ľ": 7996,
      "Ġà¤ªà¥įà¤°à¥ĩ": 7997,
      "avat": 7998,
      "Ġà¤ķà¤¹à¤¾à¤¨": 7999,
      "They": 8000,
      "Ġà¤®à¥ģà¤¦à¥įà¤°": 8001,
      ",\"": 8002,
      "Ġà¤¨à¤¾à¤ĩà¤Ł": 8003,
      "Ġà¤ĺà¤Łà¤ķ": 8004,
      "_l": 8005,
      "orks": 8006,
      "Ġà¤²à¥ĭ": 8007,
      "Ġà¤®à¥Įà¤ľà¥Ĥà¤¦à¤¾": 8008,
      "Ġpolic": 8009,
      "Ġà¤«à¥įà¤²à¥ĭà¤°": 8010,
      "Ġvillage": 8011,
      "elligence": 8012,
      "Ġclimate": 8013,
      "araf": 8014,
      "ĠCanadian": 8015,
      "Ġshopping": 8016,
      "à¥Ģà¤¦à¤¾": 8017,
      "Ġtin": 8018,
      "otal": 8019,
      "Ġclear": 8020,
      "Ġà¤°à¤£à¤¨à¥Ģà¤¤à¤¿": 8021,
      "Ġtemperature": 8022,
      "Ġà¤§à¤¨à¥įà¤¯à¤µà¤¾à¤¦": 8023,
      "(a": 8024,
      "Ġà¤¡à¥ĩà¤µà¤¿à¤¡": 8025,
      "Ġà¤ĸà¤Ĺà¥ĭà¤²": 8026,
      "Ġà¤Ľà¤¤à¥įà¤¤à¥Ģà¤¸": 8027,
      "ayad": 8028,
      "Ġà¤ļà¤¾à¤¹à¥ĩ": 8029,
      "-al": 8030,
      "VID": 8031,
      "à¤¹à¤¸": 8032,
      "Ġdeg": 8033,
      "Ġcomfort": 8034,
      "Ġunka": 8035,
      "Ġà¤¤à¤¤à¥įà¤ķà¤¾à¤²": 8036,
      "à¤ķà¥ĥ": 8037,
      "Ġà¤®à¤Ĥà¤ľ": 8038,
      "ĠSum": 8039,
      "Ġleast": 8040,
      "à¤¿à¤ľà¥įà¤¯": 8041,
      "à¤¶à¥įà¤°à¥ĩà¤·à¥įà¤ł": 8042,
      "Ġà¤¬à¥Ĥ": 8043,
      "ĠMany": 8044,
      "odes": 8045,
      "Ġbanate": 8046,
      "Ġlanguages": 8047,
      "Ġtarget": 8048,
      "Ġsports": 8049,
      "Ġcause": 8050,
      "Ġvarg": 8051,
      "ped": 8052,
      "Ġface": 8053,
      "Ġprakrit": 8054,
      "à¤Ĺà¤£à¤¨à¤¾": 8055,
      "Ġreh": 8056,
      "Ġask": 8057,
      "Ġsays": 8058,
      "Ġvyaktigat": 8059,
      "Ġà¤µà¥įà¤¯à¤¾à¤µà¤¸à¤¾à¤¯à¤¿à¤ķ": 8060,
      "Ġepis": 8061,
      "(T": 8062,
      "Ġkl": 8063,
      "Ġfrog": 8064,
      "Ġsche": 8065,
      "Ġsocha": 8066,
      "Ġà¤«à¥įà¤°à¤¾à¤Ĥà¤¸à¥Ģà¤¸à¥Ģ": 8067,
      "rica": 8068,
      "Ġà¤ıà¤²à¥įà¤Ĺà¥ĭà¤°à¤¿à¤¥à¥įà¤®": 8069,
      "LO": 8070,
      "Ġà¤¶à¥ģà¤¦à¥įà¤§": 8071,
      "itch": 8072,
      "Ġà¤ļà¥ĩà¤¹à¤°à¥ĩ": 8073,
      "Ġvij": 8074,
      "Ġjin": 8075,
      "Ġboard": 8076,
      "Ġà¤ĩà¤®à¤¾à¤°à¤¤": 8077,
      "ontinued": 8078,
      "Ġsound": 8079,
      "à¤¾à¤§à¥įà¤¯": 8080,
      "Ġsaman": 8081,
      "à¥įà¤°à¥ĩà¤ķ": 8082,
      "à¤¦à¥įà¤¯à¥ĭà¤Ĺà¤¿à¤ķ": 8083,
      "à¥ĩà¤¡à¤¼": 8084,
      "aging": 8085,
      "ĠVal": 8086,
[...]
