{
  "version": "1.0",
  "truncation": null,
  "padding": null,
  "added_tokens": [
    {
      "id": 0,
      "content": "<pad>",
      "single_word": false,
      "lstrip": false,
      "rstrip": false,
      "normalized": false,
      "special": true
    },
    {
      "id": 1,
      "content": "<s>",
      "single_word": false,
      "lstrip": false,
      "rstrip": false,
      "normalized": false,
      "special": true
    },
    {
      "id": 2,
      "content": "</s>",
      "single_word": false,
      "lstrip": false,
      "rstrip": false,
      "normalized": false,
      "special": true
    },
    {
      "id": 3,
      "content": "<unk>",
      "single_word": false,
      "lstrip": false,
      "rstrip": false,
      "normalized": false,
      "special": true
    },
    {
      "id": 4,
      "content": "<bos>",
      "single_word": false,
      "lstrip": false,
      "rstrip": false,
      "normalized": false,
      "special": true
    },
    {
      "id": 5,
      "content": "<eos>",
      "single_word": false,
      "lstrip": false,
      "rstrip": false,
      "normalized": false,
      "special": true
    },
    {
      "id": 6,
      "content": "<|system|>",
      "single_word": false,
      "lstrip": false,
      "rstrip": false,
      "normalized": false,
      "special": true
    },
    {
      "id": 7,
      "content": "<|user|>",
      "single_word": false,
      "lstrip": false,
      "rstrip": false,
      "normalized": false,
      "special": true
    },
    {
      "id": 8,
      "content": "<|assistant|>",
      "single_word": false,
      "lstrip": false,
      "rstrip": false,
      "normalized": false,
      "special": true
    },
    {
      "id": 9,
      "content": "<audio>",
      "single_word": false,
      "lstrip": false,
      "rstrip": false,
      "normalized": false,
      "special": true
    },
    {
      "id": 10,
      "content": "<image>",
      "single_word": false,
      "lstrip": false,
      "rstrip": false,
      "normalized": false,
      "special": true
    },
    {
      "id": 11,
      "content": "<video>",
      "single_word": false,
      "lstrip": false,
      "rstrip": false,
      "normalized": false,
      "special": true
    },
    {
      "id": 12,
      "content": "<tool_call>",
      "single_word": false,
      "lstrip": false,
      "rstrip": false,
      "normalized": false,
      "special": true
    },
    {
      "id": 13,
      "content": "<tool_result>",
      "single_word": false,
      "lstrip": false,
      "rstrip": false,
      "normalized": false,
      "special": true
    },
    {
      "id": 14,
      "content": "<thought>",
      "single_word": false,
      "lstrip": false,
      "rstrip": false,
      "normalized": false,
      "special": true
    },
    {
      "id": 15,
      "content": "</thought>",
      "single_word": false,
      "lstrip": false,
      "rstrip": false,
      "normalized": false,
      "special": true
    },
    {
      "id": 16,
      "content": "<code>",
      "single_word": false,
      "lstrip": false,
      "rstrip": false,
      "normalized": false,
      "special": true
    },
    {
      "id": 17,
      "content": "</code>",
      "single_word": false,
      "lstrip": false,
      "rstrip": false,
      "normalized": false,
      "special": true
    },
    {
      "id": 18,
      "content": "।",
      "single_word": false,
      "lstrip": false,
      "rstrip": false,
      "normalized": false,
      "special": true
    },
    {
      "id": 19,
      "content": "॥",
      "single_word": false,
      "lstrip": false,
      "rstrip": false,
      "normalized": false,
      "special": true
    },
    {
      "id": 20,
      "content": "ॐ",
      "single_word": false,
      "lstrip": false,
      "rstrip": false,
      "normalized": false,
      "special": true
    }
  ],
  "normalizer": null,
  "pre_tokenizer": {
    "type": "Sequence",
    "pretokenizers": [
      {
        "type": "Split",
        "pattern": {
          "Regex": "(?i:'s|'t|'re|'ve|'m|'ll|'d)|[^\\r\\n\\p{L}\\p{N}]?[\\p{L}\\p{M}]+|\\p{N}+|[^\\s\\p{L}\\p{N}\\p{M}]+|\\s+(?!\\S)|\\s+"
        },
        "behavior": "Isolated",
        "invert": false
      },
      {
        "type": "ByteLevel",
        "add_prefix_space": false,
        "trim_offsets": true,
        "use_regex": false
      }
    ]
  },
  "post_processor": null,
  "decoder": {
    "type": "ByteLevel",
    "add_prefix_space": true,
    "trim_offsets": true,
    "use_regex": true
  },
  "model": {
    "type": "BPE",
    "dropout": null,
    "unk_token": null,
    "continuing_subword_prefix": null,
    "end_of_word_suffix": null,
    "fuse_unk": false,
    "byte_fallback": false,
    "ignore_merges": false,
    "vocab": {
      "<pad>": 0,
      "<s>": 1,
      "</s>": 2,
      "<unk>": 3,
      "<bos>": 4,
      "<eos>": 5,
      "<|system|>": 6,
      "<|user|>": 7,
      "<|assistant|>": 8,
      "<audio>": 9,
      "<image>": 10,
      "<video>": 11,
      "<tool_call>": 12,
      "<tool_result>": 13,
      "<thought>": 14,
      "</thought>": 15,
      "<code>": 16,
      "</code>": 17,
      "।": 18,
      "॥": 19,
      "ॐ": 20,
      "!": 21,
      "\"": 22,
      "#": 23,
      "$": 24,
      "%": 25,
      "&": 26,
      "'": 27,
      "(": 28,
      ")": 29,
      "*": 30,
      "+": 31,
      ",": 32,
      "-": 33,
      ".": 34,
      "/": 35,
      "0": 36,
      "1": 37,
      "2": 38,
      "3": 39,
      "4": 40,
      "5": 41,
      "6": 42,
      "7": 43,
      "8": 44,
      "9": 45,
      ":": 46,
      ";": 47,
      "<": 48,
      "=": 49,
      ">": 50,
      "?": 51,
      "@": 52,
      "A": 53,
      "B": 54,
      "C": 55,
      "D": 56,
      "E": 57,
      "F": 58,
      "G": 59,
      "H": 60,
      "I": 61,
      "J": 62,
      "K": 63,
      "L": 64,
      "M": 65,
      "N": 66,
      "O": 67,
      "P": 68,
      "Q": 69,
      "R": 70,
      "S": 71,
      "T": 72,
      "U": 73,
      "V": 74,
      "W": 75,
      "X": 76,
      "Y": 77,
      "Z": 78,
      "[": 79,
      "\\": 80,
      "]": 81,
      "^": 82,
      "_": 83,
      "`": 84,
      "a": 85,
      "b": 86,
      "c": 87,
      "d": 88,
      "e": 89,
      "f": 90,
      "g": 91,
      "h": 92,
      "i": 93,
      "j": 94,
      "k": 95,
      "l": 96,
      "m": 97,
      "n": 98,
      "o": 99,
      "p": 100,
      "q": 101,
      "r": 102,
      "s": 103,
      "t": 104,
      "u": 105,
      "v": 106,
      "w": 107,
      "x": 108,
      "y": 109,
      "z": 110,
      "{": 111,
      "|": 112,
      "}": 113,
      "~": 114,
      "¡": 115,
      "¢": 116,
      "£": 117,
      "¤": 118,
      "¥": 119,
      "¦": 120,
      "§": 121,
      "¨": 122,
      "©": 123,
      "ª": 124,
      "«": 125,
      "¬": 126,
      "®": 127,
      "¯": 128,
      "°": 129,
      "±": 130,
      "²": 131,
      "³": 132,
      "´": 133,
      "µ": 134,
      "¶": 135,
      "·": 136,
      "¸": 137,
      "¹": 138,
      "º": 139,
      "»": 140,
      "¼": 141,
      "½": 142,
      "¾": 143,
      "¿": 144,
      "À": 145,
      "Á": 146,
      "Â": 147,
      "Ã": 148,
      "Ä": 149,
      "Å": 150,
      "Æ": 151,
      "Ç": 152,
      "È": 153,
      "É": 154,
      "Ê": 155,
      "Ë": 156,
      "Ì": 157,
      "Í": 158,
      "Î": 159,
      "Ï": 160,
      "Ð": 161,
      "Ñ": 162,
      "Ò": 163,
      "Ó": 164,
      "Ô": 165,
      "Õ": 166,
      "Ö": 167,
      "×": 168,
      "Ø": 169,
      "Ù": 170,
      "Ú": 171,
      "Û": 172,
      "Ü": 173,
      "Ý": 174,
      "Þ": 175,
      "ß": 176,
      "à": 177,
      "á": 178,
      "â": 179,
      "ã": 180,
      "ä": 181,
      "å": 182,
      "æ": 183,
      "ç": 184,
      "è": 185,
      "é": 186,
      "ê": 187,
      "ë": 188,
      "ì": 189,
      "í": 190,
      "î": 191,
      "ï": 192,
      "ð": 193,
      "ñ": 194,
      "ò": 195,
      "ó": 196,
      "ô": 197,
      "õ": 198,
      "ö": 199,
      "÷": 200,
      "ø": 201,
      "ù": 202,
      "ú": 203,
      "û": 204,
      "ü": 205,
      "ý": 206,
      "þ": 207,
      "ÿ": 208,
      "Ā": 209,
      "ā": 210,
      "Ă": 211,
      "ă": 212,
      "Ą": 213,
      "ą": 214,
      "Ć": 215,
      "ć": 216,
      "Ĉ": 217,
      "ĉ": 218,
      "Ċ": 219,
      "ċ": 220,
      "Č": 221,
      "č": 222,
      "Ď": 223,
      "ď": 224,
      "Đ": 225,
      "đ": 226,
      "Ē": 227,
      "ē": 228,
      "Ĕ": 229,
      "ĕ": 230,
      "Ė": 231,
      "ė": 232,
      "Ę": 233,
      "ę": 234,
      "Ě": 235,
      "ě": 236,
      "Ĝ": 237,
      "ĝ": 238,
      "Ğ": 239,
      "ğ": 240,
      "Ġ": 241,
      "ġ": 242,
      "Ģ": 243,
      "ģ": 244,
      "Ĥ": 245,
      "ĥ": 246,
      "Ħ": 247,
      "ħ": 248,
      "Ĩ": 249,
      "ĩ": 250,
      "Ī": 251,
      "ī": 252,
      "Ĭ": 253,
      "ĭ": 254,
      "Į": 255,
      "į": 256,
      "İ": 257,
      "ı": 258,
      "Ĳ": 259,
      "ĳ": 260,
      "Ĵ": 261,
      "ĵ": 262,
      "Ķ": 263,
      "ķ": 264,
      "ĸ": 265,
      "Ĺ": 266,
      "ĺ": 267,
      "Ļ": 268,
      "ļ": 269,
      "Ľ": 270,
      "ľ": 271,
      "Ŀ": 272,
      "ŀ": 273,
      "Ł": 274,
      "ł": 275,
      "Ń": 276,
      "à¤": 277,
      "Ġà¤": 278,
      "à¥": 279,
      "à¤¾": 280,
      "à¥ĩ": 281,
      "à¤°": 282,
      "à¥į": 283,
      "à¤¿": 284,
      "Ġà¤ķ": 285,
      "à¤¾à¤": 286,
      "à¥įà¤": 287,
      "à¤¿à¤": 288,
      "à¤Ĥ": 289,
      "à¥Ģ": 290,
      "à¥ĭ": 291,
      "à¤ķ": 292,
      "à¤¨": 293,
      "Ġà¤¸": 294,
      "Ġà¤¹": 295,
      "à¤¤": 296,
      "à¥Ī": 297,
      "Ġà¤ª": 298,
      "Ġà¤®": 299,
      "à¤¸": 300,
      "à¥įà¤°": 301,
      "Ġà¤ķà¥ĩ": 302,
      "à¤²": 303,
      "Ġà¤¹à¥Ī": 304,
      "à¥ĩà¤Ĥ": 305,
      "à¥ģ": 306,
      "à¤¹": 307,
      "à¤®": 308,
      "à¥¤": 309,
      "à¤¾à¤°": 310,
      "Ġà¤ľ": 311,
      "à¤ª": 312,
      "Ġà¤µ": 313,
      "Ġà¤¬": 314,
      "à¥įà¤¯": 315,
      "Ġà¤®à¥ĩà¤Ĥ": 316,
      "Ġà¤ħ": 317,
      "à¥ĭà¤Ĥ": 318,
      "à¤Ĺ": 319,
      "à¥Ĥ": 320,
      "à¤¾à¤¨": 321,
      "Ġà¤²": 322,
      "Ġà¤¨": 323,
      "à¤¯": 324,
      "à¤µ": 325,
      "à¤°à¥įà¤": 326,
      "à¤¦": 327,
      "Ġà¤¦": 328,
      "à¤¿à¤ķ": 329,
      "Ġà¤Ķ": 330,
      "à¤¿à¤¯": 331,
      "Ġà¤ı": 332,
      "Ġà¤Ķà¤°": 333,
      "Ġà¤°": 334,
      "Ġà¤ķà¤°": 335,
      "Ġà¤ī": 336,
      "Ġà¤ķà¥Ģ": 337,
      "Ġà¤ķà¥ĭ": 338,
      "à¤¨à¥ĩ": 339,
      "Ġà¤ªà¥įà¤°": 340,
      "Ġà¤¸à¥ĩ": 341,
      "à¤Ł": 342,
      "Ġà¤Ĩ": 343,
      "à¤¬": 344,
      "à¤¡": 345,
      "à¤ľ": 346,
      "à¤¿à¤¤": 347,
      "Ġà¤¤": 348,
      "Ġà¤Ĺ": 349,
      "à¥įà¤¤": 350,
      "Ġà¤¯": 351,
      "Ġà¤¹à¥Īà¤Ĥ": 352,
      "à¤¶": 353,
      "Ġà¤ıà¤ķ": 354,
      "à¤ļ": 355,
      "Ġà¤ĩ": 356,
      "à¤¾à¤²": 357,
      "à¤¿à¤ı": 358,
      "Ġà¤ķà¤¾": 359,
      "à¤¤à¤¾": 360,
      "à¤¼": 361,
      "à¤§": 362,
      "Ġt": 363,
      "Ġà¤ªà¤°": 364,
      "à¤£": 365,
      "à¤¾à¤¤": 366,
      "Ġà¤¶": 367,
      "Ġà¤Ń": 368,
      "à¥ģà¤": 369,
      "Ġà¤µà¤¿à¤": 370,
      "à¥įà¤µ": 371,
      "Ġà¤¸à¤Ĥ": 372,
      "à¤¿à¤¯à¤¾": 373,
      "à¥įà¤Ł": 374,
      "Ġà¤²à¤¿à¤ı": 375,
      "Ġà¤ļ": 376,
      "Ġà¤¹à¥ĭ": 377,
      "à¥įà¤·": 378,
      "à¤¾à¤®": 379,
      "Ġà¤ĩà¤¸": 380,
      "à¤¨à¤¾": 381,
      "à¤¤à¥ĩ": 382,
      "in": 383,
      "à¤Ń": 384,
      "à¤¾à¤¸": 385,
      "à¤¿à¤¸": 386,
      "Ġà¤¥": 387,
      "à¤¿à¤¨": 388,
      "à¤¿à¤²": 389,
      "à¤¾à¤¯": 390,
      "à¤ķà¥ĩ": 391,
      "à¥ĭà¤Ĺ": 392,
      "an": 393,
      "à¤ĸ": 394,
      "Ġth": 395,
      "Ġà¤¸à¤®": 396,
      "Ġà¤ķà¤¿": 397,
      "à¤¡à¤¼": 398,
      "à¥ĥ": 399,
      "à¤¾à¤Ĥ": 400,
      "à¥ī": 401,
      "à¤¾à¤µ": 402,
      "at": 403,
      "à¤¾à¤¦": 404,
      "à¤¹à¥Ģ": 405,
      "Ġà¤¡": 406,
      "Ġà¤¨à¥ĩ": 407,
      "à¥įà¤¸": 408,
      "Ġà¤ĸ": 409,
      "à¥Į": 410,
      "à¤¸à¥ĩ": 411,
      "à¤Ī": 412,
      "Ġà¤«": 413,
      "Ġà¤¯à¤¹": 414,
      "à¥įà¤¥": 415,
      "is": 416,
      "à¤ķà¥įà¤·": 417,
      "Ġà¤ľà¥ĭ": 418,
      "Ġà¤ķà¤°à¤¨à¥ĩ": 419,
      "à¤°à¥Ģ": 420,
      "à¤¤à¥Ģ": 421,
      "Ġà¤īà¤¨": 422,
      "Ġà¤¸à¤ķ": 423,
      "à¤¯à¤¾": 424,
      "à¤¾à¤¹": 425,
      "à¤ı": 426,
      "Ġà¤ķà¤¿à¤¯à¤¾": 427,
      "à¤¾à¤ĩ": 428,
      "Ġà¤īà¤ª": 429,
      "à¥įà¤ķ": 430,
      "Ġà¤¦à¥ĩ": 431,
      "Ġà¤ħà¤ª": 432,
      "à¤·": 433,
      "à¥įà¤ª": 434,
      "à¥Ĥà¤ª": 435,
      "Ġà¤ħà¤¨": 436,
      "Ġà¤ħà¤§": 437,
      "à¤ķà¤¾à¤°": 438,
      "à¤²à¥ĩ": 439,
      "Ġà¤Ńà¥Ģ": 440,
      "Ġto": 441,
      "à¥įà¤®": 442,
      "à¤¹à¥Ģà¤Ĥ": 443,
      "Ġà¤¸à¤¾à¤": 444,
      "à¥įà¤²": 445,
      "à¤¾à¤ľ": 446,
      "er": 447,
      "à¤«": 448,
      "à¤¨à¥Ģ": 449,
      "Ġà¤°à¥Ĥà¤ª": 450,
      "à¤¿à¤Ĥ": 451,
      "Ġà¤Ł": 452,
      "Ġà¤¨à¤¹à¥Ģà¤Ĥ": 453,
      "à¤¿à¤¯à¥ĭà¤Ĥ": 454,
      "di": 455,
      "à¤¤à¥įà¤°": 456,
      "Ġà¤²à¥ĩ": 457,
      "à¤¾à¤ı": 458,
      "Ġà¤Ĩà¤ª": 459,
      "ĠĠ": 460,
      "à¤¾à¤ª": 461,
      "à¤°à¤£": 462,
      "Ġà¤ľà¤¾à¤¤": 463,
      "Ġà¤ľà¤¾à¤¨": 464,
      "à¥ģà¤°": 465,
      "ĵà¤Ĥ": 466,
      "Ġà¤¥à¤¾": 467,
      "ate": 468,
      "Ġà¤ķà¤¾à¤°": 469,
      "on": 470,
      "à¤¾à¤°à¥ĩ": 471,
      "Ġà¤¸à¤¾à¤¥": 472,
      "à¤¯à¥ĭà¤Ĺ": 473,
      "Ġà¤¯à¤¾": 474,
      "Ġà¤ªà¤¹": 475,
      "ĠH": 476,
      "Ġà¤ħà¤§à¤¿à¤ķ": 477,
      "à¥ĩà¤¶": 478,
      "Ġà¤°à¤¹": 479,
      "à¤¾à¤ĵà¤Ĥ": 480,
      "Ġà¤Ĺà¤¯à¤¾": 481,
      "ran": 482,
      "Ġthe": 483,
      "Ġà¤µà¤¾à¤²": 484,
      "Ġthis": 485,
      "à¤¿à¤¶": 486,
      "re": 487,
      "à¤¿à¤°": 488,
      "à¤ĥ": 489,
      "à¥įà¤¨": 490,
      "à¤¿à¤µ": 491,
      "sl": 492,
      "à¥įà¤¹": 493,
      "Ġà¤ªà¥įà¤°à¤¤": 494,
      "à¥įà¤ļ": 495,
      "indi": 496,
      "à¥Ĥà¤°à¥įà¤": 497,
      "Tran": 498,
      "ĠHindi": 499,
      "Transl": 500,
      "Translate": 501,
      "Ġa": 502,
      "à¤¾à¤Ī": 503,
      "à¤¿à¤®": 504,
      "à¤¾à¤ķ": 505,
      "à¥įà¤¯à¤¾": 506,
      "à¥Ģà¤¯": 507,
      "à¤ķà¥įà¤¤": 508,
      "à¤¸à¥įà¤¤": 509,
      "en": 510,
      "à¤¥": 511,
      "Ġà¤Ľ": 512,
      "Ġà¤¹à¥ģà¤": 513,
      "à¤¾à¤ģ": 514,
      "Ġà¤īà¤¤": 515,
      "à¤ķà¤¾": 516,
      "à¤Ĥà¤Ĺ": 517,
      "Ġà¤¹à¤®": 518,
      "Ġà¤ķà¤°à¥ĩà¤Ĥ": 519,
      "à¥ĥà¤¤": 520,
      "à¤°à¥ĩ": 521,
      "Ġs": 522,
      "Ġà¤ķà¤¹": 523,
      "à¤Ĥà¤¡": 524,
      "à¤Ĥà¤¦": 525,
      "à¥Ģà¤¨": 526,
      "à¤¾à¤Ĺ": 527,
      "Ġà¤¤à¤ķ": 528,
      "Ġà¤µà¤¿à¤¶": 529,
      "Ġà¤ĺ": 530,
      "Ġà¤īà¤ªà¤¯à¥ĭà¤Ĺ": 531,
      "Ġà¤¸à¥įà¤¥": 532,
      "à¤ĩ": 533,
      "à¥ĩà¤²": 534,
      "Ġà¤¬à¤¾à¤°à¥ĩ": 535,
      "à¥įà¤§": 536,
      "Ġà¤ľà¤¾à¤¤à¤¾": 537,
      "Ġo": 538,
      "à¤¾à¤¨à¥ĩ": 539,
      "00": 540,
      "Ġà¤ľà¤¿à¤¸": 541,
      "à¥ģà¤²": 542,
      "à¥ĭà¤ľ": 543,
      "à¥ģà¤¤": 544,
      "Ġà¤ķà¤®": 545,
      "Ġà¤¸à¥Ģ": 546,
      "Ġà¤µà¥įà¤¯": 547,
      "à¤¾à¤°à¤¾": 548,
      "Ġà¤¬à¤¨": 549,
      "à¤Ńà¥Ģ": 550,
      "à¤Ĥà¤¤": 551,
      "Ġà¤²à¤Ĺ": 552,
      "à¥įà¤ŀ": 553,
      "Ġà¤®à¤¹": 554,
      "à¥ĭà¤Ł": 555,
      "Ġà¤§": 556,
      "à¥ģà¤¨": 557,
      "à¤¿à¤·": 558,
      "Ġà¤µà¥ĩ": 559,
      "à¤ķà¥Ģ": 560,
      "Ġà¤ħà¤ªà¤¨à¥ĩ": 561,
      "Ġà¤¦à¥įà¤µ": 562,
      "à¤²à¥Ģ": 563,
      "à¤¾à¤°à¥Ģ": 564,
      "à¥įà¤¦": 565,
      "à¥ĩà¤Ł": 566,
      "à¤¢": 567,
      "à¤°à¥įà¤®": 568,
      "Ġw": 569,
      "Ġà¤ªà¥įà¤°à¤¦": 570,
      "à¥ģà¤¦": 571,
      "Ġà¤ķà¤°à¤¤à¥ĩ": 572,
      "à¤ķà¥įà¤°": 573,
      "Ġà¤µà¤°à¥įà¤": 574,
      "or": 575,
      "à¥ģà¤ĸ": 576,
      "Ġc": 577,
      "à¥Ĥà¤²": 578,
      "à¤¢à¤¼": 579,
      "à¥ĩà¤°": 580,
      "à¤Ĥà¤§": 581,
      "Ġà¤īà¤¨à¥įà¤¹": 582,
      "Ġà¤¤à¥ĭ": 583,
      "ar": 584,
      "Ġà¤¸à¥įà¤µ": 585,
      "à¤¾à¤¶": 586,
      "Ġà¤²à¥ĩà¤ķ": 587,
      "es": 588,
      "Ġà¤ħà¤¨à¥ģ": 589,
      "à¤¿à¤ĸ": 590,
      "Ġà¤¬à¥Ģ": 591,
      "à¤ķà¤¿": 592,
      "Ġà¤ķà¥Ī": 593,
      "Ġà¤¸à¤ķà¤¤à¤¾": 594,
      "à¥ģà¤Ľ": 595,
      "ed": 596,
      "à¤¿à¤Ĥà¤Ĺ": 597,
      "à¤ķà¤¾à¤°à¥Ģ": 598,
      "à¤¾à¤¯à¤¾": 599,
      "Ġà¤¦à¥ĭ": 600,
      "it": 601,
      "Ġà¤ķà¥ģà¤Ľ": 602,
      "al": 603,
      "à¤¸à¥Ģ": 604,
      "Ġà¤ķà¥įà¤·": 605,
      "à¤¾à¤¬": 606,
      "Ġà¤¦à¥įà¤µà¤¾à¤°à¤¾": 607,
      "à¥įà¤¯à¥Ĥ": 608,
      "à¥įà¤Łà¥įà¤°": 609,
      "19": 610,
      "Ġà¤¸à¤ķà¤¤à¥ĩ": 611,
      "à¥Ģà¤µ": 612,
      "Ġà¤µà¤¾à¤²à¥ĩ": 613,
      "à¥ĭà¤²": 614,
      "à¤¾à¤¨à¥Ģ": 615,
      "à¤¾à¤·": 616,
      "à¥Ĥà¤°à¥įà¤£": 617,
      "Ġà¤ľà¤¬": 618,
      "Ġp": 619,
      "Ġf": 620,
      "Ġà¤¹à¥Ģ": 621,
      "Ġà¤¥à¥ĩ": 622,
      "à¤ļà¥įà¤ļ": 623,
      "Ġà¤īà¤¸": 624,
      "Ġà¤²à¥ĭà¤Ĺ": 625,
      "à¤¾à¤§": 626,
      "Ġà¤ķà¤°à¤¤à¤¾": 627,
      "Ġà¤°à¤¾à¤ľ": 628,
      "Ġà¤¨à¤¿": 629,
      "Ġà¤¬à¤¹": 630,
      "à¤®à¥ĩà¤Ĥ": 631,
      "à¥įà¤¯à¥ĭà¤Ĥ": 632,
      "Ġof": 633,
      "Ġb": 634,
      "Ġin": 635,
      "Ġh": 636,
      "ing": 637,
      "Ġà¤µà¤¿à¤ķ": 638,
      "Ġà¤²à¥ĩà¤ķà¤¿à¤¨": 639,
      "à¤Ĺà¤¾": 640,
      "Ġà¤¦à¥ĩà¤ĸ": 641,
      "à¤ĩà¤¸": 642,
      "à¥įà¤ŀà¤¾à¤¨": 643,
      "Ġà¤ķà¥įà¤¯à¤¾": 644,
      "and": 645,
      "Ġà¤ľà¥Ī": 646,
      "Ġà¤®à¥Ī": 647,
      "à¤Ńà¤¾à¤µ": 648,
      "à¤ł": 649,
      "à¥Ĥà¤°": 650,
      "à¥Įà¤°": 651,
      "Ġà¤¸à¤¾à¤®": 652,
      "Ġà¤¬à¤¾à¤¦": 653,
      "Ġà¤¸à¤¬": 654,
      "à¤²à¤¾": 655,
      "Ġà¤ľà¤¾à¤¨à¤ķà¤¾à¤°à¥Ģ": 656,
      "à¥ĩà¤·": 657,
      "à¤¨à¥ĭà¤Ĥ": 658,
      "Ġà¤Ĩà¤µ": 659,
      "à¤¿à¤ª": 660,
      "Ġà¤¥à¥Ģ": 661,
      "à¤°à¥įà¤¤": 662,
      "à¤¿à¤ľ": 663,
      "Ġà¤ĩà¤¸à¤ķà¥ĩ": 664,
      "as": 665,
      "Ġà¤ªà¥Ģ": 666,
      "Ġà¤µà¤¹": 667,
      "Ġà¤¦à¤¿à¤¯à¤¾": 668,
      "à¥įà¤¤à¤°": 669,
      "Ġà¤®à¤¾à¤¨": 670,
      "Ġà¤ķà¤°à¤¨à¤¾": 671,
      "à¥įà¤°à¥Ģ": 672,
      "à¤¿à¤¦": 673,
      "à¤ķà¥ĭà¤Ĥ": 674,
      "à¥ĩà¤ľ": 675,
      "à¤ķà¥įà¤¸": 676,
      "à¤Ĩ": 677,
      "Ġà¤ħà¤²": 678,
      "Ġà¤ħà¤Ĥà¤¤": 679,
      "ion": 680,
      "à¤ħ": 681,
      "à¥įà¤¡": 682,
      "à¤ªà¥Ĥà¤°à¥įà¤£": 683,
      "20": 684,
      "à¤¿à¤Ł": 685,
      "Ġà¤ļà¤¾à¤¹": 686,
      "Ġà¤¸à¤®à¤¯": 687,
      "Ġà¤¤à¤°": 688,
      "à¤ģ": 689,
      "à¤¾à¤¤à¥įà¤°": 690,
      "Ġà¤ķà¤¹à¤¾": 691,
      "Ġà¤ķà¤¿à¤¸": 692,
      "à¤¤à¤¿": 693,
      "Ġà¤ľà¤¾": 694,
      "--": 695,
      "à¤¾à¤ıà¤Ĥ": 696,
      "ou": 697,
      "à¤Ĥà¤¤à¥įà¤°": 698,
      "Ġà¤ªà¤¹à¤²à¥ĩ": 699,
      "à¥ĭà¤°": 700,
      "à¥ĩà¤¨": 701,
      "Ġà¤Ĺà¤ı": 702,
      "Ġà¤ķà¤¾à¤°à¥įà¤¯": 703,
      "à¥ĩà¤¤à¥įà¤°": 704,
      "Ġà¤¸à¤¹": 705,
      "à¥ĩà¤¸": 706,
      "Ġà¤¹à¥ģà¤ı": 707,
      "Ġà¤ĵ": 708,
      "à¤¶à¥įà¤¯": 709,
      "à¤¸à¥įà¤¥": 710,
      "Ġand": 711,
      "Ġà¤¹à¥ĭà¤¤à¤¾": 712,
      "à¤Ĥà¤Ł": 713,
      "Ġà¤ĩà¤¨": 714,
      "Ġà¤ķà¥įà¤·à¥ĩà¤¤à¥įà¤°": 715,
      "à¥ĭà¤§": 716,
      "Ġà¤ħà¤¨à¥įà¤¯": 717,
      "Ġà¤¬à¤¤": 718,
      "à¤·à¥įà¤Ł": 719,
      "Ġà¤ªà¥įà¤°à¤¦à¤¾à¤¨": 720,
      "Ġà¤ıà¤¸": 721,
      "à¤ķà¥ĭ": 722,
      "Ġà¤°à¤ĸ": 723,
      "à¥ģà¤ĸà¥įà¤¯": 724,
      "à¤¾à¤£": 725,
      "à¤¿à¤ķà¤¾": 726,
      "Ġà¤¶à¤¾à¤®": 727,
      "Ġà¤¸à¤¬à¤¸à¥ĩ": 728,
      "à¤Ĥà¤¬": 729,
      "Ġà¤ķà¤Ī": 730,
      "Ġm": 731,
      "Ġà¤Ĺà¤Ī": 732,
      "ic": 733,
      "Ġà¤®à¥ģà¤ĸà¥įà¤¯": 734,
      "Ġà¤¬à¤¹à¥ģà¤¤": 735,
      "Ġà¤Ĳ": 736,
      "Ġà¤µà¤¿à¤¸": 737,
      "à¤¿à¤ķà¥įà¤·": 738,
      "à¥ĭà¤Ĥà¤¨à¥ĩ": 739,
      "ent": 740,
      "Ġà¤®à¤¿à¤²": 741,
      "à¤®à¤¾à¤¨": 742,
      "Ġà¤¶à¤¾à¤®à¤¿à¤²": 743,
      "Ġà¤īà¤¦": 744,
      "à¤¸à¤¾": 745,
      "le": 746,
      "Ġà¤ĳ": 747,
      "Ġà¤µà¤¿à¤·": 748,
      "à¤¬à¤Ĥà¤§": 749,
      "ĠĠĠĠ": 750,
      "Ġà¤°à¤¹à¥ĩ": 751,
      "à¥ĥà¤ª": 752,
      "à¤°à¥įà¤ľ": 753,
      "à¤Ĺà¥Ģ": 754,
      "Ġà¤ħà¤®": 755,
      "Ġà¤¤à¤°à¤¹": 756,
      "à¤Ĥà¤ª": 757,
      "Ġà¤¹à¥ĭà¤¨à¥ĩ": 758,
      "Ġà¤ªà¥Ī": 759,
      "Ġà¤¬à¤¢à¤¼": 760,
      "à¤¾à¤ªà¥įà¤¤": 761,
      "à¤ľà¤¨": 762,
      "à¤Ĺà¥ĩ": 763,
      "à¥įà¤Ľ": 764,
      "à¤§à¤¾à¤°": 765,
      "à¥ĥà¤ªà¤¯à¤¾": 766,
      "Ġà¤īà¤¤à¥įà¤ª": 767,
      "à¤Ŀ": 768,
      "à¤ªà¥įà¤°": 769,
      "Ġà¤ªà¥įà¤°à¤ķ": 770,
      "à¤¤à¥įà¤µ": 771,
      "Ġà¤¸à¥įà¤ª": 772,
      "à¤¡à¤¼à¥ĩ": 773,
      "à¤¸à¥įà¤ķ": 774,
      "à¤¶à¥įà¤¯à¤ķ": 775,
      "à¥ģà¤ķ": 776,
      "Ġà¤īà¤¨à¤ķà¥ĩ": 777,
      "Ġà¤ľà¥Ģà¤µ": 778,
      "Ġà¤¹à¥ĭà¤¤à¥Ģ": 779,
      "à¤ļà¥įà¤Ľ": 780,
      "à¤°à¥ĭà¤Ĥ": 781,
      "à¤¾à¤²à¤¯": 782,
      "Ġà¤µà¤¿à¤¸à¥įà¤¤": 783,
      "Ġd": 784,
      "Ġà¤Ĭ": 785,
      "Ġà¤Ĩà¤µà¤¶à¥įà¤¯à¤ķ": 786,
      "à¤°à¥įà¤¥": 787,
      "Ġà¤īà¤¨à¥įà¤¹à¥ĩà¤Ĥ": 788,
      "Ġà¤ķà¤¿à¤¸à¥Ģ": 789,
      "à¤¿à¤Ĺ": 790,
      "Ġà¤²à¥ĭà¤Ĺà¥ĭà¤Ĥ": 791,
      "Ġà¤¸à¥ģ": 792,
      "Ġà¤Ĺà¥įà¤°": 793,
      "à¤°à¥įà¤¶": 794,
      "à¥ĭà¤ķ": 795,
      "Ġà¤µà¤¿à¤·à¤¯": 796,
      "à¤ķà¥įà¤·à¤¾": 797,
      "il": 798,
      "Ġà¤¶à¥ģà¤°": 799,
      "om": 800,
      "Ġà¤ħà¤µ": 801,
      "à¥Ĥà¤¸": 802,
      "Ġà¤¸à¥Ĥ": 803,
      "à¥ĩà¤ķ": 804,
      "Ġà¤ħà¤ªà¤¨à¥Ģ": 805,
      "Ġà¤ķà¤¾à¤®": 806,
      "Ġà¤¨à¤¿à¤°à¥įà¤": 807,
      "à¤°à¥įà¤ķ": 808,
      "à¤ķà¥įà¤°à¤®": 809,
      "à¤Ĺà¥įà¤°": 810,
      "à¤¾à¤¸à¥įà¤¤": 811,
      "à¤ķà¥įà¤·à¤£": 812,
      "Ġà¤°à¤¹à¤¾": 813,
      "Ġà¤¸à¤Ńà¥Ģ": 814,
      "à¥Ģà¤ķ": 815,
      "Ġà¤¬à¤ļà¥įà¤ļ": 816,
      "à¤¿à¤¹": 817,
      "à¤ķà¥ĥà¤ªà¤¯à¤¾": 818,
      "Ġà¤ķà¤¾à¤°à¤£": 819,
      "Ġà¤µà¤¿à¤¶à¥ĩà¤·": 820,
      "ĠS": 821,
      "Ġà¤ķà¥ĭà¤Ī": 822,
      "à¤¾à¤·à¥įà¤Łà¥įà¤°": 823,
      "à¤¿à¤§": 824,
      "Ġà¤ªà¥įà¤°à¤Ńà¤¾à¤µ": 825,
      "Ġà¤ľà¤¿à¤¨": 826,
      "à¥Ģà¤²": 827,
      "à¤¦à¤¿": 828,
      "à¥įà¤¬": 829,
      "à¥ĭà¤°à¥įà¤": 830,
      "à¥ĩà¤¦": 831,
      "à¤µà¤¾": 832,
      "Ġà¤¸à¤®à¤Ŀ": 833,
      "à¤¿à¤£": 834,
      "à¤¤à¤°": 835,
      "Ġà¤ļà¤¾à¤¹à¤¿à¤ı": 836,
      "Ġà¤µà¤°à¥įà¤·": 837,
      "Ġà¤ķà¥įà¤¯à¥ĭà¤Ĥ": 838,
      "à¤ķà¤°": 839,
      "à¥ĭà¤¨": 840,
      "Ġà¤Ī": 841,
      "à¤¡à¤¼à¥Ģ": 842,
      "à¥Īà¤¨": 843,
      "à¤¾à¤ī": 844,
      "Ġà¤īà¤¨à¥įà¤¹à¥ĭà¤Ĥà¤¨à¥ĩ": 845,
      "à¤Ľ": 846,
      "à¤Ĥà¤ļ": 847,
      "Ġà¤ªà¤°à¤¿à¤µ": 848,
      "à¥ĭà¤®": 849,
      "Ġà¤ªà¥Ĥ": 850,
      "à¤¾à¤¤à¤¾": 851,
      "à¤µà¤¿à¤·": 852,
      "Ġà¤¸à¥įà¤ķ": 853,
      "Ġà¤µà¤¿à¤Ń": 854,
      "à¥ĭà¤¸": 855,
      "Ġà¤¸à¤°": 856,
      "Ġà¤¡à¥Ģ": 857,
      "à¤¹à¤°": 858,
      "à¥ĩà¤¡": 859,
      "à¤¾à¤¡": 860,
      "Ġà¤ªà¥įà¤°à¤ķà¤¾à¤¶": 861,
      "à¤¾à¤«": 862,
      "Ġà¤ľà¥Īà¤¸à¥ĩ": 863,
      "Ġà¤¹à¤¾à¤²": 864,
      "Ġà¤ħà¤§à¥įà¤¯": 865,
      "Ġà¤¹à¥ĭà¤¤à¥ĩ": 866,
      "à¤¾à¤¤à¥įà¤®": 867,
      "à¤¯à¤¨": 868,
      "Ġà¤ħà¤®à¥ĩà¤°": 869,
      "Ġà¤¸à¥įà¤¥à¤¾à¤¨": 870,
      "à¤¾à¤²à¥Ģ": 871,
      "à¥ĭà¤ª": 872,
      "à¤¾à¤¨à¤¾": 873,
      "Ġà¤ľà¤²": 874,
      "à¥Ĥà¤®": 875,
      "Ġà¤ĩà¤¸à¤ķà¤¾": 876,
      "à¤¡à¤¼à¤¾": 877,
      "à¤¾à¤°à¥ĭà¤Ĥ": 878,
      "Ġà¤ĩà¤¸à¥ĩ": 879,
      "à¤ĺ": 880,
      "à¤Łà¤°": 881,
      "à¤¾à¤ıà¤ģ": 882,
      "ĠA": 883,
      "Ġà¤µà¤¿à¤µ": 884,
      "Ġà¤ľà¤¨": 885,
      "à¤ľà¥įà¤ŀà¤¾à¤¨": 886,
      "Ġà¤¨à¤¾à¤®": 887,
      "à¤ī": 888,
      "à¤¿à¤¯à¤®": 889,
      "Ġà¤¸à¥įà¤¥à¤¿à¤¤": 890,
      "Ġà¤µà¥įà¤¯à¤ķà¥įà¤¤": 891,
      "Th": 892,
      "à¤¾à¤¤à¥įà¤®à¤ķ": 893,
      "Ġà¤ķà¥įà¤°": 894,
      "à¤µà¤²": 895,
      "ct": 896,
      "à¤°à¥įà¤·": 897,
      "Ġà¤µà¤¿à¤¶à¥įà¤µ": 898,
      "à¥īà¤²": 899,
      "à¥Ĥà¤°à¥įà¤µ": 900,
      "Ġà¤®à¤¾à¤°": 901,
      "à¥ĩà¤¤": 902,
      "Ġre": 903,
      "Ġà¤ªà¤¾à¤°": 904,
      "Ġà¤®à¥Ĥà¤²": 905,
      "à¥ģà¤ķà¥įà¤¤": 906,
      "el": 907,
      "Ġà¤¬à¤¾à¤°": 908,
      "Ġà¤¬à¥Ģà¤ļ": 909,
      "à¤¾à¤ĩà¤Ł": 910,
      "Ġà¤Łà¥Ģ": 911,
      "st": 912,
      "Ġà¤°à¤¾à¤ľà¥įà¤¯": 913,
      "à¤¾à¤ĩà¤¨": 914,
      "à¤Ĥà¤¦à¥įà¤°": 915,
      "Ġà¤Ĺà¥ģ": 916,
      "Ġà¤¸à¤Ĥà¤¬à¤Ĥà¤§": 917,
      "à¤Ĥà¤ķ": 918,
      "ĠĊ": 919,
      "Ġn": 920,
      "à¤¾à¤Ł": 921,
      "à¤¿à¤ķà¥Ģ": 922,
      "à¥Ĥà¤¨": 923,
      "à¤¾à¤ĸ": 924,
      "Ġà¤®à¤¹à¤¤à¥įà¤µ": 925,
      "à¤¾à¤¥": 926,
      "Ġà¤¹à¥ģà¤Ĩ": 927,
      "Ġà¤µà¥Ī": 928,
      "200": 929,
      "id": 930,
      "Ġà¤¬à¤¾à¤¤": 931,
      "Ġà¤®à¥Į": 932,
      "18": 933,
      "à¤¿à¤¯à¤¾à¤ģ": 934,
      "à¤Ńà¤Ĺ": 935,
      "à¥īà¤¨": 936,
      "âĢ": 937,
      "Ġà¤®à¥Īà¤Ĥ": 938,
      "à¤ĩà¤¸à¤ķà¥ĩ": 939,
      "Ġà¤¶à¤¿à¤ķà¥įà¤·": 940,
      "Ġà¤ľà¤¾à¤¨à¥ĩ": 941,
      "à¤Ĥà¤ľ": 942,
      "Ġà¤ªà¥įà¤°à¤¶": 943,
      "ro": 944,
      "Ġà¤īà¤¤à¥įà¤¤à¤°": 945,
      "Ġà¤¬à¥Ī": 946,
      "Ġà¤īà¤¤à¥įà¤ªà¤¾à¤¦": 947,
      "am": 948,
      "Ġà¤ķà¥ĩà¤µà¤²": 949,
      "Ġà¤µà¤¿à¤ľ": 950,
      "à¤ªà¤°": 951,
      "Ġà¤ķà¤¿à¤ı": 952,
      "Ġà¤¨à¥Ģ": 953,
      "Ġà¤ªà¤¾à¤¸": 954,
      "Ġà¤Ĩà¤°": 955,
      "10": 956,
      "ad": 957,
      "Ġà¤¤à¤¥": 958,
      "Ġà¤«à¤¿à¤°": 959,
      "Ġà¤µà¤¾à¤²à¥Ģ": 960,
      "Ġà¤¸à¥įà¤Ł": 961,
      "Ġà¤ķà¥įà¤¯à¥ĭà¤Ĥà¤ķà¤¿": 962,
      "à¥ģà¤¦à¥įà¤§": 963,
      "Ġà¤Ĩà¤ªà¤ķà¥ĭ": 964,
      "Ġà¤¦à¥ĩà¤Ĥ": 965,
      "ĠI": 966,
      "à¤¤à¥įà¤¤": 967,
      "Ġà¤ħà¤¸": 968,
      "Ġà¤²à¤Ĺà¤Ńà¤Ĺ": 969,
      "ĠM": 970,
      "ĠC": 971,
      "Ġà¤ħà¤ļà¥įà¤Ľ": 972,
      "Ġà¤¸à¤ķà¤¤à¥Ģ": 973,
      "Ġà¤®à¤¦": 974,
      "Ġà¤¦à¥Įà¤°": 975,
      "à¥ĩà¤¹": 976,
      "Ġà¤¬à¥įà¤°": 977,
      "Ġà¤ķà¤°à¤¤à¥Ģ": 978,
      "Ġà¤ħà¤¨à¥ģà¤¸": 979,
      "Ġà¤¦à¤¿à¤¨": 980,
      "et": 981,
      "à¤¿à¤ĸà¤¿à¤¤": 982,
      "à¤Ĥà¤¸": 983,
      "Ġà¤ľà¤¾à¤ı": 984,
      "Ġà¤¸à¤¾à¤²": 985,
      "Ġà¤ªà¥įà¤°à¤¸à¥įà¤¤": 986,
      "à¤¦à¥įà¤§": 987,
      "à¤¿à¤®à¥įà¤¨": 988,
      "à¤¾à¤¦à¥Ģ": 989,
      "à¤¿à¤Ĥà¤¦": 990,
      "Ġà¤°à¤¾à¤·à¥įà¤Łà¥įà¤°": 991,
      "Ġà¤Ĩà¤Ī": 992,
      "Ġà¤Ńà¤¾à¤°": 993,
      "Ġà¤¯à¤¦à¤¿": 994,
      "à¥ĭà¤ľà¤¨": 995,
      "Ġà¤¦à¥Ģ": 996,
      "Ġà¤ıà¤®": 997,
      "Ġà¤ªà¥ģà¤°": 998,
      "à¤¾à¤ļ": 999,
      "Ġà¤Ĩà¤®": 1000,
      "à¤¬à¥įà¤¦": 1001,
      "Ġà¤ªà¥įà¤°à¤ķà¤¾à¤°": 1002,
      "à¥ģà¤Ŀ": 1003,
      "Ġà¤ļà¤²": 1004,
      "ĠP": 1005,
      "à¤¿à¤¡": 1006,
      "Ġà¤¶à¥ģà¤°à¥Ĥ": 1007,
      "Ġà¤Ĩà¤µà¤¶à¥įà¤¯à¤ķà¤¤à¤¾": 1008,
      "Ġà¤¸à¥įà¤ªà¤·à¥įà¤Ł": 1009,
      "Ġà¤ıà¤²": 1010,
      "Ġà¤®à¤¦à¤¦": 1011,
      "à¤°à¥įà¤Ń": 1012,
      "Ġà¤¨à¤¿à¤®à¥įà¤¨": 1013,
      "à¥ģà¤·": 1014,
      "à¤ľà¤¼": 1015,
      "Ġà¤Ľà¥ĭà¤Ł": 1016,
      "Ġà¤ªà¥įà¤°à¤¾à¤ªà¥įà¤¤": 1017,
      "Ġà¤ĩà¤¤": 1018,
      "Ġà¤ľà¤¿à¤¸à¤®à¥ĩà¤Ĥ": 1019,
      "Ġà¤µà¤¾à¤¸à¥įà¤¤": 1020,
      "Ġà¤¬à¤¦": 1021,
      "à¤ļà¤¾à¤°": 1022,
      "à¥įà¤¯à¤®": 1023,
      "Ġà¤®à¤¹à¤¤à¥įà¤µà¤ªà¥Ĥà¤°à¥įà¤£": 1024,
      "Ġl": 1025,
      "Ġà¤Ĩà¤¯": 1026,
      "à¥ģà¤®": 1027,
      "à¤°à¥įà¤µ": 1028,
      "Ġis": 1029,
      "à¤¾à¤¤à¥ĩ": 1030,
      "à¤µà¥Ģ": 1031,
      "à¥įà¤Łà¤°": 1032,
      "Ġà¤ħà¤¬": 1033,
      "Ġà¤ħà¤Ń": 1034,
      "à¥įà¤Łà¥Ģ": 1035,
      "Ġe": 1036,
      "Ġà¤¶à¤¬à¥įà¤¦": 1037,
      "à¤²à¤¿à¤ĸà¤¿à¤¤": 1038,
      "Ġà¤ªà¤¤à¤¾": 1039,
      "Ġà¤ªà¥Ĥà¤°à¥įà¤µ": 1040,
      "à¥ĩà¤®": 1041,
      "-à¤¸": 1042,
      "à¤¾à¤Ĥà¤¤": 1043,
      "à¥Ĥà¤¹": 1044,
      "Ġà¤¦à¥Įà¤°à¤¾à¤¨": 1045,
      "à¤µà¤¿à¤·à¤¯": 1046,
      "à¤¿à¤¤à¥įà¤°": 1047,
      "Ġà¤¦à¥ĩà¤¶": 1048,
      "ur": 1049,
      "à¤¾à¤µà¤¾": 1050,
      "Ġà¤ķà¥Īà¤¸à¥ĩ": 1051,
      "Ġà¤¨à¤¿à¤ķ": 1052,
      "Ġà¤ħà¤Ĥà¤¤à¤°": 1053,
      "Ġà¤¸à¤Ĥà¤ªà¥Ĥà¤°à¥įà¤£": 1054,
      "ation": 1055,
      "Ġà¤¶à¥įà¤°": 1056,
      "ve": 1057,
      "Ġà¤ľà¥Ģ": 1058,
      "Ġà¤ħà¤²à¤Ĺ": 1059,
      "Ġà¤¡à¤¾à¤²": 1060,
      "à¤¾à¤Ĥà¤ļ": 1061,
      "th": 1062,
      "à¤¦à¥Ģ": 1063,
      "Ġbe": 1064,
      "à¥įà¤¸à¤¾": 1065,
      "Ġà¤¦à¥Ĥà¤¸": 1066,
      "Ġà¤ķà¥ĩà¤Ĥà¤¦à¥įà¤°": 1067,
      "à¤°à¥įà¤¨": 1068,
      "Ġà¤¹à¥ĭà¤Ĺà¤¾": 1069,
      "Ġà¤ľà¤¹": 1070,
      "ol": 1071,
      "Ġà¤ħà¤Ĺ": 1072,
      "Ġà¤Ľà¤¾à¤¤à¥įà¤°": 1073,
      "----": 1074,
      "à¤°à¥įà¤¦": 1075,
      "à¤¦à¤¾à¤°": 1076,
      "Ġà¤¨à¤¿à¤®à¥įà¤¨à¤²à¤¿à¤ĸà¤¿à¤¤": 1077,
      "à¤°à¤¿à¤ķ": 1078,
      "ver": 1079,
      "Ġà¤ľà¥Ģà¤µà¤¨": 1080,
      "à¤ķà¤°à¥įà¤¤": 1081,
      "à¤¿à¤¨à¥įà¤¨": 1082,
      "Ġà¤µà¤¾à¤¸à¥įà¤¤à¤µ": 1083,
      "Ġà¤ħà¤§à¥įà¤¯à¤¯à¤¨": 1084,
      "à¥įà¤¯à¤¾à¤¨": 1085,
      "Ġà¤ªà¥įà¤°à¤®": 1086,
      "Ġà¤¹à¤¿à¤¸": 1087,
      "à¤°à¤¾": 1088,
      "à¤¹à¤¾à¤°": 1089,
      "Ġà¤¦à¤¿à¤ĸ": 1090,
      "à¤ļà¥Ģ": 1091,
      "à¥ĩà¤Ĥà¤Ł": 1092,
      "ch": 1093,
      "Ġà¤īà¤¨à¤ķà¥Ģ": 1094,
      "à¤¿à¤¹à¤¾à¤¸": 1095,
      "Ġà¤°à¤¹à¥Ģ": 1096,
      "Ġà¤µà¤¿à¤ķà¤¾à¤¸": 1097,
      "The": 1098,
      "Ġà¤ªà¥įà¤°à¤¤à¤¿à¤¶": 1099,
      "à¥ģà¤Ł": 1100,
      "à¥įà¤ľ": 1101,
      "à¤®à¤¾": 1102,
      "Ġà¤ªà¥įà¤°à¤¤à¤¿à¤¶à¤¤": 1103,
      "Ġà¤¨à¤¿à¤°à¥įà¤®": 1104,
      "Ġà¤ıà¤¨": 1105,
      "à¥įà¤ł": 1106,
      "Ġg": 1107,
      "201": 1108,
      "-à¤ª": 1109,
      "à¥įà¤µà¥Ģ": 1110,
      "Ġà¤¸à¤¹à¤¾à¤¯": 1111,
      "à¤¾à¤¸à¥įà¤¥": 1112,
      "im": 1113,
      "ter": 1114,
      "à¤¾à¤Ĥà¤¶": 1115,
      "à¥Īà¤Ĥà¤¡": 1116,
      "à¤²à¥įà¤ª": 1117,
      "ay": 1118,
      "Ġà¤¸à¥ĭ": 1119,
      "Ġà¤ªà¥įà¤°à¤¸à¥įà¤¤à¥ģà¤¤": 1120,
      "Ġà¤ĵà¤°": 1121,
      "à¤°à¥įà¤§": 1122,
      "Ġà¤¹à¥ģà¤Ī": 1123,
      "Ġà¤ľà¤¾à¤¤à¥Ģ": 1124,
      "à¤²à¤¬": 1125,
      "Ġà¤¶à¥ĭà¤§": 1126,
      "Ġà¤¸à¤®à¥ģà¤¦": 1127,
      "Ġfor": 1128,
      "à¤¾à¤¸à¥įà¤¥à¥įà¤¯": 1129,
      "Ġà¤ªà¤°à¥įà¤¯": 1130,
      "Ġà¤Ĩà¤ªà¤ķà¥ĩ": 1131,
      "Ġà¤Ĺà¥Ī": 1132,
      "à¤ķà¤°à¤£": 1133,
      "à¤²à¤¿à¤ı": 1134,
      "à¥ĭà¤¤": 1135,
      "Ġà¤ķà¤Ĥà¤ª": 1136,
      "Ġà¤®à¤¹à¤¿à¤²": 1137,
      "à¤°à¥įà¤¸": 1138,
      "à¤¾à¤Ĥà¤¸": 1139,
      "Ġà¤µà¤¿à¤µà¤°à¤£": 1140,
      "à¤²à¥ĭà¤Ĥ": 1141,
      "Ġà¤¯à¥Ĥ": 1142,
      "à¤¾à¤¡à¤¼": 1143,
      "Ġà¤¡à¥ĩà¤Ł": 1144,
      "Ġà¤µà¤¿à¤¸à¥įà¤¤à¤¾à¤°": 1145,
      "Ġà¤ķà¤°à¤ķà¥ĩ": 1146,
      "Ġà¤¸à¥ģà¤°": 1147,
      "Ġà¤ªà¤¾à¤¨à¥Ģ": 1148,
      "Ġà¤Ĩà¤§à¤¾à¤°": 1149,
      "Ġà¤°à¥ĭà¤Ĺ": 1150,
      "\"\"": 1151,
      "Ġà¤¦à¥ĭà¤¨à¥ĭà¤Ĥ": 1152,
      "à¤¿à¤¤à¤¾": 1153,
      "Ġon": 1154,
      "Ġà¤ªà¥ģ": 1155,
      "Ġà¤ªà¥įà¤°à¤¤à¥įà¤¯": 1156,
      "à¥įà¤¯à¤¾à¤²à¤¯": 1157,
      "à¥ĩà¤¯": 1158,
      "à¥Ģà¤¡": 1159,
      "Ġà¤®à¤¾à¤§": 1160,
      "Ġà¤¸à¥įà¤µà¤¾à¤¸à¥įà¤¥à¥įà¤¯": 1161,
      "à¥ģà¤Ĩ": 1162,
      "Ġà¤Łà¥įà¤°": 1163,
      "Ġà¤ł": 1164,
      "ce": 1165,
      "Ġà¤¤à¥ģà¤²": 1166,
      "à¤¿à¤¬": 1167,
      "à¥ĥà¤·": 1168,
      "),": 1169,
      "Ġà¤µà¤¿à¤ľà¥įà¤ŀà¤¾à¤¨": 1170,
      "Ġà¤²à¥ĩà¤ĸ": 1171,
      "à¥ĭà¤·": 1172,
      "à¤Łà¤¨": 1173,
      "Ġà¤¸à¤Ĥà¤¯": 1174,
      "Ġà¤®à¤¨": 1175,
      "Ġà¤µà¥įà¤¯à¤µ": 1176,
      "Ġà¤¨à¤¿à¤¯": 1177,
      "à¤ļà¥ĩ": 1178,
      "ir": 1179,
      "Ġà¤®à¤¾à¤§à¥įà¤¯à¤®": 1180,
      "à¥įà¤Ĺ": 1181,
      "Ġà¤¤à¤°à¥Ģ": 1182,
      "Ġà¤¹à¤°": 1183,
      "à¤Ĥà¤ĸ": 1184,
      "à¤°à¥įà¤ļ": 1185,
      "Ġà¤¸à¤°à¤ķà¤¾à¤°": 1186,
      "à¥ĭà¤¡à¤¼": 1187,
      "à¤¦à¤¾": 1188,
      "Ġà¤ĩà¤¸à¤²à¤¿à¤ı": 1189,
      "à¤¿à¤¯à¤¨": 1190,
      "Ġà¤¬à¤¿à¤Ĥà¤¦": 1191,
      "à¤¾à¤¨à¥įà¤¯": 1192,
      "un": 1193,
      "Ġà¤¸à¤®à¥Ĥà¤¹": 1194,
      "ĠĠĠ": 1195,
      "Ġà¤ľà¤¿à¤¸à¥ĩ": 1196,
      "Ġà¤Ĩà¤¸": 1197,
      "Ġà¤ľà¤¾à¤¤à¥ĩ": 1198,
      "à¤¿à¤£à¤¾à¤®": 1199,
      "Ġà¤ªà¥įà¤°à¤£": 1200,
      "à¤¾à¤¹à¤°à¤£": 1201,
      "Ġà¤¬à¤ļà¥įà¤ļà¥ĭà¤Ĥ": 1202,
      "Ġà¤Ŀ": 1203,
      "Ġà¤µà¤¿à¤ļ": 1204,
      "à¤°à¥įà¤¡": 1205,
      "Ġà¤¸à¤Ĥà¤°": 1206,
      "Ġà¤µà¤¿à¤¸à¥įà¤¤à¥ĥà¤¤": 1207,
      "Ġà¤¬à¤¨à¤¾à¤¨à¥ĩ": 1208,
      "Ġà¤¦à¥ĥ": 1209,
      "ut": 1210,
      "Ġà¤īà¤ļà¥įà¤ļ": 1211,
      "à¤¿à¤ļ": 1212,
      "Ġà¤ªà¥įà¤°à¤µ": 1213,
      "Ġà¤ķà¥ī": 1214,
      "Ġà¤¬à¤¦à¤²": 1215,
      "à¤¦à¤¾à¤¨": 1216,
      "à¥ĭà¤°à¥įà¤Ł": 1217,
      "..": 1218,
      "à¥ĭà¤ľà¤¨à¤¾": 1219,
      "ĠR": 1220,
      "Ġà¤ľà¤¾à¤¨à¤¾": 1221,
      "Ġà¤®à¤§": 1222,
      "à¤¿à¤Ń": 1223,
      "Ġà¤ªà¤°à¤¿à¤£à¤¾à¤®": 1224,
      "Ġà¤µà¤¿à¤¦": 1225,
      "Ġà¤ļà¤¿à¤ķ": 1226,
      "à¤¿à¤¯à¥ĭ": 1227,
      "Ġà¤¤à¥ģà¤²à¤¨à¤¾": 1228,
      "Ġà¤¤à¥Ģà¤¨": 1229,
      "Ġà¤¸à¤Ĥà¤ĸ": 1230,
      "à¤ªà¥Ģ": 1231,
      "ot": 1232,
      "Ġà¤¸à¤Ĥà¤¦": 1233,
      "à¤¸à¥įà¤¯": 1234,
      "Ġà¤®à¤¾à¤®": 1235,
      "Ġà¤ªà¤°à¥Ģ": 1236,
      "à¤µà¤¿à¤¦": 1237,
      "Ġà¤ķà¥ĭà¤¶": 1238,
      "à¤¾à¤¤à¥įà¤°à¤¾": 1239,
      "Ġà¤®à¥ĩ": 1240,
      "Ġà¤Ńà¥Ĥà¤®": 1241,
      "Ġà¤¬à¤¾à¤¹": 1242,
      "à¤¿à¤·à¥įà¤ķ": 1243,
      "Ġà¤Ńà¤¾à¤Ĺ": 1244,
      "à¤¶à¥įà¤ļ": 1245,
      "-à¤ħ": 1246,
      "Ġà¤¸à¥įà¤¤à¤°": 1247,
      "Ġà¤¤à¤¥à¥įà¤¯": 1248,
      "Ġà¤¬à¤¿à¤Ĥà¤¦à¥ģ": 1249,
      "Ġà¤®à¥ģ": 1250,
      "Ġà¤ĸà¥ĭà¤ľ": 1251,
      "Ġà¤¯à¥ĩ": 1252,
      "à¤°à¥įà¤Ĺ": 1253,
      "à¥ģà¤¨à¤¿à¤¯à¤¾": 1254,
      "Ġà¤īà¤®": 1255,
      "Ġà¤¸à¤Ĥà¤Ńà¤¾à¤µ": 1256,
      "Ġà¤Ńà¤¾à¤·": 1257,
      "Ġà¤ļà¥Ģ": 1258,
      "Ġà¤²à¤Ĥà¤¬": 1259,
      "à¤¾à¤ł": 1260,
      "à¤®à¥Ģ": 1261,
      "à¥įà¤«": 1262,
      "Ġà¤¬à¤ļ": 1263,
      "ĠB": 1264,
      "Ġà¤¦à¥ĩà¤¨à¥ĩ": 1265,
      "à¥ĩà¤ĸ": 1266,
      "Ġà¤ªà¥įà¤°à¤®à¥ģà¤ĸ": 1267,
      "à¤¡à¥Ģ": 1268,
      "Ġà¤µà¤¿à¤Ńà¤¿à¤¨à¥įà¤¨": 1269,
      "Ġà¤Ĩà¤§": 1270,
      "Ġst": 1271,
      "Ġà¤ħà¤¤": 1272,
      "Ġà¤ļà¤¿à¤ķà¤¿à¤¤": 1273,
      "us": 1274,
      "Ġà¤Ĳà¤¸à¤¾": 1275,
      "à¤¾à¤Ń": 1276,
      "Ġà¤īà¤¦à¤¾à¤¹à¤°à¤£": 1277,
      "à¥ģà¤Ŀà¥ĩ": 1278,
      "à¥īà¤ķ": 1279,
      "à¤ľà¤¿à¤ı": 1280,
      "Ġà¤¨à¤ı": 1281,
      "ra": 1282,
      "Ġà¤ķà¥įà¤²": 1283,
      "à¤¾à¤ĩà¤¡": 1284,
      "ment": 1285,
      "Ġà¤īà¤¸à¥ĩ": 1286,
      "à¤¸à¥įà¤Ł": 1287,
      "ow": 1288,
      "Ġà¤«à¤¿à¤²": 1289,
      "à¤¬à¥Ģ": 1290,
      "Ġà¤µà¥įà¤¯à¤ķà¥įà¤¤à¤¿": 1291,
      "Ġà¤¹à¤®à¤¾à¤°à¥ĩ": 1292,
      "000": 1293,
      "Ġà¤²à¤¿à¤ĸ": 1294,
      "Ġà¤¦à¥ģà¤¨à¤¿à¤¯à¤¾": 1295,
      "Ġà¤ħà¤¨à¥ģà¤¸à¤¾à¤°": 1296,
      "à¥ĭà¤¡": 1297,
      "Ġà¤¸à¥įà¤ķà¥Ĥà¤²": 1298,
      "Ġà¤ļà¥ģà¤¨": 1299,
      "à¤°à¥įà¤Ł": 1300,
      "Ġà¤ĸà¤¿à¤²": 1301,
      "ig": 1302,
      ")à¥¤": 1303,
      "Ġà¤¡à¥ĩà¤Łà¤¾": 1304,
      "Ġà¤¤à¥Ī": 1305,
      "Ġà¤ªà¥įà¤°à¤¦à¤°à¥įà¤¶": 1306,
      "à¤ıà¤ķ": 1307,
      "Ġà¤ķà¤¾à¤°à¥įà¤¯à¤ķà¥įà¤°à¤®": 1308,
      "à¥¤\"": 1309,
      "Ġà¤¦à¤ķà¥įà¤·": 1310,
      "à¤µà¤°": 1311,
      "à¥įà¤¦à¥Ģ": 1312,
      "à¥įà¤¯à¥ĭà¤Ĺ": 1313,
      "Ġà¤¸à¤«": 1314,
      "Ġà¤¸à¤Ĥà¤ª": 1315,
      "Ġà¤ħà¤®à¥ĩà¤°à¤¿à¤ķà¤¾": 1316,
      "Ġà¤§à¥įà¤¯à¤¾à¤¨": 1317,
      "à¤¿à¤«": 1318,
      "Ġà¤ĺà¤°": 1319,
      "à¤¿à¤¶à¥įà¤ļ": 1320,
      "Ġà¤ªà¥įà¤°à¤¤à¥įà¤¯à¥ĩà¤ķ": 1321,
      "à¤¿à¤¦à¥įà¤§": 1322,
      "Ġà¤¯à¥ĭà¤Ĺ": 1323,
      "Ġà¤ķà¥Ģà¤ľà¤¿à¤ı": 1324,
      "15": 1325,
      "Ġà¤ķà¤Ńà¥Ģ": 1326,
      "à¤µà¤¾à¤°": 1327,
      "Ġà¤ªà¤°à¤¿à¤µà¤°à¥įà¤¤": 1328,
      "Ġà¤¸à¤Ĥà¤ĺ": 1329,
      "à¥Īà¤ķ": 1330,
      "à¤Ĥà¤¬à¤°": 1331,
      "Ġà¤«à¤¼": 1332,
      "Ġà¤¬à¤ľ": 1333,
      "à¤ľà¥įà¤ŀà¤¾à¤¨à¤¿à¤ķ": 1334,
      "Ġà¤Ĺà¤£": 1335,
      "ill": 1336,
      "à¤¤à¤¾à¤ĵà¤Ĥ": 1337,
      "Ġà¤¬à¤¡à¤¼à¥ĩ": 1338,
      "à¥Īà¤²": 1339,
      "à¥ĥà¤¤à¤¿": 1340,
      "à¤ªà¥įà¤¤": 1341,
      "Ġà¤ļà¤¾à¤°": 1342,
      "Ġà¤°à¤¾à¤·à¥įà¤Łà¥įà¤°à¥Ģà¤¯": 1343,
      "à¤ļà¤¨à¤¾": 1344,
      "à¤¿à¤·à¥įà¤Ł": 1345,
      "Ġà¤¸à¥įà¤¥à¤¿à¤¤à¤¿": 1346,
      "Ġà¤¨à¤¿à¤°à¥įà¤®à¤¾à¤£": 1347,
      "Ġà¤ªà¥įà¤°à¤¤à¤¿": 1348,
      "Ġà¤°à¤Ĥà¤Ĺ": 1349,
      "à¤¿à¤¶à¥įà¤ļà¤¿à¤¤": 1350,
      "Ġà¤¨à¥įà¤¯à¥Ĥ": 1351,
      "Ġà¤Ńà¤¾à¤°à¤¤": 1352,
      "Ġà¤¸à¤®à¤¾à¤¨": 1353,
      "ul": 1354,
      "Ġà¤¦à¥ĩà¤¤à¤¾": 1355,
      "Ġà¤īà¤ªà¤ķà¤°à¤£": 1356,
      "Ġà¤¸à¤Ĥà¤ĸà¥įà¤¯à¤¾": 1357,
      "à¤¾à¤µà¤°à¤£": 1358,
      "à¤¿à¤¨à¤¾": 1359,
      "12": 1360,
      "à¤¾à¤¯à¤°": 1361,
      "Ġwh": 1362,
      "à¤¾à¤¨à¥ĭà¤Ĥ": 1363,
      "Ġà¤¸à¤¾à¤®à¤¾à¤¨à¥įà¤¯": 1364,
      "Ġà¤«à¥įà¤°": 1365,
      "Ġà¤īà¤¸à¤ķà¥ĩ": 1366,
      "Ġà¤¬à¤²": 1367,
      "Ġà¤¸à¥ģà¤¨": 1368,
      "Ġà¤ľà¤¿à¤¨à¥įà¤¹": 1369,
      "\",": 1370,
      "à¤¿à¤ķà¤¾à¤°": 1371,
      "à¤¾à¤²à¤¾": 1372,
      "à¤µà¤¾à¤¦": 1373,
      "Ġà¤ªà¤¾à¤ł": 1374,
      "à¤¾à¤Ĥà¤Ĺ": 1375,
      "Ġà¤¹à¥Ĥ": 1376,
      "Ġà¤ªà¤¿à¤": 1377,
      "-à¤ķ": 1378,
      "à¤¡à¤¼à¥ĭà¤Ĥ": 1379,
      "ĠD": 1380,
      "Ġà¤ħà¤°à¥įà¤¥": 1381,
      "à¤°à¥įà¤ľà¤¾": 1382,
      "Ġà¤Ĩà¤ľ": 1383,
      "à¤ıà¤¸": 1384,
      "Ġà¤¬à¤ļà¥įà¤ļà¥ĩ": 1385,
      "à¤¾à¤ĩà¤²": 1386,
      "Ġà¤µà¥įà¤¯à¤¾à¤ª": 1387,
      "Ġà¤ĩà¤¤à¤¿à¤¹à¤¾à¤¸": 1388,
      "Ġà¤®à¥ģà¤Ŀà¥ĩ": 1389,
      "Ġà¤ªà¤¢à¤¼": 1390,
      "à¤¸à¤¿à¤¤": 1391,
      "à¥ĩà¤ľà¥Ģ": 1392,
      "ers": 1393,
      "Ġà¤ľà¥ģ": 1394,
      "à¤µà¤°à¥įà¤§": 1395,
      "Ġà¤ªà¤¹à¥ģ": 1396,
      "à¤ľà¤¾à¤¤": 1397,
      "à¤¿à¤¸à¥įà¤Ł": 1398,
      "à¥ĩà¤¤à¥ģ": 1399,
      "Ġà¤ħà¤§à¤¿à¤ķà¤¾à¤Ĥà¤¶": 1400,
      "à¤®à¤¾à¤°": 1401,
      "Ġal": 1402,
      "Ġà¤ªà¤¹à¥ģà¤Ĥà¤ļ": 1403,
      "ĠIn": 1404,
      "res": 1405,
      "Ġà¤ªà¥įà¤°à¤ķà¥įà¤°": 1406,
      "Ġà¤ªà¥ģà¤¸à¥įà¤¤": 1407,
      "ĠG": 1408,
      "à¤¯à¤¹": 1409,
      "à¤¸à¤¨": 1410,
      "à¥ĩà¤¶à¤¨": 1411,
      "ly": 1412,
      "à¤µà¤¿à¤¦à¥įà¤¯à¤¾à¤²à¤¯": 1413,
      "Ġà¤¢": 1414,
      "à¥Ĥà¤¦": 1415,
      "à¤Ĺà¥įà¤°à¤¹": 1416,
      "Ġà¤¦à¤ķà¥įà¤·à¤¿à¤£": 1417,
      "ak": 1418,
      "à¥ģà¤ĵà¤Ĥ": 1419,
      "à¤¸à¤®": 1420,
      "Ġà¤¡à¤¾à¤²à¥ĩà¤Ĥ": 1421,
      "Ġà¤¹à¥ĩà¤¤à¥ģ": 1422,
      "Ġà¤ķà¤¾à¤¨": 1423,
      "à¤µà¤°à¥įà¤§à¤¨": 1424,
      "Ġà¤¸à¤¾à¤°": 1425,
      "à¤¤à¤¿à¤ķ": 1426,
      "à¤ķà¥įà¤·à¤¿à¤¤": 1427,
      "Ġà¤¸à¤¹à¤¾à¤¯à¤ķ": 1428,
      "à¤¿à¤¯à¤°": 1429,
      "à¥įà¤¶": 1430,
      "Ġà¤¹à¥ĭà¤Ĥ": 1431,
      "à¤°à¤¾à¤¬": 1432,
      "Ġà¤µà¤¿à¤ķà¤¸à¤¿à¤¤": 1433,
      "Ġà¤®à¥Ĥà¤²à¥įà¤¯": 1434,
      "Ġà¤ľà¤¿à¤²": 1435,
      "Ġà¤ĸà¥ĩà¤²": 1436,
      "Ġà¤¯à¥ģ": 1437,
      "Ġà¤¬à¤¤à¤¾à¤ıà¤Ĥ": 1438,
      "Ġà¤¡à¤¿à¤ľ": 1439,
      "à¤Ĥà¤¶": 1440,
      "Ġà¤µà¤¿à¤¶à¥įà¤µà¤µà¤¿à¤¦à¥įà¤¯à¤¾à¤²à¤¯": 1441,
      "Ġà¤¤à¥Īà¤¯": 1442,
      "à¤¾à¤ĥ": 1443,
      "Ġà¤ªà¤°à¥Ģà¤ķà¥įà¤·à¤£": 1444,
      "à¤ķà¥įà¤¸à¤°": 1445,
      "à¥ĭà¤¬": 1446,
      "Ġà¤¸à¤Ĥà¤¬à¤Ĥà¤§à¤¿à¤¤": 1447,
      "à¤£à¥įà¤¡": 1448,
      "Ġà¤Ľà¥ĭà¤Łà¥ĩ": 1449,
      "Ġà¤¤à¤¾à¤ķ": 1450,
      "em": 1451,
      "Ġà¤ľà¤¬à¤ķà¤¿": 1452,
      "Ġà¤²à¤¿à¤¯à¤¾": 1453,
      "Ġà¤µà¤¾à¤²à¤¾": 1454,
      "Ġà¤ªà¥Ĥà¤°à¥Ģ": 1455,
      "Ġà¤Ĩà¤¦": 1456,
      "Ġà¤Ńà¤°": 1457,
      "Ġà¤ªà¥įà¤°à¤£à¤¾à¤²à¥Ģ": 1458,
      "Ġà¤®à¤ľ": 1459,
      "à¥ĥà¤¤à¤¿à¤ķ": 1460,
      "Ġà¤®à¤¾à¤¨à¤µ": 1461,
      "Ġà¤Ĭà¤°à¥įà¤ľà¤¾": 1462,
      "Ġà¤ıà¤ļ": 1463,
      "Ġà¤²à¤¾à¤Ĺ": 1464,
      "Ġà¤¶à¤¹à¤°": 1465,
      "à¥Ĥà¤¤": 1466,
      "à¤¾à¤Ĥà¤ķ": 1467,
      "Ġà¤ªà¥įà¤°à¤¸": 1468,
      "à¥ģà¤Ń": 1469,
      "Ġà¤µà¤¿à¤§": 1470,
      "Ġà¤Ĩà¤ķ": 1471,
      "Ġà¤¸à¤¦": 1472,
      "à¤ľà¥įà¤ŀà¤¾à¤¨à¤µà¤°à¥įà¤§à¤¨": 1473,
      "à¤Ĩà¤ª": 1474,
      "à¥ĥà¤¦à¥įà¤§": 1475,
      "Ġà¤µà¤¿à¤ļà¤¾à¤°": 1476,
      "ri": 1477,
      "Ġà¤¤à¤¬": 1478,
      "Ġà¤ħà¤ķà¥įà¤¸à¤°": 1479,
      "Ġà¤¬à¥ĩà¤¹": 1480,
      "Ġà¤¸à¤¿à¤Ĥ": 1481,
      "Ġà¤Ĺà¤¤": 1482,
      "Ġà¤ªà¥Ĥà¤°": 1483,
      "à¤ļà¤¾à¤¨": 1484,
      "Ġà¤ªà¤¿à¤Ľ": 1485,
      "Ġà¤¨à¥Ģà¤ļà¥ĩ": 1486,
      "ith": 1487,
      "Ġthat": 1488,
      "Ġà¤ıà¤«": 1489,
      "Ġà¤ªà¥įà¤²": 1490,
      "Ġà¤¦à¤¿à¤²": 1491,
      "Ġà¤¸à¤®à¤Ŀà¤¾à¤ıà¤Ĥ": 1492,
      "Ġà¤¨à¤¿à¤¯à¤Ĥà¤¤à¥įà¤°": 1493,
      "Ġà¤µà¤¿à¤¨": 1494,
      "ist": 1495,
      "ĠN": 1496,
      "Ġà¤Ĺà¤°à¥įà¤®": 1497,
      "à¥ĩà¤Ĺà¤¾": 1498,
      "à¤¬à¤°": 1499,
      "17": 1500,
      "Ġà¤ķà¥Į": 1501,
      "Ġà¤ħà¤²à¤¾à¤µà¤¾": 1502,
      "Ġà¤¸à¤Ĥà¤Ń": 1503,
      "Ġà¤¯à¥ģà¤¦à¥įà¤§": 1504,
      "Ġà¤¦à¤°": 1505,
      "à¤Ĥà¤Ń": 1506,
      "od": 1507,
      "Ġà¤¬à¤¾à¤¹à¤°": 1508,
      "Ġà¤ħà¤Ńà¥Ģ": 1509,
      "à¤ķà¤¾à¤²": 1510,
      "à¥Ĥà¤Ł": 1511,
      "à¤¬à¥įà¤²": 1512,
      "Ġà¤¹à¥Īà¤ĥ": 1513,
      "à¤¾à¤Ĥà¤ķà¤¿": 1514,
      "Ġy": 1515,
      "§à¤¾à¤°": 1516,
      "Ġà¤¦à¥Ĥà¤°": 1517,
      "Ġà¤īà¤¨à¤ķà¤¾": 1518,
      "Ġà¤¸à¤°à¥įà¤µ": 1519,
      "à¤µà¥įà¤¯": 1520,
      "Ġà¤ªà¤¤à¥įà¤°": 1521,
      "ag": 1522,
      "ab": 1523,
      "à¤Ĥà¤Łà¥Ģ": 1524,
      "ere": 1525,
      "Ġà¤¶à¥Ģ": 1526,
      "à¤²à¤¬à¥įà¤§": 1527,
      "Ġà¤¸à¥įà¤¥à¤¾à¤ª": 1528,
      "Ġà¤µà¥Īà¤ľà¥įà¤ŀà¤¾à¤¨à¤¿à¤ķ": 1529,
      "Ġà¤¶à¥ģà¤°à¥ģà¤Ĩ": 1530,
      "Ġà¤µà¤°à¥įà¤Ĺ": 1531,
      "Ġà¤®à¤¤": 1532,
      "Ġà¤¦à¥ĩà¤¤à¥ĩ": 1533,
      "Ġà¤¸à¤Ĥà¤¯à¥ģà¤ķà¥įà¤¤": 1534,
      "Ġà¤¤à¤¹": 1535,
      "50": 1536,
      "Ġà¤¹à¤®à¥ĩà¤Ĥ": 1537,
      "Ġà¤ħà¤®à¥ĩà¤°à¤¿à¤ķà¥Ģ": 1538,
      "à¤¨à¤²": 1539,
      "à¤¾à¤«à¥Ģ": 1540,
      "à¤¸à¤¾à¤¯": 1541,
      "à¤Ĥà¤¦à¤°": 1542,
      "Ġà¤ļà¤¿à¤ķà¤¿à¤¤à¥įà¤¸à¤¾": 1543,
      "Ġà¤µà¤°à¥įà¤·à¥ĭà¤Ĥ": 1544,
      "Ġà¤²à¤¡à¤¼": 1545,
      "à¤Ĺà¤°": 1546,
      "à¤Ĺà¥įà¤°à¥Ģ": 1547,
      "à¤°à¥Ģà¤°": 1548,
      "Ġà¤¸à¤Ĥà¤¸à¥įà¤ķ": 1549,
      "30": 1550,
      "à¤ľà¥Ģ": 1551,
      "ĠK": 1552,
      "Ġà¤īà¤ªà¤²à¤¬à¥įà¤§": 1553,
      "à¤¾à¤²à¤¨": 1554,
      "à¥įà¤®à¥Ģ": 1555,
      "Ġà¤Ľà¤¾à¤¤à¥įà¤°à¥ĭà¤Ĥ": 1556,
      "Ġà¤ħà¤Ĥà¤Ĺ": 1557,
      "à¥īà¤¡": 1558,
      "Ġà¤¦à¥ĩà¤ĸà¥ĩà¤Ĥ": 1559,
      "à¤®à¤¿à¤ķ": 1560,
      "à¤¨à¥įà¤¨": 1561,
      "Ġà¤¯à¤¹à¤¾à¤ģ": 1562,
      "Ġà¤µà¥Ģ": 1563,
      "Ġà¤ªà¥ģà¤¨": 1564,
      ".)": 1565,
      "à¤µà¤¾à¤²": 1566,
      "Ġà¤ķà¥įà¤·à¥ĩà¤¤à¥įà¤°à¥ĭà¤Ĥ": 1567,
      "Ġà¤ķà¤²": 1568,
      "à¥ĭà¤¹": 1569,
      "à¤¶à¥įà¤ļà¤¿à¤®": 1570,
      "à¤¾à¤¤à¥Ģ": 1571,
      "à¤²à¤Ĺ": 1572,
      "Ġà¤¬à¤¨à¤¾": 1573,
      "à¤¾à¤ģà¤ķà¤¿": 1574,
      "est": 1575,
      "à¤ķà¥įà¤¤à¤¿": 1576,
      "Ġà¤ļà¥ģ": 1577,
      "Ġà¤¤à¤¾à¤ķà¤¿": 1578,
      "Ġà¤¦à¤¶": 1579,
      "à¥ĭà¤«": 1580,
      "à¤ķà¤°à¥įà¤¤à¤¾à¤ĵà¤Ĥ": 1581,
      "à¥ĩà¤ª": 1582,
      "Ġà¤ªà¥ģà¤¸à¥įà¤¤à¤ķ": 1583,
      "Ġà¤ªà¥įà¤°à¤¯": 1584,
      "à¤ķà¥ĩà¤¤": 1585,
      "Ġcon": 1586,
      "-à¤ľ": 1587,
      "Ġà¤¨à¤¿à¤µ": 1588,
      "Ġà¤ĺà¤Ł": 1589,
      "Ġà¤īà¤¤à¥įà¤ªà¤¾à¤¦à¤¨": 1590,
      "Ġà¤¸à¥Ĥà¤ļà¥Ģ": 1591,
      "Ġà¤¹à¥ĭà¤¨à¤¾": 1592,
      "199": 1593,
      "Ġà¤°à¤¿à¤ª": 1594,
      "Ġà¤ľà¤¿à¤¸à¤¸à¥ĩ": 1595,
      "Ġà¤¤à¤ķà¤¨à¥Ģ": 1596,
      "Ġà¤¶à¤°à¥Ģà¤°": 1597,
      "Ġà¤Ĺà¤¿à¤°": 1598,
      "à¤¾à¤®à¥Ģ": 1599,
      "Ġà¤µà¤°à¥įà¤¤": 1600,
      "16": 1601,
      "Ġà¤²à¤¾à¤Ń": 1602,
      "um": 1603,
      "Ġà¤¸à¤¾à¤®à¤Ĺà¥įà¤°à¥Ģ": 1604,
      "os": 1605,
      "Ġà¤«à¤¿à¤²à¥įà¤®": 1606,
      "Ġà¤²à¥ĩà¤ķà¤°": 1607,
      "Ġà¤¸à¤Ĥà¤¸": 1608,
      "Ġà¤¬à¤¡à¤¼à¥Ģ": 1609,
      "Ġà¤Ńà¥Ĥ": 1610,
      "Ġà¤¸à¥Ģà¤ĸ": 1611,
      "Ġà¤ªà¥ģà¤²": 1612,
      "à¤ľà¤°": 1613,
      "hi": 1614,
      "à¤¿à¤ķà¥ĭ": 1615,
      "Ġà¤¨à¤¿à¤°à¥įà¤§à¤¾à¤°": 1616,
      "Ġà¤¬à¤¿à¤¨à¤¾": 1617,
      "à¥ģà¤¶": 1618,
      "Ġà¤¹à¤¾à¤²à¤¾à¤ģà¤ķà¤¿": 1619,
      "à¤¾à¤¯à¥ģ": 1620,
      "Ġà¤ľà¤¾à¤°à¥Ģ": 1621,
      "Ġà¤ħà¤ªà¤¨à¤¾": 1622,
      "à¤¾à¤¦à¥įà¤¯": 1623,
      "à¥įà¤µà¤°": 1624,
      "à¤¬à¤²": 1625,
      "Ġà¤ľà¤¾à¤Ĥà¤ļ": 1626,
      "à¥ĩà¤Ĥà¤¸": 1627,
      "à¤¤à¥Ģà¤¯": 1628,
      "Ġà¤°à¥ĭà¤ķ": 1629,
      "Ġà¤¶à¤¿à¤ķà¥įà¤·à¤¾": 1630,
      "à¥ĩà¤·à¤£": 1631,
      "Ġà¤ªà¤°à¤¿à¤µà¤°à¥įà¤¤à¤¨": 1632,
      "Ġà¤¹à¤¾à¤²à¤¾à¤Ĥà¤ķà¤¿": 1633,
      "Ġà¤ªà¤°à¤¿à¤µà¤¾à¤°": 1634,
      "à¤¿à¤ķà¥įà¤°": 1635,
      "Ġà¤Ĩà¤Ĺà¥ĩ": 1636,
      "Ġv": 1637,
      "Ġà¤Ńà¤¾à¤·à¤¾": 1638,
      "Ġà¤ľà¤¾à¤ıà¤Ĺà¤¾": 1639,
      "à¤µà¤¾à¤¬": 1640,
      "Ġà¤¨à¤¿à¤¯à¤®": 1641,
      "à¤²à¥ĩà¤ķ": 1642,
      "Ġas": 1643,
      "Ġà¤īà¤²": 1644,
      "Ġà¤¤à¥Īà¤¯à¤¾à¤°": 1645,
      "Ġà¤ªà¥įà¤°à¤ķà¥įà¤°à¤¿à¤¯à¤¾": 1646,
      "op": 1647,
      "Ġà¤Ĩà¤ķà¤¾à¤°": 1648,
      "Ġà¤ªà¥Ĥà¤°à¤¾": 1649,
      "à¤¤à¤®": 1650,
      "Ġà¤ªà¤¡à¤¼": 1651,
      "Ġà¤ħà¤ļà¥įà¤Ľà¤¾": 1652,
      "Ġà¤¹à¥ĭà¤Ĺà¥Ģ": 1653,
      "Ġà¤Ńà¥ĭà¤ľà¤¨": 1654,
      "à¥Ģà¤ķà¤°à¤£": 1655,
      "à¤¾à¤¸à¤¨": 1656,
      "à¤ľà¥įà¤ŀ": 1657,
      "Ġà¤ªà¤¹à¤ļà¤¾à¤¨": 1658,
      "Ġà¤ªà¥įà¤°à¤¶à¥įà¤¨": 1659,
      "Ġà¤Ĺà¥ģà¤£": 1660,
      "à¤ķà¥įà¤·à¤®": 1661,
      "Ġà¤¨à¤Ī": 1662,
      "Ġà¤ªà¥įà¤°à¤Ńà¤¾à¤µà¤¿à¤¤": 1663,
      "Ġà¤ļà¤°à¥įà¤ļ": 1664,
      "Ġà¤ªà¥Į": 1665,
      "à¤Łà¥Ģ": 1666,
      "à¤¾à¤¯à¤¦": 1667,
      "Ġwith": 1668,
      "Ġà¤ªà¥įà¤°à¤¯à¥ĭà¤Ĺ": 1669,
      "à¤¾à¤¡à¤¼à¥Ģ": 1670,
      "-à¤¬": 1671,
      "Ġà¤¸à¤®à¤°à¥įà¤¥": 1672,
      "à¤ľà¥Ĥà¤¦": 1673,
      "Ġà¤ªà¥įà¤°à¤¯à¤¾à¤¸": 1674,
      "Ġhas": 1675,
      "à¤¸à¥įà¤¥à¤¾": 1676,
      "Ġà¤ªà¤¦à¤¾à¤°": 1677,
      "Ġà¤µà¤¿à¤¤": 1678,
      "Ġà¤¬à¤¤à¤¾à¤¯à¤¾": 1679,
      "Ġà¤ªà¤ķà¥įà¤·": 1680,
      "ec": 1681,
      "Ġà¤¸à¤Ĥà¤ķà¥ĩà¤¤": 1682,
      "Ġà¤¦à¥ĥà¤·à¥įà¤Ł": 1683,
      "Ġwas": 1684,
      "Ġà¤ªà¤¿à¤Ľà¤²à¥ĩ": 1685,
      "Ġà¤ªà¤¦à¤¾à¤°à¥įà¤¥": 1686,
      "Ġà¤ªà¤¹à¤²à¥Ģ": 1687,
      "Ġà¤µà¤¸à¥įà¤¤": 1688,
      "Ġà¤ķà¥įà¤·à¤®": 1689,
      "Ġà¤°à¤¿à¤ªà¥ĭà¤°à¥įà¤Ł": 1690,
      "oun": 1691,
      "à¥§": 1692,
      "à¥ľ": 1693,
      "Ġà¤¨à¤¿à¤°à¥įà¤¦": 1694,
      "Ġà¤¨à¤µ": 1695,
      "Ġà¤¦à¤°à¥įà¤¶": 1696,
      "Ġà¤ľà¥ĭà¤¡à¤¼": 1697,
      "Ġà¤Ľà¥ĭà¤¡à¤¼": 1698,
      "Ġà¤ħà¤ļà¥įà¤Ľà¥Ģ": 1699,
      "à¤¹à¤®": 1700,
      "Ġà¤µà¤°à¥įà¤¤à¤®à¤¾à¤¨": 1701,
      "Ġà¤¶à¥Ī": 1702,
      "Ġà¤¸à¥ģà¤°à¤ķà¥įà¤·à¤¾": 1703,
      "à¥ĭà¤µ": 1704,
      "âĢį": 1705,
      "à¥ĩà¤¯à¤°": 1706,
      "à¥ĥà¤¤à¥įà¤¯": 1707,
      "Ġà¤¸à¤¤": 1708,
      "Ġà¤µà¤°à¥įà¤£": 1709,
      "14": 1710,
      "Ġan": 1711,
      "à¤µà¥Ģà¤Ĥ": 1712,
      "à¥ĭà¤·à¤£": 1713,
      "Ġà¤¦à¤¿à¤ı": 1714,
      "Ġà¤¯à¥ĭà¤ľà¤¨à¤¾": 1715,
      "à¥ĩà¤µ": 1716,
      "Ġà¤ªà¥įà¤°à¤ľà¤¾à¤¤": 1717,
      "Ġit": 1718,
      "Ġà¤¹à¤¿à¤¸à¥įà¤¸": 1719,
      "à¤¿à¤¤à¥įà¤µ": 1720,
      "--------": 1721,
      "à¤¿à¤¥": 1722,
      "Ġà¤ĳà¤«": 1723,
      "Ġà¤Ĳà¤¸à¥ĩ": 1724,
      "if": 1725,
      "Ġà¤ķà¥ĭà¤¡": 1726,
      "Ġà¤¦à¥Ĥà¤¸à¤°à¥ĩ": 1727,
      "à¤¿à¤µà¤¿à¤§": 1728,
      "à¤¿à¤°à¥ĭà¤§": 1729,
      "à¤¸à¥įà¤ª": 1730,
      "à¤°à¥įà¤«": 1731,
      "Ġà¤µà¥ĩà¤¬": 1732,
      "à¤¦à¥įà¤¯à¥ĭà¤Ĺ": 1733,
      "Ġà¤¸à¤Ĥà¤¦à¤°à¥įà¤Ń": 1734,
      "à¤¤à¤Ĥà¤¤à¥įà¤°": 1735,
      "Ġà¤ªà¤¤": 1736,
      "Ġà¤¸à¤Ĥà¤Ĺ": 1737,
      "Ġà¤¸à¥ģà¤§à¤¾à¤°": 1738,
      "Ġà¤ªà¥įà¤°à¤¾à¤°": 1739,
      "à¥ĥà¤¦à¥įà¤§à¤¿": 1740,
      "Ġpro": 1741,
      "Ġà¤ķà¤¾à¤«à¥Ģ": 1742,
      "à¤¾à¤¹à¤¿à¤¤": 1743,
      "Ġà¤°à¤ĸà¤¨à¥ĩ": 1744,
      "Ġà¤ļà¥Į": 1745,
      "à¤ļà¤¿à¤¤": 1746,
      "Ġà¤ļà¤¿à¤¤à¥įà¤°": 1747,
      "Ġà¤ĩà¤¸à¤ķà¥Ģ": 1748,
      "à¤ķà¤°à¥įà¤¤à¤¾": 1749,
      "Ġà¤ľà¤¹à¤¾à¤ģ": 1750,
      "Ġà¤¤à¥Įà¤°": 1751,
      "Ġà¤ľà¤¨à¥įà¤®": 1752,
      "Ġà¤ªà¥ĩ": 1753,
      "Ġà¤Ĺà¤¤à¤¿à¤µà¤¿à¤§": 1754,
      "ĠIndi": 1755,
      "ĠĠĠĠĠĠĠĠ": 1756,
      "Ġà¤ħà¤¨à¥ģà¤Ń": 1757,
      "Ġà¤ĸà¤¾à¤¦à¥įà¤¯": 1758,
      "Ġà¤¶à¥ģà¤°à¥ģà¤Ĩà¤¤": 1759,
      "Ġà¤¨à¤¿à¤°à¥įà¤§à¤¾à¤°à¤¿à¤¤": 1760,
      "Ġha": 1761,
      "Ġà¤ķà¤®à¥Ģ": 1762,
      "Ġà¤īà¤¤à¥įà¤¤": 1763,
      "à¥įà¤²à¥Ģ": 1764,
      "à¤¾à¤ĩà¤ı": 1765,
      "Ġà¤¸à¥įà¤°": 1766,
      "à¥įà¤²à¥ĩà¤·à¤£": 1767,
      "Ġà¤¬à¥ĩà¤¹à¤¤à¤°": 1768,
      "Ġà¤®à¥īà¤¡": 1769,
      "Ġà¤ĩà¤¸à¤®à¥ĩà¤Ĥ": 1770,
      "Ġà¤Łà¥Ģà¤®": 1771,
      "à¤µà¤¾à¤Ī": 1772,
      "Ġà¤°à¤ķà¥įà¤¤": 1773,
      "Ġà¤§à¤¾à¤°": 1774,
      "Ġà¤®à¤¹à¥Ģ": 1775,
      "à¤¾à¤ķà¥ĥà¤¤à¤¿à¤ķ": 1776,
      "à¤Ĥà¤¸à¤°": 1777,
      "à¤¤à¥Įà¤°": 1778,
      "Ġà¤ªà¤°à¥įà¤¯à¤¾à¤µà¤°à¤£": 1779,
      "Ġà¤®à¤§à¥įà¤¯": 1780,
      "Ġà¤®à¤¾à¤°à¥įà¤Ĺ": 1781,
      "Ġà¤¸à¤®à¥Ģ": 1782,
      "à¤ıà¤®": 1783,
      "Ġà¤ıà¤µ": 1784,
      "Ġà¤µà¤¿à¤Ńà¤¾à¤Ĺ": 1785,
      "à¤®à¤¤à¤¿": 1786,
      "-à¤µ": 1787,
      "à¤¾à¤¸à¥Ģ": 1788,
      "rom": 1789,
      "Ġà¤¸à¥ĩà¤µà¤¾": 1790,
      "11": 1791,
      "Ġà¤īà¤ªà¤ļà¤¾à¤°": 1792,
      "à¤µà¤¾à¤ĵà¤Ĥ": 1793,
      "Ġà¤¬à¤¤à¤¾à¤ĩà¤ı": 1794,
      "Ġà¤®à¤¿à¤¶": 1795,
      "our": 1796,
      "Ġà¤ªà¥Įà¤§": 1797,
      "Ġà¤°à¥ģ": 1798,
      "Ġà¤¯à¤¾à¤¦": 1799,
      "Ġà¤µà¤¿à¤²": 1800,
      "Ġare": 1801,
      "Ġsa": 1802,
      "Ġà¤²à¥ĭà¤ķ": 1803,
      "à¤¸à¥įà¤¯à¤¾": 1804,
      "Ġà¤ªà¤°à¤¿à¤¯": 1805,
      "Ġà¤®à¥ģà¤¦": 1806,
      "à¥Ģà¤¸": 1807,
      "Ġà¤ªà¤¾à¤¯à¤¾": 1808,
      "à¤Ĩà¤Ī": 1809,
      "à¤¸à¤Ĥà¤¦": 1810,
      "ĠT": 1811,
      "Ġà¤®à¤¹à¤¿à¤²à¤¾à¤ĵà¤Ĥ": 1812,
      "Ġà¤ªà¤ķ": 1813,
      "Ġat": 1814,
      "Ġà¤ķà¤¿à¤¤": 1815,
      "Ġà¤ħà¤¦": 1816,
      "ain": 1817,
      "ĠJ": 1818,
      "Ġà¤²à¥ĩà¤¨à¥ĩ": 1819,
      "à¥¦": 1820,
      "Ġà¤Ĭà¤ªà¤°": 1821,
      "Ġà¤²à¥Ģ": 1822,
      "Ġà¤¦à¥ģ": 1823,
      "à¤ļà¤¾": 1824,
      "Ġà¤¬à¤¡à¤¼à¤¾": 1825,
      "pp": 1826,
      "à¥ĥà¤·à¥įà¤ł": 1827,
      "Ġà¤ķà¥Īà¤Ĥà¤¸à¤°": 1828,
      "Ġà¤ıà¤ķà¥įà¤¸": 1829,
      "à¤¤à¥ĭà¤Ĥ": 1830,
      "Ġà¤¸à¤Ĥà¤Ńà¤µ": 1831,
      "à¤¾à¤ľà¤¿à¤ķ": 1832,
      "Ġà¤ľà¤¿à¤¸à¤ķà¤¾": 1833,
      "Ġà¤¸à¤Ĥà¤Ĺà¥įà¤°à¤¹": 1834,
      "Ġà¤¸à¤Ĥà¤Ńà¤¾à¤µà¤¨à¤¾": 1835,
      "Ġà¤ĸà¥ģà¤¦": 1836,
      "Ġà¤µà¥ĥà¤¦à¥įà¤§à¤¿": 1837,
      "Ġà¤ªà¥įà¤°à¤¬à¤Ĥà¤§": 1838,
      "à¤ļà¤¨": 1839,
      "à¤ĩà¤¨": 1840,
      "Ġà¤¬à¥įà¤²": 1841,
      "à¤µà¤¿à¤§": 1842,
      "ect": 1843,
      "à¥įà¤¯à¤¾à¤¸": 1844,
      "Ġà¤¬à¤Ĥà¤¦": 1845,
      "Ġà¤ħà¤§à¤¿à¤ķà¤¾à¤°": 1846,
      "à¤¬à¥įà¤²à¥įà¤¯à¥Ĥ": 1847,
      "Ġà¤¸à¤¿à¤¦à¥įà¤§": 1848,
      "Ġà¤¬à¤¨à¤¾à¤ı": 1849,
      "Ġà¤¬à¤¨à¤¾à¤¯à¤¾": 1850,
      "Ġà¤¸à¤Ĥà¤¸à¤¾à¤§": 1851,
      "Ġà¤¸à¤®à¥įà¤®": 1852,
      "Ġà¤¸à¥įà¤°à¥ĭà¤¤": 1853,
      "Ġà¤¦à¥ĩà¤ĸà¤¾": 1854,
      "à¥įà¤®à¥Ģà¤¦": 1855,
      "Ġà¤¤à¤°à¥Ģà¤ķà¥ĩ": 1856,
      "Ġà¤®à¤ľà¤¬": 1857,
      "Ġà¤°à¤ĸà¤¾": 1858,
      "Ġà¤¸à¤Ĥà¤¸à¥įà¤¥": 1859,
      "Ġà¤ĩà¤²": 1860,
      "Ġà¤®à¤¾à¤¤à¥įà¤°à¤¾": 1861,
      "Ġà¤ªà¥įà¤°à¤¤à¤¿à¤ķà¥įà¤°": 1862,
      "ort": 1863,
      "à¤°à¥ĭ": 1864,
      "Ġà¤µà¤¾à¤ķ": 1865,
      "à¤¸à¥įà¤Łà¥įà¤°": 1866,
      "ew": 1867,
      "Ġà¤ªà¥įà¤°à¤¦à¤°à¥įà¤¶à¤¨": 1868,
      "Ġà¤¶à¥Ģà¤°à¥įà¤·": 1869,
      "Ġà¤¸à¤Ĥà¤ķà¥įà¤°à¤®": 1870,
      "Ġà¤¹à¤¿à¤¸à¥įà¤¸à¤¾": 1871,
      "Ġà¤«à¥Ī": 1872,
      "Ġà¤°à¤¹à¤¨à¥ĩ": 1873,
      "Ġà¤¸à¤Ĥà¤ļ": 1874,
      "Ġà¤¹à¥Īà¤Ĥà¤ĥ": 1875,
      "à¤ªà¥ģà¤°": 1876,
      "Ġà¤ªà¥ģà¤²à¤¿à¤¸": 1877,
      "Ġà¤¸à¤ķà¥ĩ": 1878,
      "Ġà¤Ĩà¤¨à¥ĩ": 1879,
      "Ġà¤ķà¤¹à¤¤à¥ĩ": 1880,
      "Ġby": 1881,
      "Ġwill": 1882,
      "Ġà¤¸à¥Īà¤¨": 1883,
      "Ġà¤¸à¤®à¤¸à¥įà¤¯à¤¾": 1884,
      "à¤¾à¤Ĥà¤¡": 1885,
      "Ġà¤Ĩà¤®à¤¤à¥Įà¤°": 1886,
      "Ġà¤µà¤¾à¤ª": 1887,
      "Ġà¤¨à¥Į": 1888,
      "à¤¾à¤ļà¤¾à¤°": 1889,
      "Ġà¤ªà¥įà¤°à¤¾à¤ķà¥ĥà¤¤à¤¿à¤ķ": 1890,
      "à¤¿à¤¸à¥įà¤¤": 1891,
      "Ġà¤µà¤¿à¤¶à¤¿à¤·à¥įà¤Ł": 1892,
      "à¤¨à¤¿à¤ķ": 1893,
      "Ġà¤ķà¥įà¤·à¤®à¤¤à¤¾": 1894,
      "Ġà¤ħà¤«": 1895,
      "Ġà¤µà¤¿à¤¶à¥įà¤²à¥ĩà¤·à¤£": 1896,
      "13": 1897,
      "Ġà¤«à¥įà¤²": 1898,
      "Ġà¤ľà¤¼": 1899,
      "Ġà¤Ńà¤¾à¤µ": 1900,
      "Ġà¤ľà¤Ĺ": 1901,
      "Ġà¤īà¤®à¥įà¤®à¥Ģà¤¦": 1902,
      "à¤¶à¥Ģà¤²": 1903,
      "à¤µà¤¨": 1904,
      "Ġà¤ķà¤°à¥ĩà¤Ĥà¤Ĺà¥ĩ": 1905,
      "à¤¶à¥įà¤µ": 1906,
      "à¤łà¤¨": 1907,
      "à¤¿à¤¯à¤¾à¤Ĥ": 1908,
      "Ġà¤¸à¥įà¤®": 1909,
      "à¤Ĥà¤¤à¥įà¤°à¥Ģ": 1910,
      "art": 1911,
      "Ġà¤ħà¤¨à¥ģà¤®à¤¾à¤¨": 1912,
      "Ġà¤µà¥įà¤¯à¤¾à¤ªà¤ķ": 1913,
      "Ġà¤Ńà¥Ĥà¤®à¤¿": 1914,
      "à¤¤à¤ĥ": 1915,
      "Ġà¤ķà¥ģà¤²": 1916,
      "Ġà¤ķà¤ª": 1917,
      "à¤µà¤¿à¤·à¥įà¤¯": 1918,
      "Ġà¤Ĩà¤¤": 1919,
      "Ġà¤®à¥Ģ": 1920,
      "Ġà¤µà¤¿à¤ķà¤²à¥įà¤ª": 1921,
      "Ġà¤ĸà¤¿à¤²à¤¾à¤«": 1922,
      "Ġà¤²à¤Ĺà¤¤à¤¾": 1923,
      "Ġà¤®à¤¾à¤®à¤²à¥ĩ": 1924,
      "à¥Ĥà¤°à¥įà¤¤": 1925,
      "à¤µà¤¿à¤ķ": 1926,
      "Ġà¤ķà¤ł": 1927,
      "Ġà¤¸à¤¹à¥Ģ": 1928,
      "Ġà¤ķà¤¾à¤²": 1929,
      "Ġà¤¸à¤ķà¥įà¤·à¤®": 1930,
      "Ġà¤¦à¥Ĥ": 1931,
      "Ġà¤ħà¤Ĺà¤°": 1932,
      "25": 1933,
      "Ġà¤ķà¥Īà¤²": 1934,
      "Ġcom": 1935,
      "à¥ĩà¤Ĥà¤Ĺà¥ĩ": 1936,
      "à¤¤à¤¨": 1937,
      "Ġà¤ĩà¤¸à¤¸à¥ĩ": 1938,
      "à¤¨à¥Ģà¤¯": 1939,
      "à¤Ĥà¤Ĺà¤²": 1940,
      "à¥įà¤¦à¥ĩà¤¶": 1941,
      "à¤¶à¤¨": 1942,
      "Ġà¤ªà¥Ĥà¤°à¥ĩ": 1943,
      "Ġà¤¸à¤¾à¤®à¤¾à¤ľà¤¿à¤ķ": 1944,
      "à¤ĵ": 1945,
      "à¤µà¤°à¥Ģ": 1946,
      "à¥ĭà¤Ĺà¥įà¤°": 1947,
      "Ġà¤¹à¤¾à¤¥": 1948,
      "Ġà¤¦à¤¶à¤ķ": 1949,
      "ld": 1950,
      "-à¤®": 1951,
      "Ġà¤Ńà¤µà¤¿à¤·à¥įà¤¯": 1952,
      "à¤µà¤¾à¤¨": 1953,
      "Ġà¤ªà¤¶à¥įà¤ļà¤¿à¤®": 1954,
      "Ġà¤¶à¤¤": 1955,
      "-à¤ħà¤²à¤Ĺ": 1956,
      "Ġà¤Ĺà¤£à¤¿à¤¤": 1957,
      "Ġà¤¡à¥ī": 1958,
      "Ġà¤¸à¤¾à¤Ĥ": 1959,
      "Ġà¤ħà¤¨à¥ģà¤Ńà¤µ": 1960,
      "à¤¾à¤ķà¤°": 1961,
      "(à¤ľ": 1962,
      "Ġà¤¸à¤¾à¤°à¥įà¤µ": 1963,
      "Ġà¤ªà¥įà¤°à¤¦à¥ĩà¤¶": 1964,
      "à¥ĥà¤¤à¥įà¤¯à¥ģ": 1965,
      "Ġà¤ļà¤¾à¤¹à¤¤à¥ĩ": 1966,
      "Ġà¤īà¤ł": 1967,
      "Ġà¤®à¤¾à¤¨à¤¾": 1968,
      "Ġà¤¸à¤®à¤°à¥įà¤¥à¤¨": 1969,
      "Ġà¤ħà¤°": 1970,
      "Ġhave": 1971,
      "à¤£à¥Ģ": 1972,
      "Ġà¤¸à¥Ģà¤®": 1973,
      "Ġà¤Ńà¤¾à¤°à¤¤à¥Ģà¤¯": 1974,
      "Ġà¤¸à¥įà¤¥à¤¾à¤¨à¥Ģà¤¯": 1975,
      "Ġà¤Ĩà¤¨": 1976,
      "Ġà¤ħà¤¨à¥ģà¤®à¤¤à¤¿": 1977,
      "à¤¿à¤µà¤¾à¤°": 1978,
      "Ġà¤ħà¤ªà¥įà¤°": 1979,
      "Ġà¤īà¤¦à¥įà¤¦à¥ĩà¤¶": 1980,
      "à¥ĭà¤°à¥įà¤¡": 1981,
      "Ġà¤¤à¤Ł": 1982,
      "à¥ĭà¤¸à¥įà¤Ł": 1983,
      "Ġà¤łà¥Ģà¤ķ": 1984,
      "Ġà¤¸à¤«à¤²": 1985,
      "Ġà¤ļà¤°à¤£": 1986,
      "Ġà¤¯à¥Ĥà¤°": 1987,
      "Ġà¤ķà¥ĥà¤·": 1988,
      "à¤²à¥Īà¤Ĥà¤¡": 1989,
      "Ġà¤ªà¥ĩà¤¶": 1990,
      "Ġà¤ľà¤¿à¤¨à¥įà¤¹à¥ĩà¤Ĥ": 1991,
      "Ġà¤ªà¤¸à¤Ĥà¤¦": 1992,
      "Ġà¤ıà¤µà¤Ĥ": 1993,
      "Ġà¤¶à¤¤à¤¾à¤¬": 1994,
      "à¥īà¤Ł": 1995,
      "Ġsaid": 1996,
      "Ġà¤µà¤¨": 1997,
      "ity": 1998,
      "qu": 1999,
      "ht": 2000,
      "Ġà¤Ĺà¤Ĥ": 2001,
      "Ġà¤ľà¤µà¤¾à¤¬": 2002,
      "Ġà¤Ńà¥Ģà¤¤à¤°": 2003,
      "Ġà¤ķà¤°à¥ĩà¤Ĺà¤¾": 2004,
      "à¤Łà¥įà¤Ł": 2005,
      "à¥ĥà¤¥": 2006,
      "Ġà¤¥à¥Ģà¤Ĥ": 2007,
      "à¥īà¤°à¥įà¤¡": 2008,
      "Ġà¤¹à¥Ĥà¤Ĥ": 2009,
      "Ġà¤¬à¥ĩ": 2010,
      "Ġà¤ķà¤Ĥà¤ªà¥įà¤¯à¥Ĥ": 2011,
      "à¤¸à¤°": 2012,
      "Ġà¤īà¤¤à¥įà¤¸": 2013,
      "Ġà¤ħà¤Ĥà¤¤à¤¿à¤®": 2014,
      "Ġà¤¸à¤Ĥà¤ªà¤°à¥įà¤ķ": 2015,
      "Ġà¤¬à¤¿à¤²": 2016,
      "Ġà¤ĩà¤ķ": 2017,
      "à¤¬à¥įà¤°": 2018,
      "ice": 2019,
      "à¤¿à¤ķà¥ĭà¤£": 2020,
      "-à¤Ĩ": 2021,
      "Ġà¤¤à¤Ĥà¤¤à¥įà¤°": 2022,
      "à¥ĥà¤Ĥà¤ĸ": 2023,
      "Ġà¤ħà¤ķ": 2024,
      "Ġà¤¸à¥įà¤¥à¤¾à¤ªà¤¿à¤¤": 2025,
      "Ġà¤®à¤¹à¤¿à¤²à¤¾": 2026,
      "Ġà¤¶à¤¾à¤¯à¤¦": 2027,
      "à¤¾à¤Ĥà¤ķà¤¨": 2028,
      "Ġà¤µà¥įà¤¯à¤µà¤¹à¤¾à¤°": 2029,
      "Ġà¤®à¥īà¤¡à¤²": 2030,
      "à¤Ńà¥Ģà¤°": 2031,
      "à¤¾à¤·à¥įà¤Łà¥įà¤°à¥Ģà¤¯": 2032,
      "Ġà¤¤à¤¾à¤ª": 2033,
      "à¤Ĥà¤Łà¤°": 2034,
      "à¤ĸà¤¿à¤®": 2035,
      "Ġà¤¸à¤¿à¤Ĥà¤¹": 2036,
      "à¤Ľà¥ĩ": 2037,
      "Ġà¤µà¤¾à¤ķà¥įà¤¯": 2038,
      "Ġà¤ľà¤¹à¤¾à¤Ĥ": 2039,
      "à¤¸à¤¾à¤¨": 2040,
      "à¤¹à¤¨": 2041,
      "Ġà¤¸à¤¿à¤¦à¥įà¤§à¤¾à¤Ĥà¤¤": 2042,
      "Ġà¤ľà¥ĭà¤ĸà¤¿à¤®": 2043,
      "Ġà¤¬à¤¾à¤²": 2044,
      "ĠL": 2045,
      "à¥įà¤¶à¤¨": 2046,
      "Ġà¤ĸà¤°à¥Ģ": 2047,
      "à¥ĥà¤¤à¥įà¤¤": 2048,
      "Ġà¤¤à¤²": 2049,
      "Ġà¤Ĺà¤Ĥà¤Ńà¥Ģà¤°": 2050,
      "Ġfrom": 2051,
      "à¤¸à¥įà¤¥à¤¿à¤¤": 2052,
      "Ġà¤²à¤¾à¤ĸ": 2053,
      "à¤¿à¤ķà¤¾à¤ĵà¤Ĥ": 2054,
      "Ġnot": 2055,
      "Ġà¤®à¥Īà¤Ĥà¤¨à¥ĩ": 2056,
      "Ġà¤Ĩà¤¬": 2057,
      "Ġà¤ªà¥ģà¤°à¥ģà¤·": 2058,
      "à¤ľà¤¨à¤¿à¤ķ": 2059,
      "ess": 2060,
      "40": 2061,
      "Ġà¤¹à¤²": 2062,
      "Ġà¤®à¥ĥà¤¤à¥įà¤¯à¥ģ": 2063,
      "Ġà¤¯à¤¾à¤¤à¥įà¤°à¤¾": 2064,
      "à¤¾à¤¦à¤¾": 2065,
      "Ġhe": 2066,
      "à¤¿à¤ķà¥įà¤¸": 2067,
      "Ġà¤µà¤¾à¤°": 2068,
      "à¤µà¥ĩ": 2069,
      "à¥ģà¤ģ": 2070,
      "Ġà¤¸à¥įà¤µà¤¤à¤Ĥà¤¤à¥įà¤°": 2071,
      "à¤§à¤¿": 2072,
      "à¤¿à¤Ĺà¤¤": 2073,
      "Ġà¤¦à¤¿à¤ĸà¤¾à¤Ī": 2074,
      "Ġà¤¶à¤¤à¤¾à¤¬à¥įà¤¦à¥Ģ": 2075,
      "Ġà¤ªà¥Īà¤¦à¤¾": 2076,
      "à¥ĩà¤ķà¥įà¤¸": 2077,
      "Ġà¤¶à¤¿à¤ķà¥įà¤·à¤ķ": 2078,
      "Ġor": 2079,
      "Ġà¤ľà¥Īà¤¸à¤¾": 2080,
      "ore": 2081,
      "Ġà¤ľà¥ĩ": 2082,
      "Ġà¤Ĩà¤Ĺ": 2083,
      "Ġà¤ľà¥įà¤¯": 2084,
      "Ġà¤¨à¤®": 2085,
      "(à¤ı": 2086,
      "ha": 2087,
      "Ġà¤¸à¤®à¤¸à¥įà¤¯": 2088,
      "Ġà¤ªà¥ĥà¤·à¥įà¤ł": 2089,
      "Ġà¤īà¤¤à¥įà¤ªà¤¨à¥įà¤¨": 2090,
      "Ġà¤®à¤¾à¤ª": 2091,
      "à¤®à¤°": 2092,
      "Ġà¤¸à¤®à¥ģà¤¦à¤¾à¤¯": 2093,
      "Ġà¤¨à¤¿à¤°à¥įà¤¦à¥ĩà¤¶": 2094,
      "Ġà¤¸à¥įà¤¤": 2095,
      "Ġà¤ĺà¤Ĥà¤Ł": 2096,
      "oc": 2097,
      "Ġà¤¸à¥Ģà¤®à¤¾": 2098,
      "Ġà¤§à¤°à¥įà¤®": 2099,
      "Ġà¤ķà¤¹à¤¨à¤¾": 2100,
      "Ġà¤Ĺà¥Īà¤°": 2101,
      "à¥Ģà¤ª": 2102,
      "Ġà¤ķà¤¾à¤°à¥įà¤¬": 2103,
      "Ġà¤ľà¤¿à¤¸à¤ķà¥ĩ": 2104,
      "à¥įà¤°à¤¿à¤¯": 2105,
      "Ġà¤¶à¥įà¤°à¥ĥà¤Ĥà¤ĸ": 2106,
      "Ġà¤¹à¤Ł": 2107,
      "Ġà¤īà¤²à¥įà¤²": 2108,
      "Ġà¤¨à¤¦à¥Ģ": 2109,
      "Ġà¤®à¤Ľ": 2110,
      "Ġà¤µà¤¾à¤¸à¥įà¤¤à¤µà¤¿à¤ķ": 2111,
      "à¤Ĥà¤§à¤¾à¤¨": 2112,
      "Ġà¤ªà¥ĥà¤¥": 2113,
      "Ġà¤¤à¥ĩà¤ľà¥Ģ": 2114,
      "à¥Įà¤¦à¥įà¤¯à¥ĭà¤Ĺ": 2115,
      "Ġà¤¨à¥ģà¤ķ": 2116,
      "ĠW": 2117,
      "Ġà¤²à¤Ĥà¤¬à¥ĩ": 2118,
      "Ġà¤¬à¥Ģà¤®": 2119,
      "Ġà¤²à¤¾à¤Ĺà¥Ĥ": 2120,
      "Ġà¤¸à¤¾à¤°à¥įà¤µà¤ľà¤¨à¤¿à¤ķ": 2121,
      "Ġà¤¦à¥ĩà¤ĸà¤¤à¥ĩ": 2122,
      "Âł": 2123,
      "Ġà¤ķà¤Ĥà¤ªà¤¨à¥Ģ": 2124,
      "Ġà¤µà¤¾à¤ªà¤¸": 2125,
      "Ġà¤¡à¥įà¤°": 2126,
      "Ġà¤¸à¤²": 2127,
      "Ġà¤Ĺà¤¤à¤¿": 2128,
      "Ġà¤ħà¤¨à¥ģà¤¸à¤Ĥà¤§à¤¾à¤¨": 2129,
      "Ġà¤¬à¥ģà¤¦à¥įà¤§": 2130,
      "ac": 2131,
      "Ġà¤Ĩà¤ªà¤ķà¥Ģ": 2132,
      "Ġà¤¸à¤ªà¥įà¤¤": 2133,
      "Ġde": 2134,
      "Ġà¤®à¤¿à¤Ł": 2135,
      "Ġà¤Ľà¤µ": 2136,
      "Ġà¤¹à¤¾à¤°": 2137,
      "à¥ĩà¤Ĥà¤¡": 2138,
      "Ġex": 2139,
      "Ġà¤²à¤¾à¤²": 2140,
      "Ġà¤¨à¤¿à¤°": 2141,
      "Ġà¤¸à¤®à¤¾à¤ľ": 2142,
      "Ġà¤ªà¥įà¤°à¤ķà¤¾à¤¶à¤¿à¤¤": 2143,
      "ies": 2144,
      "à¤¿à¤ķà¥įà¤¤": 2145,
      "Ġà¤Ĳà¤¸à¥Ģ": 2146,
      "Ġà¤¤à¤¥à¤¾": 2147,
      "Ġà¤Ĩà¤¬à¤¾à¤¦à¥Ģ": 2148,
      "Ġà¤¬à¥Īà¤ł": 2149,
      "Ġà¤¯à¤¹à¤¾à¤Ĥ": 2150,
      "Ġà¤ªà¥įà¤°à¥Įà¤¦à¥įà¤¯à¥ĭà¤Ĺ": 2151,
      "end": 2152,
      "à¥įà¤¯à¤¾à¤¯": 2153,
      "à¤Ńà¤¾": 2154,
      "-à¤¦": 2155,
      "se": 2156,
      "Ġà¤¯à¥Ĥà¤°à¥ĭà¤ª": 2157,
      "Ġà¤¡à¤¬à¥įà¤²à¥įà¤¯à¥Ĥ": 2158,
      "Ġà¤ľà¤²à¤µ": 2159,
      "à¥ĩà¤ľà¤¼": 2160,
      "Ġà¤¨à¥ģà¤ķà¤¸à¤¾à¤¨": 2161,
      "à¤¶à¤²": 2162,
      "à¥įà¤ķà¤¿": 2163,
      "Ġà¤ªà¥Ĥà¤°à¥įà¤£": 2164,
      "à¤Ĺà¥Ģà¤¤": 2165,
      "Ġà¤ķà¤Ł": 2166,
      "Ġà¤īà¤¤à¥įà¤¤à¤°à¥Ģ": 2167,
      "à¤¾à¤ĩà¤ķ": 2168,
      "Ġà¤²à¤ķà¥įà¤·": 2169,
      "Ġà¤ªà¤¹à¤²à¤¾": 2170,
      "Ġà¤¦à¥ĥà¤·à¥įà¤Łà¤¿à¤ķà¥ĭà¤£": 2171,
      "Ġà¤¸à¤ªà¥įà¤¤à¤¾à¤¹": 2172,
      "Ġà¤²à¤Ĺà¤¾à¤¨à¥ĩ": 2173,
      "iv": 2174,
      "à¤¨à¥ĩà¤Ł": 2175,
      "\"à¤®": 2176,
      "Ġà¤²à¤ķà¥įà¤·à¤£": 2177,
      "à¤¾à¤ģà¤ļ": 2178,
      "Ġà¤īà¤®à¥įà¤°": 2179,
      "Ġà¤ľà¤®": 2180,
      "Ġà¤ıà¤¡": 2181,
      "à¥Īà¤Ł": 2182,
      "à¥ģà¤Ĺ": 2183,
      "Ġà¤ıà¤Ĥà¤¡": 2184,
      "à¤¤à¥įà¤¤à¤¾": 2185,
      "Ġà¤¬à¤²à¥įà¤ķà¤¿": 2186,
      "Ġà¤ļà¤¿à¤Ĥ": 2187,
      "Ġà¤¸à¤¾à¤®à¤¨à¥ĩ": 2188,
      "Ġà¤¨à¤¿à¤¯à¤Ĥà¤¤à¥įà¤°à¤£": 2189,
      "Ġà¤¸à¥Į": 2190,
      "Ġà¤¦à¥ĩà¤ĸà¤¨à¥ĩ": 2191,
      "à¤¾à¤ĸà¤£à¥įà¤¡": 2192,
      "à¤¾à¤Ĺà¤°": 2193,
      "Ġà¤ķà¥ĭà¤¶à¤¿à¤¶": 2194,
      "à¥ĩà¤Ĥà¤¦": 2195,
      "Ġà¤ľà¤¿à¤²à¥ĩ": 2196,
      "à¤Ńà¤¾à¤²": 2197,
      "à¤ĳ": 2198,
      "à¤¿à¤Ńà¤¾à¤·": 2199,
      "ive": 2200,
      "Ġà¤¸à¤¹à¤¯à¥ĭà¤Ĺ": 2201,
      "Ġà¤ħà¤Ĥà¤Ĺà¥įà¤°": 2202,
      "à¤¿à¤¨à¤¿à¤§": 2203,
      "Ġà¤ľà¤Ĺà¤¹": 2204,
      "Ġà¤®à¤¾à¤¤à¤¾": 2205,
      "Ġà¤ªà¥įà¤°à¥ĭà¤Ł": 2206,
      "ĠF": 2207,
      "Ġà¤®à¥ĭà¤Ł": 2208,
      "Ġà¤¶à¥ĭà¤§à¤ķà¤°à¥įà¤¤à¤¾à¤ĵà¤Ĥ": 2209,
      "Ġà¤ļà¥Ģà¤ľ": 2210,
      "à¤Ķ": 2211,
      "Ġà¤ķà¥ĥà¤·à¤¿": 2212,
      "à¤¤à¤¿à¤¹à¤¾à¤¸": 2213,
      "Ġà¤¸à¤¹à¤¾à¤¯à¤¤à¤¾": 2214,
      "à¤§à¤¾à¤¨": 2215,
      "Ġà¤¶à¥įà¤°à¥ĥà¤Ĥà¤ĸà¤²à¤¾": 2216,
      "à¥ģà¤µ": 2217,
      "Ġà¤¸à¤Ĥà¤Ĺà¥Ģà¤¤": 2218,
      "Ġà¤¸à¥ĭà¤ļ": 2219,
      "Ġà¤¸à¤®à¤¾à¤ªà¥įà¤¤": 2220,
      "Ġà¤ħà¤¤à¤¿à¤°": 2221,
      "à¤®à¤¨": 2222,
      "Ġà¤ªà¥įà¤°à¤¤à¥Ģ": 2223,
      "ĠU": 2224,
      "Ġà¤Ĺà¤²": 2225,
      "Ġà¤¸à¤¹à¤¿à¤¤": 2226,
      "Ġà¤¸à¤®à¥ģà¤¦à¥įà¤°": 2227,
      "Ġà¤¦à¥ĩà¤ĸà¤Ńà¤¾à¤²": 2228,
      "Ġà¤µà¤¿à¤ª": 2229,
      "Ġà¤¸à¤Ĥà¤¤": 2230,
      "Ġà¤ªà¥ĥà¤¥à¥įà¤µà¥Ģ": 2231,
      "Ġà¤ķà¤Ĥà¤ªà¥įà¤¯à¥Ĥà¤Łà¤°": 2232,
      "Ġà¤ķà¤¾à¤¨à¥Ĥà¤¨": 2233,
      "à¤¿à¤¸à¥įà¤¥": 2234,
      "Ġà¤°à¤¾à¤ľà¤¨à¥Ģ": 2235,
      "60": 2236,
      "Ġà¤ªà¥įà¤°à¤¤à¤¿à¤ķà¥įà¤°à¤¿à¤¯à¤¾": 2237,
      "Ġà¤ĸà¤¤à¤°": 2238,
      "Ġà¤ªà¥Ģà¤Ľà¥ĩ": 2239,
      "à¥ĩà¤¶à¤¾": 2240,
      "à¤Ĥà¤¡à¤²": 2241,
      "Ġà¤¦à¥ĩà¤¶à¥ĭà¤Ĥ": 2242,
      "198": 2243,
      "Ġà¤¤à¤¾à¤ªà¤®à¤¾à¤¨": 2244,
      "à¤¸à¥įà¤µà¥Ģ": 2245,
      "à¥§à¥": 2246,
      "Ġà¤ªà¤°à¤¿à¤¯à¥ĭà¤ľà¤¨à¤¾": 2247,
      "Ġà¤Ńà¥Į": 2248,
      "à¥ĩà¤¦à¤¾à¤°": 2249,
      "Ġà¤Ĺà¥Īà¤¸": 2250,
      "Ġà¤ªà¥įà¤°à¤¤à¤¿à¤¨à¤¿à¤§": 2251,
      "Ġà¤¬à¤¸": 2252,
      "so": 2253,
      "Ġà¤Ĩà¤¦à¤¿": 2254,
      "Ġà¤¬à¥Ģà¤®à¤¾à¤°à¥Ģ": 2255,
      "ord": 2256,
      "à¤¶à¥ģ": 2257,
      "à¤¯à¥ĩ": 2258,
      "à¤¾à¤¯à¤ķ": 2259,
      "Ġà¤¨à¤¿à¤¦": 2260,
      "Ġà¤ħà¤¤à¤¿à¤°à¤¿à¤ķà¥įà¤¤": 2261,
      "Ġà¤¶à¤¬à¥įà¤¦à¥ĭà¤Ĥ": 2262,
      "Ġà¤ķà¤¾à¤ī": 2263,
      "Ġà¤°à¤¿à¤ķ": 2264,
      "Ġà¤¸à¥ģà¤¨à¤¿à¤¶à¥įà¤ļà¤¿à¤¤": 2265,
      "Ġà¤¸à¤®à¥Ģà¤ķà¥įà¤·à¤¾": 2266,
      "Ġà¤ķà¤¾à¤Ĥ": 2267,
      "à¥ĩà¤¦à¤¨": 2268,
      "Ġà¤¸à¤Ĥà¤µ": 2269,
      "Ġsu": 2270,
      "Ġà¤¸à¤¿à¤°": 2271,
      "à¤¤à¤¾à¤²": 2272,
      "Ġà¤¬à¤¿à¤ľ": 2273,
      "Ġà¤ħà¤Ĥà¤¤à¤°à¤¿à¤ķà¥įà¤·": 2274,
      "Ġà¤®à¤¹à¥Ģà¤¨à¥ĩ": 2275,
      "Ġr": 2276,
      "Ġà¤¹à¤®à¤¾à¤°à¥Ģ": 2277,
      "Ġà¤¨à¤¿à¤·à¥įà¤ķ": 2278,
      "Ġà¤ªà¥įà¤°à¤¾à¤°à¤Ĥà¤Ń": 2279,
      "Ġà¤¸à¥įà¤Łà¥įà¤°": 2280,
      "Ġà¤ªà¤°à¤¿à¤Ńà¤¾à¤·": 2281,
      "à¤¾à¤¹à¥Ģ": 2282,
      "Ġà¤®à¤¿à¤Łà¥įà¤Łà¥Ģ": 2283,
      "Ġà¤¦à¤¿à¤¨à¥ĭà¤Ĥ": 2284,
      "21": 2285,
      "à¤¿à¤¬à¤Ĥà¤§": 2286,
      "à¤¸à¥įà¤¤à¤¿à¤·à¥įà¤ķ": 2287,
      "à¥Īà¤¸à¥ĩ": 2288,
      "Ġà¤ĩà¤Ĥà¤ľ": 2289,
      "Ġà¤®à¥Įà¤ľà¥Ĥà¤¦": 2290,
      "Ġà¤ľà¤²à¤µà¤¾à¤¯à¥ģ": 2291,
      "Ġà¤ľà¤¿à¤¨à¤®à¥ĩà¤Ĥ": 2292,
      "Ġà¤ķà¥ĩà¤Ĥà¤¦à¥įà¤°à¤¿à¤¤": 2293,
      "Ġà¤ªà¤°à¥įà¤¯à¤¾à¤ªà¥įà¤¤": 2294,
      "Ġà¤°à¥ĭ": 2295,
      "197": 2296,
      "Ġà¤Ńà¥ĩà¤ľ": 2297,
      "Ġà¤ªà¤¦": 2298,
      "Ġà¤ļà¤°": 2299,
      "Ġà¤Ĺà¥įà¤°à¤¹": 2300,
      "à¤ªà¤¾à¤¸": 2301,
      "Ġà¤¹à¤®à¥ĩà¤¶à¤¾": 2302,
      "Ġà¤īà¤¸à¤ķà¥Ģ": 2303,
      "Ġà¤¨à¤¿à¤¶à¥įà¤ļà¤¿à¤¤": 2304,
      "Ġà¤¹à¤¿à¤¸à¥įà¤¸à¥ĩ": 2305,
      "Ġà¤¡à¤¿à¤ľà¤¾à¤ĩà¤¨": 2306,
      "Ġà¤ķà¤¹à¤¾à¤¨à¥Ģ": 2307,
      "à¤°à¤¿à¤¯à¤¾": 2308,
      "à¤¸à¤¾à¤ĩà¤Ł": 2309,
      "Ġà¤Ĩà¤ı": 2310,
      "à¤ªà¥ģà¤Ł": 2311,
      "Ġà¤ĩà¤Ĥà¤Łà¤°": 2312,
      "Ġà¤¬à¥įà¤°à¤¿à¤Ł": 2313,
      "Ġà¤¬à¤ľà¤¾à¤¯": 2314,
      "à¤¤à¥įà¤¤à¤¿": 2315,
      "Ġà¤ıà¤ľ": 2316,
      "Ġà¤ľà¤¾à¤¨à¤¤à¥ĩ": 2317,
      "ap": 2318,
      "Ġà¤¸à¤¦à¤¸à¥įà¤¯": 2319,
      "Ġà¤ħà¤«à¥įà¤°à¥Ģ": 2320,
      "Ġà¤ľà¤¿à¤®": 2321,
      "-à¤¸à¤¾à¤¥": 2322,
      "Ġà¤Ĺà¥ĭà¤²": 2323,
      "Ġà¤¯à¥Ĥà¤¨": 2324,
      "à¤¿à¤®à¤¾à¤¨": 2325,
      "over": 2326,
      "Ġà¤¨à¥Ī": 2327,
      "Ġà¤ķà¥Įà¤¨": 2328,
      "Ġà¤¸à¤Ĥà¤Ńà¤¾à¤µà¤¿à¤¤": 2329,
      "Ġà¤īà¤¦à¥įà¤¦à¥ĩà¤¶à¥įà¤¯": 2330,
      "Ġà¤ļà¤²à¤¤à¤¾": 2331,
      "à¥Ģà¤Ł": 2332,
      "ister": 2333,
      "à¤§à¤¿à¤ķ": 2334,
      "Ġà¤¡à¥īà¤²": 2335,
      "Ġà¤ªà¥Īà¤°": 2336,
      "Ġà¤ľà¥īà¤¨": 2337,
      "Ġà¤¨à¥įà¤¯à¤¾à¤¯": 2338,
      "Ġà¤ªà¥įà¤°à¤¶à¤¿à¤ķà¥įà¤·": 2339,
      "Ġà¤¤à¤¤à¥įà¤µ": 2340,
      "Ġà¤¸à¤Ĥà¤ķà¥įà¤°à¤®à¤£": 2341,
      "Ġà¤®à¥Įà¤¸à¤®": 2342,
      "ial": 2343,
      "Ġà¤®à¤ľà¤¬à¥Ĥà¤¤": 2344,
      "Ġà¤ķà¤µ": 2345,
      "à¤¾à¤¥à¤®à¤¿à¤ķ": 2346,
      "Ġà¤ļà¤²à¤¾": 2347,
      "à¤Ķà¤°": 2348,
      "ud": 2349,
      "Ġà¤¸à¥ģà¤°à¤ķà¥įà¤·à¤¿à¤¤": 2350,
      "ĠE": 2351,
      "Ġà¤ħà¤¸à¥įà¤ª": 2352,
      "Ġà¤¸à¤Ĥà¤¶": 2353,
      "à¤¾à¤°à¤£": 2354,
      "à¤Łà¤²": 2355,
      "Ġà¤ļà¤®": 2356,
      "har": 2357,
      "Ġà¤Ĩà¤°à¥įà¤¥": 2358,
      "ĠIndia": 2359,
      "\"à¤¸": 2360,
      "Ġà¤¹à¥ĭà¤Ĥà¤Ĺà¥ĩ": 2361,
      "Ġà¤²à¤Ĺà¤¾": 2362,
      "Ġà¤ªà¤¹à¥ģà¤ģ": 2363,
      "Ġà¤¦à¥įà¤µà¥Ģà¤ª": 2364,
      "à¤¦à¤¯": 2365,
      "24": 2366,
      "Ġà¤§à¤¨": 2367,
      "à¥ĭà¤°à¥Ģ": 2368,
      "à¤°à¥įà¤ª": 2369,
      "Ġà¤¡à¥īà¤ķ": 2370,
      "Ġà¤¦à¤°à¥įà¤ľ": 2371,
      "Ġà¤ĸà¤Ĥà¤¡": 2372,
      "à¥ĭà¤ľà¤¿à¤¤": 2373,
      "100": 2374,
      "Ġk": 2375,
      "Ġdi": 2376,
      "Ġà¤®à¤¸à¥įà¤¤à¤¿à¤·à¥įà¤ķ": 2377,
      "Ġà¤ľà¤°": 2378,
      "à¥ĩà¤¸à¥įà¤Ł": 2379,
      "Ġà¤¦à¤¬": 2380,
      "Ġà¤ĸà¤°à¥Ģà¤¦": 2381,
      "à¤²à¤¨": 2382,
      "à¤īà¤¤": 2383,
      "-à¤ªà¤¿à¤¤à¤¾": 2384,
      "ff": 2385,
      "Ġà¤¬à¥ĩà¤Ł": 2386,
      "à¤°à¥įà¤¯": 2387,
      "à¤¨à¤¿": 2388,
      "Ġà¤ķà¥ģ": 2389,
      "ction": 2390,
      "Ġà¤ķà¤°à¥įà¤®": 2391,
      "Ġà¤Ĺà¥įà¤²": 2392,
      "à¤¤à¤¿à¤¹à¤¾à¤¸à¤¿à¤ķ": 2393,
      "à¤Łà¥įà¤°": 2394,
      "à¤ľà¥Ģà¤µ": 2395,
      "Ġà¤¨à¤¿à¤Ĺ": 2396,
      "Ġà¤ľà¤¿à¤¨à¥įà¤¹à¥ĭà¤Ĥà¤¨à¥ĩ": 2397,
      "-à¤ªà¥įà¤°": 2398,
      "Ġà¤ķà¤ķà¥įà¤·à¤¾": 2399,
      "Ġà¤¯à¥ĭà¤Ĺà¥įà¤¯": 2400,
      "ant": 2401,
      "à¤Ĺà¥ĭà¤²": 2402,
      "Ġà¤°à¤¹à¤¤à¥ĩ": 2403,
      "à¥Ģà¤¡à¤¿à¤¯à¤¾": 2404,
      "Ġà¤¶à¤ķà¥įà¤¤à¤¿": 2405,
      "à¤²à¥Ĥ": 2406,
      "à¥įà¤£": 2407,
      "Ġle": 2408,
      "Ġà¤¨à¤¾à¤Ĺ": 2409,
      "Ġà¤ħà¤¤à¥įà¤¯": 2410,
      "Ġà¤ªà¥įà¤°à¤¬à¤Ĥà¤§à¤¨": 2411,
      "Ġà¤¬à¤¿à¤ľà¤²à¥Ģ": 2412,
      "ure": 2413,
      "à¤¿à¤¯à¤¾à¤Ī": 2414,
      "Ġà¤ķà¤°à¥Ģ": 2415,
      "Ġà¤ªà¥įà¤°à¤¾à¤¥à¤®à¤¿à¤ķ": 2416,
      "Ġà¤Ĩà¤ªà¤ķà¤¾": 2417,
      "Ġà¤ªà¤¾à¤²à¤¨": 2418,
      "Ġà¤¦à¥ĩà¤¤à¥Ģ": 2419,
      "à¤¾à¤ľà¤¼": 2420,
      "Ġà¤®à¥ģà¤¦à¥įà¤¦": 2421,
      "Ġà¤®à¤¿à¤¨": 2422,
      "à¤Ĺà¤²": 2423,
      "à¤¡à¥įà¤¡": 2424,
      "Ġà¤¹à¤µà¤¾": 2425,
      "à¤¸à¤²": 2426,
      "Ġà¤¸à¤Ĥà¤ķ": 2427,
      "Ġà¤¸à¥ģà¤µà¤¿à¤§": 2428,
      "Ġà¤ªà¥įà¤°à¤¾à¤°à¤Ĥà¤Ńà¤¿à¤ķ": 2429,
      "ry": 2430,
      "Ġà¤®à¤¾à¤Ĥà¤¸": 2431,
      "Ġsh": 2432,
      "Ġà¤Ĩà¤¸à¤ªà¤¾à¤¸": 2433,
      "Ġà¤µà¥ĩà¤¬à¤¸à¤¾à¤ĩà¤Ł": 2434,
      "Ġà¤®à¥ĩà¤°à¥ĩ": 2435,
      "Ġà¤¨à¤¯à¤¾": 2436,
      "Ġà¤ħà¤µà¤§à¤¿": 2437,
      "à¤¿à¤¸à¥įà¤¤à¤¾à¤¨": 2438,
      "up": 2439,
      "Ġà¤¤à¤¹à¤¤": 2440,
      "Ġà¤Ĩà¤¤à¥įà¤®": 2441,
      "à¤²à¥ĩà¤ķà¥įà¤Łà¥įà¤°": 2442,
      "à¤¯à¤Ĥ": 2443,
      "Ġà¤°à¥ĩà¤ĸ": 2444,
      "Ġun": 2445,
      "Ġà¤°à¤¾à¤¤": 2446,
      "Ġà¤®à¥Ĥà¤²à¥įà¤¯à¤¾à¤Ĥà¤ķà¤¨": 2447,
      "Ġà¤īà¤¸à¤¨à¥ĩ": 2448,
      "Ġà¤īà¤¤à¥įà¤¤à¤°à¤¾à¤ĸà¤£à¥įà¤¡": 2449,
      "à¥¨": 2450,
      "Ġà¤Ĺà¥ĭ": 2451,
      "à¥īà¤¸": 2452,
      "Ġà¤ļà¤°à¥įà¤ļà¤¾": 2453,
      "à¤ªà¤¤à¤¿": 2454,
      "Ġse": 2455,
      "Ġà¤¸à¥ģà¤Ŀ": 2456,
      "Ġà¤µà¤¾à¤¯à¤°": 2457,
      "à¤¾à¤ĩà¤ª": 2458,
      "Ġà¤¹à¥Ĥà¤ģ": 2459,
      "Ġà¤ľà¥Īà¤¸à¥Ģ": 2460,
      "Ġà¤¸à¤Ĥà¤°à¤ķà¥įà¤·à¤£": 2461,
      "à¤Ĺà¥įà¤°à¥ĩà¤¸": 2462,
      "Ġà¤µà¤¿à¤¶à¥ĩà¤·à¤ľà¥įà¤ŀ": 2463,
      "Ġà¤ªà¥įà¤°à¤µà¥ĩà¤¶": 2464,
      "Ġà¤¬à¥ģ": 2465,
      "Ġà¤Ľà¥ĭà¤Łà¥Ģ": 2466,
      "à¤Łà¤¿à¤²": 2467,
      "Ġà¤ªà¥įà¤°à¥Įà¤¦à¥įà¤¯à¥ĭà¤Ĺà¤¿à¤ķà¥Ģ": 2468,
      "ong": 2469,
      "à¤¦à¤®": 2470,
      "à¤Ĥà¤¤à¤°": 2471,
      "Ġà¤¸à¤¡à¤¼": 2472,
      "Ġà¤°à¤¿à¤ķà¥īà¤°à¥įà¤¡": 2473,
      "Ġà¤µà¤¿à¤¤à¥įà¤¤": 2474,
      "Ġà¤Ķà¤¸": 2475,
      "Ġà¤¨à¤¿à¤°à¥įà¤£": 2476,
      "Ġà¤ļà¥ģà¤¨à¤¾à¤µ": 2477,
      "à¥ģà¤ı": 2478,
      "à¥Īà¤Ĥ": 2479,
      "Ġà¤ķà¥ģà¤®": 2480,
      "à¤¿à¤Łà¥Ģ": 2481,
      "-à¤ķà¤Ńà¥Ģ": 2482,
      "Ġà¤ķà¤¿à¤²": 2483,
      "Ġà¤Ńà¥Ĥà¤®à¤¿à¤ķà¤¾": 2484,
      "der": 2485,
      "ast": 2486,
      "(à¤¸": 2487,
      "cc": 2488,
      "à¤®à¤¤": 2489,
      "à¤Ĥà¤Ĺà¤¾": 2490,
      "à¤¾à¤īà¤Ĥà¤¡": 2491,
      "à¤°à¤¾à¤ľ": 2492,
      "à¤¸à¥įà¤µà¤°": 2493,
      "à¥ģà¤¨à¤¿à¤ķ": 2494,
      "Ġbeen": 2495,
      "à¥įà¤¹à¥ĩà¤Ĥ": 2496,
      "ard": 2497,
      "à¤¯à¤¸à¥įà¤ķ": 2498,
      "Ġà¤¸à¥įà¤¨": 2499,
      "Ġà¤µà¤¿à¤Ńà¤¾à¤ľ": 2500,
      "Ġà¤Ĩà¤ķà¤°à¥įà¤·": 2501,
      "Ġà¤ĺà¤Ĥà¤Łà¥ĩ": 2502,
      "Ġà¤®à¤¾à¤²": 2503,
      "à¤ªà¤¨": 2504,
      "Ġà¤ªà¤¾à¤łà¥įà¤¯": 2505,
      "à¥īà¤ª": 2506,
      "Ġà¤ªà¥ĩà¤Ł": 2507,
      "Ġà¤¦à¤²": 2508,
      "à¥ĭà¤§à¤¿à¤¤": 2509,
      "à¤¿à¤ķà¤¾à¤°à¤¿à¤ķ": 2510,
      "Ġà¤ľà¥Ĥà¤¨": 2511,
      "Ġà¤Ĩà¤°à¥įà¤¥à¤¿à¤ķ": 2512,
      "Ġà¤ªà¤ķà¤¡à¤¼": 2513,
      "à¤¸à¥įà¤µà¤°à¥Ĥà¤ª": 2514,
      "à¥Ĥà¤°à¥įà¤¤à¤¿": 2515,
      "Ġà¤®à¥Ģà¤²": 2516,
      "Ġà¤¤à¤¸à¥įà¤µà¥Ģ": 2517,
      "Ġà¤ķà¥ĭà¤²": 2518,
      "à¤¾à¤¸à¤¾": 2519,
      "Ġà¤¸à¥Ĥà¤°": 2520,
      "Ġà¤µà¥įà¤¯à¤ķà¥įà¤¤à¤¿à¤Ĺà¤¤": 2521,
      "Ġà¤¸à¥ĩà¤²": 2522,
      "Ġà¤¡à¥īà¤²à¤°": 2523,
      "Ġà¤¦à¤°à¥įà¤¦": 2524,
      "Ġà¤µà¥Ģà¤¡": 2525,
      "Ġà¤¨à¤¿à¤ķà¤¾à¤²": 2526,
      "Ġà¤¤à¥įà¤°": 2527,
      "Ġà¤ĸà¤°à¤¾à¤¬": 2528,
      "Ġà¤¤à¥ĩà¤²": 2529,
      "à¤¾à¤ģà¤µ": 2530,
      "Ġà¤µà¤¾à¤¹": 2531,
      "Ġà¤¤à¤¾à¤²": 2532,
      "à¤Ĩà¤°": 2533,
      "Ġà¤¸à¤¤à¤¹": 2534,
      "à¤µà¤¾à¤¦à¥Ģ": 2535,
      "Ġà¤¸à¥ĩà¤¨à¤¾": 2536,
      "à¤Ĥà¤Ĺà¥ĩ": 2537,
      "à¤¶à¤¾à¤²à¤¾": 2538,
      "Ġà¤Ĺà¤¾à¤Ĥ": 2539,
      "\"à¤ħ": 2540,
      "Ġà¤ªà¥įà¤°à¤¥": 2541,
      "Ġà¤ķà¤²à¤¾": 2542,
      "à¥īà¤«": 2543,
      "In": 2544,
      "à¤¿à¤¤à¥Ģà¤¯": 2545,
      "Ġà¤°à¥ĭà¤®": 2546,
      "Ġà¤ķà¤¾à¤°à¥įà¤¬à¤¨": 2547,
      "à¤¾à¤¯à¥Ģ": 2548,
      "Ġà¤¨à¥ĩà¤Ł": 2549,
      "à¤¸à¥Ĥà¤¸": 2550,
      "à¤¾à¤£à¥ģ": 2551,
      "ame": 2552,
      "Ġà¤µà¤ľà¤¨": 2553,
      "Ġà¤ĩà¤Ĥà¤Ĺ": 2554,
      "à¥Ģà¤ķà¥ĥà¤¤": 2555,
      "Ġà¤®à¤¹à¤¸à¥Ĥà¤¸": 2556,
      "Ġà¤µà¤°à¥įà¤£à¤¨": 2557,
      "à¥įà¤°à¤¾à¤·à¥įà¤Łà¥įà¤°à¥Ģà¤¯": 2558,
      "ust": 2559,
      "Ġà¤īà¤¡à¤¼": 2560,
      "à¥Ĥà¤ķ": 2561,
      "Ġà¤°à¤ĸà¤¤à¥ĩ": 2562,
      "à¤¾à¤¸à¥įà¤Ł": 2563,
      "Ġà¤¶à¤¹": 2564,
      "Ġà¤Ĩà¤§à¤¿à¤ķà¤¾à¤°à¤¿à¤ķ": 2565,
      "ep": 2566,
      "Ġà¤¸à¤¿à¤¤": 2567,
      "à¤µà¤°à¥įà¤ķ": 2568,
      "Ġà¤ªà¥įà¤°à¥ĭà¤«": 2569,
      "à¤ıà¤¨": 2570,
      "à¤²à¥ĩà¤Ł": 2571,
      "Ġà¤®à¤Ĥà¤¦": 2572,
      "Ġà¤ľà¤Łà¤¿à¤²": 2573,
      "Ġà¤¹à¤®à¤¨à¥ĩ": 2574,
      "Ġà¤ķà¤¥": 2575,
      "à¥ĩà¤°à¤¾": 2576,
      "Ġà¤ľà¥įà¤ŀà¤¾à¤¨": 2577,
      "à¤¿à¤¯à¥ĩ": 2578,
      "à¤ľà¤¼à¤°": 2579,
      "à¤°à¥įà¤²": 2580,
      "à¤ľà¤¾": 2581,
      "Ġà¤¦à¤¿à¤¶": 2582,
      "à¤¾à¤§à¤¾à¤¨": 2583,
      "à¤ķà¥įà¤ķ": 2584,
      "Ġà¤µà¥Ģà¤¡à¤¿à¤¯à¥ĭ": 2585,
      "à¥Ģà¤°à¥ĩ": 2586,
      "Ġà¤µà¤¿à¤°à¥ĭà¤§": 2587,
      "Ġà¤¬à¤¾à¤ľ": 2588,
      "Ġà¤ļà¤¯à¤¨": 2589,
      "à¤¾à¤ªà¤¨": 2590,
      "Ġà¤®à¤¹à¤¾à¤¨": 2591,
      "à¥Īà¤®": 2592,
      "Ġà¤ªà¤¾à¤ı": 2593,
      "Ġà¤¸à¤ļ": 2594,
      "Ġà¤ĸà¤¤": 2595,
      "Ġà¤¬à¥ģà¤¦à¥įà¤§à¤¿à¤®à¤¾à¤¨": 2596,
      "Ġà¤Ĳà¤¤à¤¿à¤¹à¤¾à¤¸à¤¿à¤ķ": 2597,
      "Ġà¤ªà¤°à¤¿à¤£à¤¾à¤®à¤¸à¥įà¤µà¤°à¥Ĥà¤ª": 2598,
      "Ġà¤¸à¥Ģà¤§": 2599,
      "han": 2600,
      "Ġà¤īà¤¸à¤¸à¥ĩ": 2601,
      "Ġà¤¸à¤®à¥ģà¤¦à¥įà¤°à¥Ģ": 2602,
      "Ġà¤ķà¤¬": 2603,
      "Ġà¤¸à¤µà¤¾à¤²": 2604,
      "Ġà¤¤à¤°à¥įà¤ķ": 2605,
      "à¤¾à¤¯à¤²": 2606,
      "ĠAI": 2607,
      "Ġà¤¤à¤ķà¤¨à¥Ģà¤ķ": 2608,
      "Ġà¤¸à¤Ĥà¤¸à¥įà¤¥à¤¾à¤¨": 2609,
      "Ġà¤¨à¤¿à¤°à¥įà¤£à¤¯": 2610,
      "à¤¾à¤ķà¤¾à¤°": 2611,
      "Ġà¤®à¤¾à¤Ĥà¤Ĺ": 2612,
      "22": 2613,
      "à¥ĥà¤¦à¤¯": 2614,
      "à¥Ĥà¤Ĥ": 2615,
      "Ġà¤ħà¤ķà¥įà¤·": 2616,
      "Ġà¤¥à¥ĭ": 2617,
      "Ġà¤¸à¤Ĥà¤¸à¥įà¤ķà¤°à¤£": 2618,
      "Ġà¤²à¤Ĺà¤¾à¤¯à¤¾": 2619,
      "Ġà¤ħà¤Ĥà¤Ĺà¥įà¤°à¥ĩà¤ľà¥Ģ": 2620,
      "à¤¿à¤ķà¤²": 2621,
      "à¤ķà¤¾à¤°à¤¾à¤¤à¥įà¤®à¤ķ": 2622,
      "age": 2623,
      "ge": 2624,
      "Ġà¤ķà¤¿à¤¨": 2625,
      "à¤¬à¤¹": 2626,
      "Ġà¤¬à¥ĭà¤²": 2627,
      "Ġà¤¸à¥įà¤µà¤¯à¤Ĥ": 2628,
      "à¥ĩà¤Ĺà¥Ģ": 2629,
      "Ġà¤ķà¤¾à¤īà¤Ĥà¤Łà¥Ģ": 2630,
      "à¤¿à¤¯à¤²": 2631,
      "Ġà¤ľà¥Ģà¤¨": 2632,
      "à¤¿à¤·à¥įà¤ł": 2633,
      "Ġà¤ªà¥įà¤°à¤Ńà¤¾à¤µà¥Ģ": 2634,
      "à¤®à¥įà¤°": 2635,
      "à¤²à¥ĩà¤ľ": 2636,
      "à¤¿à¤Ĺà¥įà¤°à¥Ģ": 2637,
      "Ġà¤Ĩà¤§à¤¾à¤°à¤¿à¤¤": 2638,
      "(à¤ħ": 2639,
      "Ġà¤ķà¤¨": 2640,
      "Ġà¤ħà¤Ĥà¤¦à¤°": 2641,
      "Ġà¤ĩà¤²à¥ĩà¤ķà¥įà¤Łà¥įà¤°": 2642,
      "Ġà¤ķà¤¾à¤Ĥà¤Ĺà¥įà¤°à¥ĩà¤¸": 2643,
      "all": 2644,
      "Ġà¤Ĩà¤¯à¤¾": 2645,
      "Ġà¤®à¤¾à¤®à¤²à¥ĭà¤Ĥ": 2646,
      "Ġà¤¹à¤ľ": 2647,
      "Ġà¤ľà¥Ģà¤µà¤¿à¤¤": 2648,
      "ence": 2649,
      "Ġà¤¶à¥įà¤°à¥ĩ": 2650,
      "à¤īà¤Ł": 2651,
      "Ġà¤¸à¤ķà¥įà¤°à¤¿à¤¯": 2652,
      "Ġsp": 2653,
      "ue": 2654,
      "à¥ģà¤·à¥įà¤Ł": 2655,
      "Ġà¤ħà¤Ĥà¤¡": 2656,
      "Ġà¤®à¤¤à¤²à¤¬": 2657,
      "Ġà¤¹à¤¸à¥įà¤¤": 2658,
      "ary": 2659,
      "Ġà¤ĩà¤¸à¥Ģ": 2660,
      "Ġà¤°à¤ĸà¥ĩà¤Ĥ": 2661,
      "Ġà¤²à¤¾à¤Ĺà¤¤": 2662,
      "Ġme": 2663,
      "ĠV": 2664,
      "Ġalso": 2665,
      "ress": 2666,
      "Ġà¤°à¥ĩà¤¡": 2667,
      "à¥Īà¤ª": 2668,
      "Ġà¤²à¥ĩà¤ĸà¤ķ": 2669,
      "Ġà¤Ĩà¤¹à¤¾à¤°": 2670,
      "Ġà¤¸à¥įà¤µà¤¸à¥įà¤¥": 2671,
      "Ġà¤°à¥ī": 2672,
      "à¤¨à¤²à¤¾à¤ĩà¤¨": 2673,
      "Ġà¤¯à¥ģà¤µà¤¾": 2674,
      "Ġà¤®à¤¶": 2675,
      "Ġà¤īà¤¦à¥įà¤¯à¥ĭà¤Ĺ": 2676,
      "à¤īà¤¨": 2677,
      "Ġyou": 2678,
      "(à¤ķ": 2679,
      "Ġà¤¨à¤¿à¤ķà¤²": 2680,
      "à¥Įà¤¤à¥Ģ": 2681,
      "à¥īà¤Ĺ": 2682,
      "Ġà¤µà¤¿à¤¨à¤®à¥įà¤°": 2683,
      "à¤¾à¤°à¥įà¤ķ": 2684,
      "Ġà¤¦à¥Ĥà¤¸à¤°à¥Ģ": 2685,
      "Ġà¤ªà¥Ĥà¤Ľ": 2686,
      "Ġà¤Ĺà¤°à¥įà¤Ń": 2687,
      "Ġà¤Ĺà¤¾à¤ģà¤µ": 2688,
      "ould": 2689,
      "Ġà¤¤à¤°à¥Ģà¤ķà¤¾": 2690,
      "à¥ĭà¤Ĺà¥įà¤°à¤¾à¤®": 2691,
      "à¥īà¤®": 2692,
      "Ġà¤ĸà¥ĭ": 2693,
      "Ġà¤®à¤Ľà¤²à¥Ģ": 2694,
      "Ġà¤¹à¥ĥà¤¦à¤¯": 2695,
      "Ġà¤¸à¤¾à¤Ŀ": 2696,
      "Ġà¤ħà¤Ĥà¤¤à¤°à¥įà¤°à¤¾à¤·à¥įà¤Łà¥įà¤°à¥Ģà¤¯": 2697,
      "Ġà¤¡à¤¿à¤Ĺà¥įà¤°à¥Ģ": 2698,
      "ear": 2699,
      "//": 2700,
      "Ġà¤¸à¤Ĥà¤Ĺà¤łà¤¨": 2701,
      "-à¤°": 2702,
      "Ġà¤¨à¤¿à¤°à¥įà¤Ń": 2703,
      "ĠĠĠĠĠĠĠ": 2704,
      "Ġhis": 2705,
      "à¤¿à¤Ĥà¤ķ": 2706,
      "'s": 2707,
      "Ġà¤µà¤¯à¤¸à¥įà¤ķ": 2708,
      "Ġà¤¶à¥įà¤°à¥Ģ": 2709,
      "Ġà¤īà¤²à¥įà¤²à¥ĩà¤ĸ": 2710,
      "à¤µà¤°à¥ĭà¤Ĥ": 2711,
      "Ġà¤ľà¤°à¥įà¤®": 2712,
      "Ġà¤¦à¤¸à¥įà¤¤": 2713,
      "à¥ĩà¤ķà¥įà¤·": 2714,
      "à¤°à¥įà¤¤à¥Ģ": 2715,
      "Ġà¤ĺà¤Łà¤¨à¤¾": 2716,
      "à¤ıà¤²": 2717,
      "Ġà¤¸à¥ģà¤Ŀà¤¾à¤µ": 2718,
      "Ġà¤ªà¤°à¤¿à¤ļ": 2719,
      "Ġà¤¸à¤®à¥įà¤®à¤¾à¤¨": 2720,
      "Ġà¤ªà¤°à¤®": 2721,
      "à¤¿à¤ķà¥ĭà¤Ĥ": 2722,
      "à¤°à¥Ģà¤¤": 2723,
      "Ġà¤¨à¤¿à¤°à¥įà¤Ńà¤°": 2724,
      "Ġà¤ªà¤¾à¤°à¥įà¤Łà¥Ģ": 2725,
      "Ġà¤¤à¤¨": 2726,
      "23": 2727,
      "</": 2728,
      "Ġà¤ķà¥įà¤µ": 2729,
      "Ġà¤¸à¥įà¤¥à¤²": 2730,
      "Ġà¤¬à¥Ģà¤ľ": 2731,
      "à¥ĩà¤°à¥Ģ": 2732,
      "à¤¤à¤¿à¤¯à¥ĭà¤Ĥ": 2733,
      "inister": 2734,
      "Ġà¤ľà¤¿à¤¸à¤¨à¥ĩ": 2735,
      "à¤°à¤²": 2736,
      "Ġà¤®à¤°": 2737,
      "à¤Ĥà¤ªà¤°à¤¿à¤ķ": 2738,
      "à¤«à¤¼": 2739,
      "Ġà¤Łà¥ģà¤ķ": 2740,
      "Ġà¤ªà¤¹à¥ģà¤ģà¤ļ": 2741,
      "Ġà¤ķà¤łà¤¿à¤¨": 2742,
      "à¥ĩà¤Ĺ": 2743,
      "à¤Ĥà¤¥": 2744,
      "à¤Ĥà¤¶à¤¿à¤ķ": 2745,
      "Ġà¤¸à¥Ģà¤ĸà¤¨à¥ĩ": 2746,
      "à¤¿à¤¸à¥įà¤¥à¤¿à¤¤": 2747,
      "à¤¾à¤°à¤¾à¤¤à¥įà¤®à¤ķ": 2748,
      "Ġà¤ħà¤ªà¤°": 2749,
      "à¤¸à¥Ģà¤²": 2750,
      "Ġà¤¸à¤®à¤¸à¥įà¤¯à¤¾à¤ĵà¤Ĥ": 2751,
      "Ġà¤ªà¥įà¤°à¤¸à¤¿à¤¦à¥įà¤§": 2752,
      "Ġà¤µà¥įà¤¯à¤¾à¤ĸ": 2753,
      "Ġà¤¸à¤ķà¤¾à¤°à¤¾à¤¤à¥įà¤®à¤ķ": 2754,
      "Ġà¤¸à¤Ł": 2755,
      "Ġà¤¸à¥Ĥà¤ļà¤¨à¤¾": 2756,
      "Ġà¤²à¤ķà¥įà¤·à¥įà¤¯": 2757,
      "Ġà¤ħà¤Ĥà¤ķ": 2758,
      "à¥ģà¤²à¤¾à¤Ī": 2759,
      "Ġà¤ħà¤Ńà¥įà¤¯à¤¾à¤¸": 2760,
      "à¤¶à¥įà¤µà¤¿à¤ķ": 2761,
      "Ġà¤ľà¤¿à¤®à¥įà¤®": 2762,
      "ok": 2763,
      "Ġà¤ķà¤°à¥Ģà¤¬": 2764,
      "à¤¿à¤¯à¤¾à¤¨": 2765,
      "Ġà¤¸à¤®à¤¾à¤ļà¤¾à¤°": 2766,
      "Ġà¤µà¤¿à¤ªà¤°à¥Ģà¤¤": 2767,
      "à¤£à¤¾": 2768,
      "ount": 2769,
      "à¤Ĥà¤§à¤¨": 2770,
      "Ġà¤¯à¥ĭà¤Ĺà¤¦à¤¾à¤¨": 2771,
      "Ġà¤¸à¥ĩà¤Ł": 2772,
      "Ġà¤Ĩà¤Ĥà¤¤": 2773,
      "à¤¦à¤°à¥įà¤¶": 2774,
      "\"à¤ķ": 2775,
      "Ġà¤ħà¤¨à¥ģà¤ķ": 2776,
      "Ġà¤¨à¤¾à¤Ĺà¤°à¤¿à¤ķ": 2777,
      "ex": 2778,
      ");": 2779,
      "Ġà¤ªà¥įà¤°à¥ĩà¤°": 2780,
      "à¤Ĥà¤ľà¤¨": 2781,
      "à¤Ńà¤¾à¤°": 2782,
      "Ġà¤¨à¤¿à¤·à¥įà¤ķà¤°à¥įà¤·": 2783,
      "à¤ķà¥Ģà¤¯": 2784,
      "Ġà¤¤à¤¹à¤¸à¥Ģà¤²": 2785,
      "overn": 2786,
      "Ġà¤®à¤¾à¤°à¥įà¤ļ": 2787,
      "à¤ķà¥įà¤·à¥ĩà¤ª": 2788,
      "Ġà¤ħà¤¸à¥įà¤ªà¤¤à¤¾à¤²": 2789,
      "à¥ģà¤¸": 2790,
      "Ġà¤ĺà¤Łà¤¨": 2791,
      "Ġà¤¸à¤Ĥà¤°à¤ļà¤¨à¤¾": 2792,
      "ren": 2793,
      "à¤¾à¤°à¥Ģà¤°à¤¿à¤ķ": 2794,
      "à¤¾à¤ļà¥Ģà¤¨": 2795,
      "Ġà¤Ĩà¤¯à¥ģ": 2796,
      "à¤ļà¤¿à¤¤à¥įà¤°": 2797,
      "Ġà¤®à¥ģà¤ķà¥įà¤¤": 2798,
      "Ġà¤¦à¥ĥà¤¶à¥įà¤¯": 2799,
      "Ġà¤ķà¥īà¤²à¥ĩà¤ľ": 2800,
      "Ġà¤¸à¤¾à¤®à¤¨à¤¾": 2801,
      "Ġà¤ĩà¤Ĥà¤ľà¥Ģà¤¨": 2802,
      "Ġà¤®à¤¿à¤¸": 2803,
      "Ġà¤Ĺà¥ģà¤£à¤µ": 2804,
      "à¤¬à¤¦à¥įà¤§": 2805,
      "Ġà¤¨à¤¿à¤¯à¤Ĥà¤¤à¥įà¤°à¤¿à¤¤": 2806,
      "Ġà¤ªà¤¾à¤łà¥įà¤¯à¤ķà¥įà¤°à¤®": 2807,
      "Ġà¤Ńà¤¾à¤°à¥Ģ": 2808,
      "à¤°à¥įà¤ĺ": 2809,
      "Ġà¤¦à¤µà¤¾": 2810,
      "Ġà¤ªà¤¦à¤¾à¤°à¥įà¤¥à¥ĭà¤Ĥ": 2811,
      "Ġà¤°à¥Ĥ": 2812,
      "à¥ĥà¤¤à¥įà¤µ": 2813,
      "Ġà¤®à¤¿à¤²à¥Ģ": 2814,
      "Ġà¤®à¤§à¥ģà¤®": 2815,
      "Ġà¤īà¤ļà¤¿à¤¤": 2816,
      "à¤¿à¤ªà¥įà¤ª": 2817,
      "à¥ĭà¤¤à¥įà¤¸": 2818,
      "Ġà¤ļà¤¾à¤²": 2819,
      "Ġà¤¦à¥ĭà¤¸à¥įà¤¤": 2820,
      "à¤¾à¤µà¤Ł": 2821,
      "Ġà¤¸à¥įà¤¥à¤¿à¤°": 2822,
      "Ġà¤¨à¥ĩà¤Łà¤µà¤°à¥įà¤ķ": 2823,
      "Ġà¤Ĩà¤¸à¤¾à¤¨": 2824,
      "Ġà¤ķà¥Įà¤¶à¤²": 2825,
      "Ġwere": 2826,
      "Ġà¤¸à¤°à¤²": 2827,
      "à¤®à¥Īà¤¨": 2828,
      "Ġà¤ªà¤¾à¤°à¤Ĥà¤ªà¤°à¤¿à¤ķ": 2829,
      "Ġà¤ĭ": 2830,
      "Ġà¤ľà¤¾à¤¨à¤µà¤°à¥ĭà¤Ĥ": 2831,
      "Ġà¤ķà¥ĭà¤¶à¤¿à¤ķà¤¾à¤ĵà¤Ĥ": 2832,
      "Ġà¤ªà¥įà¤°à¤ľà¤¾à¤¤à¤¿à¤¯à¥ĭà¤Ĥ": 2833,
      "Ġà¤ĩà¤²à¤¾à¤ľ": 2834,
      "Ġà¤°à¥ĭà¤Ĺà¤¿à¤¯à¥ĭà¤Ĥ": 2835,
      "Ġà¤¸à¤¾à¤ķ": 2836,
      "Ġà¤¤à¥Ģà¤¸": 2837,
      "Ġà¤Ĺà¥Ģ": 2838,
      "Ġà¤Ĩà¤§à¥ģà¤¨à¤¿à¤ķ": 2839,
      "Ġà¤¨à¥ĩà¤¤": 2840,
      "Ġà¤¶à¤¾à¤°à¥Ģà¤°à¤¿à¤ķ": 2841,
      "Ġà¤¨à¥ĭà¤Ł": 2842,
      "ric": 2843,
      "ef": 2844,
      "Ġà¤ªà¥įà¤°à¤¸à¥įà¤¤à¤¾à¤µ": 2845,
      "Ġà¤¤à¥įà¤µ": 2846,
      "ah": 2847,
      "à¤¯à¥ģà¤ķà¥įà¤¤": 2848,
      "Ġà¤µà¤¿à¤¦à¥įà¤¯": 2849,
      "Ġà¤°à¤¾à¤ľà¤¨à¥Ģà¤¤à¤¿à¤ķ": 2850,
      "Ġà¤ªà¤¾à¤Ĥà¤ļ": 2851,
      "Ġà¤ķà¥īà¤²": 2852,
      "à¤¾à¤Ĭ": 2853,
      "à¥ĩà¤¸à¤°": 2854,
      "à¤°à¥ĩà¤Ł": 2855,
      "à¤¾à¤¤à¤¾à¤°": 2856,
      "à¤īà¤¤à¥įà¤¤à¤°": 2857,
      "Ġà¤¸à¤Łà¥Ģà¤ķ": 2858,
      "Ġà¤ĳà¤¨à¤²à¤¾à¤ĩà¤¨": 2859,
      "à¥ĥà¤¤à¥įà¤¤à¤¿": 2860,
      "à¤ªà¥įà¤°à¤¿à¤¯": 2861,
      "à¤¾à¤Ĥà¤Ł": 2862,
      "Ġà¤°à¤ķà¥įà¤·à¤¾": 2863,
      "Ġà¤ĩà¤Ĥà¤¡": 2864,
      "Ġà¤ķà¤¾à¤°à¥įà¤¯à¥ĭà¤Ĥ": 2865,
      "à¥ģà¤«": 2866,
      "Ġà¤®à¤¾à¤¨à¤ķ": 2867,
      "Ġà¤°à¤¾à¤·à¥įà¤Łà¥įà¤°à¤ªà¤¤à¤¿": 2868,
      "2012": 2869,
      "à¤¾à¤īà¤¨": 2870,
      "Ġà¤ļà¥Ģà¤¨à¥Ģ": 2871,
      "ĠO": 2872,
      "Ġà¤¬à¤¾à¤§": 2873,
      "Ġà¤²à¤¾à¤ĩ": 2874,
      "à¥ĩà¤¶à¥Ģ": 2875,
      "Ġall": 2876,
      "Ġà¤ħà¤¨à¥ģà¤ķà¥Ĥà¤²": 2877,
      "Ġà¤¨à¤®à¥Ĥ": 2878,
      "Ġà¤µà¥Īà¤¶à¥įà¤µà¤¿à¤ķ": 2879,
      "ight": 2880,
      "à¥Ĥà¤·": 2881,
      "Ġà¤ªà¤¶à¥ģ": 2882,
      "à¤¾à¤°à¥įà¤Ł": 2883,
      "Ġà¤µà¤¹à¤¾à¤ģ": 2884,
      "Ġà¤²à¥Į": 2885,
      "Ġà¤īà¤ªà¤ķà¤°à¤£à¥ĭà¤Ĥ": 2886,
      "Ġà¤µà¥Īà¤ľà¥įà¤ŀà¤¾à¤¨à¤¿à¤ķà¥ĭà¤Ĥ": 2887,
      "Ġà¤Ĺà¤²à¤¤": 2888,
      "Ġà¤µà¤¾à¤¤": 2889,
      "à¤¶à¥Ģ": 2890,
      "Ġà¤¨à¥ĩà¤¤à¥ĥà¤¤à¥įà¤µ": 2891,
      "Ġà¤¤à¤¸à¥įà¤µà¥Ģà¤°": 2892,
      "Ġà¤ªà¤¿à¤¤à¤¾": 2893,
      "Ġà¤ªà¥ĭà¤¸à¥įà¤Ł": 2894,
      "Ġà¤µà¥įà¤¯à¤¾à¤ªà¤¾à¤°": 2895,
      "à¤¶à¥įà¤ķ": 2896,
      "Ġà¤¬à¤°à¥įà¤«": 2897,
      "à¤¾à¤Ĥà¤¤à¤¿": 2898,
      "Ġà¤¶à¥Ģà¤°à¥įà¤·à¤ķ": 2899,
      "ated": 2900,
      "Ġà¤Ĺà¥ģà¤°": 2901,
      "Ġà¤¸à¥Ģà¤®à¤¿à¤¤": 2902,
      "à¥įà¤°à¤¾": 2903,
      "Ġà¤µà¤¾à¤²à¥ĭà¤Ĥ": 2904,
      "à¤ķà¤¡à¤¼à¥Ģ": 2905,
      "Ġà¤Ĺà¥ģà¤£à¤µà¤¤à¥įà¤¤à¤¾": 2906,
      "ime": 2907,
      "Ġà¤¸à¥ĩà¤Ĥà¤Ł": 2908,
      "Ġà¤¬à¥ģà¤¨": 2909,
      "Ġà¤¸à¤®à¤¾à¤§à¤¾à¤¨": 2910,
      "Ġà¤ĩà¤¨à¤®à¥ĩà¤Ĥ": 2911,
      "Ġà¤¦à¤¿à¤µ": 2912,
      "à¤¬à¤¾à¤¹": 2913,
      "à¤¾à¤¹à¤¿à¤¤à¥įà¤¯": 2914,
      "Ġà¤ıà¤Ĥà¤Łà¥Ģ": 2915,
      "à¥ĩà¤²à¥Ģ": 2916,
      "à¤®à¤Ĥà¤¤à¥įà¤°à¥Ģ": 2917,
      "Ġà¤Ńà¥įà¤°": 2918,
      "Ġà¤ªà¥ģà¤°à¤¸à¥įà¤ķ": 2919,
      "pl": 2920,
      "Ġà¤®à¤¨à¥ģà¤·": 2921,
      "Ġà¤ħà¤Ĺà¤²à¥ĩ": 2922,
      "Ġà¤ªà¥įà¤°à¤¾à¤ļà¥Ģà¤¨": 2923,
      "Ġà¤²à¤Ĺà¤¾à¤¤à¤¾à¤°": 2924,
      "ther": 2925,
      "....": 2926,
      "Ġà¤Ķà¤¸à¤¤": 2927,
      "Ġà¤§à¥įà¤µ": 2928,
      "Ġà¤²à¤¿à¤ĸà¤¾": 2929,
      "\"à¤¯à¤¹": 2930,
      "Ġà¤¬à¤¨à¥ĩ": 2931,
      "ident": 2932,
      "Ġà¤µà¤¿à¤¶à¥įà¤µà¤¾à¤¸": 2933,
      "Ġà¤¸à¤«à¥ĩà¤¦": 2934,
      "Ġj": 2935,
      "Ġà¤°à¤£": 2936,
      "Ġà¤«à¥Īà¤²": 2937,
      "à¥Ĥà¤¬à¤°": 2938,
      "à¥ĭà¤°à¥įà¤¨": 2939,
      "Ġà¤ħà¤ļà¥įà¤Ľà¥ĩ": 2940,
      "Ġà¤Ľà¥ĭà¤Łà¤¾": 2941,
      "ach": 2942,
      "Ġà¤¬à¤¾à¤¤à¤ļà¥Ģ": 2943,
      "Ġà¤¨à¤°": 2944,
      "Ġà¤®à¥ĭ": 2945,
      "à¤¡à¤¼à¤¿à¤¤": 2946,
      "Ġà¤°à¥ģà¤ª": 2947,
      "à¤¾à¤²à¤¿à¤¤": 2948,
      "Ġà¤Ľà¤¹": 2949,
      "à¤¾à¤¸à¥įà¤¤à¥įà¤°": 2950,
      "Ġà¤ķà¤¾à¤Ł": 2951,
      "Ġà¤ľà¥įà¤ŀ": 2952,
      "Ġà¤īà¤ªà¤¨": 2953,
      "Ġà¤ªà¥Įà¤§à¥ĭà¤Ĥ": 2954,
      "196": 2955,
      "ase": 2956,
      "Ġà¤¸à¥įà¤µà¥Ģ": 2957,
      "Ġà¤¦à¤¿à¤²à¥įà¤²à¥Ģ": 2958,
      "Ġà¤¨à¤Ĺà¤°": 2959,
      "Ġà¤Ńà¤Ĺ": 2960,
      "à¥īà¤ķà¥įà¤¸": 2961,
      "Ġà¤¤à¤¨à¤¾à¤µ": 2962,
      "à¤¾à¤®à¤¾": 2963,
      "av": 2964,
      "ath": 2965,
      "à¥ĥà¤¹": 2966,
      "Ġà¤Ĺà¤¤à¤¿à¤µà¤¿à¤§à¤¿": 2967,
      "à¤¯à¥ĭà¤Ĥ": 2968,
      "``": 2969,
      "Ġà¤¸à¤Ĥà¤ļà¤¾à¤°": 2970,
      "Ġà¤ĳà¤¸à¥įà¤Łà¥įà¤°": 2971,
      "Ġà¤īà¤¨à¤®à¥ĩà¤Ĥ": 2972,
      "Ġpol": 2973,
      "âĢĺ": 2974,
      "Ġà¤łà¤Ĥà¤¡": 2975,
      "Ġà¤µà¥įà¤¯à¤µà¤¸à¤¾à¤¯": 2976,
      "ine": 2977,
      "Ġà¤«à¤°": 2978,
      "à¤¾à¤°à¥įà¤¥": 2979,
      "à¤µà¤¾à¤¹": 2980,
      "Ġà¤ľà¤¿à¤²à¤¾": 2981,
      "Ġà¤¸à¥įà¤¥à¤¿à¤¤à¤¿à¤¯à¥ĭà¤Ĥ": 2982,
      "Ġà¤Łà¥Ī": 2983,
      "80": 2984,
      "Ġà¤®à¥ģà¤¶à¥įà¤ķ": 2985,
      "----------------": 2986,
      "Ġà¤¦à¥ĩà¤¨à¤¾": 2987,
      "Ġà¤ķà¤°à¥ĭà¤¡à¤¼": 2988,
      "Ġà¤µà¤¿à¤¶à¤¾à¤²": 2989,
      "à¤¾à¤§à¤¿à¤ķ": 2990,
      "Ġà¤®à¥ģà¤¶à¥įà¤ķà¤¿à¤²": 2991,
      "à¥īà¤°à¥įà¤ķ": 2992,
      "à¥įà¤¦à¤°à¥įà¤Ń": 2993,
      "Ġà¤ªà¤¶à¥įà¤ļà¤¿à¤®à¥Ģ": 2994,
      "Ġà¤¬à¤¢à¤¼à¤¾à¤¨à¥ĩ": 2995,
      "Ġà¤ķà¤¿à¤¶": 2996,
      "Ġinc": 2997,
      "Ġà¤ħà¤¤à¥įà¤¯à¤§à¤¿à¤ķ": 2998,
      "Ġà¤Łà¥įà¤¯à¥Ĥ": 2999,
      "Ġà¤¸à¤²à¤¾à¤¹": 3000,
      "Ġà¤®à¤¾à¤ĩ": 3001,
      "Ġà¤¸à¤Ĥà¤¸à¤¾à¤§à¤¨": 3002,
      "Ġcan": 3003,
      "à¥įà¤Łà¥Ĥà¤¬à¤°": 3004,
      "à¥ĥà¤·à¥įà¤Ł": 3005,
      "à¤¤à¤¾à¤¨": 3006,
      "à¤¿à¤¯à¤¸": 3007,
      "ell": 3008,
      "Ġà¤²à¥ĭà¤ķà¤ªà¥įà¤°à¤¿à¤¯": 3009,
      "Ġà¤®à¥Ģà¤Łà¤°": 3010,
      "ost": 3011,
      "Ġà¤Ĩà¤°à¥ĭà¤ª": 3012,
      "Ġà¤¸à¥įà¤µà¥Ģà¤ķà¤¾à¤°": 3013,
      "Ġà¤¸à¤®à¤Ŀà¤¨à¥ĩ": 3014,
      "Ġà¤ľà¥ī": 3015,
      "à¤°à¥įà¤ľà¤¨": 3016,
      "Ġà¤ħà¤§à¥įà¤¯à¤ķà¥įà¤·": 3017,
      "Ġà¤ªà¥ģà¤°à¤¾à¤¨à¥ĩ": 3018,
      "(\"": 3019,
      "Ġà¤«à¥Ĥà¤²": 3020,
      "à¤ķà¤¾à¤²à¥Ģà¤¨": 3021,
      "Ġà¤°à¥ĭà¤ķà¤¨à¥ĩ": 3022,
      "à¤¾à¤īà¤¸": 3023,
      "Ġà¤ľà¤¿à¤¤": 3024,
      "à¤¯à¤°": 3025,
      "Ġà¤°à¥ĩà¤²": 3026,
      "ult": 3027,
      "Ġà¤ķà¤¦à¤®": 3028,
      "Ġà¤ĺà¥ĭà¤·à¤£": 3029,
      "à¤¶à¥įà¤¨": 3030,
      "à¤¾à¤¸à¥įà¤ķ": 3031,
      "Ġà¤ªà¥įà¤°à¥ĩà¤°à¤¿à¤¤": 3032,
      "Ġà¤ĸà¥ģà¤²": 3033,
      "à¥ĩà¤«": 3034,
      "Ġà¤®à¥Ģà¤¡à¤¿à¤¯à¤¾": 3035,
      "Ġà¤Ĩà¤¤à¤¾": 3036,
      "à¥ģà¤¤à¥įà¤¤": 3037,
      "Ġà¤ħà¤°à¤¬": 3038,
      "int": 3039,
      "Ġà¤¤à¥įà¤µà¤ļà¤¾": 3040,
      "Ġà¤īà¤¸à¤ķà¤¾": 3041,
      "Ġà¤¨à¤¾à¤®à¤ķ": 3042,
      "à¤¸à¥įà¤²": 3043,
      "à¥įà¤®à¤¿à¤ķ": 3044,
      "Ġà¤®à¤Ĥà¤¦à¤¿à¤°": 3045,
      "port": 3046,
      "Ġà¤°à¤¾à¤ľà¤¾": 3047,
      "à¤¾à¤ĩà¤®": 3048,
      "à¥ĩà¤¶à¤ķ": 3049,
      "Ġà¤¦à¥Į": 3050,
      "Ġà¤¬à¤ľà¥ĩ": 3051,
      "Ġres": 3052,
      "à¤¸à¤¨à¥įà¤¦à¤°à¥įà¤Ń": 3053,
      "Ġà¤ļà¥Ģà¤¨": 3054,
      "out": 3055,
      "Ġà¤ķà¤¡à¤¼": 3056,
      "Ġà¤ªà¥įà¤°à¤¤à¤¿à¤¨à¤¿à¤§à¤¿à¤¤à¥įà¤µ": 3057,
      "Ġà¤¡à¥īà¤ķà¥įà¤Łà¤°": 3058,
      "ind": 3059,
      "Ġà¤Ľà¤µà¤¿": 3060,
      "à¤§à¤¾à¤¨à¥Ģ": 3061,
      "overnment": 3062,
      "Ġà¤¸à¤¾à¤ķà¥įà¤·": 3063,
      "à¤µà¥ĩà¤¯à¤°": 3064,
      "Ġà¤µà¤¿à¤¦à¥įà¤¯à¤¾à¤²à¤¯": 3065,
      "2010": 3066,
      "Ġà¤µà¥įà¤¯à¤¾à¤µ": 3067,
      "Ġà¤µà¤¸à¥įà¤¤à¥ģà¤ĵà¤Ĥ": 3068,
      "Ġà¤®à¤¿à¤²à¤¾": 3069,
      "Ġà¤¸à¤®à¥Ĥà¤¹à¥ĭà¤Ĥ": 3070,
      "70": 3071,
      "Ġà¤¬à¤¾à¤¤à¤ļà¥Ģà¤¤": 3072,
      "Ġpl": 3073,
      "à¤°à¥įà¤£": 3074,
      "Ġà¤ħà¤ªà¥įà¤°à¥Īà¤²": 3075,
      "à¥īà¤«à¥įà¤Ł": 3076,
      "Ġà¤¸à¥Įà¤°": 3077,
      "Ġà¤µà¤¾à¤¤à¤¾à¤µà¤°à¤£": 3078,
      "à¤¬à¤¾à¤¹à¤°à¥Ģ": 3079,
      "à¤¾à¤¤à¤ķ": 3080,
      "Ġà¤®à¤ķ": 3081,
      "à¤®à¤¾à¤¨à¥ĩ": 3082,
      "Ġà¤ľà¥ģà¤²à¤¾à¤Ī": 3083,
      "aj": 3084,
      "ish": 3085,
      "28": 3086,
      "Ġà¤¬à¥Ģà¤®à¤¾à¤°": 3087,
      "à¤¿à¤¯à¤¾à¤¦à¥Ģ": 3088,
      "Ġà¤¬à¤¢à¤¼à¤¾à¤µà¤¾": 3089,
      "Ġà¤ªà¥įà¤°à¤¦à¤°à¥įà¤¶à¤¿à¤¤": 3090,
      "Ġà¤ªà¥įà¤°à¥ĭà¤«à¥ĩà¤¸à¤°": 3091,
      "Ġà¤µà¤¾à¤¯à¤°à¤¸": 3092,
      "à¥ĭà¤·à¤¿à¤¤": 3093,
      "à¤²à¥įà¤ªà¤¨à¤¾": 3094,
      "ood": 3095,
      "Ġà¤®à¤¿à¤¨à¤Ł": 3096,
      "Ġà¤®à¤¶à¥Ģà¤¨": 3097,
      "\"à¤¹à¤®": 3098,
      "à¥Ģà¤°": 3099,
      "à¤¾à¤Ĥà¤¤à¤°": 3100,
      "Ġà¤ªà¥įà¤°à¤£à¤¾à¤²": 3101,
      "à¤¯à¤¾à¤¨": 3102,
      "à¥Ĥà¤°à¥Ģ": 3103,
      "Ġà¤¨à¤ķà¤¾à¤°à¤¾à¤¤à¥įà¤®à¤ķ": 3104,
      "ome": 3105,
      "Ġà¤¸à¤¾à¤¹à¤¿à¤¤à¥įà¤¯": 3106,
      "194": 3107,
      "à¤°à¤¾à¤¨à¥Ģ": 3108,
      "Ġà¤µà¤¿à¤µà¤¿à¤§": 3109,
      "Ġà¤ķà¤¾à¤°à¥įà¤°": 3110,
      "Ġà¤ķà¤¾à¤°à¥įà¤¯à¤¾à¤²à¤¯": 3111,
      "Ġà¤ªà¥įà¤°à¤ķà¥ĥà¤¤à¤¿": 3112,
      "Ġà¤Ĩà¤ĩ": 3113,
      "âĢĻ": 3114,
      "Ġà¤ªà¥įà¤°à¤®à¤¾à¤£": 3115,
      "iz": 3116,
      "Ġà¤ľà¤¾à¤ª": 3117,
      "Ġà¤ļà¤¿à¤ķà¤¿à¤¤à¥įà¤¸": 3118,
      "à¤¾à¤®à¤ķ": 3119,
      "à¤£à¥ĭà¤Ĥ": 3120,
      "Ġà¤ħà¤µà¤¸à¤°": 3121,
      "Ġà¤īà¤¦à¥įà¤¯à¤¾à¤¨": 3122,
      "Ġà¤Ĩà¤¸à¤¾à¤¨à¥Ģ": 3123,
      "Ġà¤ªà¤¾à¤ģà¤ļ": 3124,
      "à¤®à¥įà¤¬": 3125,
      "He": 3126,
      "Ġà¤ªà¥įà¤°à¤¶à¤¾à¤¸à¤¨": 3127,
      "Ġà¤¯à¥Į": 3128,
      "Ġà¤ĳà¤ķà¥įà¤¸": 3129,
      "Ġà¤ĸà¤¤à¤°à¤¾": 3130,
      "Ġà¤ľà¥įà¤ŀà¤¾à¤¤": 3131,
      "Ġà¤°à¤£à¤¨à¥Ģ": 3132,
      "Ġwe": 3133,
      "Ġà¤¹à¤¤": 3134,
      "à¤«à¤²": 3135,
      "-à¤¨": 3136,
      "Ġà¤ıà¤¶": 3137,
      "Ġà¤¤à¥ĩà¤ľ": 3138,
      "Ġà¤¸à¤Ĥà¤ĺà¥Ģà¤¯": 3139,
      "à¤¾à¤°à¥įà¤¡": 3140,
      "à¥įà¤¯à¤¤à¤¾": 3141,
      "Ġà¤¤à¤°à¥Ģà¤ķà¥ĭà¤Ĥ": 3142,
      "Ġà¤¬à¥ģà¤¨à¤¿à¤¯à¤¾à¤¦à¥Ģ": 3143,
      "Ġà¤µà¤¿à¤°": 3144,
      "Ġà¤°à¤¸à¤¾à¤¯": 3145,
      "Ġà¤ķà¥įà¤°à¤®": 3146,
      "Ġà¤¶à¥Īà¤²à¥Ģ": 3147,
      "Ġà¤¦à¤¬à¤¾à¤µ": 3148,
      "27": 3149,
      "Ġà¤ķà¥įà¤¯à¥Ĥ": 3150,
      "ĠSt": 3151,
      "Ġà¤ľà¤¾à¤ıà¤Ĺà¥Ģ": 3152,
      "Ġà¤¹à¤¡à¥įà¤¡": 3153,
      "Ġà¤ľà¤²à¥įà¤¦à¥Ģ": 3154,
      "Ġà¤ªà¤¡à¤¼à¤¤à¤¾": 3155,
      "à¤¶à¥įà¤ļà¤°à¥įà¤¯": 3156,
      "Ġà¤ĺà¥ĭà¤·à¤£à¤¾": 3157,
      "Ġà¤¸à¤¡à¤¼à¤ķ": 3158,
      "Ġà¤¸à¤¿à¤¸à¥įà¤Ł": 3159,
      "Ġà¤ľà¥ģà¤¡à¤¼à¥ĩ": 3160,
      ".\"": 3161,
      "Ġwor": 3162,
      "orm": 3163,
      "à¥ģà¤¡": 3164,
      "Ġà¤¨à¤¿à¤¯à¤®à¤¿à¤¤": 3165,
      "2011": 3166,
      "Ġà¤¦à¥Ĥà¤¸à¤°à¤¾": 3167,
      "Ġà¤¸à¤¾à¤Ŀà¤¾": 3168,
      "Ġà¤ķà¥ģà¤¤à¥įà¤¤": 3169,
      "Ġà¤ªà¤¾à¤²": 3170,
      "Ġà¤ķà¤¾à¤°à¥įà¤°à¤µà¤¾à¤Ī": 3171,
      "Ġà¤ļà¤Łà¥įà¤Ł": 3172,
      "Ġà¤¬à¤¨à¤¾à¤¤à¤¾": 3173,
      "ich": 3174,
      "Ġà¤Ĺà¥ģà¤ľà¤°": 3175,
      "à¤¸à¤¿à¤ķ": 3176,
      "Ġà¤µà¤¿à¤®": 3177,
      "Ġhad": 3178,
      ".-": 3179,
      "à¤¿à¤²à¤¾": 3180,
      "Ġà¤Ĺà¤¤à¤¿à¤µà¤¿à¤§à¤¿à¤¯à¥ĭà¤Ĥ": 3181,
      "Ġà¤ªà¤¢à¤¼à¤¨à¥ĩ": 3182,
      "à¤¿à¤Ĥà¤Ĺà¤Łà¤¨": 3183,
      "Ġà¤Ĺà¤¹": 3184,
      "Ġà¤«à¤²": 3185,
      "Ġà¤Ĩà¤ªà¥Ĥà¤°à¥įà¤¤à¤¿": 3186,
      "Ġà¤²à¤ķà¤¡à¤¼à¥Ģ": 3187,
      "à¤¿à¤Łà¤²": 3188,
      "Ġà¤¸à¥įà¤¥à¤¾à¤¨à¥ĭà¤Ĥ": 3189,
      "26": 3190,
      "Ġar": 3191,
      "Ġà¤ĩà¤Ĥà¤ľà¥Ģà¤¨à¤¿à¤¯à¤°": 3192,
      "Ġà¤¬à¤¾à¤ľà¤¾à¤°": 3193,
      "Ġà¤ĸà¤¾à¤¨à¥ĩ": 3194,
      "à¤®à¥ĩà¤Ĥà¤Ł": 3195,
      "Ġà¤¸à¥Ĥà¤°à¥įà¤¯": 3196,
      "Ġà¤®à¤Ī": 3197,
      "Ġà¤ħà¤¨à¥ģà¤ªà¥įà¤°": 3198,
      "Ġà¤¸à¥įà¤¥à¤¾à¤ªà¤¨à¤¾": 3199,
      "Ġà¤ªà¥įà¤°à¥ĭà¤¤à¥įà¤¸": 3200,
      "Ġà¤°à¤¾à¤ľà¥įà¤¯à¥ĭà¤Ĥ": 3201,
      "Ġà¤ªà¥Ĥà¤°à¥įà¤µà¥Ģ": 3202,
      "Ġtheir": 3203,
      "og": 3204,
      "Ġà¤°à¤¹à¤¤à¤¾": 3205,
      "(à¤®": 3206,
      "à¤¿à¤¸à¥įà¤ķ": 3207,
      "Ġà¤ħà¤¨à¥ģà¤°": 3208,
      "Ġà¤Łà¤¿à¤ªà¥įà¤ª": 3209,
      "à¤°à¥įà¤¬": 3210,
      "Ġà¤Ĩà¤¶à¥įà¤ļà¤°à¥įà¤¯": 3211,
      "à¤¶à¥įà¤°": 3212,
      "Ġà¤Ńà¤¾à¤µà¤¨": 3213,
      "Ġà¤ªà¤°à¥ĩà¤¶": 3214,
      "Ġà¤ļà¤Ĥà¤¦à¥įà¤°": 3215,
      "Ġà¤®à¥ģà¤ķ": 3216,
      "Ġad": 3217,
      "Ġim": 3218,
      "Ġag": 3219,
      "29": 3220,
      "Ġà¤¶à¤¿à¤ķ": 3221,
      "2013": 3222,
      "Ġà¤ªà¥Ģà¤¡à¤¼à¤¿à¤¤": 3223,
      "Ġà¤¨à¤¿à¤µà¤¾à¤¸": 3224,
      "à¥ĩà¤¬": 3225,
      "Ġà¤īà¤¸à¥Ģ": 3226,
      "Ġà¤¡à¤¾à¤¯": 3227,
      "Ġab": 3228,
      "Ġà¤ľà¤¨à¤µà¤°à¥Ģ": 3229,
      "Ġà¤¨à¤¿à¤ª": 3230,
      "à¤¯à¥Ĥ": 3231,
      "ber": 3232,
      "Ġà¤ªà¥ģà¤°à¥ģà¤·à¥ĭà¤Ĥ": 3233,
      "one": 3234,
      "Ġà¤ħà¤§à¤¿à¤ķà¤¾à¤°à¥Ģ": 3235,
      "Ġà¤Ĩà¤Ĥà¤ķ": 3236,
      "Ġà¤Ĺà¥ģà¤²": 3237,
      "Ġà¤¶à¤°à¤¾à¤¬": 3238,
      "Ġà¤ªà¥įà¤¯": 3239,
      "Ġà¤ªà¤¤à¥įà¤¤": 3240,
      "Ġà¤ªà¥ģà¤°à¤¸à¥įà¤ķà¤¾à¤°": 3241,
      "à¤¸à¤Ĥà¤ĸ": 3242,
      "Ġà¤¶à¤¿à¤µ": 3243,
      "Ġà¤ļà¥ĭà¤Ł": 3244,
      "Ġà¤Īà¤Ĥà¤§à¤¨": 3245,
      "Ġà¤Ĩà¤¦à¥ĩà¤¶": 3246,
      "Ġà¤Ĺà¥įà¤°à¤¾à¤¹": 3247,
      "(à¤ª": 3248,
      "Ġà¤¦à¤µà¤¾à¤ĵà¤Ĥ": 3249,
      "Ġà¤ħà¤¨à¥ģà¤ª": 3250,
      "ĠMinister": 3251,
      "à¤¨à¤¾à¤ķ": 3252,
      "à¤¿à¤¯à¤¾à¤ĵà¤Ĥ": 3253,
      "à¤ıà¤ļ": 3254,
      "Ġà¤¦à¥Ĥà¤°à¥Ģ": 3255,
      "à¤¿à¤¸à¤Ĥà¤¬à¤°": 3256,
      "ik": 3257,
      "Ġà¤ķà¤¹à¥Ģà¤Ĥ": 3258,
      "à¥ģà¤²à¥ĩ": 3259,
      "Ġà¤¸à¥ģà¤¬à¤¹": 3260,
      "Ġà¤¸à¥įà¤¤à¤¨": 3261,
      "Ġà¤ľà¥Ģà¤¤": 3262,
      "à¤¾à¤¤à¤¾à¤ĵà¤Ĥ": 3263,
      "à¤²à¥ĭ": 3264,
      "Ġà¤¬à¥Īà¤ķ": 3265,
      "Ġà¤īà¤¤à¥įà¤ªà¤¾à¤¦à¥ĭà¤Ĥ": 3266,
      "Ġà¤²à¥ĩà¤¤à¥ĩ": 3267,
      "Ġà¤®à¤£à¥įà¤¡": 3268,
      "Ġper": 3269,
      "Ġà¤¸à¤Ĥà¤ĺà¤°à¥įà¤·": 3270,
      "Ġà¤µà¤¸à¥įà¤¤à¥ģ": 3271,
      "Ġà¤ķà¤¿à¤¶à¥ĭà¤°": 3272,
      "35": 3273,
      "Ġà¤¬à¤¾à¤µ": 3274,
      "Ġà¤¸à¤¾à¤¬": 3275,
      "à¥ĭà¤®à¥Ģ": 3276,
      "Ġà¤ıà¤ķà¤¤à¥įà¤°": 3277,
      "Ġà¤ľà¤Ĥà¤Ĺ": 3278,
      "Ġà¤¸à¤¾à¤ĩà¤Ł": 3279,
      "Ġà¤ķà¥ĥà¤ªà¤¯à¤¾": 3280,
      "Ġà¤ľà¥ĭà¤°": 3281,
      "Ġà¤ķà¥īà¤®": 3282,
      "Ġà¤ħà¤Ĥà¤¤à¤¤à¤ĥ": 3283,
      "Ġà¤®à¤¿à¤¶à¥įà¤°": 3284,
      "Ġà¤Ĺà¤¾à¤¯": 3285,
      "Ġà¤ªà¥įà¤°à¤¯à¥ĭà¤Ĺà¤¶à¤¾à¤²à¤¾": 3286,
      "ous": 3287,
      "Ġà¤ªà¥įà¤°à¥ĭà¤Łà¥Ģà¤¨": 3288,
      "Ġà¤®à¥ĩà¤²": 3289,
      "Ġà¤ħà¤¸à¥įà¤¥": 3290,
      "Ġà¤ľà¤²à¥įà¤¦": 3291,
      "Ġà¤µà¤¿à¤¦à¥įà¤¯à¥ģà¤¤": 3292,
      "Ġà¤ĳà¤¸à¥įà¤Łà¥įà¤°à¥ĩà¤²": 3293,
      "Ġà¤ıà¤ª": 3294,
      "Ġà¤ħà¤ķà¥įà¤Łà¥Ĥà¤¬à¤°": 3295,
      "Ġà¤¹à¤¾à¤¸": 3296,
      "Ġà¤¬à¥ĭ": 3297,
      "Ġà¤Ńà¤¿à¤¨à¥įà¤¨": 3298,
      "ail": 3299,
      "à¤«à¥įà¤¤": 3300,
      "à¥Ĥà¤«": 3301,
      "à¤¿à¤¡à¤¼": 3302,
      "Ġà¤¸à¤Ĥà¤ļà¤¾à¤²à¤¨": 3303,
      "à¥īà¤°à¥įà¤®": 3304,
      "à¥įà¤Ń": 3305,
      "Ġà¤®à¥ĩà¤¡": 3306,
      "Ġà¤ĺà¤¾à¤Ł": 3307,
      "Ġà¤ķà¤Ĥà¤ªà¤¨": 3308,
      "Ġà¤¬à¥Īà¤Ĥà¤ķ": 3309,
      "tion": 3310,
      "Ġà¤ªà¥Īà¤®à¤¾à¤¨à¥ĩ": 3311,
      "Ġà¤¦à¤¸à¥įà¤¤à¤¾à¤µ": 3312,
      "à¥Īà¤¨à¤¿à¤ķ": 3313,
      "Ġà¤¸à¤ķà¥ĩà¤Ĥ": 3314,
      "Ġà¤¬à¤¾à¤¹à¤°à¥Ģ": 3315,
      "Ġà¤«à¥Īà¤¸": 3316,
      "Ġà¤ªà¥įà¤°à¤¶à¤¿à¤ķà¥įà¤·à¤£": 3317,
      "90": 3318,
      "à¤Ńà¥Ĥà¤®": 3319,
      "Ġà¤¸à¤°à¥įà¤µà¥ĩ": 3320,
      "Ġà¤¯à¥Ĥà¤°à¥ĭà¤ªà¥Ģà¤¯": 3321,
      "Ġà¤¸à¤¾à¤¤": 3322,
      "Ġà¤¨à¤¿à¤ľ": 3323,
      "Ġwho": 3324,
      "Ġà¤ªà¥ĭà¤°à¥įà¤Ł": 3325,
      "Ġà¤°à¥ĭà¤ľ": 3326,
      "Ġà¤¸à¤°à¤ķà¤¾à¤°à¥Ģ": 3327,
      "Ġà¤ħà¤®à¥ĩà¤°à¤¿à¤ķ": 3328,
      "Ġà¤ªà¥įà¤°à¤Ĺ": 3329,
      "à¤ķà¥įà¤¤à¤¾": 3330,
      "à¤¾à¤ľà¥Ģ": 3331,
      "Ġà¤ªà¥įà¤°à¤¤à¤¿à¤Ń": 3332,
      "Ġà¤¶à¤ķà¥įà¤¤": 3333,
      "Ġà¤¸à¥įà¤µà¤¤à¤Ĥà¤¤à¥įà¤°à¤¤à¤¾": 3334,
      "Ġà¤ļà¤¿à¤Ĥà¤¤à¤¾": 3335,
      "à¥įà¤ĸ": 3336,
      "à¤¯à¥īà¤°à¥įà¤ķ": 3337,
      "Ġà¤ĩà¤¤à¤¨à¤¾": 3338,
      "Ġà¤¬à¤¾à¤µà¤ľà¥Ĥà¤¦": 3339,
      "ub": 3340,
      "à¤²à¥ĭà¤ķ": 3341,
      "ata": 3342,
      "à¥ĩà¤¦à¤¨à¤¶à¥Ģà¤²": 3343,
      "Ġà¤īà¤ªà¤¯à¥ĭà¤Ĺà¤ķà¤°à¥įà¤¤à¤¾": 3344,
      "à¤¾à¤ĩà¤¡à¥įà¤°": 3345,
      "Ġà¤¸à¥Ģà¤§à¥ĩ": 3346,
      "Ġà¤°à¤¾à¤¸à¥įà¤¤": 3347,
      "Ġà¤®à¥Ĥ": 3348,
      "Ġà¤ªà¥Īà¤Ł": 3349,
      "à¤¿à¤¹à¤¿à¤¤": 3350,
      "Ġà¤ĸà¥ģà¤¶": 3351,
      "Ġà¤ķà¤®à¤ľ": 3352,
      "\"à¤ľ": 3353,
      "Ġà¤ĸà¥ĭà¤²": 3354,
      "Ġà¤ªà¥įà¤°à¤µà¤¾à¤¹": 3355,
      "Ġà¤¸à¤¾à¤Ĥà¤¸": 3356,
      "Ġà¤®à¤²": 3357,
      "Ġà¤ľà¥įà¤¯à¤¾à¤¦à¤¾": 3358,
      "Ġà¤²à¤¿à¤Ĥà¤ķ": 3359,
      "Ġà¤ķà¤ķà¥įà¤·": 3360,
      "Ġà¤«à¥ĭà¤Ł": 3361,
      "à¤ķà¥įà¤·à¥įà¤®": 3362,
      "à¥ĭà¤°à¥įà¤¨à¤¿à¤¯à¤¾": 3363,
      "Ġà¤®à¤Ĥà¤Ĺà¤²": 3364,
      "Ġà¤Ńà¤Ĥà¤¡": 3365,
      "à¤µà¥įà¤¯à¤µ": 3366,
      "Ġà¤ªà¥įà¤°à¥ĭà¤Ĺà¥įà¤°à¤¾à¤®": 3367,
      ".,": 3368,
      "Ġà¤®à¤Ĥà¤¤à¥įà¤°à¥Ģ": 3369,
      "Ġà¤²à¥Įà¤Ł": 3370,
      "Ġà¤µà¤¿à¤Ńà¤¾à¤ľà¤¿à¤¤": 3371,
      "Ġà¤Ńà¤Ĺà¤µà¤¾à¤¨": 3372,
      "Ġà¤ķà¤¾à¤¨à¥Ĥ": 3373,
      "ple": 3374,
      "Ġà¤¸à¥Ĥà¤ĸ": 3375,
      "ĠCh": 3376,
      "Ġà¤ķà¤¡à¤¼à¤¿à¤¯à¤¾à¤ģ": 3377,
      "à¥ĩà¤ķà¥įà¤Ł": 3378,
      "à¤¾à¤ĵ": 3379,
      "Ġà¤µà¥įà¤¹": 3380,
      "Ġà¤¸à¤Ĥà¤¸à¥įà¤ķà¥ĥà¤¤à¤¿": 3381,
      "Ġà¤Ńà¥ģà¤Ĺ": 3382,
      "Ġà¤°à¤¾à¤®": 3383,
      "Ġà¤¶à¤¿à¤ķà¤¾à¤°": 3384,
      "Ġà¤ħà¤Ĺà¤¸à¥įà¤¤": 3385,
      "Ġwhich": 3386,
      "Ġà¤¯à¥ģà¤Ĺ": 3387,
      "ack": 3388,
      "Ġà¤Ŀà¥Ģà¤²": 3389,
      "Ġà¤Ĺà¤°à¥įà¤®à¥Ģ": 3390,
      "Ġà¤®à¤£à¥įà¤¡à¤²": 3391,
      "à¤°à¥ĩà¤ĸ": 3392,
      "Ġà¤¬à¤¨à¤¾à¤¤à¥ĩ": 3393,
      "Ġà¤¤à¥ģà¤°": 3394,
      "Ġà¤®à¤¿à¤²à¤¤à¤¾": 3395,
      "à¤¿à¤¨à¤¿à¤¯à¤®": 3396,
      "Ġà¤ªà¤°à¤®à¤¾à¤£à¥ģ": 3397,
      "à¤ªà¤¾à¤²": 3398,
      "Ġà¤°à¥ģà¤ļ": 3399,
      "à¤ļà¤°": 3400,
      "ide": 3401,
      "ations": 3402,
      "à¤¸à¥įà¤¥à¤¿à¤¤à¤¿": 3403,
      "It": 3404,
      "à¤ªà¤¾": 3405,
      "Ġà¤¬à¤¨à¥Ģ": 3406,
      "Ġà¤ªà¥ĩà¤¡à¤¼": 3407,
      "Ġthem": 3408,
      "Ġà¤Ĩà¤µà¤¾à¤¸": 3409,
      "Ġà¤ħà¤µà¤§à¤¾à¤°": 3410,
      "Ġà¤®à¥Įà¤¤": 3411,
      "Ġà¤ħà¤¨à¥ģà¤ªà¥įà¤°à¤¯à¥ĭà¤Ĺ": 3412,
      "\"à¤ª": 3413,
      "à¤¿à¤«à¥ĭà¤°à¥įà¤¨à¤¿à¤¯à¤¾": 3414,
      "Ġà¤¸à¤¿à¤¤à¤Ĥà¤¬à¤°": 3415,
      "Ġà¤¨à¤¿à¤ªà¤Ł": 3416,
      "¢à¤¼": 3417,
      "Ġà¤ķà¤¨à¤¾à¤¡": 3418,
      "à¥īà¤°": 3419,
      "Ġà¤µà¤¿à¤§à¤¿": 3420,
      "195": 3421,
      "à¤¾à¤£à¥Ģ": 3422,
      "Ġà¤¸à¤Ĥà¤¦à¥ĩà¤¶": 3423,
      "à¥ģà¤£": 3424,
      "«à¤²": 3425,
      "Ġà¤¬à¤¾à¤¯": 3426,
      "à¤µà¥ĩà¤Ĥ": 3427,
      "Ġà¤µà¤¿à¤«à¤²": 3428,
      "à¤°à¥įà¤¤à¤¨": 3429,
      "Ġà¤µà¤¸": 3430,
      "Ġà¤®à¤¹à¤¾à¤¸": 3431,
      "ov": 3432,
      "à¤ķà¤²": 3433,
      "du": 3434,
      "Ġà¤«à¥ģà¤Ł": 3435,
      "Ġà¤ħà¤§à¤¿à¤ķà¤¾à¤°à¤¿à¤¯à¥ĭà¤Ĥ": 3436,
      "ens": 3437,
      "à¤¿à¤°à¤£": 3438,
      "Ġà¤®à¥Īà¤¦à¤¾à¤¨": 3439,
      "à¥įà¤¨à¥Ģ": 3440,
      "à¤¬à¤°à¥įà¤Ĺ": 3441,
      "Ġà¤īà¤ªà¤Ń": 3442,
      "...": 3443,
      "Ġà¤¸à¤Ĥà¤¸à¤¾à¤§à¤¨à¥ĭà¤Ĥ": 3444,
      "à¥ĩà¤Ĥà¤¦à¥įà¤°": 3445,
      "à¤ªà¥įà¤°à¤¶à¥įà¤¨": 3446,
      "able": 3447,
      "Ġà¤Ńà¥ģà¤Ĺà¤¤à¤¾à¤¨": 3448,
      "Ġà¤¬à¤¨à¤¾à¤Ī": 3449,
      "à¤¸à¥Ģà¤¸à¥Ģ": 3450,
      "Ġà¤ªà¤Ĥà¤ľ": 3451,
      "à¤Ĥà¤Ĺà¥Ģ": 3452,
      "à¤¾à¤¶à¤¯": 3453,
      "Ġà¤Ĩà¤Ĥà¤¤à¤°à¤¿à¤ķ": 3454,
      "Ġà¤¹à¤¾à¤¨": 3455,
      "Ġà¤ľà¤¿à¤¨à¤ķà¥ĩ": 3456,
      "à¥įà¤²à¥Īà¤Ĥà¤¡": 3457,
      "Ġà¤¬à¤°": 3458,
      "à¤Ńà¥Ĥà¤®à¤¿": 3459,
      "Ġà¤µà¥įà¤¯à¤ķà¥įà¤¤à¤¿à¤¯à¥ĭà¤Ĥ": 3460,
      "Ġà¤ļà¤²à¤¨à¥ĩ": 3461,
      "Ġà¤«à¥įà¤°à¤¾à¤Ĥà¤¸": 3462,
      "Ġà¤¦à¤¿à¤¸à¤Ĥà¤¬à¤°": 3463,
      "Ġà¤¨à¤¿à¤Ĺà¤°à¤¾à¤¨à¥Ģ": 3464,
      "Ġà¤¸à¤¿à¤¸à¥įà¤Łà¤®": 3465,
      "Ġà¤ªà¥Īà¤Łà¤°à¥įà¤¨": 3466,
      "Ġpart": 3467,
      "Ġà¤²à¤Ĥà¤¬à¥Ģ": 3468,
      "Ġà¤¦à¤ķà¥įà¤·à¤¿à¤£à¥Ģ": 3469,
      "Ġà¤¸à¤°à¥įà¤µà¥ĩà¤ķà¥įà¤·à¤£": 3470,
      "Ġà¤ĩà¤®à¤¾à¤°": 3471,
      "à¤¾à¤®à¤¾à¤¨à¥įà¤¯": 3472,
      "Ġà¤¸à¤Ĥà¤Ĺà¥įà¤°à¤¹à¤¾à¤²à¤¯": 3473,
      "à¤ĳà¤ķà¥įà¤¸": 3474,
      "Ġà¤¶à¥įà¤°à¥ĩà¤£à¥Ģ": 3475,
      "Ġà¤°à¤¾à¤¸": 3476,
      "Ġà¤Łà¥ĩà¤ķà¥įà¤¸": 3477,
      "Ġà¤ķà¥ģà¤®à¤¾à¤°": 3478,
      "Ġà¤®à¤¾à¤ģ": 3479,
      "ring": 3480,
      "Ġà¤¡à¤°": 3481,
      "Ġà¤¸à¥Ĥà¤ķà¥įà¤·à¥įà¤®": 3482,
      "Ġà¤Ĩà¤¨à¥ģà¤µ": 3483,
      "Ġà¤ªà¤°à¤¿à¤Ńà¤¾à¤·à¤¿à¤¤": 3484,
      "Ġà¤¸à¤¿à¤²": 3485,
      "à¥ģà¤ª": 3486,
      "Ġà¤¬à¥įà¤°à¤¿à¤Łà¤¿à¤¶": 3487,
      "Ġà¤Ĺà¤°à¥Ģ": 3488,
      "Ġoff": 3489,
      "Ġà¤ªà¤°à¤¿à¤£à¤¾à¤®à¥ĭà¤Ĥ": 3490,
      "\"à¤µ": 3491,
      "Ġà¤Ĺà¤£à¤¨à¤¾": 3492,
      "Ġà¤¦à¤¿à¤¶à¤¾": 3493,
      "Ġà¤ªà¤¡à¤¼à¤¾": 3494,
      "Ġà¤²à¥ĩà¤Ĥ": 3495,
      "Ġà¤¬à¤¨à¤¾à¤¨à¤¾": 3496,
      "à¤ķà¤¾à¤²à¤¿à¤ķ": 3497,
      "à¥ĭà¤²à¤¨": 3498,
      "Ġà¤ªà¤°à¤¿à¤µà¤¹à¤¨": 3499,
      "Ġà¤¨à¥Ģà¤¤à¤¿": 3500,
      "Ġà¤ľà¥īà¤°à¥įà¤ľ": 3501,
      "à¤¸à¤Ĥ": 3502,
      "à¤ļà¤ķ": 3503,
      "Ġà¤µà¤¾à¤¯à¥ģ": 3504,
      "Ġà¤ļà¥ģà¤¨à¥Įà¤¤à¥Ģ": 3505,
      "Ġà¤ªà¥Įà¤§à¥ĩ": 3506,
      "Ġà¤ķà¤¾à¤°à¥įà¤¡": 3507,
      "Ġà¤¸à¥įà¤ķà¥įà¤°": 3508,
      "à¥ĭà¤²à¥ī": 3509,
      "2014": 3510,
      "Ġà¤Ĩà¤¤à¥ĩ": 3511,
      "à¤¿à¤¤à¤¿": 3512,
      "li": 3513,
      "à¥ĭà¤¦": 3514,
      "à¤¿à¤²à¥Ģ": 3515,
      "Ġà¤¨à¥įà¤¯à¥Ĥà¤¯à¥īà¤°à¥įà¤ķ": 3516,
      "Ġà¤¬à¥ĭà¤°à¥įà¤¡": 3517,
      "ance": 3518,
      "\"\"\"": 3519,
      "Ġà¤®à¥Īà¤ķ": 3520,
      "à¤ľà¤¨à¤¨": 3521,
      "Ġà¤ħà¤µà¤¶": 3522,
      "Ġà¤ªà¤ķà¥įà¤·à¥Ģ": 3523,
      "Ġà¤°à¤ĸà¤¨à¤¾": 3524,
      "Ġà¤ľà¤°à¥Ĥà¤°": 3525,
      "Ġà¤¶à¤¾à¤¦à¥Ģ": 3526,
      "Ġà¤ľà¥Īà¤µ": 3527,
      "Ġà¤¨à¤¿à¤ļ": 3528,
      "Ġà¤Ĩà¤¤à¥Ģ": 3529,
      "à¤¸à¥įà¤ķà¥ĥà¤¤à¤¿à¤ķ": 3530,
      "Ġà¤¸à¤¾à¤«": 3531,
      "Ġà¤®à¤¾à¤°à¥įà¤ķ": 3532,
      "Ġà¤ªà¥ī": 3533,
      "à¤ªà¥ĩà¤¶": 3534,
      "Ġà¤ķà¥ĭà¤°": 3535,
      "à¤¬à¥įà¤¬": 3536,
      "à¤¿à¤¸à¥įà¤ª": 3537,
      "Ġà¤¹à¤²à¥įà¤ķ": 3538,
      "Ġà¤®à¤¾à¤ĩà¤ķà¥įà¤°": 3539,
      "ass": 3540,
      "Ġà¤ľà¤¹à¤¾à¤ľ": 3541,
      "à¤¿à¤ªà¥įà¤¤": 3542,
      "Ġà¤¸à¥Ī": 3543,
      "Ġà¤«à¥ĭà¤¨": 3544,
      "Ġà¤Łà¥Ĥà¤Ł": 3545,
      "Ġà¤°à¥ĭà¤Ĺà¥Ģ": 3546,
      "Ġà¤īà¤Ĺ": 3547,
      "Ġà¤ĸà¤°à¥įà¤ļ": 3548,
      "Ġà¤«à¥Ģà¤Ł": 3549,
      "ĠPr": 3550,
      "à¥ĭà¤®à¥Ģà¤Łà¤°": 3551,
      "Ġà¤§à¤¾à¤¤": 3552,
      "à¤ļà¤¨à¤¾à¤¤à¥įà¤®à¤ķ": 3553,
      "Ġà¤ķà¥Īà¤²à¤¿à¤«à¥ĭà¤°à¥įà¤¨à¤¿à¤¯à¤¾": 3554,
      "à¤¡à¥įà¤°": 3555,
      "Ġà¤®à¤¾à¤¨à¤ļà¤¿à¤¤à¥įà¤°": 3556,
      "Ġà¤¡à¤¿à¤ľà¤¼": 3557,
      "-à¤ıà¤ķ": 3558,
      "Ġà¤¦à¥Ģà¤µ": 3559,
      "Ġà¤ľà¤¨à¤¤à¤¾": 3560,
      "à¥Ĥà¤¦à¥Ģ": 3561,
      "Ġà¤ħà¤§à¤¿à¤¨à¤¿à¤¯à¤®": 3562,
      "Ġà¤ľà¤¾à¤¨à¤µà¤°": 3563,
      "Ġà¤¨à¤¿à¤¦à¤¾à¤¨": 3564,
      "Ġà¤ħà¤Ńà¤¿à¤¯à¤¾à¤¨": 3565,
      "Ġà¤ªà¤¤à¥įà¤¥": 3566,
      "Ġà¤Ĩà¤¨à¤Ĥà¤¦": 3567,
      "Ġà¤ªà¥įà¤°à¤£à¤¾à¤²à¤¿à¤¯à¥ĭà¤Ĥ": 3568,
      "Ġx": 3569,
      "Ġà¤ªà¥įà¤°à¤Ńà¤¾à¤µà¥ĭà¤Ĥ": 3570,
      "Ġà¤ľà¤®à¥Ģà¤¨": 3571,
      "Ġà¤¸à¤°à¥įà¤¦": 3572,
      "Ġà¤Ĩà¤¯à¥ĭà¤ľà¤¿à¤¤": 3573,
      "per": 3574,
      "Ġthey": 3575,
      "Ġà¤ªà¤Ł": 3576,
      "Ġà¤¤à¤°à¤²": 3577,
      "Ġdo": 3578,
      "Ġà¤µà¤¾à¤¯": 3579,
      "à¤¿à¤·à¤¦": 3580,
      "à¤¸à¥įà¤¯à¥ĭà¤Ĥ": 3581,
      "ang": 3582,
      "Ġà¤¨à¥ĩà¤¤à¤¾": 3583,
      "Ġà¤¤à¥ģà¤°à¤Ĥà¤¤": 3584,
      "Ġà¤¨à¤¾à¤Ł": 3585,
      "à¤¾à¤°à¤ķ": 3586,
      "Ġà¤°à¤¸": 3587,
      "à¤¸à¤Ńà¤¾": 3588,
      "Ġà¤¬à¤¢à¤¼à¤¤à¥Ģ": 3589,
      "à¥ĩà¤¤à¤¾": 3590,
      "Ġà¤°à¥Ģ": 3591,
      "à¤¾à¤®à¤¿à¤¨": 3592,
      "Ġà¤¨à¤¿à¤Ń": 3593,
      "Ġà¤¡à¥ĩà¤µ": 3594,
      "Ġà¤¨à¤µà¤Ĥà¤¬à¤°": 3595,
      "Ġà¤ľà¤¿à¤®à¥įà¤®à¥ĩà¤¦à¤¾à¤°": 3596,
      "à¤¾à¤ĩà¤¯à¥ĭà¤Ĥ": 3597,
      "fter": 3598,
      "à¤¿à¤Ĥà¤Ł": 3599,
      "Ġà¤®à¤¾à¤¨à¤¸à¤¿à¤ķ": 3600,
      "eop": 3601,
      "Ġà¤µà¤Ĥà¤¶": 3602,
      "Ġà¤ķà¥Īà¤°": 3603,
      "ru": 3604,
      "Ġà¤¶à¤¿à¤ķà¥įà¤·à¤ķà¥ĭà¤Ĥ": 3605,
      "Ġà¤ħà¤Ńà¤¿à¤¨": 3606,
      "Ġà¤Ĩà¤Ĥà¤¦": 3607,
      "Ġà¤¤à¥Ĥà¤«": 3608,
      "Ġà¤°à¥ģà¤ļà¤¿": 3609,
      "Ġà¤¸à¤¾à¤ĩ": 3610,
      "Ġà¤°à¤µ": 3611,
      "red": 3612,
      "Ġà¤µà¥įà¤¯à¤¾à¤ĸà¥įà¤¯à¤¾": 3613,
      "Ġà¤ªà¤°à¤¿à¤¸": 3614,
      "à¤¾à¤ķà¥Ģ": 3615,
      "-à¤¶": 3616,
      "Ġà¤¸à¤¿": 3617,
      "-à¤«": 3618,
      "2009": 3619,
      "à¥ĩà¤°à¥ĩ": 3620,
      "à¤®à¤¾à¤¤à¥įà¤°": 3621,
      "Ġà¤Ńà¤¾à¤µà¤¨à¤¾": 3622,
      "Ġà¤¤à¤Ĥà¤¤à¥įà¤°à¤¿à¤ķà¤¾": 3623,
      "Ġà¤²à¥Ī": 3624,
      "Ġà¤Ńà¥Įà¤¤à¤¿à¤ķ": 3625,
      "Ġà¤¯à¤¹à¥Ģ": 3626,
      "Ġà¤µà¤¿à¤ľà¥įà¤ŀ": 3627,
      "Ġà¤¦à¤¿à¤ĸà¤¾à¤¯à¤¾": 3628,
      "à¥įà¤°à¤¤à¤¾": 3629,
      "Ġà¤°à¥ĩà¤ĸà¤¾": 3630,
      "à¤Ĺà¤£": 3631,
      "Ġà¤¦à¥įà¤°": 3632,
      "Ġà¤¦à¤¿à¤µà¤¸": 3633,
      "Ġà¤°à¤¿à¤¸": 3634,
      "Ġà¤®à¤¾à¤¨à¤¨à¤¾": 3635,
      "Ġnew": 3636,
      "à¤ľà¤²": 3637,
      "Ġà¤ĺà¤Łà¤¨à¤¾à¤ĵà¤Ĥ": 3638,
      "Ġà¤¶à¤¾à¤¸à¤¨": 3639,
      "Ġà¤¬à¤¨à¤¨à¥ĩ": 3640,
      "à¥ĭà¤ľà¤¨à¤¾à¤ĵà¤Ĥ": 3641,
      "Ġà¤§à¤¾à¤°à¥įà¤®à¤¿à¤ķ": 3642,
      "Ġà¤¡à¤¿à¤ľà¤¼à¤¾à¤ĩà¤¨": 3643,
      "Ġà¤®à¤¿à¤¶à¤¨": 3644,
      "à¤¹à¤¾à¤²": 3645,
      "Ġup": 3646,
      "Ġà¤ªà¥įà¤°à¤¤à¤¿à¤¬à¤Ĥà¤§": 3647,
      "à¤ķà¥ĭà¤¶": 3648,
      "Ġà¤Īà¤¸": 3649,
      "Ġà¤Ĺà¤¾à¤Ĥà¤µ": 3650,
      "Ġà¤īà¤¨à¥įà¤¨": 3651,
      "Ġà¤īà¤ªà¤¯à¥ĭà¤Ĺà¥Ģ": 3652,
      "Ġà¤¦à¤¸": 3653,
      "à¤¥à¤¾": 3654,
      "Ġà¤ªà¥ģà¤°à¤¾à¤¨à¥Ģ": 3655,
      "Ġà¤¨à¤¿à¤ķà¤Ł": 3656,
      "à¥Ĥà¤·à¤£": 3657,
      "',": 3658,
      "Ġà¤ªà¤¾à¤ķ": 3659,
      "Ġà¤ļà¥Ģà¤ľà¥ĭà¤Ĥ": 3660,
      "Ġapp": 3661,
      "Ġà¤ªà¥ģà¤¸à¥įà¤¤à¤ķà¤¾à¤²à¤¯": 3662,
      "à¤¨à¥įà¤¦": 3663,
      "-à¤ľà¥Īà¤¸à¥ĩ": 3664,
      "\")": 3665,
      "Ġà¤¬à¤¦à¤²à¤¨à¥ĩ": 3666,
      "Ġà¤®à¤¾à¤Ĥà¤¸à¤ªà¥ĩà¤¶": 3667,
      "à¤¾à¤¯à¤¨à¤¿à¤ķ": 3668,
      "Ġà¤¤à¤¤à¥įà¤µà¥ĭà¤Ĥ": 3669,
      "Ġà¤¸à¤¾": 3670,
      "Ġà¤¤à¤°à¤«": 3671,
      "à¤ľà¤¨à¤ķ": 3672,
      "Ġà¤ħà¤µà¤¸": 3673,
      "45": 3674,
      "Ġà¤ªà¥įà¤°à¤§à¤¾à¤¨": 3675,
      "Ġà¤ħà¤ªà¤°à¤¾à¤§": 3676,
      "Ġà¤«à¤°à¤µà¤°à¥Ģ": 3677,
      "Ġà¤µà¤¿à¤ļà¤¾à¤°à¥ĭà¤Ĥ": 3678,
      "à¤¿à¤ľà¤¼": 3679,
      "Ġà¤¬à¤¦à¤²à¤¾à¤µ": 3680,
      "à¤ķà¥įà¤·à¤¿à¤ªà¥įà¤¤": 3681,
      "à¥įà¤«à¥ĭà¤Ł": 3682,
      "Ġà¤ĩà¤Ĥà¤Łà¤°à¤¨à¥ĩà¤Ł": 3683,
      "Ġà¤¨à¤¿à¤ľà¥Ģ": 3684,
      "ll": 3685,
      "Ġà¤°à¤¾à¤¶": 3686,
      "Ġà¤ħà¤«à¥įà¤°à¥Ģà¤ķà¤¾": 3687,
      "Ġà¤ľà¥Īà¤µà¤¿à¤ķ": 3688,
      "Ġà¤¸à¥įà¤ªà¥ĩà¤¨": 3689,
      "Ġà¤ĩà¤Ĥà¤Ĺà¥įà¤²à¥Īà¤Ĥà¤¡": 3690,
      "Ġà¤ļà¥ĩà¤¤": 3691,
      "-à¤ļ": 3692,
      "Ġà¤¸à¤«à¤²à¤¤à¤¾": 3693,
      "Ġà¤ļà¤ķà¥įà¤°": 3694,
      "Ġà¤¸à¥ģà¤Ĥà¤¦à¤°": 3695,
      "ays": 3696,
      "Ġà¤®à¤§à¥ģà¤®à¥ĩà¤¹": 3697,
      "à¥Īà¤Ĥà¤ķ": 3698,
      "à¤¤à¥ģ": 3699,
      "Ġà¤¹à¤µà¤¾à¤Ī": 3700,
      "Ġà¤¸à¥ĩà¤µà¤¨": 3701,
      "Ġà¤ĩà¤¸à¥įà¤¤": 3702,
      "Ġacc": 3703,
      "à¤ķà¥ĥà¤¤": 3704,
      "Ġà¤ªà¥įà¤°à¤ľà¤¨à¤¨": 3705,
      "Ġà¤ªà¥įà¤°à¤Ĺà¤¤à¤¿": 3706,
      "à¤¸à¥įà¤µ": 3707,
      "Ġà¤¸à¤Ĥà¤ªà¤¤à¥įà¤¤à¤¿": 3708,
      "Ġà¤¸à¤ª": 3709,
      "Ġà¤¯à¤¾à¤¤": 3710,
      "Ġà¤ªà¤¾à¤°à¥įà¤ķ": 3711,
      "à¤¯à¥Ģ": 3712,
      "Ġà¤Ĺà¤¹à¤°": 3713,
      "à¤¾à¤¯à¤¤": 3714,
      "à¥ĩà¤Ĥà¤¸à¥Ģ": 3715,
      "Ġà¤¤à¤²à¤¾à¤¶": 3716,
      "Ġà¤ªà¤¾à¤Ī": 3717,
      "Ġà¤Ĩà¤ķà¤¾à¤¶": 3718,
      "Ġà¤¸à¤¿à¤°à¥įà¤«": 3719,
      "à¥ģà¤ĩ": 3720,
      "à¤¿à¤²à¥ĩ": 3721,
      "Ġtw": 3722,
      "Ġà¤Ńà¤¾à¤Ī": 3723,
      "Ġà¤ķà¤¹à¤¾à¤ģ": 3724,
      "Ġà¤¨à¤¿à¤°à¤Ĥà¤¤à¤°": 3725,
      "-à¤§": 3726,
      "Ġà¤¨à¤¿à¤µà¥ĩà¤¶": 3727,
      "Ġà¤¦à¥ĩà¤Ĺà¤¾": 3728,
      "Ġà¤¬à¥ĩà¤²": 3729,
      "à¤¾à¤¯à¤¾à¤®": 3730,
      "à¤ļà¤¸à¥įà¤ª": 3731,
      "à¥Ĥà¤ł": 3732,
      "à¥įà¤ľà¤¼": 3733,
      "ake": 3734,
      "Ġà¤ķà¥ģà¤¶": 3735,
      "à¤ªà¥Ĥà¤°à¥įà¤µ": 3736,
      "2008": 3737,
      "Ġcont": 3738,
      "Ġà¤īà¤ªà¤¯à¥ģà¤ķà¥įà¤¤": 3739,
      "à¤Ĥà¤Ĺà¤¿à¤ķ": 3740,
      "Ġà¤īà¤¤à¥įà¤¸à¤°à¥įà¤ľà¤¨": 3741,
      "Ġà¤ľà¥įà¤µ": 3742,
      "Ġà¤ĩà¤Ĥà¤ļ": 3743,
      "à¤¿à¤®à¥Ģ": 3744,
      "Ġà¤¸à¤¾à¤¬à¤¿à¤¤": 3745,
      "Ġà¤¸à¤¨": 3746,
      "enc": 3747,
      "Ġch": 3748,
      "Ġà¤¹à¤¿à¤¸à¥įà¤¸à¥ĭà¤Ĥ": 3749,
      "500": 3750,
      "Ġà¤¸à¥īà¤«à¥įà¤Ł": 3751,
      "Ġà¤Ĩà¤¦à¤®à¥Ģ": 3752,
      "Ġà¤ħà¤Ńà¤¿à¤µ": 3753,
      "Ġà¤ĩà¤²à¥ĩà¤ķà¥įà¤Łà¥įà¤°à¥īà¤¨": 3754,
      "\"à¤¬": 3755,
      "à¥įà¤¯à¤¿à¤ķ": 3756,
      "Ġà¤ķà¤®à¤ľà¥ĭà¤°": 3757,
      "à¥ĭà¤¶": 3758,
      "Ġà¤ĩà¤Ĥà¤¸": 3759,
      "Ġà¤¦à¥ĩà¤µ": 3760,
      "Ġà¤ªà¥įà¤°à¤ľà¤¾à¤¤à¤¿": 3761,
      "Ġà¤µà¤¿à¤²à¤¿à¤¯à¤®": 3762,
      "à¤¨à¥ĩà¤ķ": 3763,
      "Ġà¤¸à¤¾à¤Ĥà¤¸à¥įà¤ķà¥ĥà¤¤à¤¿à¤ķ": 3764,
      "Ġif": 3765,
      "Ġà¤ķà¥įà¤²à¤¿à¤ķ": 3766,
      "à¤ĩà¤¨à¥įà¤¹à¥ĩà¤Ĥ": 3767,
      "Ġà¤īà¤ľ": 3768,
      "Ġà¤ĸà¤¾à¤¡à¤¼à¥Ģ": 3769,
      "Ġà¤ħà¤«à¥įà¤°à¥Ģà¤ķà¥Ģ": 3770,
      "Ġà¤°à¤¾à¤¸à¤¾à¤¯à¤¨à¤¿à¤ķ": 3771,
      "à¤¾à¤¶à¤¿à¤Ĥà¤Ĺà¤Łà¤¨": 3772,
      "ign": 3773,
      "Ġà¤ªà¥įà¤°à¥ĭà¤¤à¥įà¤¸à¤¾à¤¹à¤¿à¤¤": 3774,
      "Ġà¤ķà¤łà¥ĭà¤°": 3775,
      "eople": 3776,
      "Ġà¤¦à¤¾à¤µà¤¾": 3777,
      "Ġà¤¶à¥ģ": 3778,
      "Ġà¤¦à¤¿à¤²à¤ļà¤¸à¥įà¤ª": 3779,
      "Ġà¤Ĩà¤ł": 3780,
      "Ġà¤Ĭà¤Ĥà¤ļ": 3781,
      "Ġà¤¸à¤¦à¤¸à¥įà¤¯à¥ĭà¤Ĥ": 3782,
      "Ġà¤Ĺà¤¿à¤°à¤¾à¤µà¤Ł": 3783,
      "Ġà¤¥à¥ĭà¤¡à¤¼à¤¾": 3784,
      "Ġà¤¸à¤Ĥà¤µà¤¾à¤¦": 3785,
      "à¤¿à¤ķà¥ĩà¤Ł": 3786,
      "Ġà¤µà¤¿à¤¶à¥ĩà¤·à¤¤à¤¾à¤ĵà¤Ĥ": 3787,
      "à¥ĩà¤Ĥà¤¡à¤°": 3788,
      "Ġà¤¸à¤Ĥà¤µà¥ĩà¤¦à¤¨à¤¶à¥Ģà¤²": 3789,
      "Ġà¤µà¤¸à¤¾": 3790,
      "Ġà¤¨à¤¾à¤¸à¤¾": 3791,
      "à¥ģà¤·à¥įà¤Łà¤¿": 3792,
      "Ġà¤ķà¥Ģà¤Ł": 3793,
      "Ġà¤®à¥ĩà¤°à¥Ģ": 3794,
      "à¥Īà¤°": 3795,
      "ace": 3796,
      "Ġà¤ªà¥įà¤°à¤¤à¥Ģà¤¤": 3797,
      "à¤ķà¥įà¤·à¤ķ": 3798,
      "Ġà¤ĩà¤ķà¤¾à¤Ī": 3799,
      "Ġà¤ļà¤¾à¤°à¥ĭà¤Ĥ": 3800,
      "Ġà¤¸à¥įà¤µà¤¾à¤¦": 3801,
      "Ġà¤¤à¤ķà¤¨à¥Ģà¤ķà¥Ģ": 3802,
      "Ġà¤ªà¤¾à¤°à¤¿à¤¸à¥įà¤¥à¤¿à¤¤": 3803,
      "Ġà¤ķà¤¾à¤°à¥įà¤¯à¤ķà¥įà¤°à¤®à¥ĭà¤Ĥ": 3804,
      "Ġà¤¸à¤¿à¤ĸ": 3805,
      "Ġà¤Ĺà¥ĥà¤¹": 3806,
      "Ġà¤ľà¤¾à¤ıà¤ģ": 3807,
      "Ġint": 3808,
      "à¤Ĥà¤ľà¥Ģ": 3809,
      "Ġà¤ıà¤ķà¤®à¤¾à¤¤à¥įà¤°": 3810,
      "à¥įà¤®à¤¾": 3811,
      "à¤¾à¤ķà¥įà¤·": 3812,
      "oug": 3813,
      "Ġà¤ĵà¤²": 3814,
      "very": 3815,
      "Ġà¤ªà¥įà¤°à¤¥à¤®": 3816,
      "à¤Ĭ": 3817,
      "à¤¯à¤¨à¥ĭà¤Ĥ": 3818,
      "Ġà¤ħà¤ªà¤¨": 3819,
      "Ġà¤ļà¤¾à¤¹à¤¤à¤¾": 3820,
      "Ġà¤¯à¤¹à¥Ĥà¤¦à¥Ģ": 3821,
      "This": 3822,
      "Ġà¤ĸà¥ĩà¤¤": 3823,
      "Ġà¤«à¤¸à¤²": 3824,
      "Ġà¤ªà¥įà¤°à¤¤à¤¿à¤°": 3825,
      "Ġà¤µà¥įà¤¯à¤¾à¤¯à¤¾à¤®": 3826,
      "Ġà¤¬à¤¤à¤¾à¤¤à¥ĩ": 3827,
      "à¥ĩà¤¦à¤¾à¤°à¥Ģ": 3828,
      "à¥Ĥà¤¬": 3829,
      "Ġà¤µà¤¿à¤¸à¥įà¤«à¥ĭà¤Ł": 3830,
      "Ġà¤Ĭà¤ģ": 3831,
      "Ġover": 3832,
      "ile": 3833,
      "Ġman": 3834,
      "Ġà¤Ĺà¥įà¤°à¤¾à¤®à¥Ģ": 3835,
      "Ġà¤¦à¥ģà¤ķ": 3836,
      "Ġà¤¬à¥Īà¤łà¤ķ": 3837,
      "\":": 3838,
      "33": 3839,
      "Ġà¤®à¥ĩà¤ľ": 3840,
      "à¤Ĺà¤¨": 3841,
      "2007": 3842,
      "Ġà¤µà¤¿à¤§à¤¾à¤¨": 3843,
      "Ġà¤²à¤ķà¥įà¤·à¤£à¥ĭà¤Ĥ": 3844,
      "Ġà¤ªà¥įà¤°à¤Ń": 3845,
      "esh": 3846,
      "Ġà¤¸à¥Īà¤¨à¥įà¤¯": 3847,
      "à¤°à¥ĩà¤²à¥Ĥ": 3848,
      "Ġà¤ıà¤ķà¤²": 3849,
      "Ġstate": 3850,
      "\"à¤ıà¤ķ": 3851,
      "Ġà¤ľà¥ĭà¤¡à¤¼à¤¾": 3852,
      "à¥įà¤¹à¥ĭà¤Ĥà¤¨à¥ĩ": 3853,
      "à¤¿à¤¹à¤¾à¤°": 3854,
      "Ġà¤¦à¥Ĥà¤§": 3855,
      "Ġà¤¹à¤¦": 3856,
      "Ġà¤¸à¤Ĥà¤ķà¥įà¤·à¤¿à¤ªà¥įà¤¤": 3857,
      "Ġà¤ļà¤²à¥ĩ": 3858,
      "Ġà¤¦à¥ĭà¤·": 3859,
      "Ġà¤ķà¤¿à¤¨à¤¾à¤°à¥ĩ": 3860,
      "Ġà¤ĸà¥ĭà¤ľà¤¨à¥ĩ": 3861,
      "Ġà¤²à¤¡à¤¼à¤¾à¤Ī": 3862,
      "Ġà¤ªà¤Ĥà¤ĸ": 3863,
      "Ġus": 3864,
      "Ġà¤°à¤¾à¤¹": 3865,
      "Ġà¤ªà¥ĭà¤·à¤£": 3866,
      "à¥įà¤Łà¥Ģà¤°à¤¿à¤¯à¤¾": 3867,
      "vel": 3868,
      "Ġà¤¸à¤Ĥà¤¦à¤°à¥įà¤Ńà¤¿à¤¤": 3869,
      "Ġà¤®à¤¸": 3870,
      "à¤²à¤¿à¤¤": 3871,
      "Ġà¤ķà¥Ģà¤®à¤¤": 3872,
      "à¤¿à¤¤à¥įà¤¤": 3873,
      "Ġà¤ĺà¤¾à¤¸": 3874,
      "Ġà¤ķà¥Īà¤®": 3875,
      "()": 3876,
      "à¤ķà¤Ĥà¤ª": 3877,
      "Ġà¤ķà¤¾à¤°à¤ķ": 3878,
      "Ġà¤¸à¤Ĥà¤ªà¤¾à¤¦": 3879,
      "à¤¿à¤ľà¥įà¤ŀ": 3880,
      "Ġà¤ªà¤°à¥Ģà¤ķà¥įà¤·à¤¾": 3881,
      "à¥ĩà¤²à¤¨": 3882,
      "ĠĠĠĠĠ": 3883,
      "Ġà¤ħà¤Ĺà¥įà¤°": 3884,
      "Ġà¤ªà¥įà¤°à¤¤à¤¿à¤°à¥ĭà¤§": 3885,
      "Ġà¤ķà¥ĩà¤Ĥà¤¦à¥įà¤°à¥Ģà¤¯": 3886,
      "ound": 3887,
      "Ġà¤¸à¥įà¤²": 3888,
      "à¤Łà¤¾": 3889,
      "Ġà¤¶à¤¾à¤¨": 3890,
      "à¤ªà¥įà¤°à¤¶à¥įà¤¨à¤ĥ": 3891,
      "à¥įà¤¯à¥Ĥà¤Ł": 3892,
      "Ġà¤¨à¤¿à¤°à¥įà¤µ": 3893,
      "Ġà¤¸à¤Ĥà¤¬à¤Ĥà¤§à¥Ģ": 3894,
      "à¤°à¥įà¤Ĺà¤¤": 3895,
      "Ġà¤Ĩà¤Ĥà¤¦à¥ĭà¤²à¤¨": 3896,
      "Ġà¤¨à¤¿à¤¦à¥ĩà¤¶à¤ķ": 3897,
      "Ġà¤Ĩà¤¨à¥ģà¤µà¤Ĥà¤¶à¤¿à¤ķ": 3898,
      "à¤¿à¤²à¥įà¤®": 3899,
      "Ġà¤¸à¤Ĥà¤¶à¥ĭà¤§à¤¿à¤¤": 3900,
      "Ġà¤ªà¤¤à¥įà¤¥à¤°": 3901,
      "ater": 3902,
      "Ġà¤Ĭà¤¤": 3903,
      "Ġà¤ĸà¤¾à¤¤à¥ĩ": 3904,
      "Ġà¤²à¥ĩà¤¨à¤¾": 3905,
      "form": 3906,
      "à¤ªà¤¤": 3907,
      "Ġà¤Ĩà¤ªà¤¨à¥ĩ": 3908,
      "Ġà¤¸à¥ģà¤ªà¤°": 3909,
      "Ġà¤µà¥įà¤¯à¤µà¤¸à¥įà¤¥à¤¾": 3910,
      "Ġà¤µà¤¿à¤·à¤¯à¥ĭà¤Ĥ": 3911,
      "Ġdis": 3912,
      "(à¤µ": 3913,
      "Ġà¤ľà¤¾à¤²": 3914,
      "Ġà¤µà¤¿à¤Ł": 3915,
      "Ġà¤ªà¤¹à¤²": 3916,
      "Ġà¤¦à¥įà¤µà¤¿à¤¤à¥Ģà¤¯": 3917,
      "Ġà¤ħà¤§à¥įà¤¯à¤¯à¤¨à¥ĭà¤Ĥ": 3918,
      "Ġà¤ĩà¤ļà¥įà¤Ľ": 3919,
      "Ġà¤¬à¤¢à¤¼à¤¤à¥ĩ": 3920,
      "ree": 3921,
      "Ġà¤Ĺà¥įà¤°à¥Ģà¤¨": 3922,
      "à¤¾à¤Ĥà¤¤à¤°à¤¿à¤¤": 3923,
      "31": 3924,
      "Ġà¤¸à¥īà¤«à¥įà¤Łà¤µà¥ĩà¤¯à¤°": 3925,
      "Ġà¤īà¤¤à¥įà¤ķ": 3926,
      "Ġà¤§à¥Ĥà¤®": 3927,
      "-à¤²": 3928,
      "Ġà¤Ńà¤µà¤¿à¤·à¥įà¤¯à¤µ": 3929,
      "Ġà¤ľà¥ģà¤¡à¤¼": 3930,
      "à¤¿à¤¶à¥įà¤µ": 3931,
      "Ġà¤§à¥ĭ": 3932,
      "à¥ĭà¤§à¤¨": 3933,
      "Ġà¤¸à¥įà¤Łà¥ĩà¤¶à¤¨": 3934,
      "Ġà¤µà¤¿à¤®à¤¾à¤¨": 3935,
      "à¤¾à¤µà¤²à¥Ģ": 3936,
      "à¤Ĥà¤¦à¤¨": 3937,
      "à¤°à¥įà¤ľà¥Ģ": 3938,
      "igh": 3939,
      "Ġà¤®à¤Ĥà¤¤à¥įà¤°": 3940,
      "à¤¾à¤¸à¤¤": 3941,
      "Ġà¤¸à¥ģà¤µà¤¿à¤§à¤¾": 3942,
      "à¥ĭà¤¥": 3943,
      "Ġà¤ĺà¤°à¥ĩà¤²à¥Ĥ": 3944,
      "Ġà¤ľà¤¿à¤¸à¤ķà¥Ģ": 3945,
      "Ġà¤¬à¤¢à¤¼à¤¨à¥ĩ": 3946,
      "à¤®à¥ĩà¤°": 3947,
      "Ġà¤®à¤¿à¤²à¤¤à¥Ģ": 3948,
      "Ġà¤ªà¥įà¤²à¥ĩà¤Ł": 3949,
      "Ġà¤ªà¤¤à¥įà¤°à¤¿à¤ķà¤¾": 3950,
      "ĠIndian": 3951,
      "à¥§à¥¯": 3952,
      "Ġà¤īà¤¡à¤¼à¤¾à¤¨": 3953,
      "Ġà¤«à¥Īà¤¸à¤²à¤¾": 3954,
      "ingh": 3955,
      "Ġà¤ķà¤¿à¤¤à¤¨à¤¾": 3956,
      "à¥Ģà¤ľà¤¨": 3957,
      "Ġà¤ķà¥Īà¤¥": 3958,
      "à¤§à¤¾à¤°à¤¿à¤¤": 3959,
      "Ġà¤Łà¤¿à¤ķ": 3960,
      "Ġà¤ªà¥įà¤°à¤¸à¤¾à¤°": 3961,
      "ext": 3962,
      "Ġà¤¤à¤¾à¤°à¥Ģ": 3963,
      "Ġà¤µà¤¾à¤¶à¤¿à¤Ĥà¤Ĺà¤Łà¤¨": 3964,
      "Ġà¤¸à¤¾à¤§": 3965,
      "erv": 3966,
      "à¤¿à¤¬à¥įà¤¬": 3967,
      "à¥ģà¤ªà¥įà¤¤": 3968,
      "Ġà¤¡à¤¾à¤ĩ": 3969,
      "Ġà¤ķà¤²à¥įà¤ªà¤¨à¤¾": 3970,
      "à¥īà¤¯": 3971,
      "Ġà¤µà¤¿à¤¤à¤°à¤£": 3972,
      "Ġà¤¨à¥Įà¤ķ": 3973,
      "à¥Īà¤ľà¥įà¤ŀà¤¾à¤¨à¤¿à¤ķ": 3974,
      "Ġà¤µà¤¿à¤¤à¥įà¤¤à¥Ģà¤¯": 3975,
      "Ġà¤°à¥ģà¤ªà¤¯à¥ĩ": 3976,
      "à¥ĭà¤ĩ": 3977,
      "Ġà¤§à¤¾à¤°à¤¾": 3978,
      "à¤¸à¥įà¤¥à¤¾à¤¨": 3979,
      "à¤¸à¤Ĥà¤ĸà¥įà¤¯à¤¾": 3980,
      "Ġà¤ľà¤®à¤¾": 3981,
      "Ġà¤ªà¤°à¤¿à¤ª": 3982,
      "Ġà¤µà¤¹à¥Ģà¤Ĥ": 3983,
      "75": 3984,
      "Ġà¤ªà¤°à¤¿à¤·à¤¦": 3985,
      "Ġà¤¹à¤¿à¤¨": 3986,
      "à¤¾à¤µà¤¸à¥įà¤¥à¤¾": 3987,
      "à¤¤à¥įà¤¯": 3988,
      "Ġà¤¬à¤¾à¤": 3989,
      "Ġà¤¸à¤¾à¤µ": 3990,
      "Ġà¤µà¤¿à¤Ĥ": 3991,
      "à¤ķà¥įà¤°à¤¾à¤®à¤ķ": 3992,
      "Ġits": 3993,
      "ational": 3994,
      "Ġà¤¬à¥Į": 3995,
      "Ġà¤¶à¥ģà¤ķà¥įà¤°": 3996,
      "à¤¤à¤¾à¤ıà¤ģ": 3997,
      "Ġà¤°à¤¸à¤¾à¤¯à¤¨": 3998,
      "Ġà¤ķà¥ĭà¤¶à¤¿à¤ķà¤¾": 3999,
      "à¥įà¤·à¤¿à¤ķ": 4000,
      "Ġà¤¸à¤Ĥà¤ĸà¥įà¤¯": 4001,
      "à¤¾à¤µà¤¨à¥Ģ": 4002,
      "Ġà¤ĸà¥Ģ": 4003,
      "à¤¿à¤ľà¥įà¤ŀà¤¾à¤¨": 4004,
      "à¤¿à¤Ĥà¤¡": 4005,
      "à¤°à¥ĭà¤¨à¤¾": 4006,
      "Ġà¤¹à¤¾à¤¸à¤¿à¤²": 4007,
      "Ġà¤¬à¥ĩà¤¸": 4008,
      "Ġà¤¸à¥ĩà¤ķ": 4009,
      "à¥ģà¤²à¤¨": 4010,
      "Ġà¤®à¥ĩà¤°à¤¾": 4011,
      "Ġcount": 4012,
      "Ġà¤¦à¥Ģà¤°à¥įà¤ĺ": 4013,
      "Ġà¤¹à¥ī": 4014,
      "Ġà¤ľà¤¿à¤¨à¤ķà¤¾": 4015,
      "Ġà¤¸à¥ĩà¤µà¤¾à¤ĵà¤Ĥ": 4016,
      "Ġà¤ĸà¤¨": 4017,
      "Ġà¤ĳà¤Ł": 4018,
      "Ġà¤ħà¤°à¥įà¤¥à¤µà¥įà¤¯à¤µ": 4019,
      "36": 4020,
      "ions": 4021,
      "Ġà¤ļà¥Ģà¤ľà¤¼": 4022,
      "Ġà¤¡à¥ĩ": 4023,
      "Ġà¤¹à¤ľà¤¾à¤°": 4024,
      "à¥ĩà¤Ĥà¤ľ": 4025,
      "Ġà¤¨à¤¿à¤µà¤¾à¤¸à¥Ģ": 4026,
      "à¤ķà¥ĩà¤Ł": 4027,
      "Ġà¤¹à¥ĩà¤²": 4028,
      "Ġà¤°à¤ĸà¤¤à¤¾": 4029,
      "Ġà¤ªà¥įà¤°à¤¤à¤¿à¤¬": 4030,
      "-à¤Ĩà¤§à¤¾à¤°à¤¿à¤¤": 4031,
      "ever": 4032,
      "ia": 4033,
      "Ġà¤¸à¥ĭà¤®": 4034,
      "Ġà¤¹à¤¾à¤Ī": 4035,
      "Ġà¤µà¤°": 4036,
      "Ġà¤§à¥Ģà¤°à¥ĩ": 4037,
      "Ġà¤ķà¥ĭà¤°à¥ĭà¤¨à¤¾": 4038,
      "Ġà¤¸à¤Ĥà¤°à¤ķà¥įà¤·à¤¿à¤¤": 4039,
      "Ġà¤ªà¤Ĥ": 4040,
      "à¥ģà¤Ī": 4041,
      "Ġout": 4042,
      "Ġà¤µà¤¿à¤¶à¥ĩà¤·à¤¤à¤¾": 4043,
      "à¥įà¤Łà¤¨": 4044,
      "Ġà¤°à¤¹à¤¤à¥Ģ": 4045,
      "ĠSingh": 4046,
      "own": 4047,
      "Ġà¤Ĺà¥ģà¤¨à¤¾": 4048,
      "urn": 4049,
      "-à¤Ĺ": 4050,
      "Ġà¤¨à¤¸à¥įà¤²": 4051,
      "à¤ıà¤«": 4052,
      "Ġà¤µà¤¿à¤µà¤¾à¤¦": 4053,
      "Ġà¤ħà¤¸à¤¾à¤®à¤¾à¤¨à¥įà¤¯": 4054,
      "Ġà¤¸à¤Ĥà¤¯à¥ĭà¤ľà¤¨": 4055,
      "Ġà¤¹à¤¾à¤ĩà¤¡à¥įà¤°": 4056,
      "Ġà¤¢à¤Ĥà¤Ĺ": 4057,
      "Ġà¤¸à¤Ĥà¤Ńà¤µà¤¤à¤ĥ": 4058,
      "Ġà¤®à¤¾à¤Ĥà¤¸à¤ªà¥ĩà¤¶à¤¿à¤¯à¥ĭà¤Ĥ": 4059,
      "-à¤¹": 4060,
      "Ġcl": 4061,
      "Ġà¤µà¤¿à¤ķà¤¿à¤°à¤£": 4062,
      "à¤¿à¤¹à¥įà¤¨": 4063,
      "Ġà¤®à¥ģà¤¦à¥įà¤¦à¥ĭà¤Ĥ": 4064,
      "Ġà¤¬à¥Īà¤ķà¥įà¤Łà¥Ģà¤°à¤¿à¤¯à¤¾": 4065,
      "Ġà¤ĩà¤°": 4066,
      "Ġà¤¹à¤¡à¥įà¤¡à¥Ģ": 4067,
      "à¤¬à¥īà¤²": 4068,
      "Ġà¤ıà¤¸à¤¿à¤¡": 4069,
      "à¤Ĺà¤¾à¤°": 4070,
      "Ġorg": 4071,
      "Ġà¤®à¤¾à¤¸": 4072,
      "à¤Łà¤ķ": 4073,
      "à¤¾à¤¤à¤°": 4074,
      "Ġà¤¬à¤¢à¤¼à¤¾": 4075,
      "-à¤Ķà¤°": 4076,
      "à¥ĩà¤µà¤°": 4077,
      "à¤¾à¤ķà¥ĥà¤¤": 4078,
      "Ġgovernment": 4079,
      "Ġà¤¤à¤¾à¤°à¥Ģà¤ĸ": 4080,
      "rit": 4081,
      "Ġagain": 4082,
      "Ġà¤®à¥Īà¤ļ": 4083,
      "com": 4084,
      "Ġà¤īà¤ªà¤¾à¤¯": 4085,
      "2000": 4086,
      "Ġà¤ĸà¤¤à¤°à¥ĩ": 4087,
      "Ġà¤µà¥ĭ": 4088,
      "à¤¾à¤Ĥà¤¸à¥Ģà¤¸à¥Ģ": 4089,
      "Ġpolice": 4090,
      "Ġà¤īà¤ªà¤¸à¥įà¤¥à¤¿à¤¤à¤¿": 4091,
      "Ġreg": 4092,
      "Ġà¤«à¤¼à¤¾à¤ĩà¤²": 4093,
      "Ġà¤ªà¤°à¥ĩà¤¶à¤¾à¤¨": 4094,
      "nd": 4095,
      "ond": 4096,
      "à¤¨à¤ķ": 4097,
      "Ġà¤ĸà¤Ĺà¥ĭà¤²": 4098,
      "Ġà¤¦à¥Ĥà¤¸à¤°à¥ĭà¤Ĥ": 4099,
      "-à¤ªà¤¶à¥įà¤ļà¤¿à¤®": 4100,
      "Ġà¤ľà¤¿à¤¤à¤¨à¤¾": 4101,
      "Ġà¤µà¤¿à¤ķà¤¾à¤°": 4102,
      "Ġà¤¶à¤¾à¤¨à¤¦à¤¾à¤°": 4103,
      "Ġà¤ĸà¥Ģà¤Ĥà¤ļ": 4104,
      "à¤ķà¥įà¤¯à¤¾": 4105,
      "à¤¾à¤°à¤¿à¤¶": 4106,
      "Ġà¤®à¥Īà¤°à¥Ģ": 4107,
      "à¤²à¥ĭà¤ķà¤¨": 4108,
      "Ġà¤ľà¤¾à¤¨à¤¨à¥ĩ": 4109,
      "ctor": 4110,
      "Ġà¤Ĩà¤ķà¤°à¥įà¤·à¤¿à¤¤": 4111,
      "à¤¿à¤¨à¥ĭ": 4112,
      "Ġà¤Łà¥ĩà¤²": 4113,
      "Ġà¤ľà¤¨à¤¸à¤Ĥà¤ĸà¥įà¤¯à¤¾": 4114,
      "ose": 4115,
      "Ġà¤ªà¤°à¤¤": 4116,
      "Ġà¤ķà¤¿à¤¸à¤¾à¤¨à¥ĭà¤Ĥ": 4117,
      "Ġà¤¬à¤°à¤¾à¤¬": 4118,
      "à¤¾à¤¦à¤¾à¤¤à¤°": 4119,
      "Ġà¤Ĩà¤°à¤¾à¤®": 4120,
      "Ġà¤ªà¥īà¤²": 4121,
      "Ġà¤¨à¤¿à¤¶": 4122,
      "Ġà¤Ĺà¥ĩà¤Ĥà¤¦": 4123,
      "Ġà¤²à¤Ĺà¥ĩ": 4124,
      "à¤¾à¤¡à¤¼à¤¿à¤¯à¥ĭà¤Ĥ": 4125,
      "Ġà¤¨à¤¿à¤·": 4126,
      "à¤°à¤¾à¤ľà¥įà¤¯": 4127,
      "à¤¿à¤¶à¤¾à¤²à¥Ģ": 4128,
      "à¤¾à¤Ĺà¤¤": 4129,
      "Ġpeople": 4130,
      "Ġà¤ªà¤°à¤¿à¤µà¤¾à¤°à¥ĭà¤Ĥ": 4131,
      "Ġà¤ĳà¤¸à¥įà¤Łà¥įà¤°à¥ĩà¤²à¤¿à¤¯à¤¾": 4132,
      "Ġà¤¸à¤¾à¤°à¥ĩ": 4133,
      "Ġà¤¸à¤¿à¤«": 4134,
      "Ġunder": 4135,
      "Ġà¤Ĩà¤īà¤Ł": 4136,
      "190": 4137,
      "à¤¦à¤¾à¤¨à¤¿à¤ķ": 4138,
      "ĠRs": 4139,
      "Ġà¤¡à¤¿à¤ľà¤¿à¤Łà¤²": 4140,
      "Ġà¤µà¤¾à¤¹à¤¨": 4141,
      "Ġà¤ĩà¤Ĥà¤ľà¥Ģà¤¨à¤¿à¤¯à¤°à¤¿à¤Ĥà¤Ĺ": 4142,
      "Ġà¤¶à¥įà¤µ": 4143,
      "à¤¾à¤ķà¥įà¤¤": 4144,
      "à¤Ĥà¤ķà¥įà¤¶à¤¨": 4145,
      "à¤°à¥įà¤¦à¥ĩà¤¶": 4146,
      "Ġà¤²à¤¿à¤ĸà¥ĩà¤Ĥ": 4147,
      "Ġà¤¨à¤µà¥Ģà¤¨": 4148,
      "à¤ļà¤¾à¤°à¤¿à¤ķ": 4149,
      "Ġà¤ħà¤Ĥà¤¡à¥ĩ": 4150,
      "à¤¿à¤Łà¤°": 4151,
      "à¤Ĺà¤¢à¤¼": 4152,
      "Ġà¤¦à¤°à¥įà¤¶à¤¾à¤¤à¤¾": 4153,
      "Ġà¤®à¤¹à¤¾à¤®": 4154,
      "à¤¹à¥įà¤®": 4155,
      "à¤ľà¤¹": 4156,
      "Ġà¤µà¤¿à¤¦à¥ĩà¤¶à¥Ģ": 4157,
      "à¥ĥà¤¶à¥įà¤¯": 4158,
      "Ġà¤ħà¤§à¤¿à¤ķà¤¤à¤®": 4159,
      "à¤¤à¥įà¤ķ": 4160,
      "Ġà¤¶à¤¾à¤ĸ": 4161,
      "Ġà¤¸à¤¬à¥įà¤ľ": 4162,
      "Ġà¤¬à¥ģà¤²": 4163,
      "Ġam": 4164,
      "Ġà¤¨à¥Īà¤¤à¤¿à¤ķ": 4165,
      "Ġà¤¶à¤ķà¥įà¤¤à¤¿à¤¶à¤¾à¤²à¥Ģ": 4166,
      "à¤¤à¤¾à¤ª": 4167,
      "à¤¶à¤¾à¤¸à¥įà¤¤à¥įà¤°": 4168,
      "à¤ĳà¤ķà¥įà¤¸à¤¾à¤ĩà¤¡": 4169,
      "Ġà¤µà¤¾à¤¯à¥ģà¤®": 4170,
      "ical": 4171,
      "Ġà¤µà¤¾à¤°à¥įà¤·à¤¿à¤ķ": 4172,
      "ib": 4173,
      "eng": 4174,
      "Ġà¤²à¤Ĥà¤¬à¤¾": 4175,
      "Ġà¤ªà¤°à¥įà¤¯à¤¾à¤µà¤°à¤£à¥Ģà¤¯": 4176,
      "à¥ĭà¤Ĥà¤Ł": 4177,
      "Ġà¤ªà¤ķà¥įà¤·à¤¿à¤¯à¥ĭà¤Ĥ": 4178,
      "Ġà¤ĸà¤¤à¤°à¤¨à¤¾à¤ķ": 4179,
      "Ġà¤®à¤¨à¥ģà¤·à¥įà¤¯à¥ĭà¤Ĥ": 4180,
      "Ġà¤ªà¤²": 4181,
      "Ġà¤ªà¥įà¤°à¥ĩà¤¸": 4182,
      "Ġà¤¹à¤®à¤¾à¤°à¤¾": 4183,
      "Ġà¤Ĺà¥įà¤°à¤¾à¤®": 4184,
      "à¥įà¤¸à¤¨": 4185,
      "Ġà¤¨à¤¿à¤¯à¥ģà¤ķà¥įà¤¤": 4186,
      "ks": 4187,
      "Ġà¤¶à¤°à¥įà¤®": 4188,
      "Ġà¤ľà¤¾à¤ģà¤ļ": 4189,
      "Ġà¤Łà¥ĩà¤ķà¥įà¤¸à¤¾à¤¸": 4190,
      "eed": 4191,
      "Ġà¤¦à¥ĥà¤·à¥įà¤Łà¤¿": 4192,
      "Ġà¤ļà¤®à¤ķ": 4193,
      "Ġà¤¤à¥Ĥà¤«à¤¾à¤¨": 4194,
      "Ġà¤¨à¤·à¥įà¤Ł": 4195,
      "Ġà¤¸à¥įà¤µà¤°": 4196,
      "Ġà¤¤à¥Īà¤¯à¤¾à¤°à¥Ģ": 4197,
      "Ġà¤ķà¤¨à¤¾à¤¡à¤¾": 4198,
      "99": 4199,
      "Ġà¤ķà¤°à¥ĩà¤Ĺà¥Ģ": 4200,
      "Ġà¤ıà¤ľà¥ĩà¤Ĥà¤¸à¥Ģ": 4201,
      "Ġà¤ªà¤¤à¥įà¤¨à¥Ģ": 4202,
      "Ġà¤ªà¥įà¤°à¤¤à¥Ģà¤ķ": 4203,
      "à¥©": 4204,
      "Ġà¤ķà¤¿à¤²à¥ĭà¤®à¥Ģà¤Łà¤°": 4205,
      "Ġà¤¸à¤¿à¤«à¤¾à¤°à¤¿à¤¶": 4206,
      "-à¤ı": 4207,
      "Ġà¤Ĺà¥įà¤°à¤Ĥà¤¥": 4208,
      "à¤¸à¤¨à¥Ģà¤¯": 4209,
      "Ġà¤¸à¤Ĥà¤¬": 4210,
      "Ġà¤ľà¤°à¥įà¤®à¤¨": 4211,
      "à¥Ĥà¤¡": 4212,
      "à¤¿à¤¶à¥Ģà¤²": 4213,
      "Ġà¤¸à¤Ĥà¤Ĺà¤ł": 4214,
      "Ġà¤¸à¤®à¥įà¤®à¥ĩà¤²à¤¨": 4215,
      "Ġà¤¬à¤¿à¤¤": 4216,
      "Ġà¤¹à¤®à¤²à¤¾": 4217,
      "Ġà¤ļà¤¿à¤ķà¤¿à¤¤à¥įà¤¸à¤ķ": 4218,
      "à¤ªà¤¾à¤¨": 4219,
      "à¤¾à¤Ĥà¤¤à¥įà¤°": 4220,
      "à¥ĩà¤®à¥įà¤¸": 4221,
      "Ġà¤¸à¤Ĥà¤ķà¥įà¤°à¤®à¤¿à¤¤": 4222,
      "Ġà¤ªà¥įà¤¯à¤¾à¤°": 4223,
      "Ġà¤ĩà¤®": 4224,
      "à¤¾à¤ľà¤¾": 4225,
      "ĠMo": 4226,
      "Ġà¤¸à¥ĩà¤µ": 4227,
      "186": 4228,
      "Ġà¤¸à¥įà¤°à¥ĭà¤¤à¥ĭà¤Ĥ": 4229,
      "Ġcomp": 4230,
      "Ġà¤ªà¥įà¤°à¤ļ": 4231,
      "Ġà¤¸à¥Ĥà¤¤à¥įà¤°": 4232,
      "Ġà¤Ĩà¤¯à¤°": 4233,
      "Ġà¤ħà¤²à¥įà¤ª": 4234,
      "Ġà¤Ńà¤¾à¤Ĺà¥Ģ": 4235,
      "Ġà¤®à¤¾à¤°à¥įà¤Ĺà¤¦à¤°à¥įà¤¶": 4236,
      "à¥«": 4237,
      "à¤°à¥Ģà¤¯": 4238,
      "Ġà¤¸à¤®à¤Ŀà¥Į": 4239,
      "\"à¤¦": 4240,
      "37": 4241,
      "Ġà¤¤à¥ĭà¤¡à¤¼": 4242,
      "Ġà¤¨à¤¿à¤¯à¤®à¥ĭà¤Ĥ": 4243,
      "Ġà¤§à¤¾à¤¤à¥ģ": 4244,
      "Ġà¤°à¥ĩ": 4245,
      "à¤¿à¤®à¤¾": 4246,
      "Ġà¤®à¤¿à¤²à¤¨à¥ĩ": 4247,
      "Ġà¤¹à¤¿à¤Ĥ": 4248,
      "Ġà¤®à¤¨à¥ĭà¤µ": 4249,
      "Ġà¤ħà¤¸à¥įà¤¤": 4250,
      "Ġà¤°à¤¾à¤¯": 4251,
      "à¥įà¤µà¥Ģà¤ª": 4252,
      "à¤²à¤°": 4253,
      "Ġà¤¸à¤®à¤¿à¤¤à¤¿": 4254,
      "à¤ļà¤¾à¤°à¤¿à¤¯à¥ĭà¤Ĥ": 4255,
      "Ġà¤¸à¥įà¤ķà¥Ĥà¤²à¥ĭà¤Ĥ": 4256,
      "Ġà¤¬à¥įà¤°à¤¿à¤Łà¥ĩà¤¨": 4257,
      "Ġà¤¦à¥Īà¤¨à¤¿à¤ķ": 4258,
      "Ġà¤Ńà¤²à¥ĩ": 4259,
      "Ġà¤«à¥įà¤°à¤¾à¤Ĥà¤¸à¥Ģà¤¸à¥Ģ": 4260,
      "à¤¦à¤Ĥà¤¡": 4261,
      "à¥Ŀ": 4262,
      "Ġà¤¤à¤¾à¤°": 4263,
      "Ġà¤µà¤¿à¤·à¤¾à¤ķà¥įà¤¤": 4264,
      "à¥Ģà¤²à¥įà¤¡": 4265,
      "://": 4266,
      "Ġà¤ĸà¥ĩ": 4267,
      "Ġà¤¨à¥Īà¤¦à¤¾à¤¨à¤¿à¤ķ": 4268,
      "Ġà¤§à¥įà¤µà¤¨à¤¿": 4269,
      "(à¤¬": 4270,
      "Ġà¤²à¤Ĥà¤¬à¤¾à¤Ī": 4271,
      "à¥¨à¥¦": 4272,
      "Ġà¤¸à¤°à¥įà¤¦à¤¿à¤¯à¥ĭà¤Ĥ": 4273,
      "à¤¾à¤°à¥įà¤®": 4274,
      "à¤ľà¥Ĥ": 4275,
      "à¥ĭà¤®à¤¾": 4276,
      "Ġà¤¸à¤Ĥà¤Ĺà¥įà¤°": 4277,
      "ari": 4278,
      "Ġbut": 4279,
      "Ġà¤īà¤¤à¥įà¤ķà¥ĥà¤·à¥įà¤Ł": 4280,
      "lic": 4281,
      "à¤ľà¥ĭà¤Ĥ": 4282,
      "Ġone": 4283,
      "Ġà¤ķà¤¾à¤²à¥ĩ": 4284,
      "Ġà¤¬à¤°à¤¾à¤¬à¤°": 4285,
      "Ġà¤īà¤Ń": 4286,
      "Ġà¤ķà¤¬à¥įà¤ľ": 4287,
      "Ġà¤¨à¤ľà¤°": 4288,
      "à¤¿à¤¨à¥Ģ": 4289,
      "à¤²à¥ĩà¤¨": 4290,
      "à¤ľà¤¨à¥įà¤®": 4291,
      "irst": 4292,
      "Ġà¤ªà¥ģà¤·à¥įà¤Łà¤¿": 4293,
      "à¤¾à¤¬à¥ĩà¤¸": 4294,
      "Ġà¤¶à¤¿à¤¶": 4295,
      "Ġà¤ķà¤°à¥įà¤®à¤ļà¤¾à¤°à¤¿à¤¯à¥ĭà¤Ĥ": 4296,
      "Ġà¤µà¤¿à¤µà¤¿à¤§à¤¤à¤¾": 4297,
      "34": 4298,
      "Ġà¤¸à¥Ģà¤Ł": 4299,
      "Ġà¤¸à¤Ĥà¤ļà¤¾à¤²à¤¿à¤¤": 4300,
      "Ġà¤¹à¤Łà¤¾": 4301,
      "Ġà¤ªà¥ĩà¤°": 4302,
      "Ġà¤ªà¤¾à¤¤à¥įà¤°": 4303,
      "à¤ħà¤ª": 4304,
      "Ġà¤ħà¤µà¤²à¥ĭà¤ķà¤¨": 4305,
      "32": 4306,
      "à¥Ĥà¤²à¥Ģ": 4307,
      "Ġà¤°à¤¾à¤ľà¤§à¤¾à¤¨à¥Ģ": 4308,
      "à¥ĭà¤¸à¥ĩ": 4309,
      "Ġà¤ªà¤ķà¤¡à¤¼à¤¨à¥ĩ": 4310,
      "Ġà¤°à¤¾à¤¶à¤¿": 4311,
      "Ġà¤Ĩà¤Ĥà¤ĸ": 4312,
      "Ġà¤ķà¤¾à¤°à¤ķà¥ĭà¤Ĥ": 4313,
      "à¤ªà¤°à¥Ģ": 4314,
      "Ġà¤¤à¤ķà¤¨à¥Ģà¤ķà¥ĭà¤Ĥ": 4315,
      "Ġà¤¶à¤¹à¤°à¥ĭà¤Ĥ": 4316,
      "Ġà¤¦à¥ĩà¤ĸà¤¨à¤¾": 4317,
      "Ġà¤ķà¥ģà¤¶à¤²": 4318,
      "à¤¦à¤¾à¤°à¥Ģ": 4319,
      "Ġà¤¤à¤¯": 4320,
      "à¥įà¤¸à¥Ģ": 4321,
      "Ġà¤ħà¤Ńà¤¿à¤µà¥įà¤¯": 4322,
      "à¥ĩà¤¡à¤¼": 4323,
      "Ġà¤ªà¤°à¥įà¤µ": 4324,
      "Ġà¤Ĩà¤¶": 4325,
      "à¤²à¥ĩà¤ĸ": 4326,
      "à¤¾à¤ľà¥įà¤¯": 4327,
      "Ġà¤Ĩà¤µà¤¶à¥įà¤¯à¤ķà¤¤à¤¾à¤ĵà¤Ĥ": 4328,
      "Ġà¤°à¥īà¤¬": 4329,
      "Ġà¤Ĩà¤²à¥ĭ": 4330,
      "-à¤§à¥Ģà¤°à¥ĩ": 4331,
      "Ġà¤Ĺà¥įà¤°à¤¾à¤®à¥Ģà¤£": 4332,
      "à¤ķà¥įà¤µ": 4333,
      "Ġà¤¨à¤¾à¤°": 4334,
      "Ġà¤¹à¥ĭà¤ķà¤°": 4335,
      "ings": 4336,
      "Ġfil": 4337,
      "Ġà¤®à¤¿à¤²à¤¿à¤¯à¤¨": 4338,
      "Ġà¤µà¤¿à¤Łà¤¾à¤®à¤¿à¤¨": 4339,
      "Ġà¤²à¥ĩà¤ĸà¤¨": 4340,
      "Ġà¤¸à¤Ĥà¤¯à¤Ĥà¤¤à¥įà¤°": 4341,
      "Ġà¤ķà¤²à¤¾à¤ķà¤¾à¤°": 4342,
      "Ġà¤ķà¤°à¤¨à¥Ģ": 4343,
      "Ġà¤ĺà¥Ĥà¤®": 4344,
      "ade": 4345,
      "Ġà¤Ĺà¥ģà¤°à¥ģ": 4346,
      "Ġà¤ľà¤¾à¤ªà¤¾à¤¨": 4347,
      "ject": 4348,
      "Ġà¤¬à¤ļà¥įà¤ļà¤¾": 4349,
      "Ġà¤¬à¤ļà¤¨à¥ĩ": 4350,
      "Ġà¤ªà¥įà¤°à¤¯à¤¾à¤¸à¥ĭà¤Ĥ": 4351,
      "-à¤ī": 4352,
      "Ġà¤ªà¥Ģà¤¢à¤¼": 4353,
      "Ġtwo": 4354,
      "à¤¾à¤µà¤°": 4355,
      "Ġà¤¸à¥įà¤¥à¤¾à¤¯à¥Ģ": 4356,
      "à¥ĭà¤¬à¤¾à¤ĩà¤²": 4357,
      "Ġthere": 4358,
      "Ġà¤ħà¤¨à¥įà¤¤": 4359,
      "Ġà¤¤à¤¾à¤²à¤¿à¤ķà¤¾": 4360,
      "Ġà¤ħà¤ķà¥ĩ": 4361,
      "Ġà¤¨à¤ķ": 4362,
      "Ġso": 4363,
      "39": 4364,
      "Ġà¤¬à¤¿à¤ķ": 4365,
      "Ġà¤ªà¤¹à¤¨": 4366,
      "Ġà¤ķà¤¾à¤¨à¥Ĥà¤¨à¥Ģ": 4367,
      "Ġà¤ªà¤¾à¤ķà¤¿à¤¸à¥įà¤¤à¤¾à¤¨": 4368,
      "ans": 4369,
      "Ġà¤ķà¤¹à¤¾à¤¨": 4370,
      "Ġà¤¸à¥įà¤µà¤ļà¥įà¤Ľ": 4371,
      "Ġà¤ħà¤¨à¥ģà¤µà¤¾à¤¦": 4372,
      "à¤§à¥įà¤¯": 4373,
      "à¤ĸà¤¿à¤ķ": 4374,
      "à¤²à¥ĩà¤ķà¤¿à¤¨": 4375,
      "à¤Łà¥įà¤ł": 4376,
      "Ġà¤ķà¤¾à¤°à¤£à¥ĭà¤Ĥ": 4377,
      "Ġi": 4378,
      "Ġà¤ļà¥ĩà¤¹": 4379,
      "à¤¯à¤¦à¤¿": 4380,
      "à¤¾à¤¬à¤¾à¤¦": 4381,
      "ash": 4382,
      "Ġà¤ħà¤ªà¥ĩà¤ķà¥įà¤·": 4383,
      "2005": 4384,
      "Ġà¤¸à¤°à¥įà¤µà¥ĭ": 4385,
      "hief": 4386,
      "Ġà¤¶à¤¾à¤Ĥà¤¤": 4387,
      "Ġà¤¡à¥ĩà¤Łà¤¾à¤¬à¥ĩà¤¸": 4388,
      "Ġà¤ĺà¤¾à¤Łà¥Ģ": 4389,
      "à¤¦à¤²": 4390,
      "Ġà¤ĸà¥ģà¤°": 4391,
      "Ġà¤ĩà¤¨à¤ªà¥ģà¤Ł": 4392,
      "à¥ĩà¤®à¤¾à¤²": 4393,
      "Ġà¤ľà¥įà¤¯à¤¾à¤¦à¤¾à¤¤à¤°": 4394,
      "Ġà¤¸à¥įà¤¥à¤¾à¤¨à¤¾à¤Ĥà¤¤à¤°à¤¿à¤¤": 4395,
      "Ġà¤ħà¤¦à¤¾à¤²": 4396,
      "Ġà¤ħà¤°à¥įà¤¥à¤µà¥įà¤¯à¤µà¤¸à¥įà¤¥à¤¾": 4397,
      "Ġabout": 4398,
      "Ġà¤¹à¤¿à¤®": 4399,
      "JP": 4400,
      "à¥Ģà¤µà¥Ģ": 4401,
      "Ġà¤¸à¥Ĥà¤ľà¤¨": 4402,
      "Ġà¤ļà¥ĩà¤¤à¤¾à¤µà¤¨à¥Ģ": 4403,
      "à¤ķà¤¿à¤¯à¥ĭà¤Ĥ": 4404,
      "Ġà¤ľà¥ģà¤¡à¤¼à¤¾": 4405,
      "we": 4406,
      "à¤Ĩà¤īà¤Ł": 4407,
      "Ġà¤īà¤ªà¤Ńà¥ĭ": 4408,
      "à¤ķà¤Ł": 4409,
      "Ġtime": 4410,
      "à¤¾à¤ķà¤°à¤£": 4411,
      "Ġpr": 4412,
      "à¥ĭà¤²à¥īà¤ľà¥Ģ": 4413,
      "Ġà¤¨à¤¿à¤ļà¤²à¥ĩ": 4414,
      "Ġà¤ªà¤Ĥà¤ļ": 4415,
      "Ġà¤¤à¥Ģà¤µ": 4416,
      "à¤°à¥įà¤®à¤¾à¤£": 4417,
      "Ġà¤¬à¥ĩà¤Łà¥ĩ": 4418,
      "à¤īà¤¤à¥įà¤¤à¤°à¤ĥ": 4419,
      "Ġà¤ĺà¤¨": 4420,
      "Ġà¤īà¤¦à¥įà¤§": 4421,
      "Ġà¤¬à¤¾à¤ĩ": 4422,
      "à¤ĸà¤Ĥà¤¡": 4423,
      "Ġà¤ĩà¤¸à¥įà¤¤à¥ĩà¤®à¤¾à¤²": 4424,
      "Ġà¤¹à¤¥": 4425,
      "Ġà¤Ĺà¤°à¥įà¤®à¤¿à¤¯à¥ĭà¤Ĥ": 4426,
      "Ġà¤«à¥įà¤²à¥ĭà¤°": 4427,
      "38": 4428,
      "à¤¥à¤¾à¤®": 4429,
      "Ġà¤¹à¤¤à¥įà¤¯à¤¾": 4430,
      "Ġwould": 4431,
      "ire": 4432,
      "Ġà¤ķà¤¾à¤Ĺ": 4433,
      "Ġà¤µà¥Īà¤ķ": 4434,
      "Ġsc": 4435,
      "Ġà¤ľà¥ģà¤¡à¤¼à¥Ģ": 4436,
      "Ġà¤ªà¥ģà¤¨à¤ĥ": 4437,
      "pt": 4438,
      "à¤µà¤¿à¤¤à¥įà¤°": 4439,
      "à¤µà¤°à¥įà¤¡": 4440,
      "Ġà¤ıà¤°": 4441,
      "à¤¾à¤¶à¥Ģ": 4442,
      "à¤¿à¤¯à¥ĭà¤Ĺ": 4443,
      "Ġà¤¨à¤Ĥà¤¬à¤°": 4444,
      "ates": 4445,
      "Ġà¤ħà¤µà¤°": 4446,
      "Ġà¤Ĺà¥Ģà¤¤": 4447,
      "(à¤¸à¥Ģ": 4448,
      "ph": 4449,
      "à¤¿à¤²à¥ĩà¤ĸ": 4450,
      "Ġà¤ĩà¤¤à¤¨à¥Ģ": 4451,
      "Ġà¤¸à¥įà¤®à¥ĥà¤¤à¤¿": 4452,
      "Ġà¤¶à¤¾à¤Ĥà¤¤à¤¿": 4453,
      "Ġà¤ļà¤Ĥà¤¦à¥įà¤°à¤®à¤¾": 4454,
      "Ġà¤ľà¤Ĥà¤Ĺà¤²": 4455,
      "Ġà¤®à¤§à¥įà¤¯à¤®": 4456,
      "Ġà¤ĩà¤¸à¤¨à¥ĩ": 4457,
      "Ġà¤¨à¤¿à¤°à¥įà¤®à¤¾à¤¤à¤¾": 4458,
      "te": 4459,
      "Ġà¤ļà¤¿à¤¹à¥įà¤¨": 4460,
      "Ġafter": 4461,
      "Ġà¤ĺà¤°à¥ĭà¤Ĥ": 4462,
      "Ġpres": 4463,
      "Ġà¤®à¤¾à¤¨à¤¤à¥ĩ": 4464,
      "à¤¿à¤¥à¤¿": 4465,
      "\"à¤¨": 4466,
      "Ġà¤«à¥ĩà¤Ĥ": 4467,
      "à¤¾à¤Ĺà¥įà¤°": 4468,
      "Ġà¤¸à¥Īà¤¨à¤¿à¤ķà¥ĭà¤Ĥ": 4469,
      "Ġà¤°à¥ĭà¤¬": 4470,
      "Ġà¤¬à¥įà¤°à¤¹à¥įà¤®": 4471,
      "Ġà¤ĩà¤²à¤¾à¤ķ": 4472,
      "mit": 4473,
      "Ġà¤¬à¤¾à¤Ĥ": 4474,
      "Ġà¤łà¥ĭà¤¸": 4475,
      "Ġà¤ıà¤¶à¤¿à¤¯à¤¾": 4476,
      "Ġà¤Ĺà¤łà¤¨": 4477,
      "Ġà¤Ĩà¤Ĥà¤ķà¤¡à¤¼à¥ĭà¤Ĥ": 4478,
      "à¤Ĥà¤ĺ": 4479,
      "Ġà¤¸à¤Ĥà¤¬à¤Ĥà¤§à¥ĭà¤Ĥ": 4480,
      "Ġà¤¹à¤ľà¤¾à¤°à¥ĭà¤Ĥ": 4481,
      "à¤µà¤°à¥įà¤¤à¥Ģ": 4482,
      "Ġà¤§à¥Ģ": 4483,
      "Ġà¤¹à¤¾à¤ģ": 4484,
      "ĠY": 4485,
      "à¥Īà¤¡": 4486,
      "à¤ļà¤¾à¤°à¥Ģ": 4487,
      "à¤¿à¤µà¥ĩà¤¶": 4488,
      "2006": 4489,
      "Ġà¤¬à¤¾à¤ķà¥Ģ": 4490,
      "à¤Ĥà¤¡à¥Ģ": 4491,
      "Ġà¤µà¤°à¥įà¤ľ": 4492,
      "Ġà¤ķà¤ªà¤¡à¤¼à¥ĩ": 4493,
      "Ġà¤Ĺà¥įà¤°à¤¾à¤«": 4494,
      "Ġà¤¯à¥Įà¤¨": 4495,
      "Ġà¤¸à¤Ńà¤¾": 4496,
      "Ġà¤ıà¤Ĥà¤ľ": 4497,
      "Ġà¤®à¤¿à¤²à¥ĩ": 4498,
      "Ġà¤¡à¤¾à¤ĩà¤ĳà¤ķà¥įà¤¸à¤¾à¤ĩà¤¡": 4499,
      "à¥ģà¤ľ": 4500,
      "Ġà¤¶à¥ģà¤°à¥ģà¤Ĩà¤¤à¥Ģ": 4501,
      "(à¤ľà¥Īà¤¸à¥ĩ": 4502,
      "à¤¾à¤Ĺà¤°à¥Ĥà¤ķ": 4503,
      "à¤°à¥įà¤²à¤Ń": 4504,
      "Ġà¤ļà¤Łà¥įà¤Łà¤¾à¤¨": 4505,
      "Ġà¤²à¤¾à¤ĩà¤¨": 4506,
      "Ġà¤¹à¥ĭà¤¨à¥Ģ": 4507,
      "Ġà¤Ľà¤¿à¤ª": 4508,
      "Ġà¤Ńà¥Ĥà¤ķà¤Ĥà¤ª": 4509,
      "ĠĠĠĠĠĠĠĠĠĠĠ": 4510,
      "à¤Ńà¤¾à¤°à¤¤": 4511,
      "à¥įà¤Łà¤¿à¤¨": 4512,
      "Ġà¤¸à¤¾à¤®à¥įà¤°": 4513,
      "à¤¾à¤¶à¥įà¤®": 4514,
      "Ġà¤ľà¤¾à¤ıà¤Ĥà¤Ĺà¥ĩ": 4515,
      "Ġà¤µà¤¨à¥įà¤¯": 4516,
      "Ġà¤ĩà¤®à¤¾à¤°à¤¤": 4517,
      "Ġagainst": 4518,
      "à¥įà¤²à¤¾": 4519,
      "à¤¾à¤£à¤¿à¤ľ": 4520,
      "Ġno": 4521,
      "Ġà¤ķà¤¿à¤¤à¤¾à¤¬": 4522,
      "à¤µà¥įà¤¯à¤®à¤¾à¤¨": 4523,
      "Ġà¤²à¤¿à¤¯à¥ĩ": 4524,
      "Ġà¤®à¤ľà¤¬à¥Ĥà¤°": 4525,
      "à¥ĩà¤¬à¤²": 4526,
      "Ġà¤ķà¤¿à¤¸à¤¾à¤¨": 4527,
      "ĠSh": 4528,
      "Ġà¤¸à¤¾à¤¹": 4529,
      "Ġà¤ıà¤¯à¤°": 4530,
      "à¥ģà¤ħ": 4531,
      "Ġà¤¬à¤ļà¤¾à¤¨à¥ĩ": 4532,
      "):": 4533,
      "Ġà¤®à¤Ĥà¤ļ": 4534,
      "à¤¾à¤ľà¤ªà¤¾": 4535,
      "Ġà¤ªà¤¢à¤¼à¥ĩà¤Ĥ": 4536,
      "Ġà¤°à¥ĭà¤ķà¤¥à¤¾à¤®": 4537,
      "Ġbo": 4538,
      "day": 4539,
      "Ġà¤²à¤¾à¤¨à¥ĩ": 4540,
      "Ġà¤ªà¤°à¤¿à¤¦": 4541,
      "à¤£à¤¿à¤¯à¥ĭà¤Ĥ": 4542,
      "Ġà¤ħà¤¨à¥ģà¤ķà¥įà¤°à¤®": 4543,
      "Ġà¤ĳà¤ª": 4544,
      "tern": 4545,
      "Ġà¤ľà¥ĭà¤¡à¤¼à¤¨à¥ĩ": 4546,
      "con": 4547,
      "Ġà¤ĸà¤¿à¤²à¤¾à¤¡à¤¼à¥Ģ": 4548,
      "à¤µà¤¿à¤ķà¤²à¥įà¤ª": 4549,
      "Ġà¤ªà¥įà¤°à¤¤à¤¿à¤°à¤ķà¥įà¤·à¤¾": 4550,
      "ai": 4551,
      "à¤¸à¥ĩà¤Ł": 4552,
      "à¤Łà¥įà¤łà¤¾": 4553,
      "Ġà¤«à¤¾à¤ĩ": 4554,
      "ss": 4555,
      "à¤¸à¥Ĥ": 4556,
      "Ġà¤µà¤¾à¤¯à¥ģà¤®à¤Ĥà¤¡à¤²": 4557,
      "48": 4558,
      "ug": 4559,
      "Ġà¤¸à¤¿à¤ķ": 4560,
      "iss": 4561,
      "à¤¾à¤§à¤¿à¤ķà¤¾à¤°": 4562,
      "à¤¾à¤¸à¥įà¤Łà¤¿à¤ķ": 4563,
      "Ġà¤ħà¤µà¤¸à¤¾à¤¦": 4564,
      "Ġà¤ªà¥ĩà¤¡à¤¼à¥ĭà¤Ĥ": 4565,
      "Ġà¤µà¥įà¤¯à¤¾à¤µà¤¸à¤¾à¤¯": 4566,
      "/à¤ħ": 4567,
      "Ġà¤¸à¤¿à¤¨": 4568,
      "Ġà¤Īà¤¸à¤¾à¤Ī": 4569,
      "\"à¤¹": 4570,
      "Ġà¤¬à¤¤à¤¾": 4571,
      "à¤Łà¤°à¥Ģ": 4572,
      "Ġà¤Ĩà¤ģ": 4573,
      "Ġà¤¹à¤¿à¤Ĥà¤¦": 4574,
      "Ġà¤ļà¤¿à¤ª": 4575,
      "à¤ķà¥įà¤¸à¤¿à¤ķà¥ĭ": 4576,
      "Ġà¤ªà¥ĩà¤¶à¥ĩà¤µà¤°": 4577,
      "Ġà¤ļà¥ĩà¤¹à¤°à¥ĩ": 4578,
      "aw": 4579,
      "à¤ķà¤¾à¤°à¥ĭà¤Ĥ": 4580,
      "Ġà¤®à¥ĥà¤¤": 4581,
      "Ġyour": 4582,
      "Ġà¤ļà¥ģà¤ķà¥ĩ": 4583,
      "Ġà¤ĭà¤£": 4584,
      "ob": 4585,
      "Ġà¤ªà¤°à¤Ĥà¤ª": 4586,
      "Ġà¤īà¤¨à¤¸à¥ĩ": 4587,
      "Ġhim": 4588,
      "Ġà¤Ĭà¤ªà¤°à¥Ģ": 4589,
      "Ġà¤¶à¤¿à¤ķà¥įà¤·à¤£": 4590,
      "Ġà¤ķà¥ĭà¤¶à¤¿à¤ķ": 4591,
      "Ġà¤Łà¤¿à¤ªà¥įà¤ªà¤£à¥Ģ": 4592,
      "à¥ģà¤°à¤¾": 4593,
      "Ġà¤ªà¥įà¤°à¤¦à¥Ĥà¤·à¤£": 4594,
      "à¤¹à¤¾à¤°à¤¿à¤ķ": 4595,
      "Ġany": 4596,
      "Ġà¤Ĺà¥įà¤°à¤¾à¤¹à¤ķ": 4597,
      "Ġà¤ķà¤Ĥà¤ªà¤¨à¤¿à¤¯à¥ĭà¤Ĥ": 4598,
      "act": 4599,
      "à¤ªà¤ļà¤¾à¤°à¤¿à¤ķ": 4600,
      "à¤«à¤°": 4601,
      "à¥ĭà¤²à¤¿à¤ķ": 4602,
      "Ġà¤ĺà¤Łà¤ķ": 4603,
      "à¤®à¥ĩà¤²": 4604,
      "à¤¾à¤Ĺà¥įà¤¯": 4605,
      "-à¤Ń": 4606,
      "ank": 4607,
      "Ġà¤¦à¥ĭà¤ª": 4608,
      "Ġà¤Ĩà¤§à¥ĩ": 4609,
      "Ġà¤²à¤¾": 4610,
      "Ġà¤¸à¤®à¥Ģà¤ķà¥įà¤·": 4611,
      "Ġà¤¸à¤®à¥ģà¤¦à¤¾à¤¯à¥ĭà¤Ĥ": 4612,
      "```": 4613,
      "Ġà¤ķà¥įà¤°à¤¿à¤ķà¥ĩà¤Ł": 4614,
      "Ġà¤ķà¤¿à¤¤à¤¨à¥Ģ": 4615,
      "Ġro": 4616,
      "Ġqu": 4617,
      "à¥ĭà¤¨à¥ĩ": 4618,
      "Ġà¤ļà¤°à¤¿à¤¤à¥įà¤°": 4619,
      "Ġà¤ĸà¤¾à¤¨": 4620,
      "Ġà¤ľà¥Ģà¤µà¤¾à¤¶à¥įà¤®": 4621,
      "à¤Ĥà¤ķà¤¾": 4622,
      "à¤°à¥įà¤¨à¤²": 4623,
      "Ġà¤®à¤¨à¥ĭà¤°": 4624,
      "Ġà¤¸à¤Ĥà¤¬à¥ĭà¤§à¤¿à¤¤": 4625,
      "à¤¹à¥Ģà¤¤": 4626,
      "Ġà¤¡à¥ĩà¤¨": 4627,
      "Ġà¤¦à¥ģà¤°à¥įà¤²à¤Ń": 4628,
      "Ġlead": 4629,
      "Ġà¤¦à¥Įà¤¡à¤¼": 4630,
      "Ġà¤¬à¤¾à¤°à¤¿à¤¶": 4631,
      "Ġà¤¸à¥ĭà¤¨à¥ĩ": 4632,
      "Ġà¤¸à¥įà¤¨à¤¾à¤¤à¤ķ": 4633,
      "Wh": 4634,
      "Ġà¤¸à¤¤à¥įà¤°": 4635,
      "Ġà¤®à¤¾à¤¯": 4636,
      "ener": 4637,
      "Ġà¤ªà¥įà¤°à¤ķà¤¾à¤¶à¤¨": 4638,
      "Ġà¤ļà¥Ģà¤ľà¥ĩà¤Ĥ": 4639,
      "Ġà¤¦à¥ĭà¤ªà¤¹à¤°": 4640,
      "lud": 4641,
      "Ġà¤ľà¤¾à¤Ĺà¤°à¥Ĥà¤ķ": 4642,
      "à¥ĭà¤Łà¤¿à¤ķ": 4643,
      "à¤ķà¥įà¤·à¤£à¤¿à¤ķ": 4644,
      "Ġà¤µà¤¸à¤Ĥà¤¤": 4645,
      "à¤ľà¥Ĥà¤¦à¤¾": 4646,
      "Ġà¤µà¤¨à¥įà¤¯à¤ľà¥Ģà¤µ": 4647,
      "ie": 4648,
      "à¤¦à¥įà¤¯à¥ĭà¤Ĺà¤¿à¤ķ": 4649,
      "à¥Īà¤Łà¤¿à¤¨": 4650,
      "mer": 4651,
      "are": 4652,
      "à¤ķà¥įà¤²": 4653,
      "à¤¨à¤¾à¤®": 4654,
      "Ġà¤¶à¥ģà¤¦à¥įà¤§": 4655,
      "erson": 4656,
      "ĠUn": 4657,
      "à¤īà¤¨à¥įà¤¹à¥ĭà¤Ĥà¤¨à¥ĩ": 4658,
      "Ġà¤ķà¥īà¤¨": 4659,
      "à¤Ĥà¤µ": 4660,
      "à¤ļà¤¾à¤Ī": 4661,
      "à¥įà¤Ĺà¥ĭà¤°": 4662,
      "Ġà¤¦à¥ģà¤ķà¤¾à¤¨": 4663,
      "Ġà¤¹à¤¿à¤²": 4664,
      "Ġà¤ĸà¤°": 4665,
      "Ġother": 4666,
      "Ġà¤¸à¤¾à¤®à¥įà¤°à¤¾à¤ľà¥įà¤¯": 4667,
      "à¥ª": 4668,
      "Ġà¤¨à¤ľà¤¼à¤°": 4669,
      "Ġà¤ĸà¤¾à¤¨à¤¾": 4670,
      "Ġà¤®à¥ĩà¤¨": 4671,
      "Ġà¤²à¤Ĥà¤¦à¤¨": 4672,
      "Ġà¤Ĩà¤ªà¤¾à¤¤": 4673,
      "elhi": 4674,
      "Ġyear": 4675,
      "Ġà¤ħà¤£": 4676,
      "Ġà¤Ĺà¤ł": 4677,
      "Ġà¤īà¤¤à¥įà¤ªà¤¤à¥įà¤¤à¤¿": 4678,
      "Ġà¤¨à¤¿à¤°à¥įà¤®à¤¿à¤¤": 4679,
      "Ġà¤®à¥ģà¤¦à¥įà¤¦à¥ĩ": 4680,
      "à¤®à¥įà¤®": 4681,
      "Ġà¤ªà¥įà¤°à¥ĩà¤®": 4682,
      "Ġà¤Ĩà¤Ĥà¤§": 4683,
      "Ġà¤¦à¥įà¤°à¤µà¥įà¤¯à¤®à¤¾à¤¨": 4684,
      "Ġà¤ªà¥įà¤°à¤ķà¥įà¤°à¤¿à¤¯à¤¾à¤ĵà¤Ĥ": 4685,
      "Ġà¤¹à¤Łà¤¾à¤¨à¥ĩ": 4686,
      "Ġà¤¬à¥Ģà¤®à¤¾à¤°à¤¿à¤¯à¥ĭà¤Ĥ": 4687,
      "à¤ľà¤µà¤¾à¤¬": 4688,
      "Ġà¤²à¥ĩà¤¬à¤²": 4689,
      "à¤¾à¤ķà¥Ĥ": 4690,
      "à¤°à¥įà¤®à¥Ģ": 4691,
      "Ġà¤ķà¤°à¥įà¤®à¤ļà¤¾à¤°à¥Ģ": 4692,
      "à¥®": 4693,
      "Ġà¤¨à¥Īà¤¨": 4694,
      "Ġà¤¸à¤®à¤Ĺà¥įà¤°": 4695,
      "à¥įà¤ªà¥įà¤°": 4696,
      "Ġà¤¸à¤¾à¤°à¤¾à¤Ĥà¤¶": 4697,
      "Ġà¤µà¤¯à¤¸à¥įà¤ķà¥ĭà¤Ĥ": 4698,
      "Ġà¤ĳà¤ķà¥įà¤¸à¥Ģà¤ľà¤¨": 4699,
      "Ġà¤ķà¥ĭà¤¯": 4700,
      "à¥ĭà¤¸à¤¿à¤¸": 4701,
      "à¤²à¥įà¤¯": 4702,
      "Ġà¤µà¤¾à¤£à¤¿à¤ľ": 4703,
      "Ġà¤¬à¤¨à¤¾à¤ıà¤ģ": 4704,
      "Ġdec": 4705,
      "Ġà¤¬à¤¯à¤¾à¤¨": 4706,
      "Ġà¤¸à¤¾à¤¥à¥Ģ": 4707,
      "Ġà¤¸à¤Ĥà¤ķà¤Ł": 4708,
      "Ġà¤Ńà¤µà¤¿à¤·à¥įà¤¯à¤µà¤¾à¤£à¥Ģ": 4709,
      "à¥įà¤µà¤¾à¤¨": 4710,
      "Ġà¤Ĺà¤¹à¤°à¤¾à¤Ī": 4711,
      "Ġà¤ħà¤µà¤§à¤¾à¤°à¤£à¤¾": 4712,
      "Ġà¤²à¤¿à¤Ĥà¤Ĺ": 4713,
      "à¤ľà¥ĩ": 4714,
      "Ġà¤Łà¥įà¤°à¤¾à¤Ĥà¤¸": 4715,
      "Ġà¤ħà¤ķà¤¾à¤¦": 4716,
      "Ġte": 4717,
      "Ġà¤īà¤ªà¤Ĺà¥įà¤°à¤¹": 4718,
      "à¥ĭà¤¡à¤¼à¥ĩ": 4719,
      "Ġà¤®à¤Ĥà¤ľ": 4720,
      "à¤«à¥įà¤°": 4721,
      "Ġà¤ªà¥įà¤°à¤¶à¥įà¤¨à¥ĭà¤Ĥ": 4722,
      "-à¤¬à¤¾à¤°": 4723,
      "Ġà¤®à¥ĭà¤¦à¥Ģ": 4724,
      "Ġà¤¨à¥Įà¤ķà¤°à¥Ģ": 4725,
      "ory": 4726,
      "Ġhel": 4727,
      "Ġà¤®à¤¾à¤¨à¥įà¤¯à¤¤à¤¾": 4728,
      "Ġmore": 4729,
      "Ġà¤¸à¥įà¤Łà¤¾à¤°": 4730,
      "Ġà¤ļà¥Įà¤¥": 4731,
      "Ġà¤Ńà¥įà¤°à¤®": 4732,
      "à¤°à¤¿à¤¤": 4733,
      "uring": 4734,
      "Ġà¤¦à¥Ģà¤°à¥įà¤ĺà¤ķà¤¾à¤²à¤¿à¤ķ": 4735,
      "à¤«à¥ĭà¤°à¥įà¤¡": 4736,
      "à¥ĭà¤²à¥įà¤¡": 4737,
      "Ġà¤¸à¤Ĥà¤¶à¥ĭà¤§à¤¨": 4738,
      "Ġà¤®à¤¹à¤¾à¤®à¤¾à¤°à¥Ģ": 4739,
      "Ġà¤¸à¤Ĥà¤Ĺà¥įà¤°à¤¹à¥Ģà¤¤": 4740,
      "Ġà¤ıà¤¥": 4741,
      "Ġà¤ļà¤¾à¤¹à¥ĩ": 4742,
      "Ġà¤®à¤¾à¤®à¤²à¤¾": 4743,
      "ourt": 4744,
      "Ġà¤ľà¥ĩà¤®à¥įà¤¸": 4745,
      "Ġà¤¶à¥ĭà¤§à¤ķà¤°à¥įà¤¤à¤¾": 4746,
      "Ġà¤ªà¤°à¤¿à¤ļà¤¯": 4747,
      "à¥Ĥà¤ģ": 4748,
      "à¤¾à¤ªà¤¿à¤¤": 4749,
      "Ġà¤µà¥įà¤¯à¤µà¤¸à¥įà¤¥à¤¿à¤¤": 4750,
      "Ġà¤¦à¥Ģà¤µà¤¾à¤°": 4751,
      "ĠThe": 4752,
      "Ġà¤®à¥Įà¤ľà¥Ĥà¤¦à¤¾": 4753,
      "à¤ķà¥įà¤·à¤¿à¤ķ": 4754,
      "à¤¾à¤£à¤¿à¤ķ": 4755,
      "ild": 4756,
      "Ġà¤Ĺà¤¹à¤°à¥ĩ": 4757,
      "Ġà¤µà¥įà¤¯à¤¾à¤µà¤¸à¤¾à¤¯à¤¿à¤ķ": 4758,
      "à¤ķà¥įà¤Ł": 4759,
      "Ġà¤¶à¥įà¤°à¤®à¤¿à¤ķ": 4760,
      "Ġà¤ĩà¤ķà¤Łà¥įà¤łà¤¾": 4761,
      "Ġà¤ľà¤Ĥà¤Ĺà¤²à¥Ģ": 4762,
      "Ġpre": 4763,
      "Ġà¤µà¤°à¥įà¤·à¤¾": 4764,
      "ual": 4765,
      "à¥Ģà¤®": 4766,
      "à¥įà¤ªà¤¾à¤¦": 4767,
      "\"à¤Ĩ": 4768,
      "Ġsec": 4769,
      "à¤²à¥įà¤ªà¤¿à¤ķ": 4770,
      "ket": 4771,
      "à¥Īà¤ķà¥įà¤Ł": 4772,
      "Ġà¤Łà¥įà¤°à¥ĩà¤¨": 4773,
      "Ġà¤ªà¥ĩà¤ªà¤°": 4774,
      "Ġà¤ªà¥ĩà¤¯": 4775,
      "Ġà¤°à¥Ī": 4776,
      "Ġà¤ķà¥ģà¤¤à¥įà¤¤à¥ĩ": 4777,
      "à¤§à¥Ģ": 4778,
      "ĠII": 4779,
      "Ġà¤°à¥ĩà¤¡à¤¿à¤¯à¥ĭ": 4780,
      "ip": 4781,
      "à¤¿à¤ĥ": 4782,
      "à¤¨à¥įà¤µ": 4783,
      "Ġà¤ªà¤µà¤¿à¤¤à¥įà¤°": 4784,
      "à¤¿à¤µà¤°à¥įà¤¸": 4785,
      "Ġà¤¸à¥įà¤ķà¥īà¤Ł": 4786,
      "Ġà¤¶à¥Īà¤ķà¥įà¤·à¤£à¤¿à¤ķ": 4787,
      "Ġà¤Ĩà¤¯à¥ĭà¤Ĺ": 4788,
      "Ġà¤ļà¥Ĥà¤¹": 4789,
      "Ġà¤¦à¤¶à¤ķà¥ĭà¤Ĥ": 4790,
      "à¤¤à¥įà¤ķà¤¾à¤²": 4791,
      "à¤Ĥà¤¦à¥Ģ": 4792,
      "Ġà¤¬à¤¹à¥ģ": 4793,
      "Ġà¤µà¤¹à¤¾à¤Ĥ": 4794,
      "Ġà¤ħà¤§à¥įà¤¯à¤¾à¤¯": 4795,
      "vi": 4796,
      "ven": 4797,
      "à¤µà¥ĩà¤²": 4798,
      "à¤¸à¥įà¤¤à¥Ģ": 4799,
      "Ġà¤®à¥Īà¤¨": 4800,
      "Ġà¤ľà¤°à¥įà¤®à¤¨à¥Ģ": 4801,
      "Ġà¤¬à¤¾à¤¢à¤¼": 4802,
      "Ġà¤ľà¥ĩà¤²": 4803,
      "à¤¤à¥Ģà¤¤": 4804,
      "Ġà¤¸à¤¹à¤¯à¥ĭà¤Ĺà¥Ģ": 4805,
      "55": 4806,
      "Ġà¤¶à¥ĭ": 4807,
      "Ġà¤¹à¥ĭà¤®": 4808,
      "à¤¿à¤¸à¥įà¤ªà¤°à¥įà¤§": 4809,
      "à¤®à¥Īà¤Ĥ": 4810,
      "Ġà¤¸à¤Ĥà¤¦à¥ĩà¤¹": 4811,
      "Ġà¤¡à¥ĩà¤µà¤¿à¤¡": 4812,
      "Ġà¤ĸà¤¬à¤°": 4813,
      "Ġà¤¬à¥ĩà¤¹à¤¦": 4814,
      "Ġà¤Ĭà¤Ĥà¤ļà¤¾à¤Ī": 4815,
      "Ġà¤µà¤ľà¤¹": 4816,
      "Ġà¤ķà¥įà¤·à¥ĩà¤¤à¥įà¤°à¥Ģà¤¯": 4817,
      "Ġà¤¡à¥įà¤°à¤¾à¤ĩ": 4818,
      "Ġà¤Łà¥ģà¤ķà¤¡à¤¼à¥ĩ": 4819,
      "à¤«à¥ĭà¤¨": 4820,
      "Ġfirst": 4821,
      "Ġà¤¶à¤¹à¤°à¥Ģ": 4822,
      "ough": 4823,
      "Ġà¤¸à¤®à¥ĥà¤¦à¥įà¤§": 4824,
      "Ġà¤¸à¤¾à¤ª": 4825,
      "Ġà¤°à¤¹à¥ĩà¤Ĥ": 4826,
      "Ġà¤®à¤¹à¥Ģà¤¨à¥ĭà¤Ĥ": 4827,
      "Ġà¤¬à¥įà¤²à¥Īà¤ķ": 4828,
      "Ġà¤ªà¤¾à¤°à¤¿à¤¸à¥įà¤¥à¤¿à¤¤à¤¿à¤ķà¥Ģ": 4829,
      "Ġà¤ļà¤°à¤£à¥ĭà¤Ĥ": 4830,
      "(à¤¨": 4831,
      "Ġà¤¸à¤®à¤¸à¥įà¤¯à¤¾à¤ıà¤Ĥ": 4832,
      "à¥¬": 4833,
      "à¤¿à¤Ĥà¤Ĺà¥įà¤¸": 4834,
      "Ġà¤ļà¤²à¤¤à¥ĩ": 4835,
      "Ġà¤ıà¤Ĥà¤Łà¥Ģà¤¬": 4836,
      "Ġà¤¦à¤¾à¤Ĥà¤¤": 4837,
      "Ġà¤īà¤¤à¤¨à¤¾": 4838,
      "Ġà¤īà¤¨à¥įà¤¨à¤¤": 4839,
      "-à¤¡": 4840,
      "Ġà¤Ĩà¤°à¥įà¤ķ": 4841,
      "Ġtra": 4842,
      "Ġwork": 4843,
      "(à¤¯à¤¾": 4844,
      "-à¤¤": 4845,
      "Ġà¤Ķà¤¦à¥įà¤¯à¥ĭà¤Ĺà¤¿à¤ķ": 4846,
      "à¤¶à¤¿à¤·à¥įà¤Ł": 4847,
      "Ġà¤²à¤Ĺà¥Ģ": 4848,
      "Ġà¤īà¤¤à¥įà¤ªà¤¾à¤¦à¤ķ": 4849,
      "Ġà¤®à¤¹à¤¿à¤²à¤¾à¤ıà¤Ĥ": 4850,
      "Ġà¤Ńà¥ĩà¤ľà¤¾": 4851,
      "Ġà¤ħà¤¨à¥ģà¤ªà¤¾à¤¤": 4852,
      "Ġà¤¯à¤¾à¤¤à¥įà¤°": 4853,
      "Ġà¤¶à¤²à¥įà¤¯": 4854,
      "à¤°à¥Ģà¤¨": 4855,
      "ite": 4856,
      "Ġele": 4857,
      "Ġkn": 4858,
      "Ġà¤®à¤¿à¤¶à¥įà¤°à¤£": 4859,
      "à¤¿à¤ķà¤¨": 4860,
      "Ġcent": 4861,
      "Ġà¤¶à¥Īà¤ķà¥įà¤·à¤¿à¤ķ": 4862,
      "Ġà¤ªà¤°à¤¿à¤Ńà¤¾à¤·à¤¾": 4863,
      "Ġà¤ªà¥ĭà¤°à¥įà¤Łà¤²": 4864,
      "Ġà¤®à¥ĩà¤Ł": 4865,
      "à¤¾à¤¯à¤¿à¤ķ": 4866,
      "Ġà¤ļà¤¾à¤²à¤ķ": 4867,
      "Ġà¤ķà¤¿à¤°": 4868,
      "Ġà¤²à¥ĩà¤¤à¤¾": 4869,
      "Ġà¤®à¤¹à¤¾à¤°": 4870,
      "Ġà¤¸à¥Ĥà¤ļà¥Ģà¤¬à¤¦à¥įà¤§": 4871,
      "Ġà¤īà¤²à¥įà¤²à¥ĩà¤ĸà¤¨à¥Ģà¤¯": 4872,
      "Ġà¤°à¥ĭà¤¡": 4873,
      "Ġà¤Ĺà¥Ĥ": 4874,
      "à¤¾à¤¤à¥įà¤ķ": 4875,
      "à¥ĭà¤Łà¤¾": 4876,
      "Ġà¤¸à¤¤à¥įà¤¯": 4877,
      "Ġà¤¦à¤¸à¥įà¤¤à¤¾à¤µà¥ĩà¤ľ": 4878,
      "à¤¨à¥įà¤¦à¥įà¤°": 4879,
      "Ġà¤®à¤¾à¤Ĥ": 4880,
      "Ġà¤°à¤ľ": 4881,
      "Ġà¤ıà¤²à¥įà¤Ĺà¥ĭà¤°": 4882,
      "-à¤¸à¤®": 4883,
      "Ġà¤¯à¥ģà¤µà¤¾à¤ĵà¤Ĥ": 4884,
      "à¥ģà¤²à¥įà¤ķ": 4885,
      "Ġà¤®à¥ģà¤ĸà¥įà¤¯à¤®à¤Ĥà¤¤à¥įà¤°à¥Ģ": 4886,
      "Ġà¤¸à¤Ĥà¤°à¤ļà¤¨": 4887,
      "Ġà¤®à¥ĭà¤Łà¤°": 4888,
      "Ġà¤µà¤¿à¤°à¤¾à¤¸à¤¤": 4889,
      "Ġà¤ªà¥įà¤°à¤¤à¤¿à¤Ńà¤¾à¤Ĺ": 4890,
      "Ġà¤ħà¤¸à¥įà¤¤à¤¿à¤¤à¥įà¤µ": 4891,
      "ya": 4892,
      "Ġà¤īà¤ªà¤¯à¥ĭà¤Ĺà¤ķà¤°à¥įà¤¤à¤¾à¤ĵà¤Ĥ": 4893,
      "Ġà¤¦à¥ĩà¤ĸà¥Ģ": 4894,
      "Ġà¤ħà¤¦à¥įà¤¯": 4895,
      "Ġà¤ķà¤µà¤¿à¤¤à¤¾": 4896,
      "Ġà¤°à¤¾à¤¸à¥įà¤¤à¥ĩ": 4897,
      "Ġà¤®à¤¹à¤¾à¤¸à¤¾à¤Ĺà¤°": 4898,
      "Ġà¤Ĩà¤ĸ": 4899,
      "Ġà¤Ĩà¤µà¤¿à¤·à¥įà¤ķ": 4900,
      "à¤¿à¤Ĺà¥įà¤°": 4901,
      "Ġà¤µà¥įà¤¯à¤¾à¤µà¤¹à¤¾à¤°à¤¿à¤ķ": 4902,
      "à¤¿à¤°à¥įà¤®à¤¾à¤£": 4903,
      "Ġà¤ħà¤¶à¥įà¤µ": 4904,
      "Ġà¤ªà¥įà¤°à¤¤à¤¿à¤¸à¥įà¤ªà¤°à¥įà¤§": 4905,
      "Ġà¤¦à¥ĭà¤¹à¤°": 4906,
      "Ġà¤ĩà¤¤à¤¨à¥ĩ": 4907,
      "sp": 4908,
      "à¥įà¤¯à¤µà¤¾à¤¦": 4909,
      "Ġà¤ħà¤¨à¥įà¤¤à¤°à¥įà¤Ĺà¤¤": 4910,
      "65": 4911,
      "Ġà¤¤à¤¤à¥įà¤ķà¤¾à¤²": 4912,
      "Ġà¤¡à¤¾à¤ī": 4913,
      "Ġà¤«à¥įà¤²à¥Ĥ": 4914,
      "Ġà¤Ĩà¤ķà¤°à¥įà¤·à¤ķ": 4915,
      "à¤¾à¤Ĥà¤¤à¥įà¤°à¤¿à¤ķ": 4916,
      "à¥¯": 4917,
      "Ġà¤ķà¤ļ": 4918,
      "Ġà¤ķà¥ĥ": 4919,
      "rent": 4920,
      "Ġà¤¸à¥ĩà¤Ĥ": 4921,
      "à¥īà¤ĩ": 4922,
      "dia": 4923,
      "Ġà¤ĺà¥ĭà¤Ĥ": 4924,
      "oll": 4925,
      "Ġà¤µà¤°à¥įà¤£à¤¿à¤¤": 4926,
      "Ġà¤¸à¤®à¤°à¥įà¤ª": 4927,
      "Ġà¤Łà¥ĩà¤¸à¥įà¤Ł": 4928,
      "Ġà¤¹à¤¸à¥įà¤¤à¤ķà¥įà¤·à¥ĩà¤ª": 4929,
      "me": 4930,
      "à¤¨à¤¤à¤®": 4931,
      "Ġà¤Ńà¤µà¤¨": 4932,
      "à¤«à¤¨": 4933,
      "Ġà¤®à¤¨à¥ģà¤·à¥įà¤¯": 4934,
      "Ġà¤Ĭà¤¤à¤ķ": 4935,
      "Ġà¤¸à¥ģà¤²": 4936,
      "Ġà¤Ńà¤¾à¤ľà¤ªà¤¾": 4937,
      "à¤ļà¥įà¤Ľà¤¿à¤ķ": 4938,
      "à¤¾à¤ļà¤¨": 4939,
      "Ġà¤ħà¤ªà¥ĩà¤ķà¥įà¤·à¤¾à¤ķà¥ĥà¤¤": 4940,
      "Ġà¤ªà¤¾à¤īà¤Ĥà¤¡": 4941,
      "Ġà¤§à¤®": 4942,
      "Ġà¤¦à¥ĩà¤Ĥà¤Ĺà¥ĩ": 4943,
      "Ġà¤®à¥ģà¤«": 4944,
      "Ġà¤²à¥īà¤¨": 4945,
      "à¥Ń": 4946,
      "à¥ĭà¤¨à¥Ģ": 4947,
      "Ġà¤µà¤¿à¤¶à¥ĩà¤·à¤ľà¥įà¤ŀà¥ĭà¤Ĥ": 4948,
      "........": 4949,
      "Ġà¤Ĺà¤°à¥Ģà¤¬": 4950,
      "à¤µà¤¤à¥Ģ": 4951,
      "à¥ĩà¤¨à¤¿à¤¯à¤¾": 4952,
      "Ġà¤¬à¤¤à¤¾à¤¤à¤¾": 4953,
      "Ġà¤ªà¥ģà¤¨à¤°à¥įà¤¨": 4954,
      "Ġà¤µà¤¹à¥Ģ": 4955,
      "Ġà¤Ńà¤°à¥įà¤¤à¥Ģ": 4956,
      "à¥įà¤µà¤¿à¤¤à¥Ģà¤¯": 4957,
      "Ġà¤ªà¥įà¤°à¤µà¤¾à¤¸": 4958,
      "Ġà¤Ĩà¤¦à¤°à¥įà¤¶": 4959,
      "Ġà¤°à¥ĭà¤®à¤¨": 4960,
      "Ġà¤Ĩà¤Ĥà¤¶à¤¿à¤ķ": 4961,
      "Ġà¤¬à¤¿à¤ķà¥įà¤°à¥Ģ": 4962,
      "à¤¸à¥ĩà¤¨à¤¾": 4963,
      "2004": 4964,
      "Ġà¤ħà¤®à¥ĩà¤°à¤¿à¤ķà¤¿à¤¯à¥ĭà¤Ĥ": 4965,
      "300": 4966,
      "We": 4967,
      "Ġà¤¹à¤®à¤²à¥ĩ": 4968,
      "Ġà¤®à¤¾à¤¨à¤ķà¥ĭà¤Ĥ": 4969,
      "Ġà¤¸à¤ļà¤¿à¤µ": 4970,
      "Ġà¤ħà¤¦à¤¾à¤²à¤¤": 4971,
      "à¤®à¥įà¤ª": 4972,
      "ongress": 4973,
      "Ġà¤Ĩà¤Ĥà¤§à¥įà¤°": 4974,
      "Ġà¤ªà¤¹à¥ģà¤Ĥà¤ļà¤¨à¥ĩ": 4975,
      "à¤¾à¤ĺ": 4976,
      "à¤Ĥà¤¸à¥įà¤ķ": 4977,
      "à¤®à¤¾à¤°à¥įà¤Ĺ": 4978,
      "(à¤ī": 4979,
      "/à¤Ĺ": 4980,
      "95": 4981,
      "Ġà¤°à¤¨": 4982,
      "Ġà¤¸à¤®à¤¨à¥įà¤µ": 4983,
      "Ġà¤ķà¥Īà¤ª": 4984,
      "Ġà¤¬à¤¹à¤¸": 4985,
      "Ġà¤«à¤¼à¤¿à¤²à¥įà¤®": 4986,
      "Ġà¤Ĩà¤ķà¤¾à¤¶à¤Ĺ": 4987,
      "Ġà¤ªà¥įà¤°à¤¤à¤¿à¤¯à¥ĭà¤Ĺ": 4988,
      "Ġcase": 4989,
      "Ġà¤ªà¤°à¤¿à¤µà¤°à¥įà¤¤à¤¿à¤¤": 4990,
      "Ġà¤µà¤¿à¤¨à¤¾à¤¶": 4991,
      "Ġà¤®à¥ĭà¤¹": 4992,
      "à¤ľà¥įà¤ŀà¤¾à¤¤": 4993,
      "Ġà¤µà¤°à¤¿à¤·à¥įà¤ł": 4994,
      "pe": 4995,
      "Ġà¤ķà¤¹à¤¤à¤¾": 4996,
      "à¤¨à¤²à¥ĭà¤¡": 4997,
      "Ġà¤Ľà¥ĭà¤¡à¤¼à¤¨à¥ĩ": 4998,
      "Ġà¤µà¤¿à¤ķà¤²à¥įà¤ªà¥ĭà¤Ĥ": 4999,
      "à¤ļà¤¾à¤ª": 5000,
      "Ġà¤Ńà¤°à¤¾": 5001,
      "Ġret": 5002,
      "Ġà¤ķà¥Īà¤°à¥ĭà¤²": 5003,
      "Ġà¤¸à¤ľ": 5004,
      "Ġà¤¦à¤µ": 5005,
      "Ġà¤«à¤¿à¤Ł": 5006,
      "Ġà¤¬à¤¨à¤¾à¤¤à¥Ģ": 5007,
      "ities": 5008,
      "à¤¿à¤ľà¤¨": 5009,
      "\"à¤ªà¥įà¤°": 5010,
      "Ġà¤®à¤Ĥà¤¡à¤²": 5011,
      "Ġrec": 5012,
      "âĢĵ": 5013,
      "ĠCom": 5014,
      "Ġà¤ªà¥ĭà¤²": 5015,
      "Ġà¤ĸà¥ģà¤²à¥ĩ": 5016,
      "Ġà¤ªà¤¹à¤¾à¤¡à¤¼": 5017,
      "old": 5018,
      "Ġà¤µà¤¿à¤§à¤¾à¤¨à¤¸à¤Ńà¤¾": 5019,
      "Ġà¤¬à¥ĩà¤ļ": 5020,
      "à¤¿à¤ľà¥įà¤®": 5021,
      "Ġà¤°à¥ĩà¤²à¤µà¥ĩ": 5022,
      "Ġà¤¸à¥ĭà¤®à¤µà¤¾à¤°": 5023,
      "Ġà¤ķà¥ĭà¤°à¥įà¤Ł": 5024,
      "Ġà¤¦à¤°à¥įà¤¶à¤¨": 5025,
      "Ġà¤µà¥Īà¤ķà¤²à¥įà¤ªà¤¿à¤ķ": 5026,
      "Ġà¤¬à¤¿à¤¹à¤¾à¤°": 5027,
      "à¥ģà¤ĸà¥Ģ": 5028,
      "adesh": 5029,
      "--------------------------------": 5030,
      "Ġà¤¶à¤¿à¤µà¤¿à¤°": 5031,
      "Ġà¤ªà¥įà¤°à¤¿à¤Ĥà¤Ł": 5032,
      "ise": 5033,
      "Ġà¤ħà¤§à¤¿à¤ķà¤¾à¤°à¥ĭà¤Ĥ": 5034,
      "Ġà¤Ĩà¤¯à¥ĭà¤ľà¤¨": 5035,
      "ĠBJP": 5036,
      "Ġà¤®à¤¤à¤¦à¤¾à¤¨": 5037,
      "à¤µà¤¿à¤§à¤¾à¤¨": 5038,
      "Ġà¤®à¥ĭà¤¬à¤¾à¤ĩà¤²": 5039,
      "Ġà¤¤à¥įà¤°à¥ģà¤Ł": 5040,
      "à¤¾à¤°à¥įà¤µ": 5041,
      "à¤ĸà¥įà¤¤": 5042,
      "Ġà¤²à¤Ĺà¤¾à¤¨à¤¾": 5043,
      "Ġà¤¬à¥ĩà¤Łà¥Ģ": 5044,
      "à¤§à¤µà¤¾à¤°": 5045,
      "Ġà¤¥à¥īà¤®": 5046,
      "Ġà¤ĸà¤¾à¤²à¥Ģ": 5047,
      "Ġà¤Ńà¥Ģà¤¡à¤¼": 5048,
      "à¥ģà¤¤à¥įà¤µ": 5049,
      "Ġà¤ªà¥Īà¤¸à¥ĩ": 5050,
      "Ġà¤Ĺà¥ģà¤ªà¥įà¤¤": 5051,
      "Ġà¤¸à¤¿à¤¦à¥įà¤§à¤¾à¤Ĥà¤¤à¥ĭà¤Ĥ": 5052,
      "Ġà¤¬à¤¾à¤Ĺ": 5053,
      "à¤¶à¤¨à¤²": 5054,
      "Ġà¤ĩà¤Ĥà¤ľà¤¨": 5055,
      "oy": 5056,
      "Ġà¤Ĺà¤¢à¤¼": 5057,
      "Ġà¤°à¤¹à¤¨à¤¾": 5058,
      "Ġà¤ħà¤¨à¥ģà¤¶": 5059,
      "ĠDelhi": 5060,
      "Ġà¤ªà¤°à¤¿à¤¯à¥ĭà¤ľà¤¨à¤¾à¤ĵà¤Ĥ": 5061,
      "Ġà¤ĩà¤Ĥà¤Ĺà¤¿à¤¤": 5062,
      "get": 5063,
      "à¤¤à¥Ĥ": 5064,
      "à¤¦à¥ĩà¤¶": 5065,
      "Ġà¤ľà¤¾à¤¨à¥Ģ": 5066,
      "Ġà¤ªà¥įà¤°à¤¤à¤¿à¤·à¥įà¤ł": 5067,
      "Ġinv": 5068,
      "Ġà¤®à¥Ĥà¤¤à¥įà¤°": 5069,
      "=\"": 5070,
      "Ġà¤¬à¥Īà¤Łà¤°à¥Ģ": 5071,
      "à¥įà¤°à¥ĭ": 5072,
      "à¥įà¤ļà¤°": 5073,
      "Ġà¤ķà¥įà¤°à¤¿à¤¸à¥įà¤Ł": 5074,
      "Ġà¤«à¥ĩà¤Ĥà¤ķ": 5075,
      "Ġà¤°à¥ģà¤ķ": 5076,
      "Ġà¤ĩà¤¸à¥įà¤²": 5077,
      "Ġà¤ħà¤¨à¤¿à¤µà¤¾à¤°": 5078,
      "ased": 5079,
      "à¥ĭà¤·à¤ķ": 5080,
      "istan": 5081,
      "Ġà¤°à¥ĭà¤¶": 5082,
      "à¤°à¤¤à¤¾": 5083,
      "Ġà¤¬à¥ī": 5084,
      "vers": 5085,
      "Ġà¤¸à¥ĭà¤¶à¤²": 5086,
      "Ġà¤ķà¥įà¤²à¤¬": 5087,
      "Ġà¤ªà¥įà¤°à¤¾à¤°à¥Ĥà¤ª": 5088,
      "Ġà¤ªà¤°à¤¿à¤¸à¥įà¤¥à¤¿à¤¤": 5089,
      "ĠDe": 5090,
      "Ġà¤ªà¤°à¤¿à¤¸à¤°": 5091,
      "à¤¤à¤¿à¤ķà¥Ģ": 5092,
      "à¤¾à¤°à¥ĭà¤¹": 5093,
      "Ġà¤Łà¥įà¤¯à¥Ĥà¤®à¤°": 5094,
      "à¤²à¤¿à¤ķ": 5095,
      "à¤¿à¤¨à¤¿à¤¯à¤¾": 5096,
      "Ġà¤¡à¤¿à¤¬à¥įà¤¬": 5097,
      "Ġà¤ħà¤¨à¥ģà¤°à¥Ĥà¤ª": 5098,
      "Ġà¤¡à¤¾à¤īà¤¨à¤²à¥ĭà¤¡": 5099,
      "à¤¬à¤¾": 5100,
      "à¤¾à¤¯à¤¨": 5101,
      "à¤¿à¤°à¥įà¤¦à¥ĩà¤¶": 5102,
      "à¤¤à¤¾à¤ıà¤Ĥ": 5103,
      "ating": 5104,
      "à¥ĭà¤¸à¤¿à¤ı": 5105,
      "Ġà¤ªà¥įà¤²à¤¾à¤¸à¥įà¤Łà¤¿à¤ķ": 5106,
      "à¤«à¥įà¤¤à¤¾à¤°": 5107,
      "Ġra": 5108,
      "à¥ĭà¤¨à¤¾": 5109,
      "à¤ľà¤¾à¤°": 5110,
      "Ġà¤ķà¤®à¤°à¥ĩ": 5111,
      "ĠRaj": 5112,
      "à¤¹à¤¾à¤īà¤¸": 5113,
      "Ġà¤¬à¤Ĺà¥Ģ": 5114,
      "Ġà¤¨à¤¾à¤ĩà¤Ł": 5115,
      "Ġà¤°à¤ļà¤¨à¤¾": 5116,
      "Ġà¤¬à¤¨à¤¤à¤¾": 5117,
      "Ġcro": 5118,
      "Ġà¤ªà¤¹à¥ģà¤Ĥà¤ļà¥ĩ": 5119,
      "Ġà¤ªà¤°à¤¿à¤ļà¤¿à¤¤": 5120,
      "Ġà¤¨à¥ĩà¤¤à¤¾à¤ĵà¤Ĥ": 5121,
      "Ġà¤ħà¤Ĺà¥įà¤¨": 5122,
      "Ġà¤ħà¤¨à¥ģà¤®à¤¾à¤¨à¤¿à¤¤": 5123,
      "\"à¤ĩà¤¸": 5124,
      "à¤ªà¥ģ": 5125,
      "à¤¦à¤°": 5126,
      "Ġà¤µà¥ĩà¤¸à¥įà¤Ł": 5127,
      "ower": 5128,
      "Ġà¤ļà¤¿à¤¤à¥įà¤°à¤¿à¤¤": 5129,
      "à¤¿à¤µà¤¾à¤°à¤¿à¤ķ": 5130,
      "ey": 5131,
      "à¥įà¤µà¥Ģà¤Ł": 5132,
      "Ġà¤¦à¥ģà¤°à¥įà¤ĺ": 5133,
      "à¤®à¤²": 5134,
      "Ġà¤ªà¥įà¤°à¤¶à¤¾à¤Ĥà¤¤": 5135,
      "Ġà¤®à¥ģà¤¦à¥įà¤°": 5136,
      "ram": 5137,
      "Ġcountry": 5138,
      "Ġà¤ªà¤°à¤¿à¤¦à¥ĥà¤¶à¥įà¤¯": 5139,
      "Ġà¤®à¥ĭà¤¡à¤¼": 5140,
      "Ġà¤ħà¤¤à¥Ģà¤¤": 5141,
      "Ġà¤ķà¤®à¤¾à¤Ĥà¤¡": 5142,
      "Ġà¤ļà¤²à¤¾à¤¨à¥ĩ": 5143,
      "Ġà¤¨à¥įà¤¯à¥Ĥà¤¨à¤¤à¤®": 5144,
      "Ġà¤®à¤¾à¤²à¤¿à¤ķ": 5145,
      "(à¤Ĩ": 5146,
      "à¥Ģà¤¦à¤¾": 5147,
      "à¤µà¥ģà¤¡": 5148,
      "à¤Łà¤¿à¤ķ": 5149,
      "Ġà¤°à¤¿à¤ļ": 5150,
      "Ġbet": 5151,
      "Ġher": 5152,
      "à¤¡à¥įà¤°à¥ĭà¤®": 5153,
      "Ġà¤¹à¥ĩà¤¨": 5154,
      "à¤¾à¤ľà¤¨à¤ķ": 5155,
      "Ġà¤Łà¤¾à¤ĩà¤ª": 5156,
      "à¤Ĥà¤Ĺà¤¤": 5157,
      "Ġà¤ļà¥ģà¤¨à¤¾": 5158,
      "Ġà¤ĸà¥ĩà¤¤à¥Ģ": 5159,
      "Ġà¤¬à¤¾à¤Ĥà¤§": 5160,
      "Ġà¤ħà¤Ĥà¤§": 5161,
      "Ġà¤²à¥ĭ": 5162,
      "Ġà¤Ĺà¤¤à¤¿à¤¶à¥Ģà¤²": 5163,
      "Ġà¤ªà¥ĥà¤·à¥įà¤łà¤Ńà¥Ĥà¤®à¤¿": 5164,
      "Ġà¤ļà¤¢à¤¼": 5165,
      "Ġà¤ħà¤¸à¤®": 5166,
      "à¤¾à¤Ĥà¤¤à¤°à¤£": 5167,
      "Ġà¤ªà¥ģà¤¤à¥įà¤°": 5168,
      "Ġà¤Łà¥įà¤°à¥Īà¤ķ": 5169,
      "à¥įà¤°à¤ªà¤¾à¤¨": 5170,
      "à¤¦à¥įà¤¦": 5171,
      "Ġà¤¨à¤¿à¤ªà¤Łà¤¨à¥ĩ": 5172,
      "Ġà¤ħà¤Ĥà¤¶": 5173,
      "Ġà¤Ĺà¤Īà¤Ĥ": 5174,
      "à¥įà¤Ńà¥ģà¤¤": 5175,
      "Ġà¤ħà¤¦à¥įà¤¯à¤¤à¤¨": 5176,
      "Ġà¤ķà¤¿à¤®à¥Ģ": 5177,
      "Ġà¤¤à¤°à¤Ĥà¤Ĺ": 5178,
      "à¤¬à¤Ĥà¤§à¤¨": 5179,
      "Ġà¤¸à¥įà¤ķà¥įà¤°à¥Ģà¤¨": 5180,
      "put": 5181,
      "à¤ķà¥įà¤ĸ": 5182,
      "Ġà¤¹à¤¾à¤īà¤¸": 5183,
      "à¤°à¥Ģà¤ķà¥įà¤·à¤£": 5184,
      "à¤ĺà¤°": 5185,
      "Ġà¤µà¥ĩà¤²": 5186,
      "à¤¿à¤¡à¤¾": 5187,
      "à¤Ĺà¤£à¤¨à¤¾": 5188,
      "à¤¨à¥įà¤¸": 5189,
      "Ġà¤®à¥ĩà¤¹": 5190,
      "à¤Ĺà¤¾à¤¹": 5191,
      "amil": 5192,
      "Ġà¤¦à¥Įà¤°à¤¾": 5193,
      "à¤°à¥įà¤¦à¥ĩ": 5194,
      "Ġà¤¢à¤¾à¤Ĥà¤ļ": 5195,
      "Ġà¤¶à¥Į": 5196,
      "Ġà¤¶à¥įà¤°à¤®": 5197,
      "Ġà¤ªà¥Ĥà¤°à¤ķ": 5198,
      "Ġà¤¨à¤®à¥Ĥà¤¨à¥ĩ": 5199,
      "Ġà¤°à¤ļà¤¨à¤¾à¤¤à¥įà¤®à¤ķ": 5200,
      "(à¤ıà¤¨": 5201,
      "Ġà¤ħà¤¨à¤¿à¤µà¤¾à¤°à¥įà¤¯": 5202,
      "Ġà¤ªà¥įà¤°à¤ļà¤¾à¤°": 5203,
      "à¥ĭà¤²à¥įà¤Ł": 5204,
      "Ġà¤ķà¥įà¤°à¥īà¤¸": 5205,
      "Ġà¤īà¤¤à¥įà¤¤à¥ĩà¤ľ": 5206,
      "Ġatt": 5207,
      "Ġà¤ªà¤¸à¤Ĥà¤¦à¥Ģà¤¦à¤¾": 5208,
      "ted": 5209,
      "Ġà¤Ĺà¥įà¤°à¥Ģ": 5210,
      "Ġà¤¸à¤¹à¤®à¤¤": 5211,
      "ely": 5212,
      "Ġà¤ļà¤¾à¤°à¥įà¤²": 5213,
      "Ġà¤Łà¥ģà¤ķà¤¡à¤¼à¥ĭà¤Ĥ": 5214,
      "Ġà¤ħà¤¨à¥ģà¤°à¥ĭà¤§": 5215,
      "Ġà¤¨à¤µà¥Ģà¤¨à¤¤à¤®": 5216,
      "-à¤Ł": 5217,
      "à¤ļà¤¾à¤¨à¤ķ": 5218,
      "Ġà¤ĺà¤¾à¤¯à¤²": 5219,
      "à¤°à¤¦": 5220,
      "Ġà¤®à¤¾à¤¹": 5221,
      "Ġà¤ħà¤Ńà¤¿à¤²à¥ĩà¤ĸ": 5222,
      "Ġà¤¸à¥įà¤ķà¥Īà¤¨": 5223,
      "-à¤ĩ": 5224,
      "name": 5225,
      "à¤¾à¤ĩà¤ľ": 5226,
      "Ġà¤ħà¤¦à¥įà¤µà¤¿à¤¤à¥Ģà¤¯": 5227,
      "ax": 5228,
      "Ġà¤ªà¥Ģà¤¨à¥ĩ": 5229,
      "Ġà¤īà¤ľà¤¾à¤Ĺà¤°": 5230,
      "ove": 5231,
      "Ġà¤¨à¤¦": 5232,
      "oint": 5233,
      "ps": 5234,
      "Ġà¤ħà¤¶": 5235,
      "Ġà¤¨à¤¿à¤¹à¤¿à¤¤": 5236,
      "Ġà¤¡à¤¿à¤¸à¥įà¤ķ": 5237,
      "Ġà¤²à¤Ĺà¤¾à¤ı": 5238,
      "Ġà¤ıà¤¸à¥ĭà¤¸à¤¿à¤ı": 5239,
      "Ġdist": 5240,
      "Ġà¤¦à¥ĥà¤¢à¤¼": 5241,
      "Ġà¤°à¥ĭà¤¶à¤¨à¥Ģ": 5242,
      "Ġà¤Ĺà¥ĩà¤®": 5243,
      "Ġà¤¦à¥ĩà¤°": 5244,
      "Ġà¤ķà¥įà¤°à¤¿à¤¯à¤¾": 5245,
      "Ġà¤¬à¤ľà¤Ł": 5246,
      "Ġà¤µà¤¿à¤§à¤¾à¤¯à¤ķ": 5247,
      "Ġà¤¦à¤°à¤µ": 5248,
      "Ġà¤ķà¤¿à¤¤à¤¨à¥ĩ": 5249,
      "à¤ķà¤¾à¤¶": 5250,
      "Ġà¤Ĩà¤¤à¤Ĥà¤ķ": 5251,
      "Ġà¤¨à¤¿à¤µà¤¾à¤¸à¤¿à¤¯à¥ĭà¤Ĥ": 5252,
      "à¤¨à¤¾à¤ĵà¤Ĥ": 5253,
      "à¤¾à¤¦à¥ĩà¤¶": 5254,
      "Ġà¤ªà¤¾à¤°à¤¿à¤µà¤¾à¤°à¤¿à¤ķ": 5255,
      "Ġà¤°à¥ĩà¤Ł": 5256,
      "Ġà¤Ĺà¤µ": 5257,
      "Ġà¤¸à¤¿à¤Ĥà¤¡à¥įà¤°à¥ĭà¤®": 5258,
      "à¤Łà¤²à¤¾à¤Ĥà¤Ł": 5259,
      "à¤¿à¤°à¥Ģ": 5260,
      "Ġà¤¬à¤Ĥà¤¦à¤°": 5261,
      "Ġà¤²à¥ī": 5262,
      "Ġà¤¸à¤Ĥà¤Ńà¤¾à¤²": 5263,
      "Ġà¤¸à¥įà¤¤à¤Ĥà¤Ń": 5264,
      "Ġà¤Ĺà¥ĭà¤²à¥Ģ": 5265,
      "Ġà¤¬à¥ģà¤§à¤µà¤¾à¤°": 5266,
      "à¥ģà¤ıà¤ģ": 5267,
      "2020": 5268,
      "Ġà¤¬à¤¢à¤¼à¤¤à¤¾": 5269,
      "Ġà¤ħà¤¦à¥įà¤Ńà¥ģà¤¤": 5270,
      "Ġà¤¹à¤²à¥įà¤ķà¥ĩ": 5271,
      "Ġà¤ħà¤ķà¥ĩà¤²à¥ĩ": 5272,
      "Ġà¤¹à¤¥à¤¿à¤¯": 5273,
      "Ġà¤²à¤¿à¤ĸà¤¿à¤¤": 5274,
      "ition": 5275,
      "à¤ķà¥įà¤°à¤®à¤£": 5276,
      "Ġà¤¡à¤¾à¤²à¤¾": 5277,
      "Ġà¤Ńà¤¾à¤·à¤£": 5278,
      "Ġà¤Ľà¤µà¤¿à¤¯à¥ĭà¤Ĥ": 5279,
      "à¥Ĥà¤Ĥà¤ķà¤¿": 5280,
      "Ġà¤°à¥ĭà¤¬à¥ĭà¤Ł": 5281,
      ").": 5282,
      "Ġà¤ħà¤ªà¤¶à¤¿à¤·à¥įà¤Ł": 5283,
      "Ġà¤¯à¤¾à¤¨": 5284,
      "Ġà¤Łà¥įà¤µà¥Ģà¤Ł": 5285,
      "Ġà¤¦à¥įà¤µà¤¾à¤°": 5286,
      "Ġà¤ļà¥ģà¤Ĥà¤¬": 5287,
      "Ġà¤¹à¤¿à¤Ĥà¤¸à¤¾": 5288,
      "à¥įà¤°à¥ĭà¤²": 5289,
      "Ġà¤ħà¤¨à¤¾à¤ľ": 5290,
      "2003": 5291,
      "Ġfilm": 5292,
      "Ġà¤¬à¥įà¤°à¤¹à¥įà¤®à¤¾à¤Ĥà¤¡": 5293,
      "ced": 5294,
      "à¤¤à¤¿à¤¤": 5295,
      "à¤µà¤¾à¤Ĥ": 5296,
      "à¤¡à¤¾": 5297,
      "Ġà¤¨à¤¿à¤Ĺà¤®": 5298,
      "Ġà¤¸à¤®à¥įà¤®à¤¾à¤¨à¤¿à¤¤": 5299,
      "Ġà¤Ĺà¤¾à¤¯à¤¬": 5300,
      "à¤·à¥įà¤£": 5301,
      "à¥Ĥà¤¸à¤°à¥ĩ": 5302,
      "Ġà¤°à¤£à¤¨à¥Ģà¤¤à¤¿": 5303,
      "Ġà¤§à¥Ĥà¤®à¥įà¤°à¤ªà¤¾à¤¨": 5304,
      "Ġà¤°à¥īà¤¬à¤°à¥įà¤Ł": 5305,
      "à¥ĭà¤²à¥Ģ": 5306,
      "Ġà¤¸à¥ģà¤ĸ": 5307,
      "à¤µà¤£": 5308,
      "Ġà¤ļà¥Īà¤¨": 5309,
      "Ġà¤ľà¤¨à¤°à¤²": 5310,
      "à¤ªà¥ģà¤Łà¤ĥ": 5311,
      "Ġà¤®à¥ģà¤«à¥įà¤¤": 5312,
      "Ġà¤µà¤°à¥įà¤Ĺà¥Ģà¤ķà¥ĥà¤¤": 5313,
      "Ġà¤¦à¥ĭà¤¸à¥įà¤¤à¥ĭà¤Ĥ": 5314,
      "Ġà¤¸à¥įà¤ªà¥ĩà¤¨à¤¿à¤¶": 5315,
      "Ġà¤ħà¤ļà¤¾à¤¨à¤ķ": 5316,
      "Ġour": 5317,
      "ĠCon": 5318,
      "Ġà¤¹à¤¾à¤¥à¥ĭà¤Ĥ": 5319,
      "Ġà¤Ńà¤Ĥà¤¡à¤¾à¤°à¤£": 5320,
      "Ġà¤ªà¤°à¤¿à¤µà¤°à¥įà¤¤à¤¨à¥ĭà¤Ĥ": 5321,
      "Ġà¤¨à¤¿à¤ķà¤²à¤¨à¥ĩ": 5322,
      "velop": 5323,
      "ital": 5324,
      "Ġà¤ªà¤°à¥Ģà¤ķà¥įà¤·à¤£à¥ĭà¤Ĥ": 5325,
      "Ġà¤¯à¥Įà¤Ĺ": 5326,
      "Ġà¤®à¤Ĥà¤Ĺà¤²à¤µà¤¾à¤°": 5327,
      "Ġà¤ķà¤¾à¤Ĺà¤ľ": 5328,
      "Ġà¤ªà¥įà¤°à¥ĩ": 5329,
      "Ġà¤Ĩà¤¹": 5330,
      "Ġà¤«à¥Ĥà¤²à¥ĭà¤Ĥ": 5331,
      "Ġà¤¬à¥Įà¤¦à¥įà¤§": 5332,
      "(à¤¦": 5333,
      "Ġà¤¡à¥ĩà¤²": 5334,
      "Ġà¤¸à¤Ĥà¤ķà¥ĩà¤¤à¥ĭà¤Ĥ": 5335,
      "ife": 5336,
      "Ġà¤¨à¤°à¥įà¤¸": 5337,
      "Ġà¤Ĺà¤¿à¤¨": 5338,
      "Ġà¤ªà¥įà¤°à¤§à¤¾à¤¨à¤®à¤Ĥà¤¤à¥įà¤°à¥Ģ": 5339,
      "Ġà¤¶à¥ģà¤ķà¥įà¤°à¤µà¤¾à¤°": 5340,
      "Ġà¤ķà¤¶": 5341,
      "à¤°à¥įà¤·à¤£": 5342,
      "Ġà¤°à¤µà¤¿à¤µà¤¾à¤°": 5343,
      "Ġà¤¦à¥ĩà¤ĸà¥ĩ": 5344,
      "Ġà¤īà¤¦à¥įà¤¦à¥ĩà¤¶à¥įà¤¯à¥ĭà¤Ĥ": 5345,
      "à¤¾à¤¤à¥įà¤ķà¤¾à¤°": 5346,
      "ty": 5347,
      "Ġà¤ĩà¤Ĥà¤¤": 5348,
      "ĠAr": 5349,
      "ments": 5350,
      "Ġà¤ļà¥ģà¤ķà¤¾": 5351,
      "Ġprov": 5352,
      "Ġà¤¯à¥Ĥà¤¨à¤¿à¤µà¤°à¥įà¤¸": 5353,
      "Ġà¤¸à¤¿à¤®": 5354,
      "Ġà¤ĩà¤¨à¤ķà¤¾à¤°": 5355,
      "à¤ĺà¥ģ": 5356,
      "2001": 5357,
      "à¤°à¤¾à¤·à¥įà¤Łà¥įà¤°à¥Ģà¤¯": 5358,
      "à¥ģà¤®à¤¾à¤¨": 5359,
      "Ġà¤¶à¥ĩà¤·": 5360,
      "Ġà¤¸à¥įà¤ªà¥įà¤°": 5361,
      "/à¤ħà¤Ĥà¤¤à¤°": 5362,
      "à¤¨à¤«à¤²": 5363,
      "Ġà¤ķà¥Ģà¤®": 5364,
      "Ġà¤¦à¥ĩà¤Ĥà¤ĥ": 5365,
      "Ġà¤Ńà¤¾à¤·à¤¾à¤ĵà¤Ĥ": 5366,
      "à¤¿à¤ªà¥įà¤Ł": 5367,
      "Ġà¤²à¤¾à¤ĸà¥ĭà¤Ĥ": 5368,
      "à¤ľà¤µà¤¾à¤¬à¤ĥ": 5369,
      "Ġà¤ħà¤ķà¤¾à¤¦à¤®à¥Ģ": 5370,
      "Ġà¤ªà¤¾à¤¦": 5371,
      "Ġà¤ľà¥ĭà¤¡à¤¼à¥Ģ": 5372,
      "Ġmy": 5373,
      "Ġà¤ķà¥įà¤°à¤¿à¤¸": 5374,
      "à¤¾à¤ĩà¤Łà¤¿à¤¸": 5375,
      "Ġà¤¦à¤¸à¥įà¤¤à¤¾à¤µà¥ĩà¤ľà¤¼": 5376,
      "\"à¥¤": 5377,
      "Ġà¤®à¤¾à¤ĩà¤ķ": 5378,
      "à¤¬à¥Ĥ": 5379,
      "Ġà¤Ĺà¤¯à¥Ģ": 5380,
      "à¤¿à¤¬à¤Ĥà¤§à¥Ģà¤¯": 5381,
      "Ġà¤ļà¤°à¤®": 5382,
      "Ġà¤ħà¤¶à¥įà¤µà¥ĩà¤¤": 5383,
      "à¤Ĥà¤ķà¥ĭà¤Ĥ": 5384,
      "Ġà¤ªà¥ĭà¤·à¤ķ": 5385,
      "Ġà¤¤à¥ģ": 5386,
      "Ġà¤¸à¤Ĥà¤µà¤¿à¤§à¤¾à¤¨": 5387,
      "à¤ķà¥įà¤¤à¤¾à¤ĵà¤Ĥ": 5388,
      "Ġà¤ªà¥Ĥà¤ľà¤¾": 5389,
      "Ġà¤¶à¥Ģà¤°à¥įà¤·à¤ķà¤ĥ": 5390,
      "Ġà¤ªà¤¤à¥įà¤¤à¥ĩ": 5391,
      "à¤¾à¤ªà¥Ģ": 5392,
      "Ġà¤µà¤¾à¤£à¤¿à¤ľà¥įà¤¯à¤¿à¤ķ": 5393,
      "47": 5394,
      "Ġà¤Ľà¥ģà¤Ł": 5395,
      "Ġà¤¥à¥Ī": 5396,
      "ĠAn": 5397,
      "188": 5398,
      "Ġà¤¬à¤ļà¤ªà¤¨": 5399,
      "Ġà¤ªà¥įà¤°à¤ľà¤¾à¤¤à¤¿à¤¯à¤¾à¤ģ": 5400,
      "\"à¤ī": 5401,
      "Ġà¤ıà¤ķà¥Ģà¤ķà¥ĥà¤¤": 5402,
      "Ġà¤¹à¤¸à¥įà¤¤à¤¾à¤ķà¥įà¤·": 5403,
      "à¤ķà¤Łà¤¿à¤¬à¤Ĥà¤§à¥Ģà¤¯": 5404,
      "Ġà¤ķà¤£": 5405,
      "à¤Ĥà¤¸à¤¾": 5406,
      "There": 5407,
      "Ġà¤°à¤ķà¥įà¤¤à¤ļà¤¾à¤ª": 5408,
      "Ġà¤µà¤¿à¤Ńà¤¾à¤ľà¤¨": 5409,
      "à¥Ģà¤¶": 5410,
      "Ġà¤¸à¥Īà¤ķ": 5411,
      "Ġà¤¸à¥ĭà¤ļà¤¾": 5412,
      "Ġinclud": 5413,
      "Ġà¤¬à¥Ĥ": 5414,
      "Ġà¤¦à¤¾à¤µ": 5415,
      "à¥įà¤®à¥ĭà¤¨": 5416,
      "ĠCongress": 5417,
      "Ġà¤§à¤¨à¥įà¤¯à¤µà¤¾à¤¦": 5418,
      "Ġà¤Ńà¤¾à¤µà¤¨à¤¾à¤¤à¥įà¤®à¤ķ": 5419,
      "val": 5420,
      "Ġà¤ħà¤ľà¥įà¤ŀà¤¾à¤¤": 5421,
      "à¤¾à¤¨à¥įà¤µ": 5422,
      "à¤ļà¥įà¤ļà¥ĩ": 5423,
      "à¤°à¥įà¤¨à¤°": 5424,
      "Ġà¤ªà¤¾à¤²à¤¤à¥Ĥ": 5425,
      "Ġinto": 5426,
      "à¤¾à¤¸à¤Ĥà¤Ĺà¤¿à¤ķ": 5427,
      "à¤¾à¤ĩà¤¸": 5428,
      "Ġmat": 5429,
      "Ġà¤¤à¥Ģà¤¸à¤°à¥ĩ": 5430,
      "Ġoffic": 5431,
      "Ġà¤ħà¤Ńà¤¿à¤µà¥įà¤¯à¤ķà¥įà¤¤à¤¿": 5432,
      "Ġà¤ħà¤°à¥įà¤ľ": 5433,
      "Ġà¤¸à¤®à¤¾à¤°à¥ĭà¤¹": 5434,
      "à¥įà¤ķà¥ģà¤²": 5435,
      "à¥ĩà¤·à¥įà¤ł": 5436,
      "Ġà¤¸à¤Ĥà¤µà¥ĩà¤¦": 5437,
      "Ġà¤¤à¤¸à¥įà¤µà¥Ģà¤°à¥ĩà¤Ĥ": 5438,
      "Ġà¤¦à¥Įà¤°à¥ĩ": 5439,
      "Ġà¤¸à¥Ĥà¤ĸà¥ĩ": 5440,
      "à¤µà¤¿à¤ķà¤²à¥įà¤ªà¤ĥ": 5441,
      "Ġà¤ķà¤°à¤¾à¤¯à¤¾": 5442,
      "Ġà¤Ĩà¤µà¥ĩà¤¦à¤¨": 5443,
      "Ġà¤ªà¤¾à¤°à¤¿à¤¤": 5444,
      "2002": 5445,
      "Ġà¤°à¤¾à¤ľà¤¨à¥Ģà¤¤à¤¿": 5446,
      "Ġà¤Ĺà¤°à¥įà¤Ńà¤¾à¤µà¤¸à¥įà¤¥à¤¾": 5447,
      "/à¤Ĺà¥ģà¤£": 5448,
      "à¤²à¤¾à¤Ĥà¤Ĺ": 5449,
      "Ġà¤«à¥ĩà¤«": 5450,
      "Ġà¤µà¤°à¥įà¤·à¥Ģà¤¯": 5451,
      "Ġà¤µà¤¨à¤¸à¥įà¤ª": 5452,
      "Ġà¤¸à¤®à¤°à¥įà¤ªà¤¿à¤¤": 5453,
      "/à¤Ĺà¥ģà¤£à¤¨à¤«à¤²": 5454,
      "(à¤¡": 5455,
      "Ġact": 5456,
      "Ġà¤ķà¤®à¥įà¤ª": 5457,
      "arn": 5458,
      "à¤¾à¤īà¤¡": 5459,
      "à¥Ĥà¤¨à¥įà¤¯": 5460,
      "Ġà¤ªà¤¥": 5461,
      "à¥įà¤¯à¤¾à¤£": 5462,
      "à¤ľà¤¬": 5463,
      "Ġà¤¸à¤¾à¤§à¤¨": 5464,
      "à¤Ĳ": 5465,
      "à¤¨à¥ĩà¤¸": 5466,
      "à¤¿à¤¨à¥įà¤¸": 5467,
      "à¤¾à¤¯à¥ĭà¤ľà¤¿à¤¤": 5468,
      "à¤¾à¤Łà¤°": 5469,
      "Ġlik": 5470,
      "Ġà¤¹à¤¾à¤°à¥įà¤¡": 5471,
      "Ġà¤®à¥ĭà¤Łà¤¾à¤ª": 5472,
      "à¤¾à¤Ĭà¤ģ": 5473,
      "Ġà¤ĩà¤ļà¥įà¤Ľà¤¾": 5474,
      "à¤¶à¤¾à¤²à¥Ģ": 5475,
      "Ġà¤ªà¥įà¤°à¤ķà¤Ł": 5476,
      "Ġà¤¸à¤®à¥Ģà¤ķà¤°à¤£": 5477,
      "Ġà¤ĺà¤¾à¤¤à¤ķ": 5478,
      "Ġem": 5479,
      "Ġà¤¸à¤Ĥà¤¸à¥įà¤ķà¥ĥà¤¤": 5480,
      "à¤§à¤¾à¤°à¥Ģ": 5481,
      "Ġà¤¸à¥ĩà¤ķà¤Ĥà¤¡": 5482,
      "Ġà¤ªà¤¤à¤¿": 5483,
      "Ġà¤Ńà¥ĩà¤¦": 5484,
      "à¤¾à¤ľà¥ĩ": 5485,
      "Ġà¤ľà¥Ģà¤µà¥ĭà¤Ĥ": 5486,
      "à¥ģà¤·à¥įà¤ķ": 5487,
      "Ġà¤²à¥ĩà¤ĸà¤ķà¥ĭà¤Ĥ": 5488,
      "Ġwhen": 5489,
      "Ġà¤ķà¤Łà¤¾à¤Ī": 5490,
      "Ġà¤ħà¤ķà¥įà¤·à¤°": 5491,
      "Ġà¤ľà¤°à¥Ĥà¤°à¤¤": 5492,
      "à¥ĭà¤Ĥà¤Ĺ": 5493,
      "Ġexp": 5494,
      "Ġà¤¸à¥Įà¤Ĥà¤ª": 5495,
      "Ġà¤¶à¤°à¥įà¤®à¤¾": 5496,
      "97": 5497,
      "ral": 5498,
      "à¥Īà¤Ĺ": 5499,
      "à¤ªà¤¤à¥įà¤°": 5500,
      "Ġà¤²à¥Īà¤Łà¤¿à¤¨": 5501,
      "Ġthen": 5502,
      "Ġà¤ħà¤Ĥà¤¤à¤°à¥įà¤¨": 5503,
      "Ġà¤ľà¤¨à¤ľà¤¾à¤¤": 5504,
      "Ġbeing": 5505,
      "Ġà¤¸à¥įà¤®à¤¾à¤°à¥įà¤Ł": 5506,
      "Ġà¤Ńà¤¾à¤µà¤¨à¤¾à¤ĵà¤Ĥ": 5507,
      "64": 5508,
      "Ġà¤ķà¤¿à¤Ĥà¤Ĺ": 5509,
      "à¤¿à¤¯à¤¾à¤¨à¤¾": 5510,
      "Ġà¤°à¥Ĥà¤¸": 5511,
      "Ġà¤°à¥Ĥà¤ªà¥ĭà¤Ĥ": 5512,
      "Ġà¤¸à¤Ĥà¤Ĺà¤łà¤¨à¥ĭà¤Ĥ": 5513,
      "aus": 5514,
      "ting": 5515,
      "Ġà¤ªà¥įà¤°à¤¤à¤¿à¤¦": 5516,
      "à¤¾à¤īà¤Ĥà¤Ł": 5517,
      "Ġà¤«à¥ĭà¤Łà¥ĭ": 5518,
      "Ġà¤®à¤Ĥà¤¤à¥įà¤°à¤¾à¤²à¤¯": 5519,
      "ook": 5520,
      "ward": 5521,
      "à¥ĭà¤Ī": 5522,
      "Ġà¤¸à¤¿à¤Ĺ": 5523,
      "Ġà¤¬à¥īà¤ķà¥įà¤¸": 5524,
      "Ġà¤¶à¤¾à¤¹à¥Ģ": 5525,
      "Ġà¤®à¤§à¥ģà¤®à¤ķà¥įà¤ĸ": 5526,
      "Ġà¤ħà¤®à¥ĩà¤°à¤¿à¤ķà¤¨": 5527,
      "Ġà¤ĸà¤¨à¤¿à¤ľ": 5528,
      "ged": 5529,
      "à¤²à¤¿à¤¯à¥ĭà¤Ĥ": 5530,
      "Ġà¤®à¤¿à¤¸à¥įà¤°": 5531,
      "Ġà¤ªà¤°à¥įà¤µà¤¤": 5532,
      "à¤¸à¥įà¤Łà¤°": 5533,
      "Ġà¤ªà¥įà¤°à¤¾à¤Ĥà¤¤": 5534,
      "Ġà¤Łà¤ķà¤°": 5535,
      "à¥ģà¤¦à¤¾à¤¯à¤¿à¤ķ": 5536,
      "Ġà¤¨à¥Ģà¤Ĥà¤¦": 5537,
      "Ġà¤ªà¥ģà¤°à¤¾à¤¤": 5538,
      "Ġà¤ªà¥įà¤°à¤¸à¤Ĥà¤¸à¥įà¤ķ": 5539,
      "Ġà¤®à¥ĩà¤¡à¤¿à¤ķà¤²": 5540,
      "Ġà¤ļà¤¿à¤¹à¥įà¤¨à¤¿à¤¤": 5541,
      "Ġà¤ªà¤¹à¤¾à¤¡à¤¼à¥Ģ": 5542,
      "Ġà¤ļà¥ģà¤ķà¥Ģ": 5543,
      "1990": 5544,
      "Ġà¤§à¤¾à¤°à¤£à¤¾": 5545,
      "Ġà¤¸à¤®à¤¨à¥įà¤µà¤¯": 5546,
      "man": 5547,
      "à¤¹à¤¸": 5548,
      "Ġà¤¤à¤¿à¤¥à¤¿": 5549,
      "Ġà¤¹à¥ĭà¤²": 5550,
      "Ġget": 5551,
      "Ġà¤ħà¤µà¤¶à¥ĩà¤·": 5552,
      "Ġà¤¨à¤¿à¤¶à¤¾à¤¨": 5553,
      "à¥ħ": 5554,
      "à¥įà¤¯à¤¾à¤¤": 5555,
      "Ġà¤¦à¤¾à¤¨": 5556,
      "Ġà¤ĩà¤¨à¥įà¤¹à¥ĩà¤Ĥ": 5557,
      "Ġass": 5558,
      "Ġà¤¨à¤¿à¤°à¤¾à¤¶": 5559,
      "Ġà¤¨à¥įà¤¯à¤¾à¤¯à¤¾à¤²à¤¯": 5560,
      "Ġà¤Ĺà¤¾à¤Ĥà¤§à¥Ģ": 5561,
      "Ġà¤¸à¥įà¤µà¤¾à¤Ĺà¤¤": 5562,
      "Ġà¤ªà¥įà¤°à¤¤à¥įà¤¯à¤ķà¥įà¤·": 5563,
      "Ġà¤ķà¤°à¤¿à¤¯à¤°": 5564,
      "Ġà¤īà¤ªà¤ľ": 5565,
      "Ġà¤¸à¤¾à¤Ĥà¤ĸ": 5566,
      "Ġà¤ķà¥ģà¤Ĥà¤ľà¥Ģ": 5567,
      "Ġà¤¸à¤¾à¤µà¤§à¤¾à¤¨à¥Ģ": 5568,
      "he": 5569,
      "Ġà¤¹à¤¿à¤¤": 5570,
      "Ġà¤¬à¤¤à¤¾à¤¨à¤¾": 5571,
      "Ġlast": 5572,
      "Ġà¤ĩà¤²à¥ĩà¤ķà¥įà¤Łà¥įà¤°à¥īà¤¨à¤¿à¤ķ": 5573,
      "Ġà¤Ńà¥ĩà¤¡à¤¼": 5574,
      "à¥īà¤°à¥įà¤Ł": 5575,
      "akistan": 5576,
      "ĠModi": 5577,
      "à¤¾à¤¦à¥įà¤µà¥Ģà¤ª": 5578,
      "Ġà¤ĸà¤¡à¤¼à¥ĩ": 5579,
      "Ġà¤¸à¤Ĥà¤¤à¥ģà¤²à¤¨": 5580,
      "Ġà¤ªà¥įà¤°à¤¤à¤¿à¤¨à¤¿à¤§à¤¿": 5581,
      "Ġà¤¶à¤¿à¤ķà¤¾à¤¯à¤¤": 5582,
      "à¤ªà¥įà¤²": 5583,
      "Ġà¤Łà¤¨": 5584,
      "Ġà¤²à¤¿à¤ĸà¤¨à¥ĩ": 5585,
      "Ġà¤ķà¤²à¥įà¤¯à¤¾à¤£": 5586,
      "à¥ľà¥Ģ": 5587,
      "Ġà¤¹à¤¿à¤¨à¥įà¤¦à¥Ģ": 5588,
      "Ġà¤ªà¥Ģà¤¢à¤¼à¥Ģ": 5589,
      "Ġà¤ħà¤Ĥà¤¤à¤°à¥įà¤¨à¤¿à¤¹à¤¿à¤¤": 5590,
      "Ġà¤¶à¤¾à¤¸": 5591,
      "Ġà¤ªà¥Ģà¤²à¥ĩ": 5592,
      "Ġà¤¸à¥Ģà¤®à¤¾à¤ĵà¤Ĥ": 5593,
      "Ġà¤ļà¥Ĥà¤Ĥà¤ķà¤¿": 5594,
      "à¤¾à¤µà¤²": 5595,
      "Ġà¤Ĩà¤µà¤¾à¤ľà¤¼": 5596,
      "Ġà¤µà¤¿à¤¦à¥ĩà¤¶": 5597,
      "Ġà¤Ĩà¤ķà¤²à¤¨": 5598,
      "Ġà¤¬à¤¿à¤²à¥įà¤ķà¥ģà¤²": 5599,
      "Ġà¤¨à¤®à¥Ĥà¤¨à¤¾": 5600,
      "ures": 5601,
      "Ġà¤Ĺà¤¿à¤²": 5602,
      "à¥ĩà¤Łà¤°": 5603,
      "Ġà¤ľà¤¨à¤Ĺà¤£à¤¨à¤¾": 5604,
      "Ġà¤¸à¤¹à¤¯à¥ĭà¤Ĺà¤¿à¤¯à¥ĭà¤Ĥ": 5605,
      "Ġà¤Ńà¥Įà¤¤à¤¿à¤ķà¥Ģ": 5606,
      "-à¤°à¥ĩ": 5607,
      "à¤®à¥ĩ": 5608,
      "42": 5609,
      "à¤£à¤¾à¤ĵà¤Ĥ": 5610,
      "Ġà¤ľà¤¿à¤¨à¤ķà¥Ģ": 5611,
      "à¤¾à¤Łà¤¾": 5612,
      "ĠĠĠĠĠĠĠĠĠĠĠĠĠĠĠĠ": 5613,
      "Ġà¤®à¥ģà¤¤": 5614,
      "Ġà¤¨à¤¾à¤ķ": 5615,
      "Ġà¤ķà¤°à¤¾à¤¨à¥ĩ": 5616,
      "à¤¿à¤¶à¥įà¤¤": 5617,
      "arch": 5618,
      "Ġhigh": 5619,
      "à¤ĺà¤¾à¤¤": 5620,
      "Ġà¤¯à¤¾à¤¦à¤µ": 5621,
      "Ġà¤¸à¤Ń": 5622,
      "Ġperson": 5623,
      "Ġà¤ķà¥īà¤ªà¥Ģ": 5624,
      "à¥Īà¤¯à¤¾": 5625,
      "à¤Ĥà¤¬à¤Ī": 5626,
      "Ġà¤ħà¤ľ": 5627,
      "dic": 5628,
      "Ġà¤ªà¥įà¤°à¤¤à¤¿à¤¸à¥įà¤¥": 5629,
      "Ġà¤Ńà¥Ĥà¤°à¥ĩ": 5630,
      "(à¤Ķà¤°": 5631,
      "à¥ĭà¤µà¤¾": 5632,
      "Ġà¤®à¥ģà¤²": 5633,
      "Ġà¤ªà¥įà¤°à¤µà¥ĥà¤¤à¥įà¤¤à¤¿": 5634,
      "Ġà¤Ĺà¥ģà¤£à¥ĭà¤Ĥ": 5635,
      "St": 5636,
      "Ġà¤¸à¤¦à¥Ģ": 5637,
      "à¥ĭà¤¨à¤¿à¤¯à¤¾": 5638,
      "Ġsub": 5639,
      "Ġà¤ľà¤¾à¤ªà¤¾à¤¨à¥Ģ": 5640,
      "Ġà¤Ńà¤Ĥà¤¡à¤¾à¤°": 5641,
      "à¤°à¥ĩà¤ĸà¤¾": 5642,
      "à¥ĭà¤¸à¤¾": 5643,
      "à¥įà¤°à¥ģà¤µ": 5644,
      "Ġà¤Ĩà¤ķà¥įà¤°à¤¾à¤®à¤ķ": 5645,
      "Ġà¤¸à¤¾à¤ĩà¤ķ": 5646,
      "Ġà¤¨à¤¾à¤µ": 5647,
      "à¤Ĥà¤¤à¥įà¤°à¤¿à¤¤": 5648,
      "Ġà¤¤à¥Īà¤°": 5649,
      "âĢįà¤¯": 5650,
      "Ġà¤ķà¤¬à¥įà¤ľà¤¾": 5651,
      "\"à¤²": 5652,
      "les": 5653,
      "Ġà¤¸à¤¾à¤®à¥ģà¤¦à¤¾à¤¯à¤¿à¤ķ": 5654,
      "Ġà¤łà¤¹à¤°": 5655,
      "Ġà¤īà¤ªà¤¨à¥įà¤¯à¤¾à¤¸": 5656,
      "Ġà¤°à¤¾à¤¹à¤¤": 5657,
      "à¤¨à¤¿à¤µà¤¾à¤°": 5658,
      "Ġà¤ķà¥ĭà¤²à¥ĩ": 5659,
      "à¤§à¤°": 5660,
      "à¤«à¥Ģ": 5661,
      "Ġà¤Ĳà¤ª": 5662,
      "Ġà¤ķà¥įà¤°à¤¾à¤Ĥà¤¤à¤¿": 5663,
      "Ġà¤µà¤¿à¤¶à¥įà¤µà¤¸à¤¨à¥Ģà¤¯": 5664,
      "Ġà¤®à¥Ĥà¤²à¥įà¤¯à¥ĭà¤Ĥ": 5665,
      "fore": 5666,
      "à¤®à¤¿à¤²": 5667,
      "à¤¾à¤¨à¥įà¤¤": 5668,
      "Ġà¤ķà¥ģà¤®à¤¾à¤Ĭà¤ģ": 5669,
      "eg": 5670,
      "à¥Īà¤§": 5671,
      "à¥įà¤¯à¥Ĥà¤²": 5672,
      "à¤µà¤¾à¤¸": 5673,
      "Ġà¤µà¤¿à¤Ĥà¤¡": 5674,
      "Ġà¤ĺà¥ĭà¤·à¤¿à¤¤": 5675,
      "ars": 5676,
      "Ġà¤ıà¤²à¥įà¤¬": 5677,
      "Ġgo": 5678,
      "Ġresp": 5679,
      "Ġà¤ªà¤Ĥà¤ľà¤¾à¤¬": 5680,
      "(à¤Ĺ": 5681,
      "à¥ĭà¤ªà¤£": 5682,
      "Ġà¤Ĺà¤£à¤°à¤¾à¤ľà¥įà¤¯": 5683,
      "\"à¤®à¥Īà¤Ĥ": 5684,
      "rict": 5685,
      "Ġà¤¬à¤¿à¤Ĺ": 5686,
      "Ġà¤Ĺà¤°": 5687,
      "Ġà¤ªà¥ģà¤°à¤¾à¤¨à¤¾": 5688,
      "à¤¿à¤ķà¤¾à¤°à¤ķ": 5689,
      "à¤Ĥà¤Ńà¤µ": 5690,
      "Ġà¤ĸà¥ģà¤°à¤¾à¤ķ": 5691,
      "à¤¸à¥įà¤°": 5692,
      "Ġà¤ľà¤°à¥įà¤¨à¤²": 5693,
      "Ġà¤²à¤¿à¤®": 5694,
      "à¤¬à¤¾à¤°": 5695,
      "Ġà¤ĸà¤¿à¤¡à¤¼": 5696,
      "à¤°à¥ĩà¤¨": 5697,
      "Ġà¤Ĩà¤µà¥ĥà¤¤à¥įà¤¤à¤¿": 5698,
      "Ġà¤Ĩà¤¶à¥įà¤ļà¤°à¥įà¤¯à¤ľà¤¨à¤ķ": 5699,
      "à¥ĩà¤¥": 5700,
      "Ġà¤¶à¤¿à¤²": 5701,
      "Ġà¤ªà¥įà¤°à¤¦à¤°à¥įà¤¶à¤¨à¥Ģ": 5702,
      "Ġà¤¢à¥Ĥà¤Ĥ": 5703,
      "Ġà¤¦à¥ģà¤°à¥įà¤Ń": 5704,
      "Ġà¤µà¤¿à¤°à¥ĭà¤§à¥Ģ": 5705,
      "à¤Ńà¤¾à¤°à¤¤à¥Ģà¤¯": 5706,
      "Ġà¤ĸà¥ģà¤¶à¥Ģ": 5707,
      "ft": 5708,
      "inist": 5709,
      "à¤¾à¤ªà¤ķ": 5710,
      "Ġà¤¸à¥įà¤¥à¤²à¥ĭà¤Ĥ": 5711,
      "à¥īà¤¨à¥įà¤¸": 5712,
      "Ġcons": 5713,
      "Ġcomm": 5714,
      "Ġà¤¸à¤¾à¤ķà¥įà¤·à¥įà¤¯": 5715,
      "Ġà¤ªà¥įà¤°à¥ĩà¤°à¤£": 5716,
      "Ġà¤®à¥ģà¤¤à¤¾à¤¬": 5717,
      "44": 5718,
      "à¤Ĥà¤Ĺà¥įà¤°": 5719,
      "150": 5720,
      "à¤¦à¤¾à¤¹à¤°à¤£": 5721,
      "ana": 5722,
      "Ġà¤Ĺà¥Ĥà¤Ĺà¤²": 5723,
      "à¤¨à¥įà¤¯": 5724,
      "à¤µà¤ķ": 5725,
      "Ġà¤Łà¥Ģà¤µà¥Ģ": 5726,
      "Ġà¤®à¥Įà¤ĸà¤¿à¤ķ": 5727,
      "emb": 5728,
      "Ġà¤¨à¤¿à¤°à¥įà¤¦à¤¿à¤·à¥įà¤Ł": 5729,
      "Ġshould": 5730,
      "Ġà¤§à¥Ĥà¤²": 5731,
      "Ġà¤¹à¤µ": 5732,
      "Ġà¤®à¤°à¥Ģ": 5733,
      "Ġà¤ªà¥Īà¤°à¥ĭà¤Ĥ": 5734,
      "Ġà¤¬à¥Īà¤Ĥà¤¡": 5735,
      "(à¤Ĩà¤Ī": 5736,
      "Ġà¤ħà¤Łà¤²à¤¾à¤Ĥà¤Ł": 5737,
      "à¤¯à¥ģà¤¦à¥įà¤§": 5738,
      "Ġà¤°à¥ĩà¤Ĺ": 5739,
      "Ġà¤ıà¤Ĥà¤¡à¥įà¤°": 5740,
      "Ġà¤µà¤°à¥įà¤ľà¤¿à¤¨à¤¿à¤¯à¤¾": 5741,
      "à¤¶à¥įà¤µà¤°": 5742,
      "Ġà¤Ĩà¤µà¤¾à¤ľ": 5743,
      "Ġà¤®à¤¾à¤°à¥įà¤Ĺà¤¦à¤°à¥įà¤¶à¤¨": 5744,
      "Ġmade": 5745,
      "Ġà¤łà¤Ĥà¤¡à¤¾": 5746,
      "Ġà¤¥à¥īà¤®à¤¸": 5747,
      "Ġà¤ħà¤ľà¥Ģ": 5748,
      "Ġà¤Ĩà¤°à¥įà¤¦": 5749,
      "à¤¿à¤¶à¥ĩà¤·": 5750,
      "à¥ĭà¤ľà¤¼": 5751,
      "Ġà¤Ńà¥Ĥà¤ĸ": 5752,
      "Ġà¤¶à¥įà¤°à¤®à¤¿à¤ķà¥ĭà¤Ĥ": 5753,
      "Ġà¤ķà¥ĩà¤¸": 5754,
      "à¥ĭà¤Ĺà¥ģ": 5755,
      "à¥įà¤®à¤¨": 5756,
      "umb": 5757,
      "pr": 5758,
      "Ġà¤«à¥įà¤°à¥Ģ": 5759,
      "Ġà¤«à¤¾à¤°à¥įà¤®": 5760,
      "Ġà¤¯à¥Ĥà¤¨à¤¿à¤µà¤°à¥įà¤¸à¤¿à¤Łà¥Ģ": 5761,
      "Ġà¤®à¥ģà¤¤à¤¾à¤¬à¤¿à¤ķ": 5762,
      "Ġà¤ľà¤¡à¤¼": 5763,
      "à¤¿à¤¸à¥Ģ": 5764,
      "Ġà¤ľà¥ĭà¤¡à¤¼à¥ĩ": 5765,
      "Ġà¤¨à¥įà¤¯à¥Ĥà¤°": 5766,
      "Ġà¤µà¤¾à¤ķà¥įà¤¯à¤¾à¤Ĥà¤¶": 5767,
      "à¤Ĺà¥ĭà¤²à¤¿à¤ķ": 5768,
      "Ġà¤¯à¤¾à¤¤à¥įà¤°à¥Ģ": 5769,
      "Ġà¤Ķà¤ªà¤ļà¤¾à¤°à¤¿à¤ķ": 5770,
      "Ġà¤¬à¤¾à¤§à¤¾": 5771,
      "Ġreturn": 5772,
      "Ġà¤µà¤°à¥įà¤Ĺà¥Ģà¤ķà¤°à¤£": 5773,
      "Ġà¤ħà¤¨à¥ģà¤ķà¥Ĥà¤²à¤¿à¤¤": 5774,
      "Ġà¤¢à¥Ĥà¤Ĥà¤¢": 5775,
      "TP": 5776,
      "Ġen": 5777,
      "à¥ĩà¤Ĥà¤Ĺ": 5778,
      "à¤¬à¥ģà¤ķ": 5779,
      "Ġà¤Ľà¥ĩà¤¦": 5780,
      "à¤Ĥà¤¡à¤°": 5781,
      "Ġà¤¹à¤¾à¤°à¥įà¤®à¥ĭà¤¨": 5782,
      "Ġà¤ľà¥įà¤µà¤¾à¤²": 5783,
      "à¤Ĺà¥įà¤¨": 5784,
      "Ġà¤¦à¤¾à¤¸": 5785,
      "à¤¬à¥ĩ": 5786,
      "à¤¾à¤Īà¤Ĥ": 5787,
      "46": 5788,
      "Ġà¤ķà¤¾à¤²à¥Ģ": 5789,
      "Ġà¤¦à¥ĩà¤ķà¤°": 5790,
      "à¤²à¥ĩà¤¸": 5791,
      "ĠHe": 5792,
      "reat": 5793,
      "ents": 5794,
      "Ġà¤¯à¥Ĥà¤¨à¤¾à¤¨à¥Ģ": 5795,
      "Ġà¤ĸà¤°à¥Ģà¤¦à¤¨à¥ĩ": 5796,
      "Ġà¤ļà¥ģà¤¨à¥Į": 5797,
      "\"à¤¶": 5798,
      "400": 5799,
      "tain": 5800,
      "Ġà¤ķà¤¨à¥ĩà¤ķ": 5801,
      "à¤¨à¤¾à¤¥": 5802,
      "Ġthan": 5803,
      "à¤µà¤¿à¤¦à¥ĭà¤Ĥ": 5804,
      "Ġà¤µà¤¿à¤¤à¤°à¤¿à¤¤": 5805,
      "Ġà¤¸à¥Īà¤ķà¤¡à¤¼à¥ĭà¤Ĥ": 5806,
      "Ġà¤ħà¤°à¥įà¤§": 5807,
      "Ġà¤¤à¥įà¤µà¤°": 5808,
      "à¤¾à¤®à¤¿à¤¤à¥įà¤µ": 5809,
      "Ġà¤ĺà¥ĭà¤Ĥà¤¸": 5810,
      "Ġà¤ļà¤¾à¤°à¥įà¤²à¥įà¤¸": 5811,
      "(à¤ıà¤ķ": 5812,
      "Ġà¤ªà¥įà¤°à¤¾à¤¸à¤Ĥà¤Ĺà¤¿à¤ķ": 5813,
      "à¤¶à¤¿à¤¯à¤¾": 5814,
      "ution": 5815,
      "-à¤¦à¥Ĥà¤¸à¤°à¥ĩ": 5816,
      "Ġà¤¶à¤¾à¤ĸà¤¾": 5817,
      "Ġà¤Ĩà¤µà¤¿à¤·à¥įà¤ķà¤¾à¤°": 5818,
      "Ġà¤ĩà¤Ł": 5819,
      "Ġtr": 5820,
      "Ġà¤ħà¤¨à¥ģà¤¦": 5821,
      "Ġà¤Ńà¤°à¤¨à¥ĩ": 5822,
      "Ġà¤ªà¤¿à¤Ľà¤²à¥Ģ": 5823,
      "Ġà¤¸à¤®à¥Ģà¤ķà¥įà¤·à¤¾à¤ĥ": 5824,
      "Ġà¤ıà¤¸à¥ĭà¤¸à¤¿à¤ıà¤¶à¤¨": 5825,
      "(à¤¹": 5826,
      "à¤°à¤¾à¤¨": 5827,
      "à¤¿à¤¸à¥ĩ": 5828,
      "Ġà¤Łà¥Ģà¤ķà¤¾": 5829,
      "Ġà¤ªà¥ģà¤¸à¥įà¤¤à¤ķà¥ĭà¤Ĥ": 5830,
      "ces": 5831,
      "à¥ģà¤Ĥà¤¡": 5832,
      "à¤¿à¤²à¥įà¤²à¥Ģ": 5833,
      "ati": 5834,
      "à¤¾à¤§à¥Ģà¤¶": 5835,
      "Ġà¤¨à¤¿à¤°à¥Ģà¤ķà¥įà¤·à¤£": 5836,
      "Ġà¤®à¤¿à¤²à¤¤à¥ĩ": 5837,
      "Ġà¤ªà¥Īà¤¸à¤¾": 5838,
      "Ġà¤¸à¥Ĥà¤ļà¤¿à¤¤": 5839,
      "Ġà¤¸à¥įà¤®à¤¿à¤¥": 5840,
      "Ġà¤¸à¥ģà¤µà¤¿à¤§à¤¾à¤ĵà¤Ĥ": 5841,
      "Ġà¤ķà¤¬à¥įà¤°": 5842,
      "Ġà¤²à¤¿à¤ª": 5843,
      "Ġà¤¤à¥ģà¤®": 5844,
      "à¥įà¤Łà¤¾": 5845,
      "à¤¾à¤§à¥įà¤¯": 5846,
      "Ġà¤®à¥ĩà¤ľà¤¬": 5847,
      "Ġà¤¸à¥ĩà¤Ĥà¤Łà¤°": 5848,
      "à¤°à¤¾à¤ĩà¤Ł": 5849,
      "Ġtak": 5850,
      "Ġà¤¶à¤¾à¤¹": 5851,
      "Ġà¤Ľà¥ĭà¤°": 5852,
      "Ġà¤ħà¤µà¥Īà¤§": 5853,
      "Ġà¤ªà¤¡à¤¼à¥ĭà¤¸": 5854,
      "Ġà¤¸à¥įà¤Łà¥įà¤°à¤¿à¤Ĥà¤Ĺ": 5855,
      "Ġà¤ľà¤¿à¤®à¥įà¤®à¥ĩà¤¦à¤¾à¤°à¥Ģ": 5856,
      "à¥ĥà¤·à¥įà¤Łà¤¿": 5857,
      "à¥īà¤ĩà¤¡": 5858,
      "Ġà¤¦à¤¿à¤®": 5859,
      "Ġà¤¶à¤¨à¤¿à¤µà¤¾à¤°": 5860,
      "à¤¤à¥įà¤°à¤¿à¤®": 5861,
      "à¥ĭà¤²à¤¾": 5862,
      "2018": 5863,
      "ublic": 5864,
      "Ġà¤Ĺà¤°à¥Ģà¤¬à¥Ģ": 5865,
      "Ġà¤Ĩà¤ªà¤¾à¤¤à¤ķà¤¾à¤²à¥Ģà¤¨": 5866,
      "Ġà¤¸à¤¾à¤ªà¥ĩà¤ķà¥įà¤·": 5867,
      "yst": 5868,
      "à¥ģà¤¡à¤¼": 5869,
      "Ġà¤²à¥ģà¤Ī": 5870,
      "Ġà¤Ĺà¤¾à¤ĩà¤¡": 5871,
      "Ġà¤ªà¥Ģà¤ıà¤ļ": 5872,
      "Ġà¤Ĺà¥ģà¤°à¥ģà¤µà¤¾à¤°": 5873,
      "Ġà¤¹à¥ĩà¤¨à¤°à¥Ģ": 5874,
      "Ġà¤ĩà¤Ĥà¤¤à¤ľà¤¾à¤°": 5875,
      "ci": 5876,
      "Ġà¤¦à¥ĭà¤Ĺà¥ģ": 5877,
      "Ġà¤¦à¥ĩà¤µà¥Ģ": 5878,
      "Ġà¤ķà¥Īà¤¨": 5879,
      "Ġà¤ªà¥Īà¤¨à¤²": 5880,
      "Ġà¤«à¥įà¤²à¥ĭà¤°à¤¿à¤¡à¤¾": 5881,
      "Ġà¤¸à¤Ĥà¤ľà¥įà¤ŀà¤¾à¤¨": 5882,
      "à¤·à¥įà¤£à¤ķà¤Łà¤¿à¤¬à¤Ĥà¤§à¥Ģà¤¯": 5883,
      "led": 5884,
      "à¤Łà¤¨à¤¾": 5885,
      "Ġsent": 5886,
      "Ġà¤¬à¤ļà¤¤": 5887,
      "Ġà¤¸à¤¾à¤°à¥Ģ": 5888,
      "Ġà¤¸à¤ĸà¥įà¤¤": 5889,
      "Ġà¤®à¥Ĥà¤°à¥įà¤¤": 5890,
      "Ġà¤®à¤¿à¤²à¤¾à¤ķà¤°": 5891,
      "Ġbec": 5892,
      "à¤¨à¥įà¤§": 5893,
      "à¤Łà¤¿à¤Ĥà¤Ĺ": 5894,
      "Ġà¤ľà¤¾à¤¤à¥Ģà¤¯": 5895,
      "Ġà¤Ľà¤¤": 5896,
      "à¥ģà¤¦à¥įà¤°": 5897,
      "Ġà¤®à¥Įà¤²à¤¿à¤ķ": 5898,
      "Ġà¤¨à¥įà¤¯à¥Ĥà¤ľ": 5899,
      "Ġà¤¶à¥Ģà¤¤": 5900,
      "ĠPradesh": 5901,
      "./": 5902,
      "Ġà¤°à¤¿à¤¶à¥įà¤¤": 5903,
      "à¤ķà¥įà¤ķà¤°": 5904,
      "fer": 5905,
      "Ġà¤ħà¤ķà¥įà¤·à¤®": 5906,
      "Ġà¤¶à¥Ĥà¤¨à¥įà¤¯": 5907,
      "à¥įà¤Łà¤°à¥ĭà¤Ĥ": 5908,
      "à¤Ńà¥Į": 5909,
      "Ġà¤Ĺà¥įà¤°à¥ĩà¤¡": 5910,
      "Ġà¤¸à¤«à¤¾à¤Ī": 5911,
      "à¤¿à¤«à¥įà¤Ł": 5912,
      "Ġà¤°à¤Ĥà¤Ĺà¥ĭà¤Ĥ": 5913,
      "Ġà¤ĸà¥ĩà¤²à¥ĭà¤Ĥ": 5914,
      "Ġà¤°à¤¾à¤¸à¥įà¤¤à¤¾": 5915,
      "à¥Įà¤²": 5916,
      "Ġsch": 5917,
      "Ġà¤¸à¥įà¤µà¤ļ": 5918,
      "à¥ĭà¤¸à¤¾à¤ĩà¤Ł": 5919,
      "Ġà¤ıà¤²à¤°à¥įà¤ľà¥Ģ": 5920,
      "Ġà¤¹à¤¾à¤¨à¤¿": 5921,
      "Ġà¤¹à¤¾à¤¨à¤¿à¤ķà¤¾à¤°à¤ķ": 5922,
      "(à¤ªà¥Ģ": 5923,
      "Ġà¤Ĩà¤ķà¥įà¤°à¤®à¤£": 5924,
      "Ġph": 5925,
      "Ġà¤®à¤¾à¤¨à¤¦à¤Ĥà¤¡": 5926,
      "urrent": 5927,
      "Ġmeet": 5928,
      "Ġà¤®à¥ĭà¤¨": 5929,
      "Ġà¤ıà¤Ĥà¤Ł": 5930,
      "à¤·à¥įà¤®": 5931,
      "Ġà¤Łà¤¾à¤ĩà¤®": 5932,
      "Ġà¤ªà¥įà¤°à¤¶à¥įà¤¨à¤ĥ": 5933,
      "Ġà¤ķà¤Łà¥Įà¤¤à¥Ģ": 5934,
      "Ġà¤ķà¤¾à¤Łà¤¨à¥ĩ": 5935,
      "Ġà¤ªà¥ĩà¤Ĥà¤Ł": 5936,
      "Ġà¤®à¤¾à¤°à¥ĩ": 5937,
      "à¥ĩà¤Ĥà¤ļ": 5938,
      "Ġà¤ħà¤ĸ": 5939,
      "Ġà¤¨à¥ĥà¤¤à¥įà¤¯": 5940,
      "Ġà¤Ĺà¤¹à¤°à¥Ģ": 5941,
      "Ġà¤īà¤ªà¤Ńà¥ĭà¤ķà¥įà¤¤à¤¾": 5942,
      "Ġà¤īà¤¦à¥įà¤§à¤°à¤£": 5943,
      "ee": 5944,
      "Ġà¤²à¥Īà¤Ĥà¤¡": 5945,
      "à¤ķà¤¾à¤°à¥įà¤¯": 5946,
      "à¥ĭà¤ªà¥Ģ": 5947,
      "Ġà¤µà¤¿à¤µà¤¾à¤¹": 5948,
      "Ġà¤¨à¤¿à¤ķà¤¾à¤²à¤¾": 5949,
      "Ġà¤¬à¤ļà¤¾": 5950,
      "Ġà¤ķà¤£à¥ĭà¤Ĥ": 5951,
      "Ġsome": 5952,
      "Ġà¤¬à¤¨à¤¾à¤®": 5953,
      "Ġneed": 5954,
      "ma": 5955,
      "Ġà¤²à¤ĺà¥ģ": 5956,
      "Ġà¤®à¤¿à¤²à¤ķà¤°": 5957,
      "180": 5958,
      "Ġà¤ļà¤¾à¤°à¥įà¤Ł": 5959,
      "rib": 5960,
      "Ġà¤ıà¤ľà¥ĩà¤Ĥà¤Ł": 5961,
      "Ġà¤Ĩà¤ģà¤ĸ": 5962,
      "-à¤Ľ": 5963,
      "Ġà¤ķà¤¾à¤Ĥà¤ļ": 5964,
      "à¤Ĺà¤¤": 5965,
      "à¤¿à¤¯à¤¤": 5966,
      "Ġà¤ıà¤ķà¤¡à¤¼": 5967,
      "Ġà¤ħà¤§à¥Ģà¤¨": 5968,
      "ark": 5969,
      "Ġà¤°à¤ĸà¥Ģ": 5970,
      "Ġà¤¥à¥ĭà¤¡à¤¼à¥Ģ": 5971,
      "Ġà¤²à¤¾à¤ĩà¤¸": 5972,
      "Ġà¤ĺà¤¨à¤¤à¥įà¤µ": 5973,
      "Ġà¤¹à¤°à¥ĩ": 5974,
      "Ġà¤ªà¤¨": 5975,
      "Ġà¤¶à¤°à¥įà¤¤": 5976,
      "Ġà¤¶à¥ģà¤²à¥įà¤ķ": 5977,
      "Ġà¤ħà¤¨à¥ģà¤¸à¤°à¤£": 5978,
      "Ġadd": 5979,
      "Ġà¤¨à¤¾à¤Łà¤ķà¥Ģà¤¯": 5980,
      "Ġà¤ľà¤¾à¤Ĺà¤°à¥Ĥà¤ķà¤¤à¤¾": 5981,
      "ĠX": 5982,
      "Ġà¤ªà¤°à¥ĩ": 5983,
      "Ġà¤Ńà¤°à¥ĩ": 5984,
      "Ġà¤ľà¥Īà¤ķ": 5985,
      "Ġà¤Ŀà¥ģà¤ķ": 5986,
      "Ġà¤Ĺà¤¿à¤°à¤«à¥įà¤¤à¤¾à¤°": 5987,
      "Ġà¤²à¤¾à¤Ńà¥ĭà¤Ĥ": 5988,
      "Ġà¤¨à¤®à¤ķ": 5989,
      "1980": 5990,
      "Ġà¤¸à¤Ĥà¤°à¤ļà¤¨à¤¾à¤ĵà¤Ĥ": 5991,
      "à¤ªà¤²": 5992,
      "Ġà¤¦à¤¾à¤¯": 5993,
      "Ġà¤¸à¤¾à¤Ĺ": 5994,
      "Ġà¤ľà¤¾à¤¨à¤¨à¤¾": 5995,
      "185": 5996,
      "Ġà¤®à¥ģà¤ķà¤¾à¤¬": 5997,
      "Ġà¤®à¥ģà¤ĸ": 5998,
      "Ġà¤¬à¥ģà¤ĸ": 5999,
      "Ġà¤¨à¤¿à¤§": 6000,
      "Ġà¤ĸà¤¾à¤¸": 6001,
      "Ġà¤ĺà¤¾à¤µ": 6002,
      "Ġà¤ļà¥ģà¤¨à¥Įà¤¤à¤¿à¤¯à¥ĭà¤Ĥ": 6003,
      "Ġà¤¹à¥ĩ": 6004,
      "à¥Īà¤ķà¥įà¤¸": 6005,
      "Ġà¤ªà¤µà¤¨": 6006,
      "Ġà¤ªà¤°à¤¿à¤ķ": 6007,
      "Ġà¤Ńà¤°à¥Ģ": 6008,
      "à¤¿à¤¸à¤¨": 6009,
      "Ġà¤ķà¤¹à¤¤à¥Ģ": 6010,
      "à¤¤à¥įà¤¤à¥Ģà¤¸": 6011,
      "Ġà¤¹à¥ĩà¤°": 6012,
      "à¤®à¤¹": 6013,
      "Ġà¤µà¥ĭà¤Ł": 6014,
      "à¤¦à¤¾à¤¤à¤¾": 6015,
      "Ġà¤Ńà¥Ĥà¤²": 6016,
      "à¤¾à¤Ĺà¥ĭ": 6017,
      "Ġà¤¬à¤¨à¤¾à¤ıà¤Ĥ": 6018,
      "Ġà¤¸à¥įà¤µà¤¾à¤®à¤¿à¤¤à¥įà¤µ": 6019,
      "Ġà¤ĵà¤¬": 6020,
      "Ġà¤®à¤¾à¤ªà¤¨à¥ĩ": 6021,
      "ock": 6022,
      "à¥ģà¤ħà¤²": 6023,
      "Ġà¤ªà¤Łà¥įà¤Ł": 6024,
      "à¤¦à¥ĩ": 6025,
      "Ġà¤ıà¤Ł": 6026,
      "Ġà¤§à¥Ĥà¤ª": 6027,
      "stit": 6028,
      "Ġà¤®à¥ĩà¤ķà¥įà¤¸à¤¿à¤ķà¥ĭ": 6029,
      "à¤¶à¥Ģà¤²à¤¤à¤¾": 6030,
      "Ġà¤Ńà¥Įà¤Ĺà¥ĭà¤²à¤¿à¤ķ": 6031,
      "Ġà¤Ĺà¥įà¤°à¤¾à¤¹à¤ķà¥ĭà¤Ĥ": 6032,
      "à¥ĭà¤¸à¥įà¤ķ": 6033,
      "Ġà¤¬à¥ĩà¤°": 6034,
      "ons": 6035,
      "Ġà¤µà¤¿à¤ľà¤¯": 6036,
      "Ġà¤¸à¤Ĥà¤¸à¤¦": 6037,
      "Ġà¤¹à¤¸à¥įà¤¤à¤¾à¤ķà¥įà¤·à¤°": 6038,
      "(i": 6039,
      "85": 6040,
      "à¥ĥà¤ļà¥įà¤Ľà¤¿à¤ķ": 6041,
      "Ġà¤ĺà¥ĭà¤¡à¤¼à¥ĩ": 6042,
      "Ġiss": 6043,
      "Ġà¤¸à¥ĭà¤²": 6044,
      "Ġà¤¯à¥Ģ": 6045,
      "à¤¾à¤¯à¥ĩ": 6046,
      "dition": 6047,
      "à¤¾à¤Ĥà¤ķà¤¿à¤¤": 6048,
      "à¥ĭà¤Ĺà¥įà¤°à¤¾à¤«à¥Ģ": 6049,
      "Ġà¤¹à¤«à¥įà¤¤": 6050,
      "à¥Īà¤¶": 6051,
      "Ġà¤ľà¥ĩà¤¨": 6052,
      "à¥įà¤Łà¤¿à¤ķ": 6053,
      "Ġà¤ªà¥Ģà¤ł": 6054,
      "Ġà¤¸à¤®à¤Ŀà¤¨à¤¾": 6055,
      "Ġà¤¨à¥Įà¤¸à¥ĩà¤¨à¤¾": 6056,
      "Ġà¤¤à¥Ģà¤µà¥įà¤°": 6057,
      "Ġà¤¦à¤¿à¤®à¤¾à¤Ĺ": 6058,
      "Ġrem": 6059,
      "Ġonly": 6060,
      "Ġà¤ľà¥įà¤µà¤¾à¤²à¤¾à¤®": 6061,
      "-à¤ĸ": 6062,
      "eh": 6063,
      "à¥įà¤ķà¤¾": 6064,
      "à¥ĭà¤Łà¥Ģ": 6065,
      "ices": 6066,
      "Ġà¤ħà¤¨à¥ģà¤ªà¥įà¤°à¤¯à¥ĭà¤Ĺà¥ĭà¤Ĥ": 6067,
      "à¥ģà¤²à¤¾": 6068,
      "Ġà¤¸à¥įà¤Łà¥ĩà¤Ł": 6069,
      "-à¤ľà¥ĭ": 6070,
      "Ġà¤Ńà¤¾à¤Ĺà¥Ģà¤¦à¤¾à¤°à¥Ģ": 6071,
      "(à¤ªà¥įà¤°": 6072,
      "ble": 6073,
      "Ġà¤¤à¥įà¤¯": 6074,
      "à¤¸à¥įà¤¤à¤°": 6075,
      "elf": 6076,
      "Ġà¤¸à¤®à¤¾à¤¨à¤¤à¤¾": 6077,
      "ĠGovernment": 6078,
      "Ġà¤ªà¥įà¤°à¤¶à¤¿à¤ķà¥įà¤·à¤¿à¤¤": 6079,
      "à¤¿à¤ľà¥įà¤ŀà¤¾à¤¨à¥Ģ": 6080,
      "-à¤ªà¤°": 6081,
      "-à¤¯à¤¹": 6082,
      "à¥ģà¤°à¥įà¤Ĺ": 6083,
      "à¤µà¤¿à¤¨": 6084,
      "Ġà¤ĸà¤ªà¤¤": 6085,
      "Ġà¤®à¤¿à¤²à¥ĩà¤Ĺà¥Ģ": 6086,
      "à¥ĭà¤Ĺà¥įà¤°à¤¾à¤«": 6087,
      "Ġà¤¶à¤¿à¤¶à¥ģ": 6088,
      "Ġà¤ªà¤¾à¤ĩà¤ª": 6089,
      "Ġà¤¨à¥ī": 6090,
      "Ġthr": 6091,
      "Ġà¤ĵà¤¹": 6092,
      "hip": 6093,
      "Ġà¤¬à¥ĭà¤²à¤¨à¥ĩ": 6094,
      "tt": 6095,
      "Ġà¤¬à¤¿à¤¸": 6096,
      "Ġà¤Ĩà¤ĩà¤¸": 6097,
      "Ġà¤¡à¥ĩà¤¸": 6098,
      "Ġà¤«à¤¾à¤īà¤Ĥà¤¡": 6099,
      "à¤¿à¤Ĥà¤¸": 6100,
      "ases": 6101,
      "Ġà¤ħà¤¨à¥įà¤¯à¤¥à¤¾": 6102,
      "Ġà¤®à¥Įà¤ķà¥ĩ": 6103,
      "ĠTh": 6104,
      "à¤¹à¤¤": 6105,
      "Ġà¤²à¤¾à¤¯à¤¾": 6106,
      "Ġà¤¤à¤¾à¤°à¥ĩ": 6107,
      "à¤¾à¤¯à¤¾à¤¤": 6108,
      "Ġrel": 6109,
      "ection": 6110,
      "Ġà¤ļà¤¿à¤Ĥà¤¤à¤¿à¤¤": 6111,
      "Ġà¤¤à¥Ģà¤¸à¤°à¥Ģ": 6112,
      "à¤¾à¤§à¤¿à¤ķà¤¾à¤°à¥Ģ": 6113,
      "à¤¾à¤²à¥įà¤¡": 6114,
      "Ġà¤¸à¤¾à¤®à¤¾à¤¨": 6115,
      "à¤®à¤¾à¤°à¥įà¤ķ": 6116,
      "Ġà¤¦à¤°à¥įà¤¶à¤ķà¥ĭà¤Ĥ": 6117,
      "Ġà¤¸à¥įà¤¥à¤¿à¤°à¤¤à¤¾": 6118,
      "à¤ªà¥Ĥà¤°à¥įà¤µà¤ķ": 6119,
      "à¤¾à¤µà¤¿à¤¦": 6120,
      "Ġà¤īà¤¤à¤°": 6121,
      "Ġà¤īà¤¦à¥įà¤¯à¤®": 6122,
      "Ġà¤ªà¤°à¥įà¤¯à¤Łà¤¨": 6123,
      "Ġà¤¹à¥īà¤²": 6124,
      "Ġà¤ªà¤¾à¤Ĥà¤¡": 6125,
      "à¥įà¤²à¥ĩ": 6126,
      "Ġà¤ľà¤¾à¤¤à¤¿": 6127,
      "Ġà¤Īà¤¸à¤¾": 6128,
      "Ġà¤¦à¤ķà¥įà¤·à¤¤à¤¾": 6129,
      "Ġà¤²à¤ķà¥įà¤·à¥įà¤¯à¥ĭà¤Ĥ": 6130,
      "Ġvery": 6131,
      "à¤¿à¤°à¤¾": 6132,
      "à¤¿à¤¹à¤¾à¤Ī": 6133,
      "à¥ľà¤¾": 6134,
      "Ġà¤ľà¥ĭà¤¡à¤¼à¥ĩà¤Ĥ": 6135,
      "Ġà¤ªà¥įà¤°à¤¥à¤¾à¤ĵà¤Ĥ": 6136,
      "Ġà¤¦à¥ģà¤°à¥įà¤Ńà¤¾à¤Ĺà¥įà¤¯": 6137,
      "49": 6138,
      "TTP": 6139,
      "à¤°à¤ķ": 6140,
      "Ġà¤¯à¥ģà¤ķà¥įà¤¤": 6141,
      "ally": 6142,
      "Ġà¤®à¥ģà¤°à¥įà¤Ĺ": 6143,
      "Ġà¤Ľà¥ĭà¤¡à¤¼à¤ķà¤°": 6144,
      "Ġà¤ĩà¤Ĥà¤¡à¤¿à¤¯à¤¾": 6145,
      "Ġà¤ķà¥ĥà¤¤à¥įà¤°à¤¿à¤®": 6146,
      "Ġà¤ªà¥įà¤°à¤¸à¤Ĥà¤¸à¥įà¤ķà¤°à¤£": 6147,
      "à¤¦à¥įà¤°": 6148,
      "Ġà¤īà¤·à¥įà¤£à¤ķà¤Łà¤¿à¤¬à¤Ĥà¤§à¥Ģà¤¯": 6149,
      "Ġà¤Ĩà¤ĺà¤¾à¤¤": 6150,
      "à¤¬à¥ĭà¤°à¥įà¤¡": 6151,
      "Ġà¤ªà¥Īà¤ķà¥ĩ": 6152,
      "Ġà¤ħà¤Ĺà¤²à¥Ģ": 6153,
      "used": 6154,
      "/à¤¯à¤¾": 6155,
      "Ġà¤ªà¥įà¤°à¤ķà¥įà¤·à¥ĩà¤ª": 6156,
      "Ġà¤Ĩà¤ªà¤¦à¤¾": 6157,
      "ĠAll": 6158,
      "Ġà¤¬à¤ļà¤¾à¤µ": 6159,
      "Ġà¤Ĩà¤§à¤¾": 6160,
      "Ġà¤¸à¥įà¤®à¤¾à¤°à¤ķ": 6161,
      "Ġà¤¸à¥ĩà¤²à¥įà¤¸": 6162,
      "Ġgr": 6163,
      "Ġà¤«à¤¿à¤²à¥įà¤®à¥ĭà¤Ĥ": 6164,
      "ween": 6165,
      "(à¤°": 6166,
      "uc": 6167,
      "à¤¬à¤¾à¤°à¥Ģ": 6168,
      "à¤¹à¥Ģà¤¨": 6169,
      "Ġà¤¶à¤¬à¥įà¤¦à¤ķà¥ĭà¤¶": 6170,
      "Ġà¤¨à¤¾à¤Łà¤ķ": 6171,
      "Ġà¤ªà¤¹à¤²à¥ģà¤ĵà¤Ĥ": 6172,
      "Ġà¤ªà¤Ĥà¤ķà¥įà¤¤à¤¿": 6173,
      "à¤ķà¤¶": 6174,
      "à¤®à¤¸": 6175,
      "Ġà¤¶à¤µ": 6176,
      "Ġfar": 6177,
      "Ġà¤ķà¤µà¤°": 6178,
      "à¤¾à¤¨à¤¿à¤°à¥įà¤¦à¥ĩà¤¶": 6179,
      "Ġà¤°à¥ĩà¤¤": 6180,
      "à¤ıà¤ĥ": 6181,
      "Ġà¤Ĺà¥ģà¤°à¥įà¤¦à¥ĩ": 6182,
      "à¥Ĥà¤¹à¤¿à¤ķ": 6183,
      "Ġà¤µà¤¾à¤ªà¤¸à¥Ģ": 6184,
      "Ġà¤ĺà¤Ĥà¤Łà¥ĭà¤Ĥ": 6185,
      "Ġà¤Ĺà¤°à¥įà¤Ńà¤µà¤¤à¥Ģ": 6186,
      "Ġà¤°à¥ģà¤ªà¤ı": 6187,
      "Ġà¤®à¤ķà¤Ī": 6188,
      "Ġà¤²à¤ķà¥įà¤·à¤¿à¤¤": 6189,
      "ors": 6190,
      "umber": 6191,
      "Ġà¤¯à¤¾à¤¦à¥ĥà¤ļà¥įà¤Ľà¤¿à¤ķ": 6192,
      "Ġà¤ľà¥Ĥ": 6193,
      "Ġà¤²à¤¡à¤¼à¤ķà¤¿à¤¯à¥ĭà¤Ĥ": 6194,
      "Ġà¤ıà¤²à¥įà¤Ĺà¥ĭà¤°à¤¿à¤¥": 6195,
      "Ġà¤ªà¤¹à¤²à¥Ĥ": 6196,
      "Ġà¤°à¥ĭà¤ľà¤Ĺà¤¾à¤°": 6197,
      "ystem": 6198,
      "On": 6199,
      "à¤ªà¥ĥà¤·à¥įà¤ł": 6200,
      "à¤¿à¤ªà¥Ģ": 6201,
      "à¤¹à¤°à¤¾": 6202,
      "Ġà¤¦à¤¿à¤ĸà¤¾à¤¨à¥ĩ": 6203,
      "Ġà¤«à¤¼à¤Ĥà¤ķà¥įà¤¶à¤¨": 6204,
      "Ġà¤ķà¥Īà¤²à¥ĭà¤°à¥Ģ": 6205,
      "Ġà¤¸à¥ĭà¤ļà¤¨à¥ĩ": 6206,
      "Ġà¤ªà¥įà¤°à¤¤à¤¿à¤¬à¤¦à¥įà¤§": 6207,
      "à¤µà¤¿à¤ľà¥įà¤ŀà¤¾à¤¨à¥Ģ": 6208,
      "à¤¾à¤¯à¥ĭà¤Łà¤¿à¤ķ": 6209,
      "Ġà¤ķà¥ĭà¤²à¤Ĥà¤¬": 6210,
      "Ġà¤«à¥īà¤°à¥įà¤®": 6211,
      "Ġac": 6212,
      "Ġà¤§à¥įà¤°à¥ģà¤µ": 6213,
      "1970": 6214,
      "Ġà¤¦à¤¿à¤¶à¤¾à¤¨à¤¿à¤°à¥įà¤¦à¥ĩà¤¶": 6215,
      "Ġà¤¬à¤Ĺà¥Ģà¤ļà¥ĩ": 6216,
      "Ġbetween": 6217,
      "Ġà¤«à¤¾à¤īà¤Ĥà¤¡à¥ĩà¤¶à¤¨": 6218,
      "à¤¿à¤ĵ": 6219,
      "Ġà¤ªà¥ĩà¤ľ": 6220,
      "Ġà¤ªà¤¡à¤¼à¥ĩ": 6221,
      "Ġà¤ĩà¤¶": 6222,
      "Ġà¤¶à¤¾à¤¸à¥įà¤¤à¥įà¤°": 6223,
      "à¤¿à¤µà¤¾à¤¦à¥Ģ": 6224,
      "à¤Ĥà¤¤à¥ģ": 6225,
      "Ġà¤ķà¤¿à¤¸à¥įà¤®": 6226,
      "à¤¾à¤Ĥà¤¤à¤¿à¤ķ": 6227,
      "Ġà¤ķà¥ĩà¤Ĥà¤¦à¥įà¤°à¥ĭà¤Ĥ": 6228,
      "Ġà¤®à¤ľà¤¦": 6229,
      "And": 6230,
      "à¤¯à¤¾à¤¬": 6231,
      "Ġco": 6232,
      "Ġà¤ħà¤²à¥įà¤¬": 6233,
      "à¤°à¥įà¤ķà¥Ģ": 6234,
      "2016": 6235,
      "Ġà¤®à¥Ĥà¤²à¥įà¤¯à¤µà¤¾à¤¨": 6236,
      "Ġà¤¬à¤Ĥà¤¦à¤°à¤Ĺà¤¾à¤¹": 6237,
      "Ġà¤¸à¥ĩà¤®à¥Ģ": 6238,
      "à¥Ģà¤¯à¤°": 6239,
      "Ġà¤Ľà¤¾à¤ª": 6240,
      "Ġà¤ĺà¥ģà¤®": 6241,
      "à¥ĭà¤°à¥įà¤¸": 6242,
      "à¥Ģà¤¡à¥Ģ": 6243,
      "à¤®à¥Ģà¤Łà¤°": 6244,
      "Ġà¤¨à¤¾à¤Ĺà¤°à¤¿à¤ķà¥ĭà¤Ĥ": 6245,
      "à¤®à¥ĩà¤°à¤¿à¤ķà¥Ģ": 6246,
      "à¤¾à¤®à¤¾à¤£à¤¿à¤ķ": 6247,
      "Ġà¤ħà¤Ĥà¤¤à¤ĥ": 6248,
      "2019": 6249,
      "à¤¾à¤¡à¥ĭ": 6250,
      "Ġà¤¨à¤¿à¤ķà¤¾à¤²à¤¨à¥ĩ": 6251,
      "(à¤Ī": 6252,
      "Ġà¤¶à¥ĩà¤°": 6253,
      "ised": 6254,
      "Ġà¤ıà¤¡à¤®": 6255,
      "Ġà¤®à¤¨à¥ĭà¤µà¥Īà¤ľà¥įà¤ŀà¤¾à¤¨à¤¿à¤ķ": 6256,
      "Ġà¤¸à¥Ĥà¤ļà¤ķ": 6257,
      "ÂłÂł": 6258,
      "67": 6259,
      "Ġpos": 6260,
      "resident": 6261,
      "à¤¹à¤¾à¤²à¤¾à¤Ĥà¤ķà¤¿": 6262,
      "à¥°": 6263,
      "à¥ĭà¤¸à¥Ģ": 6264,
      "à¤²à¤¾à¤ĩà¤¨": 6265,
      "Ġà¤¬à¤Ĥà¤Ĺ": 6266,
      "Ġà¤Ľà¥ĭ": 6267,
      "Ġà¤īà¤łà¤¾à¤¨à¥ĩ": 6268,
      "Ġà¤¯à¥Ģà¤¶à¥ģ": 6269,
      "-à¤ªà¥Ĥà¤°à¥įà¤µ": 6270,
      "Ġà¤ªà¤¢à¤¼à¤¨à¤¾": 6271,
      "ĠNew": 6272,
      "Ġà¤īà¤ªà¤¨à¤¿à¤µà¥ĩà¤¶": 6273,
      "à¥Īà¤¥": 6274,
      "à¤¾à¤²à¥ĩ": 6275,
      "Ġà¤²à¤¿à¤ĸà¥Ģ": 6276,
      "Ġà¤¸à¤Ĥà¤¸à¥įà¤¥à¤¾à¤¨à¥ĭà¤Ĥ": 6277,
      "\"à¤Ĺ": 6278,
      "Ġà¤¯à¥ĭà¤ľà¤¨à¤¾à¤ĵà¤Ĥ": 6279,
      "ĠPakistan": 6280,
      "Ġà¤ķà¤¹à¤¨à¥ĩ": 6281,
      "Ġà¤Ĩà¤µà¤°à¤£": 6282,
      "Ġday": 6283,
      "Ġà¤ªà¥ģà¤¨à¤°à¥įà¤µ": 6284,
      "à¤¸à¥įà¤Łà¥įà¤°à¥īà¤²": 6285,
      "Ġà¤¬à¤¿à¤²à¥įà¤²à¥Ģ": 6286,
      "Ġel": 6287,
      "Ġà¤®à¥Įà¤ķà¤¾": 6288,
      "Ġà¤¨à¥Ģà¤¤à¤¿à¤¯à¥ĭà¤Ĥ": 6289,
      "Ġà¤°à¤Ĥà¤Ĺà¥Ģà¤¨": 6290,
      "Ġwhat": 6291,
      "Ġà¤¸à¥ģà¤¨à¤¨à¥ĩ": 6292,
      "à¥įà¤®à¥Ģà¤°": 6293,
      "Ġà¤ªà¥įà¤°à¥Įà¤¦à¥įà¤¯à¥ĭà¤Ĺà¤¿à¤ķ": 6294,
      "Ġà¤ĵà¤²à¤Ĥà¤ª": 6295,
      "Ġà¤²à¤¾à¤ĩà¤¸à¥ĩà¤Ĥà¤¸": 6296,
      "Ġà¤µà¥ĥà¤¤à¥įà¤¤": 6297,
      "Ġà¤²à¥ģà¤ªà¥įà¤¤": 6298,
      "Ġà¤°à¤¾à¤¨à¥Ģ": 6299,
      "Ġà¤¬à¤¾à¤¦à¤²": 6300,
      "à¥įà¤°à¥Ģà¤®": 6301,
      "Ġà¤ħà¤ªà¥įà¤°à¤¤à¥įà¤¯": 6302,
      "ctions": 6303,
      "Ġà¤¨à¤¿à¤·à¥įà¤ķà¤°à¥įà¤·à¥ĭà¤Ĥ": 6304,
      "Ġà¤¸à¤°à¥įà¤µà¥ĭà¤ļà¥įà¤ļ": 6305,
      "ission": 6306,
      "Ġà¤®à¤¨à¥ĭà¤°à¤Ĥà¤ľà¤¨": 6307,
      "à¥įà¤ĺ": 6308,
      "à¤µà¤¿à¤¡": 6309,
      "à¤¾à¤®à¤°à¥įà¤¶": 6310,
      "unch": 6311,
      "Ġà¤µà¤¨à¤¸à¥įà¤ªà¤¤à¤¿": 6312,
      "(à¤¶": 6313,
      "à¥įà¤°à¤®": 6314,
      "à¥įà¤°à¤¾à¤Ł": 6315,
      "Ġà¤µà¤¾à¤Ī": 6316,
      "Ġà¤«à¥Ģà¤¸": 6317,
      "Ġà¤ªà¤¹à¤ļ": 6318,
      "à¤¾à¤£à¤¾": 6319,
      "olice": 6320,
      "velopment": 6321,
      "Ġà¤«à¥ĩà¤«à¤¡à¤¼à¥ĭà¤Ĥ": 6322,
      "Ġà¤ħà¤¨à¥ģà¤¦à¤¾à¤¨": 6323,
      "Ġà¤¬à¥ģà¤ĸà¤¾à¤°": 6324,
      "Ġà¤ªà¤¾": 6325,
      "à¤¹à¤¾à¤¨": 6326,
      "Ġà¤¬à¤®": 6327,
      "Ġà¤Ĩà¤¶à¥įà¤°": 6328,
      "à¤¾à¤ıà¤Ĺà¤¾": 6329,
      "row": 6330,
      "ode": 6331,
      "Ġà¤ĺà¤Łà¤ķà¥ĭà¤Ĥ": 6332,
      "à¥¦à¥¦": 6333,
      "Ġà¤Łà¥Īà¤Ĺ": 6334,
      "Ġà¤Ĩà¤īà¤Łà¤ªà¥ģà¤Ł": 6335,
      "Ġà¤Ĺà¤łà¤¬à¤Ĥà¤§à¤¨": 6336,
      "Ġà¤µà¤¿à¤ķà¤²à¤¾à¤Ĥà¤Ĺ": 6337,
      "Ġreport": 6338,
      "1998": 6339,
      "Ġà¤ķà¤¿à¤¶à¥ĭà¤°à¥ĭà¤Ĥ": 6340,
      "Ġà¤ªà¥įà¤°à¥ĭà¤Ĺà¥įà¤°à¤¾à¤®à¤¿à¤Ĥà¤Ĺ": 6341,
      "Ġà¤«à¥ģà¤Łà¤¬à¥īà¤²": 6342,
      "-à¤¯": 6343,
      "Ġà¤¸à¤ľà¤¾": 6344,
      "Ġà¤¬à¤Ĥà¤§": 6345,
      "ative": 6346,
      "Ġà¤®à¤¹à¤¾à¤¦à¥įà¤µà¥Ģà¤ª": 6347,
      "Ġà¤®à¤¾à¤§à¥įà¤¯à¤®à¤¿à¤ķ": 6348,
      "Ġà¤ıà¤ľà¥ĩà¤Ĥà¤¸": 6349,
      "Ġà¤ĸà¤¤à¥įà¤®": 6350,
      "Ġà¤ħà¤ľà¥Ģà¤¬": 6351,
      "Ġà¤¸à¥įà¤µà¤ļà¤¾à¤²à¤¿à¤¤": 6352,
      "))": 6353,
      "Ġà¤¨à¥Ģà¤²": 6354,
      "Ġà¤ªà¥įà¤°à¤¾à¤®à¤¾à¤£à¤¿à¤ķ": 6355,
      "Ġà¤Ĺà¥Įà¤°": 6356,
      "ret": 6357,
      "ĠPro": 6358,
      "2015": 6359,
      "Ġà¤Ńà¤¾à¤Ĺà¥ĭà¤Ĥ": 6360,
      "Ġà¤¨à¥įà¤¯à¤¾à¤¯à¤¾à¤§à¥Ģà¤¶": 6361,
      "Ġà¤¤à¥įà¤µà¤°à¤¿à¤¤": 6362,
      "à¥ĩà¤¨à¥ĩ": 6363,
      "Ġà¤®à¤¿": 6364,
      "Ġà¤¬à¤°à¥įà¤¬": 6365,
      "à¤¬à¤¾à¤ľà¥Ģ": 6366,
      "Ġà¤Ĺà¤¾à¤¡à¤¼à¥Ģ": 6367,
      "Ġind": 6368,
      "Ġà¤Ĺà¥ģà¤²à¤¾à¤¬": 6369,
      "Ġà¤ªà¤°à¤¿à¤¸à¥įà¤¥à¤¿à¤¤à¤¿à¤¯à¥ĭà¤Ĥ": 6370,
      "\"à¤°": 6371,
      "à¥Ľ": 6372,
      "Ġà¤¸à¥Īà¤²": 6373,
      "Ġà¤®à¤¿à¤¥": 6374,
      "à¤¹à¤¾": 6375,
      "Ġà¤¶à¥ĩà¤¯à¤°": 6376,
      "Ġà¤«à¤¾à¤¯à¤¦": 6377,
      "à¥įà¤²à¥Ĥ": 6378,
      "Ġà¤Łà¥ĩà¤ķ": 6379,
      "Ġà¤Łà¥Ģà¤ķ": 6380,
      "Ġbel": 6381,
      "Ġmon": 6382,
      "ĠChief": 6383,
      "Ġà¤ľà¤°à¥Ĥà¤°à¥Ģ": 6384,
      "Ġà¤¸à¤¡à¤¼à¤ķà¥ĭà¤Ĥ": 6385,
      "Ġà¤ķà¥ģà¤¤à¥įà¤¤à¥ĭà¤Ĥ": 6386,
      "duct": 6387,
      "Ġà¤¨à¤¾à¤ĩà¤Łà¥įà¤°": 6388,
      "Ġent": 6389,
      "à¤¯à¤²": 6390,
      "Ġà¤°à¥ĭà¤²": 6391,
      "Ġà¤Ĺà¤¡": 6392,
      "Ġà¤ķà¥Īà¤°à¥ĭà¤²à¤¿à¤¨à¤¾": 6393,
      "Ġà¤Ĺà¤¢à¤¼à¤µà¤¾à¤²": 6394,
      "Ġà¤ħà¤¹à¤®": 6395,
      "à¤¬à¤¿à¤²": 6396,
      "à¤§à¤¨": 6397,
      "Ġà¤¸à¤¾à¤®à¥Ĥà¤¹à¤¿à¤ķ": 6398,
      "187": 6399,
      "Ġà¤¬à¤¦à¤²à¥ĩ": 6400,
      "Ġà¤ħà¤¸à¥įà¤ªà¤·à¥įà¤Ł": 6401,
      "ollow": 6402,
      "Ġà¤¨à¤¿à¤¬à¤Ĥà¤§": 6403,
      "Ġà¤ľà¤¾à¤¨à¤¤à¤¾": 6404,
      "1999": 6405,
      "Ġà¤ªà¤°à¤Ĥà¤ªà¤°à¤¾": 6406,
      "Ġà¤®à¥Īà¤ķà¥įà¤¸": 6407,
      "à¥įà¤£à¥ģ": 6408,
      "Ġà¤ªà¥Ĥà¤Ľà¤¾": 6409,
      "Ġà¤ķà¥ĭà¤²à¥ĩà¤¸à¥įà¤Łà¥įà¤°à¥īà¤²": 6410,
      "pur": 6411,
      "Ġà¤¸à¤¶": 6412,
      "Ġà¤¸à¤°à¥įà¤ľ": 6413,
      "Ġà¤°à¥īà¤ķ": 6414,
      "Ġà¤¸à¥ĩà¤®": 6415,
      "Ġà¤ªà¤°à¤¾à¤®à¤°à¥įà¤¶": 6416,
      "Ġà¤¶à¤°à¤£": 6417,
      "Ġà¤Ľà¤¤à¥įà¤¤à¥Ģà¤¸": 6418,
      "à¥ĩà¤Łà¤¿à¤ķ": 6419,
      "à¤¿à¤¯à¤®à¤¿à¤¤": 6420,
      "Ġgiv": 6421,
      "à¤Łà¤¨à¤¾à¤¶": 6422,
      "Ġà¤¬à¥įà¤²à¥īà¤Ĺ": 6423,
      "(à¤²": 6424,
      "-à¤¨à¤¿": 6425,
      "Ġà¤¹à¤¾à¤ĩ": 6426,
      "Ġà¤®à¤¾à¤¤": 6427,
      "alth": 6428,
      "ics": 6429,
      "à¤¾à¤¸à¥įà¤¤à¥įà¤°à¥Ģ": 6430,
      "2017": 6431,
      "Ġà¤ķà¤²à¤¾à¤ķ": 6432,
      "Ġà¤ªà¥įà¤°à¤¤à¤¿à¤Ńà¤¾à¤Ĺà¤¿à¤¯à¥ĭà¤Ĥ": 6433,
      "How": 6434,
      "Ġà¤¡à¥Ĥà¤¬": 6435,
      "Ġà¤µà¥ĩà¤¤à¤¨": 6436,
      "Ġà¤ħà¤¨à¥ģà¤ķà¤°à¤£": 6437,
      "Ġà¤ªà¥Ģà¤Łà¤°": 6438,
      "Ġà¤ķà¤¾à¤°à¥įà¤¯à¤ķà¤¾à¤°à¥Ģ": 6439,
      "Ġà¤ĩà¤¨à¥įà¤«": 6440,
      "Ġà¤īà¤¤à¥įà¤ªà¤¾à¤¦à¤¿à¤¤": 6441,
      "Ġà¤ļà¥ģà¤¨à¥ĩà¤Ĥ": 6442,
      "ĠGod": 6443,
      "Ġsuch": 6444,
      "Ġà¤ĭà¤¤à¥ģ": 6445,
      "Ġà¤¸à¥ģà¤¨à¤¾": 6446,
      "Ġà¤¨à¤¿à¤°à¥įà¤®à¤¾à¤¤à¤¾à¤ĵà¤Ĥ": 6447,
      "Ġà¤ĸà¤¿à¤²à¤¾à¤¡à¤¼à¤¿à¤¯à¥ĭà¤Ĥ": 6448,
      "à¤°à¥ĭà¤ķà¥įà¤¤": 6449,
      "Ġà¤¸à¥Īà¤¨à¤¿à¤ķ": 6450,
      "Ġà¤¤à¤Łà¥Ģà¤¯": 6451,
      "Ġà¤ķà¤¸": 6452,
      "Ġà¤īà¤ªà¤°à¥ĭà¤ķà¥įà¤¤": 6453,
      "Ġà¤Łà¥įà¤µ": 6454,
      "Ġform": 6455,
      "pport": 6456,
      "Ġà¤ķà¤łà¤¿à¤¨à¤¾à¤Ī": 6457,
      "Ġà¤Ĭà¤ģà¤ļà¤¾à¤Ī": 6458,
      "Ġà¤¡à¥įà¤°à¤¾à¤ĩà¤µ": 6459,
      "-à¤¸à¥ĩ": 6460,
      "her": 6461,
      "à¥įà¤¢": 6462,
      "à¤²à¤¨à¥ĩ": 6463,
      "à¤¾à¤§à¤¾à¤°à¤£": 6464,
      "à¥ĭà¤°à¤¾": 6465,
      "Ġà¤°à¤ĸà¥ĩ": 6466,
      "Ġà¤ªà¤¿à¤ĺ": 6467,
      "à¥ĭà¤¬à¤²": 6468,
      "Ġà¤¸à¤°à¥įà¤µà¤°": 6469,
      "Ġà¤ļà¤¿à¤¤à¥įà¤°à¥ĭà¤Ĥ": 6470,
      "Ġà¤¸à¤¾à¤ķà¥įà¤·à¤¾à¤¤à¥įà¤ķà¤¾à¤°": 6471,
      "à¤¶à¥įà¤°à¥ĩà¤·à¥įà¤ł": 6472,
      "Ġà¤µà¤¿à¤«à¤²à¤¤à¤¾": 6473,
      "Ġà¤ķà¥Īà¤¥à¥ĭà¤²à¤¿à¤ķ": 6474,
      "Ġà¤¸à¥ĩà¤²à¥įà¤¸à¤¿à¤¯à¤¸": 6475,
      "à¤¨à¥įà¤¤": 6476,
      "Ġà¤µà¥ĥ": 6477,
      "Ġà¤Ĩà¤Ń": 6478,
      "Ġà¤ļà¤¾à¤Ĥ": 6479,
      "Ġà¤ĸà¤¡à¤¼à¤¾": 6480,
      "à¤«à¤¾": 6481,
      "à¥ĩà¤²à¤¾": 6482,
      "Ġà¤¸à¤Ĥà¤ĸà¥įà¤¯à¤¾à¤ĵà¤Ĥ": 6483,
      "Ġà¤«à¤¾à¤ĩà¤¬à¤°": 6484,
      "Ġà¤ıà¤²à¥įà¤¬à¤®": 6485,
      "(A": 6486,
      "à¤Ĥà¤Ľ": 6487,
      "à¥ģà¤¬": 6488,
      "Ġà¤Ĺà¤¾à¤°": 6489,
      "Ġtake": 6490,
      "Ġà¤®à¤¾à¤°à¥įà¤Łà¤¿à¤¨": 6491,
      "Ġà¤¤à¤¾à¤ķà¤¤": 6492,
      "Ġà¤ķà¥īà¤ªà¥Ģà¤°à¤¾à¤ĩà¤Ł": 6493,
      "à¤¾à¤Ľ": 6494,
      "à¤ķà¥ģà¤®": 6495,
      "à¤¤à¤¾à¤°": 6496,
      "à¤¾à¤¨à¤ķ": 6497,
      "à¤Łà¥ĩ": 6498,
      "à¤¡à¤¿à¤¯à¥ĭ": 6499,
      "Ġà¤Ńà¤¯": 6500,
      "Ġà¤«à¥įà¤°à¥ĩà¤®": 6501,
      "Ġval": 6502,
      "ize": 6503,
      "Ġà¤¬à¤¹à¤¨": 6504,
      "Ġà¤¸à¤¬à¥Ĥà¤¤": 6505,
      "tal": 6506,
      "Ġà¤¤à¤¾à¤°à¥ĭà¤Ĥ": 6507,
      "Ġà¤īà¤¸à¤®à¥ĩà¤Ĥ": 6508,
      "Ġà¤²à¤¡à¤¼à¤ķà¥Ģ": 6509,
      "Ġà¤¨à¤¿à¤°à¥įà¤¦à¥ĩà¤¶à¤¿à¤¤": 6510,
      "Ġà¤¦à¥įà¤µà¥Ģà¤ªà¥ĭà¤Ĥ": 6511,
      "Ġà¤µà¤¾à¤¹à¤¨à¥ĭà¤Ĥ": 6512,
      "à¥Ĥà¤£": 6513,
      "Ġà¤ķà¥Ģà¤Łà¤¨à¤¾à¤¶": 6514,
      "ats": 6515,
      "Ġinter": 6516,
      "Ġà¤¶à¥įà¤°à¥ĩà¤£à¤¿à¤¯à¥ĭà¤Ĥ": 6517,
      "Ġthrough": 6518,
      "à¤¿à¤¯à¥ĭà¤¨": 6519,
      "Ġà¤¤à¥Īà¤¨": 6520,
      "Ġà¤¡à¤¾à¤ķ": 6521,
      "Ġà¤¦à¥ĩà¤ĸà¤¤à¤¾": 6522,
      "Ġduring": 6523,
      "Ġà¤ªà¥ģà¤¨à¤°": 6524,
      "Ġà¤ķà¤¹à¤¾à¤¨à¤¿à¤¯à¥ĭà¤Ĥ": 6525,
      "Ġà¤ªà¥įà¤°à¤¤à¤¿à¤¸à¥įà¤ªà¤°à¥įà¤§à¤¾": 6526,
      "Ġcrore": 6527,
      "ied": 6528,
      "Ġà¤¹à¥įà¤¯à¥Ĥ": 6529,
      "Ġà¤Ĩà¤¨à¤¾": 6530,
      "Ġà¤¶à¤¿à¤ĸ": 6531,
      "ited": 6532,
      "à¥ģà¤ķà¤²à¤¾": 6533,
      "Ġà¤¨à¤¾à¤®à¥ĭà¤Ĥ": 6534,
      "ody": 6535,
      "à¥ĩà¤Ĥà¤¸à¤¿à¤²": 6536,
      "Ġà¤µà¥įà¤¹à¥ĩà¤²": 6537,
      "Ġà¤°à¤¿à¤ļà¤°à¥įà¤¡": 6538,
      ")-": 6539,
      "à¤Ĺà¥ĭ": 6540,
      "à¤¡à¤®": 6541,
      "Ġà¤Łà¥ĩà¤²à¥Ģ": 6542,
      "als": 6543,
      "à¥ĩà¤¸à¥įà¤Łà¤°": 6544,
      "Ġà¤®à¤¿à¤²à¥ĩà¤Ĺà¤¾": 6545,
      "Ġà¤¸à¥ĭà¤ļà¤¤à¥ĩ": 6546,
      "\";": 6547,
      "But": 6548,
      "à¥ģà¤ķà¥Ģ": 6549,
      "à¤¦à¤¾à¤¤à¤¾à¤ĵà¤Ĥ": 6550,
      "à¤ľà¤¾à¤¨": 6551,
      "Ġter": 6552,
      "à¤ªà¥įà¤°à¤¾à¤¯": 6553,
      "Ġà¤µà¤¿à¤ľà¥ĩà¤¤à¤¾": 6554,
      "Ġà¤¬à¥įà¤²à¥īà¤ķ": 6555,
      "Ġà¤ªà¥įà¤°à¤¸à¥įà¤¤à¤¾à¤µà¤¿à¤¤": 6556,
      "Ġà¤¬à¤¾à¤§à¤¿à¤¤": 6557,
      "Ġà¤¯à¤¾à¤¤à¤¾à¤¯à¤¾à¤¤": 6558,
      "43": 6559,
      "Ġà¤¸à¥ĩà¤¬": 6560,
      "Ġà¤²à¥ĩà¤¨": 6561,
      "à¤¿à¤°à¤¾à¤®": 6562,
      "ĠCent": 6563,
      "olog": 6564,
      "Ġà¤®à¤ľà¥ĩà¤¦à¤¾à¤°": 6565,
      "ĠEn": 6566,
      "Ġà¤¤à¥Ģ": 6567,
      "Ġà¤Ĺà¥ģà¤«": 6568,
      "Ġà¤ļà¤¾à¤¯": 6569,
      "1960": 6570,
      "Ġà¤¯à¤¾à¤¤à¥įà¤°à¤¿à¤¯à¥ĭà¤Ĥ": 6571,
      "Ġlike": 6572,
      "Ġà¤ħà¤Łà¤²à¤¾à¤Ĥà¤Łà¤¿à¤ķ": 6573,
      "66": 6574,
      "Ġà¤²à¥ĭà¤¹": 6575,
      "à¤¬à¥Ģà¤¨": 6576,
      "à¤«à¥ĩà¤¸": 6577,
      "à¤¾à¤·à¥įà¤ª": 6578,
      "Ġfin": 6579,
      "und": 6580,
      "Ġà¤ĸà¥ĩà¤²à¤¨à¥ĩ": 6581,
      "Ġà¤®à¥ģà¤¦à¥įà¤°à¤¾": 6582,
      "Ġà¤²à¥Ģà¤Ĺ": 6583,
      "à¤¾à¤°à¥įà¤¥à¥Ģ": 6584,
      "Ġknow": 6585,
      "Ġà¤¢à¤¾à¤Ĥà¤ļà¥ĩ": 6586,
      "Ġà¤ļà¥Īà¤¨à¤²": 6587,
      "à¤°à¤¨": 6588,
      "à¤ķà¤¨": 6589,
      "Ġob": 6590,
      "à¥įà¤¯à¥Ĥà¤¨": 6591,
      "Ġà¤²à¤¹à¤°": 6592,
      "Ġà¤¯à¤ķà¥ĥà¤¤": 6593,
      "Ġà¤°à¤¹à¤¸à¥įà¤¯": 6594,
      "à¤¾à¤Łà¤¨": 6595,
      "Ġà¤Ńà¤¾à¤Ĺà¥įà¤¯": 6596,
      "Ġà¤¸à¥įà¤¤à¤°à¥ĭà¤Ĥ": 6597,
      "Ġà¤¸à¥įà¤µà¤¯à¤Ĥà¤¸à¥ĩ": 6598,
      "Ġà¤°à¤¸à¤¾à¤¯à¤¨à¥ĭà¤Ĥ": 6599,
      "Ġà¤Łà¤¿à¤ķà¤Ł": 6600,
      "Ġà¤ıà¤Ĥà¤Łà¥Ģà¤¬à¤¾à¤¯à¥ĭà¤Łà¤¿à¤ķ": 6601,
      "ause": 6602,
      "Ġà¤µà¤¿à¤¯": 6603,
      "Ġthese": 6604,
      "à¤¾à¤Ĺà¤¾à¤°": 6605,
      "Ġà¤ĺà¥ĩà¤°": 6606,
      "Ġà¤²à¤Ĺà¤¾à¤¤à¥ĩ": 6607,
      "Ġeff": 6608,
      "Ġà¤ªà¤¤à¥įà¤°à¥ĭà¤Ĥ": 6609,
      "à¤Ĥà¤¹": 6610,
      "à¤¤à¤²": 6611,
      "Ġà¤¬à¤¿à¤Ĥà¤¦à¥ģà¤ĵà¤Ĥ": 6612,
      "à¤¾à¤Ĥà¤Ĺà¥įà¤²": 6613,
      "Ġà¤ıà¤¶à¤¿à¤¯à¤¾à¤Ī": 6614,
      "Ġà¤Ĺà¥įà¤°à¥Ģà¤¨à¤¹à¤¾à¤īà¤¸": 6615,
      "Ġà¤¨à¤¦à¤¿à¤¯à¥ĭà¤Ĥ": 6616,
      "Ġà¤ķà¤¡à¤¼à¥Ģ": 6617,
      "à¤¸à¤²à¥ĭà¤Ĥ": 6618,
      "Ġà¤ªà¥Ĥà¤Ĥà¤Ľ": 6619,
      "akh": 6620,
      "Ġà¤īà¤¤à¥įà¤¸à¤¾à¤¹": 6621,
      "Ġà¤ªà¥įà¤°à¤¾à¤¥à¤®à¤¿à¤ķà¤¤à¤¾": 6622,
      "Ġà¤°à¥ĭà¤®à¤¾à¤Ĥà¤ļ": 6623,
      "à¤¾à¤¸à¥įà¤ķà¤¾": 6624,
      "Ġà¤ªà¤°à¥ĩà¤¶à¤¾à¤¨à¥Ģ": 6625,
      "Ġà¤ªà¥Īà¤ķà¥ĩà¤ľ": 6626,
      "Ġà¤¨à¤¤à¥Ģ": 6627,
      "Ġà¤°à¤¿à¤²à¥Ģ": 6628,
      "Ġà¤Ĩà¤°à¥įà¤Ł": 6629,
      "Ġà¤¶à¤°à¥įà¤ķ": 6630,
      "Ġà¤ªà¥įà¤°à¤¤à¤¿à¤ķ": 6631,
      "Ġà¤īà¤¤à¤¨à¥Ģ": 6632,
      "Ġmar": 6633,
      "Ġà¤ķà¤¾à¤¨à¥Ĥà¤¨à¥ĭà¤Ĥ": 6634,
      "Ġà¤ķà¤¾à¤²à¤¾": 6635,
      "à¤¹à¤°à¥ĩ": 6636,
      "Ġà¤ħà¤¥": 6637,
      "Ġà¤ļà¥Ī": 6638,
      "à¤¿à¤¸à¤¿à¤¨": 6639,
      "ision": 6640,
      "Ġà¤¬à¤¦à¤®": 6641,
      "à¤°à¥įà¤¸à¥Ģ": 6642,
      "Ġà¤ľà¥Ģà¤¨à¥ĭà¤®": 6643,
      "Ġà¤®à¤ķà¥įà¤ĸ": 6644,
      "41": 6645,
      "à¤¶à¤¿à¤ª": 6646,
      "à¤¾à¤²à¤ķ": 6647,
      "Ġà¤¶à¥ĭà¤°": 6648,
      "Ġà¤¨à¤¾à¤®à¤¿à¤¤": 6649,
      "ian": 6650,
      "Ġà¤¦à¥ģà¤ĸ": 6651,
      "Ġà¤ļà¤²à¥Ģ": 6652,
      "Ġà¤ªà¥Ĥà¤°à¥įà¤µà¤¾à¤¨": 6653,
      "Ġà¤ªà¤Ĥà¤ĸà¥ĭà¤Ĥ": 6654,
      "Ġà¤ĩà¤®à¥ĩà¤ľ": 6655,
      "Ġà¤ķà¤Ĥà¤Ł": 6656,
      "à¤¦à¥įà¤°à¤¤à¤¾": 6657,
      "Ġà¤ıà¤¨à¥Ģ": 6658,
      "Ġà¤Īà¤®à¥ĩà¤²": 6659,
      "Ġà¤µà¤¾à¤¸à¥įà¤¤à¥ģà¤ķà¤²à¤¾": 6660,
      "-à¤ħà¤ª": 6661,
      "Ġvi": 6662,
      "Ġà¤ªà¥Įà¤§à¤¾": 6663,
      "à¤¦à¤°à¥įà¤¶à¥Ģ": 6664,
      "Ġà¤¨à¤®à¥Ĥà¤¨à¥ĭà¤Ĥ": 6665,
      "Ġà¤ĩà¤²à¤¾à¤ķà¥ĭà¤Ĥ": 6666,
      "ool": 6667,
      "Ġà¤¯à¤¾à¤¨à¥Ģ": 6668,
      "189": 6669,
      "Ġwhile": 6670,
      "Ġà¤īà¤łà¤¾à¤¯à¤¾": 6671,
      "Ġà¤¦à¤µà¤¾à¤ıà¤Ĥ": 6672,
      "à¤¡à¥ĩà¤Ł": 6673,
      "Ġà¤«à¤²à¥ĭà¤Ĥ": 6674,
      "à¤ķà¥įà¤·à¥Ģ": 6675,
      "à¤ıà¤ķà¥įà¤¸": 6676,
      "à¤¿à¤Ĥà¤¬": 6677,
      "Ġà¤¸à¤¹à¤®à¤¤à¤¿": 6678,
      "Ġà¤°à¤¹à¥ĩà¤Ĺà¤¾": 6679,
      "Ġà¤®à¤¾à¤°à¤¨à¥ĩ": 6680,
      "(à¤ıà¤®": 6681,
      "Ġà¤ķà¤ªà¥įà¤¤": 6682,
      "à¤µà¤¿à¤¶à¥įà¤µ": 6683,
      "pos": 6684,
      "Ġà¤ľà¥ģà¤Ł": 6685,
      "Ġà¤¨à¤¾à¤¶": 6686,
      "Ġà¤īà¤¨à¥įà¤®": 6687,
      "à¤Ľà¤¾": 6688,
      "Ġà¤Ńà¤°à¤ª": 6689,
      "Ġà¤²à¤¡à¤¼à¤¨à¥ĩ": 6690,
      "Ġà¤ķà¤¥à¤¿à¤¤": 6691,
      "Ġà¤ħà¤¸à¤®à¤°à¥įà¤¥": 6692,
      "Ġà¤¶à¤°à¥įà¤ķà¤°à¤¾": 6693,
      "word": 6694,
      "à¤²à¥Ī": 6695,
      "à¤¡à¥ĩ": 6696,
      "Ġà¤Ĺà¤¯à¥ĩ": 6697,
      "à¥įà¤²à¥ĩà¤·": 6698,
      "Ġword": 6699,
      "Ġà¤ĳà¤ªà¤°": 6700,
      "Ġà¤¸à¥įà¤Łà¥īà¤ķ": 6701,
      "Ġà¤¶à¤¬à¥įà¤¦à¤¾à¤µà¤²à¥Ģ": 6702,
      "à¤µà¤¾à¤¦à¤¿à¤¯à¥ĭà¤Ĥ": 6703,
      "ĠNa": 6704,
      "Ġà¤¨à¤¿à¤°à¥įà¤§à¤¾à¤°à¤£": 6705,
      "Ġà¤¨à¥Įà¤ķà¤°": 6706,
      "Ġà¤°à¥Ģà¤¢à¤¼": 6707,
      "Ġà¤µà¤ķà¥Ģ": 6708,
      "Ġà¤²à¤¿à¤¨": 6709,
      "Ġà¤²à¥īà¤Ĺ": 6710,
      "à¤¾à¤Ĥà¤µ": 6711,
      "Ġà¤¸à¤°à¥įà¤µà¤¶à¥įà¤°à¥ĩà¤·à¥įà¤ł": 6712,
      "Ġà¤¤à¥Ģà¤¸à¤°à¤¾": 6713,
      "Ġà¤ªà¥įà¤°à¤¤à¤¿à¤¯à¥ĭà¤Ĺà¤¿à¤¤à¤¾": 6714,
      "inistry": 6715,
      "à¤¾à¤ªà¥ģà¤°": 6716,
      "Ġop": 6717,
      "Ġà¤µà¤¿à¤ķà¤¾à¤°à¥ĭà¤Ĥ": 6718,
      "Ġà¤ªà¥Īà¤¨": 6719,
      "Ġà¤ªà¥Īà¤¦à¤²": 6720,
      "Ġà¤°à¥Ĥà¤¢à¤¼": 6721,
      "Ġpresent": 6722,
      "eep": 6723,
      "Ġà¤°à¤¿à¤ľ": 6724,
      "Ġà¤ķà¥ĭà¤£": 6725,
      "Ġà¤ħà¤¨à¥įà¤µ": 6726,
      "Ġà¤¡à¤¾à¤²à¤¨à¥ĩ": 6727,
      "Ġà¤ĸà¥ģà¤²à¤¾à¤¸à¤¾": 6728,
      "à¥ģà¤¤à¥įà¤µà¤¾à¤ķ": 6729,
      "Ġà¤¶à¥ĩà¤²": 6730,
      "Ġà¤ķà¥įà¤·à¤¤": 6731,
      "Ġrequ": 6732,
      "Ġà¤¸à¥įà¤Łà¥Ģà¤µ": 6733,
      "Ġà¤īà¤¤à¥įà¤¸à¤µ": 6734,
      "Ġà¤Ĩà¤¹à¥įà¤µà¤¾à¤¨": 6735,
      "Ġà¤Ĺà¤¿à¤¨à¤¤à¥Ģ": 6736,
      "Ġà¤ĵà¤²à¤Ĥà¤ªà¤¿à¤ķ": 6737,
      "Ġà¤¸à¤¿à¤µ": 6738,
      "à¤²à¥įà¤¸": 6739,
      "Ġà¤¸à¤®à¤Ŀà¤¾": 6740,
      "Ġà¤²à¤¿à¤ĸà¥ĩ": 6741,
      "Ġà¤¨à¤°à¤®": 6742,
      "ather": 6743,
      "Ġà¤ªà¥ĩà¤Ĥà¤¸à¤¿à¤²": 6744,
      "Ġà¤µà¥ĭà¤²à¥įà¤Ł": 6745,
      "à¤¶à¤¾à¤²": 6746,
      "Ġà¤Łà¥Ĥ": 6747,
      "à¤°à¥įà¤¦à¤¨": 6748,
      "Ġà¤²à¤¿à¤ĸà¤¤à¥ĩ": 6749,
      "57": 6750,
      "uk": 6751,
      "Ġà¤¬à¥įà¤¯": 6752,
      "à¤¾à¤¦à¥ĩ": 6753,
      "Ġà¤²à¤Ĺà¤¤à¥ĩ": 6754,
      "à¤°à¥įà¤·à¤ķ": 6755,
      "They": 6756,
      "Ġà¤Ķà¤¸à¤¤à¤¨": 6757,
      "Ġà¤¸à¤®à¤Ŀà¥Įà¤¤à¥ĩ": 6758,
      "Ġà¤¸à¤¾à¤Ĺà¤°": 6759,
      "58": 6760,
      "à¤µà¤¾à¤¹à¥Ģ": 6761,
      "Ġà¤ļà¤¾à¤µà¤²": 6762,
      "Ġà¤«à¤¸à¤²à¥ĭà¤Ĥ": 6763,
      "à¤¥à¤¨": 6764,
      "à¥Ĥà¤°à¥įà¤µà¤ķ": 6765,
      "Ġà¤µà¥Īà¤§": 6766,
      "Ġà¤¨à¤¿à¤ķà¤¾à¤¯": 6767,
      "Ġà¤¸à¤¾à¤ĩà¤ķà¤¿à¤²": 6768,
      "Ġà¤Łà¥Ģà¤ķà¤¾à¤ķà¤°à¤£": 6769,
      "68": 6770,
      "air": 6771,
      "son": 6772,
      "Ġthree": 6773,
      "Ġà¤ĸà¤¼": 6774,
      "à¤¾à¤ĩà¤®à¤°": 6775,
      "Ġà¤ªà¥ĩà¤¶à¤ķà¤¶": 6776,
      "Ġà¤¸à¤Ĥà¤ľà¥įà¤ŀà¤¾à¤¨à¤¾à¤¤à¥įà¤®à¤ķ": 6777,
      "Ġà¤ħà¤¨à¤¿à¤¶à¥įà¤ļà¤¿à¤¤": 6778,
      "rans": 6779,
      "à¤ĩà¤¸à¤ķà¤¾": 6780,
      "à¤¾à¤īà¤Ł": 6781,
      "à¤¿à¤Ĥà¤¦à¤¾": 6782,
      "Ġdid": 6783,
      "Ġà¤®à¤¾à¤ĩà¤ķà¤²": 6784,
      "à¤¾à¤Ĥà¤Ĺà¥įà¤²à¤¾à¤¦à¥ĩà¤¶": 6785,
      "\"à¤ļ": 6786,
      "à¤ķà¥Ģà¤¨": 6787,
      "Ġà¤¸à¤ļà¥įà¤ļ": 6788,
      "Ġà¤ªà¤¾à¤¯": 6789,
      "à¥įà¤¤à¤¾": 6790,
      "Ġà¤¸à¤®à¥įà¤°à¤¾à¤Ł": 6791,
      "à¤ħà¤°": 6792,
      "Ġà¤ħà¤¸à¤®à¤¾à¤¨": 6793,
      "ural": 6794,
      "Ġà¤®à¥Ģà¤ł": 6795,
      "à¤Ĥà¤ĺà¤¨": 6796,
      "à¤Ĥà¤ķà¤°": 6797,
      "à¥Ĥà¤Ĥà¤Ĺà¤¾": 6798,
      "à¤¿à¤¸à¥įà¤Łà¥įà¤°": 6799,
      "à¤¿à¤¸à¥įà¤Łà¤°": 6800,
      "Ġà¤®à¤¹à¤²": 6801,
      "Ġwom": 6802,
      "Ġfl": 6803,
      "Ġà¤«à¥įà¤°à¥Īà¤Ĥà¤ķ": 6804,
      "à¤ķà¥įà¤Łà¤°": 6805,
      "à¥įà¤°à¥ĭà¤¹": 6806,
      "Ġà¤ħà¤Ĥà¤¤à¤°à¤¾à¤²": 6807,
      "Ġà¤ķà¥įà¤²à¤¾à¤¸": 6808,
      "1996": 6809,
      "Ġà¤Ĺà¥ĭà¤²à¥įà¤¡": 6810,
      "Ġà¤¸à¥Ĥà¤°à¤ľ": 6811,
      "Ġà¤µà¤¿à¤ľà¥įà¤ŀà¤¾à¤ªà¤¨": 6812,
      "Ġà¤ľà¤¾à¤²à¤ªà¥ĥà¤·à¥įà¤ł": 6813,
      "Ġà¤Łà¥ĩà¤²à¥Ģà¤µ": 6814,
      "Ġà¤µà¤¾à¤·à¥įà¤ª": 6815,
      "Ġà¤ħà¤¤à¤¿": 6816,
      "à¤Ĥà¤Ĺà¤¨à¥Ģ": 6817,
      "Ġà¤¸à¤¾à¤Ĥà¤¦à¥įà¤°à¤¤à¤¾": 6818,
      "Ġà¤ĩà¤®à¤¾à¤°à¤¤à¥ĭà¤Ĥ": 6819,
      "à¤¾à¤§à¥įà¤¯à¤ķà¥įà¤·": 6820,
      "Ġà¤²à¥ģà¤ªà¥įà¤¤à¤ªà¥įà¤°à¤¾à¤¯": 6821,
      "à¤°à¤ĸ": 6822,
      "Ġà¤ľà¤¾à¤¯à¤¾": 6823,
      "à¤¥à¥ĩà¤¨": 6824,
      "Ġserv": 6825,
      "Ġà¤ķà¥įà¤·à¤¤à¤¿": 6826,
      "à¤ħà¤ħ": 6827,
      "Ġà¤ĩà¤¨à¤ķà¥ĩ": 6828,
      "ĠKhan": 6829,
      "Ġplay": 6830,
      "Ġà¤Ĺà¤¡à¥įà¤¢": 6831,
      "à¥ģà¤¤à¥įà¤µà¤¾à¤ķà¤°à¥įà¤·à¤£": 6832,
      "-à¤ľà¤¨à¥įà¤®": 6833,
      "Ġà¤¹à¥ĩà¤¡": 6834,
      "Ġà¤ħà¤¨à¥Ĥà¤ł": 6835,
      "Ġà¤²à¤Ĺà¤¨à¥ĩ": 6836,
      "Ġà¤®à¤¾à¤ªà¤¾": 6837,
      "Ġà¤µà¤¿à¤ľà¥įà¤ŀà¤¾à¤¨à¥Ģ": 6838,
      "Ġà¤īà¤Ńà¤°": 6839,
      "(à¤ıà¤¸": 6840,
      "à¤ķà¤®": 6841,
      "Ġà¤Ĺà¤¹à¤¨": 6842,
      "Ġà¤§à¤¬à¥įà¤¬": 6843,
      "Ġà¤¬à¥Ģà¤¸": 6844,
      "ush": 6845,
      "Ġà¤ªà¥įà¤°à¤¾à¤°à¥įà¤¥": 6846,
      "à¥ģà¤ģà¤¹": 6847,
      "Ġà¤Ĺà¥įà¤°à¤¹à¤£": 6848,
      "Ġà¤ķà¤¥à¤¾": 6849,
      "Ġà¤ĩà¤¸à¥įà¤²à¤¾à¤®": 6850,
      "Ġà¤«à¤¾à¤ĩà¤²": 6851,
      "Ġà¤ĵà¤µà¤°": 6852,
      "à¤¸à¥įà¤ªà¤°": 6853,
      "Ġà¤°à¥Ĥà¤¸à¥Ģ": 6854,
      "à¤®à¥įà¤¬à¤°": 6855,
      "Ġà¤µà¥įà¤¹à¤¾à¤ĩà¤Ł": 6856,
      "Ġà¤§à¥Ģà¤®à¥Ģ": 6857,
      "à¤¨à¤°": 6858,
      "Ġà¤¨à¤²": 6859,
      "Ġà¤¶à¥ģà¤·à¥įà¤ķ": 6860,
      "Ġà¤¡à¤¿à¤ª": 6861,
      "à¤°à¥ĩà¤Łà¤°": 6862,
      "à¤Ĺà¥įà¤°à¤¾à¤®": 6863,
      "eld": 6864,
      "ĠEx": 6865,
      "Ġà¤ªà¥įà¤°à¤¤à¤¿à¤¬à¤Ĥà¤§à¤¿à¤¤": 6866,
      "à¤¨à¤¤": 6867,
      "Ġà¤¦à¥ģà¤°": 6868,
      "Ġà¤ĸà¤¾à¤¤à¤¾": 6869,
      "Ġà¤ħà¤ªà¥Ģà¤²": 6870,
      "Ġà¤²à¤Ĺà¤¤à¥Ģ": 6871,
      "Ġà¤¨à¥Ģà¤²à¥ĩ": 6872,
      "Ġevery": 6873,
      "Ġà¤µà¤¿à¤¦à¥įà¤°à¥ĭà¤¹": 6874,
      "Ġà¤ªà¤¹à¥ģà¤Ĥà¤ļà¤¾": 6875,
      "ific": 6876,
      "Ġà¤ħà¤¸à¥įà¤¥à¤¾à¤¯à¥Ģ": 6877,
      "Ġà¤ľà¤°à¥Ĥà¤°à¤¤à¥ĭà¤Ĥ": 6878,
      "Ġà¤§à¥ĭà¤ĸ": 6879,
      "Ġà¤ªà¥įà¤°à¤ļà¥ģà¤°": 6880,
      "Ġà¤ħà¤£à¥ģ": 6881,
      "Ġà¤¬à¥įà¤¯à¥Ĥ": 6882,
      "Ġà¤ķà¤¹à¥ĩà¤Ĥ": 6883,
      "Ġà¤µà¥Īà¤ķà¥įà¤¸": 6884,
      "Ġà¤¨à¤¿à¤·à¥įà¤ķà¥įà¤°à¤¿à¤¯": 6885,
      "Ġinvest": 6886,
      "Ġà¤®à¥īà¤¨": 6887,
      "à¤²à¤®": 6888,
      "any": 6889,
      "Ġà¤¡à¥įà¤¯à¥Ĥ": 6890,
      "read": 6891,
      "à¤¤à¥įà¤¤à¤®": 6892,
      "Ġà¤ĸà¥ĩà¤¤à¥ĭà¤Ĥ": 6893,
      "Ġà¤Ĩà¤²à¥ĭà¤ļà¤¨à¤¾": 6894,
      "à¥ģà¤°à¥Ģ": 6895,
      "à¤¿à¤¤à¤¾à¤ĵà¤Ĥ": 6896,
      "à¤¾à¤µà¤¿à¤ķ": 6897,
      "Ġà¤ĺà¤¡à¤¼à¥Ģ": 6898,
      "Ġà¤²à¤Ĺà¤¾à¤ıà¤Ĥ": 6899,
      "Ġdes": 6900,
      "Ġà¤¸à¥įà¤ķà¥įà¤µ": 6901,
      "à¥īà¤²à¥įà¤Ł": 6902,
      "Ġà¤¶à¥įà¤°à¥ĩà¤¯": 6903,
      "Ġà¤Ĺà¥įà¤°à¤¹à¥ĭà¤Ĥ": 6904,
      "Ġà¤ļà¤Łà¥įà¤Łà¤¾à¤¨à¥ĭà¤Ĥ": 6905,
      "à¤°à¤¿à¤µ": 6906,
      "à¤¤à¤¾à¤Ľ": 6907,
      "Ġà¤ľà¤¯": 6908,
      "Ġà¤ļà¥ĩà¤ķ": 6909,
      "Ġà¤ĵà¤®": 6910,
      "ick": 6911,
      "à¤¿à¤¬à¥įà¤°": 6912,
      "Ġà¤®à¥ģà¤Ĥà¤¬à¤Ī": 6913,
      "Ġà¤ħà¤Ĥà¤Ĺà¥ĭà¤Ĥ": 6914,
      "Ġà¤ĸà¤¤à¤°à¥ĭà¤Ĥ": 6915,
      "Ġà¤ªà¤°à¤¿à¤ķà¤²à¥įà¤ªà¤¨à¤¾": 6916,
      "à¥ĭà¤ļ": 6917,
      "Ġà¤°à¥ĩà¤¸": 6918,
      "Ġà¤¸à¤®à¤Ŀà¤¾à¤¯à¤¾": 6919,
      "Ġlife": 6920,
      "Ġà¤ħà¤²à¤Ĺà¤¾à¤µ": 6921,
      "Ġà¤īà¤®à¥įà¤®à¥Ģà¤¦à¤µà¤¾à¤°": 6922,
      "Ġà¤ªà¥įà¤°à¥ĭà¤Łà¥ĭà¤ķ": 6923,
      "ured": 6924,
      "à¤¶à¤¾": 6925,
      "à¤¾à¤µà¥Ģ": 6926,
      "Ġset": 6927,
      "à¤ķà¥Ģà¤°à¥įà¤£": 6928,
      "à¤Ĥà¤ľà¤¾": 6929,
      "Ġà¤Ĺà¤£à¤¿à¤¤à¥Ģà¤¯": 6930,
      "Ġà¤Ńà¥įà¤°à¥Ĥà¤£": 6931,
      "Ġà¤ªà¥ģà¤¨à¤°à¥įà¤¨à¤¿à¤°à¥įà¤®à¤¾à¤£": 6932,
      "Ġà¤¨à¤¾": 6933,
      "ample": 6934,
      "Ġà¤¬à¥įà¤°à¤¾à¤ī": 6935,
      "Ġà¤®à¥ģà¤¹": 6936,
      "Ġà¤¢à¥ĩà¤°": 6937,
      "Ġspec": 6938,
      "Ġà¤ªà¥īà¤²à¥Ģ": 6939,
      "Ġà¤ļà¥Ĥà¤¹à¥ĭà¤Ĥ": 6940,
      "Ġà¤ªà¥Ĥà¤°à¥įà¤µà¤¾à¤¨à¥ģà¤®à¤¾à¤¨": 6941,
      "ful": 6942,
      "ix": 6943,
      "way": 6944,
      "Ġà¤ľà¤¾à¤Ĺ": 6945,
      "Ġà¤¡à¤¿à¤µ": 6946,
      "Ġà¤Ľà¥Ĥà¤Ł": 6947,
      "à¥ģà¤²à¤¿à¤¤": 6948,
      "à¤¾à¤£à¥ģà¤ĵà¤Ĥ": 6949,
      "Ġà¤µà¤¿à¤²à¥ģà¤ªà¥įà¤¤": 6950,
      "Ġà¤®à¤Ľà¤²à¤¿à¤¯à¥ĭà¤Ĥ": 6951,
      "à¤¯à¤¾à¤¨à¤ķ": 6952,
      "Ġà¤ļà¥ģà¤Ĥà¤¬à¤ķà¥Ģà¤¯": 6953,
      "Ġà¤ĺà¥ĭà¤Ĥà¤¸à¤²à¥ĩ": 6954,
      "Ġà¤®à¥ĭà¤°": 6955,
      "Ġà¤ľà¤¾à¤µà¤¾": 6956,
      "Ġà¤²à¥ĭà¤¡": 6957,
      "à¤µà¤Ĥà¤¶": 6958,
      "Ġà¤Ĺà¥ĩà¤Ł": 6959,
      "Ġcourt": 6960,
      "Ġà¤ħà¤¸à¤¾à¤§à¤¾à¤°à¤£": 6961,
      "Ġà¤¦à¥Ģà¤ª": 6962,
      "Ġla": 6963,
      "Ġà¤īà¤²à¥įà¤²à¤Ĥà¤ĺà¤¨": 6964,
      "Ġà¤¸à¤²à¤¾à¤¹à¤ķà¤¾à¤°": 6965,
      "Ġà¤µà¥ī": 6966,
      "à¤¿à¤¯à¤¾à¤ıà¤ģ": 6967,
      "à¤¡à¥įà¤¸": 6968,
      "Ġà¤¦à¥ĩà¤°à¥Ģ": 6969,
      "Ġà¤°à¤¾à¤ľà¤¸à¥įà¤µ": 6970,
      "conom": 6971,
      "à¤¹à¤¸à¤¾à¤¸": 6972,
      "(C": 6973,
      "Ġà¤®à¥ģà¤ģà¤¹": 6974,
      "à¤ªà¥įà¤ª": 6975,
      "Ġà¤¨à¤¿à¤®": 6976,
      "ink": 6977,
      "à¤¾à¤ľà¤ķ": 6978,
      "Ġà¤Łà¥ĭà¤ķ": 6979,
      "Ġà¤īà¤¤à¤¾à¤°": 6980,
      "Ġbl": 6981,
      "Ġà¤ħà¤µà¤¿à¤¶à¥įà¤µ": 6982,
      "ters": 6983,
      "Ġà¤¸à¥Ģà¤ĸà¤¨à¤¾": 6984,
      "Ġà¤ķà¤µà¤ķ": 6985,
      "Ġaccused": 6986,
      "Ġà¤®à¥ĭà¤Łà¤¾à¤ªà¥ĩ": 6987,
      "Ġà¤µà¥Īà¤¨": 6988,
      "Ġà¤¬à¥ģà¤°": 6989,
      "à¤¬à¤¿à¤¨": 6990,
      "à¥įà¤ķà¥Ģ": 6991,
      "à¥ģà¤²à¤°": 6992,
      "à¥ĩà¤ķà¥įà¤¶à¤¨": 6993,
      "à¥ĩà¤¡à¤¿à¤Ł": 6994,
      "ĠMan": 6995,
      "Ġà¤«à¥Īà¤²à¤¾": 6996,
      "Ġà¤¶à¤¿à¤ĸà¤°": 6997,
      "uch": 6998,
      "Ġà¤¸à¤¸à¥įà¤¤": 6999,
      "Ġà¤ķà¤°à¥ĩ": 7000,
      "à¤¸à¥ĩà¤«": 7001,
      "Ġà¤Ĺà¥ģà¤°à¥ģà¤¤à¥įà¤µà¤¾à¤ķà¤°à¥įà¤·à¤£": 7002,
      "pro": 7003,
      "à¤¿à¤Ľ": 7004,
      "Ġà¤¬à¤²à¥ĭà¤Ĥ": 7005,
      "à¤¸à¥ĩà¤¨": 7006,
      "Ġà¤¸à¤°à¤¾à¤¹": 7007,
      "Ġà¤Ĩà¤¯à¤¾à¤®": 7008,
      "à¥ĩà¤¯à¤°à¥Ģ": 7009,
      "à¤¸à¤®à¤¸à¥įà¤¯": 7010,
      "Ġdiff": 7011,
      "Ġà¤ľà¥īà¤°à¥įà¤ľà¤¿à¤¯à¤¾": 7012,
      "Ġà¤Ńà¥ĩà¤¦à¤Ńà¤¾à¤µ": 7013,
      "Ġà¤ĳà¤ªà¤°à¥ĩà¤¶à¤¨": 7014,
      "56": 7015,
      "ved": 7016,
      "Ġà¤ħà¤¡à¥įà¤¡": 7017,
      "Ġà¤Ĺà¤°à¥įà¤¦à¤¨": 7018,
      "à¤¿à¤Ĺà¤°": 7019,
      "Ġà¤īà¤¦à¤¾à¤¹à¤°à¤£à¥ĭà¤Ĥ": 7020,
      "Ġà¤ľà¥Ĥà¤¨à¤¿à¤¯à¤°": 7021,
      "Ġà¤ªà¥Ĥà¤Ľà¤¤à¤¾à¤Ľ": 7022,
      "Ġà¤ªà¤Łà¥įà¤Łà¥Ģ": 7023,
      ",\"\"": 7024,
      "oad": 7025,
      "Ġà¤¬à¤¨à¤¤à¥Ģ": 7026,
      "à¥ĭà¤¤à¥įà¤¤à¤°": 7027,
      "Ġà¤¤à¥Ģà¤¨à¥ĭà¤Ĥ": 7028,
      "à¥ĩà¤ľà¤¼à¥Ģ": 7029,
      "à¥įà¤¯à¤¿à¤ķà¥Ģà¤¯": 7030,
      "Ġà¤¹à¤¾à¤ĩà¤¡à¥įà¤°à¥ĭà¤ľà¤¨": 7031,
      "Ġà¤¸à¤Ĥà¤ľà¥įà¤ŀ": 7032,
      "ines": 7033,
      "Ġà¤²à¥ĭà¤ķà¤¤à¤Ĥà¤¤à¥įà¤°": 7034,
      "à¥ģà¤ĩà¤¸": 7035,
      "Ġà¤¤à¥įà¤°à¥ģà¤Łà¤¿": 7036,
      "Ġdistrict": 7037,
      "(à¤īà¤¤à¥įà¤¤à¤°": 7038,
      "77": 7039,
      "à¤¸à¥ĭà¤Ĥ": 7040,
      "Ġà¤¨à¥ĭ": 7041,
      "Ġà¤ªà¥įà¤°à¤¿à¤¯": 7042,
      "à¤ļà¤¯": 7043,
      "à¥Ģà¤²à¥Īà¤Ĥà¤¡": 7044,
      "Ġà¤¶à¤¿à¤ķà¥įà¤·à¤¿à¤¤": 7045,
      "Ġà¤µà¤¾à¤°à¥įà¤®": 7046,
      "Ġà¤¸à¤¾à¤Ĥà¤¸à¤¦": 7047,
      "Ġà¤¸à¤®à¤Ŀà¥Įà¤¤à¤¾": 7048,
      "Ġà¤ªà¥įà¤°à¥ĭà¤Łà¥ĭà¤ķà¥īà¤²": 7049,
      "Ġà¤ķà¥ĩà¤¨à¥įà¤¦à¥įà¤°": 7050,
      "à¤¾à¤Ĥà¤Ľ": 7051,
      "Ġà¤«à¥Ģ": 7052,
      "Ġà¤«à¥īà¤°": 7053,
      "ism": 7054,
      "Ġmay": 7055,
      "Ġà¤Łà¥Ģà¤ķà¥ĩ": 7056,
      "1997": 7057,
      "Ġà¤ħà¤ķà¥įà¤·à¤¯": 7058,
      "Ġà¤ħà¤¸à¥įà¤¥à¤¿à¤°": 7059,
      "Ġà¤ĳà¤¸à¥įà¤Łà¥įà¤°à¥ĩà¤²à¤¿à¤¯à¤¾à¤Ī": 7060,
      "88": 7061,
      "Ġà¤ªà¤¾à¤°à¤¾": 7062,
      "à¤¡à¤¼à¤¨": 7063,
      "Ġcurrent": 7064,
      "Ġà¤ħà¤¨à¥ģà¤¬à¤Ĥà¤§": 7065,
      "ĠAs": 7066,
      "à¤¿à¤«à¤¼": 7067,
      "à¤¤à¤¾à¤ªà¥Ĥà¤°à¥įà¤µà¤ķ": 7068,
      "Ġà¤ªà¥ĩà¤°à¤¿à¤¸": 7069,
      "Ġend": 7070,
      "Ġà¤¬à¤Ĺà¤²": 7071,
      "Ġà¤Ńà¤¯à¤¾à¤¨à¤ķ": 7072,
      "Ġà¤ļà¥Ĥ": 7073,
      "à¤¿à¤²à¥įà¤²": 7074,
      "Ġà¤ķà¤¿à¤°à¤£": 7075,
      "à¤¾à¤ľà¥Ģà¤²": 7076,
      "Ġfamil": 7077,
      "(à¤ľà¥ĭ": 7078,
      "Ġà¤ħà¤Ńà¤¿à¤¨à¥ĩà¤¤à¤¾": 7079,
      "oor": 7080,
      "Ġà¤¸à¤µ": 7081,
      "à¤¸à¤Ĥà¤Ĺà¤¤": 7082,
      "à¤¿à¤¯à¤¾à¤ĥ": 7083,
      "Ġà¤¸à¥ĩà¤¨": 7084,
      "Ġà¤Ĺà¤²à¥ĩ": 7085,
      "à¤ķà¥įà¤°à¤¿à¤¯à¤¾": 7086,
      "à¤µà¥įà¤¯à¤¾à¤ªà¥Ģ": 7087,
      "Ġdef": 7088,
      "Ġright": 7089,
      "Ġdire": 7090,
      "Ġimport": 7091,
      "Ġà¤®à¤¿à¤¶à¥įà¤°à¤¿à¤¤": 7092,
      "Ġà¤Ĩà¤ķà¤¾à¤¶à¤Ĺà¤Ĥà¤Ĺà¤¾": 7093,
      "à¤¾à¤¹à¤¨": 7094,
      "Ġà¤¬à¤¨à¤¤à¥ĩ": 7095,
      "Ġback": 7096,
      "Ġà¤¦à¤°à¥įà¤¶à¤¾à¤¤à¥Ģ": 7097,
      "(S": 7098,
      "à¤¨à¤¿à¤®à¥įà¤¨": 7099,
      "à¤¦à¤¾à¤¯à¤ķ": 7100,
      "à¤°à¥ĩà¤ľ": 7101,
      "lect": 7102,
      "Ġà¤¬à¥įà¤°à¤¾à¤Ĥà¤¡": 7103,
      "Ġà¤Ĺà¥Īà¤²": 7104,
      "à¥ģà¤¸à¤¾à¤°": 7105,
      "ĠState": 7106,
      "Ġà¤¬à¤¿à¤¸à¥įà¤¤à¤°": 7107,
      "ror": 7108,
      "ys": 7109,
      "Ġà¤ªà¥ĭà¤·à¤¿à¤¤": 7110,
      "Ġà¤ľà¤¾à¤¯": 7111,
      "Ġà¤ľà¤¾à¤¦": 7112,
      "Ġà¤ħà¤¨à¥ĩà¤ķ": 7113,
      "Ġà¤Ĺà¥Į": 7114,
      "Ġà¤Ńà¤¿à¤¤à¥įà¤¤": 7115,
      "à¥įà¤²à¥ĭ": 7116,
      "à¥įà¤¯à¥Ĥà¤®": 7117,
      "ĠPresident": 7118,
      "aking": 7119,
      "Ġà¤īà¤łà¤¾": 7120,
      "Ġà¤¡à¥īà¤ķà¥įà¤Łà¤°à¥ĭà¤Ĥ": 7121,
      "Ġà¤¬à¥ĭà¤²à¥Ģ": 7122,
      "Ġà¤īà¤Ĥà¤Ĺà¤²": 7123,
      "Ġà¤ĩà¤Ĥà¤Ł": 7124,
      "Ġsoc": 7125,
      "Ġcre": 7126,
      "Ġfollow": 7127,
      "à¥ĩà¤ķà¥įà¤Łà¥įà¤°": 7128,
      "Ġà¤¦à¤¿à¤ĸà¤¾à¤¤à¤¾": 7129,
      "umar": 7130,
      "line": 7131,
      "Ġà¤¸à¤¾à¤ĩà¤¨": 7132,
      "à¤ªà¤¾à¤¤": 7133,
      "Ġà¤¬à¥ĩà¤ķ": 7134,
      "Ġà¤¤à¤Ńà¥Ģ": 7135,
      "Ġthose": 7136,
      "Ġà¤¸à¤®à¥ĩà¤¤": 7137,
      "à¤¸à¥įà¤¤à¥įà¤°": 7138,
      "à¥įà¤¯à¥Ĥà¤ľ": 7139,
      "ility": 7140,
      "à¥ľà¥ĩ": 7141,
      "Ġà¤ªà¥įà¤°à¤¤à¤¿à¤ķà¥įà¤°à¤¿à¤¯à¤¾à¤ĵà¤Ĥ": 7142,
      "Ġà¤ķà¤ªà¥Ĥà¤°": 7143,
      "Ġà¤®à¥ĭà¤Łà¥ĩ": 7144,
      "à¤¸à¤®à¤¸à¥įà¤¯à¤¾à¤ĥ": 7145,
      "ML": 7146,
      "dra": 7147,
      "ues": 7148,
      "à¤ķà¤¾à¤¨": 7149,
      "Ġà¤ªà¥įà¤°à¤¾à¤µ": 7150,
      "Ġà¤Ĺà¥ĩà¤¹": 7151,
      "Ġà¤¬à¤¤à¤¾à¤¨à¥ĩ": 7152,
      "Ġà¤Ńà¥Ĥà¤µ": 7153,
      "Ġà¤ľà¤¿à¤¤à¤¨à¥Ģ": 7154,
      "à¤°à¤ĸà¤¾à¤µ": 7155,
      "Ġà¤ªà¤¾à¤¨à¥ĩ": 7156,
      "à¥ĩà¤¶à¥įà¤µà¤°": 7157,
      "Ġà¤ķà¥įà¤·à¤®à¤¤à¤¾à¤ĵà¤Ĥ": 7158,
      "Ġà¤ĸà¥ģà¤²à¤¾": 7159,
      "wn": 7160,
      "Ġà¤¸à¤¾à¤§à¤¾à¤°": 7161,
      "Ġà¤ĳà¤¨": 7162,
      "à¤¯à¤¹à¤¾à¤ģ": 7163,
      "Ġà¤ĩà¤ķà¤¾à¤ĩà¤¯à¥ĭà¤Ĥ": 7164,
      "à¤¾à¤Ĥà¤Łà¤®": 7165,
      "Ġworld": 7166,
      "Ġà¤ħà¤µà¤¶à¥ĭà¤·à¤¿à¤¤": 7167,
      "As": 7168,
      "Ġà¤ªà¤Ĥà¤ª": 7169,
      "Ġà¤¹à¥ĭà¤Ĥà¤Ĺà¥Ģ": 7170,
      "Ġà¤¤à¤¾à¤²à¤¾à¤¬": 7171,
      "Ġà¤ħà¤ªà¤¨à¤¾à¤¯à¤¾": 7172,
      "Ġà¤ªà¥įà¤°à¤¤à¤¿à¤¬à¤¿à¤Ĥà¤¬": 7173,
      "Ġà¤īà¤ªà¤¾à¤¯à¥ĭà¤Ĥ": 7174,
      "Ġyears": 7175,
      "Ġà¤¸à¤¾à¤§à¤¾à¤°à¤£": 7176,
      "Ġà¤ķà¥ģà¤°": 7177,
      "Ġà¤ħà¤Ĥà¤ķà¥ĭà¤Ĥ": 7178,
      "Ġà¤®à¥ģà¤ĸà¥įà¤¯à¤¾à¤²à¤¯": 7179,
      "Ġà¤¬à¥įà¤°à¤¾à¤īà¤¨": 7180,
      "Ġwhere": 7181,
      "Ġshe": 7182,
[...]
