{
  "version": "1.0",
  "truncation": null,
  "padding": null,
  "added_tokens": [
    {
      "id": 0,
      "content": "<pad>",
      "single_word": false,
      "lstrip": false,
      "rstrip": false,
      "normalized": false,
      "special": true
    },
    {
      "id": 1,
      "content": "<s>",
      "single_word": false,
      "lstrip": false,
      "rstrip": false,
      "normalized": false,
      "special": true
    },
    {
      "id": 2,
      "content": "</s>",
      "single_word": false,
      "lstrip": false,
      "rstrip": false,
      "normalized": false,
      "special": true
    },
    {
      "id": 3,
      "content": "<unk>",
      "single_word": false,
      "lstrip": false,
      "rstrip": false,
      "normalized": false,
      "special": true
    },
    {
      "id": 4,
      "content": "<|im_start|>",
      "single_word": false,
      "lstrip": false,
      "rstrip": false,
      "normalized": false,
      "special": true
    },
    {
      "id": 5,
      "content": "<|im_end|>",
      "single_word": false,
      "lstrip": false,
      "rstrip": false,
      "normalized": false,
      "special": true
    },
    {
      "id": 6,
      "content": "<|system|>",
      "single_word": false,
      "lstrip": false,
      "rstrip": false,
      "normalized": false,
      "special": true
    },
    {
      "id": 7,
      "content": "<|user|>",
      "single_word": false,
      "lstrip": false,
      "rstrip": false,
      "normalized": false,
      "special": true
    },
    {
      "id": 8,
      "content": "<|assistant|>",
      "single_word": false,
      "lstrip": false,
      "rstrip": false,
      "normalized": false,
      "special": true
    },
    {
      "id": 9,
      "content": "<|thought|>",
      "single_word": false,
      "lstrip": false,
      "rstrip": false,
      "normalized": false,
      "special": true
    },
    {
      "id": 10,
      "content": "</|thought|>",
      "single_word": false,
      "lstrip": false,
      "rstrip": false,
      "normalized": false,
      "special": true
    },
    {
      "id": 11,
      "content": "<|reasoning|>",
      "single_word": false,
      "lstrip": false,
      "rstrip": false,
      "normalized": false,
      "special": true
    },
    {
      "id": 12,
      "content": "</|reasoning|>",
      "single_word": false,
      "lstrip": false,
      "rstrip": false,
      "normalized": false,
      "special": true
    },
    {
      "id": 13,
      "content": "<|call:tool|>",
      "single_word": false,
      "lstrip": false,
      "rstrip": false,
      "normalized": false,
      "special": true
    },
    {
      "id": 14,
      "content": "<|tool_output|>",
      "single_word": false,
      "lstrip": false,
      "rstrip": false,
      "normalized": false,
      "special": true
    },
    {
      "id": 15,
      "content": "```python",
      "single_word": false,
      "lstrip": false,
      "rstrip": false,
      "normalized": false,
      "special": true
    },
    {
      "id": 16,
      "content": "```json",
      "single_word": false,
      "lstrip": false,
      "rstrip": false,
      "normalized": false,
      "special": true
    },
    {
      "id": 17,
      "content": "```cpp",
      "single_word": false,
      "lstrip": false,
      "rstrip": false,
      "normalized": false,
      "special": true
    },
    {
      "id": 18,
      "content": "```rust",
      "single_word": false,
      "lstrip": false,
      "rstrip": false,
      "normalized": false,
      "special": true
    },
    {
      "id": 19,
      "content": "```sql",
      "single_word": false,
      "lstrip": false,
      "rstrip": false,
      "normalized": false,
      "special": true
    },
    {
      "id": 20,
      "content": "User:",
      "single_word": false,
      "lstrip": false,
      "rstrip": false,
      "normalized": false,
      "special": true
    },
    {
      "id": 21,
      "content": "Assistant:",
      "single_word": false,
      "lstrip": false,
      "rstrip": false,
      "normalized": false,
      "special": true
    },
    {
      "id": 22,
      "content": "System:",
      "single_word": false,
      "lstrip": false,
      "rstrip": false,
      "normalized": false,
      "special": true
    }
  ],
  "normalizer": null,
  "pre_tokenizer": {
    "type": "ByteLevel",
    "add_prefix_space": false,
    "trim_offsets": true,
    "use_regex": true
  },
  "post_processor": null,
  "decoder": {
    "type": "ByteLevel",
    "add_prefix_space": true,
    "trim_offsets": true,
    "use_regex": true
  },
  "model": {
    "type": "BPE",
    "dropout": null,
    "unk_token": null,
    "continuing_subword_prefix": null,
    "end_of_word_suffix": null,
    "fuse_unk": false,
    "byte_fallback": false,
    "ignore_merges": false,
    "vocab": {
      "<pad>": 0,
      "<s>": 1,
      "</s>": 2,
      "<unk>": 3,
      "<|im_start|>": 4,
      "<|im_end|>": 5,
      "<|system|>": 6,
      "<|user|>": 7,
      "<|assistant|>": 8,
      "<|thought|>": 9,
      "</|thought|>": 10,
      "<|reasoning|>": 11,
      "</|reasoning|>": 12,
      "<|call:tool|>": 13,
      "<|tool_output|>": 14,
      "```python": 15,
      "```json": 16,
      "```cpp": 17,
      "```rust": 18,
      "```sql": 19,
      "User:": 20,
      "Assistant:": 21,
      "System:": 22,
      "!": 23,
      "\"": 24,
      "#": 25,
      "$": 26,
      "%": 27,
      "&": 28,
      "'": 29,
      "(": 30,
      ")": 31,
      "*": 32,
      "+": 33,
      ",": 34,
      "-": 35,
      ".": 36,
      "/": 37,
      "0": 38,
      "1": 39,
      "2": 40,
      "3": 41,
      "4": 42,
      "5": 43,
      "6": 44,
      "7": 45,
      "8": 46,
      "9": 47,
      ":": 48,
      ";": 49,
      "<": 50,
      "=": 51,
      ">": 52,
      "?": 53,
      "@": 54,
      "A": 55,
      "B": 56,
      "C": 57,
      "D": 58,
      "E": 59,
      "F": 60,
      "G": 61,
      "H": 62,
      "I": 63,
      "J": 64,
      "K": 65,
      "L": 66,
      "M": 67,
      "N": 68,
      "O": 69,
      "P": 70,
      "Q": 71,
      "R": 72,
      "S": 73,
      "T": 74,
      "U": 75,
      "V": 76,
      "W": 77,
      "X": 78,
      "Y": 79,
      "Z": 80,
      "[": 81,
      "\\": 82,
      "]": 83,
      "^": 84,
      "_": 85,
      "`": 86,
      "a": 87,
      "b": 88,
      "c": 89,
      "d": 90,
      "e": 91,
      "f": 92,
      "g": 93,
      "h": 94,
      "i": 95,
      "j": 96,
      "k": 97,
      "l": 98,
      "m": 99,
      "n": 100,
      "o": 101,
      "p": 102,
      "q": 103,
      "r": 104,
      "s": 105,
      "t": 106,
      "u": 107,
      "v": 108,
      "w": 109,
      "x": 110,
      "y": 111,
      "z": 112,
      "{": 113,
      "|": 114,
      "}": 115,
      "~": 116,
      "¡": 117,
      "¢": 118,
      "£": 119,
      "¤": 120,
      "¥": 121,
      "¦": 122,
      "§": 123,
      "¨": 124,
      "©": 125,
      "ª": 126,
      "«": 127,
      "¬": 128,
      "®": 129,
      "¯": 130,
      "°": 131,
      "±": 132,
      "²": 133,
      "³": 134,
      "´": 135,
      "µ": 136,
      "¶": 137,
      "·": 138,
      "¸": 139,
      "¹": 140,
      "º": 141,
      "»": 142,
      "¼": 143,
      "½": 144,
      "¾": 145,
      "¿": 146,
      "À": 147,
      "Á": 148,
      "Â": 149,
      "Ã": 150,
      "Ä": 151,
      "Å": 152,
      "Æ": 153,
      "Ç": 154,
      "È": 155,
      "É": 156,
      "Ê": 157,
      "Ë": 158,
      "Ì": 159,
      "Í": 160,
      "Î": 161,
      "Ï": 162,
      "Ð": 163,
      "Ñ": 164,
      "Ò": 165,
      "Ó": 166,
      "Ô": 167,
      "Õ": 168,
      "Ö": 169,
      "×": 170,
      "Ø": 171,
      "Ù": 172,
      "Ú": 173,
      "Û": 174,
      "Ü": 175,
      "Ý": 176,
      "Þ": 177,
      "ß": 178,
      "à": 179,
      "á": 180,
      "â": 181,
      "ã": 182,
      "ä": 183,
      "å": 184,
      "æ": 185,
      "ç": 186,
      "è": 187,
      "é": 188,
      "ê": 189,
      "ë": 190,
      "ì": 191,
      "í": 192,
      "î": 193,
      "ï": 194,
      "ð": 195,
      "ñ": 196,
      "ò": 197,
      "ó": 198,
      "ô": 199,
      "õ": 200,
      "ö": 201,
      "÷": 202,
      "ø": 203,
      "ù": 204,
      "ú": 205,
      "û": 206,
      "ü": 207,
      "ý": 208,
      "þ": 209,
      "ÿ": 210,
      "Ā": 211,
      "ā": 212,
      "Ă": 213,
      "ă": 214,
      "Ą": 215,
      "ą": 216,
      "Ć": 217,
      "ć": 218,
      "Ĉ": 219,
      "ĉ": 220,
      "Ċ": 221,
      "ċ": 222,
      "Č": 223,
      "č": 224,
      "Ď": 225,
      "ď": 226,
      "Đ": 227,
      "đ": 228,
      "Ē": 229,
      "ē": 230,
      "Ĕ": 231,
      "ĕ": 232,
      "Ė": 233,
      "ė": 234,
      "Ę": 235,
      "ę": 236,
      "Ě": 237,
      "ě": 238,
      "Ĝ": 239,
      "ĝ": 240,
      "Ğ": 241,
      "ğ": 242,
      "Ġ": 243,
      "ġ": 244,
      "Ģ": 245,
      "ģ": 246,
      "Ĥ": 247,
      "ĥ": 248,
      "Ħ": 249,
      "ħ": 250,
      "Ĩ": 251,
      "ĩ": 252,
      "Ī": 253,
      "ī": 254,
      "Ĭ": 255,
      "ĭ": 256,
      "Į": 257,
      "į": 258,
      "İ": 259,
      "ı": 260,
      "Ĳ": 261,
      "ĳ": 262,
      "Ĵ": 263,
      "ĵ": 264,
      "Ķ": 265,
      "ķ": 266,
      "ĸ": 267,
      "Ĺ": 268,
      "ĺ": 269,
      "Ļ": 270,
      "ļ": 271,
      "Ľ": 272,
      "ľ": 273,
      "Ŀ": 274,
      "ŀ": 275,
      "Ł": 276,
      "ł": 277,
      "Ń": 278,
      "Ġa": 279,
      "Ġt": 280,
      "in": 281,
      "he": 282,
      "re": 283,
      "at": 284,
      "on": 285,
      "er": 286,
      "Ġc": 287,
      "st": 288,
      "an": 289,
      "Ġthe": 290,
      "or": 291,
      "Ġan": 292,
      "Ġ\"": 293,
      "ou": 294,
      "le": 295,
      "ing": 296,
      "Ġs": 297,
      "en": 298,
      "Ġw": 299,
      "it": 300,
      "Ġf": 301,
      "al": 302,
      "Ġb": 303,
      "Ġp": 304,
      "Ġo": 305,
      "ar": 306,
      "ed": 307,
      "ĠA": 308,
      "Ġand": 309,
      "is": 310,
      "es": 311,
      "ion": 312,
      "Ġin": 313,
      "Ġto": 314,
      "Ġd": 315,
      "Ġm": 316,
      "as": 317,
      "Ġof": 318,
      "\":": 319,
      "ct": 320,
      "ly": 321,
      "ĠT": 322,
      "ant": 323,
      "ro": 324,
      "ic": 325,
      "\",": 326,
      "ra": 327,
      "us": 328,
      "ent": 329,
      "Ġn": 330,
      "Ġe": 331,
      "ist": 332,
      "Ġth": 333,
      "ate": 334,
      "Ġre": 335,
      "et": 336,
      "Ġy": 337,
      "Ġh": 338,
      "lo": 339,
      "om": 340,
      "``": 341,
      "Ġyou": 342,
      "sist": 343,
      "de": 344,
      "ve": 345,
      "im": 346,
      "sistant": 347,
      "Ġas": 348,
      "Ġis": 349,
      "ur": 350,
      "ĠAI": 351,
      "em": 352,
      "ĠI": 353,
      "Ġare": 354,
      "ch": 355,
      "ation": 356,
      "ul": 357,
      "Ġg": 358,
      "il": 359,
      "ol": 360,
      "Ġst": 361,
      "ĠS": 362,
      "Ġfor": 363,
      ".\",": 364,
      "Ġby": 365,
      "ĠC": 366,
      "un": 367,
      "am": 368,
      "ut": 369,
      "el": 370,
      "Ġpro": 371,
      "Ġl": 372,
      "ith": 373,
      "ce": 374,
      "ig": 375,
      "Ġ1": 376,
      "Ġhe": 377,
      "um": 378,
      "You": 379,
      "Ġcre": 380,
      "ow": 381,
      "ver": 382,
      "čĊ": 383,
      "\\\"": 384,
      "ĠB": 385,
      "ory": 386,
      "Ġthat": 387,
      "ple": 388,
      "yst": 389,
      "Ġcon": 390,
      "Ġus": 391,
      "ystem": 392,
      "ay": 393,
      "ated": 394,
      "th": 395,
      "ction": 396,
      "tu": 397,
      "Ġex": 398,
      "Ġbe": 399,
      "if": 400,
      "Ġon": 401,
      "ĠThe": 402,
      "ode": 403,
      "Ġal": 404,
      "Ġwith": 405,
      "Ġ=": 406,
      "ir": 407,
      "```": 408,
      "ge": 409,
      "Ġ(": 410,
      "lya": 411,
      "tulya": 412,
      "'s": 413,
      "id": 414,
      "ĠAtulya": 415,
      "ĠW": 416,
      "ad": 417,
      "Ġ```": 418,
      "Ġde": 419,
      "Ġv": 420,
      "Ġcom": 421,
      "user": 422,
      "ateg": 423,
      "system": 424,
      "ĠP": 425,
      "ot": 426,
      "Ġit": 427,
      "assistant": 428,
      "se": 429,
      "ter": 430,
      "ri": 431,
      "ategory": 432,
      "Ġ2": 433,
      "Ġcreated": 434,
      "ĠH": 435,
      "Ġ`": 436,
      "category": 437,
      "antra": 438,
      "{\"": 439,
      "\"}": 440,
      "ment": 441,
      "ĠTantra": 442,
      "and": 443,
      "Ġassistant": 444,
      "qu": 445,
      "pp": 446,
      "ĠE": 447,
      "\\\\": 448,
      "Ġcan": 449,
      "ab": 450,
      "ĠM": 451,
      "ers": 452,
      "Ġ-": 453,
      "ain": 454,
      "ĠR": 455,
      "Ġne": 456,
      "res": 457,
      "Ġor": 458,
      "od": 459,
      "Ġwe": 460,
      "ke": 461,
      "out": 462,
      "nt": 463,
      "ĠD": 464,
      "Ġwh": 465,
      "ĠF": 466,
      "Ġ#": 467,
      "ck": 468,
      "ect": 469,
      "pt": 470,
      "ess": 471,
      "ort": 472,
      "Ġcle": 473,
      "ru": 474,
      "Ġhel": 475,
      "Ġyour": 476,
      "Ġse": 477,
      "low": 478,
      "ĠN": 479,
      "her": 480,
      "ful": 481,
      "Ġhelp": 482,
      "ata": 483,
      "Ġle": 484,
      "cc": 485,
      "ĠIn": 486,
      "ive": 487,
      "iz": 488,
      "Ġim": 489,
      "rit": 490,
      "ore": 491,
      "ĠL": 492,
      "Ġsu": 493,
      "ere": 494,
      "rom": 495,
      "igh": 496,
      "iv": 497,
      "ies": 498,
      "Ġr": 499,
      "pe": 500,
      "ity": 501,
      "Ġ$": 502,
      "Ġfun": 503,
      "Ġthis": 504,
      "pl": 505,
      "yth": 506,
      "per": 507,
      "ld": 508,
      "ĠTh": 509,
      "Ġfrom": 510,
      "ine": 511,
      "Ġ\\\"": 512,
      "ile": 513,
      "Ġ3": 514,
      "Ġint": 515,
      "ns": 516,
      "all": 517,
      "ĠO": 518,
      "end": 519,
      "ell": 520,
      "av": 521,
      "ĠG": 522,
      "ial": 523,
      "age": 524,
      "00": 525,
      "Ġcode": 526,
      "art": 527,
      "arly": 528,
      "Ġma": 529,
      "ill": 530,
      "Ġdata": 531,
      "int": 532,
      "Ġacc": 533,
      "Ġfunction": 534,
      "ure": 535,
      "able": 536,
      "ython": 537,
      "ĠJ": 538,
      "Ġme": 539,
      "Ġch": 540,
      "nd": 541,
      "Ġat": 542,
      "ram": 543,
      "Ġwas": 544,
      "Ġar": 545,
      "ĠBe": 546,
      "Ġte": 547,
      "Ġlo": 548,
      "ue": 549,
      "arm": 550,
      "ural": 551,
      "à¤": 552,
      "Ġha": 553,
      "Ġapp": 554,
      "ight": 555,
      "ag": 556,
      "Ġclearly": 557,
      "our": 558,
      "Ġab": 559,
      "Ġnat": 560,
      "Ġcomp": 561,
      "Ġhelpful": 562,
      "Ġun": 563,
      "umb": 564,
      "ame": 565,
      "ass": 566,
      "ample": 567,
      "ĠU": 568,
      "ations": 569,
      "ĠEx": 570,
      "rect": 571,
      "ach": 572,
      "ust": 573,
      "Ġwor": 574,
      "Ġnatural": 575,
      "up": 576,
      "act": 577,
      "wer": 578,
      "ep": 579,
      "ult": 580,
      "ĠThis": 581,
      "os": 582,
      "orm": 583,
      "oc": 584,
      "Ġwarm": 585,
      "rite": 586,
      "ks": 587,
      "Ġen": 588,
      "Ġad": 589,
      "are": 590,
      "Ġsh": 591,
      "ime": 592,
      "Ġwhe": 593,
      "ide": 594,
      "der": 595,
      "ason": 596,
      "Ġcl": 597,
      "ard": 598,
      "ich": 599,
      "ary": 600,
      "ack": 601,
      "Ġhave": 602,
      "ould": 603,
      "ise": 604,
      "ib": 605,
      "cl": 606,
      "gram": 607,
      "Ġfol": 608,
      "Ġexample": 609,
      "ind": 610,
      "ome": 611,
      "ately": 612,
      "Ġusing": 613,
      "ap": 614,
      "Ġuse": 615,
      "xt": 616,
      "Ġk": 617,
      "ip": 618,
      "ject": 619,
      "Ġ4": 620,
      "Ġnumb": 621,
      "ang": 622,
      "ally": 623,
      "Ġimp": 624,
      "ff": 625,
      "Ġdef": 626,
      "est": 627,
      "Ġprogram": 628,
      "Ġres": 629,
      "Ġret": 630,
      "Ġ'": 631,
      "ans": 632,
      "Ġfollow": 633,
      "Ġhas": 634,
      "Ġ\\\\": 635,
      "Ġaccur": 636,
      "ĠAns": 637,
      "Ġcont": 638,
      "ĠAnswer": 639,
      "Ġcor": 640,
      "Ġ##": 641,
      "form": 642,
      "Ġup": 643,
      "Ġpl": 644,
      "ions": 645,
      "ost": 646,
      "Ġpr": 647,
      "asoning": 648,
      "ph": 649,
      "Ġaccurately": 650,
      "so": 651,
      "ĠIt": 652,
      "ac": 653,
      "ance": 654,
      "?\",": 655,
      "ak": 656,
      "Ġ5": 657,
      "Ġwhich": 658,
      "ud": 659,
      "ĠWrite": 660,
      "Ġabout": 661,
      "rou": 662,
      "lic": 663,
      "Ġnew": 664,
      "ign": 665,
      "ari": 666,
      "urn": 667,
      "gh": 668,
      "du": 669,
      "code": 670,
      "led": 671,
      "Ġtheir": 672,
      "Ġcomm": 673,
      "erc": 674,
      "ast": 675,
      "Ġif": 676,
      "Ġset": 677,
      "()": 678,
      "ents": 679,
      "Ġman": 680,
      "ie": 681,
      "fere": 682,
      "ther": 683,
      "Ġ19": 684,
      "ount": 685,
      "Ġgo": 686,
      "Ġval": 687,
      "Ġdo": 688,
      "ous": 689,
      "Ġ+": 690,
      "Ġj": 691,
      "Ġinst": 692,
      "op": 693,
      "Ġsc": 694,
      "ating": 695,
      "Ġ{": 696,
      "ice": 697,
      "ĠYou": 698,
      "Ġneed": 699,
      "les": 700,
      "Ġcorrect": 701,
      "ry": 702,
      "Ġ<": 703,
      "cess": 704,
      "Ġclean": 705,
      "Ġwill": 706,
      "Ġits": 707,
      "ase": 708,
      "Ġnot": 709,
      "ithm": 710,
      "Ġfe": 711,
      "Ġper": 712,
      "Ġfollowing": 713,
      "reasoning": 714,
      "Ġmore": 715,
      "Ġqu": 716,
      "oo": 717,
      "irst": 718,
      "python": 719,
      "ub": 720,
      "Ġtime": 721,
      "Ġreturn": 722,
      "etw": 723,
      "ercise": 724,
      "ces": 725,
      "ĠTo": 726,
      "ize": 727,
      "ace": 728,
      "Ġsp": 729,
      "hat": 730,
      "ors": 731,
      "ress": 732,
      "ong": 733,
      "ĠRe": 734,
      "gor": 735,
      "plain": 736,
      "stru": 737,
      "vers": 738,
      "ll": 739,
      "Ġused": 740,
      "gorithm": 741,
      "Ġspe": 742,
      "ition": 743,
      "ring": 744,
      "ning": 745,
      "ical": 746,
      "Ġout": 747,
      "ĠExercise": 748,
      "ound": 749,
      "chat": 750,
      "ike": 751,
      "ne": 752,
      "Ġalgorithm": 753,
      "ĠSt": 754,
      "mer": 755,
      "Ġ0": 756,
      "Ġinto": 757,
      "ence": 758,
      "Ġalso": 759,
      "eth": 760,
      "wo": 761,
      "Ġvari": 762,
      "Ġwell": 763,
      "Ġclass": 764,
      "Ġnumber": 765,
      "!\",": 766,
      "red": 767,
      "ble": 768,
      "ays": 769,
      "Ġadd": 770,
      "Ġexp": 771,
      "ĠK": 772,
      "king": 773,
      "Ġeach": 774,
      "plement": 775,
      "now": 776,
      "Ġimport": 777,
      "ord": 778,
      "Ġcal": 779,
      "Ġbut": 780,
      "Ġele": 781,
      "Ġro": 782,
      "ree": 783,
      "Ġhow": 784,
      "Ġcreate": 785,
      "ution": 786,
      "ates": 787,
      "Ġ*": 788,
      "Ġstep": 789,
      "Ġ}": 790,
      "put": 791,
      "ys": 792,
      "):": 793,
      "Ġty": 794,
      "Ġother": 795,
      "cri": 796,
      "Ġprov": 797,
      "te": 798,
      "ific": 799,
      "Ġincl": 800,
      "ĠV": 801,
      "Ġdif": 802,
      "ia": 803,
      "Ġser": 804,
      "Ġdes": 805,
      "ctions": 806,
      "tern": 807,
      "Ġcol": 808,
      "Ġfile": 809,
      "Ġso": 810,
      "Ġthan": 811,
      "Ġtwo": 812,
      "Ġthey": 813,
      "'m": 814,
      "ĠPython": 815,
      "Ġone": 816,
      "ite": 817,
      "ath": 818,
      "raph": 819,
      "Ġev": 820,
      "Ġsuch": 821,
      "ument": 822,
      "ava": 823,
      "Ġlike": 824,
      "Ġsim": 825,
      "Ġknow": 826,
      "ont": 827,
      "ft": 828,
      "ear": 829,
      "),": 830,
      "ments": 831,
      "Ġspec": 832,
      "one": 833,
      "pic": 834,
      "velo": 835,
      "Ġtra": 836,
      "Ġdi": 837,
      "ng": 838,
      "get": 839,
      "ative": 840,
      "Ġfirst": 841,
      "Ġrep": 842,
      "ser": 843,
      "Ġwhen": 844,
      "ual": 845,
      "ens": 846,
      "Ġx": 847,
      "Ġbas": 848,
      "Ġbu": 849,
      "eg": 850,
      "ĠFor": 851,
      "ient": 852,
      "pert": 853,
      "Ġdiffere": 854,
      "Ġall": 855,
      "velop": 856,
      "Ġlist": 857,
      "Ġpo": 858,
      "ĠCh": 859,
      "ond": 860,
      "Ġimplement": 861,
      "Ġpart": 862,
      "Ġob": 863,
      "Ġmat": 864,
      "'t": 865,
      "ues": 866,
      "ish": 867,
      "els": 868,
      "erm": 869,
      "Ġwould": 870,
      "Ġ6": 871,
      ");": 872,
      "ail": 873,
      "Ġdis": 874,
      "ures": 875,
      "Ex": 876,
      "Ġke": 877,
      "ĠHere": 878,
      "Ġsome": 879,
      "ray": 880,
      "stand": 881,
      "ild": 882,
      "ĠCre": 883,
      "Ġsol": 884,
      "Ġsystem": 885,
      "Ġhis": 886,
      "blem": 887,
      "ss": 888,
      "arch": 889,
      "Ġunder": 890,
      "Ġstru": 891,
      "cript": 892,
      "Ġpre": 893,
      "een": 894,
      "Ġprocess": 895,
      "Ġthem": 896,
      "Ġrun": 897,
      "--": 898,
      "ec": 899,
      "Ġprint": 900,
      "Ġthere": 901,
      "ove": 902,
      "Ġbo": 903,
      "ethod": 904,
      "Ġdevelop": 905,
      "Ġproject": 906,
      "ices": 907,
      "odel": 908,
      ").": 909,
      "Ġeff": 910,
      "ings": 911,
      "Ġi": 912,
      "Ġallow": 913,
      "Ġfind": 914,
      "Ġmy": 915,
      "Ġinter": 916,
      "Ġpe": 917,
      "Ġwhere": 918,
      "etween": 919,
      "Explain": 920,
      "ake": 921,
      "Ġ/": 922,
      "Ġlet": 923,
      "Ġday": 924,
      "Ġcomput": 925,
      "enc": 926,
      "ĠWhat": 927,
      "Ġstruct": 928,
      "Ġproblem": 929,
      "Ġrec": 930,
      "read": 931,
      "Ġover": 932,
      "ĠJava": 933,
      "Ġmethod": 934,
      "Ġthese": 935,
      "Ġ[": 936,
      "cept": 937,
      "Ġtext": 938,
      "ons": 939,
      "Ġoper": 940,
      "Ġcomple": 941,
      "ber": 942,
      "Ġ20": 943,
      "Ġapplic": 944,
      "Ġoff": 945,
      "Ġher": 946,
      "Ġdifferent": 947,
      "Ġgen": 948,
      "io": 949,
      "very": 950,
      "Ġtopic": 951,
      "Ġbetween": 952,
      "ization": 953,
      "Ġstart": 954,
      "ocument": 955,
      "ork": 956,
      "rough": 957,
      "elf": 958,
      "log": 959,
      "à¥": 960,
      "ĠHow": 961,
      "Ġmake": 962,
      "ark": 963,
      "ian": 964,
      "Ġmult": 965,
      "Ġperform": 966,
      "Ġtr": 967,
      "Ġà¤": 968,
      "ange": 969,
      "cul": 970,
      "Ġvalue": 971,
      "Ġany": 972,
      "Ġmem": 973,
      "Ġwho": 974,
      "Ġdep": 975,
      "Ġrepres": 976,
      "ater": 977,
      "ting": 978,
      "own": 979,
      "Ġed": 980,
      "row": 981,
      "Ġ200": 982,
      "ople": 983,
      "ify": 984,
      "ni": 985,
      "ĠNe": 986,
      "ire": 987,
      "Ġvariable": 988,
      "ĠHe": 989,
      "Ġ10": 990,
      "Ġ|": 991,
      "Ġam": 992,
      "Ġweb": 993,
      "ude": 994,
      "Ġgiv": 995,
      "ics": 996,
      "struction": 997,
      "Ġloc": 998,
      "The": 999,
      "its": 1000,
      "Ġwhile": 1001,
      "ming": 1002,
      "Ġprovid": 1003,
      "Ġhad": 1004,
      "Ġco": 1005,
      "Ġsum": 1006,
      "nce": 1007,
      "pen": 1008,
      "Ġmodel": 1009,
      "'re": 1010,
      "Ġsub": 1011,
      "ility": 1012,
      "Ġbec": 1013,
      "Ġresult": 1014,
      "Ġequ": 1015,
      "ational": 1016,
      "Ġinstall": 1017,
      "Ġconst": 1018,
      "Ġbeen": 1019,
      "Ġsm": 1020,
      "Ġpos": 1021,
      "ough": 1022,
      "Ġwere": 1023,
      "Ġget": 1024,
      "fter": 1025,
      "Ġthrough": 1026,
      "ular": 1027,
      "Ġgre": 1028,
      "Ġform": 1029,
      "Ġdist": 1030,
      "Ġ8": 1031,
      "ick": 1032,
      "Ġpeople": 1033,
      "Ġprodu": 1034,
      "Ġ7": 1035,
      "ĠCreate": 1036,
      "ink": 1037,
      "Ġshe": 1038,
      "Ġobject": 1039,
      "Ġtech": 1040,
      "ps": 1041,
      "Ġmay": 1042,
      "Ġem": 1043,
      "Ġfunctions": 1044,
      "owels": 1045,
      "Ġinclud": 1046,
      "Ġlear": 1047,
      "ĠAn": 1048,
      "'ll": 1049,
      "fore": 1050,
      "Ġcount": 1051,
      "Ġname": 1052,
      "Ġgood": 1053,
      "instruction": 1054,
      "Ġ\"#": 1055,
      "Ġappro": 1056,
      "|>": 1057,
      "Ġrem": 1058,
      "<|": 1059,
      "Ġarray": 1060,
      "Ġsec": 1061,
      "Ġwork": 1062,
      "Ġrel": 1063,
      "og": 1064,
      "ĠWe": 1065,
      "rac": 1066,
      "ves": 1067,
      "Ġrequ": 1068,
      "Ġopt": 1069,
      "Ġanal": 1070,
      "Ġhere": 1071,
      "tain": 1072,
      "Ġnumbers": 1073,
      "iple": 1074,
      "Ġwhat": 1075,
      "ages": 1076,
      "Ġtak": 1077,
      "ways": 1078,
      "ities": 1079,
      "Ġpar": 1080,
      "Ġhand": 1081,
      "Ġthen": 1082,
      "ibr": 1083,
      "Ġatt": 1084,
      "aus": 1085,
      "inal": 1086,
      "hed": 1087,
      "cho": 1088,
      "Ġkey": 1089,
      "Ġgraph": 1090,
      "ood": 1091,
      "Ġsee": 1092,
      "hes": 1093,
      "Ġra": 1094,
      "lect": 1095,
      "ract": 1096,
      "urre": 1097,
      "Ġcommand": 1098,
      "Ġcalled": 1099,
      "Ġdirect": 1100,
      "Ġinc": 1101,
      "rib": 1102,
      "Ġtrans": 1103,
      "Ġinteg": 1104,
      "day": 1105,
      "Ġexpert": 1106,
      "anc": 1107,
      "ving": 1108,
      "iron": 1109,
      "Ġresp": 1110,
      "olution": 1111,
      "ible": 1112,
      "`,": 1113,
      "Ġdec": 1114,
      "Ġstand": 1115,
      "`.": 1116,
      "Ġmain": 1117,
      "Ġag": 1118,
      "Ġstring": 1119,
      "Ġcons": 1120,
      "Ġstate": 1121,
      "Ġspecific": 1122,
      "Ġsort": 1123,
      "Ġour": 1124,
      "vel": 1125,
      "ital": 1126,
      "ĠCom": 1127,
      "Ġplay": 1128,
      "Ġprogramming": 1129,
      "standing": 1130,
      "uring": 1131,
      "Ġsa": 1132,
      "Tell": 1133,
      "Ġdesign": 1134,
      "ix": 1135,
      "Ġreg": 1136,
      "viron": 1137,
      "Ġvalues": 1138,
      "Ġdevelopment": 1139,
      "tal": 1140,
      "Ġgiven": 1141,
      "iss": 1142,
      "Ġmod": 1143,
      "Ġline": 1144,
      "ience": 1145,
      "Ġinv": 1146,
      "als": 1147,
      "ax": 1148,
      "alle": 1149,
      "ash": 1150,
      "document": 1151,
      "Ġact": 1152,
      "Ġyear": 1153,
      "erson": 1154,
      "ose": 1155,
      "ential": 1156,
      "Ġprogrammer": 1157,
      "Ġlibr": 1158,
      "Ġmany": 1159,
      "Ġcalcul": 1160,
      "Ġfact": 1161,
      "ob": 1162,
      "Ġdet": 1163,
      "ider": 1164,
      "documented": 1165,
      "angu": 1166,
      "pes": 1167,
      "ved": 1168,
      "ĠThey": 1169,
      "(\\\"": 1170,
      "yn": 1171,
      "ask": 1172,
      "Ġgener": 1173,
      "Ġjust": 1174,
      "Ġind": 1175,
      "\\\",": 1176,
      "Ġpoint": 1177,
      "ook": 1178,
      "Ġtotal": 1179,
      "Ġmin": 1180,
      "vironment": 1181,
      "Ġ###": 1182,
      "Ġ9": 1183,
      "wn": 1184,
      "Ġbet": 1185,
      "ited": 1186,
      "Ġass": 1187,
      "inue": 1188,
      "tt": 1189,
      "Ġcomplex": 1190,
      "Ġback": 1191,
      "Ġrepresent": 1192,
      "iew": 1193,
      "ug": 1194,
      "Ġdat": 1195,
      "Ġmost": 1196,
      "Ġpub": 1197,
      "('": 1198,
      "..": 1199,
      "Ġbetter": 1200,
      "ĠIf": 1201,
      "ĠAd": 1202,
      "}{": 1203,
      "Ġright": 1204,
      "Ġsupp": 1205,
      "ident": 1206,
      "ĠDe": 1207,
      "Ġsimple": 1208,
      "Cont": 1209,
      "Ġno": 1210,
      "Ġtest": 1211,
      "inc": 1212,
      "ds": 1213,
      "Ġvis": 1214,
      "ĠNow": 1215,
      "Ġstructure": 1216,
      "Ġvowels": 1217,
      "Ġenvironment": 1218,
      "Ġend": 1219,
      "',": 1220,
      "ern": 1221,
      "Ġexec": 1222,
      "hip": 1223,
      "Ġinput": 1224,
      "Ġshould": 1225,
      "Ġalways": 1226,
      "ok": 1227,
      "ower": 1228,
      "ious": 1229,
      "Ġlangu": 1230,
      "Ġtype": 1231,
      "ency": 1232,
      "Ġelements": 1233,
      "pro": 1234,
      "ols": 1235,
      "ince": 1236,
      "icient": 1237,
      "Ġwrit": 1238,
      "frac": 1239,
      "ute": 1240,
      "Ġconvers": 1241,
      "Ġonly": 1242,
      "Ġallows": 1243,
      "Ġdepend": 1244,
      "Ġcould": 1245,
      "Ġaccess": 1246,
      "lock": 1247,
      "err": 1248,
      "Ġway": 1249,
      "Ġafter": 1250,
      "Ġterm": 1251,
      "Ġtypes": 1252,
      "other": 1253,
      "ator": 1254,
      "Ġchar": 1255,
      "ĠAl": 1256,
      "Ġcap": 1257,
      "com": 1258,
      "ts": 1259,
      "ines": 1260,
      "Ġfeel": 1261,
      "Ġdiv": 1262,
      "ĠSolution": 1263,
      "Ġfeat": 1264,
      "mat": 1265,
      "Ġmemory": 1266,
      "ause": 1267,
      "air": 1268,
      "iel": 1269,
      "que": 1270,
      "Ġgrou": 1271,
      "hen": 1272,
      "Ġstandard": 1273,
      "Ġboth": 1274,
      "Ġwant": 1275,
      "Ġstud": 1276,
      "riend": 1277,
      "ĠPro": 1278,
      "Ġche": 1279,
      "Ġfil": 1280,
      "Ġsign": 1281,
      "app": 1282,
      "Ġbuild": 1283,
      "ĠIm": 1284,
      "imes": 1285,
      "ased": 1286,
      "formation": 1287,
      "ĠY": 1288,
      "nder": 1289,
      "ision": 1290,
      "Ġlar": 1291,
      "ier": 1292,
      "Ġeven": 1293,
      "Ġsearch": 1294,
      "pr": 1295,
      "urrent": 1296,
      "ten": 1297,
      "uc": 1298,
      "ĠCon": 1299,
      "Continue": 1300,
      "Ġaut": 1301,
      "ĠThere": 1302,
      "js": 1303,
      "Ġinclude": 1304,
      "ward": 1305,
      "ined": 1306,
      "ton": 1307,
      "nces": 1308,
      "Ġinvol": 1309,
      "val": 1310,
      "10": 1311,
      "Ġnetw": 1312,
      "Ġtakes": 1313,
      "ĠSe": 1314,
      "Script": 1315,
      "ized": 1316,
      "Ġoptim": 1317,
      "Ġent": 1318,
      "ĠUn": 1319,
      "ĠAs": 1320,
      "Ġcommon": 1321,
      "ets": 1322,
      "Ġelement": 1323,
      "Ġapplication": 1324,
      "land": 1325,
      "Ġcontain": 1326,
      "gan": 1327,
      "dition": 1328,
      "Ġconcept": 1329,
      "Ġbus": 1330,
      "Ġ18": 1331,
      "gest": 1332,
      "ily": 1333,
      "Ġext": 1334,
      "Ġbased": 1335,
      "Ġuser": 1336,
      "ym": 1337,
      "::": 1338,
      "word": 1339,
      "olog": 1340,
      "Ġcomputer": 1341,
      "ctor": 1342,
      "Ġincluding": 1343,
      "ric": 1344,
      "Ġprovides": 1345,
      "Ġpat": 1346,
      "20": 1347,
      "Ġopen": 1348,
      "Ġhigh": 1349,
      "Ġread": 1350,
      "ife": 1351,
      "to": 1352,
      "Ġtechni": 1353,
      "ral": 1354,
      "Ġsmall": 1355,
      "vice": 1356,
      "ex": 1357,
      "Ġdisc": 1358,
      "Ġlearning": 1359,
      "way": 1360,
      "gether": 1361,
      "ied": 1362,
      "Ġhash": 1363,
      "port": 1364,
      "Ġcommun": 1365,
      "Ġel": 1366,
      "Ġdoing": 1367,
      "Ġdown": 1368,
      "Ġsame": 1369,
      "ĠThese": 1370,
      "Ġspace": 1371,
      "\\\\_": 1372,
      "rol": 1373,
      "Ġthree": 1374,
      "ale": 1375,
      "Ġstr": 1376,
      "ware": 1377,
      "Ġcompon": 1378,
      "ustom": 1379,
      "old": 1380,
      "ĠInst": 1381,
      "ĠAr": 1382,
      "Ġref": 1383,
      "Ġpublic": 1384,
      "Ġpass": 1385,
      ".\\\"": 1386,
      "')": 1387,
      "Ġworld": 1388,
      "Ġlanguage": 1389,
      "ars": 1390,
      "urs": 1391,
      "nect": 1392,
      "my": 1393,
      "data": 1394,
      "Ġinde": 1395,
      "rame": 1396,
      "Ġpower": 1397,
      "ling": 1398,
      "Ġapproach": 1399,
      "ello": 1400,
      "000": 1401,
      "Ġ&": 1402,
      "lot": 1403,
      "Ġver": 1404,
      "Ġexpress": 1405,
      "++": 1406,
      "Ġsupport": 1407,
      "ngth": 1408,
      "Ġtogether": 1409,
      "ability": 1410,
      "Ġ199": 1411,
      "Ġevery": 1412,
      "ement": 1413,
      "rix": 1414,
      "Ġfriend": 1415,
      "Ġpop": 1416,
      "ĠLet": 1417,
      "ysis": 1418,
      "Ġph": 1419,
      "**": 1420,
      "ilt": 1421,
      "Ġinformation": 1422,
      "Ġtable": 1423,
      "name": 1424,
      "ĠX": 1425,
      "Ġac": 1426,
      "Ġimportant": 1427,
      "ins": 1428,
      "Ġmean": 1429,
      "ever": 1430,
      "ĠSo": 1431,
      "Ġbre": 1432,
      "Ġ$\\\\": 1433,
      "cd": 1434,
      "Ġalgorithms": 1435,
      "ames": 1436,
      "Ġwon": 1437,
      "Ġins": 1438,
      "Ġmanag": 1439,
      "Can": 1440,
      "ĠUnder": 1441,
      "aw": 1442,
      "Ġlong": 1443,
      "Ġcall": 1444,
      "italize": 1445,
      "structions": 1446,
      "Ġreal": 1447,
      "Ġefficient": 1448,
      "Ġwrite": 1449,
      "chool": 1450,
      "ron": 1451,
      "ective": 1452,
      "Ġproduct": 1453,
      "Ġeas": 1454,
      "Ġconversation": 1455,
      "ĠInstructions": 1456,
      "Ġimpro": 1457,
      "alk": 1458,
      "Ġtoday": 1459,
      "Ġ//": 1460,
      "ner": 1461,
      "Ġconf": 1462,
      "ĠSc": 1463,
      "self": 1464,
      "Ġanalysis": 1465,
      "Ġ12": 1466,
      "ĠNew": 1467,
      "Ġnow": 1468,
      "uch": 1469,
      "'\",": 1470,
      "Ġlibrary": 1471,
      "ank": 1472,
      "Ġprovide": 1473,
      "ness": 1474,
      "lis": 1475,
      "Ġident": 1476,
      "Ġve": 1477,
      "ross": 1478,
      "__": 1479,
      "Ġgame": 1480,
      "verse": 1481,
      "con": 1482,
      "Ġsing": 1483,
      "ĠJavaScript": 1484,
      "Ġbeing": 1485,
      "Ġerr": 1486,
      "meric": 1487,
      "Ġstore": 1488,
      "Ġworks": 1489,
      "Ġsecond": 1490,
      "Ġperson": 1491,
      "Ġ:": 1492,
      "Ġperformance": 1493,
      "Ġvariables": 1494,
      "Ġapplications": 1495,
      "Ġhapp": 1496,
      "Ġquest": 1497,
      "Ġfound": 1498,
      "Ġown": 1499,
      "Ġenc": 1500,
      "ining": 1501,
      "$.": 1502,
      ":\",": 1503,
      "Ġmade": 1504,
      "veral": 1505,
      "ĠExplain": 1506,
      "oint": 1507,
      "Ġarg": 1508,
      "Ġmess": 1509,
      "ually": 1510,
      "ared": 1511,
      "Ġcreating": 1512,
      "Ġlead": 1513,
      "Ġens": 1514,
      "Ġans": 1515,
      "ery": 1516,
      "PU": 1517,
      "$,": 1518,
      "Ġfl": 1519,
      "aving": 1520,
      "any": 1521,
      "Ġcharact": 1522,
      "Ġtru": 1523,
      "()`": 1524,
      "Ġpropert": 1525,
      "time": 1526,
      "ferences": 1527,
      "Ġcustom": 1528,
      "ember": 1529,
      "nc": 1530,
      "Ġblock": 1531,
      "ven": 1532,
      "Ġseveral": 1533,
      "Ġtre": 1534,
      "Ġsom": 1535,
      "ĠUnderstanding": 1536,
      "Ġpack": 1537,
      "itial": 1538,
      "Ġgu": 1539,
      "Ġlog": 1540,
      "Ġsur": 1541,
      "Ġpartic": 1542,
      "oh": 1543,
      "ertain": 1544,
      "ulation": 1545,
      "Ġimplementation": 1546,
      "----": 1547,
      "Ġvarious": 1548,
      "ĠAmeric": 1549,
      "ication": 1550,
      "))": 1551,
      "Ġmethods": 1552,
      "vent": 1553,
      "Ġtake": 1554,
      "ene": 1555,
      "py": 1556,
      "ases": 1557,
      "Ġwithout": 1558,
      "less": 1559,
      "Ġoperations": 1560,
      "Ġcost": 1561,
      "Ġprinc": 1562,
      "Ġnode": 1563,
      "Ġbecause": 1564,
      "Ġbasic": 1565,
      "Ġorig": 1566,
      "Ġcurrent": 1567,
      "load": 1568,
      "atic": 1569,
      "Ġclo": 1570,
      "derful": 1571,
      "Ġ201": 1572,
      "Ġnetwork": 1573,
      "oid": 1574,
      "Ġbr": 1575,
      "Ġdoes": 1576,
      "be": 1577,
      "Ġmed": 1578,
      "ict": 1579,
      "Ġaltern": 1580,
      "Ġrange": 1581,
      "ave": 1582,
      "ired": 1583,
      "Ġbefore": 1584,
      "amed": 1585,
      "St": 1586,
      "Ġthings": 1587,
      "izing": 1588,
      "tle": 1589,
      "oot": 1590,
      "Ġpres": 1591,
      "Ġshow": 1592,
      "Ġmeans": 1593,
      "Ġyears": 1594,
      "Ġreasoning": 1595,
      "itive": 1596,
      "urns": 1597,
      "ters": 1598,
      "Ġav": 1599,
      "orn": 1600,
      "aries": 1601,
      "Ġunderstand": 1602,
      "Ġest": 1603,
      "Ġcare": 1604,
      "Ġmultiple": 1605,
      "Ġcontrol": 1606,
      "Ġconc": 1607,
      "ĠBy": 1608,
      "Ġthough": 1609,
      "ges": 1610,
      "Ġ$$": 1611,
      "inary": 1612,
      "ional": 1613,
      "Ġconnect": 1614,
      "Ġsqu": 1615,
      "Ġexper": 1616,
      "Ġwebs": 1617,
      "^{": 1618,
      "we": 1619,
      "Ġmon": 1620,
      "utes": 1621,
      "\\\")": 1622,
      ".,": 1623,
      "Hello": 1624,
      "ĠData": 1625,
      "Ġbeh": 1626,
      "Ġagain": 1627,
      "ĠQ": 1628,
      "itions": 1629,
      "ield": 1630,
      "Ġcent": 1631,
      "Ġdon": 1632,
      "par": 1633,
      "`:": 1634,
      "Ġz": 1635,
      "Ġprinciple": 1636,
      "onest": 1637,
      "ques": 1638,
      "Ġleft": 1639,
      "oy": 1640,
      "sing": 1641,
      "Ġnum": 1642,
      "ĠHT": 1643,
      "Ġpri": 1644,
      "Ġdatab": 1645,
      "Ġvers": 1646,
      "ything": 1647,
      "loc": 1648,
      "Ġgreat": 1649,
      "lish": 1650,
      "ĠHowever": 1651,
      "ists": 1652,
      "Ġexplo": 1653,
      "vices": 1654,
      "ĠAnd": 1655,
      "Ġanother": 1656,
      "Ġcomb": 1657,
      "Ġmaking": 1658,
      "ody": 1659,
      "Ġincre": 1660,
      "Ġbuilt": 1661,
      "Ġ%": 1662,
      "ĠShe": 1663,
      "Ġmo": 1664,
      "Ġwriting": 1665,
      "Ġlife": 1666,
      "Ġredu": 1667,
      "ML": 1668,
      "Ġanswer": 1669,
      "az": 1670,
      "ality": 1671,
      "ives": 1672,
      "Ġword": 1673,
      "orld": 1674,
      "cessary": 1675,
      "ior": 1676,
      "ĠWhen": 1677,
      "Ġsk": 1678,
      "Ġarr": 1679,
      "line": 1680,
      "rypt": 1681,
      "alth": 1682,
      "Ġeduc": 1683,
      "Ġalternative": 1684,
      "Ġcar": 1685,
      "Ġpath": 1686,
      "Ġconsider": 1687,
      "ource": 1688,
      "//": 1689,
      "Ġwithin": 1690,
      "Ġchang": 1691,
      "Ġdirectory": 1692,
      "Ġposs": 1693,
      "arget": 1694,
      "Ġcolle": 1695,
      "ae": 1696,
      "ething": 1697,
      "50": 1698,
      "'ve": 1699,
      "Ġ>": 1700,
      "Ġgl": 1701,
      "cial": 1702,
      "ats": 1703,
      "Ġprom": 1704,
      "til": 1705,
      "search": 1706,
      "ĠSet": 1707,
      "ĠCan": 1708,
      "As": 1709,
      "Ġ.": 1710,
      "iment": 1711,
      "ĠInt": 1712,
      "ĠOne": 1713,
      "Ġcheck": 1714,
      "odes": 1715,
      "Ġknown": 1716,
      "PI": 1717,
      "Ġtechniques": 1718,
      "ull": 1719,
      "Ġthink": 1720,
      "Ġstructures": 1721,
      "Ġserver": 1722,
      "Ġduring": 1723,
      "ging": 1724,
      "Ġart": 1725,
      "loy": 1726,
      "ead": 1727,
      "asks": 1728,
      "amp": 1729,
      "://": 1730,
      "Ġmet": 1731,
      "Ġwebsite": 1732,
      "ism": 1733,
      "iting": 1734,
      "ĠSh": 1735,
      "Ġlarge": 1736,
      "ted": 1737,
      "Ġdefine": 1738,
      "ĠInstall": 1739,
      "Ġgoing": 1740,
      "Ġ**": 1741,
      "Ġsug": 1742,
      "by": 1743,
      "ledge": 1744,
      "Ġfin": 1745,
      "arr": 1746,
      "Ġ198": 1747,
      "Ġaround": 1748,
      "oci": 1749,
      "Ġhim": 1750,
      "Ġ30": 1751,
      "Ġsystems": 1752,
      "Ġcase": 1753,
      "kes": 1754,
      "ather": 1755,
      "math": 1756,
      "Ġsingle": 1757,
      "Ġaddition": 1758,
      "Ġinf": 1759,
      "Ġmus": 1760,
      "Ġsize": 1761,
      "Ġscience": 1762,
      "Ġfam": 1763,
      "Ġuses": 1764,
      "Ġconstant": 1765,
      "Ġrunning": 1766,
      "ote": 1767,
      "Ġorder": 1768,
      "Ġgroup": 1769,
      "What": 1770,
      "Ġfeatures": 1771,
      "Ġrele": 1772,
      "rodu": 1773,
      "Ġru": 1774,
      "Ġmanip": 1775,
      "ced": 1776,
      ")\",": 1777,
      "Ġoutput": 1778,
      "sh": 1779,
      "Ġtry": 1780,
      "gin": 1781,
      "ternal": 1782,
      "ĠSp": 1783,
      "ock": 1784,
      "ources": 1785,
      "Ġpol": 1786,
      "Ġhour": 1787,
      "Ġess": 1788,
      "Ġmor": 1789,
      "yz": 1790,
      "ĠReferences": 1791,
      "Ġremain": 1792,
      "Ġnecessary": 1793,
      "ology": 1794,
      "Ġtasks": 1795,
      "Ġthread": 1796,
      "Ġsomething": 1797,
      "ah": 1798,
      "Ġprinciples": 1799,
      "Ġsteps": 1800,
      "Ġreally": 1801,
      "ccess": 1802,
      "Ġmatrix": 1803,
      "Ġinitial": 1804,
      "Ġmuch": 1805,
      "Ġstre": 1806,
      "Ġcolum": 1807,
      "Ġtree": 1808,
      "Ġorgan": 1809,
      "Ġflow": 1810,
      "Ġlocal": 1811,
      "Ġtri": 1812,
      "ĠUse": 1813,
      "Ġeng": 1814,
      "the": 1815,
      "ention": 1816,
      "Ġ```\",": 1817,
      "ĠAmerican": 1818,
      "Ġteam": 1819,
      "Ġhonest": 1820,
      "text": 1821,
      "Ġknowledge": 1822,
      "xim": 1823,
      "irc": 1824,
      "Ġ15": 1825,
      "Ġdesigned": 1826,
      "uted": 1827,
      "ĠMy": 1828,
      "Ġbl": 1829,
      "ane": 1830,
      "aut": 1831,
      "Ġobjects": 1832,
      "Ġself": 1833,
      "ger": 1834,
      "Ġnext": 1835,
      "Ġoften": 1836,
      "ext": 1837,
      "\\\".": 1838,
      "Ġreturns": 1839,
      "Ġuni": 1840,
      "Ġscri": 1841,
      "oring": 1842,
      "ĠEng": 1843,
      "Ġtarget": 1844,
      "ouse": 1845,
      "User": 1846,
      "Ġinvolves": 1847,
      "Ġrequest": 1848,
      "ivid": 1849,
      "Ġscript": 1850,
      "Ġimprove": 1851,
      "Ġdeterm": 1852,
      "Ġsay": 1853,
      "uro": 1854,
      "Ġgra": 1855,
      "Ġselect": 1856,
      "icial": 1857,
      "ĠIs": 1858,
      "Ġarea": 1859,
      "bo": 1860,
      "Ġsequ": 1861,
      "Ġsorted": 1862,
      "ĠAPI": 1863,
      "Ġdistrib": 1864,
      "sc": 1865,
      "Ġarch": 1866,
      "Ġcalculate": 1867,
      "Ġsection": 1868,
      "Ġocc": 1869,
      "Ġ<<": 1870,
      "Ġmessage": 1871,
      "Ġsuggest": 1872,
      "ĠNode": 1873,
      "Ġ\"```": 1874,
      "over": 1875,
      "Ġbreak": 1876,
      "Ġgr": 1877,
      "Ġsolve": 1878,
      "ense": 1879,
      "uments": 1880,
      "Ġseries": 1881,
      "Ġ100": 1882,
      "_{": 1883,
      "face": 1884,
      "ails": 1885,
      "hemat": 1886,
      "di": 1887,
      "ĠLe": 1888,
      "view": 1889,
      "=\\\"": 1890,
      "ered": 1891,
      "ĠOpen": 1892,
      "Th": 1893,
      "outh": 1894,
      "Ġtools": 1895,
      "à¥į": 1896,
      "Ġamount": 1897,
      "ĠUnited": 1898,
      "Ġdatabase": 1899,
      "Ġide": 1900,
      "Ġmach": 1901,
      "amb": 1902,
      "Ġpract": 1903,
      "System": 1904,
      "Ġadv": 1905,
      "Ġelse": 1906,
      "Ġuntil": 1907,
      "Ġrepresents": 1908,
      "Ġdeb": 1909,
      "ml": 1910,
      "Ġoffer": 1911,
      "play": 1912,
      "alled": 1913,
      "ety": 1914,
      "aces": 1915,
      "ĠCl": 1916,
      "Ġproblems": 1917,
      "ĠCPU": 1918,
      "ek": 1919,
      "Ġprof": 1920,
      "itect": 1921,
      "Ġrece": 1922,
      "19": 1923,
      "man": 1924,
      "Ġprot": 1925,
      "Ġrelations": 1926,
      "ĠOnce": 1927,
      "ocus": 1928,
      "ici": 1929,
      "fact": 1930,
      "ade": 1931,
      "Ġdid": 1932,
      "],": 1933,
      "uss": 1934,
      "ren": 1935,
      "ansk": 1936,
      "Ġcertain": 1937,
      "iness": 1938,
      "Ġtem": 1939,
      "ey": 1940,
      "orth": 1941,
      "ule": 1942,
      "Ġmorning": 1943,
      "Ġloop": 1944,
      "Ġtechn": 1945,
      "Ġlow": 1946,
      "Ġquant": 1947,
      "str": 1948,
      "ty": 1949,
      "inks": 1950,
      "Ġpot": 1951,
      "dio": 1952,
      "Ġtalk": 1953,
      "Ġlove": 1954,
      "igure": 1955,
      "Ġunderstanding": 1956,
      "oin": 1957,
      "Ġroot": 1958,
      "Ġessential": 1959,
      "anskrit": 1960,
      "Here": 1961,
      "ĠSanskrit": 1962,
      "Ġbest": 1963,
      "ints": 1964,
      "Ġage": 1965,
      "Ġfiles": 1966,
      "Ġtimes": 1967,
      "avas": 1968,
      "ĠWh": 1969,
      "ĠZ": 1970,
      "ĠCol": 1971,
      "Ġiss": 1972,
      "gy": 1973,
      "Ġfilm": 1974,
      "ohn": 1975,
      "Ġrole": 1976,
      "12": 1977,
      "Ġworking": 1978,
      "ĠComm": 1979,
      "ament": 1980,
      "add": 1981,
      "Ġconsist": 1982,
      "Assistant": 1983,
      "Ġhead": 1984,
      "pect": 1985,
      "Ġmulti": 1986,
      "avascript": 1987,
      "ĠFl": 1988,
      "Ġpoints": 1989,
      "ope": 1990,
      "Ġshort": 1991,
      "Ġlearn": 1992,
      "Ġnever": 1993,
      "Ġthose": 1994,
      "ants": 1995,
      "Ġlim": 1996,
      "Ġcomplexity": 1997,
      "erest": 1998,
      "bit": 1999,
      "lying": 2000,
      "ĠPl": 2001,
      "Ġnamed": 2002,
      "Ġmakes": 2003,
      "Ġpopular": 2004,
      "Ġtoo": 2005,
      "Ġmark": 2006,
      "Ġarchitect": 2007,
      "au": 2008,
      "Ġcomponents": 2009,
      "sole": 2010,
      "set": 2011,
      "Ġ16": 2012,
      "ann": 2013,
      "Ġrelationship": 2014,
      "Ġwater": 2015,
      "}$": 2016,
      "In": 2017,
      "istory": 2018,
      "Ġcho": 2019,
      "Ġbuilding": 2020,
      "ems": 2021,
      "htt": 2022,
      "ĠThat": 2023,
      "Ġproperties": 2024,
      "à¤¾": 2025,
      "Ġexplore": 2026,
      "ik": 2027,
      "ived": 2028,
      "Ġinstalled": 2029,
      "ified": 2030,
      "Ġsoft": 2031,
      "Ġ25": 2032,
      "Ġwonderful": 2033,
      "Ġoriginal": 2034,
      "Ġchild": 2035,
      "inu": 2036,
      "asure": 2037,
      "Ġhappy": 2038,
      "Ġlevel": 2039,
      "Ġversion": 2040,
      "Ġlinear": 2041,
      "Ġlit": 2042,
      "Ġgcd": 2043,
      "Ġthanks": 2044,
      "tra": 2045,
      "Ġfactors": 2046,
      "Ġ==": 2047,
      "Ġbinary": 2048,
      "ĠInd": 2049,
      "Ġmight": 2050,
      "ird": 2051,
      "Ġsince": 2052,
      "itor": 2053,
      "encies": 2054,
      "Ġfeeling": 2055,
      "Ġchat": 2056,
      "Ġindex": 2057,
      "Ġwide": 2058,
      "Ġfocus": 2059,
      "rays": 2060,
      "rict": 2061,
      "Ġclasses": 2062,
      "let": 2063,
      "Ġdatas": 2064,
      "ape": 2065,
      "ators": 2066,
      "ividual": 2067,
      "right": 2068,
      "plit": 2069,
      "QL": 2070,
      "Ġsy": 2071,
      "Ġtool": 2072,
      "atch": 2073,
      "entiment": 2074,
      "ĠUsing": 2075,
      "Ġmiss": 2076,
      "ĠReact": 2077,
      "Ġmid": 2078,
      "ball": 2079,
      "Ġadj": 2080,
      "Ġpossible": 2081,
      "ides": 2082,
      "Ġlength": 2083,
      "gs": 2084,
      "Ġgrow": 2085,
      "Ġbusy": 2086,
      "Ġparalle": 2087,
      "ĠImplement": 2088,
      "Ġever": 2089,
      "Ġestab": 2090,
      "Ġnodes": 2091,
      "ĠCal": 2092,
      "How": 2093,
      "ences": 2094,
      "Ġsolution": 2095,
      "Ġcondition": 2096,
      "ĠYour": 2097,
      "string": 2098,
      "ĠCons": 2099,
      "bum": 2100,
      "Ġstory": 2101,
      "Ġdra": 2102,
      "ĠSome": 2103,
      "Ġnp": 2104,
      "Ġ197": 2105,
      "point": 2106,
      "Ġhealth": 2107,
      "gle": 2108,
      "Ġdel": 2109,
      "Ġnon": 2110,
      "verage": 2111,
      "IO": 2112,
      "javascript": 2113,
      "Ġprob": 2114,
      "ights": 2115,
      "Ġpair": 2116,
      "head": 2117,
      "Ġsignific": 2118,
      "pend": 2119,
      "Ġwa": 2120,
      "Ġrespons": 2121,
      "Ġcapitalize": 2122,
      "ĠCreating": 2123,
      "ĠCS": 2124,
      "Ġfour": 2125,
      "Ġresearch": 2126,
      "Ġcontent": 2127,
      "Ġchange": 2128,
      "Ġusage": 2129,
      "unction": 2130,
      "Ġevent": 2131,
      "round": 2132,
      "lished": 2133,
      "back": 2134,
      "Ġmar": 2135,
      "Ġanalyz": 2136,
      "Ġeducational": 2137,
      "</": 2138,
      "ĠBut": 2139,
      "Ġden": 2140,
      "Ġequation": 2141,
      "ĠOn": 2142,
      "alse": 2143,
      "eting": 2144,
      "Ġuseful": 2145,
      "itle": 2146,
      "ocial": 2147,
      "ĠHTML": 2148,
      "aring": 2149,
      "Ġindividual": 2150,
      "Ġhum": 2151,
      "ture": 2152,
      "Ġmachine": 2153,
      "ĠStates": 2154,
      "ww": 2155,
      "hor": 2156,
      "Ġreverse": 2157,
      "Ġconstra": 2158,
      "Ġdays": 2159,
      "Ġmust": 2160,
      "ference": 2161,
      "Ġmathemat": 2162,
      "Ġsquare": 2163,
      "Ġlay": 2164,
      "Ġcru": 2165,
      "Ġinterest": 2166,
      "Ġarchitecture": 2167,
      "not": 2168,
      "vious": 2169,
      "Ġtell": 2170,
      "Ġear": 2171,
      "Ġstill": 2172,
      "aves": 2173,
      "à¤°": 2174,
      "nter": 2175,
      "onse": 2176,
      "Ġidentify": 2177,
      "ĠOut": 2178,
      "ĠGre": 2179,
      "ilar": 2180,
      "Ġresults": 2181,
      "ilities": 2182,
      "Ġsaid": 2183,
      "Ġhard": 2184,
      "for": 2185,
      "Ġfactor": 2186,
      "Ġsuccess": 2187,
      "Ġcharacter": 2188,
      "Ġlinks": 2189,
      "ration": 2190,
      "Ġfund": 2191,
      "me": 2192,
      "ature": 2193,
      "Ġalong": 2194,
      "Ġsound": 2195,
      "ury": 2196,
      "Ġmove": 2197,
      "Ġ--": 2198,
      "Ġensure": 2199,
      "To": 2200,
      "andas": 2201,
      "Ġvisual": 2202,
      "Ġpur": 2203,
      "por": 2204,
      "Ġassist": 2205,
      "Ġsynt": 2206,
      "sentiment": 2207,
      "Ġple": 2208,
      "Ġplan": 2209,
      "ently": 2210,
      "Ġview": 2211,
      "Ġdocument": 2212,
      "Ġless": 2213,
      "Ġpowerful": 2214,
      "(\\\\": 2215,
      "utions": 2216,
      "ĠBo": 2217,
      "Ġaddress": 2218,
      "anced": 2219,
      "ma": 2220,
      "Ġerror": 2221,
      "Ġcou": 2222,
      "Ġbene": 2223,
      "avig": 2224,
      "Ġlibraries": 2225,
      "Ġap": 2226,
      "ering": 2227,
      "Ġlot": 2228,
      "Ġbel": 2229,
      "new": 2230,
      "Ġpotential": 2231,
      "ĠSer": 2232,
      "Ġgot": 2233,
      "Ġkeep": 2234,
      "Ġmeaning": 2235,
      "Ġpackage": 2236,
      "Ġrow": 2237,
      "ta": 2238,
      "ression": 2239,
      "iate": 2240,
      "Ġprocessing": 2241,
      "Ġsym": 2242,
      "Ġexc": 2243,
      "ĠAt": 2244,
      "ĠWorld": 2245,
      "Ġimage": 2246,
      "Ġplace": 2247,
      "Ġofficial": 2248,
      "ĠAdd": 2249,
      "ĠPr": 2250,
      "Ġside": 2251,
      "}\\\\": 2252,
      "ĠSince": 2253,
      "ush": 2254,
      "ĠDes": 2255,
      "Ġupd": 2256,
      "Ġstudents": 2257,
      "Ġsoftware": 2258,
      "ination": 2259,
      "rie": 2260,
      "Ġrecord": 2261,
      "Ġtrue": 2262,
      "ries": 2263,
      "ĠFirst": 2264,
      "Ġglad": 2265,
      "Ġbro": 2266,
      "Ġconsole": 2267,
      "words": 2268,
      "ories": 2269,
      "Ġhandle": 2270,
      "Ġbehav": 2271,
      "ooks": 2272,
      "anks": 2273,
      "Ġhours": 2274,
      "())": 2275,
      "RA": 2276,
      "Ġtop": 2277,
      "tml": 2278,
      "Ġpip": 2279,
      "ĠConsider": 2280,
      "ĠStu": 2281,
      "Ġschool": 2282,
      "Ġstation": 2283,
      "plic": 2284,
      "pos": 2285,
      "ĠAfter": 2286,
      "work": 2287,
      "Ġframe": 2288,
      "Ġdepending": 2289,
      "Ġcr": 2290,
      "Ġunique": 2291,
      "DE": 2292,
      "Ġrequire": 2293,
      "Ġlook": 2294,
      "Ġminutes": 2295,
      "Ġ->": 2296,
      "Ġavail": 2297,
      "file": 2298,
      "yle": 2299,
      "à¤¤": 2300,
      "à¤Ĥ": 2301,
      "ĠRead": 2302,
      "Ġdescri": 2303,
      "Ġconver": 2304,
      "ero": 2305,
      "oud": 2306,
      "Ġalbum": 2307,
      "Ġsimilar": 2308,
      "ynam": 2309,
      "sq": 2310,
      "Ġsw": 2311,
      "gre": 2312,
      "Ġstatement": 2313,
      "eter": 2314,
      "chie": 2315,
      "Ġcomponent": 2316,
      "Ġmind": 2317,
      "Ġ11": 2318,
      "iver": 2319,
      "Ġhelps": 2320,
      "Ġquestion": 2321,
      "ov": 2322,
      "Ġdem": 2323,
      "Ġrecurs": 2324,
      "ches": 2325,
      "indow": 2326,
      "Ġcour": 2327,
      "oose": 2328,
      "...": 2329,
      "Ġspecial": 2330,
      "Ġmanagement": 2331,
      "Ġbenef": 2332,
      "ener": 2333,
      "Ġder": 2334,
      "andom": 2335,
      "struct": 2336,
      "sp": 2337,
      ")$": 2338,
      "Ġbusiness": 2339,
      "dle": 2340,
      "requ": 2341,
      "ither": 2342,
      "Ġhig": 2343,
      "ĠWith": 2344,
      "Ġlast": 2345,
      "oding": 2346,
      "Ġconstraints": 2347,
      "inally": 2348,
      "Ġsyntax": 2349,
      "TP": 2350,
      "ulate": 2351,
      "mathb": 2352,
      "AE": 2353,
      "Ġlater": 2354,
      "ouble": 2355,
      "ĠApp": 2356,
      "Ġpositive": 2357,
      "ances": 2358,
      "Ġbrow": 2359,
      "Ġdistance": 2360,
      "Ġcrucial": 2361,
      "ploy": 2362,
      "Ġvert": 2363,
      "Ġcompany": 2364,
      "Ġterms": 2365,
      "58": 2366,
      "Ġdecl": 2367,
      "Ġ196": 2368,
      "Just": 2369,
      "Ġmaintain": 2370,
      "ograph": 2371,
      "versity": 2372,
      "aps": 2373,
      "ĠExternal": 2374,
      "Ġsequence": 2375,
      "Ġintegers": 2376,
      "iving": 2377,
      "Ġsignificant": 2378,
      "Ġput": 2379,
      "ĠCount": 2380,
      "Ġ13": 2381,
      "Ġletter": 2382,
      "Ġfamily": 2383,
      "Ġflo": 2384,
      "ĠBu": 2385,
      "Ġfew": 2386,
      "min": 2387,
      "ĠFr": 2388,
      "();": 2389,
      "'d": 2390,
      "ĠEach": 2391,
      "Ġgive": 2392,
      "Ġsit": 2393,
      "cs": 2394,
      "Ġ14": 2395,
      "of": 2396,
      "iles": 2397,
      "Ġhome": 2398,
      "Ġprevious": 2399,
      "Ġdig": 2400,
      "left": 2401,
      "Ġcomplete": 2402,
      "ĠSchool": 2403,
      "Ġresources": 2404,
      "Ġrest": 2405,
      "Ġimpact": 2406,
      "Ġchanges": 2407,
      "inter": 2408,
      "Ġsend": 2409,
      "iou": 2410,
      "Ġspeed": 2411,
      "Ġwords": 2412,
      "Ġpattern": 2413,
      "Ġ\\\\(": 2414,
      "Ġequal": 2415,
      "clude": 2416,
      "Ġfast": 2417,
      "alf": 2418,
      "vest": 2419,
      "ditions": 2420,
      "imal": 2421,
      "ĠAust": 2422,
      "Ġrout": 2423,
      "ĠTake": 2424,
      "Ġstack": 2425,
      "ynch": 2426,
      "ĠTe": 2427,
      "Ġmodels": 2428,
      "here": 2429,
      "Ġstd": 2430,
      "da": 2431,
      "Ġexist": 2432,
      "ĠUni": 2433,
      "ĠRem": 2434,
      "apitalize": 2435,
      "Ġeffective": 2436,
      "Ġiter": 2437,
      "based": 2438,
      "ĠBefore": 2439,
      "Ġexcept": 2440,
      "Ġthought": 2441,
      "ĠSetting": 2442,
      "Ġ50": 2443,
      "ularly": 2444,
      "Ġpriv": 2445,
      "sert": 2446,
      "Ġresponse": 2447,
      "Ġassign": 2448,
      "oney": 2449,
      "aeiou": 2450,
      "upp": 2451,
      "vowels": 2452,
      "Ġachie": 2453,
      "ynchron": 2454,
      "Ġvery": 2455,
      "Ġhaving": 2456,
      "Ġfeature": 2457,
      "Ġacross": 2458,
      "Ġsmaller": 2459,
      "IOU": 2460,
      "Ġpie": 2461,
      "hel": 2462,
      "Ġbegin": 2463,
      "AEIOU": 2464,
      "aeiouAEIOU": 2465,
      "ream": 2466,
      "Ġfore": 2467,
      "orks": 2468,
      "Ġlight": 2469,
      "ĠCar": 2470,
      "Ġabove": 2471,
      "urity": 2472,
      "Ġsocial": 2473,
      "rec": 2474,
      "Ġlab": 2475,
      "Ġincludes": 2476,
      "Ġoptimization": 2477,
      "wards": 2478,
      "org": 2479,
      "side": 2480,
      "ĠThen": 2481,
      "Ġquestions": 2482,
      "lex": 2483,
      "Ġpresent": 2484,
      "':": 2485,
      "Ġcur": 2486,
      "bal": 2487,
      "fe": 2488,
      "Ġexecution": 2489,
      "Ġavailable": 2490,
      "rt": 2491,
      "Ġpred": 2492,
      "Ġweek": 2493,
      "Ġneeded": 2494,
      "Let": 2495,
      "Ġconcepts": 2496,
      "arent": 2497,
      "Ġmom": 2498,
      "ivity": 2499,
      "Ġdue": 2500,
      "Ġlocally": 2501,
      "Ġmusic": 2502,
      "Ġcirc": 2503,
      "Ġener": 2504,
      "25": 2505,
      "ĠRec": 2506,
      "ynamic": 2507,
      "Ġinterface": 2508,
      "numb": 2509,
      "Ġchalle": 2510,
      "ĠCont": 2511,
      "angle": 2512,
      "Ġarguments": 2513,
      "That": 2514,
      "Ġold": 2515,
      "Ġdri": 2516,
      "Ġnavig": 2517,
      ">>": 2518,
      "apt": 2519,
      "Ġcontains": 2520,
      "Ġexperience": 2521,
      "Ġstarted": 2522,
      "Ġneeds": 2523,
      "Ġaw": 2524,
      "Ġcolumn": 2525,
      "med": 2526,
      "Ġexpression": 2527,
      "ised": 2528,
      "Ġinteger": 2529,
      "bers": 2530,
      "key": 2531,
      "https": 2532,
      "Ġtrack": 2533,
      "join": 2534,
      "terns": 2535,
      "Ġdefined": 2536,
      "Ġaff": 2537,
      "AT": 2538,
      "Ġdataset": 2539,
      "Ġcity": 2540,
      "Ġdeal": 2541,
      "Ġ40": 2542,
      "come": 2543,
      "lab": 2544,
      "Ġ</": 2545,
      "Ġbring": 2546,
      "Ġothers": 2547,
      "Ġstrateg": 2548,
      "avor": 2549,
      "ium": 2550,
      ",\\\"": 2551,
      "Ġload": 2552,
      "ĠBit": 2553,
      "])": 2554,
      "**:": 2555,
      "200": 2556,
      "Ġerrors": 2557,
      "Ġparallel": 2558,
      "ĠRub": 2559,
      "Ġmaxim": 2560,
      "Ġdependencies": 2561,
      "plot": 2562,
      "AC": 2563,
      "Ġconditions": 2564,
      "!\\\"": 2565,
      "oon": 2566,
      "ret": 2567,
      "Ġdebug": 2568,
      "Ġexamples": 2569,
      "Ġcomputing": 2570,
      "Ġenergy": 2571,
      "icro": 2572,
      "vern": 2573,
      "ĠOr": 2574,
      "Ġautom": 2575,
      "Ġpage": 2576,
      "Ġattention": 2577,
      "Ġcollection": 2578,
      "Ġopp": 2579,
      "atform": 2580,
      "Ġterminal": 2581,
      "ĠYork": 2582,
      "Hey": 2583,
      "ables": 2584,
      "ĠOutput": 2585,
      "Ġbehavior": 2586,
      "40": 2587,
      "Ġcolor": 2588,
      "ĠComp": 2589,
      "Ġpatterns": 2590,
      "Ġtechnology": 2591,
      "Ġsent": 2592,
      "pping": 2593,
      "Ġservice": 2594,
      "Ġmodule": 2595,
      "Ġfundament": 2596,
      "java": 2597,
      "Ġinteract": 2598,
      "Ġdiscuss": 2599,
      "Ġdefin": 2600,
      "Ġposition": 2601,
      "lev": 2602,
      "Ġvertices": 2603,
      "Ġservices": 2604,
      "uation": 2605,
      "co": 2606,
      "Ġaverage": 2607,
      "Ġminim": 2608,
      "ST": 2609,
      "Ġnumer": 2610,
      "Net": 2611,
      "15": 2612,
      "Ġ17": 2613,
      "ĠBrit": 2614,
      "ided": 2615,
      "ills": 2616,
      "html": 2617,
      "Ġvector": 2618,
      "ĠAL": 2619,
      "Ġbig": 2620,
      "Ġmanage": 2621,
      "ighb": 2622,
      "Ġgoal": 2623,
      "Ġhandling": 2624,
      "fer": 2625,
      "Ġinstru": 2626,
      "Ġmonth": 2627,
      "uine": 2628,
      "Ġsepar": 2629,
      "Ġstat": 2630,
      "ards": 2631,
      "Ġcross": 2632,
      "Ġpay": 2633,
      "Ġeffect": 2634,
      "Ġusers": 2635,
      "Ġparam": 2636,
      "Ġedges": 2637,
      "Ġeasier": 2638,
      "Ġwaiting": 2639,
      "ged": 2640,
      "Ġland": 2641,
      "Ġexact": 2642,
      "ĠRuby": 2643,
      "csv": 2644,
      "Ġfield": 2645,
      "Ġcontinu": 2646,
      "ording": 2647,
      "ply": 2648,
      "{\\\\": 2649,
      "urther": 2650,
      "ift": 2651,
      "ĠMan": 2652,
      "Ġair": 2653,
      "ĠList": 2654,
      "conom": 2655,
      "ĠDef": 2656,
      "Ġinstead": 2657,
      "ected": 2658,
      "rue": 2659,
      "Ġque": 2660,
      "yc": 2661,
      "istic": 2662,
      "ĠNational": 2663,
      "bed": 2664,
      "Ġ=>": 2665,
      "rid": 2666,
      "rans": 2667,
      "sol": 2668,
      "etic": 2669,
      "roid": 2670,
      "Ġconne": 2671,
      "Ġarrays": 2672,
      "ĠAustral": 2673,
      "Ġvs": 2674,
      "Ġmag": 2675,
      "Ġsumm": 2676,
      "Ġintrodu": 2677,
      "Ġdisplay": 2678,
      "ĠEnglish": 2679,
      "bash": 2680,
      "cpp": 2681,
      "ĠRes": 2682,
      "Ġweight": 2683,
      "Ġissues": 2684,
      "oing": 2685,
      "aking": 2686,
      "Ġtravel": 2687,
      "col": 2688,
      "eep": 2689,
      "Ġred": 2690,
      "ault": 2691,
      "Ġelect": 2692,
      "Ġcharacters": 2693,
      "ires": 2694,
      "Ġsure": 2695,
      "ĠJohn": 2696,
      "anging": 2697,
      "eters": 2698,
      "sum": 2699,
      "Ġpost": 2700,
      "ĠHigh": 2701,
      "Ġvide": 2702,
      "Core": 2703,
      "Ġgovern": 2704,
      "tex": 2705,
      "print": 2706,
      "ĠSee": 2707,
      "Ġsong": 2708,
      "eb": 2709,
      "Ġaway": 2710,
      "Ġfix": 2711,
      "Ġbox": 2712,
      "Ġgenuine": 2713,
      "ĠEm": 2714,
      "ls": 2715,
      "ert": 2716,
      "order": 2717,
      "Frame": 2718,
      "Ġways": 2719,
      "ĠTra": 2720,
      "30": 2721,
      "ĠPh": 2722,
      "first": 2723,
      "Ġes": 2724,
      "ĠRo": 2725,
      "Ġbody": 2726,
      "Ġ'.": 2727,
      "li": 2728,
      "split": 2729,
      "à¥ĩ": 2730,
      "$$": 2731,
      "cing": 2732,
      "erial": 2733,
      "Ġfree": 2734,
      "Ġfood": 2735,
      "Ġlists": 2736,
      "Ġpersonal": 2737,
      "ET": 2738,
      "11": 2739,
      "Ġbra": 2740,
      "ĠGe": 2741,
      "value": 2742,
      "ĠGo": 2743,
      "eff": 2744,
      "ples": 2745,
      "Ġquantization": 2746,
      "Ġadjac": 2747,
      "Ġeval": 2748,
      "Ġ,": 2749,
      "Ġsense": 2750,
      "Ġisn": 2751,
      "Ġprovided": 2752,
      "ĠNext": 2753,
      "ney": 2754,
      "ango": 2755,
      "Ġcontext": 2756,
      "Ġbal": 2757,
      "Ġgreater": 2758,
      "orts": 2759,
      "ĠCounty": 2760,
      "Ġgames": 2761,
      "ĠExample": 2762,
      "80": 2763,
      "uroCore": 2764,
      "ĠALRA": 2765,
      "ĠBitNet": 2766,
      "Ġthird": 2767,
      "Ġmissing": 2768,
      "Ġeither": 2769,
      "Ġgenuinely": 2770,
      "Ġhold": 2771,
      "Ġsuper": 2772,
      "ĠReg": 2773,
      "ĠSouth": 2774,
      "ambda": 2775,
      "ĠSim": 2776,
      "Ġappear": 2777,
      "Ġeasy": 2778,
      "Ġbase": 2779,
      "Ġformat": 2780,
      "ĠVis": 2781,
      "ĠOver": 2782,
      "ĠUniversity": 2783,
      "ĠBl": 2784,
      "jor": 2785,
      "ĠAss": 2786,
      "Ġphys": 2787,
      "inked": 2788,
      "resp": 2789,
      "Ġrandom": 2790,
      "Ġevents": 2791,
      "Ġhuman": 2792,
      "und": 2793,
      "Ġbelie": 2794,
      "roll": 2795,
      "Ġassoci": 2796,
      "Ġtechnique": 2797,
      "Ġtrees": 2798,
      "iful": 2799,
      "Ġvoid": 2800,
      "Ġyourself": 2801,
      "ips": 2802,
      "Ġeverything": 2803,
      "Ġge": 2804,
      "ĠWest": 2805,
      "Ġparticularly": 2806,
      "alls": 2807,
      "lice": 2808,
      "Ġintern": 2809,
      "ĠFlask": 2810,
      "ew": 2811,
      "Ġlate": 2812,
      "iling": 2813,
      "Ġprograms": 2814,
      "Ġcover": 2815,
      "Ġengine": 2816,
      "ĠNeuroCore": 2817,
      "Ġemploy": 2818,
      "ln": 2819,
      "ĠSystem": 2820,
      "down": 2821,
      "Ġlocated": 2822,
      "sed": 2823,
      "roup": 2824,
      "Ġattrib": 2825,
      "Ġcoding": 2826,
      "ai": 2827,
      "pri": 2828,
      "include": 2829,
      "Ġsets": 2830,
      "ĠImplementing": 2831,
      "Ġbenefits": 2832,
      "Ġtask": 2833,
      "autiful": 2834,
      "ee": 2835,
      "Ġmembers": 2836,
      "uture": 2837,
      "Ġcommunication": 2838,
      "iven": 2839,
      "Ġbook": 2840,
      "ĠMar": 2841,
      "Ġfollows": 2842,
      "uck": 2843,
      "cent": 2844,
      "ĠCanad": 2845,
      "Ġhy": 2846,
      "Ġalloc": 2847,
      "Ġtesting": 2848,
      "ields": 2849,
      "Ġfoot": 2850,
      "Ġrepl": 2851,
      "ĠPar": 2852,
      "Ġcomes": 2853,
      "Ġplatform": 2854,
      "Ġaccount": 2855,
      "ĠTherefore": 2856,
      "14": 2857,
      "yl": 2858,
      "Ġonce": 2859,
      "Ġcome": 2860,
      "ending": 2861,
      "Ġexpand": 2862,
      "Ġsource": 2863,
      "ĠPer": 2864,
      "ott": 2865,
      "Ġclose": 2866,
      "def": 2867,
      "Ġfundamental": 2868,
      "ĠAm": 2869,
      "];": 2870,
      "Ġhalf": 2871,
      "Ġsorting": 2872,
      "Ġindust": 2873,
      "Ġhigher": 2874,
      "ising": 2875,
      "sqrt": 2876,
      "pi": 2877,
      "ibility": 2878,
      "Ġreach": 2879,
      "Ġbecame": 2880,
      "Ġgives": 2881,
      "'.": 2882,
      "ended": 2883,
      "ula": 2884,
      "ically": 2885,
      "omet": 2886,
      "fully": 2887,
      "idth": 2888,
      "pically": 2889,
      "Ġbecome": 2890,
      "Ġdifference": 2891,
      "Ġfinding": 2892,
      "Ġcommunity": 2893,
      "ype": 2894,
      "ĠDo": 2895,
      "Ġentire": 2896,
      "It": 2897,
      "wise": 2898,
      "ster": 2899,
      "Ġinvest": 2900,
      "ĠMat": 2901,
      "Ġadditional": 2902,
      "list": 2903,
      "Ġcreative": 2904,
      "Ġallowing": 2905,
      "OM": 2906,
      "ana": 2907,
      "Ġleast": 2908,
      "Ġhear": 2909,
      "Ġport": 2910,
      "ĠCent": 2911,
      "ĠReady": 2912,
      "che": 2913,
      "Ġloo": 2914,
      "Ġdiff": 2915,
      "factual": 2916,
      "esome": 2917,
      "Ġeconom": 2918,
      "ĠCity": 2919,
      "Ġexplain": 2920,
      "pped": 2921,
      "ryption": 2922,
      "body": 2923,
      "irtu": 2924,
      "ises": 2925,
      "Ġnorm": 2926,
      "Ġband": 2927,
      "Ġsal": 2928,
      "Ġmatch": 2929,
      "Ġindepend": 2930,
      "Ġagainst": 2931,
      "Ġplayer": 2932,
      "Ġinstance": 2933,
      "List": 2934,
      "capitalize": 2935,
      "imens": 2936,
      "Ġguide": 2937,
      "rist": 2938,
      "hern": 2939,
      "Ġsto": 2940,
      "jango": 2941,
      "ĠMay": 2942,
      "izes": 2943,
      "--------": 2944,
      "like": 2945,
      "Ġturn": 2946,
      "ĠRed": 2947,
      "ĠJust": 2948,
      "Ġeditor": 2949,
      "den": 2950,
      "omm": 2951,
      "Ġanalyze": 2952,
      "test": 2953,
      "Ġfac": 2954,
      "Ġplot": 2955,
      "ille": 2956,
      "Ġdeep": 2957,
      "lu": 2958,
      "Ġbir": 2959,
      "Ġjob": 2960,
      "ones": 2961,
      "Ġfull": 2962,
      "imate": 2963,
      "part": 2964,
      "ister": 2965,
      "cast": 2966,
      "lear": 2967,
      "Ġfinal": 2968,
      "usion": 2969,
      "Ġregular": 2970,
      "Ġchalleng": 2971,
      "lection": 2972,
      "ĠDist": 2973,
      "ĠNo": 2974,
      "Ġblocks": 2975,
      "dent": 2976,
      "Ġtw": 2977,
      "Ġdynamic": 2978,
      "light": 2979,
      ")^": 2980,
      "Ġharm": 2981,
      "Ġauthor": 2982,
      "ĠRep": 2983,
      "Ġproviding": 2984,
      "Ġplayers": 2985,
      "Ġsolutions": 2986,
      "ĠCSS": 2987,
      "ĠPy": 2988,
      "Ġshare": 2989,
      "Ġdownload": 2990,
      "hent": 2991,
      "Ġmoney": 2992,
      "Ġvalid": 2993,
      "Ġimportance": 2994,
      "Ġprim": 2995,
      "Ġconfig": 2996,
      "Ġwhether": 2997,
      "Ġreduce": 2998,
      "Ġitems": 2999,
      "Ġtransform": 3000,
      "iciency": 3001,
      "off": 3002,
      "Ġearly": 3003,
      "Ġreason": 3004,
      "ĠNorth": 3005,
      "Ġawesome": 3006,
      "Ġpd": 3007,
      "Ġthing": 3008,
      "Ġleg": 3009,
      "ina": 3010,
      "otal": 3011,
      "Ġconsum": 3012,
      "Ġtypically": 3013,
      "Ġstrong": 3014,
      "Ġcrit": 3015,
      "ĠOb": 3016,
      "Ġchoice": 3017,
      "cal": 3018,
      "Ġfrequ": 3019,
      "Ġmedia": 3020,
      "Ġdetermine": 3021,
      "isp": 3022,
      "Ġidea": 3023,
      "ĠStudio": 3024,
      "ison": 3025,
      "Ġgenerate": 3026,
      "\\\":": 3027,
      "ken": 3028,
      "Ġanim": 3029,
      "ots": 3030,
      "istor": 3031,
      "Ġseason": 3032,
      "Ġsomeone": 3033,
      "GP": 3034,
      "je": 3035,
      "Ġneighb": 3036,
      "ror": 3037,
      "iled": 3038,
      "Ġbecom": 3039,
      "ares": 3040,
      "omen": 3041,
      "Ġneg": 3042,
      "Ġparticular": 3043,
      "Ġlittle": 3044,
      "100": 3045,
      "rop": 3046,
      "Ġ24": 3047,
      "RE": 3048,
      "Ġareas": 3049,
      "Ġexecuted": 3050,
      "Ġexpressions": 3051,
      "Ġsat": 3052,
      "Ġquick": 3053,
      "urch": 3054,
      "ĠBritish": 3055,
      "Ġprivate": 3056,
      "Ġpython": 3057,
      "ĠWeb": 3058,
      "enn": 3059,
      "Ġprime": 3060,
      "Ġfollowed": 3061,
      "Ġactiv": 3062,
      "Ġoperation": 3063,
      "Ġamong": 3064,
      "Ġlaw": 3065,
      "ĠDon": 3066,
      "Ġpa": 3067,
      "agine": 3068,
      "Ġable": 3069,
      "ification": 3070,
      "stra": 3071,
      "Ġbit": 3072,
      "Ġproperty": 3073,
      "AB": 3074,
      "60": 3075,
      "book": 3076,
      "ley": 3077,
      "Ġcalculates": 3078,
      "Ġreleased": 3079,
      "rate": 3080,
      "ients": 3081,
      "Ġargument": 3082,
      "ler": 3083,
      "sequ": 3084,
      "akes": 3085,
      "ĠDi": 3086,
      "ifying": 3087,
      "Ġsymb": 3088,
      "itch": 3089,
      "levision": 3090,
      "use": 3091,
      "Ġrules": 3092,
      "Ġpain": 3093,
      "Ġ<-": 3094,
      "ync": 3095,
      "process": 3096,
      "ĠEl": 3097,
      "Ġaccurate": 3098,
      "Ġmaterial": 3099,
      "Ġexecute": 3100,
      "Ġbound": 3101,
      "ĠUS": 3102,
      "Ġmathematical": 3103,
      "ĠNumb": 3104,
      "ĠHey": 3105,
      "Ġgroups": 3106,
      "Ġfriends": 3107,
      "Ġability": 3108,
      "ready": 3109,
      "Ġtaking": 3110,
      "An": 3111,
      "gress": 3112,
      "Ġbooks": 3113,
      "ĠRun": 3114,
      "Ġ60": 3115,
      "Ġthreads": 3116,
      "ĠAll": 3117,
      "cket": 3118,
      "ĠCho": 3119,
      "orpor": 3120,
      "Ġrecursive": 3121,
      "Ġinstructions": 3122,
      "Ġheight": 3123,
      "Ġzero": 3124,
      "acc": 3125,
      "Ġhistory": 3126,
      "Ġrate": 3127,
      "Ġcourse": 3128,
      "dex": 3129,
      "Ġmaximum": 3130,
      "div": 3131,
      "ala": 3132,
      "otes": 3133,
      "ĠSpe": 3134,
      "ele": 3135,
      "lobal": 3136,
      "pose": 3137,
      "ese": 3138,
      "Ġanything": 3139,
      "Ġbasics": 3140,
      "Ġwritten": 3141,
      "array": 3142,
      "ĠWar": 3143,
      "Ġfurther": 3144,
      "eta": 3145,
      "ynchronous": 3146,
      "mit": 3147,
      "Ġapprec": 3148,
      "Ġrefer": 3149,
      "Ġfactorial": 3150,
      "Ġpoly": 3151,
      "Ġattack": 3152,
      "Ġdone": 3153,
      "Ġsimpl": 3154,
      "Ġà¤¹": 3155,
      "irtual": 3156,
      "txt": 3157,
      "Ġhouse": 3158,
      "uth": 3159,
      "oogle": 3160,
      "Ġexpl": 3161,
      "à¤¨": 3162,
      "Ġmill": 3163,
      "Ġsecurity": 3164,
      "Ġproducts": 3165,
      "Ġpandas": 3166,
      "\\\">": 3167,
      "Ġtraining": 3168,
      "cdot": 3169,
      "Doing": 3170,
      "Ġscal": 3171,
      "My": 3172,
      "Ġdr": 3173,
      "duct": 3174,
      "Ġmanipulation": 3175,
      "Ġrelationships": 3176,
      "ils": 3177,
      "iding": 3178,
      "Ġdouble": 3179,
      "icate": 3180,
      "Ġprevent": 3181,
      "Ġparent": 3182,
      "Ġkind": 3183,
      "Ġdivide": 3184,
      "ĠChe": 3185,
      "Ġdecision": 3186,
      "Ġstatements": 3187,
      "Ġcompil": 3188,
      "Ġlimit": 3189,
      "respond": 3190,
      "une": 3191,
      "Ġwhy": 3192,
      "Ġformer": 3193,
      "ops": 3194,
      "asing": 3195,
      "omin": 3196,
      "Ġmeasure": 3197,
      "Ġextens": 3198,
      "ission": 3199,
      "Ġchildren": 3200,
      "Ġgovernment": 3201,
      "Ġprobability": 3202,
      "ili": 3203,
      "Ġcannot": 3204,
      "Ġstudy": 3205,
      "Ġprior": 3206,
      "Ġmot": 3207,
      "Ġadding": 3208,
      "ĠDec": 3209,
      "Ġmiles": 3210,
      "af": 3211,
      "ption": 3212,
      "aches": 3213,
      "=\\\\": 3214,
      "augh": 3215,
      "Ġalready": 3216,
      "ends": 3217,
      "Ġconnected": 3218,
      "Ġaud": 3219,
      "Ġcompet": 3220,
      "Ġfive": 3221,
      "Ġcorrespond": 3222,
      "Ġfilter": 3223,
      "Ġqueue": 3224,
      "16": 3225,
      "==": 3226,
      "node": 3227,
      "Ġclear": 3228,
      "Ġprompt": 3229,
      "Ġpers": 3230,
      "raight": 3231,
      "Ġefficiency": 3232,
      "ilit": 3233,
      "wh": 3234,
      "Ġnear": 3235,
      "pty": 3236,
      "ĠVisual": 3237,
      "If": 3238,
      "Ġmajor": 3239,
      "reate": 3240,
      "ĠGood": 3241,
      "Ġplayed": 3242,
      "Ġmer": 3243,
      "ĠAct": 3244,
      "ĠSec": 3245,
      "ĠSQL": 3246,
      "ume": 3247,
      "Ġestablished": 3248,
      "13": 3249,
      "Ġrepresented": 3250,
      "Ġapply": 3251,
      "Ġthank": 3252,
      "Ġmultip": 3253,
      "Ġgeneral": 3254,
      "Ġvertex": 3255,
      "Ġpopulation": 3256,
      "Ġinside": 3257,
      "ground": 3258,
      "isf": 3259,
      "culate": 3260,
      "ox": 3261,
      "example": 3262,
      "Ġincrease": 3263,
      "Ġnice": 3264,
      "uff": 3265,
      "gg": 3266,
      "elle": 3267,
      "Ġexperi": 3268,
      "Ġrows": 3269,
      "Ġcreates": 3270,
      "ĠHistory": 3271,
      "ession": 3272,
      "Ġcolumns": 3273,
      "num": 3274,
      "ront": 3275,
      "icult": 3276,
      "Ġobser": 3277,
      "[]": 3278,
      "Ġvol": 3279,
      "Ġà¤®": 3280,
      "Ġemot": 3281,
      "Ġavoid": 3282,
      "Ġdistribution": 3283,
      "Ġvideo": 3284,
      "Ġfit": 3285,
      "Ġ2006": 3286,
      "},": 3287,
      "Ġrequired": 3288,
      "iod": 3289,
      "ogn": 3290,
      "Ġmanipulate": 3291,
      "bra": 3292,
      "ĠFinally": 3293,
      "Ġlocation": 3294,
      "18": 3295,
      "class": 3296,
      "Ġequations": 3297,
      "istics": 3298,
      "Ġsolving": 3299,
      "Ġunit": 3300,
      "ache": 3301,
      "Ġitself": 3302,
      "pack": 3303,
      "onderful": 3304,
      "Ġfru": 3305,
      "Ġprice": 3306,
      "Ġsetting": 3307,
      "Ġparts": 3308,
      "Ġoptions": 3309,
      "Ġcustomer": 3310,
      "Ġfine": 3311,
      "icle": 3312,
      "aging": 3313,
      "Ġface": 3314,
      "Ġprocesses": 3315,
      "Ġfuture": 3316,
      "alking": 3317,
      "Ġjour": 3318,
      "Ġoperating": 3319,
      "igns": 3320,
      "Ġ;": 3321,
      "Ġcases": 3322,
      "Ġtradition": 3323,
      "Ġmoment": 3324,
      "dd": 3325,
      "anch": 3326,
      "ĠMin": 3327,
      "Ch": 3328,
      "aun": 3329,
      "izations": 3330,
      "Ġsides": 3331,
      "resh": 3332,
      "ncy": 3333,
      "Ġframework": 3334,
      "HP": 3335,
      "ortun": 3336,
      "ĠAndroid": 3337,
      "elcome": 3338,
      ")\\\\": 3339,
      "Ġactually": 3340,
      "ĠGu": 3341,
      "ĠDataFrame": 3342,
      "Ġblue": 3343,
      "']": 3344,
      "Ġnetworks": 3345,
      "ĠLo": 3346,
      "atever": 3347,
      "Ġdevice": 3348,
      "Ġcand": 3349,
      "ĠSub": 3350,
      "Ġcountry": 3351,
      "Ġhanging": 3352,
      "anger": 3353,
      "ĠRemember": 3354,
      "atter": 3355,
      "ĠState": 3356,
      "Every": 3357,
      "go": 3358,
      "Ġscen": 3359,
      "String": 3360,
      "Ġbar": 3361,
      "ĠHTTP": 3362,
      "Ġadjacency": 3363,
      "met": 3364,
      "Ġyoung": 3365,
      "Ġdraw": 3366,
      "Ġpast": 3367,
      "Ġbegan": 3368,
      "Ġ$(": 3369,
      "Ġadvant": 3370,
      "Ġmen": 3371,
      "ography": 3372,
      "ites": 3373,
      "Ġremo": 3374,
      "Ġappreciate": 3375,
      "Ġsun": 3376,
      "Ġfra": 3377,
      "Ġsatisf": 3378,
      "ounc": 3379,
      "mathbb": 3380,
      "iction": 3381,
      "ĠCode": 3382,
      "ĠDep": 3383,
      "Ġoverall": 3384,
      "atio": 3385,
      "ercent": 3386,
      "Ġnavigate": 3387,
      "Ġcell": 3388,
      "Ġcollect": 3389,
      "Ġestablish": 3390,
      "Ġprints": 3391,
      "sel": 3392,
      "ĠIDE": 3393,
      "Ġhardware": 3394,
      "Ġbrowser": 3395,
      "Ġ21": 3396,
      "vant": 3397,
      "na": 3398,
      "Ġcamp": 3399,
      "Ġfavor": 3400,
      "uration": 3401,
      "Ġchoose": 3402,
      "Ġpolit": 3403,
      "isk": 3404,
      "oms": 3405,
      "Cl": 3406,
      "Ġwar": 3407,
      "Ġstatic": 3408,
      "Ġappl": 3409,
      "ached": 3410,
      "Ġtransl": 3411,
      "Py": 3412,
      "pre": 3413,
      "Ġwhatever": 3414,
      "Ġbehind": 3415,
      "Ġwindow": 3416,
      "ids": 3417,
      "ĠPe": 3418,
      "Ġmeas": 3419,
      "Ġdifficult": 3420,
      "Ġtitle": 3421,
      "ening": 3422,
      "Bus": 3423,
      "ses": 3424,
      "Keep": 3425,
      "Well": 3426,
      "ony": 3427,
      "Ġgraphs": 3428,
      "tings": 3429,
      "Ġaf": 3430,
      "Ġwin": 3431,
      "ĠAb": 3432,
      "ĠChar": 3433,
      "spe": 3434,
      "sec": 3435,
      "Ġcaus": 3436,
      "Ġretrie": 3437,
      "aced": 3438,
      "ales": 3439,
      "Ġhello": 3440,
      "selves": 3441,
      "ĠCo": 3442,
      "Ġremaining": 3443,
      "This": 3444,
      "ĠDis": 3445,
      "Ġappropri": 3446,
      "ched": 3447,
      "att": 3448,
      "Ġrepe": 3449,
      "Pro": 3450,
      "Ġasking": 3451,
      "Ġ194": 3452,
      "Ġbutton": 3453,
      "oman": 3454,
      "ĠEn": 3455,
      "ĠLine": 3456,
      "Ġpress": 3457,
      "Ġmix": 3458,
      "Ġvill": 3459,
      "ĠSw": 3460,
      "unk": 3461,
      "Ġstrings": 3462,
      "Ġrequests": 3463,
      "Ġcut": 3464,
      "Ġfar": 3465,
      "ĠDjango": 3466,
      "astic": 3467,
      "ooth": 3468,
      "Ġcloud": 3469,
      "Ġauthent": 3470,
      "ĠMark": 3471,
      "ĠAf": 3472,
      "ĠQu": 3473,
      "Ġsounds": 3474,
      "inking": 3475,
      "Ġtheory": 3476,
      "emb": 3477,
      "Ġshared": 3478,
      "www": 3479,
      "lean": 3480,
      "Ġdebugging": 3481,
      "Ġrather": 3482,
      "Ġregression": 3483,
      "Ġtempl": 3484,
      "Ġaim": 3485,
      "Ġkeyword": 3486,
      "Ġri": 3487,
      "ĠTrans": 3488,
      "ĠRiver": 3489,
      "ĠChrist": 3490,
      "gra": 3491,
      "rel": 3492,
      "ĠNum": 3493,
      "osp": 3494,
      "ĠAddition": 3495,
      "Ġnames": 3496,
      "util": 3497,
      "Ġexactly": 3498,
      "onent": 3499,
      "ĠEast": 3500,
      "AR": 3501,
      "OS": 3502,
      "numbers": 3503,
      "Ġu": 3504,
      "omain": 3505,
      "vert": 3506,
      "ĠGoogle": 3507,
      "Ġthoughtful": 3508,
      "([": 3509,
      "Ġrule": 3510,
      "ĠChoices": 3511,
      "cont": 3512,
      "ĠConf": 3513,
      "Ġbirth": 3514,
      "ished": 3515,
      "Ġtelevision": 3516,
      "ocal": 3517,
      "ocol": 3518,
      "Ġinstallation": 3519,
      "Ġvisit": 3520,
      "Busy": 3521,
      "fect": 3522,
      "Ġaction": 3523,
      "Ġvirtual": 3524,
      "Ġfigure": 3525,
      "Ġhtt": 3526,
      "ump": 3527,
      "Ġevalu": 3528,
      "Name": 3529,
      "Ġtook": 3530,
      "ĠTest": 3531,
      "oll": 3532,
      "Data": 3533,
      "ĠExp": 3534,
      "Ġdetails": 3535,
      "ON": 3536,
      "Ġ`<": 3537,
      "Ġedge": 3538,
      "ms": 3539,
      "ĠMed": 3540,
      "ĠInteg": 3541,
      "ams": 3542,
      "FS": 3543,
      "abilities": 3544,
      "Ġdire": 3545,
      "hood": 3546,
      "ĠEd": 3547,
      "Ġsignal": 3548,
      "ĠAp": 3549,
      "ĠHind": 3550,
      "ĠFalse": 3551,
      "lym": 3552,
      "ĠPost": 3553,
      "Ġclient": 3554,
      "Ġmap": 3555,
      "Ġapproxim": 3556,
      "rror": 3557,
      "Ġstyle": 3558,
      "acy": 3559,
      "Ġobtain": 3560,
      "Ġ@": 3561,
      "Ġ($": 3562,
      "ĠJS": 3563,
      "Ġsche": 3564,
      "itude": 3565,
      "ĠSGP": 3566,
      "IN": 3567,
      "sort": 3568,
      "ĠAnother": 3569,
      "Ġcommonly": 3570,
      "Ġtables": 3571,
      "Ġoccur": 3572,
      "level": 3573,
      "Ġkm": 3574,
      "Ġcontrib": 3575,
      "Ġstarting": 3576,
      "Ġgrowth": 3577,
      "tract": 3578,
      "à¤¿": 3579,
      "Ġlanguages": 3580,
      "hers": 3581,
      "Ġadded": 3582,
      "à¥Ģ": 3583,
      "SQL": 3584,
      "rated": 3585,
      "stit": 3586,
      "ably": 3587,
      "Ġrecogn": 3588,
      "ban": 3589,
      "ened": 3590,
      "ĠPHP": 3591,
      "ĠRail": 3592,
      "Ġdeveloped": 3593,
      "lim": 3594,
      "Ġfunctional": 3595,
      "22": 3596,
      "chan": 3597,
      "ĠBro": 3598,
      "Ġnegative": 3599,
      "ublic": 3600,
      "lib": 3601,
      "Ġlines": 3602,
      "Ġpairs": 3603,
      "ĠII": 3604,
      "Ġ195": 3605,
      "ĠWhile": 3606,
      "[::": 3607,
      "Ġmultipl": 3608,
      "Ġhost": 3609,
      "overed": 3610,
      "Ġprec": 3611,
      "Ġconnection": 3612,
      "Ġpercent": 3613,
      "raw": 3614,
      "Ġprojects": 3615,
      "roduction": 3616,
      "[::-": 3617,
      "Con": 3618,
      "action": 3619,
      "pecial": 3620,
      "Ġformula": 3621,
      "Ġtown": 3622,
      "ĠInter": 3623,
      "ctors": 3624,
      "ĠMe": 3625,
      "Ġconsists": 3626,
      "path": 3627,
      "Ġann": 3628,
      "Ġdirectly": 3629,
      "aim": 3630,
      "equ": 3631,
      "Ġtour": 3632,
      "Ġflex": 3633,
      "graph": 3634,
      "dered": 3635,
      "Ġperiod": 3636,
      "Ġtrying": 3637,
      "Ġbecomes": 3638,
      "omial": 3639,
      "ĠNone": 3640,
      "Ġsold": 3641,
      "urrency": 3642,
      "ĠIntern": 3643,
      "Ġbrings": 3644,
      "Ġlive": 3645,
      "\\\");": 3646,
      "Ġoperator": 3647,
      "length": 3648,
      "Ġbeautiful": 3649,
      "Ġoptimize": 3650,
      "uting": 3651,
      "idence": 3652,
      "ĠMon": 3653,
      "Ġtrain": 3654,
      "Ġsecure": 3655,
      "isions": 3656,
      "Ġclust": 3657,
      "earch": 3658,
      "Ġstrength": 3659,
      "edy": 3660,
      "box": 3661,
      "Ġwidely": 3662,
      "pecially": 3663,
      "ees": 3664,
      "raft": 3665,
      "Ġrequires": 3666,
      "obile": 3667,
      "Ġsell": 3668,
      "ĠJan": 3669,
      "Ġleading": 3670,
      "Ġnormal": 3671,
      "Ġquery": 3672,
      "Ġspecies": 3673,
      "');": 3674,
      "ague": 3675,
      "Ġquality": 3676,
      "eel": 3677,
      "Ġencryption": 3678,
      "Ġdevelopers": 3679,
      "Ġefficiently": 3680,
      "Ġindustry": 3681,
      "Int": 3682,
      "iation": 3683,
      "artment": 3684,
      "Ġdescript": 3685,
      "Ġmodern": 3686,
      "Ġslow": 3687,
      "Ġrespective": 3688,
      "Ġfeed": 3689,
      "ĠKing": 3690,
      "Ġespecially": 3691,
      "bs": 3692,
      "ifies": 3693,
      "Ġevening": 3694,
      "ĠLisp": 3695,
      "Ġrecomm": 3696,
      "world": 3697,
      "Ġnove": 3698,
      "Ġones": 3699,
      "oss": 3700,
      "BC": 3701,
      "Ġdevices": 3702,
      "ĠMem": 3703,
      "cks": 3704,
      "Ġrepresentation": 3705,
      "Ġrefers": 3706,
      "SP": 3707,
      "rices": 3708,
      "Ġmember": 3709,
      "Ġdistributed": 3710,
      "Ġdiction": 3711,
      "Ġkeys": 3712,
      "Ġdistrict": 3713,
      "}{\\\\": 3714,
      "Ġmarket": 3715,
      "Ġeffectively": 3716,
      "RL": 3717,
      "script": 3718,
      "Ġ80": 3719,
      "ĠDevelop": 3720,
      "Ġinternet": 3721,
      "Ġcook": 3722,
      "Ġmax": 3723,
      "ishing": 3724,
      "Ġdiving": 3725,
      "gree": 3726,
      "ĠHi": 3727,
      "ĠAlways": 3728,
      "Ġmanaging": 3729,
      "Ġencou": 3730,
      "Ġfields": 3731,
      "Ġgain": 3732,
      "pper": 3733,
      "Ġdecor": 3734,
      "size": 3735,
      "eral": 3736,
      "ĠSu": 3737,
      "Ġbuy": 3738,
      "Ġdemon": 3739,
      "Ġ__": 3740,
      "ĠPark": 3741,
      "Ġproduction": 3742,
      "Com": 3743,
      "ancial": 3744,
      "Ġassociated": 3745,
      "Ġreport": 3746,
      "Ġlargest": 3747,
      "Ġlarger": 3748,
      "reet": 3749,
      "Ġprogress": 3750,
      "Ġconstruct": 3751,
      "jure": 3752,
      "index": 3753,
      "orage": 3754,
      "icks": 3755,
      "ĠGener": 3756,
      "ĠDesign": 3757,
      "Ġtraditional": 3758,
      "Ġweaves": 3759,
      "LE": 3760,
      "Ġcul": 3761,
      "anies": 3762,
      "Ġstates": 3763,
      "Ġaspect": 3764,
      "ĠOpt": 3765,
      "Keeping": 3766,
      "eng": 3767,
      "ĠFil": 3768,
      "Ġinsert": 3769,
      "ĠCor": 3770,
      "Ġpleasure": 3771,
      "lease": 3772,
      "olds": 3773,
      "Ġheart": 3774,
      "fty": 3775,
      "Ġpractice": 3776,
      "bles": 3777,
      "ha": 3778,
      "Ġhope": 3779,
      "Ġreceived": 3780,
      "ĠEuro": 3781,
      "Ġappropriate": 3782,
      "son": 3783,
      "Ġmeet": 3784,
      "apan": 3785,
      "Ġ\\": 3786,
      "Ġlinked": 3787,
      "Ġeasily": 3788,
      "Ġsl": 3789,
      "ĠAut": 3790,
      "ica": 3791,
      "board": 3792,
      "Ġderiv": 3793,
      "Ġsens": 3794,
      "ĠBr": 3795,
      "Ġvariety": 3796,
      "Ġintegration": 3797,
      "Ġblack": 3798,
      "ĠCalculate": 3799,
      "leep": 3800,
      "ĠSm": 3801,
      "ĠOff": 3802,
      "Ġfeet": 3803,
      "though": 3804,
      "ĠPre": 3805,
      "Ġscre": 3806,
      "Ġexcelle": 3807,
      "Ġexisting": 3808,
      "lier": 3809,
      "Ġà¤ķ": 3810,
      "Ġquickly": 3811,
      "Ġruns": 3812,
      "Ġinference": 3813,
      "ags": 3814,
      "Ġasynchronous": 3815,
      "Ġonline": 3816,
      "ountain": 3817,
      "ously": 3818,
      "à¥Ī": 3819,
      "Ġwhole": 3820,
      "Ġphysical": 3821,
      "infty": 3822,
      "Ġcup": 3823,
      "ĠType": 3824,
      "ĠAustralia": 3825,
      "Ġindependent": 3826,
      "ĠAdditionally": 3827,
      "base": 3828,
      "dom": 3829,
      "ĠAg": 3830,
      "Ġmicro": 3831,
      "Ġimm": 3832,
      "Ġenough": 3833,
      "ternoon": 3834,
      "Ġdeploy": 3835,
      "Ġreflect": 3836,
      "ĠIntroduction": 3837,
      "Ġill": 3838,
      "Ġreview": 3839,
      "Ġheap": 3840,
      "project": 3841,
      "Ġlonger": 3842,
      "ounds": 3843,
      "Ġdepth": 3844,
      "Ġcompos": 3845,
      "Ġparameters": 3846,
      "aur": 3847,
      "ĠEar": 3848,
      "ario": 3849,
      "Ġroad": 3850,
      "Ġchallenges": 3851,
      "Ġtopics": 3852,
      "Ġsales": 3853,
      "Ġ2005": 3854,
      "Ġminimum": 3855,
      "pd": 3856,
      "zz": 3857,
      "Ġratio": 3858,
      "instr": 3859,
      "ĠAcc": 3860,
      "Ġnature": 3861,
      "Ġoffers": 3862,
      "ought": 3863,
      "most": 3864,
      "sin": 3865,
      "atell": 3866,
      "instrument": 3867,
      "['": 3868,
      "Ġimages": 3869,
      "never": 3870,
      "iented": 3871,
      "ception": 3872,
      "Ġbroad": 3873,
      "title": 3874,
      "ĠRails": 3875,
      "ĠGraph": 3876,
      "Ġgreen": 3877,
      "Ġcustomers": 3878,
      "Ġprofess": 3879,
      "ka": 3880,
      "ules": 3881,
      "arb": 3882,
      "Ġdev": 3883,
      "Ġthroughout": 3884,
      "Ġnight": 3885,
      "Ġshortest": 3886,
      "joy": 3887,
      "}(": 3888,
      "atives": 3889,
      "Ġmath": 3890,
      "ĠThanks": 3891,
      "Ġincluded": 3892,
      "function": 3893,
      "Ġadapt": 3894,
      "Ġtaken": 3895,
      "Ġnpm": 3896,
      "Ġafternoon": 3897,
      "ino": 3898,
      "Ġwent": 3899,
      "ried": 3900,
      "ĠDefine": 3901,
      "Ġfavorite": 3902,
      "Ġrob": 3903,
      "tty": 3904,
      "Ġopportun": 3905,
      "ĠClo": 3906,
      "ĠWill": 3907,
      "Ġcommands": 3908,
      "matrix": 3909,
      "Ġideas": 3910,
      "Ġindividuals": 3911,
      "solute": 3912,
      "Ġharmless": 3913,
      "map": 3914,
      "thread": 3915,
      "ĠIndian": 3916,
      "75": 3917,
      "utable": 3918,
      "ĠRust": 3919,
      "Ġempty": 3920,
      "Ġstrategies": 3921,
      "orph": 3922,
      "Ġsample": 3923,
      "Ġsix": 3924,
      "elt": 3925,
      "Ġaccording": 3926,
      "Ġ2000": 3927,
      "Ġsite": 3928,
      "DA": 3929,
      "tc": 3930,
      "Ġcontaining": 3931,
      "Ġexcellent": 3932,
      "John": 3933,
      "cos": 3934,
      "iff": 3935,
      "ĠMarch": 3936,
      "ĠFrom": 3937,
      "ĠOlym": 3938,
      "Ġmechan": 3939,
      "agraph": 3940,
      "Ġà¤¤": 3941,
      "Ġfootball": 3942,
      "Ġroute": 3943,
      "Ġcat": 3944,
      "Ġunits": 3945,
      "Ġremember": 3946,
      "\\\\_{": 3947,
      "Ġcalls": 3948,
      "})": 3949,
      "Ġpublished": 3950,
      "Ġplant": 3951,
      "Ġadvanced": 3952,
      "Ġlevels": 3953,
      "atically": 3954,
      "Ġpages": 3955,
      "ĠMich": 3956,
      "Ġshap": 3957,
      "Ġdesired": 3958,
      "Ġregard": 3959,
      "Ġrepresenting": 3960,
      "Ġlayout": 3961,
      "Ġattributes": 3962,
      "Ġdemonstr": 3963,
      "eal": 3964,
      "Ġ22": 3965,
      "idered": 3966,
      "Ġseparate": 3967,
      "';": 3968,
      "Ġant": 3969,
      "mathbf": 3970,
      "Ġpieces": 3971,
      "des": 3972,
      "ham": 3973,
      "inct": 3974,
      "Ġsources": 3975,
      "Ġpy": 3976,
      "ĠTrue": 3977,
      "etwork": 3978,
      "Ġspent": 3979,
      "ondon": 3980,
      "chools": 3981,
      "ze": 3982,
      "olic": 3983,
      "Ġproper": 3984,
      "Ġ\\\\[": 3985,
      "Ġperfect": 3986,
      "Ġpreprocess": 3987,
      "Ġrelated": 3988,
      "racy": 3989,
      "lin": 3990,
      "oriented": 3991,
      "Ġglobal": 3992,
      "ĠMc": 3993,
      "place": 3994,
      "Ġindic": 3995,
      "Ġoptimal": 3996,
      "Ġupdate": 3997,
      "ĠEurope": 3998,
      "mon": 3999,
      "Ġsatell": 4000,
      "Ġimplementing": 4001,
      "Ġmessages": 4002,
      "Ġsurpr": 4003,
      "âĢ": 4004,
      "ĠPart": 4005,
      "ĠHello": 4006,
      "Ġstop": 4007,
      "ĠJapan": 4008,
      "Ġmatrices": 4009,
      "Ġ['": 4010,
      "Ġtests": 4011,
      "fit": 4012,
      "mar": 4013,
      "Ġactions": 4014,
      "Ġfair": 4015,
      "ĠAfric": 4016,
      "kay": 4017,
      "Ġsupports": 4018,
      "Ġinteresting": 4019,
      "ĠBas": 4020,
      "ĠMus": 4021,
      "ĠHindi": 4022,
      "actions": 4023,
      "Ġdest": 4024,
      "Ġskills": 4025,
      "Ġsentence": 4026,
      "times": 4027,
      "Ġseen": 4028,
      "Ġupon": 4029,
      "ĠString": 4030,
      "Ġconsidered": 4031,
      "mod": 4032,
      "reat": 4033,
      "Ġmov": 4034,
      "Ġvillage": 4035,
      "Wonderful": 4036,
      "Ġ...": 4037,
      "aster": 4038,
      "Ġreducing": 4039,
      "utton": 4040,
      "Ġusually": 4041,
      "Ġachieve": 4042,
      "aks": 4043,
      "beg": 4044,
      "Ġment": 4045,
      "ĠGr": 4046,
      "Ġpaths": 4047,
      "Ġpiece": 4048,
      "CT": 4049,
      "à¤ķ": 4050,
      "Ġshape": 4051,
      "Ġscient": 4052,
      "Ġinstalling": 4053,
      "ĠPlay": 4054,
      "ycle": 4055,
      "ĠDistrict": 4056,
      "Ġspar": 4057,
      "Sure": 4058,
      "ĠBig": 4059,
      "Ġfinancial": 4060,
      "Ġdescribe": 4061,
      "Ġ^": 4062,
      "oted": 4063,
      "Ġwhenever": 4064,
      "ordin": 4065,
      "Ġtax": 4066,
      "ĠWell": 4067,
      "Ġcosts": 4068,
      "labor": 4069,
      "ĠHis": 4070,
      "Ġinstr": 4071,
      "Ġstorage": 4072,
      "Ġground": 4073,
      "ĠImport": 4074,
      "Ġpredict": 4075,
      "Ġcorrectly": 4076,
      ").\",": 4077,
      "rage": 4078,
      "ĠLove": 4079,
      "ĠJu": 4080,
      "21": 4081,
      "ville": 4082,
      "vere": 4083,
      "agon": 4084,
      "Ġremove": 4085,
      "iforn": 4086,
      "Ġclick": 4087,
      "Ġrail": 4088,
      "Ġphot": 4089,
      "Ġdoesn": 4090,
      "Ġinflu": 4091,
      "ara": 4092,
      "umn": 4093,
      "ands": 4094,
      "ership": 4095,
      "Ġresource": 4096,
      "Ġcareer": 4097,
      "Ġcame": 4098,
      "Ġdefault": 4099,
      "Ġexception": 4100,
      "imensional": 4101,
      "begin": 4102,
      "ifornia": 4103,
      "24": 4104,
      "ĠIdent": 4105,
      "ĠLondon": 4106,
      "rehe": 4107,
      "Ġdirection": 4108,
      "oes": 4109,
      "Ġwidth": 4110,
      "born": 4111,
      "year": 4112,
      "Ġtowards": 4113,
      "Ġnorth": 4114,
      "Ġpractices": 4115,
      "itable": 4116,
      "Ġball": 4117,
      "ĠTotal": 4118,
      "ĠFol": 4119,
      "ĠPerson": 4120,
      "Ġtransport": 4121,
      "Ġ$$\\\\": 4122,
      "^{-": 4123,
      "Ġeducation": 4124,
      "ux": 4125,
      "Ġey": 4126,
      "Ġpurch": 4127,
      "align": 4128,
      "Ġmention": 4129,
      "Ġexperiences": 4130,
      "Ġstay": 4131,
      "Ġhey": 4132,
      "Ġpolic": 4133,
      "Ġprotect": 4134,
      "ĠBuild": 4135,
      "Ġeffects": 4136,
      "DK": 4137,
      "Ġexpected": 4138,
      "Ġconversations": 4139,
      "Ġapples": 4140,
      "Ġpow": 4141,
      "ĠTime": 4142,
      "Ġep": 4143,
      "ĠCalifornia": 4144,
      "}}": 4145,
      "ĠAug": 4146,
      "ĠColle": 4147,
      "Ġ23": 4148,
      "Ġemail": 4149,
      "Ġinvolve": 4150,
      "Ġcentral": 4151,
      "ĠCommon": 4152,
      "Ġfib": 4153,
      "Ġexercise": 4154,
      "ĠHer": 4155,
      "opy": 4156,
      "theta": 4157,
      "partial": 4158,
      "So": 4159,
      "ole": 4160,
      "ĠOther": 4161,
      "Ġmodify": 4162,
      "Ġconcurrent": 4163,
      "aff": 4164,
      "flow": 4165,
      "ĠOptim": 4166,
      "Ġfalse": 4167,
      "Ġvia": 4168,
      "Ġheld": 4169,
      "Ġsimply": 4170,
      "Ġsave": 4171,
      "ĠCSV": 4172,
      "ky": 4173,
      "arrow": 4174,
      "Ġstraight": 4175,
      "ivil": 4176,
      "Ġvisited": 4177,
      "GT": 4178,
      "host": 4179,
      "ilo": 4180,
      "Ġstations": 4181,
      "ceed": 4182,
      "ĠJack": 4183,
      "Ġ<=": 4184,
      "ĠAnal": 4185,
      "appy": 4186,
      "Ġopening": 4187,
      "Ġdate": 4188,
      "Ġpretty": 4189,
      "ĠAdv": 4190,
      "alent": 4191,
      "Ġpurpose": 4192,
      "Ġlooking": 4193,
      "Ġdigital": 4194,
      "?,": 4195,
      "uary": 4196,
      "Ġ35": 4197,
      "Ġgoes": 4198,
      "Ġscore": 4199,
      "ĠIsland": 4200,
      "Ġrequirements": 4201,
      "Ġbalance": 4202,
      "ulating": 4203,
      "Ġexam": 4204,
      "Ġcompiler": 4205,
      "ĠOlympic": 4206,
      "ĠModel": 4207,
      "Ġmiddle": 4208,
      "Ġcorresponding": 4209,
      "Ġstored": 4210,
      "Ġdele": 4211,
      "Ġsparse": 4212,
      "Ġ36": 4213,
      "allest": 4214,
      "Ġconfigure": 4215,
      "len": 4216,
      "Ġmac": 4217,
      "pril": 4218,
      "Ġready": 4219,
      "Ġlatest": 4220,
      "45": 4221,
      "inger": 4222,
      "Ġmass": 4223,
      "Ġcontinue": 4224,
      "choice": 4225,
      "asc": 4226,
      "Ġrect": 4227,
      "Ġparagraph": 4228,
      "fs": 4229,
      "Ġthinking": 4230,
      "Ġseem": 4231,
      "Ġ:-": 4232,
      "faces": 4233,
      "arp": 4234,
      "Ġinher": 4235,
      "ĠChurch": 4236,
      "Ġneighbor": 4237,
      ")(": 4238,
      ">`": 4239,
      "ait": 4240,
      "dy": 4241,
      "Ġrev": 4242,
      "Ġforce": 4243,
      "Ġextra": 4244,
      "Ġloops": 4245,
      "Ġcompanies": 4246,
      "nomial": 4247,
      "ĠPandas": 4248,
      "Ġorganization": 4249,
      "ders": 4250,
      "Ġcontainer": 4251,
      "SE": 4252,
      "Write": 4253,
      "versal": 4254,
      "Ġcolors": 4255,
      "32": 4256,
      "pective": 4257,
      "orking": 4258,
      "ĠAir": 4259,
      "vector": 4260,
      "ĠBay": 4261,
      "Ġforms": 4262,
      "onacc": 4263,
      "fil": 4264,
      "aste": 4265,
      "Ġresponses": 4266,
      "Ġmillion": 4267,
      "onacci": 4268,
      "ailed": 4269,
      "Ġjo": 4270,
      "ensive": 4271,
      "Ġdegree": 4272,
      "ĠPa": 4273,
      "Ġroom": 4274,
      "Ġ};": 4275,
      "Ġresulting": 4276,
      "Ġproduce": 4277,
      "Ġsummary": 4278,
      "aj": 4279,
      "ington": 4280,
      "Ġfail": 4281,
      "ellow": 4282,
      "ival": 4283,
      "Ġgoals": 4284,
      "Ġderived": 4285,
      "count": 4286,
      "sub": 4287,
      "Ġ\\\\\\\\": 4288,
      "ords": 4289,
      "Ġlower": 4290,
      "Ġstores": 4291,
      "main": 4292,
      "Ġoil": 4293,
      "Ġensures": 4294,
      "ĠFun": 4295,
      "Ġprimary": 4296,
      "17": 4297,
      "ocker": 4298,
      "->": 4299,
      "mm": 4300,
      "start": 4301,
      "ĠURL": 4302,
      "Ġpointer": 4303,
      "Ġboard": 4304,
      "ĠClass": 4305,
      "Ġauthentication": 4306,
      "iable": 4307,
      "Ġfront": 4308,
      "ĠDav": 4309,
      "ultural": 4310,
      "Ġoperators": 4311,
      "Ġstudent": 4312,
      "Ġdefinition": 4313,
      "Ġtemplate": 4314,
      "rehens": 4315,
      "vation": 4316,
      "ulations": 4317,
      "gebra": 4318,
      "ellig": 4319,
      "ĠGra": 4320,
      "rown": 4321,
      "Ġresponsible": 4322,
      "dis": 4323,
      "yles": 4324,
      "empt": 4325,
      "à¤®": 4326,
      "Ġsharing": 4327,
      "Ġrespond": 4328,
      "Ġmeasures": 4329,
      "etch": 4330,
      "Ġlovely": 4331,
      "pass": 4332,
      "Ġwhite": 4333,
      "Ġopened": 4334,
      "Ġcenter": 4335,
      "ociety": 4336,
      "ACGT": 4337,
      "Ġbelieve": 4338,
      "ID": 4339,
      "ĠApril": 4340,
      "ĠGerm": 4341,
      "Ġchain": 4342,
      "Ġdivided": 4343,
      "ĠPerform": 4344,
      "à¥Īà¤Ĥ": 4345,
      "ACGTACGT": 4346,
      "Ġinteractive": 4347,
      "state": 4348,
      "ĠAng": 4349,
      "Ġrisk": 4350,
      "init": 4351,
      "Ġenjoy": 4352,
      "ĠCanada": 4353,
      "Ġactivities": 4354,
      "do": 4355,
      "ĠDiv": 4356,
      "Ġimplemented": 4357,
      "Ġtruly": 4358,
      "direct": 4359,
      "Ġtold": 4360,
      "rap": 4361,
      "Ġled": 4362,
      "Ġcontin": 4363,
      "Ġstream": 4364,
      "Ġearlier": 4365,
      "Ġdam": 4366,
      "Ġremains": 4367,
      "ĠGreat": 4368,
      "cer": 4369,
      "Ġwomen": 4370,
      "Ġfarm": 4371,
      "Ġloss": 4372,
      "Ġperspective": 4373,
      "ĠFollow": 4374,
      "Ġcommit": 4375,
      "():": 4376,
      "ensor": 4377,
      "askell": 4378,
      "Ġexists": 4379,
      "Ġplt": 4380,
      "Ġcompleted": 4381,
      "Ġmonths": 4382,
      "rating": 4383,
      "ĠSupp": 4384,
      "clusion": 4385,
      "Ġdirected": 4386,
      "CD": 4387,
      "db": 4388,
      "Ġcatch": 4389,
      "orial": 4390,
      "Ġhor": 4391,
      "urg": 4392,
      "Ġwest": 4393,
      "Ġserved": 4394,
      "Ġ90": 4395,
      "Ġpaper": 4396,
      "eleb": 4397,
      "gment": 4398,
      "cto": 4399,
      "Ġhistor": 4400,
      "ĠThus": 4401,
      "Ġgrid": 4402,
      "Ġissue": 4403,
      "Ġvisualization": 4404,
      "Ġforest": 4405,
      "-\\\\": 4406,
      "ĠHar": 4407,
      "Ġperm": 4408,
      "ĠTech": 4409,
      "hello": 4410,
      "Ġtwice": 4411,
      "ĠAugust": 4412,
      "ded": 4413,
      "Ġpan": 4414,
      "ĠPres": 4415,
      "Ġshows": 4416,
      "group": 4417,
      "Ġeast": 4418,
      "Ġchart": 4419,
      "Ġfaster": 4420,
      "Good": 4421,
      "ĠSing": 4422,
      "Ġfunctionality": 4423,
      "Ġsmooth": 4424,
      "Ġpackages": 4425,
      "ĠNot": 4426,
      "Ġarri": 4427,
      "Ġclaim": 4428,
      "Ġgets": 4429,
      "ford": 4430,
      "Ġask": 4431,
      "Ġà¤¸": 4432,
      "Ġregion": 4433,
      "weight": 4434,
      "ĠEngland": 4435,
      "ĠPrint": 4436,
      "mic": 4437,
      "oe": 4438,
      "Ġadds": 4439,
      "Ar": 4440,
      "Ġsouth": 4441,
      "Ġ2007": 4442,
      "ĠQue": 4443,
      "Ġconfiguration": 4444,
      "Ġful": 4445,
      "issions": 4446,
      "ampions": 4447,
      "avy": 4448,
      "aven": 4449,
      "Ġlogic": 4450,
      "Ġrecursion": 4451,
      "hib": 4452,
      "}^{": 4453,
      "ĠJune": 4454,
      "Ġnews": 4455,
      "ĠVal": 4456,
      "Ġ2004": 4457,
      "Ġplaying": 4458,
      "Error": 4459,
      "ef": 4460,
      "}$.": 4461,
      "atures": 4462,
      "Ġdomain": 4463,
      "etimes": 4464,
      "result": 4465,
      "Ġcentury": 4466,
      "Thanks": 4467,
      "ĠDown": 4468,
      "Ġchann": 4469,
      "oolean": 4470,
      "Ġstarts": 4471,
      "Ġproduced": 4472,
      "ĠStart": 4473,
      "lots": 4474,
      "orthern": 4475,
      "ĠNetwork": 4476,
      "Ġadvice": 4477,
      "track": 4478,
      "Ġanimals": 4479,
      "Ġpick": 4480,
      "aching": 4481,
      "ĠSept": 4482,
      "minist": 4483,
      "Ġgeomet": 4484,
      "Ġpolynomial": 4485,
      "Ġextension": 4486,
      "FT": 4487,
      "Ġmeters": 4488,
      "Ġaffect": 4489,
      "ĠEarth": 4490,
      "ĠJuly": 4491,
      "tan": 4492,
      "ĠâĢ": 4493,
      "Ġlen": 4494,
      "Ġabsolute": 4495,
      "lick": 4496,
      "Ġexpect": 4497,
      "Ġcollabor": 4498,
      "Ġlikely": 4499,
      "à¥Ĥ": 4500,
      "ĠNumPy": 4501,
      "ĠâĢĶ": 4502,
      "reme": 4503,
      "Ġinit": 4504,
      "Ġonto": 4505,
      "à¤¦": 4506,
      "Ġpassword": 4507,
      "ĠInternational": 4508,
      "Ġ28": 4509,
      "izz": 4510,
      "Ġspir": 4511,
      "bert": 4512,
      "Ġsmallest": 4513,
      "ES": 4514,
      "run": 4515,
      "Ġdog": 4516,
      "Ġquite": 4517,
      "Ġsubject": 4518,
      "Ġanalyzing": 4519,
      "ĠRoad": 4520,
      "Count": 4521,
      "rest": 4522,
      "Ġcause": 4523,
      "Ġmobile": 4524,
      "ĠFind": 4525,
      "Ġswe": 4526,
      "ĠStreet": 4527,
      "ĠChoose": 4528,
      "Ġnumerical": 4529,
      "Class": 4530,
      "Al": 4531,
      "pite": 4532,
      "ĠFire": 4533,
      "ĠName": 4534,
      "Ġcomprehens": 4535,
      "acity": 4536,
      "Ġ+=": 4537,
      "ilingual": 4538,
      "nes": 4539,
      "Ġtalking": 4540,
      "Ġspecify": 4541,
      "atively": 4542,
      "Ġmarketing": 4543,
      "ama": 4544,
      "igen": 4545,
      "Ġinvolved": 4546,
      "Ġdidn": 4547,
      "ĠDevelopment": 4548,
      "fl": 4549,
      "Ġsettings": 4550,
      "Ġtyp": 4551,
      "Ġreus": 4552,
      "Ġ27": 4553,
      "Ġbackground": 4554,
      "Ġcollections": 4555,
      "Ġcounter": 4556,
      "Ġlabel": 4557,
      "Ġfish": 4558,
      "apple": 4559,
      "Ġdecisions": 4560,
      "ĠVi": 4561,
      "Ġsurround": 4562,
      "Ġprofessional": 4563,
      "Node": 4564,
      "}^": 4565,
      "unic": 4566,
      "Ġprote": 4567,
      "Ġ26": 4568,
      "Ġmultilingual": 4569,
      "Ġcombined": 4570,
      "ĠJanuary": 4571,
      "App": 4572,
      "error": 4573,
      "Ġensuring": 4574,
      "model": 4575,
      "Ġdeath": 4576,
      "ĠVer": 4577,
      "Ġfilms": 4578,
      "Ġda": 4579,
      "ĠHam": 4580,
      "ĠEff": 4581,
      "Ġreceive": 4582,
      "download": 4583,
      "xi": 4584,
      "ĠBar": 4585,
      "Ġknew": 4586,
      "New": 4587,
      "inters": 4588,
      "Ġhot": 4589,
      "ĠNove": 4590,
      "Ġcontract": 4591,
      "http": 4592,
      "ĠSeptember": 4593,
      "ned": 4594,
      "ĠDOM": 4595,
      "à¤ģ": 4596,
      "Ġsubtract": 4597,
      "Ġstands": 4598,
      "lism": 4599,
      "Ġsometimes": 4600,
      "ĠIndia": 4601,
      "opt": 4602,
      "yt": 4603,
      "icians": 4604,
      "Ġcontinuous": 4605,
      "inst": 4606,
      "Ġlost": 4607,
      "Ġ\\\\]": 4608,
      "wood": 4609,
      "à¥¤": 4610,
      "Ġreading": 4611,
      "roller": 4612,
      "learn": 4613,
      "23": 4614,
      "ael": 4615,
      "fort": 4616,
      "Ġfolder": 4617,
      "ĠProv": 4618,
      "json": 4619,
      "Ġconsumer": 4620,
      "Ġsn": 4621,
      "ĠSan": 4622,
      "Ġinsight": 4623,
      "eries": 4624,
      "Ġcateg": 4625,
      "Ġbelow": 4626,
      "next": 4627,
      "Ġhttps": 4628,
      "Ġmultiplication": 4629,
      "ĠCollege": 4630,
      "ĠAc": 4631,
      "Ġhi": 4632,
      "ĠRepres": 4633,
      "bu": 4634,
      "ding": 4635,
      "Ġdu": 4636,
      "Ġmode": 4637,
      "Ġnational": 4638,
      "Ġitem": 4639,
      "osit": 4640,
      "ief": 4641,
      "Ġdistinct": 4642,
      "Ġrecommend": 4643,
      "Ġdoc": 4644,
      "Ġlif": 4645,
      "Ġenh": 4646,
      "Ġassum": 4647,
      "ĠLoad": 4648,
      "Ġspecified": 4649,
      "Ġcoeff": 4650,
      "Ġsuccessful": 4651,
      "ua": 4652,
      "attle": 4653,
      "ung": 4654,
      "ĠMiss": 4655,
      "ĠLocal": 4656,
      "Ġperformed": 4657,
      "ĠObject": 4658,
      "era": 4659,
      "Ġschools": 4660,
      "ĠMor": 4661,
      "Ġinfin": 4662,
      "ĠInc": 4663,
      "Ġcompar": 4664,
      "arily": 4665,
      "Ġthemselves": 4666,
      "Ġ2008": 4667,
      "Ġmoving": 4668,
      "Ġcircle": 4669,
      "change": 4670,
      "Ġlaun": 4671,
      "ĠMid": 4672,
      "Ġcomputation": 4673,
      "Ġchanged": 4674,
      "Ġ:-)\",": 4675,
      "net": 4676,
      "icles": 4677,
      "Ġradio": 4678,
      "Ġaccept": 4679,
      "ĠAustralian": 4680,
      "ĠAre": 4681,
      "Ġcompared": 4682,
      "Ġoutside": 4683,
      "Ġparticip": 4684,
      "Ġinstrument": 4685,
      "rs": 4686,
      "Ġcrypt": 4687,
      "ĠTod": 4688,
      "thing": 4689,
      "Ġcompute": 4690,
      "Ġactive": 4691,
      "Ġidentity": 4692,
      "Ġincreased": 4693,
      "ridge": 4694,
      "Ġmentioned": 4695,
      "TE": 4696,
      "max": 4697,
      "ĠHouse": 4698,
      "oute": 4699,
      "Ġ\\\\)": 4700,
      "Ġchanging": 4701,
      "Ġstrategy": 4702,
      "care": 4703,
      "react": 4704,
      "Ġactual": 4705,
      "orem": 4706,
      "Ġdifferences": 4707,
      "pot": 4708,
      "Ġceleb": 4709,
      "Ġangle": 4710,
      "ĠSum": 4711,
      "Ġliving": 4712,
      "adr": 4713,
      "Ġvo": 4714,
      "cribe": 4715,
      "Ġclosed": 4716,
      "rew": 4717,
      "ĠMAT": 4718,
      "Ġrace": 4719,
      "Ġincreasing": 4720,
      "_^": 4721,
      "hest": 4722,
      "Ġconv": 4723,
      "ĠNote": 4724,
      "Ġformed": 4725,
      "Ġworked": 4726,
      "Ġdatabases": 4727,
      "Ġoccurs": 4728,
      "Ġswitch": 4729,
      "Ġ^_^": 4730,
      "cific": 4731,
      "Ġinsp": 4732,
      "Ġmanager": 4733,
      "Ġtemper": 4734,
      "Ġwonderfully": 4735,
      "Ġdeclare": 4736,
      "gon": 4737,
      "Ġcard": 4738,
      "ĠDuring": 4739,
      "ender": 4740,
      "orms": 4741,
      "orge": 4742,
      "ĠSol": 4743,
      "Ġcred": 4744,
      "ological": 4745,
      "++)": 4746,
      "ĠCanadian": 4747,
      "ĠAdvanced": 4748,
      "Ġtoken": 4749,
      "ĠSun": 4750,
      "Ġhowever": 4751,
      "Ġvectors": 4752,
      "venue": 4753,
      "Ġcircu": 4754,
      "<<": 4755,
      "mid": 4756,
      "Ġalgebra": 4757,
      "essage": 4758,
      "ĠThank": 4759,
      "Create": 4760,
      "SA": 4761,
      "uracy": 4762,
      "vis": 4763,
      "erve": 4764,
      "ĠMod": 4765,
      "Ġbreath": 4766,
      "Ġcombination": 4767,
      "ilitary": 4768,
      "nal": 4769,
      "rc": 4770,
      "lement": 4771,
      "Ġstar": 4772,
      "ĠMo": 4773,
      "Ġunc": 4774,
      "Ġspread": 4775,
      "points": 4776,
      "((": 4777,
      "inations": 4778,
      "amar": 4779,
      "ĠRE": 4780,
      "Ġplaces": 4781,
      "ithmetic": 4782,
      "Ġeconomic": 4783,
      "Ġapplying": 4784,
      "ultane": 4785,
      "ffic": 4786,
      "Ġ});": 4787,
      "Ġextract": 4788,
      "Ġmoved": 4789,
      "Ġrelease": 4790,
      "Ġlayer": 4791,
      "Ġapplied": 4792,
      "LAB": 4793,
      "ĠPol": 4794,
      "Ġjoy": 4795,
      "Ġnotation": 4796,
      "Ġincorpor": 4797,
      "Ġbott": 4798,
      "à¤¸": 4799,
      "Ġcontra": 4800,
      "Ġ2001": 4801,
      "Ġradi": 4802,
      "Ġseconds": 4803,
      "Ġfixed": 4804,
      "Qu": 4805,
      "ros": 4806,
      "Ġselection": 4807,
      "Ġmeeting": 4808,
      "Ġgetting": 4809,
      "dri": 4810,
      "Ġbi": 4811,
      "Ġasync": 4812,
      "ĠMary": 4813,
      "Ġpointers": 4814,
      "field": 4815,
      "Ġsem": 4816,
      "Ġcoordin": 4817,
      "Ġwanted": 4818,
      "indows": 4819,
      "Ġpolitical": 4820,
      "stain": 4821,
      "Ġcool": 4822,
      "Ġautomatically": 4823,
      "hy": 4824,
      "table": 4825,
      "Ġtou": 4826,
      "plend": 4827,
      "ĠEr": 4828,
      "Ġround": 4829,
      "Ġelif": 4830,
      "Ġtreat": 4831,
      "ĠMATLAB": 4832,
      "input": 4833,
      "ĠEnc": 4834,
      "ckets": 4835,
      "Ġpeace": 4836,
      "van": 4837,
      "Ġtu": 4838,
      "Ġwalk": 4839,
      "Ġ45": 4840,
      "Ġsimultane": 4841,
      "Ġà¤¨": 4842,
      "Ġslic": 4843,
      "ĠFeb": 4844,
      "Ġattempt": 4845,
      "Ġtransfer": 4846,
      "Ġrelevant": 4847,
      "ĠControl": 4848,
      "ĠOverall": 4849,
      "Ġderivative": 4850,
      "Ġstri": 4851,
      "atory": 4852,
      "Ġwr": 4853,
      "Ġsecret": 4854,
      "Ġemployees": 4855,
      "Ġrespectively": 4856,
      "Ġpark": 4857,
      "Ġop": 4858,
      "soft": 4859,
      "itely": 4860,
      "Ġcommunities": 4861,
      "ĠLeague": 4862,
      "Ġparameter": 4863,
      "Ġallocation": 4864,
      "ufact": 4865,
      "Ġfall": 4866,
      "Ġbill": 4867,
      "eds": 4868,
      "ĠOur": 4869,
      "Ġplants": 4870,
      "Ġoption": 4871,
      "ancing": 4872,
      "Ġbrand": 4873,
      "number": 4874,
      "Ġhop": 4875,
      "ĠBra": 4876,
      "ĠPlease": 4877,
      "='": 4878,
      "iter": 4879,
      "ologies": 4880,
      "ĠInstead": 4881,
      "ĠSpark": 4882,
      "Ġbusinesses": 4883,
      "CC": 4884,
      "Ġsustain": 4885,
      "Ġtrust": 4886,
      "Ġliter": 4887,
      "arity": 4888,
      "ĠLiving": 4889,
      "acing": 4890,
      "ancy": 4891,
      "Ġadjust": 4892,
      "Ġdictionary": 4893,
      "plendid": 4894,
      ":**": 4895,
      "Id": 4896,
      "ĠTV": 4897,
      "Ġ2003": 4898,
      "Ġdatasets": 4899,
      "plotlib": 4900,
      "90": 4901,
      "Ġcompare": 4902,
      "Ġnovel": 4903,
      "Ġemer": 4904,
      "Ġhom": 4905,
      "ĠOh": 4906,
      "Ġjava": 4907,
      "Ġperforming": 4908,
      "Ġfriendly": 4909,
      ",\\\\": 4910,
      "Ġfill": 4911,
      "depend": 4912,
      "Ġclub": 4913,
      "Ġinterp": 4914,
      "Ġsitu": 4915,
      "Ġsends": 4916,
      "Ġfrequency": 4917,
      "OP": 4918,
      "ued": 4919,
      "idge": 4920,
      "ado": 4921,
      "outhern": 4922,
      "Ġsaw": 4923,
      "Ġcapable": 4924,
      "ĠAssoci": 4925,
      "iny": 4926,
      "ĠHand": 4927,
      "ruary": 4928,
      "Ġjourney": 4929,
      "Ġult": 4930,
      "omb": 4931,
      "comes": 4932,
      "Ġbranch": 4933,
      "overn": 4934,
      "Ġbroadcast": 4935,
      "nown": 4936,
      "Ġpassed": 4937,
      "Ġmental": 4938,
      "ctober": 4939,
      "dimensional": 4940,
      "Ġ!": 4941,
      "Ġweights": 4942,
      "Ġ1990": 4943,
      "lambda": 4944,
      "rics": 4945,
      "illed": 4946,
      "ĠEvery": 4947,
      "ĠMake": 4948,
      "ruby": 4949,
      "ĠStep": 4950,
      "Ġdeveloping": 4951,
      "Ġcountries": 4952,
      "ners": 4953,
      "Ġcreation": 4954,
      "ĠRet": 4955,
      "ĠDecember": 4956,
      "friend": 4957,
      "istan": 4958,
      "Ġintellig": 4959,
      "pha": 4960,
      "Ġdecided": 4961,
      "problem": 4962,
      "IT": 4963,
      "Ġpict": 4964,
      "ĠTex": 4965,
      "ĠArt": 4966,
      "bug": 4967,
      "ris": 4968,
      "Ġproje": 4969,
      "ĠFunction": 4970,
      "}$$": 4971,
      "Ġcurve": 4972,
      "osen": 4973,
      "Ġdefines": 4974,
      "Ġmodular": 4975,
      "local": 4976,
      ")=": 4977,
      "Ġutil": 4978,
      "Ġvar": 4979,
      "Ġaccuracy": 4980,
      "Ġjud": 4981,
      "Ġadvantages": 4982,
      "ĠConfigure": 4983,
      "Alice": 4984,
      "].": 4985,
      "ouri": 4986,
      "Ġwelcome": 4987,
      "ĠIP": 4988,
      "Ġlambda": 4989,
      "Ġsupporting": 4990,
      "Ġdescribed": 4991,
      "ĠAccording": 4992,
      ")+": 4993,
      ")$,": 4994,
      "36": 4995,
      "VM": 4996,
      "eper": 4997,
      "imately": 4998,
      "enced": 4999,
      "Ġsurface": 5000,
      "ĠAmerica": 5001,
      "Ġgradu": 5002,
      "Ġachieved": 5003,
      "Ġconnections": 5004,
      "ĠCentral": 5005,
      "(-": 5006,
      "mber": 5007,
      "Ġid": 5008,
      "Ġsleep": 5009,
      "ĠMa": 5010,
      "ighter": 5011,
      "Ġenable": 5012,
      "Ġoriginally": 5013,
      "ĠMicro": 5014,
      "Ġhonestly": 5015,
      "ĠJames": 5016,
      "ager": 5017,
      "Ġmaterials": 5018,
      "DB": 5019,
      "}.": 5020,
      "Ġahead": 5021,
      "Ġinform": 5022,
      "utive": 5023,
      "nty": 5024,
      "Ġsuitable": 5025,
      "Ġ2010": 5026,
      "Ġsubproblem": 5027,
      "Ġdividing": 5028,
      "Ġtips": 5029,
      "Ġson": 5030,
      "ĠMac": 5031,
      "Ġneural": 5032,
      "Ġprintf": 5033,
      "Ġepis": 5034,
      "Sim": 5035,
      "icking": 5036,
      "Ġexternal": 5037,
      "ĠDocker": 5038,
      "Ġcampa": 5039,
      "Ġq": 5040,
      "Ġcam": 5041,
      "Ġborn": 5042,
      "Ġteams": 5043,
      "Tantra": 5044,
      "lang": 5045,
      "Ġconcer": 5046,
      "Ġlimited": 5047,
      "println": 5048,
      "Ġmultiply": 5049,
      "eeling": 5050,
      "Ġà¤¤à¤¨": 5051,
      "gen": 5052,
      "Ġfelt": 5053,
      "Ġdark": 5054,
      "del": 5055,
      "Ġlives": 5056,
      "Ġtraffic": 5057,
      "Ġrespect": 5058,
      "Ġsaf": 5059,
      "Ġdivision": 5060,
      "Ġsummar": 5061,
      "ĠRailway": 5062,
      "squ": 5063,
      "Ġdead": 5064,
      "ĠMore": 5065,
      "duc": 5066,
      "Ġrock": 5067,
      "type": 5068,
      "Ġsituation": 5069,
      "ĠIdentify": 5070,
      "eks": 5071,
      "fun": 5072,
      "}$,": 5073,
      "Ġsav": 5074,
      "itation": 5075,
      "ĠMTP": 5076,
      "ĠLinear": 5077,
      "ipe": 5078,
      "Ġupp": 5079,
      "eria": 5080,
      "Ġyet": 5081,
      "ector": 5082,
      "structure": 5083,
      "Ġoppos": 5084,
      "Ġaudience": 5085,
      ")/": 5086,
      "Hi": 5087,
      "Ġgir": 5088,
      "ĠPri": 5089,
      "quad": 5090,
      "Ġsmart": 5091,
      "Ġtells": 5092,
      "ĠFebruary": 5093,
      "Ġstress": 5094,
      "Ġpropos": 5095,
      "ades": 5096,
      "ĠPat": 5097,
      "ĠOctober": 5098,
      "Ġmatter": 5099,
      "Ġsignificantly": 5100,
      "Ġlooks": 5101,
      "Ġ;)\",": 5102,
      "ements": 5103,
      "Ġ120": 5104,
      "ĠMag": 5105,
      "Ġworth": 5106,
      "anges": 5107,
      "oken": 5108,
      "Ġinvolving": 5109,
      "Ġalbums": 5110,
      "embly": 5111,
      "Ġfeedback": 5112,
      "ĠTypeScript": 5113,
      "ny": 5114,
      "Ġou": 5115,
      "Ġinterfaces": 5116,
      "Ġ^_^\",": 5117,
      "Ġ?": 5118,
      "step": 5119,
      "stract": 5120,
      "Ġrender": 5121,
      "ĠGiven": 5122,
      "Ġresid": 5123,
      "Ġcapacity": 5124,
      "OR": 5125,
      "](": 5126,
      "Ġbought": 5127,
      "Ġparty": 5128,
      "Ġdepends": 5129,
      "ĠSuper": 5130,
      "Ġcards": 5131,
      "Ġfresh": 5132,
      "ĠLog": 5133,
      "reek": 5134,
      "ĠToday": 5135,
      "Feeling": 5136,
      "uce": 5137,
      "where": 5138,
      "ĠBob": 5139,
      "igned": 5140,
      "Ġserve": 5141,
      "Ġcoll": 5142,
      "Ġplanning": 5143,
      "ĠNumber": 5144,
      "ĠClojure": 5145,
      "Ġpreprocessing": 5146,
      "ĠFunctions": 5147,
      "Ġsand": 5148,
      "Ġparallelism": 5149,
      "Ġinterval": 5150,
      "Ġverify": 5151,
      "Ġacqu": 5152,
      "ampionship": 5153,
      "rete": 5154,
      "Ġcars": 5155,
      "Ġblo": 5156,
      "ĠPo": 5157,
      "Ġconvert": 5158,
      "ĠWilli": 5159,
      "Ġholds": 5160,
      "Ġmodules": 5161,
      "Ġbeginning": 5162,
      "Ġdf": 5163,
      "Ġreference": 5164,
      "Ġalmost": 5165,
      "version": 5166,
      "Ġ2009": 5167,
      "ĠAnge": 5168,
      "anguage": 5169,
      "Ġ2011": 5170,
      "Ġdescrib": 5171,
      "ER": 5172,
      "ran": 5173,
      "Ġax": 5174,
      "ilk": 5175,
      "ĠWash": 5176,
      "ĠScala": 5177,
      "Ġchecks": 5178,
      "Ġintroduced": 5179,
      "ho": 5180,
      "Ġfem": 5181,
      "ube": 5182,
      "Ġfire": 5183,
      "Ġkn": 5184,
      "Ġsearching": 5185,
      "Ġcommunicate": 5186,
      "Ġscreen": 5187,
      "99": 5188,
      "pm": 5189,
      "Ġetc": 5190,
      "ads": 5191,
      "ĠLab": 5192,
      "Ġbuildings": 5193,
      "Ġselecting": 5194,
      "Ġretrieve": 5195,
      "cel": 5196,
      "ĠDel": 5197,
      "ĠGroup": 5198,
      "Ġ2002": 5199,
      "conf": 5200,
      "Ġsymbol": 5201,
      "Ġculture": 5202,
      "asp": 5203,
      "arden": 5204,
      "ĠPeople": 5205,
      "ĠDownload": 5206,
      "à¥Ĥà¤ģ": 5207,
      "LL": 5208,
      "game": 5209,
      "atab": 5210,
      "ĠSy": 5211,
      "ĠDask": 5212,
      "Ġleaves": 5213,
      "Ġmanufact": 5214,
      "Ġestim": 5215,
      "ĠSpring": 5216,
      "ĠAPIs": 5217,
      "century": 5218,
      "ĠJSON": 5219,
      "cout": 5220,
      "ĠGPU": 5221,
      "Ġmale": 5222,
      "frame": 5223,
      "west": 5224,
      "olation": 5225,
      "Ġdispl": 5226,
      "ĠBasic": 5227,
      "ĠTexas": 5228,
      "flo": 5229,
      "pare": 5230,
      "uel": 5231,
      "Ġpush": 5232,
      "Ġrich": 5233,
      "ĠGovern": 5234,
      "Ġcurrently": 5235,
      "metric": 5236,
      "SL": 5237,
      "from": 5238,
      "lines": 5239,
      "ĠInitial": 5240,
      "ĠProgram": 5241,
      "Ġplatforms": 5242,
      "orphism": 5243,
      "35": 5244,
      "xy": 5245,
      "Ġmist": 5246,
      "imin": 5247,
      "ĠHappy": 5248,
      "Ġveh": 5249,
      "NET": 5250,
      "ĠNovember": 5251,
      "bl": 5252,
      "Ġsus": 5253,
      "ĠTop": 5254,
      "Ġforward": 5255,
      "Ġchosen": 5256,
      "ĠDavid": 5257,
      "Query": 5258,
      "nov": 5259,
      "het": 5260,
      "ĠGl": 5261,
      "Ġokay": 5262,
      "ĠWindows": 5263,
      "Ġhighlight": 5264,
      "Ġsurv": 5265,
      "Ġnumpy": 5266,
      "Car": 5267,
      "rum": 5268,
      "Ġsplit": 5269,
      "vey": 5270,
      "Ġsuff": 5271,
      "Ġscale": 5272,
      "__(": 5273,
      "));": 5274,
      "vas": 5275,
      "reed": 5276,
      "Ġnut": 5277,
      "Ġstars": 5278,
      "Ġplease": 5279,
      "Ġassigned": 5280,
      "ection": 5281,
      "Ġsni": 5282,
      "ierarch": 5283,
      "amarin": 5284,
      "ĠAlice": 5285,
      "Ġreached": 5286,
      "ĠRich": 5287,
      "Ġtriangle": 5288,
      "ĠExpress": 5289,
      "33": 5290,
      "Oh": 5291,
      "known": 5292,
      "itance": 5293,
      "else": 5294,
      "Ġoffice": 5295,
      "ĠImagine": 5296,
      "Ġstranger": 5297,
      "Ġfocused": 5298,
      "Ġfather": 5299,
      "Ġ32": 5300,
      "ĠIts": 5301,
      "Ġsports": 5302,
      "structor": 5303,
      "Ġveget": 5304,
      "Ġapproximately": 5305,
      "std": 5306,
      "roy": 5307,
      "Ġ()": 5308,
      "ĠPen": 5309,
      "ĠRs": 5310,
      "osing": 5311,
      "Ġ1980": 5312,
      "Ġpowers": 5313,
      "beta": 5314,
      "cient": 5315,
      "ki": 5316,
      "yond": 5317,
      "Ġdise": 5318,
      "istical": 5319,
      "ocols": 5320,
      "Ġelection": 5321,
      "Ġelectric": 5322,
      "Ġcomfort": 5323,
      "ibonacci": 5324,
      "Ġbask": 5325,
      "Ġshell": 5326,
      "Ġ&=": 5327,
      "Ġfloat": 5328,
      "clo": 5329,
      "tures": 5330,
      "Ġweeks": 5331,
      "rupt": 5332,
      "ĠExpl": 5333,
      "Ġenter": 5334,
      "Ġarticle": 5335,
      "ĠCheck": 5336,
      "UDA": 5337,
      "Ġbreaking": 5338,
      "Ġcritical": 5339,
      "DF": 5340,
      "cher": 5341,
      "sy": 5342,
      "wers": 5343,
      "ĠSam": 5344,
      "ĠJer": 5345,
      "Ġarithmetic": 5346,
      "ĠItal": 5347,
      "Ġmatches": 5348,
      "Ġsubstit": 5349,
      "Ġpractical": 5350,
      "Ġreaching": 5351,
      "Ġflexible": 5352,
      "Ġwrong": 5353,
      "lie": 5354,
      "Ġsession": 5355,
      "ĠTwo": 5356,
      "Ġecho": 5357,
      "Ġimagine": 5358,
      "agement": 5359,
      "ĠVari": 5360,
      "rief": 5361,
      "Ġrepeated": 5362,
      "Ġfight": 5363,
      "Ġded": 5364,
      "ĠGit": 5365,
      "api": 5366,
      "Ġprotocols": 5367,
      "Ġmathematics": 5368,
      "Ġhighest": 5369,
      "used": 5370,
      "irgin": 5371,
      "0000": 5372,
      "Ġrot": 5373,
      "Ġfruits": 5374,
      "Ġcluster": 5375,
      "Ġopportunities": 5376,
      "Ġsimultaneously": 5377,
      "ĠAngeles": 5378,
      "Ġcast": 5379,
      "abit": 5380,
      "Ġmechanism": 5381,
      "70": 5382,
      "Ġten": 5383,
      "Ġsays": 5384,
      "Ġoutcomes": 5385,
      "There": 5386,
      "Ġinsights": 5387,
      "Ġcallback": 5388,
      "Ġfoundation": 5389,
      "Ġarrang": 5390,
      "color": 5391,
      "Im": 5392,
      "su": 5393,
      "Ġ)": 5394,
      "Ġcollege": 5395,
      "ulated": 5396,
      "Ġhashing": 5397,
      "Ġeveryone": 5398,
      "Ġlogical": 5399,
      "Ġexploring": 5400,
      "Ġsnipp": 5401,
      "Stu": 5402,
      "bin": 5403,
      "Ġcleaning": 5404,
      "Ġtrade": 5405,
      "Ġdivis": 5406,
      "Ġindeed": 5407,
      "ĠCour": 5408,
      "ptr": 5409,
      "Ġhelped": 5410,
      "ĠJul": 5411,
      "uest": 5412,
      "Ġreturned": 5413,
      "Ġ####": 5414,
      "ĠGeorge": 5415,
      "AI": 5416,
      "nge": 5417,
      "Ġbread": 5418,
      "Ġmother": 5419,
      "Ġcalculations": 5420,
      "Ġwants": 5421,
      "NA": 5422,
      "width": 5423,
      "Ġkern": 5424,
      "ĠConc": 5425,
      "Ġtrend": 5426,
      "ĠCPUs": 5427,
      "Ġsatellite": 5428,
      "ĠWashington": 5429,
      "atabase": 5430,
      "Ġeh": 5431,
      "ĠCython": 5432,
      "Ġinterse": 5433,
      "Ġwhose": 5434,
      "iously": 5435,
      "Ġpromot": 5436,
      "Ġselected": 5437,
      "Ġdefining": 5438,
      "Ġinitialize": 5439,
      "Ġmovie": 5440,
      "Ġsafety": 5441,
      "eared": 5442,
      "Ġcivil": 5443,
      "Ġwind": 5444,
      "idden": 5445,
      "ĠMult": 5446,
      "Ġplays": 5447,
      "Ġsquares": 5448,
      "Ġfinally": 5449,
      "aught": 5450,
      "ĠOptimizing": 5451,
      "more": 5452,
      "Ġing": 5453,
      "Ġwatch": 5454,
      "à¤¹": 5455,
      "Ġsafe": 5456,
      "Ġfilled": 5457,
      "azing": 5458,
      "64": 5459,
      "CA": 5460,
      "gn": 5461,
      "ĠCounc": 5462,
      "rames": 5463,
      "ĠSte": 5464,
      "Age": 5465,
      "Ġ_": 5466,
      "Ġwood": 5467,
      "Ġodd": 5468,
      "Ġgave": 5469,
      "ĠCommun": 5470,
      "Ġhit": 5471,
      "Ġgold": 5472,
      "ĠYear": 5473,
      "ĠBlack": 5474,
      "iveness": 5475,
      "ĠPaul": 5476,
      "Ġbag": 5477,
      "Ġli": 5478,
      "Ġcomputers": 5479,
      "Ġcalculated": 5480,
      "Ġmoments": 5481,
      "Ġwat": 5482,
      "Ġhierarch": 5483,
      "ĠMain": 5484,
      "ĠMost": 5485,
      "phi": 5486,
      "Ġgraphics": 5487,
      "Ġfeelings": 5488,
      "Ġlearned": 5489,
      ")$.": 5490,
      "sw": 5491,
      "ĠRoy": 5492,
      "Ġimproving": 5493,
      "ĠRecords": 5494,
      "bar": 5495,
      "stud": 5496,
      "alt": 5497,
      "ĠDem": 5498,
      "cular": 5499,
      "Ġintegral": 5500,
      "26": 5501,
      "bon": 5502,
      "lict": 5503,
      "Ġbot": 5504,
      "char": 5505,
      "ĠHaskell": 5506,
      "ĠDet": 5507,
      "Ġspeak": 5508,
      "Ġanytime": 5509,
      "Ġconcurrency": 5510,
      "Ġdocuments": 5511,
      "Person": 5512,
      "Ġur": 5513,
      "Ġmountain": 5514,
      "ĠBack": 5515,
      "ota": 5516,
      "ĠHistor": 5517,
      "\\\\)": 5518,
      "while": 5519,
      "$:": 5520,
      "Ġeat": 5521,
      "Ġgram": 5522,
      "Ġconstruction": 5523,
      "Ġ(-": 5524,
      "ĠBest": 5525,
      "Ġpassing": 5526,
      "Ġsatisfy": 5527,
      "ĠCouncil": 5528,
      "Ser": 5529,
      "urt": 5530,
      "Ġstyles": 5531,
      "unch": 5532,
      "Ġnote": 5533,
      "Ġquadr": 5534,
      "Ġoptimizing": 5535,
      "Ġ1999": 5536,
      "Ġconcise": 5537,
      "Ġapart": 5538,
      "sql": 5539,
      "ĠNumba": 5540,
      "Ġprojections": 5541,
      "28": 5542,
      "source": 5543,
      "ĠForm": 5544,
      "Ġshown": 5545,
      "Ġdetermined": 5546,
      "ĠFranc": 5547,
      "Ġsongs": 5548,
      "Ġcandid": 5549,
      "Ġcm": 5550,
      "ĠAR": 5551,
      "Ġlies": 5552,
      "Ġcoming": 5553,
      "Ġapps": 5554,
      "Ġstudies": 5555,
      "mathcal": 5556,
      "Ġvoice": 5557,
      "Look": 5558,
      "Ġsplendid": 5559,
      "ĠID": 5560,
      "idget": 5561,
      "ĠRad": 5562,
      "ĠNamed": 5563,
      "à¤²": 5564,
      "eger": 5565,
      "Ġ70": 5566,
      "ixir": 5567,
      "ĠUnion": 5568,
      "Ġhealthy": 5569,
      "solving": 5570,
      "Ġmerge": 5571,
      "Ġemotional": 5572,
      "Ġbank": 5573,
      "ĠUser": 5574,
      "Ġenables": 5575,
      "Ġadminist": 5576,
      "php": 5577,
      "Ġschedu": 5578,
      "create": 5579,
      "ians": 5580,
      "icing": 5581,
      "Ġ1000": 5582,
      "Ġsolid": 5583,
      "Ġequals": 5584,
      "rench": 5585,
      "Ġboxes": 5586,
      "Ġattacks": 5587,
      "Ġbirths": 5588,
      "Ġnull": 5589,
      "\\\";": 5590,
      "ĠMax": 5591,
      "ĠSelect": 5592,
      "Ġgrade": 5593,
      "Ġspirit": 5594,
      "PS": 5595,
      "ya": 5596,
      "Ġtoys": 5597,
      "eline": 5598,
      "ĠRob": 5599,
      "ĠLake": 5600,
      "Ġengineering": 5601,
      "500": 5602,
      "OT": 5603,
      "lt": 5604,
      "mark": 5605,
      "Ġbio": 5606,
      "Ġimmed": 5607,
      "ĠLou": 5608,
      "ipher": 5609,
      "Ġsubsequ": 5610,
      "Ġdenote": 5611,
      "Ġbelong": 5612,
      "Act": 5613,
      "ĠAN": 5614,
      "\\\"\\\"": 5615,
      "Ġconclusion": 5616,
      "ipment": 5617,
      "Ġsoon": 5618,
      "Ġinches": 5619,
      "Ġattribute": 5620,
      "ository": 5621,
      "lay": 5622,
      "rab": 5623,
      "Ġreve": 5624,
      "ĠLa": 5625,
      "Ġillust": 5626,
      "hire": 5627,
      "Ġplots": 5628,
      "Ġdou": 5629,
      "ĠText": 5630,
      "aged": 5631,
      "Ġ190": 5632,
      "Ġdecre": 5633,
      "values": 5634,
      "Ġcontinued": 5635,
      "'(": 5636,
      "ius": 5637,
      "lication": 5638,
      "ernary": 5639,
      "Ġdiscount": 5640,
      "Thread": 5641,
      "ĠAnalyz": 5642,
      "Find": 5643,
      "uzz": 5644,
      "Ġcultural": 5645,
      "Ġmilitary": 5646,
      "ĠSar": 5647,
      "Ġconstructor": 5648,
      "Ġ29": 5649,
      "Ġadult": 5650,
      "Ġsequences": 5651,
      "Ġmovement": 5652,
      "Ġfloating": 5653,
      "Ġemotions": 5654,
      "ores": 5655,
      "Ġternary": 5656,
      "Ġdimens": 5657,
      "Ġbeyond": 5658,
      "ipal": 5659,
      "Ġdependency": 5660,
      "lands": 5661,
      "column": 5662,
      "Ġreusable": 5663,
      "Yes": 5664,
      "Ġtag": 5665,
      "Ġdoll": 5666,
      "Ġsubproblems": 5667,
      "Ġsnippet": 5668,
      "pace": 5669,
      "itar": 5670,
      "Ġste": 5671,
      "igma": 5672,
      "Ġchunk": 5673,
      "Ġspaces": 5674,
      "ĠVirgin": 5675,
      "====": 5676,
      "Ġhous": 5677,
      "iring": 5678,
      "Ġgeneration": 5679,
      "Ġ2012": 5680,
      "Ġexciting": 5681,
      "Ġadvantage": 5682,
      ")}": 5683,
      "df": 5684,
      "ictions": 5685,
      "kens": 5686,
      "Ġtrou": 5687,
      "Ġweaving": 5688,
      "rust": 5689,
      "logy": 5690,
      "Ġequiv": 5691,
      "Ġgenerated": 5692,
      "Ġbright": 5693,
      "Ġdrive": 5694,
      "ĠAssociation": 5695,
      "tes": 5696,
      "Ġcore": 5697,
      "ĠSen": 5698,
      "ĠCustom": 5699,
      "Ġheat": 5700,
      "Ġextreme": 5701,
      "Ġclos": 5702,
      "gr": 5703,
      "ĠFe": 5704,
      "Ġevidence": 5705,
      "Ġgenetic": 5706,
      "Ġgenerally": 5707,
      "Ġreceives": 5708,
      "Ġdenoted": 5709,
      "ĠBuilding": 5710,
      "Ġdaily": 5711,
      "Ġupper": 5712,
      "sm": 5713,
      "Ġdive": 5714,
      "ĠXML": 5715,
      "ios": 5716,
      "eration": 5717,
      "Ġsynchron": 5718,
      "Ġban": 5719,
      "Ġweak": 5720,
      "Ġhighly": 5721,
      "isc": 5722,
      "Ġ42": 5723,
      "Ġruntime": 5724,
      "Ġdenomin": 5725,
      "Ġbrother": 5726,
      "Ġdealing": 5727,
      "Ġstatus": 5728,
      "br": 5729,
      "ool": 5730,
      "ponent": 5731,
      "ederal": 5732,
      "ĠRuss": 5733,
      "Ġran": 5734,
      "Ġstrugg": 5735,
      "Ġdescription": 5736,
      "First": 5737,
      "write": 5738,
      "ĠHash": 5739,
      "Ġcompile": 5740,
      "ibly": 5741,
      "Ġinstances": 5742,
      "Ġreliable": 5743,
      "Ġmatching": 5744,
      "ĠMichael": 5745,
      "Ġsweet": 5746,
      "Hmm": 5747,
      "PE": 5748,
      "ĠCUDA": 5749,
      "thlet": 5750,
      "Ġinitially": 5751,
      "Ġsymbols": 5752,
      "Capitalize": 5753,
      "rm": 5754,
      "Ġcities": 5755,
      "Ġrenew": 5756,
      "ulner": 5757,
      "Ġstories": 5758,
      "ĠFibonacci": 5759,
      "Ġleaving": 5760,
      "Ġ300": 5761,
      "illa": 5762,
      "Ġscene": 5763,
      "Ġexport": 5764,
      "ports": 5765,
      "ĠArch": 5766,
      "ertainly": 5767,
      "ĠBoth": 5768,
      "ga": 5769,
      "ĠMal": 5770,
      "ipse": 5771,
      "Ġroll": 5772,
      "ĠGreen": 5773,
      "ĠApplying": 5774,
      "Ġtouch": 5775,
      "Ġinner": 5776,
      "ĠHol": 5777,
      "endl": 5778,
      "Ġclimate": 5779,
      "Ġinteractions": 5780,
      "Ġevaluation": 5781,
      "Ġtemperature": 5782,
      "File": 5783,
      "Ġpounds": 5784,
      "usive": 5785,
      "etes": 5786,
      "ĠHope": 5787,
      "Ġweather": 5788,
      "Ġremote": 5789,
      "Ġactivity": 5790,
      "Ġconflict": 5791,
      "Ġultimately": 5792,
      "writ": 5793,
      "Ġaid": 5794,
      "ĠWorking": 5795,
      "ĠEven": 5796,
      "ĠLaw": 5797,
      "Ġletters": 5798,
      "inux": 5799,
      "ĠCompany": 5800,
      "localhost": 5801,
      "Of": 5802,
      "ruth": 5803,
      "Ġir": 5804,
      "Ġfinger": 5805,
      "Ġbud": 5806,
      "road": 5807,
      "ĠjQuery": 5808,
      "Ġexceptions": 5809,
      "jection": 5810,
      "Ġcontinues": 5811,
      "][": 5812,
      "ĠAward": 5813,
      "rought": 5814,
      "à¥ĭ": 5815,
      "Ġembody": 5816,
      "ĠComput": 5817,
      "Ġpolice": 5818,
      "Ġstatistical": 5819,
      "Ġholding": 5820,
      "Ġfully": 5821,
      "Ġfiction": 5822,
      "image": 5823,
      "elling": 5824,
      "Ġallowed": 5825,
      "ĠSecond": 5826,
      "Ġprecise": 5827,
      "Forms": 5828,
      "pat": 5829,
      "Ġinverse": 5830,
      "server": 5831,
      "Ġinspect": 5832,
      "Ġupdated": 5833,
      "Ġnumerous": 5834,
      "ospital": 5835,
      "Certainly": 5836,
      "band": 5837,
      "date": 5838,
      "Ġter": 5839,
      "Ġblog": 5840,
      "Ġaccom": 5841,
      "Ġmedical": 5842,
      "Ġpromote": 5843,
      "Ġhimself": 5844,
      "Ġhypot": 5845,
      "Ġremoving": 5846,
      "driven": 5847,
      "ĠFrancis": 5848,
      "house": 5849,
      "ql": 5850,
      "ĠLos": 5851,
      "ĠLua": 5852,
      "Ġrepository": 5853,
      "ĠArrays": 5854,
      "ĠXamarin": 5855,
      "Ġchecking": 5856,
      "'],": 5857,
      "uable": 5858,
      "Ġfant": 5859,
      "Ġleave": 5860,
      "Ġappeared": 5861,
      "Ġmanipulating": 5862,
      "Gener": 5863,
      "rank": 5864,
      "Ġsovere": 5865,
      "Ġobjective": 5866,
      "Ġ1998": 5867,
      "Ġorganizations": 5868,
      "Ġthus": 5869,
      "ĠBre": 5870,
      "phas": 5871,
      "Ġ1996": 5872,
      "bmatrix": 5873,
      "inner": 5874,
      "Ġpizz": 5875,
      "ĠThom": 5876,
      "redients": 5877,
      "199": 5878,
      "Ġdigit": 5879,
      "rig": 5880,
      "Ġstoring": 5881,
      "Ġ(`": 5882,
      "ercial": 5883,
      "Ġapproaches": 5884,
      "Ġflowers": 5885,
      "icients": 5886,
      "Ġlimits": 5887,
      "Ġmotiv": 5888,
      "IM": 5889,
      "aled": 5890,
      "ilarly": 5891,
      "Ġforces": 5892,
      "ida": 5893,
      "izer": 5894,
      "Ġqueries": 5895,
      "Ġpartial": 5896,
      "Ġtransportation": 5897,
      "Simply": 5898,
      "FL": 5899,
      "Ġballs": 5900,
      "aint": 5901,
      "ĠLast": 5902,
      "ĠGames": 5903,
      "Ġ48": 5904,
      "Ġinputs": 5905,
      "greSQL": 5906,
      "mission": 5907,
      "ounter": 5908,
      "Ġstage": 5909,
      "Ġboost": 5910,
      "Ġ2013": 5911,
      "Ġversions": 5912,
      "ĠPostgreSQL": 5913,
      "Ġintelligence": 5914,
      "Ġpicture": 5915,
      "CP": 5916,
      "reason": 5917,
      "Ġbrief": 5918,
      "ows": 5919,
      "ored": 5920,
      "estival": 5921,
      "ubble": 5922,
      "onds": 5923,
      "onestly": 5924,
      "Ġupdates": 5925,
      "Ġlimitations": 5926,
      "Col": 5927,
      "men": 5928,
      "Ġbul": 5929,
      "Ġheard": 5930,
      "Ġvary": 5931,
      "ĠThink": 5932,
      "ĠUses": 5933,
      "Ġcontact": 5934,
      "ĠChina": 5935,
      "ĠDebug": 5936,
      "Ġrectangle": 5937,
      "Sh": 5938,
      "aper": 5939,
      "double": 5940,
      "Ġ75": 5941,
      "Ġdetect": 5942,
      "append": 5943,
      "Ġconsistent": 5944,
      "ĠSeries": 5945,
      "ĠBuilt": 5946,
      "ĠKingdom": 5947,
      "dient": 5948,
      "Ġbad": 5949,
      "Ġeg": 5950,
      "Ġdeeper": 5951,
      "Ġtextbook": 5952,
      "Ġorigin": 5953,
      "position": 5954,
      "Ġscientific": 5955,
      "Honestly": 5956,
      "city": 5957,
      "itors": 5958,
      "Ġtokens": 5959,
      "ignty": 5960,
      "Ġvulner": 5961,
      "ĠPlot": 5962,
      "Ġcontents": 5963,
      "Ġdiag": 5964,
      "ĠDepartment": 5965,
      "Ġannounc": 5966,
      "person": 5967,
      "Ġlink": 5968,
      "ĠRock": 5969,
      "ĠFoot": 5970,
      "alley": 5971,
      "Ġexplan": 5972,
      "48": 5973,
      "lor": 5974,
      "Ġtheorem": 5975,
      "omic": 5976,
      "ĠLib": 5977,
      "Ġproud": 5978,
      "ĠStand": 5979,
      "Ġtraversal": 5980,
      "Ġlocations": 5981,
      "Ġdetail": 5982,
      "Ġexecuting": 5983,
      "Ġextends": 5984,
      "Ġhappening": 5985,
      "Ġsuccessfully": 5986,
      "Ġassistance": 5987,
      "DO": 5988,
      "ĠAlex": 5989,
      "ĠTom": 5990,
      "antic": 5991,
      "room": 5992,
      "ĠMer": 5993,
      "arest": 5994,
      "Ġresol": 5995,
      "Ġrecent": 5996,
      "Ġsubs": 5997,
      "Ġinternational": 5998,
      "ĠTechn": 5999,
      "AX": 6000,
      "Re": 6001,
      "gal": 6002,
      "Ġdro": 6003,
      "plicit": 6004,
      "Ġscenario": 6005,
      "Ġevaluate": 6006,
      "ĠMusic": 6007,
      "Ġsovereignty": 6008,
      "ĠAv": 6009,
      "Ġordered": 6010,
      "Ġbutter": 6011,
      "ĠView": 6012,
      "Ġconditional": 6013,
      "Ġinvestig": 6014,
      "Ġdeeply": 6015,
      "Ġestablishments": 6016,
      "ĠOlympics": 6017,
      "Ġcoo": 6018,
      "Ġpet": 6019,
      "ĠSym": 6020,
      "aming": 6021,
      "ĠEnter": 6022,
      "ĠRoman": 6023,
      "++,": 6024,
      "Ġeventually": 6025,
      "ĠRepresent": 6026,
      "View": 6027,
      "Ġtick": 6028,
      "Ġmis": 6029,
      "ĠBash": 6030,
      "Ġalthough": 6031,
      "Ġsegment": 6032,
      "Ġplug": 6033,
      "Ġraise": 6034,
      "Ġdecimal": 6035,
      "Ġaccessed": 6036,
      "Ġchoices": 6037,
      "forward": 6038,
      "Ġappears": 6039,
      "ĠMicrosoft": 6040,
      "hr": 6041,
      "la": 6042,
      "heast": 6043,
      "Ġseems": 6044,
      "Ġgiving": 6045,
      "Ġimproved": 6046,
      "Ġpotentially": 6047,
      "ĠResearch": 6048,
      "Ġriver": 6049,
      "ĠPresident": 6050,
      "ĠRoyal": 6051,
      "27": 6052,
      "tree": 6053,
      "leq": 6054,
      "Ġwoman": 6055,
      "ĠEduc": 6056,
      "Ġrelig": 6057,
      "Ġrecorded": 6058,
      "iliar": 6059,
      "Ġeyes": 6060,
      "WS": 6061,
      "ij": 6062,
      "urb": 6063,
      "ĠCD": 6064,
      "ĠRoute": 6065,
      "Ġhelping": 6066,
      "Ġ500": 6067,
      "Ġfounded": 6068,
      "Ġlayers": 6069,
      "Ġlabels": 6070,
      "tracking": 6071,
      "dist": 6072,
      "Ġslo": 6073,
      "ĠPak": 6074,
      "ĠMass": 6075,
      "ĠFin": 6076,
      "à¤¯": 6077,
      "ĠUI": 6078,
      "ĠAlso": 6079,
      "Ġmanaged": 6080,
      "ĠMemory": 6081,
      "*}": 6082,
      "button": 6083,
      "oke": 6084,
      "Ġsociety": 6085,
      "ĠBill": 6086,
      "ĠPoint": 6087,
      "ĠDay": 6088,
      "ĠLinux": 6089,
      "Ġship": 6090,
      "tee": 6091,
      "Ġenclo": 6092,
      "orough": 6093,
      "ĠGet": 6094,
      "Ġmaps": 6095,
      "hesis": 6096,
      "weaving": 6097,
      "ĠRecurs": 6098,
      "Ġtravels": 6099,
      "ĠWestern": 6100,
      "Ġrailway": 6101,
      "Ġdisplays": 6102,
      "Numb": 6103,
      "Ġboolean": 6104,
      "ĠAh": 6105,
      "ilon": 6106,
      "ĠRel": 6107,
      "acement": 6108,
      "Ġspecifically": 6109,
      "queue": 6110,
      "Ġargs": 6111,
      "Ġshowing": 6112,
      "Ġinfra": 6113,
      "Ġreplace": 6114,
      "Ġaspects": 6115,
      "with": 6116,
      "cean": 6117,
      "ĠProm": 6118,
      "ĠMet": 6119,
      "ibilities": 6120,
      "Ġplane": 6121,
      "Ġeffort": 6122,
      "à¥ģ": 6123,
      "Ġphone": 6124,
      "Ġprofit": 6125,
      "grees": 6126,
      "Ġconduct": 6127,
      "Ġ31": 6128,
      "ĠUK": 6129,
      "Ġvaluable": 6130,
      "Ġentry": 6131,
      "Ġwait": 6132,
      "Ġbasket": 6133,
      ",$": 6134,
      "True": 6135,
      "Truth": 6136,
      "Ġbur": 6137,
      "empl": 6138,
      "irm": 6139,
      "ĠMach": 6140,
      "à¤µ": 6141,
      "Ġabs": 6142,
      "Ġinstit": 6143,
      "ĠEfficient": 6144,
      "Actually": 6145,
      "Ġcd": 6146,
      "Ġancient": 6147,
      "rote": 6148,
      "istry": 6149,
      "Ġhar": 6150,
      "owns": 6151,
      "Ġ`.": 6152,
      "ĠMany": 6153,
      "ĠNor": 6154,
      "Ġ>=": 6155,
      "Ġrecords": 6156,
      "Ġappearance": 6157,
      "Ġmicroser": 6158,
      "Ġeggs": 6159,
      "MP": 6160,
      "uk": 6161,
      "Ġcy": 6162,
      "Ġvi": 6163,
      "Ġweave": 6164,
      "ĠGCD": 6165,
      "Ġteac": 6166,
      "active": 6167,
      "Ġemphas": 6168,
      "Ġincome": 6169,
      "Ġgenerates": 6170,
      "lisp": 6171,
      "Ġcombinations": 6172,
      "ĠColumb": 6173,
      "Ġkeeping": 6174,
      "ĠParty": 6175,
      "Truthfully": 6176,
      ".$": 6177,
      "Be": 6178,
      "Element": 6179,
      "Ġice": 6180,
      "eras": 6181,
      "Ġla": 6182,
      "rows": 6183,
      "Ġ1997": 6184,
      "Ġremainder": 6185,
      "Ġpriority": 6186,
      "aughter": 6187,
      "ĠGeneral": 6188,
      "ĠEuropean": 6189,
      "Ġneighborhood": 6190,
      "Ġcoefficients": 6191,
      "friendly": 6192,
      "dig": 6193,
      "Ġanimal": 6194,
      "isl": 6195,
      "ĠTim": 6196,
      "ĠCr": 6197,
      "ĠMart": 6198,
      "upy": 6199,
      "Ġplaced": 6200,
      "Ġexperiment": 6201,
      "Ġdemand": 6202,
      "dir": 6203,
      "Ġtoy": 6204,
      "Ġtrig": 6205,
      "ĠAlthough": 6206,
      "prime": 6207,
      "Ġgrand": 6208,
      "Ġpercentage": 6209,
      "Ġdelete": 6210,
      "reasoned": 6211,
      "mult": 6212,
      "Ġmilk": 6213,
      "Ġeco": 6214,
      "Ġlack": 6215,
      "ocr": 6216,
      "Ġunderlying": 6217,
      "Ġdetailed": 6218,
      "ĠProject": 6219,
      "Ġdiscovered": 6220,
      "Ġ:=": 6221,
      "Ġlogging": 6222,
      "Ġadjacent": 6223,
      "Ġstronger": 6224,
      "downloads": 6225,
      "gence": 6226,
      "han": 6227,
      "ĠAccess": 6228,
      "olf": 6229,
      "ĠFore": 6230,
      "ĠFrench": 6231,
      "Ġprefer": 6232,
      "Ġsubset": 6233,
      "Ġequipment": 6234,
      "Ġpositions": 6235,
      "Ġmoves": 6236,
      "Ġmachines": 6237,
      "Ġidentifying": 6238,
      "Ġnavigation": 6239,
      "Ġpaid": 6240,
      "ĠAcade": 6241,
      ")`": 6242,
      "Sc": 6243,
      "Ġturns": 6244,
      "Ġgas": 6245,
      "quer": 6246,
      "---": 6247,
      "Ġvolume": 6248,
      "Ġslices": 6249,
      "+\\\\": 6250,
      "CL": 6251,
      "hold": 6252,
      "unt": 6253,
      "ĠLand": 6254,
      "Ġinterpre": 6255,
      "allel": 6256,
      "airs": 6257,
      "Ġdiscover": 6258,
      "Ġ:)\",": 6259,
      "Ġdigits": 6260,
      "Ġintroduce": 6261,
      "ĠSpecific": 6262,
      "ĠAfrican": 6263,
      "total": 6264,
      "uge": 6265,
      "ald": 6266,
      "Ġren": 6267,
      "Ġgated": 6268,
      "plete": 6269,
      "Ġabstract": 6270,
      "Ġsoil": 6271,
      "Ġamazing": 6272,
      "Ġsummer": 6273,
      "Ġmodeling": 6274,
      "Ġrights": 6275,
      "Ġfruit": 6276,
      "Ġhoping": 6277,
      "Ġchunked": 6278,
      "UT": 6279,
      "erv": 6280,
      "Ġresist": 6281,
      "elly": 6282,
      "ĠFFT": 6283,
      "Ġspend": 6284,
      "Ġserves": 6285,
      "Ġago": 6286,
      "ĠEngine": 6287,
      "Ġpreviously": 6288,
      "Ġconfiguring": 6289,
      "Ġabsolutely": 6290,
      "hand": 6291,
      "Ġfetch": 6292,
      "Ġbind": 6293,
      "root": 6294,
      "Ġeight": 6295,
      "Ġ(\\\\": 6296,
      "term": 6297,
      "ĠThread": 6298,
      "ago": 6299,
      "ĠKe": 6300,
      "Ġincreases": 6301,
      "banana": 6302,
      "Ġkernel": 6303,
      "top": 6304,
      "Ġcovered": 6305,
      "arc": 6306,
      "ĠHy": 6307,
      "Ġadvent": 6308,
      "ests": 6309,
      "Ġhealthcare": 6310,
      "Ġcourage": 6311,
      "ĠFilm": 6312,
      "Ġreflecting": 6313,
      "Ġpolicy": 6314,
      "Ġradius": 6315,
      "ĠCourt": 6316,
      "HE": 6317,
      "Res": 6318,
      "iors": 6319,
      "};": 6320,
      "ĠTre": 6321,
      "rapy": 6322,
      "ĠTheir": 6323,
      "Ġdegrees": 6324,
      "ificial": 6325,
      "Ġactor": 6326,
      "Ġphr": 6327,
      "Ġcombine": 6328,
      "Ġ1970": 6329,
      "Ġmarbles": 6330,
      "Ġmagn": 6331,
      "Ġreplaced": 6332,
      "Ġcompetition": 6333,
      "Ġfraction": 6334,
      "mu": 6335,
      "Ġtall": 6336,
      "orch": 6337,
      "asy": 6338,
      "iced": 6339,
      "ubern": 6340,
      "Ġconstit": 6341,
      "Ġmeaningful": 6342,
      "pg": 6343,
      "press": 6344,
      "Ġmut": 6345,
      "ico": 6346,
      "Ġchurch": 6347,
      "ĠValley": 6348,
      "Ġdirectories": 6349,
      "Ġchallenging": 6350,
      "Ġsimplify": 6351,
      "Ġbottle": 6352,
      "46": 6353,
      "iet": 6354,
      "px": 6355,
      "tered": 6356,
      "ĠAtt": 6357,
      "ĠSch": 6358,
      "iform": 6359,
      "abel": 6360,
      "ĠGame": 6361,
      "Ġadvert": 6362,
      "clud": 6363,
      "apping": 6364,
      "ĠConnect": 6365,
      "Ġcalling": 6366,
      "Ġguitar": 6367,
      "Ġpresence": 6368,
      "Ġtechnologies": 6369,
      "Ġtalked": 6370,
      "Ġchallenge": 6371,
      "IA": 6372,
      "atial": 6373,
      "Ġdru": 6374,
      "rian": 6375,
      "rial": 6376,
      "ensity": 6377,
      "Ġflavor": 6378,
      "Ġchatting": 6379,
      "Ġgrowing": 6380,
      "Ġpredictions": 6381,
      "ĠVirginia": 6382,
      "SS": 6383,
      "Val": 6384,
      "We": 6385,
      "ref": 6386,
      "Ġcos": 6387,
      "Ġcopy": 6388,
      "Ġmood": 6389,
      "ĠIN": 6390,
      "ĠHum": 6391,
      "Ġsex": 6392,
      "arios": 6393,
      "Ġactors": 6394,
      "Ġchem": 6395,
      "Ġcells": 6396,
      "car": 6397,
      "Ġtow": 6398,
      "ĠSort": 6399,
      "Ġrain": 6400,
      "Ġinvent": 6401,
      "axis": 6402,
      "Ġ1995": 6403,
      "Ġguess": 6404,
      "Ġcharacteristics": 6405,
      "ĠDirect": 6406,
      "ĠAfrica": 6407,
      "oul": 6408,
      "Ġfasc": 6409,
      "icated": 6410,
      "Ġhidden": 6411,
      "Ġgift": 6412,
      "Ġcream": 6413,
      "ifier": 6414,
      "sey": 6415,
      "Ġclients": 6416,
      "()`,": 6417,
      "Ġdogs": 6418,
      "rying": 6419,
      "Ġexpon": 6420,
      "Ġmemo": 6421,
      "Ġembed": 6422,
      "Ġaccessible": 6423,
      "Ġencrypt": 6424,
      "Ġtrip": 6425,
      "Ġmaintaining": 6426,
      "Ġdecorator": 6427,
      ".)": 6428,
      "Map": 6429,
      "itan": 6430,
      "Ġdanger": 6431,
      "Ġnuc": 6432,
      "Ġven": 6433,
      "ĠFound": 6434,
      "cessing": 6435,
      "ĠKent": 6436,
      "Ġsalt": 6437,
      "Ġbottom": 6438,
      "ini": 6439,
      "Ġslight": 6440,
      "Ġbow": 6441,
      "amma": 6442,
      "Ġprop": 6443,
      "Ġcloser": 6444,
      "sharp": 6445,
      "ĠService": 6446,
      "ographic": 6447,
      "Ġcookies": 6448,
      "Ġregarding": 6449,
      "ubernetes": 6450,
      "orter": 6451,
      "Ġassert": 6452,
      "Ġguest": 6453,
      "ĠPower": 6454,
      "ĠLinked": 6455,
      "Ġclim": 6456,
      "Ġeconomy": 6457,
      "----------------": 6458,
      "Ġenhance": 6459,
      "ĠExploring": 6460,
      "case": 6461,
      "vin": 6462,
      "vised": 6463,
      "onic": 6464,
      "eli": 6465,
      "ĠBank": 6466,
      "iday": 6467,
      "ĠWrit": 6468,
      "ormal": 6469,
      "ibrary": 6470,
      "velte": 6471,
      "Ġorganized": 6472,
      "Ġpresented": 6473,
      "ĠApple": 6474,
      "ĠSuppose": 6475,
      "bre": 6476,
      "style": 6477,
      "Ġang": 6478,
      "Ġ\"\\\"": 6479,
      "arant": 6480,
      "arter": 6481,
      "ĠHill": 6482,
      "ĠDan": 6483,
      "Ġbasis": 6484,
      "Ġmodified": 6485,
      "Ġcouldn": 6486,
      "Ġfilters": 6487,
      "Ġleads": 6488,
      "Ġbridge": 6489,
      "azy": 6490,
      "Ġfamous": 6491,
      "Ġconstantly": 6492,
      "porary": 6493,
      "Ġofficially": 6494,
      "Ġstatistics": 6495,
      "ĠClick": 6496,
      "Ġheavy": 6497,
      "ĠHen": 6498,
      "Ġ$|": 6499,
      "Ġoffic": 6500,
      "Ġreduced": 6501,
      "azine": 6502,
      "Ġbreakpoint": 6503,
      "Ġdefinitely": 6504,
      "ĠCenter": 6505,
      "Ġscenarios": 6506,
      "ĠChristian": 6507,
      "filter": 6508,
      "Ġblood": 6509,
      "DD": 6510,
      "icious": 6511,
      "Ġcommercial": 6512,
      "Ġcompletely": 6513,
      "life": 6514,
      "Ġsections": 6515,
      "Ġimpl": 6516,
      "Ġ400": 6517,
      "Ġroles": 6518,
      "ĠMathemat": 6519,
      "dro": 6520,
      "hi": 6521,
      "iately": 6522,
      "Ġaward": 6523,
      "Ġtab": 6524,
      "eros": 6525,
      "ĠCong": 6526,
      "Ġraised": 6527,
      "Ġsignals": 6528,
      "ĠImpro": 6529,
      "Ġdenotes": 6530,
      "ĠJapanese": 6531,
      "42": 6532,
      "BA": 6533,
      "Between": 6534,
      "FX": 6535,
      "Ġannot": 6536,
      "Ġfont": 6537,
      "Ġgarden": 6538,
      "ĠSE": 6539,
      "ĠGen": 6540,
      "Ġchocol": 6541,
      "Ġcorout": 6542,
      "Ġattract": 6543,
      "Ġskin": 6544,
      "Ġconcurrently": 6545,
      "Ġcircuits": 6546,
      "Ġfemale": 6547,
      "Ġequivalent": 6548,
      "no": 6549,
      "tr": 6550,
      "rity": 6551,
      "Ġsetup": 6552,
      "heses": 6553,
      "ĠClub": 6554,
      "Ġdeclar": 6555,
      "apsulation": 6556,
      "Ġfitness": 6557,
      "Ġjournal": 6558,
      "Ġpressure": 6559,
      "ĠLovely": 6560,
      "Ġingredients": 6561,
      "Ġbudget": 6562,
      "Un": 6563,
      "iers": 6564,
      "oly": 6565,
      "Ġstock": 6566,
      "Ġtransformation": 6567,
      "Ġfinished": 6568,
      "Ġengaging": 6569,
      "Ġproperly": 6570,
      "ĠPakistan": 6571,
      "Frank": 6572,
      "Pr": 6573,
      "Time": 6574,
      "csharp": 6575,
      "Ġsen": 6576,
      "aling": 6577,
      "Ġnewsp": 6578,
      "Ġclassification": 6579,
      "Ġdetection": 6580,
      "Ġoptimized": 6581,
      "Ġidentical": 6582,
      "ĠSpace": 6583,
      "Ġvideos": 6584,
      "jk": 6585,
      "orrect": 6586,
      "alpha": 6587,
      "ums": 6588,
      "ĠPort": 6589,
      "ĠMad": 6590,
      "ĠFile": 6591,
      "ĠUp": 6592,
      "ĠKubernetes": 6593,
      "Ġcomputations": 6594,
      "Ġcapabilities": 6595,
      "ambig": 6596,
      "Ġprotocol": 6597,
      "Ġdocumentation": 6598,
      "Ġturned": 6599,
      "Ġreferred": 6600,
      "Ġdemonstrates": 6601,
      "ĠErlang": 6602,
      "kins": 6603,
      "water": 6604,
      "Ġaware": 6605,
      "Ġble": 6606,
      "ician": 6607,
      "Ġbeg": 6608,
      "ĠPublic": 6609,
      "Ġkids": 6610,
      "Ġotherwise": 6611,
      "ĠBlue": 6612,
      "Ġchannel": 6613,
      "config": 6614,
      ")]": 6615,
      "Ġinnov": 6616,
      "Ġisol": 6617,
      "ilder": 6618,
      "Ġ`[": 6619,
      "Ġspot": 6620,
      "Ġglass": 6621,
      "onym": 6622,
      "ĠAnt": 6623,
      "Ġyield": 6624,
      "ĠMr": 6625,
      "ĠLists": 6626,
      "Ġclarity": 6627,
      "clipse": 6628,
      "Ġherself": 6629,
      "ĠDespite": 6630,
      "Ġshapes": 6631,
      "ĠFirebase": 6632,
      "/).": 6633,
      "oup": 6634,
      "utch": 6635,
      "Ġconvent": 6636,
      "Ġimag": 6637,
      "ĠLeg": 6638,
      "Ġking": 6639,
      "Ġourselves": 6640,
      "Ġ1960": 6641,
      "Ġrestaur": 6642,
      "Ġminimize": 6643,
      "Any": 6644,
      "Des": 6645,
      "css": 6646,
      "xml": 6647,
      "Ġwrote": 6648,
      "Ġsettle": 6649,
      "Ġbucket": 6650,
      "Ġpriorit": 6651,
      "Array": 6652,
      "Ġiniti": 6653,
      "Ġcontrast": 6654,
      "Ġ!=": 6655,
      "Function": 6656,
      "Sp": 6657,
      "cending": 6658,
      "rical": 6659,
      "sers": 6660,
      "anning": 6661,
      "Ġwild": 6662,
      "\\\"]": 6663,
      "query": 6664,
      "ĠLanguage": 6665,
      "Ġworst": 6666,
      "Ġmanner": 6667,
      "Ġprem": 6668,
      "Ġ1992": 6669,
      "Ġoccurre": 6670,
      "ĠEnvironment": 6671,
      "Ġstraightforward": 6672,
      "Ġdescribes": 6673,
      "ĠLouis": 6674,
      "Ġdoub": 6675,
      "All": 6676,
      "ipped": 6677,
      "Ġut": 6678,
      "ilver": 6679,
      "Ġexhib": 6680,
      "see": 6681,
      "Ġplans": 6682,
      "onday": 6683,
      "ĠComb": 6684,
      "Ġcapture": 6685,
      "auty": 6686,
      "Ġvisualizations": 6687,
      "Ġfloor": 6688,
      "ucky": 6689,
      "ĠApache": 6690,
      "Ġgeometry": 6691,
      "29": 6692,
      "SC": 6693,
      "trans": 6694,
      "Ġcit": 6695,
      "leans": 6696,
      "Ġsizes": 6697,
      "Ġwife": 6698,
      "Ġol": 6699,
      "ada": 6700,
      "Ġ34": 6701,
      "osed": 6702,
      "answer": 6703,
      "Ġscope": 6704,
      "Ġfinds": 6705,
      "Ġelimin": 6706,
      "Ġacade": 6707,
      "defined": 6708,
      "Ġaudio": 6709,
      "Ġcampaign": 6710,
      "func": 6711,
      "ĠFrancisco": 6712,
      "ULL": 6713,
      "Ġpen": 6714,
      "ĠAM": 6715,
      "Ġinequ": 6716,
      "Ġlic": 6717,
      "otic": 6718,
      "keh": 6719,
      "Ġperforms": 6720,
      "Ġcommunic": 6721,
      "Straight": 6722,
      "Ġartists": 6723,
      "Ġexamine": 6724,
      "Ġrenewable": 6725,
      "ĠColumbia": 6726,
      "making": 6727,
      "ston": 6728,
      "Ġbrought": 6729,
      "ulf": 6730,
      "ĠBook": 6731,
      "Ġconser": 6732,
      "Ġseven": 6733,
      "Ġanalyt": 6734,
      "Ġrap": 6735,
      "Ġ2014": 6736,
      "RED": 6737,
      "Ġselling": 6738,
      "ĠDivision": 6739,
      "Ġtrends": 6740,
      "Ġimmediately": 6741,
      "ĠFootball": 6742,
      "push": 6743,
      "Ġpuzz": 6744,
      "Ġdream": 6745,
      "Ġgap": 6746,
      "Ġrecipe": 6747,
      "Ġcoast": 6748,
      "Ġfinite": 6749,
      "ĠPhil": 6750,
      "ĠPlayer": 6751,
      "ambiguation": 6752,
      "ech": 6753,
      "iance": 6754,
      "Ġtim": 6755,
      "stant": 6756,
      "atest": 6757,
      "rome": 6758,
      "ĠThrough": 6759,
      "Ġanyone": 6760,
      "Ġ||": 6761,
      ".\\\")": 6762,
      "Ġroutes": 6763,
      "Ġiterate": 6764,
      "Ġcollected": 6765,
      "Ġsituations": 6766,
      "Se": 6767,
      "iost": 6768,
      "your": 6769,
      "unn": 6770,
      "Ġ${": 6771,
      "Ġju": 6772,
      "ondition": 6773,
      "ĠHealth": 6774,
      "show": 6775,
      "Ġquantum": 6776,
      "Ġcaused": 6777,
      "Ġcategor": 6778,
      "Ġconcerns": 6779,
      "ĠWilliam": 6780,
      "Ġdenominator": 6781,
      "upyter": 6782,
      "Ġwire": 6783,
      "itz": 6784,
      "Ġgun": 6785,
      "Ġgall": 6786,
      "Ġgreet": 6787,
      "Ġhands": 6788,
      "vironments": 6789,
      "Ġsupply": 6790,
      "connect": 6791,
      "Ġforever": 6792,
      "Ġdealloc": 6793,
      "ĠGerman": 6794,
      "ACGTACGTACGTACGT": 6795,
      "ĠVariables": 6796,
      "stream": 6797,
      "Ġweap": 6798,
      "Ġgradient": 6799,
      "Ġgrant": 6800,
      "disambiguation": 6801,
      "ĠREST": 6802,
      "Ġinfrastructure": 6803,
      "UI": 6804,
      "free": 6805,
      "token": 6806,
      "inder": 6807,
      "also": 6808,
      "Ġinternal": 6809,
      "Ġmig": 6810,
      "ĠLife": 6811,
      "Ġfunc": 6812,
      "ĠOld": 6813,
      "aker": 6814,
      "Ġnotice": 6815,
      "ĠScott": 6816,
      "mitted": 6817,
      "ĠSmith": 6818,
      "TED": 6819,
      "Button": 6820,
      "Ġalone": 6821,
      "Ġsea": 6822,
      "Ġappoint": 6823,
      "Ġends": 6824,
      "Ġolder": 6825,
      "Ġreasons": 6826,
      "Ġhistorical": 6827,
      "ĠSpecifically": 6828,
      "iostream": 6829,
      "Ġbed": 6830,
      "ĠTw": 6831,
      "Ġisland": 6832,
      "Ġatm": 6833,
      "Ġshad": 6834,
      "ĠChampionship": 6835,
      "Ġmatplotlib": 6836,
      "Ġgreedy": 6837,
      "Ġcalculating": 6838,
      "Ġcontainers": 6839,
      "Ġowner": 6840,
      "Ġtreating": 6841,
      "ĠFrank": 6842,
      "ĠSingle": 6843,
      "Ġepisode": 6844,
      "Red": 6845,
      "inating": 6846,
      "rem": 6847,
      "ĠAWS": 6848,
      "ĠSat": 6849,
      "ĠBoot": 6850,
      "ĠOper": 6851,
      "Ġefforts": 6852,
      "ĠDecl": 6853,
      "ronic": 6854,
      "Ġconsidering": 6855,
      "ĠExamples": 6856,
      "Frankly": 6857,
      "Ġpi": 6858,
      "Ġproceed": 6859,
      "ĠEarly": 6860,
      "Ġcompat": 6861,
      "ĠiOS": 6862,
      "Ġ[]": 6863,
      "Ġgenerating": 6864,
      "Ġearned": 6865,
      "ĠElixir": 6866,
      "ĠDisc": 6867,
      "arbage": 6868,
      "AP": 6869,
      "fill": 6870,
      "var": 6871,
      "works": 6872,
      "ĠTr": 6873,
      "Ġhon": 6874,
      "Ġexchange": 6875,
      "otlin": 6876,
      "ĠDr": 6877,
      "Ġchance": 6878,
      "angular": 6879,
      "nings": 6880,
      "Ġincred": 6881,
      "Ġexpressed": 6882,
      "Ġflu": 6883,
      "Ġessentially": 6884,
      "ikit": 6885,
      "Ġconverting": 6886,
      "ĠCarol": 6887,
      "Ġhabit": 6888,
      "igan": 6889,
      "output": 6890,
      "phy": 6891,
      "ĠStar": 6892,
      "ĠNews": 6893,
      "Ġconnecting": 6894,
      "Ġfamiliar": 6895,
      "Ġprobably": 6896,
      "Ġhumans": 6897,
      "mean": 6898,
      "build": 6899,
      "Ġlaunch": 6900,
      "RT": 6901,
      "pan": 6902,
      "vals": 6903,
      "Ġmyst": 6904,
      "Ġmys": 6905,
      "asion": 6906,
      "ĠCath": 6907,
      "Ġlock": 6908,
      "ockey": 6909,
      "area": 6910,
      "apter": 6911,
      "Ġdistances": 6912,
      "Ġassess": 6913,
      "Ġcheese": 6914,
      "Ġproductive": 6915,
      "Ġfinish": 6916,
      "ĠFlor": 6917,
      "Ġaddressing": 6918,
      "Ġapple": 6919,
      "Ġprivacy": 6920,
      "Ġparents": 6921,
      "Ġrecognition": 6922,
      "Ġtuple": 6923,
      "ĠThomas": 6924,
      "LI": 6925,
      "Ġtang": 6926,
      "esh": 6927,
      "ĠIr": 6928,
      "ĠIll": 6929,
      "ĠES": 6930,
      "Ġenvironments": 6931,
      "aked": 6932,
      "Ġ},": 6933,
      "Ġregist": 6934,
      "Ġgenerator": 6935,
      "Ġcontribute": 6936,
      "Ġquadratic": 6937,
      "Ġtens": 6938,
      "Ġdram": 6939,
      "ilies": 6940,
      "ĠFurther": 6941,
      "Ġcolon": 6942,
      "ĠJavaFX": 6943,
      "Ġowned": 6944,
      "Ġtried": 6945,
      "ĠWhite": 6946,
      "Ġjoined": 6947,
      "Ġsustainable": 6948,
      "Ġannounced": 6949,
      "NS": 6950,
      "dx": 6951,
      "ura": 6952,
      "Ġyields": 6953,
      "ilton": 6954,
      "ĠPop": 6955,
      "ĠNative": 6956,
      "Ġrates": 6957,
      "ĠJo": 6958,
      "ĠKar": 6959,
      "Ġ2020": 6960,
      "Ġ1993": 6961,
      "Ġstreet": 6962,
      "Ġfrequently": 6963,
      "Ġnearby": 6964,
      "Ġdeployment": 6965,
      "Ġcycle": 6966,
      "orrow": 6967,
      "Ġpul": 6968,
      "ĠSk": 6969,
      "Ġkill": 6970,
      "ensus": 6971,
      "Ġworkers": 6972,
      "prints": 6973,
      "Ġreads": 6974,
      "Ġdeli": 6975,
      "Ġapplies": 6976,
      "85": 6977,
      "fru": 6978,
      "opping": 6979,
      "Ġhtml": 6980,
      "ĠBen": 6981,
      "ĠBus": 6982,
      "Ġcomparing": 6983,
      "Ġpool": 6984,
      "Ġà¤¬": 6985,
      "Ġanswers": 6986,
      "Ġdriver": 6987,
      "Ġmagic": 6988,
      "ylvan": 6989,
      "Ġinsertion": 6990,
      "Ġcomparison": 6991,
      "ourier": 6992,
      "ĠSarah": 6993,
      "ĠMachine": 6994,
      "Anytime": 6995,
      "hash": 6996,
      "}}{": 6997,
      "Ġpure": 6998,
      "Ġinser": 6999,
      "ria": 7000,
      "ĠProf": 7001,
      "ĠInstit": 7002,
      "Ġ1994": 7003,
      "Ġsignificance": 7004,
      "Ġearth": 7005,
      "Ġdeclared": 7006,
      "ACTED": 7007,
      "strap": 7008,
      "Ġremoved": 7009,
      "ĠVictor": 7010,
      "ĠMiddle": 7011,
      "Ġcoordinates": 7012,
      "REDACTED": 7013,
      "=(": 7014,
      "LT": 7015,
      "mt": 7016,
      "war": 7017,
      "Ġproport": 7018,
      "Ġjoin": 7019,
      "ĠKey": 7020,
      "Ġdesigning": 7021,
      "ĠArmy": 7022,
      "Ġfourth": 7023,
      "ĠOverview": 7024,
      "Ġcausing": 7025,
      "Ġsurprising": 7026,
      ":\\\",": 7027,
      "Are": 7028,
      "Ġ]": 7029,
      "Ġtit": 7030,
      "Ġtrib": 7031,
      "Ġyellow": 7032,
      "ĠCare": 7033,
      "ĠGod": 7034,
      "Ġtex": 7035,
      "Ġqual": 7036,
      "Ġentities": 7037,
      "Ġrecursively": 7038,
      "ĠInitialize": 7039,
      "Ġdollars": 7040,
      "pire": 7041,
      "then": 7042,
      "Ġfig": 7043,
      "arithm": 7044,
      "ĠTy": 7045,
      "Ġcomments": 7046,
      "ĠEv": 7047,
      "ĠEclipse": 7048,
      "Ġà¤Ĩ": 7049,
      "Ġnothing": 7050,
      "State": 7051,
      "Ġroots": 7052,
      "Ġviews": 7053,
      "Ġindicates": 7054,
      "iant": 7055,
      "make": 7056,
      "ĠTor": 7057,
      "Ġthreat": 7058,
      "urance": 7059,
      "igm": 7060,
      "Ġheur": 7061,
      "ĠUpd": 7062,
      "Ġintegrated": 7063,
      "valid": 7064,
      "Ġ2016": 7065,
      "Ġmusical": 7066,
      "Ġdebut": 7067,
      "ĠRepublic": 7068,
      "Ġmenu": 7069,
      "ĠHistoric": 7070,
      "Model": 7071,
      "pop": 7072,
      "ona": 7073,
      "dest": 7074,
      "Ġproced": 7075,
      "Ġcomment": 7076,
      "ĠNet": 7077,
      "ively": 7078,
      "nsylvan": 7079,
      "ĠStr": 7080,
      "ĠVol": 7081,
      "Ġsigned": 7082,
      "liament": 7083,
      "which": 7084,
      "square": 7085,
      "overy": 7086,
      "ĠCall": 7087,
      "ĠHave": 7088,
      "ooting": 7089,
      "Generate": 7090,
      "rd": 7091,
      "Ġclock": 7092,
      "Ġinj": 7093,
      "icago": 7094,
      "Ġvict": 7095,
      "Ġserving": 7096,
      "Ġemb": 7097,
      "ĠScience": 7098,
      "Ġfeatured": 7099,
      "Ġmotion": 7100,
      "Ġinfluence": 7101,
      "01": 7102,
      "message": 7103,
      "Ġtensor": 7104,
      "Ġcapt": 7105,
      "Ġsister": 7106,
      "itoring": 7107,
      "ĠTer": 7108,
      "Ġnx": 7109,
      "Ġreward": 7110,
      "Ġgg": 7111,
      "ĠCap": 7112,
      "Ġconsequ": 7113,
      "ĠFact": 7114,
      "Ġkg": 7115,
      "ĠReal": 7116,
      "Ġtheme": 7117,
      "Ġcounting": 7118,
      "Ġbacktracking": 7119,
      "Ġsuggestions": 7120,
      "greg": 7121,
      "mediate": 7122,
      "float": 7123,
      "AL": 7124,
      "ĠTalk": 7125,
      "Ġrevenue": 7126,
      "ĠCore": 7127,
      "ander": 7128,
      "Ġ<!": 7129,
      "Ġintegrate": 7130,
      "Ġcapital": 7131,
      "ĠMySQL": 7132,
      "Ġmanufacture": 7133,
      ")*": 7134,
      "Set": 7135,
      "ira": 7136,
      "Ġcop": 7137,
      "Ġwidget": 7138,
      "Ġeigen": 7139,
      "ilater": 7140,
      "ĠCome": 7141,
      "ĠMountain": 7142,
      "Ġbuff": 7143,
      "ĠProt": 7144,
      "Ġthoughts": 7145,
      "Ġcombining": 7146,
      "ĠBoost": 7147,
      "related": 7148,
      "Ġpurchase": 7149,
      "Ġasked": 7150,
      "nsylvania": 7151,
      "34": 7152,
      "gl": 7153,
      "hour": 7154,
      "mal": 7155,
      "zen": 7156,
      "inf": 7157,
      "ĠSocial": 7158,
      "ĠCamp": 7159,
      "Ġ150": 7160,
      "ifact": 7161,
      "Ġnearest": 7162,
      "Ġdesigns": 7163,
      "Ġdirector": 7164,
      "Ġputs": 7165,
      "Ġesc": 7166,
      "Ġbecoming": 7167,
      "Ġtreatment": 7168,
      "Ġatmosp": 7169,
      "Text": 7170,
      "td": 7171,
      "{(": 7172,
      "chain": 7173,
      "ĠCa": 7174,
      "Ġlik": 7175,
      "ĠMex": 7176,
      "Ġabilities": 7177,
      "open": 7178,
      "Ġcontrols": 7179,
      "anned": 7180,
      "label": 7181,
      "Ġparentheses": 7182,
      "vantages": 7183,
      "Ġgirl": 7184,
      "Ġslightly": 7185,
      "CM": 7186,
      "He": 7187,
      "erate": 7188,
      "Ġbags": 7189,
      "ishes": 7190,
      "Ġstaff": 7191,
      "Ġlend": 7192,
      "ongo": 7193,
      "Ġformats": 7194,
      "velous": 7195,
      "Ġwriter": 7196,
      "Ġ2015": 7197,
      "Ġcombines": 7198,
      "Ġphysics": 7199,
      "YPE": 7200,
      "Ġcir": 7201,
      "Ġcache": 7202,
      "Ġpix": 7203,
      "Ġlived": 7204,
      "ĠBC": 7205,
      "Ġbeauty": 7206,
      "Ġprices": 7207,
      "veloper": 7208,
      "Ġpoem": 7209,
      "Ġ64": 7210,
      "Ġrelative": 7211,
      "Ġpreser": 7212,
      "Ġorganize": 7213,
      "ircraft": 7214,
      "ĠRobert": 7215,
      "Char": 7216,
      "Ġdamage": 7217,
      "Ġcryptography": 7218,
      "ĠGovernment": 7219,
      "ĠJulia": 7220,
      "({": 7221,
      "IDE": 7222,
      "ĠTri": 7223,
      "Ġgar": 7224,
      "Ġhes": 7225,
      "Ġexerc": 7226,
      "ĠPass": 7227,
      "ĠNorthern": 7228,
      "ĠNULL": 7229,
      "Ġplain": 7230,
      "Ġdiagon": 7231,
      "Ġoperated": 7232,
      "arsh": 7233,
      "Ġleader": 7234,
      "pected": 7235,
      "Ġplanet": 7236,
      "Ġfailure": 7237,
      "Ġpermissions": 7238,
      "Ġduplic": 7239,
      "IP": 7240,
      "Ġwra": 7241,
      "ĠSearch": 7242,
      "Ġproof": 7243,
      "Ġhero": 7244,
      "Ġexplicit": 7245,
      "ĠMel": 7246,
      "Ġris": 7247,
      "ĠBeautiful": 7248,
      "Ġscatter": 7249,
      "aterial": 7250,
      "Ġagent": 7251,
      "Ġentity": 7252,
      "Ġpatient": 7253,
      "diction": 7254,
      "Ġcouple": 7255,
      "Ġhttp": 7256,
      "Integer": 7257,
      "à¤ķà¤¤": 7258,
      "ĠPennsylvania": 7259,
      "ĠEducation": 7260,
      "!\\\")": 7261,
      "circ": 7262,
      "gu": 7263,
      "Ġnorthern": 7264,
      "ĠCost": 7265,
      "Ġweigh": 7266,
      "ĠGold": 7267,
      "Ġresolution": 7268,
      "Ġoutcome": 7269,
      "Ġlisted": 7270,
      "Ġmedal": 7271,
      "Ġscripts": 7272,
      "ĠAtl": 7273,
      "ĠSimilarly": 7274,
      "Ġsalary": 7275,
      "Ġcollision": 7276,
      "Ob": 7277,
      "fol": 7278,
      "Ġtend": 7279,
      "Ġcipher": 7280,
      "ĠAz": 7281,
      "Ġthrow": 7282,
      "ĠEnt": 7283,
      "ĠDev": 7284,
      "Ġenvironmental": 7285,
      "Ġestimate": 7286,
      "Ġchoosing": 7287,
      "Ġinterested": 7288,
      "Ġsending": 7289,
      "boxed": 7290,
      "ĠRadio": 7291,
      "Value": 7292,
      ".$$": 7293,
      "lam": 7294,
      "aten": 7295,
      "ĠCam": 7296,
      "Ġprove": 7297,
      "ĠWhe": 7298,
      "ĠMethod": 7299,
      "ĠNavig": 7300,
      "Ġmaster": 7301,
      "clusive": 7302,
      "Ġdied": 7303,
      "Ġprepar": 7304,
      "Ġ180": 7305,
      "Ġcarbon": 7306,
      "Ġdriving": 7307,
      "Ġopportunity": 7308,
      "ĠGermany": 7309,
      "bb": 7310,
      "find": 7311,
      "Ġgather": 7312,
      "Ġyours": 7313,
      "Ġadopt": 7314,
      "Ġcoff": 7315,
      "Ġwonder": 7316,
      "Ġ2018": 7317,
      "parse": 7318,
      "Ġorganizing": 7319,
      "Ġdestroy": 7320,
      "Ġà¤¸à¤ķà¤¤": 7321,
      "fall": 7322,
      "ĠBal": 7323,
      "Ġkilo": 7324,
      "ansion": 7325,
      "Ġcorner": 7326,
      "ĠKore": 7327,
      "ega": 7328,
      "Ġincrement": 7329,
      "Ġideal": 7330,
      "Ġscalable": 7331,
      "Ġmultiplying": 7332,
      "Ġobtained": 7333,
      "Ġpolicies": 7334,
      "à¥Ĥà¤ģà¥¤": 7335,
      "ano": 7336,
      "Ġdance": 7337,
      "Ġvib": 7338,
      "ĠJupyter": 7339,
      "Ġjump": 7340,
      "ĠKeep": 7341,
      "logical": 7342,
      "Ġguarant": 7343,
      "author": 7344,
      "poses": 7345,
      "Ġchannels": 7346,
      "ĠHandling": 7347,
      "ĠDebugging": 7348,
      "Ġggplot": 7349,
      "Welcome": 7350,
      "current": 7351,
      "ipl": 7352,
      "mas": 7353,
      "Ġsod": 7354,
      "Ġnarr": 7355,
      "ĠCup": 7356,
      "Ġexpensive": 7357,
      "Ġserial": 7358,
      "Ġdifferential": 7359,
      "Ġregions": 7360,
      "Ġvision": 7361,
      "Ġcandy": 7362,
      "ĠSummer": 7363,
      "ĠStandard": 7364,
      "II": 7365,
      "JS": 7366,
      "Line": 7367,
      "TV": 7368,
      "XW": 7369,
      "uries": 7370,
      "uler": 7371,
      "Ġnoteb": 7372,
      "ĠForce": 7373,
      "Ġboy": 7374,
      "Ġlightweight": 7375,
      "ATE": 7376,
      "Ġrepeat": 7377,
      "Ġcharts": 7378,
      "$)": 7379,
      "76": 7380,
      "AM": 7381,
      "Wow": 7382,
      "Ġille": 7383,
      "ĠAwards": 7384,
      "ulture": 7385,
      "ĠSur": 7386,
      "ĠPal": 7387,
      "Ġ`/": 7388,
      "ĠFourier": 7389,
      "ĠNature": 7390,
      "Ġparties": 7391,
      "ĠXcode": 7392,
      "Ġmission": 7393,
      "Ġresponsive": 7394,
      "Ġvisualize": 7395,
      "Ġbrown": 7396,
      "Ġcollaboration": 7397,
      "Ġsynchronization": 7398,
      "38": 7399,
      "cious": 7400,
      "post": 7401,
      "tion": 7402,
      "Ġrac": 7403,
      "atin": 7404,
      "utations": 7405,
      "verything": 7406,
      "Ġpresident": 7407,
      "Ġprofiling": 7408,
      "Ġcertainly": 7409,
      "Ġloading": 7410,
      "Ġbirds": 7411,
      "ĠTransport": 7412,
      "Ġmacro": 7413,
      "ani": 7414,
      "lete": 7415,
      "Ġwalking": 7416,
      "edge": 7417,
      "Ġmur": 7418,
      "ĠMonday": 7419,
      "Ġexcited": 7420,
      "Ġbrain": 7421,
      "ĠSecurity": 7422,
      "ĠOhio": 7423,
      "Test": 7424,
      "eled": 7425,
      "item": 7426,
      "Ġpsy": 7427,
      "ĠAk": 7428,
      "ĠSave": 7429,
      "utral": 7430,
      "ĠWater": 7431,
      "Ġ`(": 7432,
      "Ġshot": 7433,
      "Ġsolar": 7434,
      "Ġinterview": 7435,
      "Ġstudio": 7436,
      "ĠProduct": 7437,
      "Ġreality": 7438,
      "Ġ1987": 7439,
      "Ġflexibility": 7440,
      "Ġsatellites": 7441,
      "sigma": 7442,
      "Ġeth": 7443,
      "Ġneur": 7444,
      "Ġarbit": 7445,
      "Ġrecall": 7446,
      "Ġsugar": 7447,
      "Ġconsistently": 7448,
      "cor": 7449,
      "ii": 7450,
      "page": 7451,
      "Ġcra": 7452,
      "Ġ`-": 7453,
      "Ġclassic": 7454,
      "perty": 7455,
      "Ġdepartment": 7456,
      "Ġrealized": 7457,
      "Ġmonitor": 7458,
      "Ġsklearn": 7459,
      "Ġfocuses": 7460,
      "fection": 7461,
      "Ġelected": 7462,
      "Ġmixed": 7463,
      "CTYPE": 7464,
      "ority": 7465,
      "esian": 7466,
      "ĠSDK": 7467,
      "plex": 7468,
      "ĠHot": 7469,
      "Ġnest": 7470,
      "Ġfeels": 7471,
      "Ġlogarithm": 7472,
      "Ġ1985": 7473,
      "scale": 7474,
      "train": 7475,
      "Ġforeign": 7476,
      "Ġinvestment": 7477,
      "Ġeye": 7478,
      "Ġcomprehensive": 7479,
      "Ġdimensions": 7480,
      "DOCTYPE": 7481,
      "ĠAcademy": 7482,
      "cons": 7483,
      "Ġcert": 7484,
      "oming": 7485,
      "ĠBase": 7486,
      "Ġ('": 7487,
      "ride": 7488,
      "apers": 7489,
      "arian": 7490,
      "Ġrecip": 7491,
      "Ġproducer": 7492,
      "ernate": 7493,
      "ĠUSA": 7494,
      "Ġdictionaries": 7495,
      "Ġencoura": 7496,
      "Ġexponential": 7497,
      "Bob": 7498,
      "Graph": 7499,
      "draw": 7500,
      "Ġcv": 7501,
      "Ġfault": 7502,
      "Ġgarbage": 7503,
      "ĠBer": 7504,
      "Ġdefe": 7505,
      "Ġdetermin": 7506,
      "Ġmagical": 7507,
      "Ġfiltering": 7508,
      "ĠFlorida": 7509,
      "burg": 7510,
      "mers": 7511,
      "inn": 7512,
      "edia": 7513,
      "Ġmal": 7514,
      "Ġconven": 7515,
      "Ġalt": 7516,
      "ĠReplace": 7517,
      "Ġdespite": 7518,
      "Ġcomputational": 7519,
      "Ġcustomize": 7520,
      "Ġsaying": 7521,
      "Ġdrag": 7522,
      "ĠParallel": 7523,
      "Ġpizza": 7524,
      "Ġhesit": 7525,
      "dev": 7526,
      "ĠPress": 7527,
      "ĠEvent": 7528,
      "ivot": 7529,
      "perform": 7530,
      "Ġpreferences": 7531,
      "Ġ188": 7532,
      "PUB": 7533,
      "rightarrow": 7534,
      "ĠRemove": 7535,
      "Ġopposite": 7536,
      "Ġinequality": 7537,
      "wide": 7538,
      "yal": 7539,
      "Ġhospital": 7540,
      "ĠSuch": 7541,
      "ĠBow": 7542,
      "this": 7543,
      "aby": 7544,
      "Ġseeds": 7545,
      "ĠJoh": 7546,
      "Ġappeal": 7547,
      "Ġunknown": 7548,
      "phone": 7549,
      "icken": 7550,
      "Ġproduces": 7551,
      "locks": 7552,
      "Ġfamilies": 7553,
      "Ġoffering": 7554,
      "198": 7555,
      "Ġprimarily": 7556,
      "ĠCharles": 7557,
      "Ġcomposition": 7558,
      "Ġdestination": 7559,
      "Ġinheritance": 7560,
      "Ġextremely": 7561,
      "stac": 7562,
      "Ġsouthern": 7563,
      "ĠCR": 7564,
      "Ġaccessing": 7565,
      "Ġboundaries": 7566,
      "nodejs": 7567,
      "Ġanti": 7568,
      "Ġindicating": 7569,
      "Ġmistakes": 7570,
      "jkstra": 7571,
      "true": 7572,
      "stone": 7573,
      "asant": 7574,
      "Ġlately": 7575,
      "Ġalign": 7576,
      "ĠPract": 7577,
      "Ġ$<<": 7578,
      "Ġwarms": 7579,
      "angles": 7580,
      "ĠScot": 7581,
      "Ġmedian": 7582,
      "Ġreduces": 7583,
      "Ġamounts": 7584,
      "ĠSeriously": 7585,
      "iloso": 7586,
      "dependent": 7587,
      "Ġvegetables": 7588,
      "Ġenclosed": 7589,
      "Ġillegal": 7590,
      "400": 7591,
      "OST": 7592,
      "When": 7593,
      "reland": 7594,
      "ĠArab": 7595,
      "Ġtoler": 7596,
      "Ġdot": 7597,
      "ĠSociety": 7598,
      "ithread": 7599,
      "ĠPack": 7600,
      "ĠLim": 7601,
      "Ġaccel": 7602,
      "Ġclicking": 7603,
      "fered": 7604,
      "Ġmostly": 7605,
      "hips": 7606,
      "matlab": 7607,
      "Ġartificial": 7608,
      "Ġ1984": 7609,
      "ĠIsra": 7610,
      "Ġbehaviors": 7611,
      "Ġregardless": 7612,
      "ealand": 7613,
      "Ġpytest": 7614,
      "ĠAngular": 7615,
      "xiety": 7616,
      "Ġschedule": 7617,
      "Ġcoffee": 7618,
      "BS": 7619,
      "oth": 7620,
      "Ġtough": 7621,
      "Ġsnow": 7622,
      "Ġdress": 7623,
      "rain": 7624,
      "ĠSl": 7625,
      "ĠSal": 7626,
      "ĠSports": 7627,
      "under": 7628,
      "ĠWonderful": 7629,
      "ĠElect": 7630,
      "ĠDynamic": 7631,
      "ĠFree": 7632,
      "ideo": 7633,
      "Ġpoor": 7634,
      "Ġoperate": 7635,
      "azon": 7636,
      "chemy": 7637,
      "Ġlegal": 7638,
      "Ġpaint": 7639,
      "ĠBroad": 7640,
      "Component": 7641,
      "Ġdeviation": 7642,
      "Ġcategories": 7643,
      "ĠMoreover": 7644,
      "Ġarbitr": 7645,
      "Hope": 7646,
      "uing": 7647,
      "unct": 7648,
      "ĠBrown": 7649,
      "ĠMont": 7650,
      "ĠInf": 7651,
      "ĠLear": 7652,
      "Ġshif": 7653,
      "Ġfear": 7654,
      "Ġprep": 7655,
      "Ġdiscrete": 7656,
      "web": 7657,
      "ĠTrack": 7658,
      "ĠGeorg": 7659,
      "module": 7660,
      "Ġprotein": 7661,
      "Ġproposed": 7662,
      "Ġrendering": 7663,
      "Ġcitiz": 7664,
      "Ġvibes": 7665,
      "By": 7666,
      "]:": 7667,
      "dt": 7668,
      "gar": 7669,
      "atural": 7670,
      "stdio": 7671,
      "Ġinjection": 7672,
      "Ġdrop": 7673,
      "Ġmit": 7674,
      "elli": 7675,
      "Ġwasn": 7676,
      "ignal": 7677,
      "Ġevol": 7678,
      "ĠChicago": 7679,
      "ildren": 7680,
      "Ġshel": 7681,
      "Ġindicate": 7682,
      "Ġcharge": 7683,
      "Ġhappens": 7684,
      "Ġ2019": 7685,
      "Ġremained": 7686,
      "ĠZealand": 7687,
      "Ġcompilation": 7688,
      "ĠJSX": 7689,
      "ĠMichigan": 7690,
      "ĠValue": 7691,
      "Ġsurrounding": 7692,
      "Ġecosystem": 7693,
      "Man": 7694,
      "Ġcere": 7695,
      "lore": 7696,
      "lored": 7697,
      "imeter": 7698,
      "ĠSouthern": 7699,
      "Ġcreatures": 7700,
      "ĠMap": 7701,
      "Ġworry": 7702,
      "ĠAlgorithm": 7703,
      "Ġstandards": 7704,
      "Ġreader": 7705,
      "Ġwebsites": 7706,
      "Ġbenefit": 7707,
      "undred": 7708,
      "DataFrame": 7709,
      "Ġencounter": 7710,
      "directed": 7711,
      "Ġintersection": 7712,
      "Ġfascinating": 7713,
      "Ġbegins": 7714,
      "FA": 7715,
      "Ġast": 7716,
      "Ġglo": 7717,
      "uts": 7718,
      "ĠWood": 7719,
      "Ġvote": 7720,
      "ĠPM": 7721,
      "Ġrank": 7722,
      "Ġshift": 7723,
      "Ġperfection": 7724,
      "Ġincorrect": 7725,
      "Ġsauce": 7726,
      "Ġnoise": 7727,
      "Ġtermin": 7728,
      "Ġ186": 7729,
      "Ġdeliver": 7730,
      "Ġinterests": 7731,
      "Ġpipeline": 7732,
      "Ġcrossing": 7733,
      "Ġasyncio": 7734,
      "/)": 7735,
      "31": 7736,
      "ĠBur": 7737,
      "ĠDFS": 7738,
      "ĠJim": 7739,
      "ĠJoe": 7740,
      "Ġnative": 7741,
      "Ġunion": 7742,
      "Ġhappened": 7743,
      "Ġflat": 7744,
      "Ġflag": 7745,
      "Ġimprovement": 7746,
      "ĠWho": 7747,
      "Ġpurposes": 7748,
      "}^{\\\\": 7749,
      "Ġsummarize": 7750,
      "Ġcandidate": 7751,
      "($": 7752,
      "ipping": 7753,
      "Ġaircraft": 7754,
      "reg": 7755,
      "Ġoffered": 7756,
      "tuitive": 7757,
      "ĠHig": 7758,
      "ups": 7759,
      "Ġexponent": 7760,
      "Ġpasses": 7761,
      "Ġeveryday": 7762,
      "Ġmetrics": 7763,
      "Ġprofile": 7764,
      "Ġbrowse": 7765,
      "Ġiteration": 7766,
      "Ġdefinitions": 7767,
      "Ġdisplayed": 7768,
      "Ġallocated": 7769,
      "Ġcauses": 7770,
      "ĠIntegrating": 7771,
      "78": 7772,
      "zy": 7773,
      "Ġic": 7774,
      "Ġpurs": 7775,
      "Ġdx": 7776,
      "Ġrese": 7777,
      "serv": 7778,
      "Ġobstac": 7779,
      "Ġdrawing": 7780,
      "Ġinfinite": 7781,
      "ĠInstitute": 7782,
      "55": 7783,
      "Em": 7784,
      "heap": 7785,
      "Ġfat": 7786,
      "Ġbird": 7787,
      "Ġ(\\\"": 7788,
      "ersion": 7789,
      "Ġseat": 7790,
      "ĠJDK": 7791,
      "berry": 7792,
      "Ġtrick": 7793,
      "comm": 7794,
      "Ġ1991": 7795,
      "nesses": 7796,
      "Ġdrink": 7797,
      "(\"": 7798,
      "hol": 7799,
      "nament": 7800,
      "ye": 7801,
      "Ġmunic": 7802,
      "ĠBel": 7803,
      "ystal": 7804,
      "Ġintended": 7805,
      "Ġunne": 7806,
      "ipy": 7807,
      "Ġfewer": 7808,
      "ĠKn": 7809,
      "inese": 7810,
      "Ġupdating": 7811,
      "Ġlandsc": 7812,
      "Ġallocate": 7813,
      "Ġscaling": 7814,
      "password": 7815,
      "Ġmicroservices": 7816,
      "Ġimplies": 7817,
      "mond": 7818,
      "||": 7819,
      "Ġfro": 7820,
      "alks": 7821,
      "ĠSand": 7822,
      "ĠBridge": 7823,
      "ĠRi": 7824,
      "essions": 7825,
      "ĠNon": 7826,
      "Ġmapping": 7827,
      "ĠBeach": 7828,
      "berg": 7829,
      "Ġà¤ª": 7830,
      "Ġstructured": 7831,
      "Ġcourt": 7832,
      "Ġpersonalized": 7833,
      "Ġteacher": 7834,
      ")}{": 7835,
      "Ġcategory": 7836,
      "Ġcart": 7837,
      "Ġwave": 7838,
      "Ġhol": 7839,
      "Ġconsec": 7840,
      "ĠHome": 7841,
      "ĠFort": 7842,
      "achel": 7843,
      "Ġspatial": 7844,
      "Ġbugs": 7845,
      "Ġpartner": 7846,
      "ĠArray": 7847,
      "Ġ1988": 7848,
      "Ġ1989": 7849,
      "scala": 7850,
      "Ġbiggest": 7851,
      "Ġeffectiveness": 7852,
      "element": 7853,
      "\\\"></": 7854,
      "Ġreported": 7855,
      "Ġcamera": 7856,
      "delta": 7857,
      "Ġvehicles": 7858,
      "39": 7859,
      "ingu": 7860,
      "ĠAge": 7861,
      "ĠSqu": 7862,
      "Ġhence": 7863,
      "Ġ((": 7864,
      "ĠWin": 7865,
      "ains": 7866,
      "ĠDutch": 7867,
      "Ġkit": 7868,
      "itioning": 7869,
      "Ġdiverse": 7870,
      "Ġunderst": 7871,
      "Ġintegrity": 7872,
      "Ġidentified": 7873,
      "Ġownership": 7874,
      "Ġ2017": 7875,
      "Ġconcern": 7876,
      "Ġsky": 7877,
      "Ġindependently": 7878,
      "sequently": 7879,
      "Ġannual": 7880,
      "Ġsurprise": 7881,
      "yan": 7882,
      "Ġtail": 7883,
      "Ġprison": 7884,
      "Ġencoding": 7885,
      "Ġpoll": 7886,
      "Ġdelve": 7887,
      "ĠBoard": 7888,
      "ĠGrand": 7889,
      "Ġchocolate": 7890,
      "Ġrisks": 7891,
      "lers": 7892,
      "och": 7893,
      "Ġtack": 7894,
      "Ġtags": 7895,
      "oration": 7896,
      "Ġbits": 7897,
      "ĠIreland": 7898,
      "ĠSa": 7899,
      "ĠCast": 7900,
      "ĠBinary": 7901,
      "ĠBBC": 7902,
      "Ġconquer": 7903,
      "ĠWork": 7904,
      "ĠLong": 7905,
      "ĠOR": 7906,
      "Ġ44": 7907,
      "aria": 7908,
      "().": 7909,
      "ĠReview": 7910,
      "Ġdescent": 7911,
      "Ġ65": 7912,
      "ĠAny": 7913,
      "Ġgoods": 7914,
      "Ġmonitoring": 7915,
      "Ġmusc": 7916,
      "Ġportion": 7917,
      "relation": 7918,
      "Ġinspired": 7919,
      "Ġaccompl": 7920,
      "MS": 7921,
      "Read": 7922,
      "bound": 7923,
      "Ġ~": 7924,
      "Ġanxiety": 7925,
      "arters": 7926,
      "Ġmile": 7927,
      "rocessing": 7928,
      "ĠOf": 7929,
      "Ġoverview": 7930,
      "Ġintegr": 7931,
      "Ġgeneric": 7932,
      "incial": 7933,
      "force": 7934,
      "efficient": 7935,
      "Ġmechanisms": 7936,
      "digit": 7937,
      "GL": 7938,
      "last": 7939,
      "Ġfancy": 7940,
      "Ġdaughter": 7941,
      "Ġlazy": 7942,
      "ĠBi": 7943,
      "ĠPeter": 7944,
      "ĠError": 7945,
      "ĠNOT": 7946,
      "Ġrou": 7947,
      "à¤¼": 7948,
      "osh": 7949,
      "Ġshopping": 7950,
      "iply": 7951,
      "Ġtrained": 7952,
      "Ġtherefore": 7953,
      "ĠCompar": 7954,
      "Ġfacts": 7955,
      "Ġsupported": 7956,
      "Ġbasically": 7957,
      "ĠCommit": 7958,
      "Ġmarried": 7959,
      "Ġaddresses": 7960,
      "Ġsites": 7961,
      "liers": 7962,
      "à¥ĩà¤Ĥ": 7963,
      "straction": 7964,
      "Ġstudying": 7965,
      "Ġinterpret": 7966,
      "Ġrepeatedly": 7967,
      "ĠWriting": 7968,
      "Ġunnecessary": 7969,
      "fix": 7970,
      "gers": 7971,
      "win": 7972,
      "Ġfederal": 7973,
      "async": 7974,
      "Ġgem": 7975,
      "Ġvoc": 7976,
      "ĠDig": 7977,
      "ĠDNA": 7978,
      "Ġsquared": 7979,
      "^{\\\\": 7980,
      "Ġquantity": 7981,
      "Ġstopping": 7982,
      "ĠOfficial": 7983,
      "Ġgeometric": 7984,
      "ĠItalian": 7985,
      "Ġjuice": 7986,
      "IS": 7987,
      "^\\\\": 7988,
      "drop": 7989,
      "lar": 7990,
      "rad": 7991,
      "uling": 7992,
      "Ġcomplic": 7993,
      "ĠPi": 7994,
      "Ġ`$": 7995,
      "ĠMen": 7996,
      "ĠDE": 7997,
      "Ġrise": 7998,
      "Ġ37": 7999,
      "()`.": 8000,
      "Ġ{'": 8001,
      "ifications": 8002,
      "Ġindices": 8003,
      "Ġassume": 8004,
      "Ġrobot": 8005,
      "Ġopin": 8006,
      "Ġclosure": 8007,
      "Ġreligious": 8008,
      "Ġmyself": 8009,
      "$;": 8010,
      "NN": 8011,
      "Que": 8012,
      "stic": 8013,
      "Ġfif": 8014,
      "Ġfuel": 8015,
      "Ġbubble": 8016,
      "Ġtower": 8017,
      "etts": 8018,
      "users": 8019,
      "Ġorders": 8020,
      "pling": 8021,
      "ĠGreek": 8022,
      "à¤ª": 8023,
      "neg": 8024,
      "Ġparad": 8025,
      "valu": 8026,
      "Ġextended": 8027,
      "linear": 8028,
      "Ġreceiver": 8029,
      "Ġfaced": 8030,
      "Ġneighbors": 8031,
      "Ġcomposed": 8032,
      "Ġrobust": 8033,
      "ĠConcurrency": 8034,
      "ĠDemocr": 8035,
      "can": 8036,
      "cost": 8037,
      "ucl": 8038,
      "well": 8039,
      "Ġwall": 8040,
      "anta": 8041,
      "Ġlib": 8042,
      "Your": 8043,
      "ĠPDF": 8044,
      "ĠHall": 8045,
      "ruct": 8046,
      "Ġhair": 8047,
      "Ġdecom": 8048,
      "balance": 8049,
      "inois": 8050,
      "Ġdisease": 8051,
      "Ġfantastic": 8052,
      "dict": 8053,
      "amily": 8054,
      "irt": 8055,
      "ĠFace": 8056,
      "Ġleaks": 8057,
      "ĠLit": 8058,
      "ĠOnt": 8059,
      "Ġinstant": 8060,
      "ĠChange": 8061,
      "Ġrelatively": 8062,
      "Ġextend": 8063,
      "Ġreduction": 8064,
      "Ġskill": 8065,
      "ĠDescribe": 8066,
      "ĠCongress": 8067,
      "Ġrapid": 8068,
      "Love": 8069,
      "VC": 8070,
      "haps": 8071,
      "rick": 8072,
      "atitude": 8073,
      "rag": 8074,
      "Ġhaven": 8075,
      "illy": 8076,
      "ĠDa": 8077,
      "Ġcontroller": 8078,
      "orders": 8079,
      "Ġprintln": 8080,
      "Ġgreeting": 8081,
      "Ġsuppose": 8082,
      "ĠImage": 8083,
      "ĠConsole": 8084,
      "_{\\\\": 8085,
      "backs": 8086,
      "Ġtracks": 8087,
      "Ġbelieved": 8088,
      "Ġemployee": 8089,
      "Ġcriteria": 8090,
      "Ġsimplifies": 8091,
      "Ġobserve": 8092,
      "Ġrecommendations": 8093,
      "Ġfingerprints": 8094,
      "ĠIllinois": 8095,
      "ROM": 8096,
      "Sum": 8097,
      "rooms": 8098,
      "uty": 8099,
      "ĠMove": 8100,
      "Ġcompression": 8101,
      "ĠUsed": 8102,
      "Ġ55": 8103,
      "Ġrecently": 8104,
      "Ġcovers": 8105,
      "Ġrelation": 8106,
      "Ġfiltered": 8107,
      "Ġmuse": 8108,
      "ĠOpenAI": 8109,
      "Ġprofession": 8110,
      "ĠCommission": 8111,
      "Ġcounc": 8112,
      "Ġdiscussion": 8113,
      "ĠDistrib": 8114,
      "Ġtemplates": 8115,
      "LECT": 8116,
      "Ġhoriz": 8117,
      "ĠKentucky": 8118,
      "120": 8119,
      "?\\\"": 8120,
      "Given": 8121,
      "target": 8122,
      "Ġsch": 8123,
      "Ġborder": 8124,
      "Ġpal": 8125,
      "Ġho": 8126,
      "ĠBFS": 8127,
      "ĠEqu": 8128,
      "ĠMuse": 8129,
      "Ġtele": 8130,
      "Ġretail": 8131,
      "cription": 8132,
      "Ġagre": 8133,
      "ĠAsia": 8134,
      "Ġconstants": 8135,
      "ĠOrder": 8136,
      "Ġintroduction": 8137,
      "Ġclosely": 8138,
      "Ġtyping": 8139,
      "Ġinfinity": 8140,
      "Ġouter": 8141,
      "Ġsandw": 8142,
      "Ġbottlene": 8143,
      "ĠCatholic": 8144,
      "Ġdelivery": 8145,
      "ĠOntario": 8146,
      "Ad": 8147,
      "dfrac": 8148,
      "zero": 8149,
      "Ġbat": 8150,
      "unte": 8151,
      "ĠHaw": 8152,
      "ĠEner": 8153,
      "ansas": 8154,
      "Ġservers": 8155,
      "uesday": 8156,
      "ashion": 8157,
      "Ġheader": 8158,
      "Ġtelling": 8159,
      "Ġcourses": 8160,
      "Ġexperienced": 8161,
      "grade": 8162,
      "ĠDesigning": 8163,
      "Ġsavings": 8164,
      "Ġcomfortable": 8165,
      "AN": 8166,
      "Auth": 8167,
      "[\\\"": 8168,
      "fast": 8169,
      "Ġwaste": 8170,
      "Ġbattle": 8171,
      "Ġreferences": 8172,
      "Ġstick": 8173,
      "iders": 8174,
      "ĠWed": 8175,
      "ĠWishing": 8176,
      "\\\\\\\\": 8177,
      "Ġoranges": 8178,
      "Ġring": 8179,
      "Ġ\\\"\\\"\\\"": 8180,
      "Ġuniform": 8181,
      "Ġdoor": 8182,
      "Ġimplements": 8183,
      "Exception": 8184,
      "ĠYes": 8185,
      "Ġmanageable": 8186,
      "ĠArea": 8187,
      "Ġacademic": 8188,
      "Ġhesitate": 8189,
      "Ġconsecutive": 8190,
      "Che": 8191,
      "Ed": 8192,
      "Ġathlet": 8193,
      "stab": 8194,
      "Ġstrict": 8195,
      "ĠCreek": 8196,
      "ths": 8197,
      "Ġvac": 8198,
      "ĠPage": 8199,
      "achus": 8200,
      "ĠKit": 8201,
      "Ġspecifies": 8202,
      "Ġ[\\\"": 8203,
      "anches": 8204,
      "being": 8205,
      "Ġdetermining": 8206,
      "gypt": 8207,
      "Ġroutine": 8208,
      "ĠBritain": 8209,
      "Ġindustries": 8210,
      "Ġheuristic": 8211,
      "Ġunderstood": 8212,
      "44": 8213,
      "onents": 8214,
      "Ġsrc": 8215,
      "Ġasks": 8216,
      "Ġstability": 8217,
      "ĠBell": 8218,
      "Ġali": 8219,
      "ĠWant": 8220,
      "ĠDocument": 8221,
      "ĠLoc": 8222,
      "Ġrare": 8223,
      "Ġregularly": 8224,
      "Ġhappen": 8225,
      "ĠFrance": 8226,
      "ĠHighway": 8227,
      "Ġactivation": 8228,
      "ĠDijkstra": 8229,
      "Ġconstructed": 8230,
      "ĠFilter": 8231,
      "Ġscientists": 8232,
      "directory": 8233,
      "Ġinterpolation": 8234,
      "Ġbin": 8235,
      "Ġpit": 8236,
      "umni": 8237,
      "Ġbeach": 8238,
      "ĠLight": 8239,
      "Ġenem": 8240,
      "anged": 8241,
      "ĠVen": 8242,
      "Ġlisten": 8243,
      "Ġ2021": 8244,
      "ĠAnn": 8245,
      "Ġtransmission": 8246,
      "comp": 8247,
      "lisions": 8248,
      "const": 8249,
      "ĠShow": 8250,
      "Ġ1986": 8251,
      "Ġtrial": 8252,
      "Ġheads": 8253,
      "Ġmagazine": 8254,
      "ĠRegister": 8255,
      "ĠDoe": 8256,
      "ĠProgramming": 8257,
      "Ġprecisely": 8258,
      "Ġtowns": 8259,
      "Enter": 8260,
      "Hash": 8261,
      "Is": 8262,
      "Post": 8263,
      "eric": 8264,
      "Ġcaught": 8265,
      "Ġhuge": 8266,
      "ĠBio": 8267,
      "Ġ`@": 8268,
      "ĠMongo": 8269,
      "Ġknowing": 8270,
      "Ġgrew": 8271,
      "Ġengagement": 8272,
      "Ġprobing": 8273,
      "Ġbroken": 8274,
      "Ġpayoff": 8275,
      "Ġimmutable": 8276,
      "Ġexplanation": 8277,
      "ĠCarolina": 8278,
      "Ġà¤Ĩà¤ª": 8279,
      "achusetts": 8280,
      "bur": 8281,
      "range": 8282,
      "atile": 8283,
      "iler": 8284,
      "ĠEgypt": 8285,
      "ĠMike": 8286,
      "ĠDu": 8287,
      "ĠGET": 8288,
      "iller": 8289,
      "ĠJose": 8290,
      "ĠUtil": 8291,
      "oses": 8292,
      "Ġ1950": 8293,
      "Ġcold": 8294,
      "ĠUnit": 8295,
      "Ġpatients": 8296,
      "Ġmedium": 8297,
      "Ġimprovements": 8298,
      "Ġtechnical": 8299,
      "ĠServices": 8300,
      "casting": 8301,
      "graphy": 8302,
      "Ġfiber": 8303,
      "Ġalgebraic": 8304,
      "Ġaxis": 8305,
      "Ġatmosphere": 8306,
      "Rem": 8307,
      "Ġign": 8308,
      "Ġburn": 8309,
      "Ġhun": 8310,
      "Ġhoney": 8311,
      "idae": 8312,
      "Ġmeat": 8313,
      "Ġarm": 8314,
      "eps": 8315,
      "acks": 8316,
      "Ġkept": 8317,
      "iana": 8318,
      "Ġà¤ħ": 8319,
      "Ġrelax": 8320,
      "Ġphiloso": 8321,
      "ĠEmily": 8322,
      "Ġbrackets": 8323,
      "Ġà¤ķà¤°": 8324,
      "Ġvehicle": 8325,
      "Ġdedicated": 8326,
      "Object": 8327,
      "Ġmitig": 8328,
      "300": 8329,
      "CH": 8330,
      "]`": 8331,
      "ker": 8332,
      "sa": 8333,
      "atre": 8334,
      "ora": 8335,
      "ĠCross": 8336,
      "ading": 8337,
      "ĠEns": 8338,
      "ighth": 8339,
      "à¤Ĺ": 8340,
      "Ġtrains": 8341,
      "Ġagric": 8342,
      "Ġvisits": 8343,
      "Ġsuggests": 8344,
      "Ġconvergence": 8345,
      "Ġlaws": 8346,
      "Ġnovels": 8347,
      "Ġreviews": 8348,
      "ĠSolving": 8349,
      "ĠHuman": 8350,
      "Ġsurprisingly": 8351,
      "37": 8352,
      "rb": 8353,
      "vate": 8354,
      "whel": 8355,
      "Ġcro": 8356,
      "arg": 8357,
      "ette": 8358,
      "ayout": 8359,
      "ĠFM": 8360,
      "ccer": 8361,
      "ĠLibrary": 8362,
      "ooleans": 8363,
      "Ġspect": 8364,
      "Ġdiet": 8365,
      "Ġ/>": 8366,
      "exp": 8367,
      "Ġsinger": 8368,
      "Ġartist": 8369,
      "ĠDisplay": 8370,
      "Ġcups": 8371,
      "ĠSunday": 8372,
      "Ġexercises": 8373,
      "mes": 8374,
      "mem": 8375,
      "site": 8376,
      "usband": 8377,
      "Ġforget": 8378,
      "unior": 8379,
      "utor": 8380,
      "Ġlon": 8381,
      "idential": 8382,
      "ĠLy": 8383,
      "Ġ$[": 8384,
      "Ġ38": 8385,
      "Ġmeal": 8386,
      "acific": 8387,
      "Ġscores": 8388,
      "Ġ{}": 8389,
      "Ġactress": 8390,
      "Ġ189": 8391,
      "Ġrouting": 8392,
      "Ġinstruction": 8393,
      "ĠAssembly": 8394,
      "Ġfractions": 8395,
      "Ġtranslate": 8396,
      "ĠMassachusetts": 8397,
      "Ġconsequences": 8398,
      "ĠMongoDB": 8399,
      "OV": 8400,
      "nic": 8401,
      "vari": 8402,
      "Ġhundred": 8403,
      "Ġgate": 8404,
      "ĠCirc": 8405,
      "Ġvan": 8406,
      "anda": 8407,
      "abling": 8408,
      "Ġlemon": 8409,
      "omega": 8410,
      "Ġkid": 8411,
      "Ġcontroll": 8412,
      "Ġjoint": 8413,
      "Ġsmile": 8414,
      "Ġraw": 8415,
      "Ġdecide": 8416,
      "Ġstret": 8417,
      "Ġengines": 8418,
      "ĠDivide": 8419,
      "Ġuncertain": 8420,
      "Ġdangerous": 8421,
      "transform": 8422,
      "LP": 8423,
      "gamma": 8424,
      "Ġtaste": 8425,
      "ena": 8426,
      "Ġbatter": 8427,
      "uses": 8428,
      "oma": 8429,
      "import": 8430,
      "Ġbyte": 8431,
      "Ġcomedy": 8432,
      "nders": 8433,
      "Ġunless": 8434,
      "Ġsimulations": 8435,
      "Ġtrave": 8436,
      "Ġsubclass": 8437,
      "ĠInstalling": 8438,
      "plicity": 8439,
      "ĠApply": 8440,
      "ĠOrgan": 8441,
      "ycles": 8442,
      "ĠCharlie": 8443,
      "Ġpanel": 8444,
      "Ġresidents": 8445,
      "ĠAnalyzing": 8446,
      "Ġtolerance": 8447,
      "49": 8448,
      "=$": 8449,
      "No": 8450,
      "pus": 8451,
      "pred": 8452,
      "}_": 8453,
      "}=\\\\": 8454,
      "Ġpig": 8455,
      "raction": 8456,
      "Ġconj": 8457,
      "odies": 8458,
      "cknow": 8459,
      "Ġ33": 8460,
      "oston": 8461,
      "Ġnotes": 8462,
      "Ġgreatest": 8463,
      "product": 8464,
      "Ġflight": 8465,
      "Ġengage": 8466,
      "ĠPlan": 8467,
      "Ġdrawn": 8468,
      "Ġ1976": 8469,
      "ĠOrig": 8470,
      "ĠEmpire": 8471,
      "ĠAmazon": 8472,
      "Ġobserved": 8473,
      "ĠVerify": 8474,
      "Ġcircuit": 8475,
      "Ġinformed": 8476,
      "Americ": 8477,
      "cause": 8478,
      "lies": 8479,
      "Ġacknow": 8480,
      "Ġtro": 8481,
      "redu": 8482,
      "ati": 8483,
      "Ġcub": 8484,
      "Ġbars": 8485,
      "Ġthick": 8486,
      "Ġreact": 8487,
      "Ġhearing": 8488,
      "ĠWales": 8489,
      "ĠHence": 8490,
      "Ġlegs": 8491,
      "ĠThree": 8492,
      "Ġmeets": 8493,
      "Ġsimulation": 8494,
      "Ġthemes": 8495,
      "Ġoverwhel": 8496,
      "....": 8497,
      "Ġentered": 8498,
      "Ġconfidence": 8499,
      "ĠSci": 8500,
      "Ġuniverse": 8501,
      "ĠWhy": 8502,
      "Ġgrows": 8503,
      "Ġlooked": 8504,
      "Ġtransformations": 8505,
      "Ġmovies": 8506,
      "ĠHenry": 8507,
      "Ġannotations": 8508,
      "250": 8509,
      "De": 8510,
      "Eng": 8511,
      "found": 8512,
      "oons": 8513,
      "ativity": 8514,
      "ola": 8515,
      "ĠBat": 8516,
      "ĠBlo": 8517,
      "aborn": 8518,
      "ĠOk": 8519,
      "Ġspr": 8520,
      "Ġfactory": 8521,
      "Ġcarefully": 8522,
      "Ġexplores": 8523,
      "Ġpossess": 8524,
      "annel": 8525,
      "ĠRedux": 8526,
      "Ġboundary": 8527,
      "ĠInternet": 8528,
      "Ġacquired": 8529,
      "Ġadvertising": 8530,
      "Do": 8531,
      "ented": 8532,
      "omething": 8533,
      "Ġconvey": 8534,
      "ĠWinter": 8535,
      "ĠEucl": 8536,
      "ĠDog": 8537,
      "tenance": 8538,
      "ĠConsequently": 8539,
      "types": 8540,
      "Ġsymmetric": 8541,
      "Ġrecording": 8542,
      "Ġswim": 8543,
      "Ġlegisl": 8544,
      "Ġsensitive": 8545,
      "Always": 8546,
      "models": 8547,
      "Ġbillion": 8548,
      "ĠCommunity": 8549,
      "Ġsenior": 8550,
      "ĠUpdate": 8551,
      "]);": 8552,
      "aware": 8553,
      "books": 8554,
      "core": 8555,
      "uit": 8556,
      "Ġtherapy": 8557,
      "Ġgro": 8558,
      "ĠCorpor": 8559,
      "Ġheav": 8560,
      "Ġgrav": 8561,
      "greet": 8562,
      "Ġsatisfies": 8563,
      "Ġaims": 8564,
      "Ġdescriptive": 8565,
      "Ġwestern": 8566,
      "nesota": 8567,
      "Ġsurrounded": 8568,
      "ĠRichard": 8569,
      "ĠJersey": 8570,
      "Studio": 8571,
      "Ġsatisfying": 8572,
      "Ġdiagram": 8573,
      "Ġanalytics": 8574,
      "ĠHigher": 8575,
      "Lovely": 8576,
      "Field": 8577,
      "gener": 8578,
      "Ġfailed": 8579,
      "Ġfreed": 8580,
      "Ġow": 8581,
      "Ġocean": 8582,
      "ĠTimes": 8583,
      "urday": 8584,
      "ĠSvelte": 8585,
      "ĠCase": 8586,
      "ĠMur": 8587,
      "Ġnearly": 8588,
      "ĠLook": 8589,
      "ĠBecause": 8590,
      "Ġvariance": 8591,
      "Ġcollisions": 8592,
      "Ġindexing": 8593,
      "Ġsentences": 8594,
      "Ġseparated": 8595,
      "Ġentirely": 8596,
      "Ġtranslates": 8597,
      "ĠNetworkX": 8598,
      "Ġpuzzle": 8599,
      "ĠEnergy": 8600,
      "Ġtone": 8601,
      "atus": 8602,
      "Ġrent": 8603,
      "\\\").": 8604,
      "tery": 8605,
      "ainer": 8606,
      "ĠLike": 8607,
      "ĠGive": 8608,
      "ester": 8609,
      "ttp": 8610,
      "Ġentertain": 8611,
      "Ġdelay": 8612,
      "Ġautomation": 8613,
      "Ġtransforming": 8614,
      "ossible": 8615,
      "Ġclicked": 8616,
      "holders": 8617,
      "Ġadventure": 8618,
      "Spe": 8619,
      "bell": 8620,
      "sk": 8621,
      "items": 8622,
      "ĠCat": 8623,
      "ĠWal": 8624,
      "ĠPet": 8625,
      "Ġorange": 8626,
      "ĠLar": 8627,
      "Ġrh": 8628,
      "idean": 8629,
      "Ġsched": 8630,
      "Ġsocket": 8631,
      "ĠChinese": 8632,
      "Ġsale": 8633,
      "Ġ95": 8634,
      "Ġessay": 8635,
      "ĠCommand": 8636,
      "traction": 8637,
      "Ġbaseball": 8638,
      "Ġaccordingly": 8639,
      "Ġshaping": 8640,
      "Ġcategorical": 8641,
      "ĠSingleton": 8642,
      "hab": 8643,
      "Ġcas": 8644,
      "Ġtomat": 8645,
      "ĠTensor": 8646,
      "omy": 8647,
      "ĠWomen": 8648,
      "ĠMind": 8649,
      "ĠRh": 8650,
      "Ġrig": 8651,
      "ĠJour": 8652,
      "Ġmeant": 8653,
      "ĠExec": 8654,
      "Ġkilled": 8655,
      "ĠProcess": 8656,
      "Ġpayment": 8657,
      "plyr": 8658,
      "Ġwinning": 8659,
      "Ġmixture": 8660,
      "ĠSwift": 8661,
      "Ġoccurred": 8662,
      "Ġcoroutine": 8663,
      "Ġincredibly": 8664,
      "Ġarbitrary": 8665,
      "elliJ": 8666,
      "WT": 8667,
      "gency": 8668,
      "pres": 8669,
      "only": 8670,
      "Ġsigns": 8671,
      "ĠAES": 8672,
      "url": 8673,
      "sea": 8674,
      "Ġcanvas": 8675,
      "enses": 8676,
      "Ġdishes": 8677,
      "Ġprotected": 8678,
      "ĠPlaces": 8679,
      "Ġfocusing": 8680,
      "Ġbalanced": 8681,
      "Ġpressing": 8682,
      "blesh": 8683,
      "Ġparticipants": 8684,
      "Ġtickets": 8685,
      "Ġbasketball": 8686,
      "emplate": 8687,
      "ĠMartin": 8688,
      "ĠLittle": 8689,
      "72": 8690,
      "Add": 8691,
      "CV": 8692,
      "Flow": 8693,
      "high": 8694,
      "such": 8695,
      "|\\\\": 8696,
      "aters": 8697,
      "Ġsq": 8698,
      "Ġpivot": 8699,
      "Ġmutable": 8700,
      "ĠTown": 8701,
      "Ġdelet": 8702,
      "ĠRSA": 8703,
      "ĠFROM": 8704,
      "ĠInside": 8705,
      "aped": 8706,
      "nection": 8707,
      "Ġlistened": 8708,
      "Ġintervals": 8709,
      "Ġpepper": 8710,
      "Ġamb": 8711,
      "Ġstanding": 8712,
      "Ġacting": 8713,
      "ĠSoft": 8714,
      "Ġoccasion": 8715,
      "Ġframeworks": 8716,
      "Ġmaintainable": 8717,
      "ĠMinnesota": 8718,
      "Ġvisitors": 8719,
      "ĠIII": 8720,
      "Ġstrengths": 8721,
      "Ġseemed": 8722,
      "Ġembedded": 8723,
      "Ġblend": 8724,
      "onymous": 8725,
      "False": 8726,
      "going": 8727,
      "mega": 8728,
      "reen": 8729,
      "ĠTour": 8730,
      "Ġstem": 8731,
      "ĠBir": 8732,
      "irts": 8733,
      "adium": 8734,
      "lowing": 8735,
      "Ġ3000": 8736,
      "Ġaccident": 8737,
      "Ġ\\\\*": 8738,
      "udd": 8739,
      "Ġspeech": 8740,
      "Ġboys": 8741,
      "Ġparish": 8742,
      "Ġended": 8743,
      "Ġmetal": 8744,
      "ĠStud": 8745,
      "Ġsurely": 8746,
      "Ġmajority": 8747,
      "spec": 8748,
      "Ġcoefficient": 8749,
      "Ġlaunched": 8750,
      "Ġdivisible": 8751,
      "ĠDeterm": 8752,
      "Ġillustrate": 8753,
      "Acc": 8754,
      "database": 8755,
      "oking": 8756,
      "pur": 8757,
      "volution": 8758,
      "Ġly": 8759,
      "Ġsin": 8760,
      "enger": 8761,
      "isons": 8762,
      "Ġdomin": 8763,
      "ushed": 8764,
      "Ġstone": 8765,
      "advantages": 8766,
      "andon": 8767,
      "ĠMot": 8768,
      "ĠMath": 8769,
      "ĠInformation": 8770,
      "click": 8771,
      "duction": 8772,
      "Example": 8773,
      "Ġ85": 8774,
      "Ġconscious": 8775,
      "price": 8776,
      "Ġdebugger": 8777,
      "orporated": 8778,
      "Ġhierarchical": 8779,
      "Ġurban": 8780,
      "Print": 8781,
      "Ġnewspaper": 8782,
      "ĠRESTful": 8783,
      "fruits": 8784,
      "npm": 8785,
      "Ġfirm": 8786,
      "Ġreaches": 8787,
      "ĠSud": 8788,
      "ĠRaj": 8789,
      "ĠDri": 8790,
      "aval": 8791,
      "ĠJones": 8792,
      "Ġplus": 8793,
      "ĠIntelliJ": 8794,
      "Ġoccup": 8795,
      "ĠColor": 8796,
      "ĠServer": 8797,
      "ĠPrim": 8798,
      "Ġexistence": 8799,
      "Ġanimation": 8800,
      "Ġobserv": 8801,
      "Ġclustering": 8802,
      "ĠHamilton": 8803,
      "ĠMissouri": 8804,
      "Ġsubstitute": 8805,
      "ĠGeorgia": 8806,
      "ĠMuseum": 8807,
      "Mat": 8808,
      "kdir": 8809,
      "}=": 8810,
      "Ġsac": 8811,
      "Ġfle": 8812,
      "Ġascending": 8813,
      "ĠBattle": 8814,
      "ĠPos": 8815,
      "ĠRStudio": 8816,
      "Ġneither": 8817,
      "Ġtea": 8818,
      "ighted": 8819,
      "Ġenabling": 8820,
      "Ġquarter": 8821,
      "ooper": 8822,
      "Ġspring": 8823,
      "Ġdisk": 8824,
      "Ġmultithread": 8825,
      "Ġemissions": 8826,
      "Ġaggreg": 8827,
      "Ġcalculus": 8828,
      "utex": 8829,
      "Ġsingles": 8830,
      "Ġbranches": 8831,
      "Ġcurious": 8832,
      "Ġhydro": 8833,
      "Animal": 8834,
      "Ġinherits": 8835,
      "Ġclaims": 8836,
      "ĠAND": 8837,
      "Describe": 8838,
      ")-": 8839,
      "EN": 8840,
      "One": 8841,
      "Ġcrow": 8842,
      "orange": 8843,
      "Ġfestival": 8844,
      "Ġpull": 8845,
      "ĠAvenue": 8846,
      "Ġdish": 8847,
      "etings": 8848,
      "ĠChat": 8849,
      "\\\"),": 8850,
      "());": 8851,
      "Ġsport": 8852,
      "Ġtruth": 8853,
      "psilon": 8854,
      "Ġattended": 8855,
      "()`:": 8856,
      "ĠTeam": 8857,
      "Ġmotor": 8858,
      "Numbers": 8859,
      "Ġresistance": 8860,
      "Ġguests": 8861,
      "elihood": 8862,
      "Ġrestaurant": 8863,
      "ĠMexico": 8864,
      "American": 8865,
      "150": 8866,
      "Get": 8867,
      "nel": 8868,
      "Ġthous": 8869,
      "ĠCivil": 8870,
      "Ġ240": 8871,
      "ĠDen": 8872,
      "ĠLambda": 8873,
      "ĠGro": 8874,
      "Ġunlike": 8875,
      "Ġ56": 8876,
      "Ġdisapp": 8877,
      "Ġprocessors": 8878,
      "Ġintermediate": 8879,
      "Ġseeking": 8880,
      "Ġtransition": 8881,
      "Ġminute": 8882,
      "Ġ185": 8883,
      "azz": 8884,
      "Ġ1983": 8885,
      "pectives": 8886,
      "ĠMinister": 8887,
      "Ġmeasuring": 8888,
      "haust": 8889,
      "Ġà¤¨à¤®": 8890,
      "Ġfighting": 8891,
      "ĠDeclare": 8892,
      "performance": 8893,
      "mo": 8894,
      "Ġvelo": 8895,
      "Ġ::": 8896,
      "insert": 8897,
      "athe": 8898,
      "Ġfr": 8899,
      "Ġdry": 8900,
      "ĠCy": 8901,
      "undle": 8902,
      "ĠPacific": 8903,
      "aine": 8904,
      "Ġorg": 8905,
      "Ġwealth": 8906,
      "ĠFre": 8907,
      "Ġ$(\\\\": 8908,
      "Ġ39": 8909,
      "aph": 8910,
      "Ġspeaking": 8911,
      "ĠStation": 8912,
      "Ġprev": 8913,
      "Ġprepare": 8914,
      "Ġcompletion": 8915,
      "iole": 8916,
      "Ġremark": 8917,
      "Ġcarry": 8918,
      "Ġcarried": 8919,
      "Ġdistribute": 8920,
      "ĠBokeh": 8921,
      "ĠBrother": 8922,
      "Ġbuying": 8923,
      "Ġhierarchy": 8924,
      "Ġsubsets": 8925,
      "ĠFoundation": 8926,
      "ĠBusiness": 8927,
      "05": 8928,
      "AD": 8929,
      "bing": 8930,
      "cy": 8931,
      "gent": 8932,
      "gments": 8933,
      "Ġfre": 8934,
      "ett": 8935,
      "ĠMu": 8936,
      "ĠMeta": 8937,
      "ĠJeff": 8938,
      "ĠJew": 8939,
      "akers": 8940,
      "ĠRequ": 8941,
      "ĠHead": 8942,
      "Ġtablesp": 8943,
      "Ġmole": 8944,
      "Ġpossibilities": 8945,
      "Ġ1982": 8946,
      "Ġcrime": 8947,
      "Ġcrick": 8948,
      "Ġlabeled": 8949,
      "Ġcircum": 8950,
      "Ġtracking": 8951,
      "Ġfacilities": 8952,
      "Ġjobs": 8953,
      "ĠJackson": 8954,
      "Ġcomprehension": 8955,
      "Ġconvinc": 8956,
      "ĠItaly": 8957,
      "ĠTechnology": 8958,
      "Ġphrase": 8959,
      "Click": 8960,
      "Rec": 8961,
      "eq": 8962,
      "git": 8963,
      "ipp": 8964,
      "link": 8965,
      "Ġfashion": 8966,
      "Ġdial": 8967,
      "Ġthr": 8968,
      "Ġforced": 8969,
      "ĠCould": 8970,
      "Ġvast": 8971,
      "Ġ250": 8972,
      "ĠRam": 8973,
      "ĠLanc": 8974,
      "Ġcompr": 8975,
      "Ġunex": 8976,
      "ipality": 8977,
      "lli": 8978,
      "ishop": 8979,
      "Ġrad": 8980,
      "Ġmodifying": 8981,
      "props": 8982,
      "ĠConvert": 8983,
      "ĠArts": 8984,
      "ĠGreetings": 8985,
      "Ġafford": 8986,
      "Ġrecommended": 8987,
      "ĠIncre": 8988,
      "archers": 8989,
      "Ġlikelihood": 8990,
      "Ġnotebook": 8991,
      ")^{": 8992,
      "Okay": 8993,
      "ji": 8994,
      "Ġtank": 8995,
      "itches": 8996,
      "ĠTowns": 8997,
      "entation": 8998,
      "ĠSaint": 8999,
      "ĠLily": 9000,
      "Ġshoes": 9001,
      "Ġ54": 9002,
      "Ġmanif": 9003,
      "Ġspending": 9004,
      "Ġflav": 9005,
      "ĠAuthor": 9006,
      "Ġderivatives": 9007,
      "ĠRepresents": 9008,
      "ĠModify": 9009,
      "Ġsituated": 9010,
      "Ġresearchers": 9011,
      "Ġbottlenecks": 9012,
      "AS": 9013,
      "TL": 9014,
      "cat": 9015,
      "doc": 9016,
      "rim": 9017,
      "erior": 9018,
      "Ġcats": 9019,
      "args": 9020,
      "ĠTem": 9021,
      "ĠInclude": 9022,
      "ĠRef": 9023,
      "Ġwriters": 9024,
      "Ġconversational": 9025,
      "Ġselectors": 9026,
      "Ġdebt": 9027,
      "ĠTelevision": 9028,
      "Ġprediction": 9029,
      "Ġperspectives": 9030,
      "ĠAutom": 9031,
      "Ġpromoting": 9032,
      "Ġsubsequent": 9033,
      "Ġcomplicated": 9034,
      "FM": 9035,
      "`)": 9036,
      "wa": 9037,
      "Ġtk": 9038,
      "inem": 9039,
      "Ġnone": 9040,
      "Ġeating": 9041,
      "Ġalle": 9042,
      "ĠWay": 9043,
      "Ġnecess": 9044,
      "Ġchicken": 9045,
      "Ġreports": 9046,
      "Ġediting": 9047,
      "Ġcoin": 9048,
      "Ġreadability": 9049,
      "mathrm": 9050,
      "shine": 9051,
      "Ġtries": 9052,
      "Ġlengths": 9053,
      "Ġfunding": 9054,
      "ĠBox": 9055,
      "plications": 9056,
      "Ġassignment": 9057,
      "Ġfoods": 9058,
      "ometimes": 9059,
      "nesday": 9060,
      "Ġbowl": 9061,
      "Ġschol": 9062,
      "=<<": 9063,
      "Sort": 9064,
      "cases": 9065,
      "ique": 9066,
      "Ġtape": 9067,
      "inent": 9068,
      "Ġpause": 9069,
      "ĠActor": 9070,
      "ĠTu": 9071,
      "ĠTry": 9072,
      "Ġnation": 9073,
      "Ġhal": 9074,
      "los": 9075,
      "ĠSong": 9076,
      "Ġlighter": 9077,
      "Ġcrew": 9078,
      "Ġbeans": 9079,
      "ĠPot": 9080,
      "ĠInher": 9081,
      "Ġrough": 9082,
      "ĠGar": 9083,
      "Ġcorpor": 9084,
      "Ġsoldi": 9085,
      "Ġ800": 9086,
      "Ġ72": 9087,
      "Ġmaybe": 9088,
      "ogle": 9089,
      "Ġmetric": 9090,
      "Ġtemp": 9091,
      "Ġprobabilities": 9092,
      "ĠFriday": 9093,
      "ĠSpeed": 9094,
      "ĠMedia": 9095,
      "Ġextraction": 9096,
      "Ġelectricity": 9097,
      "Student": 9098,
      "Ġoccurrences": 9099,
      "Tree": 9100,
      "]`.": 9101,
      "Ġ..": 9102,
      "Ķà¤°": 9103,
      "Ġtalent": 9104,
      "Ġcaching": 9105,
      "ĠTuesday": 9106,
      "icine": 9107,
      "ĠCI": 9108,
      "rier": 9109,
      "ĠMix": 9110,
      "outs": 9111,
      "ĠGir": 9112,
      "Ġate": 9113,
      "Ġundirected": 9114,
      "ĠKotlin": 9115,
[...]
