{
  "version": "1.0",
  "truncation": null,
  "padding": null,
  "added_tokens": [
    {
      "id": 0,
      "content": "<pad>",
      "single_word": false,
      "lstrip": false,
      "rstrip": false,
      "normalized": false,
      "special": true
    },
    {
      "id": 1,
      "content": "<s>",
      "single_word": false,
      "lstrip": false,
      "rstrip": false,
      "normalized": false,
      "special": true
    },
    {
      "id": 2,
      "content": "</s>",
      "single_word": false,
      "lstrip": false,
      "rstrip": false,
      "normalized": false,
      "special": true
    },
    {
      "id": 3,
      "content": "<unk>",
      "single_word": false,
      "lstrip": false,
      "rstrip": false,
      "normalized": false,
      "special": true
    },
    {
      "id": 4,
      "content": "<bos>",
      "single_word": false,
      "lstrip": false,
      "rstrip": false,
      "normalized": false,
      "special": true
    },
    {
      "id": 5,
      "content": "<eos>",
      "single_word": false,
      "lstrip": false,
      "rstrip": false,
      "normalized": false,
      "special": true
    },
    {
      "id": 6,
      "content": "<|system|>",
      "single_word": false,
      "lstrip": false,
      "rstrip": false,
      "normalized": false,
      "special": true
    },
    {
      "id": 7,
      "content": "<|user|>",
      "single_word": false,
      "lstrip": false,
      "rstrip": false,
      "normalized": false,
      "special": true
    },
    {
      "id": 8,
      "content": "<|assistant|>",
      "single_word": false,
      "lstrip": false,
      "rstrip": false,
      "normalized": false,
      "special": true
    },
    {
      "id": 9,
      "content": "<audio>",
      "single_word": false,
      "lstrip": false,
      "rstrip": false,
      "normalized": false,
      "special": true
    },
    {
      "id": 10,
      "content": "<image>",
      "single_word": false,
      "lstrip": false,
      "rstrip": false,
      "normalized": false,
      "special": true
    },
    {
      "id": 11,
      "content": "<video>",
      "single_word": false,
      "lstrip": false,
      "rstrip": false,
      "normalized": false,
      "special": true
    },
    {
      "id": 12,
      "content": "<tool_call>",
      "single_word": false,
      "lstrip": false,
      "rstrip": false,
      "normalized": false,
      "special": true
    },
    {
      "id": 13,
      "content": "<tool_result>",
      "single_word": false,
      "lstrip": false,
      "rstrip": false,
      "normalized": false,
      "special": true
    },
    {
      "id": 14,
      "content": "<thought>",
      "single_word": false,
      "lstrip": false,
      "rstrip": false,
      "normalized": false,
      "special": true
    },
    {
      "id": 15,
      "content": "</thought>",
      "single_word": false,
      "lstrip": false,
      "rstrip": false,
      "normalized": false,
      "special": true
    },
    {
      "id": 16,
      "content": "<code>",
      "single_word": false,
      "lstrip": false,
      "rstrip": false,
      "normalized": false,
      "special": true
    },
    {
      "id": 17,
      "content": "</code>",
      "single_word": false,
      "lstrip": false,
      "rstrip": false,
      "normalized": false,
      "special": true
    },
    {
      "id": 18,
      "content": "।",
      "single_word": false,
      "lstrip": false,
      "rstrip": false,
      "normalized": false,
      "special": true
    },
    {
      "id": 19,
      "content": "॥",
      "single_word": false,
      "lstrip": false,
      "rstrip": false,
      "normalized": false,
      "special": true
    },
    {
      "id": 20,
      "content": "ॐ",
      "single_word": false,
      "lstrip": false,
      "rstrip": false,
      "normalized": false,
      "special": true
    }
  ],
  "normalizer": null,
  "pre_tokenizer": {
    "type": "Sequence",
    "pretokenizers": [
      {
        "type": "Split",
        "pattern": {
          "Regex": "(?i:'s|'t|'re|'ve|'m|'ll|'d)|[^\\r\\n\\p{L}\\p{N}]?[\\p{L}\\p{M}]+|\\p{N}+|[^\\s\\p{L}\\p{N}\\p{M}]+|\\s+(?!\\S)|\\s+"
        },
        "behavior": "Isolated",
        "invert": false
      },
      {
        "type": "ByteLevel",
        "add_prefix_space": false,
        "trim_offsets": true,
        "use_regex": false
      }
    ]
  },
  "post_processor": null,
  "decoder": {
    "type": "ByteLevel",
    "add_prefix_space": true,
    "trim_offsets": true,
    "use_regex": true
  },
  "model": {
    "type": "BPE",
    "dropout": null,
    "unk_token": null,
    "continuing_subword_prefix": null,
    "end_of_word_suffix": null,
    "fuse_unk": false,
    "byte_fallback": false,
    "ignore_merges": false,
    "vocab": {
      "<pad>": 0,
      "<s>": 1,
      "</s>": 2,
      "<unk>": 3,
      "<bos>": 4,
      "<eos>": 5,
      "<|system|>": 6,
      "<|user|>": 7,
      "<|assistant|>": 8,
      "<audio>": 9,
      "<image>": 10,
      "<video>": 11,
      "<tool_call>": 12,
      "<tool_result>": 13,
      "<thought>": 14,
      "</thought>": 15,
      "<code>": 16,
      "</code>": 17,
      "।": 18,
      "॥": 19,
      "ॐ": 20,
      "!": 21,
      "\"": 22,
      "#": 23,
      "$": 24,
      "%": 25,
      "&": 26,
      "'": 27,
      "(": 28,
      ")": 29,
      "*": 30,
      "+": 31,
      ",": 32,
      "-": 33,
      ".": 34,
      "/": 35,
      "0": 36,
      "1": 37,
      "2": 38,
      "3": 39,
      "4": 40,
      "5": 41,
      "6": 42,
      "7": 43,
      "8": 44,
      "9": 45,
      ":": 46,
      ";": 47,
      "<": 48,
      "=": 49,
      ">": 50,
      "?": 51,
      "@": 52,
      "A": 53,
      "B": 54,
      "C": 55,
      "D": 56,
      "E": 57,
      "F": 58,
      "G": 59,
      "H": 60,
      "I": 61,
      "J": 62,
      "K": 63,
      "L": 64,
      "M": 65,
      "N": 66,
      "O": 67,
      "P": 68,
      "Q": 69,
      "R": 70,
      "S": 71,
      "T": 72,
      "U": 73,
      "V": 74,
      "W": 75,
      "X": 76,
      "Y": 77,
      "Z": 78,
      "[": 79,
      "\\": 80,
      "]": 81,
      "^": 82,
      "_": 83,
      "`": 84,
      "a": 85,
      "b": 86,
      "c": 87,
      "d": 88,
      "e": 89,
      "f": 90,
      "g": 91,
      "h": 92,
      "i": 93,
      "j": 94,
      "k": 95,
      "l": 96,
      "m": 97,
      "n": 98,
      "o": 99,
      "p": 100,
      "q": 101,
      "r": 102,
      "s": 103,
      "t": 104,
      "u": 105,
      "v": 106,
      "w": 107,
      "x": 108,
      "y": 109,
      "z": 110,
      "{": 111,
      "|": 112,
      "}": 113,
      "~": 114,
      "¡": 115,
      "¢": 116,
      "£": 117,
      "¤": 118,
      "¥": 119,
      "¦": 120,
      "§": 121,
      "¨": 122,
      "©": 123,
      "ª": 124,
      "«": 125,
      "¬": 126,
      "®": 127,
      "¯": 128,
      "°": 129,
      "±": 130,
      "²": 131,
      "³": 132,
      "´": 133,
      "µ": 134,
      "¶": 135,
      "·": 136,
      "¸": 137,
      "¹": 138,
      "º": 139,
      "»": 140,
      "¼": 141,
      "½": 142,
      "¾": 143,
      "¿": 144,
      "À": 145,
      "Á": 146,
      "Â": 147,
      "Ã": 148,
      "Ä": 149,
      "Å": 150,
      "Æ": 151,
      "Ç": 152,
      "È": 153,
      "É": 154,
      "Ê": 155,
      "Ë": 156,
      "Ì": 157,
      "Í": 158,
      "Î": 159,
      "Ï": 160,
      "Ð": 161,
      "Ñ": 162,
      "Ò": 163,
      "Ó": 164,
      "Ô": 165,
      "Õ": 166,
      "Ö": 167,
      "×": 168,
      "Ø": 169,
      "Ù": 170,
      "Ú": 171,
      "Û": 172,
      "Ü": 173,
      "Ý": 174,
      "Þ": 175,
      "ß": 176,
      "à": 177,
      "á": 178,
      "â": 179,
      "ã": 180,
      "ä": 181,
      "å": 182,
      "æ": 183,
      "ç": 184,
      "è": 185,
      "é": 186,
      "ê": 187,
      "ë": 188,
      "ì": 189,
      "í": 190,
      "î": 191,
      "ï": 192,
      "ð": 193,
      "ñ": 194,
      "ò": 195,
      "ó": 196,
      "ô": 197,
      "õ": 198,
      "ö": 199,
      "÷": 200,
      "ø": 201,
      "ù": 202,
      "ú": 203,
      "û": 204,
      "ü": 205,
      "ý": 206,
      "þ": 207,
      "ÿ": 208,
      "Ā": 209,
      "ā": 210,
      "Ă": 211,
      "ă": 212,
      "Ą": 213,
      "ą": 214,
      "Ć": 215,
      "ć": 216,
      "Ĉ": 217,
      "ĉ": 218,
      "Ċ": 219,
      "ċ": 220,
      "Č": 221,
      "č": 222,
      "Ď": 223,
      "ď": 224,
      "Đ": 225,
      "đ": 226,
      "Ē": 227,
      "ē": 228,
      "Ĕ": 229,
      "ĕ": 230,
      "Ė": 231,
      "ė": 232,
      "Ę": 233,
      "ę": 234,
      "Ě": 235,
      "ě": 236,
      "Ĝ": 237,
      "ĝ": 238,
      "Ğ": 239,
      "ğ": 240,
      "Ġ": 241,
      "ġ": 242,
      "Ģ": 243,
      "ģ": 244,
      "Ĥ": 245,
      "ĥ": 246,
      "Ħ": 247,
      "ħ": 248,
      "Ĩ": 249,
      "ĩ": 250,
      "Ī": 251,
      "ī": 252,
      "Ĭ": 253,
      "ĭ": 254,
      "Į": 255,
      "į": 256,
      "İ": 257,
      "ı": 258,
      "Ĳ": 259,
      "ĳ": 260,
      "Ĵ": 261,
      "ĵ": 262,
      "Ķ": 263,
      "ķ": 264,
      "ĸ": 265,
      "Ĺ": 266,
      "ĺ": 267,
      "Ļ": 268,
      "ļ": 269,
      "Ľ": 270,
      "ľ": 271,
      "Ŀ": 272,
      "ŀ": 273,
      "Ł": 274,
      "ł": 275,
      "Ń": 276,
      "à¤": 277,
      "Ġà¤": 278,
      "à¥": 279,
      "à¤¾": 280,
      "à¥ĩ": 281,
      "à¤°": 282,
      "à¥į": 283,
      "à¤¿": 284,
      "Ġà¤ķ": 285,
      "à¥įà¤": 286,
      "à¤¾à¤": 287,
      "à¤¿à¤": 288,
      "à¤Ĥ": 289,
      "à¥Ģ": 290,
      "à¥ĭ": 291,
      "à¤¨": 292,
      "à¤ķ": 293,
      "Ġà¤¸": 294,
      "à¤¤": 295,
      "Ġà¤¹": 296,
      "čĊ": 297,
      "à¥Ī": 298,
      "Ġà¤®": 299,
      "Ġà¤ª": 300,
      "à¤¸": 301,
      "à¥įà¤°": 302,
      "à¤²": 303,
      "Ġà¤ķà¥ĩ": 304,
      "Ġà¤¹à¥Ī": 305,
      "à¥ĩà¤Ĥ": 306,
      "à¥ģ": 307,
      "à¤®": 308,
      "à¤¹": 309,
      "à¥¤": 310,
      "à¤ª": 311,
      "à¤¾à¤°": 312,
      "Ġà¤ľ": 313,
      "Ġà¤µ": 314,
      "à¤Ĺ": 315,
      "à¥įà¤¯": 316,
      "Ġà¤¬": 317,
      "Ġà¤®à¥ĩà¤Ĥ": 318,
      "Ġà¤ħ": 319,
      "à¥Ĥ": 320,
      "à¥ĭà¤Ĥ": 321,
      "Ġà¤²": 322,
      "à¤µ": 323,
      "à¤¾à¤¨": 324,
      "à¤¦": 325,
      "à¤°à¥įà¤": 326,
      "Ġà¤¨": 327,
      "à¤¯": 328,
      "Ġà¤¦": 329,
      "à¤¿à¤ķ": 330,
      "Ġà¤ī": 331,
      "Ġà¤ı": 332,
      "Ġà¤Ķ": 333,
      "à¤¿à¤¯": 334,
      "Ġà¤Ķà¤°": 335,
      "Ġà¤ķà¤°": 336,
      "à¥ĩà¤": 337,
      "Ġà¤°": 338,
      "Ġà¤ķà¥ĭ": 339,
      "Ġà¤Ĩ": 340,
      "à¤¨à¥ĩ": 341,
      "Ġà¤ķà¥Ģ": 342,
      "Ġà¤ªà¥įà¤°": 343,
      "Ġà¤¸à¥ĩ": 344,
      "à¤¬": 345,
      "à¤¿à¤¤": 346,
      "à¤¡": 347,
      "à¥įà¤¤": 348,
      "à¤Ł": 349,
      "Ġà¤¤": 350,
      "Ġà¤Ĺ": 351,
      "Ġà¤ķà¤¾": 352,
      "Ġà¤ıà¤ķ": 353,
      "à¤¼": 354,
      "Ġà¤¯": 355,
      "à¤¤à¤¾": 356,
      "Ġà¤¹à¥Īà¤Ĥ": 357,
      "à¤ľ": 358,
      "à¤ļ": 359,
      "Ġà¤ĩ": 360,
      "à¤¿à¤ı": 361,
      "à¤¾à¤²": 362,
      "ĠĠ": 363,
      "à¤£": 364,
      "à¤§": 365,
      "Ġà¤Ń": 366,
      "à¤¾à¤¤": 367,
      "à¥ģà¤": 368,
      "Ġà¤¶": 369,
      "an": 370,
      "Ġà¤ªà¤°": 371,
      "à¥įà¤µ": 372,
      "Ġà¤¹à¥ĭ": 373,
      "à¥įà¤Ł": 374,
      "er": 375,
      "Ġà¤¸à¤Ĥ": 376,
      "Ġt": 377,
      "à¤¾à¤®": 378,
      "Ġà¤µà¤¿à¤": 379,
      "Ġà¤ļ": 380,
      "à¤¶": 381,
      "Ġà¤²à¤¿à¤ı": 382,
      "à¤¿à¤¯à¤¾": 383,
      "à¤¤à¥ĩ": 384,
      "<|": 385,
      "|>": 386,
      "à¤¿à¤²": 387,
      "à¤¨à¤¾": 388,
      "à¥įà¤·": 389,
      "à¤Ń": 390,
      "à¥ĭà¤Ĺ": 391,
      "st": 392,
      "Ġà¤ĩà¤¸": 393,
      "in": 394,
      "à¤¿à¤¸": 395,
      "Ġà¤¸à¤®": 396,
      "à¤¾à¤¯": 397,
      "à¤¿à¤¨": 398,
      "à¤¾à¤¸": 399,
      "Ġà¤¥": 400,
      "à¤¾à¤Ĥ": 401,
      "à¥ī": 402,
      "Ġà¤¸à¤ķ": 403,
      "Ġà¤«": 404,
      "à¤¾à¤¦": 405,
      "à¤¡à¤¼": 406,
      "à¤¾à¤µ": 407,
      "as": 408,
      "à¤ı": 409,
      "à¤ķà¥ĩ": 410,
      "à¤¨à¥įà¤": 411,
      "à¤¾à¤¹": 412,
      "à¤¸à¥ĩ": 413,
      "à¤¾à¤ĩ": 414,
      "Ġà¤ķà¤¿": 415,
      "à¥ĥ": 416,
      "à¤°à¥Ģ": 417,
      "à¥Į": 418,
      "à¤¤à¥Ģ": 419,
      "à¥įà¤¥": 420,
      "Ġà¤ľà¥ĭ": 421,
      "Ġth": 422,
      "at": 423,
      "si": 424,
      "Ġà¤ĸ": 425,
      "Ġà¤īà¤ª": 426,
      "us": 427,
      "Ġà¤¡": 428,
      "Ġà¤¯à¤¹": 429,
      "on": 430,
      "à¤¹à¥Ģ": 431,
      "Ġà¤ķà¤°à¤¨à¥ĩ": 432,
      "à¥įà¤¸": 433,
      "Ġà¤ħà¤ª": 434,
      "à¤¾à¤ľ": 435,
      "à¥ĩà¤¶": 436,
      "à¤ķà¥įà¤·": 437,
      "à¤Ī": 438,
      "Ġà¤Ĩà¤ª": 439,
      "à¥įà¤ª": 440,
      "à¥įà¤ķ": 441,
      "Ġà¤¨à¥ĩ": 442,
      "à¤¨à¥Ģ": 443,
      "à¥įà¤®": 444,
      "à¥įà¤²": 445,
      "re": 446,
      "ant": 447,
      "Ġà¤ħà¤¨": 448,
      "à¤ĸ": 449,
      "Ġà¤Ńà¥Ģ": 450,
      "Ġà¤ķà¤¿à¤¯à¤¾": 451,
      "à¤¿à¤Ĥ": 452,
      "en": 453,
      "user": 454,
      "Ġà¤Ł": 455,
      "assi": 456,
      "à¥ĩà¤Ł": 457,
      "stant": 458,
      "assistant": 459,
      "à¤«": 460,
      "Ġà¤¸à¤¾à¤": 461,
      "à¥Ĥà¤ª": 462,
      "à¥ģà¤°": 463,
      "à¤¯à¥ĭà¤Ĺ": 464,
      "à¤ķà¤¾à¤°": 465,
      "ĠĠĠĠ": 466,
      "à¤¤à¥įà¤°": 467,
      "or": 468,
      "Ġà¤ľà¤¾à¤¤": 469,
      "à¤¾à¤ª": 470,
      "Ġa": 471,
      "à¤ĥ": 472,
      "Ġc": 473,
      "Ġthe": 474,
      "à¥įà¤¯à¤¾": 475,
      "à¤¯à¤¾": 476,
      "Ġà¤īà¤¤": 477,
      "à¤¹à¥Ģà¤Ĥ": 478,
      "Ġà¤ħà¤§": 479,
      "à¤°à¤£": 480,
      "à¥ĩà¤ķ": 481,
      "à¤¿à¤®": 482,
      "à¥įà¤¨": 483,
      "à¤¾à¤ķ": 484,
      "ĠčĊ": 485,
      "Ġà¤°à¥Ĥà¤ª": 486,
      "Ġà¤¨à¤¹à¥Ģà¤Ĥ": 487,
      "à¤¿à¤¯à¥ĭà¤Ĥ": 488,
      "Ġà¤¥à¤¾": 489,
      "à¤¾à¤ģ": 490,
      "ĵà¤Ĥ": 491,
      "Ġà¤¸à¤¾à¤¥": 492,
      "Ġà¤ķà¤¾à¤°": 493,
      "Ġà¤¹à¥ģà¤": 494,
      "Ġà¤īà¤ªà¤¯à¥ĭà¤Ĺ": 495,
      "Ġà¤ªà¤¹": 496,
      "à¤¾à¤¨à¥ĩ": 497,
      "à¥ĩà¤²": 498,
      "à¤¾à¤ı": 499,
      "Ġà¤¬à¤¾à¤°": 500,
      "à¤¿à¤°": 501,
      "Ġà¤¯à¤¾": 502,
      "à¤²à¥ĩ": 503,
      "à¤¥": 504,
      "al": 505,
      "à¤ķà¥įà¤¤": 506,
      "Ġà¤°à¤¹": 507,
      "à¤¿à¤µ": 508,
      "à¤¾à¤ĵà¤Ĥ": 509,
      "à¤¾à¤Ī": 510,
      "à¥ĩà¤ĸ": 511,
      "à¤Ĥà¤Ĺ": 512,
      "Ġs": 513,
      "Ġà¤īà¤¨": 514,
      "Ġà¤Ĺà¤¯à¤¾": 515,
      "à¤¿à¤¶": 516,
      "Ġà¤µà¤¾à¤²": 517,
      "it": 518,
      "à¥įà¤°à¥Ģ": 519,
      "es": 520,
      "Ġà¤¸à¥įà¤¥": 521,
      "à¤ķà¥Ģ": 522,
      "Ġan": 523,
      "ing": 524,
      "Ġà¤¸à¤ķà¤¤à¥ĩ": 525,
      "à¥įà¤¤à¤°": 526,
      "à¤¨à¥įà¤¹": 527,
      "à¥įà¤§": 528,
      "Ġà¤ħà¤§à¤¿à¤ķ": 529,
      "à¤¾à¤Ĺ": 530,
      "à¤¿à¤ĸ": 531,
      "·à¥įà¤Ł": 532,
      "à¥įà¤ļ": 533,
      "Ġà¤µà¤¿à¤¶": 534,
      "Ġp": 535,
      "Ġà¤¹à¤®": 536,
      "à¥ģà¤²": 537,
      "à¥ĥà¤¤": 538,
      "à¤¿à¤Ĥà¤Ĺ": 539,
      "Ġà¤¬à¤¨": 540,
      "à¤Ĥà¤¦": 541,
      "à¤Ĥà¤¡": 542,
      "à¤ķà¤¾": 543,
      "Ġà¤ľà¤¾à¤¤à¤¾": 544,
      "Ġo": 545,
      "à¥įà¤¡": 546,
      "Ġà¤µà¥įà¤¯": 547,
      "is": 548,
      "Ġà¤ľà¤¿à¤¸": 549,
      "Ġto": 550,
      "à¥Ĥà¤°à¥įà¤": 551,
      "Ġà¤ªà¥įà¤°à¤¤": 552,
      "--": 553,
      "à¤²à¥Ģ": 554,
      "Ġf": 555,
      "le": 556,
      "Ġà¤Ľ": 557,
      "Ġà¤ħà¤ªà¤¨à¥ĩ": 558,
      "ar": 559,
      "Ġà¤§": 560,
      "à¥Ģà¤¨": 561,
      "20": 562,
      "à¤¾à¤°à¤¾": 563,
      "Ġà¤®à¤¹": 564,
      "à¤¸à¥Ģ": 565,
      "à¤¸à¥įà¤¤": 566,
      "à¤ĩ": 567,
      "à¥ģà¤¨": 568,
      "à¤¢": 569,
      "Ġà¤ĺ": 570,
      "Ġà¤¦à¥ĩ": 571,
      "à¤Ĥà¤¤": 572,
      "Ġà¤¤à¤ķ": 573,
      "Ġà¤¦à¥įà¤µ": 574,
      "19": 575,
      "Ġà¤¬à¤¾à¤°à¥ĩ": 576,
      "Ġw": 577,
      "à¤°à¥įà¤®": 578,
      "à¥įà¤¦": 579,
      "à¥ĩà¤°": 580,
      "à¥ĭà¤ľ": 581,
      "Ġà¤ķà¤¹": 582,
      "Ġà¤ķà¤°à¥ĩà¤Ĥ": 583,
      "Ġà¤īà¤¸": 584,
      "à¥ģà¤¦": 585,
      "Ġand": 586,
      "Ġà¤°à¤¾à¤ľ": 587,
      "à¥Ĥà¤°": 588,
      "à¤Ĥà¤§": 589,
      "Ġà¤µà¤°à¥įà¤": 590,
      "Ġà¤īà¤¨à¥įà¤¹": 591,
      "Ġà¤ķà¤®": 592,
      "Ġà¤¸à¤ķà¤¤à¤¾": 593,
      "à¤¾à¤°à¥Ģ": 594,
      "à¤¾à¤§": 595,
      "à¤ħ": 596,
      "à¤Ĩ": 597,
      "à¥Ĥà¤²": 598,
      "à¤¾à¤¨à¥Ģ": 599,
      "à¤¢à¤¼": 600,
      "à¤¾à¤¬": 601,
      "à¤Ńà¥Ģ": 602,
      "Ġin": 603,
      "à¤ķà¥ĭ": 604,
      "ed": 605,
      "ion": 606,
      "ou": 607,
      "Ġà¤ªà¥įà¤°à¤¦": 608,
      "à¥Īà¤¸à¥ĩ": 609,
      "Ġà¤ķà¤°à¤¤à¥ĩ": 610,
      "Ġà¤²à¤Ĺ": 611,
      "Ġd": 612,
      "à¥ĩà¤ľ": 613,
      "Ġà¤¸à¥įà¤µ": 614,
      "Ġà¤¸à¥Ģ": 615,
      "Ġà¤ħà¤¨à¥ģ": 616,
      "Ġà¤ľà¤¾à¤¨": 617,
      "Ġà¤¦à¥ĭ": 618,
      "Ġà¤¤à¥ĭ": 619,
      "à¥ĭà¤Ł": 620,
      "à¥ģà¤¤": 621,
      "Ġb": 622,
      "ic": 623,
      "Ġà¤ķà¥ģà¤": 624,
      "à¤®à¥ĩà¤Ĥ": 625,
      "Ġm": 626,
      "Ġà¤¦à¥įà¤µà¤¾à¤°à¤¾": 627,
      "Ġà¤µà¤¹": 628,
      "Ġà¤¬à¥Ģ": 629,
      "à¥Ģà¤µ": 630,
      "Ġof": 631,
      "Ġà¤ķà¤°à¤¤à¤¾": 632,
      "à¥Īà¤Ĥ": 633,
      "ent": 634,
      "à¤Ĺà¤¾": 635,
      "à¤ķà¥įà¤°": 636,
      "Ġà¤ķà¥įà¤·": 637,
      "Ġà¤¨à¤¿": 638,
      "Ġà¤¹à¥Ģ": 639,
      "à¥ĩà¤·": 640,
      "Ġà¤ķà¥ģà¤Ľ": 641,
      "Ġà¤¹à¥ĭà¤¤à¤¾": 642,
      "à¥įà¤ŀ": 643,
      "à¤²à¤¾": 644,
      "à¥ĩà¤¸": 645,
      "Ġà¤¬à¤¤": 646,
      "à¤·": 647,
      "Ġà¤ļà¤¾à¤¹": 648,
      "à¤¿à¤ª": 649,
      "à¤ģ": 650,
      "Ġà¤¸à¤¹": 651,
      "à¤¾à¤¯à¤¾": 652,
      "ĠĠĠ": 653,
      "Ġà¤²à¥ĭà¤Ĺ": 654,
      "à¥ĭà¤²": 655,
      "à¤ķà¤¿": 656,
      "Ġà¤¦à¥ĩà¤ĸ": 657,
      "Ġà¤īà¤¤à¥įà¤¤à¤°": 658,
      "Ġà¤¸à¤¬": 659,
      "à¥įà¤¯à¥Ĥ": 660,
      "Ġà¤ķà¤°à¤¨à¤¾": 661,
      "Ġà¤ħà¤²": 662,
      "Ġà¤¹à¥ģà¤ı": 663,
      "Ġà¤µà¥ĩ": 664,
      "à¤ł": 665,
      "Ġà¤¬à¤¾à¤¦": 666,
      "Ġà¤¬à¤¹": 667,
      "Ġà¤¥à¥ĩ": 668,
      "à¤ªà¥įà¤°": 669,
      "Ġà¤²à¥ĩà¤ķ": 670,
      "à¤¿à¤ľ": 671,
      "ro": 672,
      "Ġà¤µà¤¿à¤ķ": 673,
      "à¥ĩà¤¨": 674,
      "ct": 675,
      "à¥ĭà¤°": 676,
      "Ġà¤ľà¤¬": 677,
      "à¥įà¤¯à¥ĭà¤Ĥ": 678,
      "à¤¿à¤Ł": 679,
      "Ġà¤µà¤¾à¤²à¥ĩ": 680,
      "Ġà¤¥à¥Ģ": 681,
      "à¤°à¥įà¤¤": 682,
      "à¥ģà¤ĸ": 683,
      "Ġà¤¸à¤¾à¤®": 684,
      "00": 685,
      "Ġà¤ķà¥įà¤¯à¤¾": 686,
      "à¤Ńà¤¾à¤µ": 687,
      "à¤ī": 688,
      "Ġà¤Ĩà¤µ": 689,
      "à¤¤à¤¿": 690,
      "à¥Įà¤°": 691,
      "à¤¸à¥įà¤¥": 692,
      "Ġà¤¸à¤®à¤¯": 693,
      "Ġh": 694,
      "Ġà¤ľà¤¾": 695,
      "à¤ķà¥ĭà¤Ĥ": 696,
      "ate": 697,
      "Ġà¤®à¤¾à¤¨": 698,
      "à¤¿à¤¦": 699,
      "à¤¨à¥ĭà¤Ĥ": 700,
      "à¤¾à¤¶": 701,
      "Ġà¤Ĩà¤§": 702,
      "à¥ĩà¤¤à¥įà¤°": 703,
      "Ġà¤ħà¤Ĥà¤¤": 704,
      "Ġà¤Ńà¤¾à¤°": 705,
      "à¤¾à¤£": 706,
      "Ġà¤ķà¤¿à¤¸": 707,
      "Ġà¤¦à¤¿à¤¯à¤¾": 708,
      "à¥Ģà¤¯": 709,
      "Ġà¤īà¤¦": 710,
      "Ġà¤°à¤ĸ": 711,
      "Ġà¤Ĺà¤ı": 712,
      "à¤£à¥įà¤¡": 713,
      "à¥ĩà¤¡": 714,
      "Ġà¤®à¤¿à¤²": 715,
      "à¤ļà¥įà¤ļ": 716,
      "Ġà¤²à¥ĩà¤ķà¤¿à¤¨": 717,
      "Ġà¤ĳ": 718,
      "à¤¾à¤ĸ": 719,
      "Ġe": 720,
      "Ġà¤¶à¤¾à¤®": 721,
      "à¤¸à¤°": 722,
      "à¤¿à¤ķà¤¾": 723,
      "Ġà¤ķà¥įà¤·à¥ĩà¤¤à¥įà¤°": 724,
      "à¤¶à¥įà¤¯": 725,
      "th": 726,
      "Ġà¤ªà¤¹à¤²à¥ĩ": 727,
      "Ġà¤īà¤¤à¥įà¤ª": 728,
      "âĢ": 729,
      "Ġà¤ĩà¤¨": 730,
      "Ġà¤¸à¤¬à¤¸à¥ĩ": 731,
      "à¤¹à¤°": 732,
      "à¤®à¤¾à¤¨": 733,
      "à¤Ĥà¤¬": 734,
      "à¤¸à¥įà¤ķ": 735,
      "Ġà¤ķà¤¾à¤°à¥įà¤¯": 736,
      "à¤¾à¤¤à¥įà¤°": 737,
      "à¤Ĥà¤¤à¥įà¤°": 738,
      "om": 739,
      "à¤Ĥà¤Ł": 740,
      "à¥Ĥà¤°à¥įà¤£": 741,
      "Ġà¤¶à¤¾à¤®à¤¿à¤²": 742,
      "Ġà¤¤à¤°": 743,
      "Ġà¤¨à¤¾à¤®": 744,
      "à¤Ĺà¥Ģ": 745,
      "à¤¬à¤Ĥà¤§": 746,
      "Ġà¤ħà¤ªà¤¨à¥Ģ": 747,
      "à¥įà¤¬": 748,
      "Ġà¤ĵ": 749,
      "à¥ĭà¤Ĥà¤¨à¥ĩ": 750,
      "Ġre": 751,
      "Ġn": 752,
      "Ġà¤¸à¤°": 753,
      "Ġà¤¹à¥ĭà¤¤à¥Ģ": 754,
      "Ġà¤¸à¥Ĥ": 755,
      "ĠA": 756,
      "Ġà¤ħà¤¨à¥įà¤¯": 757,
      "à¤¤à¥įà¤µ": 758,
      "Ġà¤Ĳ": 759,
      "à¤°à¥įà¤¶": 760,
      "à¤°à¥įà¤Ń": 761,
      "ve": 762,
      "à¤¸à¥įà¤Ł": 763,
      "à¤ªà¤°": 764,
      "Ġà¤¸à¥ģ": 765,
      "à¤°à¥įà¤¥": 766,
      "Ġà¤īà¤¨à¥įà¤¹à¥ĩà¤Ĥ": 767,
      "à¤ķà¤°": 768,
      "Ġà¤Ĺà¥įà¤°": 769,
      "à¥Īà¤¨": 770,
      "Ġà¤ļà¤¾à¤¹à¤¿à¤ı": 771,
      "Ġà¤µà¤¿à¤Ń": 772,
      "et": 773,
      "Ġà¤¬à¤¹à¥ģà¤¤": 774,
      "Ġà¤¸à¥įà¤Ł": 775,
      "Ġà¤¹à¥ĭà¤¨à¥ĩ": 776,
      "à¤¾à¤ªà¥įà¤¤": 777,
      "Ġà¤ªà¥Ģ": 778,
      "à¥įà¤Ľ": 779,
      "à¥§": 780,
      "Ġà¤²à¥ĩ": 781,
      "Ġà¤ĩà¤¸à¤ķà¥ĩ": 782,
      "ch": 783,
      "à¥įà¤ŀà¤¾à¤¨": 784,
      "à¤¾à¤·à¥įà¤Ł": 785,
      "Ġà¤īà¤¨à¤ķà¥ĩ": 786,
      "Ġl": 787,
      "à¤Ĺà¥ĩ": 788,
      "à¤°à¥įà¤ľ": 789,
      "Ġà¤ľà¥Īà¤¸à¥ĩ": 790,
      "à¥Īà¤ķ": 791,
      "Ġà¤ķà¤¹à¤¾": 792,
      "à¥Ģà¤ķ": 793,
      "Ġà¤ħà¤®": 794,
      "à¤¿à¤·": 795,
      "à¤¿à¤¹": 796,
      "Ġà¤ķà¥ĭà¤¡": 797,
      "à¥īà¤²": 798,
      "am": 799,
      "à¥ĭà¤ķ": 800,
      "à¤¾à¤·": 801,
      "à¥ģà¤ķ": 802,
      "à¤¿à¤§": 803,
      "à¤ķà¤¾à¤°à¥Ģ": 804,
      "à¤°à¥įà¤Ł": 805,
      "à¤¦à¤¿": 806,
      "à¤°à¥įà¤ķ": 807,
      "Ġà¤ľà¥Ģà¤µ": 808,
      "à¤¶à¥įà¤¯à¤ķ": 809,
      "Ġà¤ķà¥įà¤°": 810,
      "Ġà¤Ĺà¤Ī": 811,
      "à¥ĩà¤¬": 812,
      "im": 813,
      "à¤¸à¤®": 814,
      "à¤¿à¤ķà¥įà¤·": 815,
      "à¤ļà¥įà¤Ľ": 816,
      "à¤¾à¤¯à¤ķ": 817,
      "à¤Ĺà¥įà¤°": 818,
      "Ġà¤²à¤¿à¤ĸ": 819,
      "Ġà¤ķà¤Ī": 820,
      "il": 821,
      "à¤¸à¤¾": 822,
      "à¤¿à¤®à¥įà¤¨": 823,
      "à¥ĭà¤§": 824,
      "Ġà¤¬à¤¢à¤¼": 825,
      "Ġà¤Ĩà¤µà¤¶à¥įà¤¯à¤ķ": 826,
      "Ġà¤°à¤¹à¥ĩ": 827,
      "Ġà¤ķà¤¾à¤®": 828,
      "Ġà¤ķà¤¿à¤¸à¥Ģ": 829,
      "à¤¾à¤²à¤¯": 830,
      "à¤¾à¤¡": 831,
      "Ġà¤Ĭ": 832,
      "à¤ľà¤¨": 833,
      "à¤¾à¤¤à¤¾": 834,
      "à¤¿à¤Ĺ": 835,
      "----": 836,
      "à¤¾à¤ĩà¤ı": 837,
      "Ġà¤ħà¤µ": 838,
      "à¤¤à¤°": 839,
      "Ġà¤¨à¤¿à¤°à¥įà¤": 840,
      "à¥¦": 841,
      "Ġà¤¸à¤Ńà¥Ģ": 842,
      "em": 843,
      "Ġà¤¹à¥ĭà¤¤à¥ĩ": 844,
      "Ġà¤¬à¤¤à¤¾à¤ĩà¤ı": 845,
      "à¤µà¤¾": 846,
      "ol": 847,
      "à¤¾à¤¨à¤¾": 848,
      "à¤ĩà¤¸": 849,
      "Ġà¤°à¤¾à¤ľà¥įà¤¯": 850,
      "à¤¾à¤ıà¤Ĥ": 851,
      "Ġà¤¤à¤°à¤¹": 852,
      "ation": 853,
      "à¤¿à¤¯à¤¾à¤ģ": 854,
      "Ġà¤¹à¥ģà¤Ĩ": 855,
      "di": 856,
      "ĠH": 857,
      "Ġà¤ªà¥įà¤°à¤Ńà¤¾à¤µ": 858,
      "à¤¾à¤ĩà¤Ł": 859,
      "à¥Ģà¤²": 860,
      "à¤¡à¤¼à¥ĩ": 861,
      "à¥ģà¤Ł": 862,
      "Ġà¤Ĩà¤ªà¤ķà¥ĭ": 863,
      "à¥ĭà¤¨": 864,
      "à¤Ĥà¤ª": 865,
      "à¤¾à¤¤à¥įà¤®": 866,
      "Ġà¤µà¥įà¤¯à¤ķà¥įà¤¤": 867,
      "Ġà¤¸à¥įà¤¥à¤¿à¤¤": 868,
      "Ġà¤¡à¥ĩà¤Ł": 869,
      "Ġà¤¶à¥ģà¤°": 870,
      "Ġà¤¦à¥Ĥ": 871,
      "à¤¿à¤£": 872,
      "à¤Ŀ": 873,
      "el": 874,
      "à¤°à¥įà¤·": 875,
      "Ġà¤µà¤¿à¤¶à¥ĩà¤·": 876,
      "à¤¿à¤ĸà¤¿à¤¤": 877,
      "Ġà¤°à¤¹à¤¾": 878,
      "Ġà¤¸à¥įà¤ķ": 879,
      "ĠĠĠĠĠĠĠĠ": 880,
      "Ġà¤ªà¥įà¤°à¤¶": 881,
      "à¥ĩà¤¦": 882,
      "à¤ķà¥įà¤·à¤¾": 883,
      "Ġà¤Ńà¤¾à¤°à¤¤": 884,
      "à¤²à¤¿à¤ĸà¤¿à¤¤": 885,
      "à¥Ĥà¤°à¥įà¤µ": 886,
      "ĠS": 887,
      "ĠP": 888,
      "à¤·à¥įà¤Ł": 889,
      "à¤Ĥà¤ļ": 890,
      "à¤¿à¤®à¥įà¤¨à¤²à¤¿à¤ĸà¤¿à¤¤": 891,
      "Ġà¤īà¤¨à¥įà¤¹à¥ĭà¤Ĥà¤¨à¥ĩ": 892,
      "Ġà¤®à¤¾à¤°": 893,
      "à¤¸à¥įà¤¯à¤¾": 894,
      "à¤¾à¤ī": 895,
      "Ġà¤²à¥ĭà¤Ĺà¥ĭà¤Ĥ": 896,
      "à¤¾à¤Ł": 897,
      "à¥ģà¤¦à¥įà¤§": 898,
      "à¥ĭà¤®": 899,
      "à¤¨à¥įà¤¦": 900,
      "à¤¾à¤¸à¥įà¤¤": 901,
      "Ġà¤ĩà¤¸à¥ĩ": 902,
      "à¤ľà¤¼": 903,
      "ce": 904,
      "à¥ģà¤®": 905,
      "Ġà¤¸à¤Ĥà¤¬à¤Ĥà¤§": 906,
      "à¤¾à¤ĩà¤¨": 907,
      "à¤¾à¤¤à¥įà¤®à¤ķ": 908,
      "Ġà¤ķà¤¾à¤°à¤£": 909,
      "Ġà¤Ī": 910,
      "Ġà¤«à¤¼": 911,
      "à¥ĩà¤®": 912,
      "Ġà¤ķà¥ĭà¤Ī": 913,
      "Ġà¤ķà¥Ī": 914,
      "Ġà¤®à¤¦": 915,
      "à¤¡à¤¼à¤¾": 916,
      "à¤ļà¥Ģ": 917,
      "ur": 918,
      "ut": 919,
      "à¤¤à¥įà¤¤": 920,
      "ĠC": 921,
      "à¤ªà¥Ĥà¤°à¥įà¤£": 922,
      "Ġà¤µà¤°à¥įà¤·": 923,
      "Ġà¤¬à¥įà¤°": 924,
      "à¤¬à¥įà¤¦": 925,
      "ran": 926,
      "10": 927,
      "Ġà¤®à¥Īà¤Ĥ": 928,
      "à¤¿à¤²à¥įà¤®": 929,
      "à¥ģà¤ķà¥įà¤¤": 930,
      "à¤¾à¤«": 931,
      "à¤¡à¤¼à¥Ģ": 932,
      "à¤Ľ": 933,
      "à¤¾à¤²à¥Ģ": 934,
      "à¤Ĺà¤°": 935,
      "Ġà¤®à¥Ĥà¤²": 936,
      "Ġà¤ªà¥įà¤°à¤¦à¤¾à¤¨": 937,
      "à¤ıà¤ķ": 938,
      "à¥Ĥà¤®": 939,
      "Ġà¤¹à¥ĭà¤Ĺà¤¾": 940,
      "à¥Ĥà¤¨": 941,
      "Ġà¤ľà¤¿à¤¨": 942,
      "à¤²à¥įà¤ª": 943,
      "à¤ĺ": 944,
      "Ġà¤µà¤¿à¤¶à¥įà¤µ": 945,
      "à¤Łà¤°": 946,
      "Ġà¤ªà¤°à¤¿à¤µ": 947,
      "à¥įà¤°à¥Ģà¤¯": 948,
      "Th": 949,
      "à¥ĭà¤ª": 950,
      "Ġà¤ªà¤¾à¤°": 951,
      "Ġà¤ķà¤°à¤ķà¥ĩ": 952,
      "Ġà¤īà¤¤à¥įà¤ªà¤¾à¤¦": 953,
      "à¤¾à¤ıà¤ģ": 954,
      "Ġà¤¸à¥įà¤¥à¤¾à¤¨": 955,
      "à¤°à¥įà¤¨": 956,
      "à¤°à¥įà¤¡": 957,
      "Ġà¤®à¤¦à¤¦": 958,
      "Ġà¤Ĩà¤°": 959,
      "à¥Ģà¤°": 960,
      "à¤¾à¤ļ": 961,
      "à¤¸à¤¾à¤°": 962,
      "..": 963,
      "Ġà¤ªà¥ģà¤°": 964,
      "Ġà¤®à¤¹à¤¤à¥įà¤µ": 965,
      "à¤ķà¥įà¤·à¤£": 966,
      "à¤¿à¤¨à¥įà¤¨": 967,
      "Ġà¤¬à¥Ģà¤ļ": 968,
      "à¤¾à¤¥": 969,
      "à¤°à¥įà¤µ": 970,
      "Ġà¤ħà¤Ń": 971,
      "Ġg": 972,
      "id": 973,
      "Ġà¤¶à¤¬à¥įà¤¦": 974,
      "à¤Ĥà¤ľ": 975,
      "à¤¥à¤¾": 976,
      "Ġà¤Ĺà¥ģ": 977,
      "à¤¦à¥Ģ": 978,
      "à¤¨à¥įà¤¨": 979,
      "à¤¯à¤¨": 980,
      "Ġfor": 981,
      "Ġst": 982,
      "Ġà¤ķà¥įà¤¯à¥ĭà¤Ĥ": 983,
      "Ġà¤Łà¥Ģ": 984,
      "ra": 985,
      "Ġà¤ªà¤¾à¤¸": 986,
      "à¤ķà¥įà¤°à¤®": 987,
      "um": 988,
      "Ġis": 989,
      "à¤¾à¤°à¥ĭà¤Ĥ": 990,
      "à¤¿à¤¯à¤®": 991,
      "à¤¾à¤µà¤¾": 992,
      "Ġà¤ıà¤¸": 993,
      "ul": 994,
      "à¥ģà¤Ŀ": 995,
      "à¤ķà¥įà¤¸": 996,
      "à¤¿à¤ķà¥Ģ": 997,
      "Ġà¤¸à¤®à¤Ŀ": 998,
      "à¤¾à¤ĸà¤£à¥įà¤¡": 999,
      "Ġà¤ªà¥Ī": 1000,
      "200": 1001,
      "Ġthis": 1002,
      "Ġà¤ľà¤¾à¤¨à¥ĩ": 1003,
      "Ġà¤Ńà¤¾à¤·": 1004,
      "Ġà¤¸à¤°à¤ķà¤¾à¤°": 1005,
      "Ġà¤ľà¤¾à¤¨à¤ķà¤¾à¤°à¥Ģ": 1006,
      "Ġà¤¡à¥ĩà¤Łà¤¾": 1007,
      "Ġà¤Ĩà¤§à¤¾à¤°": 1008,
      "à¥§à¥": 1009,
      "Ġà¤ħà¤®à¥ĩà¤°": 1010,
      "ĠI": 1011,
      "Ġà¤ıà¤²": 1012,
      "Ġà¤ľà¤¿à¤¸à¤®à¥ĩà¤Ĥ": 1013,
      "à¥įà¤ł": 1014,
      "18": 1015,
      "Ġà¤¨à¤¿à¤ķ": 1016,
      "Ġà¤¸à¤¹à¤¾à¤¯à¤ķ": 1017,
      "Ġà¤ľà¤²": 1018,
      "à¤µà¤²": 1019,
      "Ġà¤«à¤¿à¤°": 1020,
      "Ġà¤ªà¥įà¤°à¤¾à¤ªà¥įà¤¤": 1021,
      "Ġà¤ªà¥įà¤°à¤ķà¤¾à¤°": 1022,
      "Ġà¤¨à¥Ģ": 1023,
      "Ġà¤¸à¤Ĥà¤ĸ": 1024,
      "Ġà¤¸à¥įà¤ª": 1025,
      "Ġà¤°à¤¾à¤·à¥įà¤Ł": 1026,
      "à¤µà¥Ģ": 1027,
      "ow": 1028,
      "Ġà¤īà¤¸à¥ĩ": 1029,
      "à¤¨à¥įà¤®": 1030,
      "Ġà¤µà¤¾à¤²à¥Ģ": 1031,
      "à¤¦à¥įà¤§": 1032,
      "if": 1033,
      "Ġà¤ľà¤¨": 1034,
      "à¥ĥà¤·": 1035,
      "à¤°à¥įà¤¸": 1036,
      "à¥ĩà¤¶à¤¨": 1037,
      "ge": 1038,
      "à¥įà¤¯à¤®": 1039,
      "à¤Ĥà¤ķ": 1040,
      "Ġà¤µà¤¿à¤ľ": 1041,
      "Ġà¤¸à¤ķà¤¤à¥Ģ": 1042,
      "Ġà¤¬à¤¾à¤¤": 1043,
      "à¤µà¤Ĥ": 1044,
      "\",": 1045,
      "à¤¿à¤²à¤¾": 1046,
      "Ġà¤¬à¤ļà¥įà¤ļ": 1047,
      "Ġà¤ķà¤°à¤¤à¥Ģ": 1048,
      "Ġà¤µà¤¿à¤¸": 1049,
      "Ġà¤®à¥ģà¤ĸ": 1050,
      "à¤µà¤°": 1051,
      "à¤¾à¤¹à¤°à¤£": 1052,
      "Ġà¤ªà¥Ĥà¤°à¥įà¤µ": 1053,
      "Ġà¤ħà¤ļà¥įà¤Ľ": 1054,
      "Ġà¤ħà¤§à¥įà¤¯": 1055,
      "un": 1056,
      "à¥įà¤¯à¤¾à¤¨": 1057,
      "Ġà¤¦à¤¿à¤¨": 1058,
      "Ġà¤¦à¥Įà¤°": 1059,
      "Ġà¤®à¥Į": 1060,
      "Ġà¤īà¤¨à¤ķà¥Ģ": 1061,
      "à¤¾à¤°à¥ĩ": 1062,
      "à¥Īà¤Ĥà¤¡": 1063,
      "Ġà¤¦à¥ĩà¤¶": 1064,
      "Ġà¤¶à¥įà¤°": 1065,
      "à¤¿à¤²à¥ĩ": 1066,
      "à¤°à¥įà¤Ĺ": 1067,
      "Ġà¤ļà¤²": 1068,
      "Ġà¤®à¤¹à¤¤à¥įà¤µà¤ªà¥Ĥà¤°à¥įà¤£": 1069,
      "Ġà¤ľà¥Ģ": 1070,
      "201": 1071,
      "Ġà¤¤à¤¹": 1072,
      "Ġà¤¹à¤¾à¤²": 1073,
      "Ġà¤Ĩà¤¯": 1074,
      "à¤¿à¤¤à¥įà¤°": 1075,
      "Ġà¤Łà¥įà¤°": 1076,
      "à¥ĩà¤Ĥà¤Ł": 1077,
      "Ġà¤¦à¥Ģ": 1078,
      "à¤¾à¤¦à¥Ģ": 1079,
      "Ġà¤ķà¤¿à¤ı": 1080,
      "Ġà¤¬à¤¦": 1081,
      "Ġà¤¹à¤°": 1082,
      "Ġà¤¸à¥ĭ": 1083,
      "Ġà¤ķà¥Īà¤¸à¥ĩ": 1084,
      "Ġà¤µà¤¿à¤µ": 1085,
      "ers": 1086,
      "Ġà¤ľà¤¾à¤¤à¥Ģ": 1087,
      "à¤¿à¤¤à¤¾": 1088,
      "Ġà¤ľà¥Ģà¤µà¤¨": 1089,
      "rans": 1090,
      "Ġbe": 1091,
      "à¥įà¤¹": 1092,
      "Ġà¤®à¥Ī": 1093,
      "à¤ļà¤¾à¤°": 1094,
      "Ġà¤ķà¤Ĥà¤ª": 1095,
      "à¤ķà¤°à¥įà¤¤": 1096,
      "Ġy": 1097,
      "Ġà¤īà¤¤à¥įà¤¤à¤°à¤¾à¤ĸà¤£à¥įà¤¡": 1098,
      "à¤¸à¥įà¤¯": 1099,
      "à¥įà¤Łà¤°": 1100,
      "à¥ĭà¤Ĺà¥įà¤°": 1101,
      "à¤¾à¤¡à¤¼": 1102,
      "od": 1103,
      "à¤²à¤¬": 1104,
      "Ġà¤ªà¥įà¤°à¤ķ": 1105,
      "ri": 1106,
      "à¥¨": 1107,
      "Ġà¤¶à¥ģà¤°à¥Ĥ": 1108,
      "à¥ĩà¤¹": 1109,
      "à¤¾à¤Ĥà¤¤": 1110,
      "à¥įà¤ľ": 1111,
      "Ġà¤ľà¤¹": 1112,
      "Ġà¤ħà¤²à¤Ĺ": 1113,
      "Ġà¤µà¤¿à¤Ńà¤¿à¤¨à¥įà¤¨": 1114,
      "Ġà¤¯à¤¦à¤¿": 1115,
      "à¤¤à¥Ģà¤¯": 1116,
      "à¤¿à¤ķà¤¾à¤°": 1117,
      "),": 1118,
      "à¥Īà¤²": 1119,
      "à¥įà¤Ĺ": 1120,
      "Ġà¤ĩà¤¤": 1121,
      "à¥įà¤¶": 1122,
      "Ġà¤¶à¤¿à¤ķà¥įà¤·": 1123,
      "à¤¿à¤¡": 1124,
      "Âł": 1125,
      "Ġà¤¡à¥Ģ": 1126,
      "à¤¾à¤¤à¥ĩ": 1127,
      "Ġà¤ħà¤¸": 1128,
      "Ġà¤Ľà¥ĭà¤Ł": 1129,
      "à¥ĭà¤ľà¤¨": 1130,
      "Ġà¤ķà¥įà¤¯à¥ĭà¤Ĥà¤ķà¤¿": 1131,
      "Ġà¤Ĩà¤ªà¤ķà¥ĩ": 1132,
      "``": 1133,
      "Ġà¤¹à¥ģà¤Ī": 1134,
      "ab": 1135,
      "ot": 1136,
      "Ġà¤ľà¤¾à¤ı": 1137,
      "à¥Ĥà¤¹": 1138,
      "à¥ĩà¤¯": 1139,
      "Ġpro": 1140,
      "Ġà¤īà¤¦à¤¾à¤¹à¤°à¤£": 1141,
      "à¥īà¤¨": 1142,
      "Ġà¤ªà¥įà¤°à¤®": 1143,
      "Ġà¤ĸà¥ĩà¤²": 1144,
      "ith": 1145,
      "Ġà¤ªà¥ĭ": 1146,
      "Ġà¤ķà¥ĩà¤µà¤²": 1147,
      "à¤¾à¤Ĥà¤¶": 1148,
      "Ġà¤ªà¥Ĥ": 1149,
      "Ġà¤ħà¤Ĥà¤¤à¤°": 1150,
      "Ġà¤²à¥ĩà¤ĸ": 1151,
      "à¤¾à¤Ĥà¤ļ": 1152,
      "à¤Ĩà¤ª": 1153,
      "Ġà¤¤à¤¥à¤¾": 1154,
      "Ġà¤¬à¤¨à¤¾à¤¨à¥ĩ": 1155,
      "à¤¿à¤¹à¤¾à¤¸": 1156,
      "ir": 1157,
      "Ġà¤īà¤¸à¤ķà¥ĩ": 1158,
      "Trans": 1159,
      "à¤Ńà¤Ĺ": 1160,
      "ad": 1161,
      "Ġà¤Ńà¤¾à¤Ĺ": 1162,
      "à¤¾à¤§à¤¾à¤¨": 1163,
      "Ġà¤¸à¤®à¤¸à¥įà¤¯à¤¾": 1164,
      "Ġà¤¨à¤¿à¤°à¥įà¤®": 1165,
      "Ġà¤«à¤¿à¤²à¥įà¤®": 1166,
      "à¤Łà¤¨": 1167,
      "à¤µà¤¾à¤²": 1168,
      "à¥Ģà¤¡": 1169,
      "Ġà¤¸à¤¾à¤²": 1170,
      "Ġà¤Ĩà¤µà¤¶à¥įà¤¯à¤ķà¤¤à¤¾": 1171,
      "Ġà¤ļà¥ģà¤¨": 1172,
      "Ġà¤¹à¥Ĥ": 1173,
      "à¤¯à¤¹": 1174,
      "Transl": 1175,
      "à¥ĭà¤¤": 1176,
      "Ġà¤Ĩà¤®": 1177,
      "indi": 1178,
      "Ġà¤¸à¤Ĥà¤¦": 1179,
      "Ġà¤®à¥ģà¤ĸà¥įà¤¯": 1180,
      "Ġà¤µà¥įà¤¯à¤µ": 1181,
      "à¤Ĥà¤ĸ": 1182,
      "à¤Ĥà¤¦à¥įà¤°": 1183,
      "Ġà¤ĩà¤¸à¤ķà¤¾": 1184,
      "ĠHindi": 1185,
      "Ġà¤ĺà¤°": 1186,
      "à¤®à¤¾": 1187,
      "Ġà¤¸à¥ģà¤°": 1188,
      "Ġà¤ħà¤¬": 1189,
      "à¤²à¤¿à¤ı": 1190,
      "à¤¿à¤¸à¥įà¤Ł": 1191,
      "Ġà¤µà¤¿à¤¸à¥įà¤¤": 1192,
      "à¤¿à¤¯à¤¨": 1193,
      "ist": 1194,
      "Ġthat": 1195,
      "Ġà¤ıà¤µà¤Ĥ": 1196,
      "à¤¦à¤¾à¤°": 1197,
      "The": 1198,
      "à¤¿à¤¥": 1199,
      "-à¤ª": 1200,
      "Ġà¤µà¥Ī": 1201,
      "Translate": 1202,
      "Ġà¤µà¤¾à¤ķ": 1203,
      "Ġà¤µà¤¿à¤§": 1204,
      "ver": 1205,
      "à¤µà¤¿à¤ķ": 1206,
      "Ġà¤ªà¥įà¤°à¤¦à¥ĩà¤¶": 1207,
      "Ġà¤¸à¤Ĥà¤ĸà¥įà¤¯à¤¾": 1208,
      "ĠM": 1209,
      "à¤®à¥Ģ": 1210,
      "Ġà¤¸à¤®à¤¾à¤§à¤¾à¤¨": 1211,
      "qu": 1212,
      "Ġà¤¦à¥Įà¤°à¤¾à¤¨": 1213,
      "ly": 1214,
      "Ġà¤²à¤Ĺà¤Ńà¤Ĺ": 1215,
      "Ġà¤ľà¥Ī": 1216,
      "à¥ĭà¤Ĺà¥įà¤°à¤¾à¤®": 1217,
      "Ġà¤µà¤¿à¤ķà¤¾à¤¸": 1218,
      "à¤§à¤¾à¤°": 1219,
      "Ġon": 1220,
      "à¤¬à¥Ģ": 1221,
      "Ġà¤ªà¤¤à¤¾": 1222,
      "Ġà¤ªà¥ģ": 1223,
      "Ġà¤®à¤¨": 1224,
      "Ġà¤ªà¥įà¤°à¤¤à¥įà¤¯": 1225,
      "à¤Ĥà¤¬à¤°": 1226,
      "à¤°à¥įà¤¦": 1227,
      "Ġà¤¤à¤°à¥Ģ": 1228,
      "-à¤¸": 1229,
      "à¤¹à¤¾à¤°": 1230,
      "Ġà¤¶à¤¹à¤°": 1231,
      "à¤¾à¤ĩà¤²": 1232,
      "Ġà¤Ĩà¤Ī": 1233,
      "Ġà¤ªà¥Ĥà¤°": 1234,
      "à¤¦à¤¾": 1235,
      "Ġà¤¦à¥ĭà¤¨à¥ĭà¤Ĥ": 1236,
      "Ġà¤ħà¤¤": 1237,
      "Ġà¤µà¤¿à¤¦": 1238,
      "Ġà¤¦à¤¿à¤ĸ": 1239,
      "à¤¯à¥ģà¤ķà¥įà¤¤": 1240,
      "Ġà¤¨à¤¿à¤®à¥įà¤¨à¤²à¤¿à¤ĸà¤¿à¤¤": 1241,
      "Ġà¤µà¤¿à¤¨": 1242,
      "Ġà¤¸à¤Ĥà¤Ń": 1243,
      "Ġà¤¸à¥Ĥà¤ļà¥Ģ": 1244,
      "Ġà¤ħà¤¨à¥ģà¤¸à¤¾à¤°": 1245,
      "à¤°à¥įà¤ļ": 1246,
      "ay": 1247,
      "Ġà¤ªà¤°à¥įà¤¯": 1248,
      "à¥īà¤ķ": 1249,
      "à¥ĭà¤¸": 1250,
      "Ġà¤ĵà¤°": 1251,
      "Ġà¤§à¥įà¤¯à¤¾à¤¨": 1252,
      "Ġà¤°à¤¹à¥Ģ": 1253,
      "à¤¿à¤¬": 1254,
      "Ġà¤Ńà¤¾à¤·à¤¾": 1255,
      "à¥ģà¤Ĩ": 1256,
      "ig": 1257,
      "Ġà¤µà¤¾à¤¸à¥įà¤¤": 1258,
      "à¤¾à¤Ĥà¤Ĺ": 1259,
      "Ġà¤¦à¥Ĥà¤¸à¤°": 1260,
      "Ġcan": 1261,
      "Ġà¤¤à¥Ģà¤¨": 1262,
      "à¤¾à¤¹à¤°à¥Ģ": 1263,
      "à¥įà¤Łà¥Ģ": 1264,
      "Ġà¤ľà¤¾à¤¨à¤¾": 1265,
      "Ġà¤²à¤¿à¤ĸà¥ĩà¤Ĥ": 1266,
      "Ġà¤µà¥įà¤¯à¤ķà¥įà¤¤à¤¿": 1267,
      "Ġà¤¬à¤¦à¤²": 1268,
      "à¤¿à¤Ń": 1269,
      "Ġà¤ľà¤¾à¤¤à¥ĩ": 1270,
      "à¤¾à¤Ĥà¤¸": 1271,
      "à¤®à¥įà¤°": 1272,
      "à¤¤à¤¾à¤ĵà¤Ĥ": 1273,
      "à¥ĭà¤¡": 1274,
      "Ġà¤µà¤¿à¤ļ": 1275,
      "à¥įà¤¦à¥Ģ": 1276,
      "-à¤ħ": 1277,
      "Ġv": 1278,
      "Ġà¤¤à¥Ī": 1279,
      "à¤¾à¤¤à¥įà¤°à¤¾": 1280,
      "Ġà¤¸à¤Ĥà¤°": 1281,
      "Ġà¤ªà¥įà¤°à¥ĭà¤Ĺà¥įà¤°à¤¾à¤®": 1282,
      "Ġyou": 1283,
      "Ġà¤®à¤¾à¤§": 1284,
      "à¤¸à¥Ģà¤²": 1285,
      "ĠĠĠĠĠĠĠ": 1286,
      "à¥ģà¤¶": 1287,
      "Ġà¤ªà¥įà¤°à¤¶à¥įà¤¨": 1288,
      "à¤ļà¥ĩ": 1289,
      "à¤¿à¤¦à¥įà¤§": 1290,
      "à¥įà¤¸à¤¾": 1291,
      "se": 1292,
      "à¥ģà¤Ŀà¥ĩ": 1293,
      "à¤¿à¤ļ": 1294,
      "à¤¿à¤·à¥įà¤Ł": 1295,
      "à¥ģà¤·": 1296,
      "Ġà¤¦à¥ĥ": 1297,
      "Ġà¤ł": 1298,
      "Ġà¤¤à¤¹à¤¸à¥Ģà¤²": 1299,
      "Ġcon": 1300,
      "Ġà¤Ĩà¤¸": 1301,
      "Ġà¤ķà¥įà¤²": 1302,
      "Ġà¤¦à¥ĩà¤¨à¥ĩ": 1303,
      "à¤¿à¤¯à¥ĭ": 1304,
      "à¥ģà¤Ń": 1305,
      "à¤¿à¤¯à¤°": 1306,
      "Ġà¤ıà¤®": 1307,
      "Ġà¤ĩà¤¸à¤²à¤¿à¤ı": 1308,
      "Ġà¤ľà¤¿à¤¸à¥ĩ": 1309,
      "à¤ķà¤°à¤£": 1310,
      "Ġà¤µà¤¾à¤ķà¥įà¤¯": 1311,
      "Ġà¤ĸà¤¿à¤²": 1312,
      "à¤²à¥ĭà¤Ĥ": 1313,
      "Ġà¤Ĺà¤£": 1314,
      "Ġà¤ķà¥Į": 1315,
      "à¥¤\"": 1316,
      "à¥ĩà¤·à¤£": 1317,
      "yst": 1318,
      "à¤¿à¤¶à¥įà¤ļ": 1319,
      "Ġà¤¸à¤®à¥ģà¤¦": 1320,
      "à¤¶à¥įà¤ļ": 1321,
      "Ġà¤µà¥ĩà¤¬": 1322,
      "Ġà¤Ŀ": 1323,
      "Ġà¤¸à¤®à¥Ĥà¤¹": 1324,
      "Ġà¤¸à¤«": 1325,
      "à¤µà¤¾à¤¦": 1326,
      "Ġà¤ĸà¥ĭà¤ľ": 1327,
      "Ġà¤¯à¥ĩ": 1328,
      "à¥įà¤µà¥Ģ": 1329,
      "à¤¾à¤Ń": 1330,
      "Ġal": 1331,
      "à¤īà¤¤": 1332,
      "Ġà¤®à¤¾à¤§à¥įà¤¯à¤®": 1333,
      "à¥įà¤¯à¤¾à¤²à¤¯": 1334,
      "à¥ĭà¤¡à¤¼": 1335,
      "à¤¾à¤ł": 1336,
      "Ġà¤¬à¤ļ": 1337,
      "Ġà¤¸à¤¦": 1338,
      "Ġà¤ħà¤²à¤¾à¤µà¤¾": 1339,
      "Ġà¤¢": 1340,
      "à¤¾à¤¨à¥įà¤¯": 1341,
      "Ġus": 1342,
      "Ġà¤ªà¥įà¤°à¤®à¥ģà¤ĸ": 1343,
      "ystem": 1344,
      "Ġà¤µà¤¿à¤·": 1345,
      "Ġà¤¦à¥ĩà¤ĸà¥ĩà¤Ĥ": 1346,
      "Ġà¤¦à¤ķà¥įà¤·": 1347,
      "à¤¿à¤£à¤¾à¤®": 1348,
      "Ġà¤¹à¤¿à¤¸": 1349,
      "à¤¨à¥įà¤¦à¤°à¥įà¤Ń": 1350,
      "à¤ªà¥ģà¤°": 1351,
      "ter": 1352,
      "Ġà¤ªà¥įà¤°à¤¦à¤°à¥įà¤¶": 1353,
      "à¤¿à¤¶à¥įà¤ļà¤¿à¤¤": 1354,
      "à¤¾à¤¸à¥įà¤¥": 1355,
      "Ġà¤ľà¤¿à¤²à¥ĩ": 1356,
      "à¤¡à¥Ģ": 1357,
      "res": 1358,
      "Ġà¤Ńà¥Ĥà¤®": 1359,
      "à¤¬à¤°": 1360,
      "Ġà¤ªà¥įà¤°à¤ķà¤¾à¤¶": 1361,
      "Ġà¤¤à¤¾à¤ķ": 1362,
      "à¥įà¤¶à¤¨": 1363,
      "Ġà¤®à¤§": 1364,
      "à¤¿à¤«": 1365,
      "Ġà¤¯à¥ĭà¤Ĺ": 1366,
      "yth": 1367,
      "Ġà¤¸à¤Ĥà¤¬à¤Ĥà¤§à¤¿à¤¤": 1368,
      "ect": 1369,
      "Ġà¤¸à¥ģà¤¨": 1370,
      "Ġà¤ħà¤°à¥įà¤¥": 1371,
      "Ġà¤īà¤ļà¥įà¤ļ": 1372,
      "à¤µà¤¾à¤¬": 1373,
      "Ġà¤Ĩà¤¦": 1374,
      "Ġà¤¤à¥Īà¤¯": 1375,
      "Ġà¤¦à¥ĩà¤Ĥ": 1376,
      "à¤¸à¤¨à¥įà¤¦à¤°à¥įà¤Ń": 1377,
      "Ġà¤¦à¥ĩà¤¤à¤¾": 1378,
      "à¥įà¤¯à¥ĭà¤Ĺ": 1379,
      "Ġit": 1380,
      "Ġà¤Ńà¤°": 1381,
      "à¤¤à¤¿à¤ķ": 1382,
      "ord": 1383,
      "ess": 1384,
      "-à¤ľ": 1385,
      "lo": 1386,
      "Ġà¤¨à¤¿à¤¯": 1387,
      "à¤¾à¤¸à¥įà¤¥à¥įà¤¯": 1388,
      "Ġas": 1389,
      "Ġà¤ªà¥įà¤°à¤¤à¥įà¤¯à¥ĩà¤ķ": 1390,
      "Ġde": 1391,
      "Ġà¤ıà¤¨": 1392,
      "Ġà¤«à¥įà¤°": 1393,
      "à¤ªà¥Ģ": 1394,
      "ython": 1395,
      "Ġà¤¤à¥ģà¤²": 1396,
      "âĢį": 1397,
      "à¤°à¤¿à¤ķ": 1398,
      "Ġà¤ħà¤§à¥įà¤¯à¤¯à¤¨": 1399,
      "à¥ĭà¤ľà¤¨à¤¾": 1400,
      "à¤ļà¤¨à¤¾": 1401,
      "Ġà¤¦à¤¿à¤ı": 1402,
      "à¤®à¥įà¤®": 1403,
      "Ġà¤¬à¤¨à¤¾": 1404,
      "Ġà¤ľà¤¼": 1405,
      "à¤Ńà¤¾": 1406,
      "Ġwith": 1407,
      "Ġà¤®à¥ģ": 1408,
      "15": 1409,
      "ment": 1410,
      "à¤µà¤¿à¤¦": 1411,
      "Ġà¤¸à¤Ĥà¤Ńà¤µ": 1412,
      "à¤«à¤¼": 1413,
      "Ġà¤¯à¥Ĥ": 1414,
      "à¤²à¥įà¤²": 1415,
      "Ġà¤ªà¤°à¤¿à¤£à¤¾à¤®": 1416,
      "à¤¾à¤Ĥà¤ķ": 1417,
      "Ġà¤Ľà¤¾à¤¤à¥įà¤°": 1418,
      "ort": 1419,
      "à¤µà¤¾à¤°": 1420,
      "à¤¬à¤¾à¤¹à¤°à¥Ģ": 1421,
      "Ġà¤µà¤¿à¤¶à¥įà¤²": 1422,
      "ak": 1423,
      "à¥ĭà¤¹": 1424,
      "ĠR": 1425,
      "Ġà¤ļà¤¾à¤°": 1426,
      "Ġcom": 1427,
      "à¤Ĥà¤¸": 1428,
      "Ġà¤¬à¥Ī": 1429,
      "à¤®à¤¾à¤°": 1430,
      "Ġà¤Ńà¤¾à¤°à¤¤à¥Ģà¤¯": 1431,
      "Ġà¤¤à¤ķà¤¨à¥Ģ": 1432,
      "Ġà¤ļà¥Ģ": 1433,
      "Ġà¤¸à¤°à¥įà¤µ": 1434,
      "ĠB": 1435,
      "Ġà¤ħà¤Ĺ": 1436,
      "Ġà¤®à¥ģà¤Ŀà¥ĩ": 1437,
      "Ġà¤¨à¤ı": 1438,
      "à¤²à¤¬à¥įà¤§": 1439,
      "à¤īà¤¤à¥įà¤¤à¤°": 1440,
      "12": 1441,
      "à¤¾à¤ĩà¤¡": 1442,
      "Ġà¤¸à¥įà¤µà¤¾à¤¸à¥įà¤¥à¥įà¤¯": 1443,
      "199": 1444,
      "à¤¾à¤ģà¤µ": 1445,
      "Ġà¤®à¥Ĥà¤²à¥įà¤¯": 1446,
      "à¥ģà¤¨à¤¿à¤¯à¤¾": 1447,
      "Ġà¤µà¤¾à¤²à¤¾": 1448,
      "à¤¡à¤¼à¤¿à¤¯à¤¾à¤ģ": 1449,
      "Ġà¤²à¤¿à¤¯à¤¾": 1450,
      "Ġne": 1451,
      "Ġà¤¹à¥ĭà¤Ĥ": 1452,
      "à¤¸à¥įà¤µ": 1453,
      "à¤£à¥įà¤¡à¤²": 1454,
      "Ġà¤ªà¤¾à¤¨à¥Ģ": 1455,
      "Ġà¤ķà¤²": 1456,
      "à¤¿à¤ķà¤¾à¤°à¤¿à¤ķ": 1457,
      "pp": 1458,
      "à¥īà¤¡": 1459,
      "Ġà¤¸à¥įà¤¤à¤°": 1460,
      "Ġà¤µà¤¿à¤ľà¥įà¤ŀà¤¾à¤¨": 1461,
      "ĠAI": 1462,
      "Ġà¤¶à¥Ģ": 1463,
      "à¤µà¥įà¤¯": 1464,
      "à¤¾à¤¹à¤¿à¤¤": 1465,
      "Ġà¤īà¤ªà¤²à¤¬à¥įà¤§": 1466,
      "Ġà¤µà¤°à¥įà¤Ĺ": 1467,
      "à¤¾à¤ĥ": 1468,
      "à¤°à¥įà¤ľà¤¾": 1469,
      "Ġà¤ªà¥įà¤°à¤µ": 1470,
      "Ġà¤ľà¤¨à¥įà¤®": 1471,
      "Ġà¤Ĩà¤§à¤¿à¤ķà¤¾à¤°à¤¿à¤ķ": 1472,
      "Ġà¤¬à¥ģà¤¦à¥įà¤§": 1473,
      "Ġà¤°à¤Ĥà¤Ĺ": 1474,
      "à¤¾à¤¯à¤°": 1475,
      ");": 1476,
      "Ġà¤¸à¤Ĥà¤Ńà¤¾à¤µ": 1477,
      "à¤¨à¥įà¤¹à¥ĩà¤Ĥ": 1478,
      "Ġà¤¦à¤ķà¥įà¤·à¤¿à¤£": 1479,
      "ata": 1480,
      "à¥ĥà¤¤à¤¿à¤ķ": 1481,
      "à¤ªà¥ģà¤Ł": 1482,
      "Ġwh": 1483,
      "oun": 1484,
      "Ġà¤²à¤Ĥà¤¬": 1485,
      "--------": 1486,
      "Ġex": 1487,
      "Ġà¤¦à¤¿à¤²": 1488,
      "à¥ĥà¤¤à¤¿": 1489,
      "Ġà¤µà¤¿à¤¶à¥įà¤²à¥ĩà¤·à¤£": 1490,
      "Ġà¤ªà¥įà¤°à¤£": 1491,
      "Ġà¤¸à¤®à¤¾à¤¨": 1492,
      "à¤¤à¤®": 1493,
      "à¥ĭà¤¬": 1494,
      "à¤¾à¤²à¤¾": 1495,
      "à¤ľà¥įà¤ŀà¤¾à¤¨": 1496,
      "Ġà¤¬à¤ľ": 1497,
      "à¤ªà¥įà¤¤": 1498,
      "Ġà¤¹à¤®à¥ĩà¤Ĥ": 1499,
      "Ġà¤Ĺà¥Ī": 1500,
      "Ġà¤®à¤£à¥įà¤¡à¤²": 1501,
      "Ġà¤¨à¤¿à¤°à¥įà¤®à¤¾à¤£": 1502,
      "Ġà¤¸à¤¿à¤Ĥ": 1503,
      "Ġà¤ªà¥įà¤°à¤ķà¥įà¤°": 1504,
      "Ġà¤¸à¥įà¤¥à¤¿à¤¤à¤¿": 1505,
      "Ġà¤ķà¥ĭà¤¶": 1506,
      "Ġà¤¤à¤¾à¤ķà¤¿": 1507,
      "à¤¦à¤¾à¤¨": 1508,
      "Ġà¤¸à¤¾à¤°": 1509,
      "Ġà¤¸à¤Ĥà¤ª": 1510,
      "à¤¸à¤¾à¤ĩà¤Ł": 1511,
      "Ġà¤Ĳà¤¸à¤¾": 1512,
      "à¤¨à¤¿à¤®à¥įà¤¨à¤²à¤¿à¤ĸà¤¿à¤¤": 1513,
      "ĠPython": 1514,
      "Ġà¤¹à¥ĭà¤¨à¤¾": 1515,
      "Ġà¤¨à¥įà¤¯à¥Ĥ": 1516,
      "-à¤ķ": 1517,
      "§à¤¾à¤°": 1518,
      "Ġà¤ķà¥ĩà¤Ĥà¤¦à¥įà¤°": 1519,
      "à¥ĩà¤¤": 1520,
      "à¤ľà¥Ģ": 1521,
      "Ġà¤¦à¥ģà¤¨à¤¿à¤¯à¤¾": 1522,
      "Ġà¤°à¤¾à¤·à¥įà¤Łà¥įà¤°à¥Ģà¤¯": 1523,
      "ĠD": 1524,
      "Ġà¤ķà¥ī": 1525,
      "Ġà¤ħà¤Ĥà¤Ĺ": 1526,
      "à¥Ĥà¤¤": 1527,
      "Ġà¤ªà¤°à¥Ģ": 1528,
      "Ġà¤¸à¥įà¤¥à¤¾à¤ª": 1529,
      "ht": 1530,
      "Ġà¤¤à¥Īà¤¯à¤¾à¤°": 1531,
      "Ġà¤¦à¤°à¥įà¤¶": 1532,
      "à¥ĩà¤Ĺà¤¾": 1533,
      "Ġà¤¡à¤¿à¤ľ": 1534,
      "Ġà¤ľà¥ģ": 1535,
      "Ġà¤¤à¥ģà¤²à¤¨à¤¾": 1536,
      "iv": 1537,
      "Ġà¤Łà¥Ģà¤®": 1538,
      "à¤Ĺà¥įà¤°à¤¹": 1539,
      "Ġà¤®à¤¾à¤®": 1540,
      "à¤ķà¥įà¤·à¤¿à¤¤": 1541,
      "Ġà¤ļà¤¿à¤ķ": 1542,
      "Ġà¤¯à¤¹à¤¾à¤ģ": 1543,
      "int": 1544,
      "à¤¸à¤¾à¤¯": 1545,
      "Ġà¤ľà¤¬à¤ķà¤¿": 1546,
      "à¤Ĥà¤Ń": 1547,
      "Ġà¤ľà¥ĭà¤¡à¤¼": 1548,
      "Ġà¤ªà¥įà¤°à¥ĭà¤Ĺà¥įà¤°à¤¾à¤®à¤¿à¤Ĥà¤Ĺ": 1549,
      "Ġà¤²à¤¾à¤Ĺ": 1550,
      "à¤ļà¤¾à¤¨": 1551,
      "ity": 1552,
      "à¤ķà¥įà¤¤à¤¿": 1553,
      "à¤¿à¤¸à¥įà¤¤": 1554,
      "Ġà¤Ĺà¤¾à¤ģà¤µ": 1555,
      "ld": 1556,
      "à¥ģà¤Ĺ": 1557,
      "Ġà¤ķà¤¡à¤¼à¤¿à¤¯à¤¾à¤ģ": 1558,
      "à¤ķà¤°à¥įà¤¤à¤¾": 1559,
      "Ġà¤µà¥įà¤¯à¤¾à¤ª": 1560,
      "Ġsu": 1561,
      "Ġà¤ħà¤®à¥ĩà¤°à¤¿à¤ķà¤¾": 1562,
      "à¤¿à¤·à¥įà¤ķ": 1563,
      "Ġà¤¬à¤¡à¤¼à¥ĩ": 1564,
      "Ġà¤¸à¤Ĥà¤ĺ": 1565,
      "à¤¾à¤µà¤°à¤£": 1566,
      "à¤ķà¤¾à¤²": 1567,
      "à¤ıà¤¸": 1568,
      "ĠN": 1569,
      "Ġà¤¸à¥įà¤ķà¥Ĥà¤²": 1570,
      "Ġà¤¸à¤¾à¤®à¤¾à¤¨à¥įà¤¯": 1571,
      "Ġà¤¸à¤Ĥà¤¸à¥įà¤ķ": 1572,
      "à¥ĩà¤¯à¤°": 1573,
      "ive": 1574,
      "à¤¿à¤¨à¤¾": 1575,
      "à¤·à¤£": 1576,
      "à¥įà¤«": 1577,
      "à¤¾à¤¤à¥Ģ": 1578,
      "000": 1579,
      "à¤Łà¥Ģ": 1580,
      "Ġà¤ªà¥įà¤²": 1581,
      "Ġà¤²à¤¡à¤¼": 1582,
      "ci": 1583,
      "Ġà¤¸à¤Ĥà¤Ĺ": 1584,
      "Ġà¤ĩà¤¤à¤¿à¤¹à¤¾à¤¸": 1585,
      "à¥ģà¤ĵà¤Ĥ": 1586,
      "Ġà¤µà¤¿à¤ļà¤¾à¤°": 1587,
      "à¥ĩà¤°à¥Ģ": 1588,
      "Ġà¤ľà¤¿à¤¸à¤¸à¥ĩ": 1589,
      "Ġà¤ĩà¤¸à¤®à¥ĩà¤Ĥ": 1590,
      "Ġà¤°à¥ĭà¤Ĺ": 1591,
      "Ġà¤ªà¤¾à¤ł": 1592,
      "Ġà¤¦à¤°": 1593,
      "à¥ĩà¤ľà¥Ģ": 1594,
      "Ġà¤ķà¤Ńà¥Ģ": 1595,
      "Ġà¤¬à¥ĩà¤¹": 1596,
      "Ġà¤ħà¤¨à¥ģà¤Ń": 1597,
      "ĠW": 1598,
      "à¤¿à¤®à¤¾à¤¨": 1599,
      "Ġà¤Ĭà¤°à¥įà¤ľà¤¾": 1600,
      "ĠF": 1601,
      "age": 1602,
      "Ġà¤īà¤¤à¥įà¤ªà¤¨à¥įà¤¨": 1603,
      "à¤¤à¤ĥ": 1604,
      "Ġà¤²à¥ĭà¤ķ": 1605,
      "Ġà¤ħà¤ªà¤¨à¤¾": 1606,
      "Ġch": 1607,
      "Ġà¤ļà¥ģ": 1608,
      "pt": 1609,
      "Ġà¤ĩà¤²": 1610,
      "à¥ĩà¤¸à¥įà¤Ł": 1611,
      "Ġà¤ªà¤¢à¤¼": 1612,
      "à¤¾à¤¹à¤°": 1613,
      "Ġà¤¬à¤²": 1614,
      "Ġà¤ªà¤¹à¥ģ": 1615,
      "à¥Ĥà¤¦": 1616,
      "system": 1617,
      "ĠG": 1618,
      "à¥Ģà¤ķà¤°à¤£": 1619,
      "Ġà¤µà¥ĩà¤¬à¤¸à¤¾à¤ĩà¤Ł": 1620,
      "à¥Ĥà¤¸": 1621,
      "Ġà¤ľà¤¿à¤¨à¥įà¤¹": 1622,
      "Ġor": 1623,
      "ine": 1624,
      "Ġà¤ªà¤¹à¥ģà¤Ĥà¤ļ": 1625,
      "Ġà¤īà¤ªà¤ķà¤°à¤£": 1626,
      "à¤Ĥà¤¦à¤°": 1627,
      "Ġà¤ªà¤°à¤¿à¤µà¤°à¥įà¤¤": 1628,
      "Ġà¤µà¤¿à¤¸à¥įà¤¤à¥ĥà¤¤": 1629,
      "end": 1630,
      "à¤ľà¤¬": 1631,
      "Ġà¤¸à¤¹à¥Ģ": 1632,
      "Ġà¤µà¤°à¥įà¤£": 1633,
      "Ġà¤µà¤¿à¤ķà¤²à¥įà¤ª": 1634,
      "Ġà¤Ĩà¤ľ": 1635,
      "ore": 1636,
      "Ġà¤¹à¥ĭà¤Ĺà¥Ģ": 1637,
      "à¤²à¤Ĺ": 1638,
      "à¥ĩà¤ª": 1639,
      "à¤¾à¤®à¥Ģ": 1640,
      "à¤¾à¤¡à¤¼à¥Ģ": 1641,
      "Ġà¤µà¤¿à¤·à¤¯": 1642,
      "à¤¸à¤Ĥà¤¦": 1643,
      "à¤Ńà¤¾à¤°": 1644,
      "Ġà¤ĩà¤¸à¤¸à¥ĩ": 1645,
      "Ġà¤¨à¤¿à¤°à¥įà¤¦": 1646,
      "Ġà¤Ĩà¤ķ": 1647,
      "Ġà¤®à¤¾à¤¨à¤µ": 1648,
      "17": 1649,
      "à¥ĩà¤µ": 1650,
      "à¤¸à¤¿à¤¤": 1651,
      "Ġà¤ªà¥įà¤°à¤¯à¥ĭà¤Ĺ": 1652,
      "à¥ĩà¤ķà¥įà¤¸": 1653,
      "à¥ĩà¤ķà¥įà¤Ł": 1654,
      "à¤ľà¥įà¤ŀà¤¾à¤¨à¤¿à¤ķ": 1655,
      "Ġà¤Ĺà¥ģà¤£": 1656,
      "à¤¾à¤¨à¥ĭà¤Ĥ": 1657,
      "à¤ķà¥ĭà¤¡": 1658,
      "à¥ĥà¤¤à¥įà¤¯": 1659,
      "Ġà¤ªà¥įà¤°à¤¸": 1660,
      "ex": 1661,
      "ple": 1662,
      "à¤¶à¥įà¤ļà¤¿à¤®": 1663,
      "Ġà¤®à¥īà¤¡": 1664,
      "ac": 1665,
      "Ġà¤ķà¤ª": 1666,
      "à¤ļà¤¿à¤¤": 1667,
      "Ġà¤ªà¥ģà¤¸à¥įà¤¤": 1668,
      "Ġà¤¬à¤ļà¥įà¤ļà¥ĭà¤Ĥ": 1669,
      "Ġà¤¹à¤®à¤¾à¤°à¥ĩ": 1670,
      "Ġà¤¤à¤¬": 1671,
      "à¤ľà¤°": 1672,
      "ame": 1673,
      "Ġà¤ļà¤¿à¤ķà¤¿à¤¤": 1674,
      "Ġà¤ķà¤¾à¤°à¥įà¤¯à¤ķà¥įà¤°à¤®": 1675,
      "à¥ĥà¤·à¥įà¤ł": 1676,
      "Ġà¤¨à¥Ģà¤ļà¥ĩ": 1677,
      "à¤¾à¤Ĥà¤ķà¤¿": 1678,
      "à¤¸à¥įà¤¥à¤¾": 1679,
      "à¤¾à¤¸à¤¨": 1680,
      "à¤Ĺà¥įà¤°à¥Ģ": 1681,
      "</": 1682,
      "à¤µà¤¿à¤¦à¥įà¤¯à¤¾à¤²à¤¯": 1683,
      "Ġà¤°à¤¾à¤·à¥įà¤Łà¥įà¤°": 1684,
      "ĠT": 1685,
      "30": 1686,
      "Ġà¤¸à¤®à¥įà¤®": 1687,
      "50": 1688,
      "and": 1689,
      "Ġà¤īà¤¨à¤ķà¤¾": 1690,
      "à¤ľà¥įà¤ŀ": 1691,
      "ence": 1692,
      "¯à¥": 1693,
      "Ġà¤¦à¥Ĥà¤¸à¤°à¥ĩ": 1694,
      "Ġà¤®à¤¤": 1695,
      "à¤¾à¤²à¤¨": 1696,
      "à¥ĭà¤°à¥įà¤Ł": 1697,
      "à¤Ĩà¤°": 1698,
      "Ġà¤ķà¥ģà¤²": 1699,
      "à¥Ĥà¤Ł": 1700,
      "à¤¿à¤¯à¤¾à¤Ĥ": 1701,
      "pe": 1702,
      "à¤°à¤¾à¤¬": 1703,
      "à¤µà¤¿à¤§": 1704,
      "Ġà¤Ĺà¤¤": 1705,
      "Ġà¤²à¥Ģ": 1706,
      "Ġà¤µà¤¿à¤ķà¤¸à¤¿à¤¤": 1707,
      "Ġà¤¬à¥ģà¤¦à¥įà¤§à¤¿à¤®à¤¾à¤¨": 1708,
      "Ġà¤µà¤¸à¥įà¤¤": 1709,
      "à¤¾à¤Ĥà¤¡": 1710,
      "Ġà¤¨à¤µ": 1711,
      "Ġà¤ķà¤¾à¤²": 1712,
      "Ġà¤ĳà¤«": 1713,
      "Ġà¤µà¤¿à¤µà¤°à¤£": 1714,
      "Ġsh": 1715,
      "Ġà¤¶à¤¿à¤ķà¥įà¤·à¤¾": 1716,
      "à¤µà¤°à¥Ģ": 1717,
      "Ġà¤¦à¥Ĥà¤°": 1718,
      "16": 1719,
      "Ġà¤¸à¤Ĥà¤¯à¥ģà¤ķà¥įà¤¤": 1720,
      "',": 1721,
      "Ġà¤¸à¤Ĥà¤¦à¤°à¥įà¤Ń": 1722,
      "Ġà¤¨à¤¿à¤µ": 1723,
      "à¥įà¤²à¥Ģ": 1724,
      "Ġà¤µà¤¿à¤¶à¥įà¤µà¤µà¤¿à¤¦à¥įà¤¯à¤¾à¤²à¤¯": 1725,
      "Ġà¤¯à¥ģà¤¦à¥įà¤§": 1726,
      "à¤Ĩà¤Ī": 1727,
      "Ġà¤ªà¥įà¤°à¤¤à¤¿": 1728,
      "à¤¸à¤®à¤¸à¥įà¤¯à¤¾": 1729,
      "Ġà¤¬à¤¾à¤¹à¤°": 1730,
      "ure": 1731,
      "Ġà¤¸à¤Ĥà¤¸": 1732,
      "Ġà¤ªà¥įà¤°à¤¤à¤¿à¤¶": 1733,
      "à¤¿à¤¯à¥ĩ": 1734,
      "Ġà¤¶à¥ĭà¤§": 1735,
      "Ġà¤µà¤°à¥įà¤¤": 1736,
      "Ġà¤ªà¤¹à¤ļà¤¾à¤¨": 1737,
      "Ġà¤ªà¥ģà¤²": 1738,
      "ag": 1739,
      "Ġà¤¸à¤¤": 1740,
      "Ġà¤µà¤¿à¤¨à¤®à¥įà¤°": 1741,
      "à¤¨à¥įà¤¯": 1742,
      "ill": 1743,
      "Ġà¤¨à¤¿à¤°à¥įà¤§à¤¾à¤°": 1744,
      ")à¥¤": 1745,
      "Ġà¤ªà¥įà¤°à¤¸à¥įà¤¤": 1746,
      "à¤¿à¤Ĥà¤¦": 1747,
      "Ġà¤Ľà¥ĭà¤Łà¥ĩ": 1748,
      "Ġà¤ıà¤ķà¥įà¤¸": 1749,
      "Ġà¤ķà¥ģà¤®": 1750,
      "act": 1751,
      "à¥Ģà¤¦": 1752,
      "Ġà¤ªà¥įà¤°à¤¤à¤¿à¤¶à¤¤": 1753,
      "Ġà¤ľà¤µà¤¾à¤¬": 1754,
      "Ġà¤¶à¥ģà¤°à¥ģà¤Ĩ": 1755,
      "Ġà¤Ĩà¤¦à¤¿": 1756,
      "Ġà¤Ńà¤µ": 1757,
      "Ġare": 1758,
      "Ġà¤ªà¥įà¤°à¤ķà¥įà¤°à¤¿à¤¯à¤¾": 1759,
      "Ġà¤¹à¥Ĥà¤Ĥ": 1760,
      "Ġà¤¸à¥įà¤ªà¤·à¥įà¤Ł": 1761,
      "ĠE": 1762,
      "à¤ĩà¤¨à¥įà¤¹à¥ĩà¤Ĥ": 1763,
      "ain": 1764,
      "Ġà¤ªà¥Ĥà¤°à¤¾": 1765,
      "Ġà¤ªà¤¤à¥įà¤°": 1766,
      "Ġà¤²à¤¾à¤Ń": 1767,
      "Ġà¤ªà¤°à¤¿à¤µà¤¾à¤°": 1768,
      "à¤¸à¥įà¤ª": 1769,
      "à¤Ĺà¥Ģà¤¤": 1770,
      "```": 1771,
      "à¤¿à¤Ľ": 1772,
      "Ġà¤¸à¥ĩà¤µà¤¾": 1773,
      "Ġà¤ªà¥Ĥà¤°à¥Ģ": 1774,
      "à¤°à¥ĭà¤Ĥ": 1775,
      "Ġà¤ķà¤Ĥà¤ªà¤¨à¥Ģ": 1776,
      "Ġà¤ķà¥īà¤²": 1777,
      "Ġà¤¸à¤«à¤²": 1778,
      "Ġà¤Ńà¤¾à¤µ": 1779,
      "à¥ĥà¤¦à¥įà¤§": 1780,
      "Ġim": 1781,
      "Ġà¤ħà¤¨à¥ģà¤Ńà¤µ": 1782,
      "ĠL": 1783,
      "à¤¾à¤ķà¤°": 1784,
      "Ġà¤ķà¥Įà¤¨": 1785,
      "Ġà¤¶à¥Ģà¤°à¥įà¤·": 1786,
      "Ġà¤ħà¤®à¥ĩà¤°à¤¿à¤ķà¥Ģ": 1787,
      "ies": 1788,
      "à¤¿à¤¤à¥įà¤µ": 1789,
      "//": 1790,
      "Ġà¤ĩà¤¸à¤ķà¥Ģ": 1791,
      "Ġle": 1792,
      "Ġà¤¨à¤¿à¤¯à¤®": 1793,
      "Ġà¤¨à¤Ĺà¤°": 1794,
      "Ġà¤ĺà¤Ł": 1795,
      "Ġà¤ªà¥įà¤°à¤¯": 1796,
      "Ġà¤¸à¥ģà¤°à¤ķà¥įà¤·à¤¾": 1797,
      "198": 1798,
      "Ġà¤®à¥ĩà¤°": 1799,
      "à¤¨à¥įà¤¸": 1800,
      "à¥ĭà¤µ": 1801,
      "à¤°à¥ĩ": 1802,
      "est": 1803,
      "11": 1804,
      "Ġà¤ħà¤ļà¥įà¤Ľà¤¾": 1805,
      "Ġà¤µà¤¿à¤¤": 1806,
      "à¥ĩà¤ľà¤¼": 1807,
      "Ġà¤¹à¤²": 1808,
      "Ġà¤ľà¤Ĺ": 1809,
      "Ġà¤īà¤¸à¤ķà¥Ģ": 1810,
      "Ġà¤ªà¥įà¤°à¤£à¤¾à¤²à¥Ģ": 1811,
      "Ġà¤ķà¥ĥà¤·": 1812,
      "à¤¿à¤ķà¥įà¤°": 1813,
      "Ġà¤ªà¥Į": 1814,
      "Ġà¤Ĺà¤¿à¤°": 1815,
      "à¤®à¥įà¤¬": 1816,
      "(à¤ľ": 1817,
      "Ġà¤¶à¥Ī": 1818,
      "Ġà¤¹à¤¾à¤²à¤¾à¤Ĥà¤ķà¤¿": 1819,
      "Ġà¤¸à¤¾à¤®à¤Ĺà¥įà¤°à¥Ģ": 1820,
      "à¤®à¤¿à¤ķ": 1821,
      "ud": 1822,
      "à¤ľà¤¾à¤¤": 1823,
      "Ġà¤¸à¤Ĥà¤Ĺà¥Ģà¤¤": 1824,
      "à¤¾à¤·à¥įà¤Łà¥įà¤°à¥Ģà¤¯": 1825,
      "à¤ªà¥įà¤°à¤¶": 1826,
      "Ġà¤ªà¤¹à¤²à¥Ģ": 1827,
      "Ġà¤¬à¤¡à¤¼à¥Ģ": 1828,
      "Ġà¤µà¤°à¥įà¤¤à¤®à¤¾à¤¨": 1829,
      "Ġà¤ķà¥įà¤·à¤®": 1830,
      "Ġà¤¸à¥ĩà¤µ": 1831,
      "à¤¤à¥ĭà¤Ĥ": 1832,
      "Ġà¤§à¤¾à¤°": 1833,
      "Ġà¤¸à¤®à¤°à¥įà¤¥": 1834,
      "à¤¾à¤¯à¥ģ": 1835,
      "pl": 1836,
      "à¤¹à¤®": 1837,
      "Ġà¤ļà¥Į": 1838,
      "Ġà¤¦à¥ĥà¤·à¥įà¤Ł": 1839,
      "Ġà¤ªà¥ģà¤¨": 1840,
      "Ġà¤¨à¤¿à¤¯à¤Ĥà¤¤à¥įà¤°": 1841,
      "Ġà¤¦à¥ĩà¤¤à¥ĩ": 1842,
      "à¤¤à¤¨": 1843,
      "Ġà¤Ĩà¤Ĺà¥ĩ": 1844,
      "à¥¨à¥¦": 1845,
      "Ġà¤ħà¤¦": 1846,
      "Ġà¤ķà¥įà¤·à¥ĩà¤¤à¥įà¤°à¥ĭà¤Ĥ": 1847,
      "à¤¬à¥įà¤²": 1848,
      "à¥įà¤¯à¤¾à¤¦": 1849,
      "Ġà¤ķà¤¾à¤¨": 1850,
      "à¤¾à¤ľà¤¿à¤ķ": 1851,
      "à¤ĩà¤¨": 1852,
      "Ġà¤¬à¥įà¤²": 1853,
      "à¤¸à¥įà¤¥à¤¾à¤¨": 1854,
      "à¤¾à¤«à¥Ģ": 1855,
      "Ġà¤¨à¥Į": 1856,
      "ach": 1857,
      "à¤°à¥įà¤«": 1858,
      "à¤ıà¤²": 1859,
      "à¤°à¥Ģà¤°": 1860,
      "Ġà¤ľà¤¹à¤¾à¤ģ": 1861,
      "Ġà¤¸à¥ģà¤§à¤¾à¤°": 1862,
      "Ġà¤®à¤§à¥įà¤¯": 1863,
      "Ġà¤ªà¤¡à¤¼": 1864,
      "à¥ģà¤ª": 1865,
      "Ġà¤ªà¥ģà¤°à¤¸à¥įà¤ķ": 1866,
      "Ġà¤ļà¤°à¤£": 1867,
      "à¤ķà¥įà¤¸à¤°": 1868,
      "Ġà¤¬à¤¿à¤¨à¤¾": 1869,
      "à¤Ĥà¤Łà¤°": 1870,
      "à¤¿à¤ķà¥ĭ": 1871,
      "Ġà¤ľà¤¾à¤°à¥Ģ": 1872,
      "(\"": 1873,
      "à¥ĥà¤ª": 1874,
      "Ġà¤¬à¤ļà¥įà¤ļà¥ĩ": 1875,
      "à¤¤à¤Ĥà¤¤à¥įà¤°": 1876,
      "14": 1877,
      "Ġà¤ªà¤¦": 1878,
      "Ġà¤¹à¥Īà¤ĥ": 1879,
      "Ġà¤ħà¤ķ": 1880,
      "Ġà¤®à¥īà¤¡à¤²": 1881,
      "rom": 1882,
      "Ġà¤°à¤ĸà¤¨à¥ĩ": 1883,
      "Ġà¤µà¤¿à¤°": 1884,
      "Ġà¤¤à¤¾à¤²": 1885,
      "art": 1886,
      "Ġà¤µà¤¿à¤¶à¤¿à¤·à¥įà¤Ł": 1887,
      "Ġà¤ķà¤¿à¤¤": 1888,
      "à¥ĩà¤Ĥà¤¸": 1889,
      "og": 1890,
      "Ġà¤Ĩà¤ªà¤ķà¥Ģ": 1891,
      "Ġà¤µà¤¿à¤Ńà¤¾à¤Ĺ": 1892,
      "à¤¾à¤Ĭ": 1893,
      "Ġà¤²à¥ĩà¤¨à¥ĩ": 1894,
      "Ġà¤¬à¤¨à¤¾à¤¯à¤¾": 1895,
      "à¥īà¤Ł": 1896,
      "iz": 1897,
      "Ġà¤ªà¥ģà¤¸à¥įà¤¤à¤ķ": 1898,
      "Ġà¤ħà¤Ńà¥Ģ": 1899,
      "Ġà¤¸à¤Ĥà¤Ĺà¤ł": 1900,
      "à¤¸à¥įà¤Łà¥įà¤°": 1901,
      "Ġà¤ľà¤¾à¤Ĥà¤ļ": 1902,
      "Ġà¤Ĺà¥įà¤°à¤¾à¤¹": 1903,
      "Ġà¤Ľà¥ĭà¤¡à¤¼": 1904,
      "-à¤¬": 1905,
      "Ġà¤Ĩà¤ķà¤¾à¤°": 1906,
      "Ġwe": 1907,
      "Ġà¤¸à¤¿à¤Ĥà¤¹": 1908,
      "-à¤®": 1909,
      "Ġà¤¨à¤Ī": 1910,
      "able": 1911,
      "Ġà¤ªà¥įà¤°à¤¦à¤°à¥įà¤¶à¤¨": 1912,
      "ould": 1913,
      "à¤µà¥Ģà¤Ĥ": 1914,
      "Ġà¤ªà¤°à¥Ģà¤ķà¥įà¤·à¤£": 1915,
      "ust": 1916,
      "à¥ĩà¤£": 1917,
      "Ġà¤¸à¤®à¥Ģ": 1918,
      "Ġà¤¨à¥įà¤¯": 1919,
      "à¤¿à¤¸à¥įà¤¤à¤¾à¤¨": 1920,
      "Ġà¤¯à¥ĭà¤ľà¤¨à¤¾": 1921,
      "Ġà¤ħà¤ļà¥įà¤Ľà¥Ģ": 1922,
      "à¤°à¤¾": 1923,
      "Ġà¤«à¥Ī": 1924,
      "Ġà¤¬à¤¡à¤¼à¤¾": 1925,
      "Ġà¤ħà¤§à¤¿à¤ķà¤¾à¤Ĥà¤¶": 1926,
      "Ġà¤ħà¤ķà¥įà¤¸à¤°": 1927,
      "ĠIn": 1928,
      "Ġà¤ľà¤¿à¤¸à¤ķà¤¾": 1929,
      "à¤°à¥įà¤Ĺà¤¤": 1930,
      "Ġà¤ļà¤¾à¤¹à¤¤à¥ĩ": 1931,
      "à¤ļà¤¨": 1932,
      "à¤ĵ": 1933,
      "Ġà¤¯à¤¾à¤¦": 1934,
      "Ġà¤§à¤°à¥įà¤®": 1935,
      "-à¤µ": 1936,
      "Ġà¤¬à¥ĩà¤¹à¤¤à¤°": 1937,
      "à¤Ĥà¤¤à¥įà¤°à¥Ģ": 1938,
      "Ġà¤¶à¤°à¥Ģà¤°": 1939,
      "à¤®à¥įà¤ª": 1940,
      "à¤īà¤Ł": 1941,
      "Ġà¤ªà¥įà¤°à¤¯à¤¾à¤¸": 1942,
      "à¤°à¤²": 1943,
      "ring": 1944,
      "à¤¾à¤¯à¤¦": 1945,
      "Ġà¤ªà¥įà¤°à¤¾à¤°": 1946,
      "Ġà¤¸à¤Ĥà¤Ĺà¥įà¤°à¤¹": 1947,
      "à¤ªà¥įà¤°à¤¶à¥įà¤¨": 1948,
      "à¤¸à¥įà¤¥à¤¿à¤¤": 1949,
      "Ġà¤īà¤¤à¥įà¤ªà¤¾à¤¦à¤¨": 1950,
      "Ġà¤ªà¥įà¤°à¤Ńà¤¾à¤µà¤¿à¤¤": 1951,
      "Ġà¤¦à¤¶": 1952,
      "ction": 1953,
      "Ġà¤²à¥ĩà¤ķà¤°": 1954,
      "Ġà¤®à¤¹à¤¿à¤²à¤¾": 1955,
      "Ġen": 1956,
      "à¤¿à¤µà¤¿à¤§": 1957,
      "Ġà¤µà¤¾à¤¸à¥įà¤¤à¤µ": 1958,
      "Ġà¤ħà¤°": 1959,
      "à¤¨à¥Ģà¤¯": 1960,
      "Ġà¤ªà¤¿à¤Ľ": 1961,
      "Ġà¤¤à¤°à¥Ģà¤ķà¥ĩ": 1962,
      "()": 1963,
      "à¤¨à¤²": 1964,
      "ere": 1965,
      "Ġà¤¸à¤¿à¤¦à¥įà¤§": 1966,
      "à¤¿à¤ķà¥įà¤¤": 1967,
      "25": 1968,
      "Ġà¤µà¥Īà¤ľà¥įà¤ŀà¤¾à¤¨à¤¿à¤ķ": 1969,
      "Ġà¤¸à¤¾à¤Ĥ": 1970,
      "à¤¾à¤ķà¥ĥà¤¤à¤¿à¤ķ": 1971,
      "Ġà¤Ńà¥ĭà¤ľà¤¨": 1972,
      "à¤Ĥà¤¶": 1973,
      "à¤ķà¤°à¥įà¤¤à¤¾à¤ĵà¤Ĥ": 1974,
      "Ġà¤®à¥Ģ": 1975,
      "à¥įà¤°à¥ĭà¤¤": 1976,
      "Ġà¤ªà¥ģà¤²à¤¿à¤¸": 1977,
      "à¤¸à¤¨": 1978,
      "à¤¦à¥įà¤¯à¥ĭà¤Ĺ": 1979,
      "Ġà¤¨à¤¿à¤ķà¤¾à¤²": 1980,
      "-à¤ħà¤²à¤Ĺ": 1981,
      "Ġà¤µà¤¾à¤ª": 1982,
      "à¥ĥà¤¤à¥įà¤¤": 1983,
      "Ġà¤¶à¥įà¤°à¥Ģ": 1984,
      "Ġà¤ķà¤°à¥ĩà¤Ĥà¤Ĺà¥ĩ": 1985,
      "à¥ĥà¤ªà¤¯à¤¾": 1986,
      "13": 1987,
      "ĠJ": 1988,
      "Ġà¤ľà¤¾à¤ıà¤Ĺà¤¾": 1989,
      "Ġà¤ķà¤¹à¤¤à¥ĩ": 1990,
      "Ġà¤¨à¤¿à¤°à¥įà¤§à¤¾à¤°à¤¿à¤¤": 1991,
      "Ġà¤ħà¤Ĥà¤¤à¤¿à¤®": 1992,
      "Ġà¤ªà¥įà¤°à¤¬à¤Ĥà¤§": 1993,
      "Ġà¤Ĺà¤°à¥įà¤®": 1994,
      "ĠThe": 1995,
      "Ġà¤¡à¤¾à¤²": 1996,
      "Ġà¤Ĳà¤¸à¥ĩ": 1997,
      "Ġà¤¸à¤ķà¥ĩ": 1998,
      "Ġà¤ªà¤¸à¤Ĥà¤¦": 1999,
      "Ġà¤Ĺà¤¤à¤¿à¤µà¤¿à¤§": 2000,
      "à¥Īà¤Ĥà¤ķ": 2001,
      "cl": 2002,
      "Ġà¤®à¥ģà¤¦": 2003,
      "à¤¬à¥įà¤°": 2004,
      "Ġà¤¹à¥Ĥà¤ģ": 2005,
      "Ġà¤¦à¥ģ": 2006,
      "à¥įà¤£": 2007,
      "à¤¾à¤¹à¤¿à¤¤à¥įà¤¯": 2008,
      "Ġà¤®à¤¿à¤¶": 2009,
      "Ġà¤¬à¥ĭ": 2010,
      "à¥§à¥¯à¥": 2011,
      "197": 2012,
      "à¤ľà¥Ĥà¤¦": 2013,
      "à¤°à¥ĭ": 2014,
      "Ġà¤īà¤¤à¥įà¤¤": 2015,
      "Ġà¤¤à¤¤à¥įà¤µ": 2016,
      "Ġà¤°à¤¿à¤ª": 2017,
      "Ġse": 2018,
      "Ġà¤ªà¥ĩà¤¶": 2019,
      "Ġà¤ĸà¤°à¥Ģ": 2020,
      "Ġà¤ªà¤¶à¥įà¤ļà¤¿à¤®": 2021,
      "à¤ıà¤®": 2022,
      "Ġà¤ħà¤¨à¥ģà¤¸": 2023,
      "Ġà¤¸à¤¾à¤®à¤¾à¤ľà¤¿à¤ķ": 2024,
      "Ġà¤¸à¤¦à¤¸à¥įà¤¯": 2025,
      "'s": 2026,
      "for": 2027,
      "Ġby": 2028,
      "Ġà¤¸à¥ģà¤¨à¤¿à¤¶à¥įà¤ļà¤¿à¤¤": 2029,
      "à¤µà¤¾à¤Ī": 2030,
      "à¤¿à¤ķà¥įà¤¸": 2031,
      "Ġà¤ıà¤«": 2032,
      "Ġà¤¯à¤¾à¤¤à¥įà¤°à¤¾": 2033,
      "à¥ĥà¤¤à¥įà¤¯à¥ģ": 2034,
      "Ġà¤¸à¥Ģà¤ĸ": 2035,
      "Ġà¤¤à¥Įà¤°": 2036,
      "Ġà¤ľà¤°": 2037,
      "-à¤¦": 2038,
      "à¤°à¤¾à¤ľ": 2039,
      "Ġà¤¶à¥ģà¤°à¥ģà¤Ĩà¤¤": 2040,
      "à¤¶à¤²": 2041,
      "ĠU": 2042,
      "Ġà¤²à¤ķà¥įà¤·": 2043,
      "Ġà¤¬à¤¿à¤²": 2044,
      "Ġà¤ķà¤°à¥ĩà¤Ĺà¤¾": 2045,
      "à¥Ģà¤¸": 2046,
      "Ġà¤ªà¥ĭà¤°à¥įà¤Ł": 2047,
      "Ġdata": 2048,
      "Ġà¤ªà¥Ĥà¤°à¥įà¤£": 2049,
      "Ġà¤ļà¤°à¥įà¤ļ": 2050,
      "à¤¨à¤¾à¤®": 2051,
      "à¤¾à¤Ĥà¤ķà¤¨": 2052,
      "Ġà¤µà¤¿à¤²": 2053,
      "à¤¶à¥įà¤µ": 2054,
      "ult": 2055,
      "à¤¿à¤Ĺà¤¤": 2056,
      "Ġà¤ªà¤¤": 2057,
      "Ġà¤¯à¤¹à¤¾à¤Ĥ": 2058,
      "Ġà¤¨à¤¦à¥Ģ": 2059,
      "Ġà¤ªà¤°à¤¿à¤µà¤°à¥įà¤¤à¤¨": 2060,
      "à¥©": 2061,
      "Ġà¤ĸà¥ģà¤¦": 2062,
      "Ġà¤ħà¤Ĥà¤Ĺà¥įà¤°": 2063,
      "Ġà¤¶à¤¬à¥įà¤¦à¥ĭà¤Ĥ": 2064,
      "Ġà¤Ĭà¤ªà¤°": 2065,
      "à¤¤à¥įà¤¤à¤¾": 2066,
      "à¤®à¥įà¤®à¥Ģà¤¦": 2067,
      "à¥īà¤°à¥įà¤¡": 2068,
      "Ġà¤¸à¥ĭà¤ļ": 2069,
      "Ġà¤ļà¤¿à¤ķà¤¿à¤¤à¥įà¤¸à¤¾": 2070,
      "Ġà¤īà¤ł": 2071,
      "Ġà¤¨à¤¿à¤°à¥įà¤¦à¥ĩà¤¶": 2072,
      "per": 2073,
      "Ġà¤ļà¤¿à¤¤à¥įà¤°": 2074,
      "à¥ĥà¤Ĥà¤ĸ": 2075,
      "Ġà¤¸à¥įà¤®": 2076,
      "Ġà¤ħà¤Ĺà¤°": 2077,
      "ue": 2078,
      "Ġà¤ħà¤¨à¥įà¤¤": 2079,
      "Ġà¤¹à¤¿à¤¨": 2080,
      "Ġà¤¦à¥ĩà¤ĸà¤¤à¥ĩ": 2081,
      "Ġà¤ªà¥ģà¤°à¤¸à¥įà¤ķà¤¾à¤°": 2082,
      "à¤¿à¤¤à¥Ģà¤¯": 2083,
      "à¤¯à¥ĩ": 2084,
      "à¤¿à¤°à¤¿à¤ķà¥įà¤¤": 2085,
      "Ġà¤¬à¤¨à¤¾à¤ı": 2086,
      "Ġà¤ªà¤ķ": 2087,
      "Ġà¤¤à¥įà¤°": 2088,
      "Ġà¤¸à¤Ĥà¤ļ": 2089,
      "Ġà¤ķà¥įà¤·à¤®à¤¤à¤¾": 2090,
      "à¤µà¤¾à¤¨": 2091,
      "Ġà¤ľà¤¹à¤¾à¤Ĥ": 2092,
      "Ġà¤µà¤°à¥įà¤·à¥ĭà¤Ĥ": 2093,
      "à¤¿à¤·à¥įà¤¯": 2094,
      "à¤Ĥà¤Ĺà¤²": 2095,
      "Ġà¤ªà¤ķà¥įà¤·": 2096,
      "Ġà¤®à¤¾à¤¨à¤¾": 2097,
      "à¤¾à¤ĩà¤ķ": 2098,
      "Ġà¤Ĩà¤¤": 2099,
      "Ġà¤°à¥ĭà¤ķ": 2100,
      "\":": 2101,
      "so": 2102,
      "Ġà¤¸à¥įà¤¤": 2103,
      "à¥įà¤¦à¥ĩà¤¶": 2104,
      "Ġà¤¸à¤²": 2105,
      "Ġà¤ħà¤§à¤¿à¤ķà¤¾à¤°": 2106,
      "à¤¾à¤¦à¥įà¤¯": 2107,
      "Ġà¤¸à¥įà¤°à¥ĭà¤¤": 2108,
      "Ġà¤ªà¥įà¤°à¤¾à¤ķà¥ĥà¤¤à¤¿à¤ķ": 2109,
      "Ġà¤®à¤¾à¤°à¥įà¤Ĺ": 2110,
      "à¤¿à¤Łà¥Ģ": 2111,
      "à¤µà¥ĩ": 2112,
      "Ġà¤ľà¤¿à¤¸à¤ķà¥ĩ": 2113,
      "out": 2114,
      "Ġà¤¯à¥ģ": 2115,
      "Ġà¤°à¤ĸà¤¾": 2116,
      "Ġà¤¸à¤Ĥà¤¸à¤¾à¤§": 2117,
      "Ġà¤ªà¤¦à¤¾à¤°": 2118,
      "ind": 2119,
      "Ġà¤ħà¤¤à¤¿à¤°à¤¿à¤ķà¥įà¤¤": 2120,
      "à¤§à¤¾à¤¨": 2121,
      "port": 2122,
      "à¤®à¤¤à¤¿": 2123,
      "Ġà¤Ńà¥Ĥ": 2124,
      "à¤Ĥà¤Łà¥Ģ": 2125,
      "Ġà¤¹à¤¾à¤¥": 2126,
      "Ġà¤ªà¥įà¤°à¤¤à¤¿à¤ķà¥įà¤°": 2127,
      "Ġà¤ķà¤¹à¤¾à¤¨à¥Ģ": 2128,
      "Ġà¤¯à¥Ĥà¤°": 2129,
      "Ġà¤ªà¤°à¥įà¤¯à¤¾à¤µà¤°à¤£": 2130,
      "Ġà¤¡à¥įà¤°": 2131,
      "Ġà¤ıà¤ļ": 2132,
      "Ġà¤ľà¤Ĺà¤¹": 2133,
      "à¤¡à¤¼à¥ĭà¤Ĥ": 2134,
      "Ġà¤°à¤¹à¤¨à¥ĩ": 2135,
      "196": 2136,
      "sion": 2137,
      "Ġà¤¸à¤Ĥà¤ķà¥ĩ": 2138,
      "à¥ĩà¤«": 2139,
      "à¤¤à¥Įà¤°": 2140,
      "à¤¾à¤ļà¤¾à¤°": 2141,
      "à¤¾à¤ĩà¤®": 2142,
      "à¥ĥà¤¦à¥įà¤§à¤¿": 2143,
      "Ġà¤ĩà¤Ĥà¤Łà¤°": 2144,
      "Ġà¤°à¤¾à¤ľà¤¨à¥Ģ": 2145,
      "Ġà¤¶à¥įà¤°à¥ĩà¤£": 2146,
      "ff": 2147,
      "Ġà¤ªà¤¦à¤¾à¤°à¥įà¤¥": 2148,
      "Ġun": 2149,
      "Ġà¤ĸà¤¤à¤°": 2150,
      "Ġk": 2151,
      "à¤¾à¤¨à¥Ģà¤¯": 2152,
      "à¥įà¤°à¤¿à¤¯": 2153,
      "Ġint": 2154,
      "Ġà¤ħà¤¨à¥ģà¤®à¤¾à¤¨": 2155,
      "are": 2156,
      "oc": 2157,
      "Ġà¤¸à¤®à¤¾à¤ľ": 2158,
      "Ġà¤īà¤²à¥įà¤²": 2159,
      "Ġà¤īà¤¦à¥įà¤¦à¥ĩà¤¶": 2160,
      "Ġà¤ħà¤Ńà¤¿à¤¨": 2161,
      "à¤¾à¤¸à¥Ģ": 2162,
      "Ġà¤®à¤¾à¤¤à¥įà¤°à¤¾": 2163,
      "Ġà¤®à¤¹à¤¿à¤²": 2164,
      "à¥ĥà¤¥": 2165,
      "Ġà¤¬à¤¤à¤¾à¤¯à¤¾": 2166,
      "à¤Ĥà¤ķà¥įà¤¶à¤¨": 2167,
      "Ġà¤¬à¤Ĥà¤¦": 2168,
      "à¤¹à¤¨": 2169,
      "Ġà¤īà¤¸à¤¨à¥ĩ": 2170,
      "Ġà¤Ľà¤¾à¤¤à¥įà¤°à¥ĭà¤Ĥ": 2171,
      "Ġha": 2172,
      "Ġà¤²à¤¾à¤Ĺà¥Ĥ": 2173,
      "à¤¤à¤¿à¤¹à¤¾à¤¸": 2174,
      "à¥ľ": 2175,
      "Ġà¤ħà¤ķà¥įà¤·": 2176,
      "Ġà¤®à¤Ĥà¤¦": 2177,
      "put": 2178,
      "Ġà¤īà¤®à¥įà¤®à¥Ģà¤¦": 2179,
      "à¥ĭà¤«": 2180,
      "Ġà¤īà¤¤à¥įà¤¸": 2181,
      "Ġà¤ļà¥ģà¤¨à¤¾à¤µ": 2182,
      "\"à¤®": 2183,
      "Ġà¤¨à¤¿à¤°": 2184,
      "Ġà¤ķà¥ĥà¤·à¤¿": 2185,
      "à¤ªà¥įà¤°à¤¶à¥įà¤¨à¤ĥ": 2186,
      "Ġà¤¤à¤¾à¤ª": 2187,
      "du": 2188,
      "à¥ĩà¤Ĥà¤¡": 2189,
      "Ġà¤®à¤ľà¤¬": 2190,
      "à¤¶à¥Ģà¤²": 2191,
      "\"\"": 2192,
      "Ġà¤ķà¥Īà¤²": 2193,
      "à¥ĥà¤Ĥà¤ĸà¤²à¤¾": 2194,
      "Ġà¤¸à¥įà¤¥à¤¾à¤ªà¤¿à¤¤": 2195,
      "à¥ĩà¤¡à¤¼": 2196,
      "à¤¾à¤ķà¤¾à¤°": 2197,
      "à¤¸à¤Ĥ": 2198,
      "à¥ĩà¤Ĥà¤Ĺà¥ĩ": 2199,
      "Ġà¤¸à¥Īà¤¨": 2200,
      "Ġà¤¨à¥Ī": 2201,
      "Ġà¤¸à¤¹à¤¾à¤¯": 2202,
      "Ġà¤īà¤ªà¤¯à¥ĭà¤Ĺà¤ķà¤°à¥įà¤¤à¤¾": 2203,
      "Ġà¤¸à¤®à¤°à¥įà¤¥à¤¨": 2204,
      "Ġà¤¦à¥ĩà¤ĸà¤¾": 2205,
      "ew": 2206,
      "Ġà¤ķà¤¾à¤«à¥Ģ": 2207,
      "à¥Ģà¤ª": 2208,
      "Ġà¤ľà¤¾à¤¨à¤µà¤°": 2209,
      "Ġà¤¸à¤Ĥà¤¤": 2210,
      "low": 2211,
      "Ġà¤«à¤¼à¤¿à¤²à¥įà¤®": 2212,
      "à¤¾à¤°à¥įà¤¡": 2213,
      "Ġpo": 2214,
      "Ġà¤µà¥Ģ": 2215,
      "rit": 2216,
      "Ġà¤ĸà¤¿à¤²à¤¾à¤«": 2217,
      "à¥įà¤¯à¥Ĥà¤Łà¤°": 2218,
      "Ġà¤¸à¤ķà¥įà¤·": 2219,
      "Ġà¤¸à¥ĩà¤Ł": 2220,
      "à¤¨à¤¿à¤ķ": 2221,
      "à¤§à¤¿": 2222,
      "Ġà¤¸à¤ķà¥įà¤·à¤®": 2223,
      "Ġar": 2224,
      "Ġà¤¸à¤¾à¤¹à¤¿à¤¤à¥įà¤¯": 2225,
      "Ġà¤Ńà¤µà¤¿à¤·à¥įà¤¯": 2226,
      "Ġà¤²à¤Ĺà¤¤à¤¾": 2227,
      "reate": 2228,
      "Ġfrom": 2229,
      "....": 2230,
      "cc": 2231,
      "à¥«": 2232,
      "Ġad": 2233,
      "Ġà¤Ĩà¤¨à¥ĩ": 2234,
      "à¥ģà¤ģ": 2235,
      "à¤¶à¤¨": 2236,
      "sit": 2237,
      "umb": 2238,
      "Ġà¤µà¤¾à¤ªà¤¸": 2239,
      "ical": 2240,
      "Ġà¤ªà¥Įà¤§": 2241,
      "Ġà¤¸à¥įà¤¥à¤¾à¤¨à¥Ģà¤¯": 2242,
      "Ġà¤¬à¥įà¤°à¤¿à¤Ł": 2243,
      "Ġà¤Ĺà¥ĭ": 2244,
      "à¥Ĥà¤°à¥įà¤¤": 2245,
      "Ġà¤ķà¤µ": 2246,
      "Ġà¤ĺà¥ĭ": 2247,
      "à¥Īà¤Ł": 2248,
      "our": 2249,
      "à¤¨à¥įà¤§": 2250,
      "Ġà¤¸à¤®à¤¸à¥įà¤¯": 2251,
      "ile": 2252,
      "à¥Ģà¤¡à¤¿à¤¯à¤¾": 2253,
      "à¤Łà¤¾": 2254,
      "à¥ĩà¤²à¥Ģ": 2255,
      "Ġà¤®à¤¶": 2256,
      "Ġà¤¹à¤¿à¤¸à¥įà¤¸à¤¾": 2257,
      ".)": 2258,
      ".-": 2259,
      "all": 2260,
      "Ġà¤ķà¥ģ": 2261,
      "Ġà¤ħà¤«": 2262,
      "Ġà¤°à¤¿à¤ªà¥ĭà¤°à¥įà¤Ł": 2263,
      "Ġà¤¸à¤Ĥà¤¶": 2264,
      "Ġà¤¥à¥Ģà¤Ĥ": 2265,
      "à¤ķà¥įà¤¯à¤¾": 2266,
      "ĠĠĠĠĠĠĠĠĠĠĠ": 2267,
      "Ġà¤Ĩà¤®à¤¤à¥Įà¤°": 2268,
      "à¥ĩà¤Ĺ": 2269,
      "Ġà¤ħà¤ªà¥įà¤°": 2270,
      "Ġà¤łà¥Ģà¤ķ": 2271,
      "à¥Ģà¤¤": 2272,
      "à¤¾à¤ľà¤¼": 2273,
      "Ġà¤ĩà¤ķ": 2274,
      "à¤¾à¤¯à¤²": 2275,
      "Ġà¤¸à¥Ģà¤®": 2276,
      "ount": 2277,
      "Ġà¤®à¤¹à¥Ģ": 2278,
      "Ġà¤ĸà¤°à¥Ģà¤¦": 2279,
      "Ġà¤¸à¤¹à¤¾à¤¯à¤¤à¤¾": 2280,
      "Ġà¤®à¤¾à¤ª": 2281,
      "Ġà¤°à¤¿à¤ķ": 2282,
      "à¤Łà¥įà¤Ł": 2283,
      "à¥īà¤ª": 2284,
      "ime": 2285,
      "Ġà¤ľà¥įà¤¯à¤¾à¤¦": 2286,
      "Ġà¤µà¤¿à¤¸à¥įà¤¤à¤¾à¤°": 2287,
      "Ġà¤ħà¤¨à¥įà¤¤à¤°à¥įà¤Ĺà¤¤": 2288,
      "à¤īà¤¤à¥įà¤¤à¤°à¤ĥ": 2289,
      "Ġà¤¸à¥įà¤¨": 2290,
      "100": 2291,
      "Ġà¤ªà¤¹à¤²à¤¾": 2292,
      "Ġà¤¬à¤¾à¤²": 2293,
      "à¤ľà¥Ģà¤µ": 2294,
      "Ġà¤¹à¤¿à¤¸à¥įà¤¸": 2295,
      "Ġà¤¡à¤¿à¤ľà¤¾à¤ĩà¤¨": 2296,
      "ext": 2297,
      "ast": 2298,
      "à¤°à¥Ĥà¤ª": 2299,
      "Ġà¤¨à¤®": 2300,
      "Ġà¤«à¥įà¤²": 2301,
      "à¤¿à¤¯à¤¾à¤Ī": 2302,
      "à¥ĩà¤¬à¤²": 2303,
      "Ġà¤ªà¥Ģà¤Ľ": 2304,
      "Ġà¤¸à¥ģà¤µà¤¿à¤§": 2305,
      "Ġà¤¸à¥įà¤µà¤¤à¤Ĥà¤¤à¥įà¤°": 2306,
      "à¤¾à¤ģà¤ļ": 2307,
      "Ġà¤ªà¥ģà¤°à¥ģà¤·": 2308,
      "Ġà¤ªà¤¿à¤Ľà¤²à¥ĩ": 2309,
      "Ġà¤Ĩà¤Ĥà¤§": 2310,
      "Ġà¤¯à¥Ĥà¤¨": 2311,
      "av": 2312,
      "Ġà¤ªà¥ĥà¤¥": 2313,
      "Ġà¤ļà¤¯à¤¨": 2314,
      "Ġà¤µà¥įà¤¯à¤¾à¤ªà¤ķ": 2315,
      "Ġà¤¸à¤Ĥà¤µ": 2316,
      "Ġà¤µà¥ĥà¤¦à¥įà¤§à¤¿": 2317,
      "Ġà¤ļà¤°": 2318,
      "Ġà¤ķà¤®à¥Ģ": 2319,
      "à¤®à¥ĩà¤Ĥà¤Ł": 2320,
      "à¥ĩà¤¶à¤¾": 2321,
      "à¤¨à¤¿": 2322,
      "Ġà¤ķà¤°à¥įà¤®": 2323,
      "à¥ĩà¤Ĥà¤¦": 2324,
      "Ġà¤¤à¤²": 2325,
      "ang": 2326,
      "ph": 2327,
      "à¤¿à¤ķà¥ĭà¤£": 2328,
      "Ġà¤Ńà¥Ĥà¤®à¤¿à¤ķà¤¾": 2329,
      "Ġà¤Ĩà¤¨": 2330,
      "Ġà¤¦à¥ĩà¤¶à¥ĭà¤Ĥ": 2331,
      "à¤¤à¤¿à¤¯à¥ĭà¤Ĥ": 2332,
      "Ġà¤ªà¤°à¤¿à¤¯": 2333,
      "com": 2334,
      "Ġà¤ªà¥įà¤°à¤¸à¤¿à¤¦à¥įà¤§": 2335,
      "à¤°à¥įà¤§": 2336,
      "à¥īà¤Ĺ": 2337,
      "à¤¿à¤µà¤¾à¤°": 2338,
      "Ġà¤¤à¤ķà¤¨à¥Ģà¤ķ": 2339,
      "Ġà¤ħà¤¨à¥ģà¤®à¤¤à¤¿": 2340,
      "Ġhe": 2341,
      "(à¤ħ": 2342,
      "Ġà¤ĸà¤¾à¤¦à¥įà¤¯": 2343,
      "ations": 2344,
      "Ġà¤Ĩà¤Ĥà¤§à¥įà¤°": 2345,
      "Ġà¤ıà¤Ĥà¤¡": 2346,
      "à¤ªà¤¤à¤¿": 2347,
      "Ġà¤¬à¥Īà¤ł": 2348,
      "à¤ıà¤¨": 2349,
      "ĠĠĠĠĠ": 2350,
      "Ġà¤¸à¥įà¤Łà¥įà¤°": 2351,
      "ial": 2352,
      "Ġà¤Ĩà¤°à¥įà¤¥": 2353,
      "Ġà¤¸à¥ī": 2354,
      "à¥ĭà¤°à¥Ģ": 2355,
      "Ġà¤¸à¥ģà¤Ŀ": 2356,
      "Ġà¤ıà¤¡": 2357,
      "à¤®à¤¤": 2358,
      "à¤¸à¤¾à¤¨": 2359,
      "Ġà¤¬à¥ī": 2360,
      "Ġà¤¶à¤¤": 2361,
      "Ġà¤®à¥ĥà¤¤à¥įà¤¯à¥ģ": 2362,
      "à¤¤à¤¾à¤²": 2363,
      "Ġà¤µà¤¾à¤¸à¥įà¤¤à¤µà¤¿à¤ķ": 2364,
      "Ġà¤ķà¥ĭà¤¶à¤¿à¤¶": 2365,
      "ps": 2366,
      "Ġà¤¦à¥ĭà¤¸à¥įà¤¤": 2367,
      "Ġà¤¸à¤®à¥ģà¤¦à¤¾à¤¯": 2368,
      "âĢĵ": 2369,
      "Ġà¤ķà¤ł": 2370,
      "Ġà¤¸à¤¿à¤¸à¥įà¤Ł": 2371,
      "ode": 2372,
      "ice": 2373,
      "Ġr": 2374,
      "Ġà¤ķà¥įà¤µ": 2375,
      "Ġà¤¬à¥ĩà¤Ł": 2376,
      "Ġà¤ľà¥Īà¤¸à¥Ģ": 2377,
      "40": 2378,
      "Ġà¤µà¥įà¤¯à¤µà¤¹à¤¾à¤°": 2379,
      "ble": 2380,
      "à¥īà¤°à¥įà¤®": 2381,
      "Ġà¤¶à¥įà¤°à¥ĥà¤Ĥà¤ĸà¤²à¤¾": 2382,
      "à¤¬à¤²": 2383,
      "à¥ĩà¤ļ": 2384,
      "ĠO": 2385,
      "Ġà¤®à¤Ĥà¤¦à¤¿à¤°": 2386,
      "à¤¾à¤Ĺà¤°": 2387,
      "Ġà¤ķà¥Īà¤Ĥ": 2388,
      "Ġà¤¹à¤®à¥ĩà¤¶à¤¾": 2389,
      "à¥ª": 2390,
      "Ġà¤ªà¥ĭà¤°à¥įà¤Łà¤²": 2391,
      "à¥įà¤µà¤°": 2392,
      "ase": 2393,
      "form": 2394,
      "à¥įà¤Ń": 2395,
      "Ġà¤ķà¥ĥà¤ªà¤¯à¤¾": 2396,
      "Ġà¤ľà¤¿à¤¨à¥įà¤¹à¥ĩà¤Ĥ": 2397,
      "Ġà¤°à¤ķà¥įà¤¤": 2398,
      "Ġà¤Ĳà¤¸à¥Ģ": 2399,
      "à¤¿à¤¨à¤¿à¤§": 2400,
      "oo": 2401,
      "à¤µà¤°à¥įà¤ķ": 2402,
      "à¥Ģà¤ķà¥ĥà¤¤": 2403,
      "à¥Īà¤ķà¥įà¤¸": 2404,
      "Ġà¤®à¥Īà¤Ĥà¤¨à¥ĩ": 2405,
      "Ġà¤µà¤°à¥įà¤£à¤¨": 2406,
      "Ġat": 2407,
      "21": 2408,
      "Ġà¤īà¤¸à¤ķà¤¾": 2409,
      "Ġà¤¯à¥Ĥà¤°à¥ĭà¤ª": 2410,
      "Ġà¤Ĩà¤ªà¤ķà¤¾": 2411,
      "Ġà¤ªà¤¾à¤°à¥įà¤Łà¥Ģ": 2412,
      "Ġà¤°à¤ĸà¤¤à¥ĩ": 2413,
      "Ġà¤ĺà¤Ĥà¤Ł": 2414,
      "Ġà¤²à¤Ĺà¤¾": 2415,
      "Ġà¤ķà¤¾à¤Ĥ": 2416,
      "Ġà¤¸à¥Ģà¤®à¤¾": 2417,
      "Ġà¤µà¤¾à¤°": 2418,
      "à¤¾à¤ªà¤¨": 2419,
      "Ġà¤¬à¤¸": 2420,
      "à¤ĳ": 2421,
      "Ġà¤µà¥įà¤¯à¤ķà¥įà¤¤à¤¿à¤Ĺà¤¤": 2422,
      "Ġà¤¸à¥ģà¤°à¤ķà¥įà¤·à¤¿à¤¤": 2423,
      "à¤¾à¤ģà¤ķà¤¿": 2424,
      "ary": 2425,
      "ther": 2426,
      "Ġpl": 2427,
      "Ġà¤Ĩà¤¬": 2428,
      "à¥ģà¤²à¤¾à¤Ī": 2429,
      "Ġà¤ĩà¤¸à¥įà¤¤": 2430,
      "à¥Ĥà¤Ĥ": 2431,
      "à¥įà¤Ĺà¥ĭà¤°": 2432,
      "à¤¿à¤¯à¤²": 2433,
      "à¤¿à¤ķà¥ĩà¤Ł": 2434,
      "Ġà¤¹à¥ĭà¤Ĥà¤Ĺà¥ĩ": 2435,
      "Ġà¤ªà¤¿à¤¤à¤¾": 2436,
      "à¤¾à¤¯à¥Ģ": 2437,
      "à¤Ĥà¤ªà¤°": 2438,
      "à¥Įà¤¦à¥įà¤¯à¥ĭà¤Ĺ": 2439,
      "Ġà¤¸à¤®à¥Ģà¤ķà¥įà¤·à¤¾": 2440,
      "Ġà¤®à¤¾à¤®à¤²à¥ĩ": 2441,
      "Ġà¤¸à¥Į": 2442,
      "Ġà¤¸à¤®à¥įà¤®à¤¾à¤¨": 2443,
      "In": 2444,
      "Ġà¤¸à¥Ĥà¤°": 2445,
      "Ġà¤īà¤®à¥įà¤°": 2446,
      "Ġà¤¸à¤Ĥà¤Ńà¤¾à¤µà¤¨à¤¾": 2447,
      "à¤Ĥà¤ľà¤¨": 2448,
      "à¥ĩà¤¦à¤¨": 2449,
      "rint": 2450,
      "ub": 2451,
      "Ġà¤¸à¤¾à¤°à¥įà¤µ": 2452,
      "à¤Łà¥įà¤°": 2453,
      "à¤¥à¤®": 2454,
      "Ġà¤ªà¥Ĥà¤°à¥ĩ": 2455,
      "Ġà¤²à¤¾à¤²": 2456,
      "à¥ĭà¤§à¤¿à¤¤": 2457,
      "Ġà¤ªà¥įà¤°à¤¤à¤¿à¤¨à¤¿à¤§": 2458,
      "Ġà¤īà¤¦à¥įà¤¯à¥ĭà¤Ĺ": 2459,
      "Ġà¤ľà¤¾à¤²": 2460,
      "à¤°à¥įà¤ª": 2461,
      "Ġà¤Ĺà¤¤à¤¿": 2462,
      "Ġà¤®à¥ĩà¤°à¥ĩ": 2463,
      "Ġà¤µà¤¿à¤Ńà¤¾à¤ľ": 2464,
      "Ġà¤¨à¥ĩà¤Ł": 2465,
      "Ġà¤¸à¤ķà¤¾à¤°": 2466,
      "Ġà¤Ĩà¤§à¤¾à¤°à¤¿à¤¤": 2467,
      "Ġà¤¸à¤¿à¤¸à¥įà¤Łà¤®": 2468,
      "Ġà¤¦à¤¶à¤ķ": 2469,
      "à¥įà¤¯à¤¾à¤¸": 2470,
      "à¤®à¤¨": 2471,
      "à¥ĭà¤ľà¤¿à¤¤": 2472,
      "Ġà¤µà¤¿à¤§à¤¾à¤¨": 2473,
      "Ġà¤¸à¤ķà¤¾à¤°à¤¾à¤¤à¥įà¤®à¤ķ": 2474,
      "Ġà¤®à¤¿à¤¨": 2475,
      "Ġà¤ªà¤¾à¤¯à¤¾": 2476,
      "à¤ķà¥įà¤°à¤®à¤£": 2477,
      "ous": 2478,
      "Ġà¤¤à¤¥": 2479,
      "à¤¸à¤Ĥà¤ĸ": 2480,
      "à¤Łà¤¿à¤²": 2481,
      "Ġà¤¨à¥įà¤¯à¤¾à¤¯": 2482,
      "Ġà¤¸à¤¹à¤¯à¥ĭà¤Ĺ": 2483,
      "der": 2484,
      "Ġà¤Ĩà¤ķà¤°à¥įà¤·": 2485,
      "à¤¾à¤¹à¥Ģ": 2486,
      "Ġà¤¸à¤¿à¤¦à¥įà¤§à¤¾à¤Ĥà¤¤": 2487,
      "\")": 2488,
      "Ġà¤Ńà¥Į": 2489,
      "à¤Łà¤²": 2490,
      "Ġtheir": 2491,
      "à¤¦à¤®": 2492,
      "à¤Ĺà¤¢à¤¼": 2493,
      "Ġà¤Ĺà¤£à¤¨à¤¾": 2494,
      "Ġà¤¤à¤¾à¤ªà¤®à¤¾à¤¨": 2495,
      "Ġà¤¸à¤Ĥà¤ķà¥ĩà¤¤": 2496,
      "Ġà¤¸à¤®à¤¾à¤ªà¥įà¤¤": 2497,
      "Ġà¤ªà¥įà¤°à¤¤à¤¿à¤ķà¥įà¤°à¤¿à¤¯à¤¾": 2498,
      "Ġà¤Ĺà¤²": 2499,
      "Ġà¤¤à¤Ł": 2500,
      "24": 2501,
      "Ġà¤ĩà¤¸à¥Ģ": 2502,
      "Ġà¤Ńà¥ĩà¤ľ": 2503,
      "Ġà¤ľà¤¿à¤²à¤¾": 2504,
      "Ġà¤ªà¥įà¤°à¤¸à¥įà¤¤à¥ģà¤¤": 2505,
      "à¤ľà¤¾": 2506,
      "Ġà¤ľà¥įà¤ŀà¤¾à¤¨": 2507,
      "Ġà¤¶à¤¤à¤¾à¤¬": 2508,
      "Ġà¤¸à¤µà¤¾à¤²": 2509,
      "Ġà¤Ĩà¤Ĺ": 2510,
      "Ġà¤°à¥ĭ": 2511,
      "Ġà¤ªà¥ĥà¤¥à¥įà¤µà¥Ģ": 2512,
      "Ġà¤µà¤¿à¤ª": 2513,
      "Ġà¤ªà¥ĥà¤·à¥įà¤ł": 2514,
      "à¤Ķ": 2515,
      "ide": 2516,
      "Ġà¤ķà¤Ĥà¤ªà¥įà¤¯à¥Ĥà¤Łà¤°": 2517,
      "Ġx": 2518,
      "Ġà¤Ĺà¤¾à¤Ĥ": 2519,
      "Ġà¤ªà¤¹à¥ģà¤ģ": 2520,
      "Ġà¤¹à¤¾à¤²à¤¾à¤ģà¤ķà¤¿": 2521,
      "Ġà¤¸à¤Ĥà¤Ńà¤¾à¤µà¤¿à¤¤": 2522,
      "à¤¶à¥Ģ": 2523,
      "ry": 2524,
      "Ġj": 2525,
      "Ġà¤¸à¤Ĥà¤ªà¤°à¥įà¤ķ": 2526,
      "à¤¬à¥įà¤²à¥įà¤¯à¥Ĥ": 2527,
      "Ġà¤°à¤¾à¤¤": 2528,
      "Ġà¤¨à¥ģà¤ķ": 2529,
      "Ġà¤¬à¤¾à¤ľ": 2530,
      "Ġà¤ªà¥įà¤°à¥Įà¤¦à¥įà¤¯à¥ĭà¤Ĺ": 2531,
      "ake": 2532,
      "Ġà¤¦à¥ĥà¤·à¥įà¤Łà¤¿à¤ķà¥ĭà¤£": 2533,
      "Ġà¤ļà¥Ģà¤ľ": 2534,
      "Ġhave": 2535,
      "à¤¯à¤°": 2536,
      "à¤¿à¤Ńà¤¾à¤·": 2537,
      "Ġà¤¨à¤¿à¤°à¥įà¤£": 2538,
      "à¤¾à¤Ĭà¤ģ": 2539,
      "Ġres": 2540,
      "ight": 2541,
      "à¤µà¤¿à¤ķà¤²à¥įà¤ª": 2542,
      "Ġà¤Ĩà¤°à¥įà¤¥à¤¿à¤ķ": 2543,
      "Ġà¤īà¤¦à¥įà¤¦à¥ĩà¤¶à¥įà¤¯": 2544,
      "Ġà¤ħà¤¤à¥įà¤¯": 2545,
      "à¥įà¤¯à¤¤à¤¾": 2546,
      "à¤Ĺà¤²": 2547,
      "Ġà¤°à¥ĭà¤®": 2548,
      "Ġà¤¦à¥įà¤µà¥Ģà¤ª": 2549,
      "à¤Ĥà¤¡à¤²": 2550,
      "Ġà¤ªà¥įà¤°à¤ľà¤¾à¤¤": 2551,
      "Ġà¤¤à¤¾à¤²à¤¿à¤ķà¤¾": 2552,
      "Ġà¤ĩà¤Ĥà¤¡": 2553,
      "à¤¸à¤°à¥Ģ": 2554,
      "Ġà¤¦à¥ĩà¤¤à¥Ģ": 2555,
      "Ġà¤ķà¤¥": 2556,
      "Ġà¤ªà¤¾à¤²à¤¨": 2557,
      "Ġà¤°à¥Ĥ": 2558,
      "à¤ļà¤¾": 2559,
      "(à¤ķ": 2560,
      "Ġà¤¦à¥ĩà¤ĸà¤¨à¥ĩ": 2561,
      "Ġà¤¤à¤¿à¤¥": 2562,
      "à¥īà¤²à¤°": 2563,
      "Ġà¤ļà¥ģà¤¨à¥Į": 2564,
      "à¤ªà¥įà¤°à¤¿à¤¯": 2565,
      "Ġà¤®à¥Įà¤¸à¤®": 2566,
      "Ġà¤ķà¤²à¤¾": 2567,
      "à¤ľà¤¨à¤¿à¤ķ": 2568,
      "à¤¨à¥ĩà¤ķ": 2569,
      "Ġyour": 2570,
      "Ġà¤ªà¥įà¤°à¤ķà¤¾à¤¶à¤¿à¤¤": 2571,
      "Ġà¤¨à¤¿à¤¶à¥įà¤ļà¤¿à¤¤": 2572,
      "à¥ĩà¤¦à¤¾à¤°": 2573,
      "ard": 2574,
      "Ġà¤¦à¤¿à¤ĸà¤¾à¤Ī": 2575,
      "Ġà¤ķà¥ģà¤®à¤¾à¤Ĭà¤ģ": 2576,
      "à¥ĩà¤ķà¥įà¤Łà¥įà¤°": 2577,
      "Ġà¤ķà¤¾à¤°à¥įà¤¬": 2578,
      "à¥ģà¤¨à¤¿à¤ķ": 2579,
      "22": 2580,
      "Ġà¤µà¤¿à¤¤à¥įà¤¤": 2581,
      "Ġà¤¨à¤¾à¤Ĺ": 2582,
      "ance": 2583,
      "Ġà¤Ĩà¤¬à¤¾à¤¦à¥Ģ": 2584,
      "Ġà¤īà¤ªà¤ļà¤¾à¤°": 2585,
      "Ġà¤°à¤¿à¤ķà¥īà¤°à¥įà¤¡": 2586,
      "Ġà¤¨à¤¾à¤®à¤ķ": 2587,
      "à¤¨à¥įà¤¦à¥įà¤°": 2588,
      "à¥ĩà¤¤à¤¾": 2589,
      "Ġà¤¸à¤Ĥà¤Ĺà¤łà¤¨": 2590,
      "Ġme": 2591,
      "à¤¯à¤Ĥ": 2592,
      "Ġà¤Ĺà¥ĭà¤²": 2593,
      "con": 2594,
      "Ġà¤®à¤¶à¥Ģà¤¨": 2595,
      "à¤¸à¤²": 2596,
      "Ġà¤Ńà¥Ģà¤¤à¤°": 2597,
      "Ġà¤¤à¤°à¥įà¤ķ": 2598,
      "à¤¾à¤¸à¥įà¤ķ": 2599,
      "Ġà¤®à¤¾à¤²": 2600,
      "fer": 2601,
      "Ġà¤Ľà¥ĭà¤Łà¥Ģ": 2602,
      "à¤¾à¤°à¥įà¤Ł": 2603,
      "Ġà¤¸à¤®à¥ģà¤¦à¥įà¤°": 2604,
      "à¤Ĥà¤§à¤¾à¤¨": 2605,
      "à¤¾à¤ļà¥Ģà¤¨": 2606,
      "ath": 2607,
      "Ġif": 2608,
      "à¤¤à¥įà¤¤à¤¿": 2609,
      "Ġà¤¸à¤¨": 2610,
      "Ġà¤°à¤¹à¤¤à¥ĩ": 2611,
      "Ġà¤Ĩà¤¤à¥įà¤®": 2612,
      "à¥Ĥà¤¬à¤°": 2613,
      "à¤ķà¤¾à¤°à¤¾à¤¤à¥įà¤®à¤ķ": 2614,
      "Ġà¤ľà¥Ĥà¤¨": 2615,
      "Ġà¤¶à¤ķà¥įà¤¤à¤¿": 2616,
      "à¤¸à¤¤": 2617,
      "à¤µà¤¾à¤¯à¥ģ": 2618,
      "à¤¿à¤¹à¤¾à¤°": 2619,
      "Ġà¤¶à¤¤à¤¾à¤¬à¥įà¤¦à¥Ģ": 2620,
      "à¤¿à¤ķà¤¾à¤ĵà¤Ĥ": 2621,
      "à¤¿à¤ķà¤²": 2622,
      "...": 2623,
      "Ġà¤®à¤¹à¤¿à¤²à¤¾à¤ĵà¤Ĥ": 2624,
      "à¤¶à¥įà¤°": 2625,
      "gr": 2626,
      "Ġà¤µà¥įà¤¯à¤µà¤¸à¤¾à¤¯": 2627,
      "à¤®à¤°": 2628,
      "à¤°à¥įà¤£": 2629,
      "Ġà¤Ĺà¥Īà¤°": 2630,
      "Ġà¤°à¥ĩà¤ĸ": 2631,
      "Ġà¤ľà¤Łà¤¿à¤²": 2632,
      "ions": 2633,
      "ĠTh": 2634,
      "à¥®": 2635,
      "Ġà¤¸à¤¾à¤®à¤¨à¥ĩ": 2636,
      "Ġà¤ħà¤¨à¥ģà¤ķ": 2637,
      "Ġà¤¨à¤¯à¤¾": 2638,
      "Ġà¤¨à¥ģà¤ķà¤¸à¤¾à¤¨": 2639,
      "à¥įà¤¯à¤¾à¤°": 2640,
      "Ġà¤Ńà¥Ĥà¤®à¤¿": 2641,
      "ap": 2642,
      "Ġà¤ªà¥Ģà¤Ľà¥ĩ": 2643,
      "Ġà¤ľà¤¿à¤¨à¤®à¥ĩà¤Ĥ": 2644,
      "Ġà¤¨à¤¿à¤°à¥įà¤£à¤¯": 2645,
      "à¤¿à¤·à¥įà¤ł": 2646,
      "Ġà¤¸à¤ªà¥įà¤¤": 2647,
      "Ġà¤ķà¤¿à¤¨": 2648,
      "Ġà¤µà¤¨": 2649,
      "Ġà¤²à¤Ĺà¤¾à¤¨à¥ĩ": 2650,
      "Ġà¤²à¤¾à¤ĩ": 2651,
      "à¤Ĥà¤Ĺà¤¾": 2652,
      "Ġà¤¸à¤¾à¤°à¥įà¤µà¤ľà¤¨à¤¿à¤ķ": 2653,
      "Ġà¤ľà¤¿à¤®": 2654,
      "Ġà¤īà¤¤à¥įà¤¤à¤°à¥Ģ": 2655,
      "Ġà¤²à¤ķà¥įà¤·à¥įà¤¯": 2656,
      "Ġà¤¸à¤Ĥà¤ļà¤¾à¤°": 2657,
      "Ġà¤ķà¥įà¤°à¤®": 2658,
      "Ġà¤®à¥Ĥà¤²à¥įà¤¯à¤¾à¤Ĥà¤ķà¤¨": 2659,
      "Ġà¤ħà¤¨à¥ģà¤¸à¤Ĥà¤§à¤¾à¤¨": 2660,
      "Ġà¤®à¥Ģà¤¡à¤¿à¤¯à¤¾": 2661,
      "Ġà¤ıà¤²à¥įà¤Ĺà¥ĭà¤°": 2662,
      "Ġnew": 2663,
      "à¤Ńà¤¾à¤°à¤¤": 2664,
      "Ġà¤¶à¥Ģà¤°à¥įà¤·à¤ķ": 2665,
      "Ġà¤ªà¥įà¤°à¤¶à¤¿à¤ķà¥įà¤·": 2666,
      "Ġuse": 2667,
      "Ġà¤²à¤¿à¤¯à¥ĩ": 2668,
      "à¤¨à¤²à¤¾à¤ĩà¤¨": 2669,
      "Ġà¤«à¥ģà¤Ł": 2670,
      "Ġà¤Ĩà¤ĩ": 2671,
      "à¥įà¤ķà¤¿": 2672,
      "Ġà¤¸à¤¿à¤¤": 2673,
      "Ġà¤¸à¤Ĥà¤ĸà¥įà¤¯": 2674,
      "à¤Ĺà¥ĭà¤²": 2675,
      "Ġà¤¦à¥Ĥà¤¸à¤°à¥Ģ": 2676,
      "Ġà¤¨à¤¿à¤¯à¤Ĥà¤¤à¥įà¤°à¤£": 2677,
      "-à¤¸à¤¾à¤¥": 2678,
      "ass": 2679,
      "à¥įà¤Łà¥Ĥà¤¬à¤°": 2680,
      "à¥ĩà¤®à¤¾à¤²": 2681,
      "à¤ĸà¤¿à¤®": 2682,
      "Ġà¤ªà¥įà¤°à¥ĭà¤Ł": 2683,
      "à¤¤à¤¿à¤¹à¤¾à¤¸à¤¿à¤ķ": 2684,
      "Ġà¤ľà¥īà¤¨": 2685,
      "Ġà¤°à¤¾à¤®": 2686,
      "Ġà¤¸à¤¹à¤¿à¤¤": 2687,
      "à¤¾à¤¸à¥įà¤Ł": 2688,
      "urn": 2689,
      "Ġà¤®à¤°": 2690,
      "ated": 2691,
      "Ġà¤¸à¤Ĥà¤¦à¥ĩà¤¶": 2692,
      "à¤°à¥įà¤²": 2693,
      "Ġà¤īà¤²à¥įà¤²à¥ĩà¤ĸ": 2694,
      "à¥¬": 2695,
      "à¤¾à¤ķà¤¿à¤¸à¥įà¤¤à¤¾à¤¨": 2696,
      "Ġà¤²à¤¾à¤ĸ": 2697,
      "Ġà¤ħà¤¨à¥ģà¤ķà¥Ĥà¤²": 2698,
      "Ġà¤ªà¤¾à¤Ĥà¤ļ": 2699,
      "Ġà¤¸à¥ĩà¤¨à¤¾": 2700,
      "Ġà¤ĩà¤¸à¥įà¤¤à¥ĩà¤®à¤¾à¤²": 2701,
      "à¤¬à¤¦à¥įà¤§": 2702,
      "à¤ªà¤¾à¤²": 2703,
      "Ġà¤ªà¥Īà¤°": 2704,
      "Ġà¤ĩà¤Ĥà¤ľ": 2705,
      "à¤Ĥà¤¥": 2706,
      "Ġà¤®à¤¹à¤¸": 2707,
      "Ġà¤ļà¤²à¤¤à¤¾": 2708,
      "Ġà¤ªà¥Ĥà¤Ľ": 2709,
      "Ġà¤ªà¥įà¤°à¤¤à¥Ģ": 2710,
      "Ġà¤¸à¤Ĥà¤¸à¥įà¤¥à¤¾à¤¨": 2711,
      "ces": 2712,
      "à¥Ģà¤°à¥ĩ": 2713,
      "Ġà¤¦à¤¿à¤²à¥įà¤²à¥Ģ": 2714,
      "Ġà¤¤à¤Ĥà¤¤à¥įà¤°": 2715,
      "ost": 2716,
      "Ġà¤°à¤£": 2717,
      "Ġà¤®à¤¹à¤¸à¥Ĥà¤¸": 2718,
      "Ġà¤¸à¥ģà¤Ŀà¤¾à¤µ": 2719,
      "Ġà¤°à¤¾à¤ľà¤¾": 2720,
      "Ġà¤ķà¥īà¤²à¥ĩà¤ľ": 2721,
      "Ġà¤ªà¤°à¤¿à¤Ńà¤¾à¤·": 2722,
      "Ġà¤¨à¤¿à¤ķà¤²": 2723,
      "Ġà¤ķà¥Īà¤Ĥà¤¸à¤°": 2724,
      "Ġi": 2725,
      "Ġà¤ĺà¤Łà¤¨": 2726,
      "Ġà¤ķà¥įà¤°à¤¿à¤ķà¥ĩà¤Ł": 2727,
      "à¤¿à¤¯à¤¾à¤¨": 2728,
      "Ġà¤ªà¥Īà¤¦à¤¾": 2729,
      "Ġà¤Ĺà¤¢à¤¼": 2730,
      "Ġà¤¬à¤²à¥įà¤ķà¤¿": 2731,
      "Ġà¤¶à¤¾à¤¯à¤¦": 2732,
      "à¥ģà¤¡": 2733,
      "à¤µà¤¿": 2734,
      "Ġà¤ķà¤Ł": 2735,
      "à¤§à¤¿à¤ķ": 2736,
      "à¤¿à¤¸à¥įà¤¥": 2737,
      "Ġà¤ļà¤¿à¤Ĥ": 2738,
      "Ġà¤ķà¤¿à¤²": 2739,
      "à¤¬à¥īà¤²": 2740,
      "à¤µà¥ĩà¤¯à¤°": 2741,
      "Ġà¤ªà¥įà¤°à¤¬à¤Ĥà¤§à¤¨": 2742,
      "Ġà¤Ĺà¥įà¤°à¤¾à¤¹à¤ķ": 2743,
      "Ġà¤Ĺà¤Ĥ": 2744,
      "Ġà¤Ĺà¥įà¤°à¤¹": 2745,
      "à¤īà¤Łà¤ªà¥ģà¤Ł": 2746,
      "li": 2747,
      "à¥įà¤°à¤¾": 2748,
      "Ġà¤ħà¤µà¤§à¤¿": 2749,
      "Ġà¤ľà¥ĭà¤ĸà¤¿à¤®": 2750,
      "23": 2751,
      "ĠK": 2752,
      "Ġà¤²à¥ĭà¤ķà¤ªà¥įà¤°à¤¿à¤¯": 2753,
      "à¤Ńà¥Ģà¤°": 2754,
      "Ġà¤¶à¥įà¤°à¥ĩà¤£à¥Ģ": 2755,
      "Ġwas": 2756,
      "Ġà¤¸à¤Ĥà¤ķ": 2757,
      "à¥Ń": 2758,
      "Ġà¤¸à¤¿à¤°": 2759,
      "à¤¸à¤Ńà¤¾": 2760,
      "Ġà¤ħà¤ªà¤°": 2761,
      "Ġte": 2762,
      "Ġà¤¬à¤¨à¥Ģ": 2763,
      "à¤«à¤²": 2764,
      "ks": 2765,
      "Ġwill": 2766,
      "Ġà¤Ĺà¥ģà¤°": 2767,
      "à¤¯à¥Ģ": 2768,
      "Ġà¤¡à¥ī": 2769,
      "à¤¿à¤¬à¤Ĥà¤§": 2770,
      "à¤ļà¤°": 2771,
      "à¤Ĺà¥įà¤°à¥ĩà¤¸": 2772,
      "ef": 2773,
      "Ġà¤¸à¤®à¤Ŀà¤¨à¥ĩ": 2774,
      "Ġà¤ľà¥Īà¤¸à¤¾": 2775,
      "Ġà¤¬à¤¾à¤¤à¤ļà¥Ģ": 2776,
      "à¥Ĥà¤ķ": 2777,
      "(à¤¸": 2778,
      "Ġà¤ħà¤Ĥà¤Ĺà¥įà¤°à¥ĩà¤ľà¥Ģ": 2779,
      "ell": 2780,
      "Ġà¤¨à¥ĩà¤Łà¤µà¤°à¥įà¤ķ": 2781,
      "195": 2782,
      "ep": 2783,
      "à¤¾à¤°à¥įà¤ķ": 2784,
      "Ġà¤ĩà¤Ĥà¤Ĺ": 2785,
      "os": 2786,
      "Ġà¤¹à¥Īà¤Ĥà¤ĥ": 2787,
      "-à¤°": 2788,
      "Ġà¤¸à¤Ĥà¤°à¤ļà¤¨à¤¾": 2789,
      "Ġà¤®à¥Įà¤ľà¥Ĥà¤¦": 2790,
      "Ġà¤¤à¥ĩà¤²": 2791,
      "Ġà¤®à¤¹à¤¾à¤¨": 2792,
      "âĢĻ": 2793,
      "Ġà¤ļà¤²à¤¾": 2794,
      "Ġà¤¬à¥ĭà¤²": 2795,
      "Ġà¤®à¥ģà¤¦à¥įà¤¦": 2796,
      "à¤¾à¤¨à¥įà¤¤": 2797,
      "Ġà¤¸à¤ªà¥įà¤¤à¤¾à¤¹": 2798,
      "ru": 2799,
      "Ġà¤®à¤¾à¤¤à¤¾": 2800,
      "Ġà¤ĸà¥ĭ": 2801,
      "Ġà¤²à¥Į": 2802,
      "à¤ķà¥įà¤·à¥ĩà¤ª": 2803,
      "Ġà¤¸à¤®à¤¸à¥įà¤¯à¤¾à¤ĵà¤Ĥ": 2804,
      "Ġà¤®à¤¾à¤°à¥įà¤ķ": 2805,
      "Ġà¤°à¤¾à¤·à¥įà¤Łà¥įà¤°à¤ªà¤¤à¤¿": 2806,
      "Ġso": 2807,
      "Ġà¤ªà¥įà¤°à¥Įà¤¦à¥įà¤¯à¥ĭà¤Ĺà¤¿à¤ķà¥Ģ": 2808,
      "clud": 2809,
      "à¤Ķà¤°": 2810,
      "Ġà¤¨à¤ķà¤¾à¤°à¤¾à¤¤à¥įà¤®à¤ķ": 2811,
      "Ġà¤¨à¤¿à¤·à¥įà¤ķ": 2812,
      "à¤¾à¤¬à¤¾à¤¦": 2813,
      "Ġà¤°à¥ĩà¤²": 2814,
      "Ġà¤¹à¤¾à¤¸": 2815,
      "Ġà¤°à¤ĸà¥ĩà¤Ĥ": 2816,
      "Ġà¤®à¤ľà¤¬à¥Ĥà¤¤": 2817,
      "Ġà¤¤à¥Ģ": 2818,
      "Ġà¤®à¥ĭà¤Ł": 2819,
      "Ġà¤ªà¥įà¤°à¤µà¥ĩà¤¶": 2820,
      "à¤µà¤¾à¤¦à¥Ģ": 2821,
      "Ġà¤Ĺà¤Ĥà¤Ńà¥Ģà¤°": 2822,
      "Ġà¤¸à¤Ĥà¤¯": 2823,
      "à¤«à¥įà¤Ł": 2824,
      "Ġà¤²à¥ī": 2825,
      "Ġà¤²à¤Ĥà¤¬à¥ĩ": 2826,
      "à¥Īà¤ķà¥įà¤Ł": 2827,
      "à¤ķà¥įà¤ķ": 2828,
      "=\"": 2829,
      "Ġà¤²à¥ĩà¤ĸà¤ķ": 2830,
      "à¤Ĥà¤Ńà¤¿à¤ķ": 2831,
      "à¤¾à¤£à¤¿à¤ķ": 2832,
      "Ġà¤¡à¥īà¤ķ": 2833,
      "à¤Ĥà¤¤à¤°": 2834,
      "Ġà¤¸à¤¾à¤®à¤¨à¤¾": 2835,
      "Ġà¤®à¥ĩà¤²": 2836,
      "Ġà¤ªà¤°à¤¿à¤¯à¥ĭà¤ľà¤¨à¤¾": 2837,
      "Ġà¤¡à¥īà¤²à¤°": 2838,
      "à¤¾à¤īà¤Ĥà¤¡": 2839,
      "Ġà¤¸à¥įà¤¥à¤¾à¤ªà¤¨à¤¾": 2840,
      "Ġà¤¦à¤¿à¤¨à¥ĭà¤Ĥ": 2841,
      "Ġà¤ľà¥Ģà¤¤": 2842,
      "Ġà¤¦à¤¿à¤¶": 2843,
      "Ġà¤¨à¤¿à¤°à¥įà¤µ": 2844,
      "Ġà¤®à¤¤à¤²à¤¬": 2845,
      "Ġà¤®à¥ĩ": 2846,
      "à¤¬à¤¹": 2847,
      "Ġsi": 2848,
      "Ġà¤ªà¥įà¤°à¤¾à¤ļà¥Ģà¤¨": 2849,
      "Ġà¤¸à¤Ńà¤¾": 2850,
      "Ġà¤¦à¤²": 2851,
      "à¤¾à¤§à¤¿à¤ķ": 2852,
      "Ġà¤¸à¤¡à¤¼": 2853,
      "Ġà¤¤à¤¹à¤¤": 2854,
      "à¤ľà¤¼à¤°": 2855,
      "Ġà¤ĸà¥ģà¤¶": 2856,
      "-à¤ªà¥įà¤°": 2857,
      "Ġà¤¹à¤¿à¤¨à¥įà¤¦à¥Ģ": 2858,
      "Ġà¤ľà¥įà¤¯à¤¾à¤¦à¤¾": 2859,
      "Ġà¤ķà¥ĭà¤²": 2860,
      "Ġà¤¬à¤¿à¤ľ": 2861,
      "à¤¦à¤¯": 2862,
      "Ġhas": 2863,
      "Ġà¤¤à¤°à¥Ģà¤ķà¤¾": 2864,
      "à¤¾à¤¥à¤®à¤¿à¤ķ": 2865,
      "Ġqu": 2866,
      "Ġà¤ľà¤²à¤µà¤¾à¤¯à¥ģ": 2867,
      "Ġà¤¦à¥ĩà¤¨à¤¾": 2868,
      "Ġapp": 2869,
      "à¥Ĥà¤°à¥Ģ": 2870,
      "Ġà¤¦à¤°à¥įà¤ľ": 2871,
      "Ġà¤²à¤ķà¥įà¤·à¤£": 2872,
      "Ġà¤ªà¤¹à¤²": 2873,
      "Ġà¤®à¤¾à¤°à¥įà¤ļ": 2874,
      "Ġà¤īà¤¸à¤¸à¥ĩ": 2875,
      "Ġà¤ıà¤ľ": 2876,
      "à¤§à¤¾à¤¨à¥Ģ": 2877,
      "194": 2878,
      "60": 2879,
      "à¥įà¤°à¤¾à¤·à¥įà¤Łà¥įà¤°à¥Ģà¤¯": 2880,
      "Ġà¤ľà¤¿à¤¨à¥įà¤¹à¥ĭà¤Ĥà¤¨à¥ĩ": 2881,
      "à¤Ĥà¤Ĺà¥ĩ": 2882,
      "ÂłÂł": 2883,
      "Ġà¤ªà¥įà¤°à¤¥à¤®": 2884,
      "Ġà¤®à¥ĭ": 2885,
      "Ġà¤¸à¥įà¤µà¤¯à¤Ĥ": 2886,
      "à¤¦à¤°à¥įà¤¶": 2887,
      "Ġà¤Ĺà¥įà¤²": 2888,
      "à¤¾à¤²à¤¿à¤¤": 2889,
      "à¥Īà¤ª": 2890,
      "Ġà¤¬à¤¿à¤Ĥà¤¦": 2891,
      "Ġà¤«à¤²": 2892,
      "Ġà¤ħà¤«à¥įà¤°à¥Ģ": 2893,
      "-à¤Ĩ": 2894,
      "Ġà¤¹à¤®à¤¾à¤°à¥Ģ": 2895,
      "à¥ģà¤·à¥įà¤Ł": 2896,
      "Ġà¤ķà¤°à¥Ģ": 2897,
      "Ġcont": 2898,
      "Ġà¤µà¤¿à¤°à¥ĭà¤§": 2899,
      "Ġà¤µà¤¹à¤¾à¤ģ": 2900,
      "Ġà¤¦à¤¿à¤µ": 2901,
      "Ġà¤µà¤¾à¤¹": 2902,
      "Ġà¤ĳà¤¨à¤²à¤¾à¤ĩà¤¨": 2903,
      "ject": 2904,
      "à¥Īà¤°": 2905,
      "Ġà¤Ĺà¥Īà¤¸": 2906,
      "-à¤ľà¤¨à¥įà¤®": 2907,
      "à¤ħà¤ª": 2908,
      "Ġà¤¸à¤ķà¥įà¤°à¤¿à¤¯": 2909,
      "Ġà¤ªà¥įà¤°à¤¦à¤°à¥įà¤¶à¤¿à¤¤": 2910,
      "Ġcl": 2911,
      "à¥ĭà¤¤à¥įà¤¸": 2912,
      "à¤¾à¤Ĥà¤¤à¤¿": 2913,
      "à¤ªà¤¾à¤¸": 2914,
      "à¤¾à¤£à¥ģ": 2915,
      "à¤¿à¤²à¥Ģ": 2916,
      "Ġà¤ĭ": 2917,
      "ory": 2918,
      "Ġà¤īà¤¤à¥įà¤ªà¤¾à¤¦à¥ĭà¤Ĥ": 2919,
      "à¥ģà¤¸": 2920,
      "Ġà¤µà¤¿à¤¶à¥ĩà¤·à¤ľà¥įà¤ŀ": 2921,
      "Ġà¤ķà¤¬": 2922,
      "Ġà¤µà¤ľà¤¨": 2923,
      "Ġà¤®à¤¾à¤Ĥà¤Ĺ": 2924,
      "Ġab": 2925,
      "Ġà¤²à¤¿à¤ĸà¤¾": 2926,
      "Ġà¤ĸà¤¿à¤²à¤¾à¤¡à¤¼à¥Ģ": 2927,
      "Ġà¤ªà¤¹à¥ģà¤ģà¤ļ": 2928,
      "Ġà¤¸à¥Ģà¤§": 2929,
      "Ġà¤Ĺà¥ģà¤£à¤µ": 2930,
      "Ġà¤īà¤ļà¤¿à¤¤": 2931,
      "Ġà¤¤à¥ĩà¤ľà¥Ģ": 2932,
      "Ġà¤ıà¤²à¥įà¤Ĺà¥ĭà¤°à¤¿à¤¥": 2933,
      "à¤¾à¤īà¤¨": 2934,
      "ack": 2935,
      "Ġà¤¬à¥ģ": 2936,
      "Ġà¤ľà¤¾à¤¨à¤¤à¥ĩ": 2937,
      "ound": 2938,
      "à¤¶à¥ģ": 2939,
      "Ġà¤¥à¥ĭ": 2940,
      "à¤ªà¤¨": 2941,
      "Ġà¤Ĺà¤£à¤¿à¤¤": 2942,
      "Ġwor": 2943,
      "Ġà¤ħà¤¸à¥įà¤ª": 2944,
      "Ġà¤Ĩà¤¤à¤¾": 2945,
      "Ġnumb": 2946,
      "Ġà¤¸à¥ĩà¤²": 2947,
      "up": 2948,
      "Ġà¤¸à¤ķà¥ĩà¤Ĥ": 2949,
      "Ġà¤¬à¤ľà¤¾à¤¯": 2950,
      "Ġà¤¬à¤¾à¤¯": 2951,
      "Ġret": 2952,
      "Ġà¤Ķà¤¸à¤¤": 2953,
      "Ġà¤Ĳà¤¤à¤¿à¤¹à¤¾à¤¸à¤¿à¤ķ": 2954,
      "Ġà¤ķà¤¹à¤¨à¤¾": 2955,
      "Ġà¤ķà¤¨": 2956,
      "à¤¾à¤°à¤£": 2957,
      "à¤¨à¥įà¤¹à¥ĭà¤Ĥà¤¨à¥ĩ": 2958,
      "we": 2959,
      "Ġà¤¨à¤Ĥà¤¬à¤°": 2960,
      "à¤¡à¥įà¤¡": 2961,
      "\"à¤¸": 2962,
      "Ġà¤µà¥įà¤¯à¤¾à¤ªà¤¾à¤°": 2963,
      "Ġà¤Ĩà¤¯à¤¾": 2964,
      "Ġà¤Ĺà¥įà¤°à¥Ģ": 2965,
      "Ġà¤Ĩà¤§à¥ģà¤¨à¤¿à¤ķ": 2966,
      "à¤¦à¥ĩà¤¶": 2967,
      "ren": 2968,
      "ich": 2969,
      "Ġà¤ĺà¤Ĥà¤Łà¥ĩ": 2970,
      "Ġà¤ķà¤¾à¤ī": 2971,
      "Ġà¤ħà¤Ĥà¤¤à¤°à¤¿à¤ķà¥įà¤·": 2972,
      "Ġà¤¸à¤°à¤ķà¤¾à¤°à¥Ģ": 2973,
      "Ġà¤°à¤¾à¤ľà¤¨à¥Ģà¤¤à¤¿à¤ķ": 2974,
      "Ġà¤¹à¤¾à¤ģ": 2975,
      "----------------": 2976,
      "Ġà¤Ĺà¤¢à¤¼à¤µà¤¾à¤²": 2977,
      "Ġà¤®à¤¹à¥Ģà¤¨à¥ĩ": 2978,
      "à¤°à¥įà¤¤à¥Ģ": 2979,
      "Ġà¤®à¤¿à¤²à¤¤à¤¾": 2980,
      "Ġà¤¸à¥įà¤µà¤¸à¥įà¤¥": 2981,
      "Ġnot": 2982,
      "à¤¸à¥įà¤Łà¥įà¤°à¥ĩà¤²": 2983,
      "âĢĺ": 2984,
      "Ġà¤¹à¤¸à¥įà¤¤": 2985,
      "Ġà¤Ĩà¤²": 2986,
      "Ġà¤Ĩà¤ı": 2987,
      "Ġà¤¸à¤¾à¤Ŀ": 2988,
      "Ġà¤Ńà¤Ĺ": 2989,
      "à¤¾à¤ĩà¤ª": 2990,
      "Ġà¤¶à¥Īà¤²à¥Ģ": 2991,
      "Ġà¤ªà¥įà¤°à¤¾à¤¥à¤®à¤¿à¤ķ": 2992,
      "Ġà¤ħà¤Ĥà¤¦à¤°": 2993,
      "Ġà¤¦à¥ĩà¤µ": 2994,
      "à¥ĩà¤Łà¤°": 2995,
      "Ġà¤°à¥ī": 2996,
      "28": 2997,
      "à¤Ńà¤¾à¤²": 2998,
      "Ġà¤ľà¤°à¥Ĥà¤°": 2999,
      "ĠSt": 3000,
      "Ġà¤¸à¤°à¤²": 3001,
      "à¥Īà¤Ĺ": 3002,
      "Ġà¤¸à¤Ĥà¤°à¤ķà¥įà¤·à¤£": 3003,
      "à¤ªà¥ĥà¤·à¥įà¤ł": 3004,
      "à¤¿à¤ªà¥įà¤¤": 3005,
      "Ġà¤¸à¤¾": 3006,
      "Ġà¤ľà¤®": 3007,
      "Ġà¤¦à¥ĥà¤¶à¥įà¤¯": 3008,
      "à¤¯à¤¾à¤¨": 3009,
      "Ġà¤ıà¤¶": 3010,
      "à¥ģà¤ı": 3011,
      "Ġà¤ħà¤µà¤¸à¤°": 3012,
      "ML": 3013,
      "Ġà¤ªà¥įà¤°à¤Ńà¤¾à¤µà¥Ģ": 3014,
      "à¥ĩà¤Ĺà¥Ģ": 3015,
      "à¤¸à¤Ĥà¤ĸà¥įà¤¯à¤¾": 3016,
      "Ġà¤¦à¤¬": 3017,
      "Ġà¤«à¤¼à¤¾à¤ĩà¤²": 3018,
      "Ġsuch": 3019,
      "Ġà¤ħà¤Ĥà¤ķ": 3020,
      "à¤¾à¤°à¥Ģà¤°à¤¿à¤ķ": 3021,
      "ents": 3022,
      "à¥¦à¥¦": 3023,
      "Ġà¤ľà¤°à¥įà¤®": 3024,
      "Ġà¤Ĩà¤¸à¤¾à¤¨": 3025,
      "ĠV": 3026,
      "Ġà¤¹à¤µà¤¾": 3027,
      "Ġà¤¸à¤ļ": 3028,
      "Ġà¤¸à¤Ł": 3029,
      "à¥īà¤°à¥įà¤ķ": 3030,
      "à¤®à¥Īà¤Ĥ": 3031,
      "à¥Ģà¤¨à¤¿à¤¯à¤°": 3032,
      "à¤¾à¤Ĥà¤¤à¤°": 3033,
      "Ġà¤ħà¤Ĺà¤²à¥ĩ": 3034,
      "à¥Ĥà¤°à¥įà¤¤à¤¿": 3035,
      "Ġà¤¶à¤¿à¤µ": 3036,
      "Ġà¤ļà¤°à¥įà¤ļà¤¾": 3037,
      "ĠĠĠĠĠĠĠĠĠĠĠĠĠĠĠĠ": 3038,
      "Ġà¤¸à¤Ĥà¤¸à¥įà¤ķà¤°à¤£": 3039,
      "ace": 3040,
      "à¤Ńà¤¾à¤°à¤¤à¥Ģà¤¯": 3041,
      "27": 3042,
      "Ġà¤¡à¤¬à¥įà¤²à¥įà¤¯à¥Ĥ": 3043,
      "Ġà¤µà¥Ģà¤¡": 3044,
      "Ġà¤°à¤¹à¤¤à¤¾": 3045,
      "Ġà¤¤à¤¿à¤¥à¤¿": 3046,
      "Ġà¤¦à¥Ĥà¤°à¥Ģ": 3047,
      "Ġà¤°à¥ĩà¤¡": 3048,
      "à¥ģà¤¤à¥įà¤¤": 3049,
      "Ġà¤«à¥Ģ": 3050,
      "Ġà¤°à¤£à¤¨à¥Ģ": 3051,
      "Ġà¤²à¤¾à¤Ĺà¤¤": 3052,
      "ail": 3053,
      "Ġà¤¸à¥įà¤¥à¤²": 3054,
      "ong": 3055,
      "Ġword": 3056,
      "Ġlist": 3057,
      "Ġà¤¶à¤¿à¤ķà¥įà¤·à¤ķ": 3058,
      "Ġà¤¸à¤²à¤¾à¤¹": 3059,
      "Ġà¤ıà¤ª": 3060,
      "à¤Ĭ": 3061,
      "Ġalso": 3062,
      "Ġà¤®à¤¿à¤¸": 3063,
      "Ġà¤Ńà¤¾à¤µà¤¨": 3064,
      "Ġà¤ķà¤¾à¤Ĥà¤Ĺà¥įà¤°à¥ĩà¤¸": 3065,
      "Ġà¤®à¤¾à¤ģ": 3066,
      "à¤¾à¤°à¥įà¤¥": 3067,
      "Ġà¤īà¤¡à¤¼": 3068,
      "Ġà¤Ĺà¥ģà¤ľà¤°": 3069,
      "à¤¸à¤°à¥ĩ": 3070,
      "Ġà¤¹à¤¾à¤°": 3071,
      "à¥ĭà¤°à¥įà¤¡": 3072,
      "Ġcomp": 3073,
      "aly": 3074,
      "Ġà¤®à¤²": 3075,
      "Ġà¤īà¤¨à¥įà¤¨": 3076,
      "à¤ķà¤¾à¤²à¥Ģà¤¨": 3077,
      "à¥°": 3078,
      "Ġsent": 3079,
      "Ġà¤«à¥Īà¤¸": 3080,
      "Ġà¤¨à¤¿à¤Ĺ": 3081,
      "Ġà¤¡à¥īà¤ķà¥įà¤Łà¤°": 3082,
      "à¤¤à¥ģ": 3083,
      "Ġà¤®à¤¿à¤¨à¤Ł": 3084,
      "Ġà¤¬à¤¨à¥ĩ": 3085,
      "Ġà¤®à¤¿à¤²à¤¾": 3086,
      "à¤µà¤¿à¤ķà¤²à¥įà¤ªà¤ĥ": 3087,
      "Ġà¤¬à¤¾à¤ľà¤¾à¤°": 3088,
      "Ġà¤Ĺà¥ģà¤£à¤µà¤¤à¥įà¤¤à¤¾": 3089,
      "à¥ĭà¤²à¥Ģ": 3090,
      "Ġusing": 3091,
      "ish": 3092,
      "à¤¾à¤Ĥà¤Ł": 3093,
      "à¤µà¥įà¤¯à¤µ": 3094,
      "à¤¾à¤ľà¥Ģ": 3095,
      "cri": 3096,
      "Ġà¤ªà¤°à¤®": 3097,
      "Ġà¤¡à¤¿à¤Ĺ": 3098,
      "Ġà¤®à¥Ģà¤Łà¤°": 3099,
      "Ġà¤ķà¤¦à¤®": 3100,
      "Ġà¤¬à¤¨à¤¾à¤ıà¤Ĥ": 3101,
      "à¤¸à¤¿à¤ķ": 3102,
      "Ġà¤¯à¥ĭà¤Ĺà¥įà¤¯": 3103,
      "Ġà¤ľà¤¨à¤µà¤°à¥Ģ": 3104,
      "Ġà¤Ĩà¤¯à¥ģ": 3105,
      "Ġà¤¨à¤¿à¤¦": 3106,
      "à¤¨à¥ĩà¤Ł": 3107,
      "Ġà¤ªà¥ĭà¤¸à¥įà¤Ł": 3108,
      "Ġà¤§à¥įà¤µ": 3109,
      "ik": 3110,
      "à¤ķà¥įà¤·à¤¿à¤ªà¥įà¤¤": 3111,
      "Ġà¤µà¤¿à¤¦à¥įà¤¯": 3112,
      "Ġà¤ķà¤¾à¤¨à¥Ĥà¤¨": 3113,
      "Ġà¤ªà¤°à¤¿à¤ļ": 3114,
      "Ġà¤¶à¤¾à¤°à¥Ģà¤°à¤¿à¤ķ": 3115,
      "Ġà¤µà¥Ģà¤¡à¤¿à¤¯à¥ĭ": 3116,
      "Ġà¤ķà¥ĩà¤Ĥà¤¦à¥įà¤°à¤¿à¤¤": 3117,
      "Ġà¤Ĩà¤¸à¤¾à¤¨à¥Ģ": 3118,
      "à¤°à¥įà¤ĺ": 3119,
      "Ġà¤¬à¥įà¤°à¤¿à¤Łà¤¿à¤¶": 3120,
      "lic": 3121,
      "Ġà¤®à¤Ľ": 3122,
      "\"à¤ħ": 3123,
      "Ġà¤¯à¥ģà¤µà¤¾": 3124,
      "Ġà¤¹à¤¿à¤Ĥ": 3125,
      "à¤®à¥Īà¤¨": 3126,
      "à¤·à¤¿à¤¤": 3127,
      "name": 3128,
      "Ġà¤¨à¥ĩà¤¤": 3129,
      "Ġà¤¬à¤¢à¤¼à¤¾à¤¨à¥ĩ": 3130,
      "Ġà¤¯à¥ĭà¤Ĺà¤¦à¤¾à¤¨": 3131,
      "à¥ĥà¤¤à¥įà¤µ": 3132,
      "Ġà¤®à¤¿à¤²à¥Ģ": 3133,
      "Ġà¤ļà¤¾à¤²": 3134,
      "Ġà¤ľà¥ĩ": 3135,
      "à¥ĥà¤¤à¥įà¤¤à¤¿": 3136,
      "à¥įà¤¨à¥Ģ": 3137,
      "Ġà¤Ĩà¤¦à¤®à¥Ģ": 3138,
      "Ġà¤ªà¥ĩà¤¡à¤¼": 3139,
      "à¤¾à¤¬à¥ĩà¤¸": 3140,
      "à¤²à¥įà¤ªà¤¨à¤¾": 3141,
      "Ġà¤ķà¥Įà¤¶à¤²": 3142,
      "à¤¤à¤¾à¤¨": 3143,
      "Ġà¤ĸà¤Ĥà¤¡": 3144,
      "Ġà¤¸à¤¾à¤ķ": 3145,
      "à¤£à¤¾": 3146,
      "Ġà¤ķà¤¾à¤°à¥įà¤¯à¥ĭà¤Ĥ": 3147,
      "Ġà¤®à¤¿à¤Ł": 3148,
      "Ġà¤ªà¤°à¥įà¤¯à¤¾à¤ªà¥įà¤¤": 3149,
      "ear": 3150,
      "Ġà¤ĩà¤¨à¤ªà¥ģà¤Ł": 3151,
      "Ġà¤«à¤°": 3152,
      "Ġacc": 3153,
      "Ġà¤¦à¥ĩà¤ĸà¤Ńà¤¾à¤²": 3154,
      "Ġà¤¸à¤Łà¥Ģà¤ķ": 3155,
      "Ġà¤ļà¥Ģà¤¨": 3156,
      "à¤®à¥ĩà¤°": 3157,
      "à¤ķà¥Ģà¤¯": 3158,
      "à¤¤à¥įà¤¯": 3159,
      "Ġà¤ľà¥ģà¤²à¤¾à¤Ī": 3160,
      "à¥ĥà¤·à¥įà¤Ł": 3161,
      "à¤Ĺà¤£": 3162,
      "à¥įà¤°à¤®": 3163,
      "Ġà¤Ĩà¤¸à¤ªà¤¾à¤¸": 3164,
      "Ġà¤¬à¤¨à¤¾à¤¨à¤¾": 3165,
      "Ġà¤¹à¤¿à¤¸à¥įà¤¸à¥ĩ": 3166,
      "à¥Ģà¤ķà¤¾à¤°": 3167,
      "Ġà¤īà¤ªà¤¯à¥ĭà¤Ĺà¥Ģ": 3168,
      "Ġà¤ħà¤§à¥įà¤¯à¤ķà¥įà¤·": 3169,
      "à¤°à¥įà¤Ńà¤°": 3170,
      "Ġà¤§à¤¨": 3171,
      "Ġà¤ĺà¤Łà¤¨à¤¾": 3172,
      "Ġà¤¡à¤¿à¤Ĺà¥įà¤°à¥Ģ": 3173,
      "Ġà¤µà¤¾à¤¤": 3174,
      "à¤¸à¥įà¤ķà¥ĥà¤¤à¤¿à¤ķ": 3175,
      "Ġà¤µà¤¸à¥įà¤¤à¥ģ": 3176,
      "rite": 3177,
      "Ġà¤ľà¥ī": 3178,
      "à¤¾à¤īà¤¸": 3179,
      "gn": 3180,
      "Ġà¤®à¤Ī": 3181,
      "à¤¹à¤°à¥Ģ": 3182,
      "ari": 3183,
      "Ġà¤ªà¥įà¤°à¤§à¤¾à¤¨": 3184,
      "Ġà¤®à¥Ģà¤²": 3185,
      "Ġà¤¹à¤®à¤¨à¥ĩ": 3186,
      "Ġà¤¦à¤¸à¥įà¤¤": 3187,
      "à¤¯à¥ĭà¤Ĥ": 3188,
      "à¤¹à¤°à¥ĩ": 3189,
      "Ġà¤ĩà¤²à¥ĩà¤ķà¥įà¤Łà¥įà¤°": 3190,
      "Ġà¤ļà¥Ģà¤¨à¥Ģ": 3191,
      "à¤²à¥Īà¤Ĥà¤¡": 3192,
      "he": 3193,
      "Ġem": 3194,
      "2012": 3195,
      "Ġà¤µà¤¿à¤§à¤¿": 3196,
      "ire": 3197,
      "Ġà¤¬à¤¾à¤¤à¤ļà¥Ģà¤¤": 3198,
      "Ġà¤ľà¤¿à¤¸à¤¨à¥ĩ": 3199,
      "Ġshould": 3200,
      "Ġà¤ķà¤łà¤¿à¤¨": 3201,
      "Ġà¤¤à¤¨": 3202,
      "Ġà¤ķà¤¾à¤°à¥įà¤¯à¤¾à¤²à¤¯": 3203,
      "Ġà¤®à¥Īà¤ļ": 3204,
      "à¥īà¤®": 3205,
      "Ġà¤ĸà¤¾à¤¨à¥ĩ": 3206,
      "Ġà¤ħà¤Ńà¥įà¤¯à¤¾à¤¸": 3207,
      "Ġà¤ªà¥įà¤°à¤¸à¥įà¤¤à¤¾à¤µ": 3208,
      "Ġà¤¦à¤¿à¤¸": 3209,
      "St": 3210,
      "Ġà¤¤à¤¥à¥įà¤¯": 3211,
      "Ġà¤ļà¤®": 3212,
      "Ġà¤Ľà¥ĭà¤Łà¤¾": 3213,
      "Ġà¤ªà¤ķà¤¡à¤¼": 3214,
      "Ġà¤ľà¤¾à¤²à¤ªà¥ĥà¤·à¥įà¤ł": 3215,
      "Ġà¤µà¤¿à¤¶à¥įà¤µà¤¾à¤¸": 3216,
      "Ġà¤ħà¤ªà¥įà¤°à¥Īà¤²": 3217,
      "Ġà¤ªà¤Ĥà¤ľ": 3218,
      "26": 3219,
      "à¤µà¤¨": 3220,
      "Ġà¤µà¤¿à¤®": 3221,
      "Ġcode": 3222,
      "Ġà¤ħà¤Ĥà¤¤à¤°à¥įà¤°à¤¾à¤·à¥įà¤Łà¥įà¤°à¥Ģà¤¯": 3223,
      "Ġà¤¸à¥įà¤¥à¤¾à¤¨à¥ĭà¤Ĥ": 3224,
      "à¤ļà¤ķ": 3225,
      "Ġout": 3226,
      "Ġà¤µà¥įà¤¯à¤¾à¤ĸ": 3227,
      "Ġà¤ļà¤¾à¤¹à¤¤à¤¾": 3228,
      "Ġà¤°à¤ĸà¤¨à¤¾": 3229,
      "à¤ľà¤¾à¤°": 3230,
      "Ġà¤Ńà¤¿à¤¨à¥įà¤¨": 3231,
      "Ġà¤¨à¥ĩà¤¤à¥ĥà¤¤à¥įà¤µ": 3232,
      "Ġà¤®à¥Ĥ": 3233,
      "(à¤®": 3234,
      "\"à¤ķ": 3235,
      "Ġà¤µà¤¿à¤µà¤¿à¤§": 3236,
      "à¤°à¥įà¤¬": 3237,
      "à¤¿à¤Ĥà¤ķ": 3238,
      "à¤²à¤¨": 3239,
      "Ġà¤¬à¥Īà¤Ĥà¤ķ": 3240,
      "à¤¯à¥Ĥ": 3241,
      "Ġà¤¸à¥Ĥà¤¤à¥įà¤°": 3242,
      "Ġà¤¸à¥ĩà¤Ĥà¤Ł": 3243,
      "Ġpre": 3244,
      "Ġà¤¡à¥ĩà¤Łà¤¾à¤¬à¥ĩà¤¸": 3245,
      "Ġcol": 3246,
      "à¤¸à¥įà¤µà¥Ģà¤°": 3247,
      "Ġà¤®à¥ģà¤¶": 3248,
      "Ġà¤ħà¤Ĺà¤¸à¥įà¤¤": 3249,
      "Ġà¤ķà¥ĭà¤°": 3250,
      "Ġà¤¬à¤¤à¤¾à¤¨à¤¾": 3251,
      "à¤¿à¤¤à¤¿": 3252,
      "Ġreturn": 3253,
      "(à¤ª": 3254,
      "reat": 3255,
      "à¤¾à¤£à¥Ģ": 3256,
      "à¥įà¤®à¤¿à¤ķ": 3257,
      "à¤£à¥Ģ": 3258,
      "Ġà¤¸à¤®à¤¾à¤ļà¤¾à¤°": 3259,
      "Ġà¤¯à¥ģà¤Ĺ": 3260,
      "one": 3261,
      "à¥ĭà¤®à¥Ģ": 3262,
      "à¤¾à¤ĵ": 3263,
      "ener": 3264,
      "Ġà¤¦à¥Ĥà¤¸à¤°à¤¾": 3265,
      "ual": 3266,
      "à¤¾à¤¸à¥įà¤¤à¥įà¤°": 3267,
      "Ġà¤ħà¤Ĥà¤¡": 3268,
      "Ġà¤«à¤¼à¤Ĥà¤ķà¥įà¤¶à¤¨": 3269,
      "Ġà¤¨à¤¿à¤Ń": 3270,
      "Ġà¤ľà¤¨à¤¸à¤Ĥà¤ĸà¥įà¤¯à¤¾": 3271,
      "à¤µà¤Ĥà¤¶": 3272,
      "Ġval": 3273,
      "Ġà¤¤à¤¤à¥įà¤µà¥ĭà¤Ĥ": 3274,
      "word": 3275,
      "à¤µà¤¾à¤ĵà¤Ĥ": 3276,
      "Ġà¤¬à¥Ģà¤®": 3277,
      "à¤ļà¤¿à¤¤à¥įà¤°": 3278,
      "Ġà¤¸à¤¤à¤¹": 3279,
      "Ġà¤¸à¥įà¤µà¥Ģà¤ķà¤¾à¤°": 3280,
      "Ġà¤¬à¤¨à¤¾à¤¤à¤¾": 3281,
      "à¥ĩà¤Łà¤¿à¤Ĥà¤Ĺ": 3282,
      "ition": 3283,
      "Ġà¤µà¤¿à¤¦à¥ĩà¤¶": 3284,
      "à¥ģà¤«": 3285,
      "-à¤ķà¤Ńà¥Ģ": 3286,
      "Ġprov": 3287,
      "ors": 3288,
      "à¤¿à¤ľà¤¼": 3289,
      "à¤¾à¤¤à¤¾à¤°": 3290,
      "Ġà¤°à¥ģ": 3291,
      "à¥īà¤°": 3292,
      "Ġneed": 3293,
      "Ġà¤ªà¥įà¤°à¤¶à¥įà¤¨à¤ĥ": 3294,
      "Ġà¤¨à¤¾à¤Ĺà¤°à¤¿à¤ķ": 3295,
      "Ġà¤²à¥Įà¤Ł": 3296,
      "à¥ĥà¤¹": 3297,
      "Ġà¤¹à¤Ł": 3298,
      "Ġà¤¬à¤¿à¤ľà¤²à¥Ģ": 3299,
      "à¥ĭà¤ķà¥įà¤¤": 3300,
      "Ġà¤¨à¤¿à¤¯à¤®à¤¿à¤¤": 3301,
      "ck": 3302,
      "-à¤²": 3303,
      "Ġà¤ľà¤¿à¤®à¥įà¤®": 3304,
      "à¥Īà¤®": 3305,
      "Ġà¤¤à¤¸à¥įà¤µà¥Ģà¤°": 3306,
      "Ġà¤ķà¤²à¤¾à¤ķà¤¾à¤°": 3307,
      "(à¤ı": 3308,
      "Ġà¤īà¤ªà¤ķà¤°à¤£à¥ĭà¤Ĥ": 3309,
      "Ġà¤ªà¤¾à¤ı": 3310,
      "Ġà¤¨à¤¿à¤µà¥ĩà¤¶": 3311,
      "ome": 3312,
      "Ġà¤ªà¥ĩà¤Ł": 3313,
      "Ġà¤Ńà¤¾à¤Ī": 3314,
      "Ġtra": 3315,
      "Ġimp": 3316,
      "à¤¾à¤Ĥà¤Ĺà¥įà¤²": 3317,
      "Ġà¤®à¤¾à¤Ĥà¤¸": 3318,
      "Ġà¤¨à¤¿à¤°à¥įà¤Ńà¤°": 3319,
      "à¤¿à¤¸à¥įà¤ķ": 3320,
      "Ġà¤¸à¥Ĥà¤ļà¤¨à¤¾": 3321,
      "Ġà¤¸à¤«à¤²à¤¤à¤¾": 3322,
      "Ġà¤¤à¤°à¥Ģà¤ķà¥ĭà¤Ĥ": 3323,
      "à¤µà¥ĩà¤Ĥ": 3324,
      "Ġà¤¸à¤¾à¤Ĥà¤¸à¥įà¤ķà¥ĥà¤¤à¤¿à¤ķ": 3325,
      "Ġà¤ħà¤°à¤¬": 3326,
      "Ġà¤Ĺà¤¤à¤¿à¤µà¤¿à¤§à¤¿à¤¯à¥ĭà¤Ĥ": 3327,
      "à¥įà¤ķà¤¿à¤²": 3328,
      "Ġà¤¸à¤Ĥà¤ķà¥įà¤°à¤®à¤£": 3329,
      "2013": 3330,
      "Ġà¤ķà¤¾à¤°à¥įà¤¬à¤¨": 3331,
      "Ġà¤µà¤¸à¥įà¤¤à¥ģà¤ĵà¤Ĥ": 3332,
      "Ġà¤¹à¤¾à¤¸à¤¿à¤²": 3333,
      "à¤µà¤¿à¤¶": 3334,
      "Ġà¤ĩà¤Ĥà¤ľà¥Ģà¤¨à¤¿à¤¯à¤°": 3335,
      "à¤¸à¥įà¤µà¤°à¥Ĥà¤ª": 3336,
      "Ġà¤®à¤¸à¥įà¤¤": 3337,
      "To": 3338,
      "Ġà¤¸à¤¾à¤ķà¥įà¤·": 3339,
      "à¤¾à¤®à¤¾à¤£à¤¿à¤ķ": 3340,
      "Ġà¤²à¤Ĺà¤¾à¤¯à¤¾": 3341,
      "Ġà¤ªà¥įà¤°à¤¶à¤¾à¤¸à¤¨": 3342,
      "Ġà¤¢à¤Ĥà¤Ĺ": 3343,
      "Ġà¤¬à¤¿à¤¹à¤¾à¤°": 3344,
      "Ġà¤¸à¤Ĥà¤ķà¥įà¤·à¤¿à¤ªà¥įà¤¤": 3345,
      "ific": 3346,
      "-à¤ªà¤¿à¤¤à¤¾": 3347,
      "Ġà¤ľà¥Ģà¤¨": 3348,
      "Ġà¤ªà¥įà¤°à¥ĩà¤°": 3349,
      "à¤¿à¤®à¥Ģ": 3350,
      "Ġà¤¸à¥įà¤¥à¤¿à¤°": 3351,
      "Ġà¤Łà¥ģà¤ķ": 3352,
      "à¤ķà¤°à¥Ģ": 3353,
      "Ġà¤µà¤¾à¤¯à¤°": 3354,
      "Ġà¤ªà¥įà¤°à¤¾à¤°à¤Ĥà¤Ńà¤¿à¤ķ": 3355,
      "Ġà¤Ĺà¤ł": 3356,
      "Ġà¤īà¤ªà¤¯à¥ģà¤ķà¥įà¤¤": 3357,
      "cial": 3358,
      "Ġà¤ĵà¤²": 3359,
      "Ġà¤ľà¤¾à¤ª": 3360,
      "80": 3361,
      "Ġà¤ľà¤¾à¤¨à¤µà¤°à¥ĭà¤Ĥ": 3362,
      "Ġper": 3363,
      "Ġà¤ªà¥įà¤°à¤¾à¤®à¤¾à¤£à¤¿à¤ķ": 3364,
      "Ġà¤®à¤¿à¤¶à¥įà¤°": 3365,
      "gor": 3366,
      "à¤ľà¤µà¤¾à¤¬": 3367,
      "Ġà¤¸à¤Ĥà¤¸à¥įà¤ķà¥ĥà¤¤à¤¿": 3368,
      "Ġà¤ħà¤ļà¥įà¤Ľà¥ĩ": 3369,
      "Ġà¤ľà¥ģà¤¡à¤¼à¥ĩ": 3370,
      "Ġà¤®à¥ģà¤ķà¥įà¤¤": 3371,
      "à¥ĥà¤¦à¤¯": 3372,
      "Ġinclud": 3373,
      "):": 3374,
      "à¤¯à¥īà¤°à¥įà¤ķ": 3375,
      "Ġà¤®à¤¿à¤²à¤¤à¥Ģ": 3376,
      "ollow": 3377,
      "Ġà¤°à¥ĩà¤¸": 3378,
      "à¥ĩà¤¶à¥įà¤µà¤°": 3379,
      "Ġà¤ªà¤¾à¤²": 3380,
      "Ġdis": 3381,
      "Ġà¤īà¤¨à¤®à¥ĩà¤Ĥ": 3382,
      "Ġà¤®à¥ģà¤¶à¥įà¤ķà¤¿à¤²": 3383,
      "Ġà¤®à¤¾à¤®à¤²à¥ĭà¤Ĥ": 3384,
      "Ġà¤¦à¤°à¥įà¤¦": 3385,
      "Ġà¤īà¤¸à¥Ģ": 3386,
      "Ġà¤¶à¤¾à¤¦à¥Ģ": 3387,
      "2010": 3388,
      "Ġà¤²à¤Ĺà¤¾à¤¤à¤¾à¤°": 3389,
      "Ġà¤¸à¥īà¤«à¥įà¤Ł": 3390,
      "à¤¸à¥įà¤²": 3391,
      "Ġà¤®à¤Ĥà¤¤à¥įà¤°à¥Ģ": 3392,
      "Ġà¤ĸà¥ģà¤²": 3393,
      "Ġà¤ķà¤Ĥà¤ªà¤¨": 3394,
      "Ġà¤Ĺà¥Ģà¤¤": 3395,
      "Ġà¤µà¤¾à¤¤à¤¾à¤µà¤°à¤£": 3396,
      "à¤¿à¤ªà¥įà¤ª": 3397,
      "à¥ĩà¤µà¤°": 3398,
      "à¥ģà¤ħ": 3399,
      "29": 3400,
      "Ġà¤ķà¥ģà¤¤à¥įà¤¤": 3401,
      "Ġà¤ħà¤¨à¥ģà¤ª": 3402,
      "les": 3403,
      "Ġà¤¨à¤¾à¤Ł": 3404,
      "Ġà¤¸à¤®à¥ģà¤¦à¥įà¤°à¥Ģ": 3405,
      "Ġà¤¬à¤°": 3406,
      "à¤¾à¤¦à¥ĩà¤¶": 3407,
      "à¤¿à¤ķà¥ĭà¤Ĥ": 3408,
      "get": 3409,
      "Ġà¤¸à¤Ĥà¤ĺà¤°à¥įà¤·": 3410,
      "à¤īà¤¤à¥įà¤¤à¤°à¤¾à¤ĸà¤£à¥įà¤¡": 3411,
      "Ġà¤¸à¤Ĥà¤¶à¥ĭà¤§à¤¿à¤¤": 3412,
      "2011": 3413,
      "Ġà¤¨à¤¿à¤·à¥įà¤ķà¤°à¥įà¤·": 3414,
      "Ġà¤¨à¤®à¥Ĥ": 3415,
      "Ġà¤«à¥įà¤°à¤¾à¤Ĥà¤¸": 3416,
      "Ġà¤ĳà¤¸à¥įà¤Łà¥įà¤°à¥ĩà¤²": 3417,
      "Ġà¤ħà¤ķà¥įà¤Łà¥Ĥà¤¬à¤°": 3418,
      "Ġà¤ªà¤¾à¤ķà¤¿à¤¸à¥įà¤¤à¤¾à¤¨": 3419,
      "Ġà¤²à¥ĩà¤¤à¥ĩ": 3420,
      "Ġà¤¸à¥Ĥà¤°à¥įà¤¯": 3421,
      "eng": 3422,
      "à¤¯à¤¦à¤¿": 3423,
      "Ġhel": 3424,
      "Ġà¤Ĩà¤¦à¥ĩà¤¶": 3425,
      "Ġà¤¨à¥ĭà¤Ł": 3426,
      "Ġà¤«à¥Īà¤²": 3427,
      "à¤¿à¤ªà¥įà¤Ł": 3428,
      "ms": 3429,
      "Ġà¤ķà¤ķà¥įà¤·à¤¾": 3430,
      "Ġà¤µà¤¿à¤Ńà¤¾à¤ľà¤¿à¤¤": 3431,
      "Ġà¤Ĺà¤²à¤¤": 3432,
      "Ġà¤ªà¤¡à¤¼à¤¤à¤¾": 3433,
      "Ġro": 3434,
      "Ġà¤®à¥ģà¤ķ": 3435,
      "Ġà¤ªà¤¶à¥įà¤ļà¤¿à¤®à¥Ģ": 3436,
      "Ġà¤¸à¥įà¤µà¤¾à¤¦": 3437,
      "Ġà¤¸à¥Ģà¤®à¤¿à¤¤": 3438,
      "Ġà¤¨à¤°": 3439,
      "à¤µà¤¾à¤¹": 3440,
      "Ġà¤ªà¤¾à¤°à¥įà¤ķ": 3441,
      "à¥¯": 3442,
      "Ġà¤Ĩà¤¨à¤Ĥà¤¦": 3443,
      "\"à¤ıà¤ķ": 3444,
      "Ġà¤ĸà¤°à¥įà¤ļ": 3445,
      "Ġdif": 3446,
      "Ġà¤¶à¥ĭ": 3447,
      "à¤®à¥įà¤¬à¤°": 3448,
      "Ġà¤ªà¥įà¤°à¥ĭà¤¤à¥įà¤¸": 3449,
      "Ġà¤¸à¤¡à¤¼à¤ķ": 3450,
      "à¤¶à¥įà¤µà¤¿à¤ķ": 3451,
      "hi": 3452,
      "Ġà¤īà¤ªà¤¯à¥ĭà¤Ĺà¤ķà¤°à¥įà¤¤à¤¾à¤ĵà¤Ĥ": 3453,
      "à¤¿à¤·à¤¦": 3454,
      "à¤Ĥà¤ªà¤°à¤¿à¤ķ": 3455,
      "Ġà¤Łà¥ĩà¤ķà¥įà¤¸": 3456,
      "Ġà¤Łà¥įà¤°à¥ĩà¤¨": 3457,
      "Ġà¤¶à¤ķà¥įà¤¤": 3458,
      "Ġà¤ĺà¥ĭà¤·à¤£": 3459,
      "Ġfollow": 3460,
      "Ġà¤ªà¥įà¤°à¤¤à¤¿à¤¨à¤¿à¤§à¤¿à¤¤à¥įà¤µ": 3461,
      "à¤ªà¥Ĥà¤°à¥įà¤µ": 3462,
      "Ġà¤¸à¤Ĥà¤µà¤¾à¤¦": 3463,
      "à¤¿à¤¸à¥įà¤ª": 3464,
      "Ġà¤ĩà¤¨à¤®à¥ĩà¤Ĥ": 3465,
      "Ġà¤µà¤¿à¤¶à¥ĩà¤·à¤¤à¤¾à¤ĵà¤Ĥ": 3466,
      "Ġà¤¤à¤ķà¤¨à¥Ģà¤ķà¥ĭà¤Ĥ": 3467,
      "Ġà¤¸à¥įà¤Łà¥ĩà¤¶à¤¨": 3468,
      "Ġà¤ķà¤¾à¤Ł": 3469,
      "ict": 3470,
      "à¤¹à¥įà¤®": 3471,
      "Ġà¤Łà¥ĩà¤²": 3472,
      "Ġà¤ħà¤§à¤¿à¤ķà¤¾à¤°à¥Ģ": 3473,
      "cess": 3474,
      "Ġà¤¬à¥ģà¤²": 3475,
      "à¥ĭà¤®à¥Ģà¤Łà¤°": 3476,
      "Ġà¤ªà¥įà¤°à¤¤à¤¿à¤°": 3477,
      "à¥įà¤¯à¥Ĥà¤Ł": 3478,
      "Ġà¤ħà¤¨à¥ģà¤°": 3479,
      "Ġà¤ħà¤§à¤¿à¤ķà¤¤à¤®": 3480,
      "Ġà¤¨à¤¿à¤¯à¤Ĥà¤¤à¥įà¤°à¤¿à¤¤": 3481,
      "à¤¸à¥įà¤¥à¤¿à¤¤à¤¿": 3482,
      "Ġà¤µà¥įà¤¯à¤ķà¥įà¤¤à¤¿à¤¯à¥ĭà¤Ĥ": 3483,
      "Ġà¤¬à¤°à¥įà¤«": 3484,
      "2014": 3485,
      "Ġà¤¸à¤¾à¤Ŀà¤¾": 3486,
      "Ġà¤Ĺà¤¾à¤Ĥà¤µ": 3487,
      "à¤¸à¥įà¤¯à¥ĭà¤Ĥ": 3488,
      "Ġà¤Ĩà¤¹à¤¾à¤°": 3489,
      "Ġà¤¸à¤Ĥà¤¸à¥įà¤¥": 3490,
      "Ġà¤Ĺà¤°à¥įà¤Ń": 3491,
      "Ġà¤ĩà¤Ĥà¤Ĺà¥įà¤²": 3492,
      "Ġà¤¸à¤¾à¤°à¤¾à¤Ĥà¤¶": 3493,
      "à¤°à¥Ģà¤¤": 3494,
      "à¤¾à¤¤à¤ķ": 3495,
      "Ġanaly": 3496,
      "Ġà¤¶à¤¾à¤¸à¤¨": 3497,
      "ample": 3498,
      "Ġà¤¬à¤¦à¤²à¤¾à¤µ": 3499,
      "Ġà¤Ńà¤Ĺà¤µà¤¾à¤¨": 3500,
      "à¤¾à¤µà¤Ł": 3501,
      "unction": 3502,
      "ree": 3503,
      "Ġà¤®à¤¨à¥ģà¤·": 3504,
      "Ġà¤ķà¤°à¥Ģà¤¬": 3505,
      "Ġà¤Łà¥ĩà¤¸à¥įà¤Ł": 3506,
      "Ġà¤¬à¥Ģà¤®à¤¾à¤°à¥Ģ": 3507,
      "Ġà¤Ńà¤¾à¤°à¥Ģ": 3508,
      "Ġà¤ªà¤°à¤¿à¤µà¤¹à¤¨": 3509,
      "Ġà¤¤à¥įà¤µ": 3510,
      "Ġcreate": 3511,
      "duct": 3512,
      "Ġà¤«à¥ĭà¤¨": 3513,
      "Ġà¤ħà¤¸à¥įà¤ªà¤¤à¤¾à¤²": 3514,
      "à¤¿à¤¯à¤¸": 3515,
      "Ġà¤¸à¥Ģà¤ĸà¤¨à¥ĩ": 3516,
      "Ġà¤ķà¥ģà¤®à¤¾à¤°": 3517,
      "à¤¾à¤¸à¤¾": 3518,
      "Ġà¤Ĺà¤¾à¤¯": 3519,
      "à¥ĩà¤ķà¥įà¤·": 3520,
      "Ġà¤¹à¥ĥà¤¦à¤¯": 3521,
      "Ġà¤Ĩà¤°à¥ĭà¤ª": 3522,
      "à¥ĭà¤²à¤¨": 3523,
      "Ġspe": 3524,
      "Ġà¤Ĩà¤¤à¥ĩ": 3525,
      "ress": 3526,
      "à¤¾à¤ļà¤¨": 3527,
      "Ġà¤¬à¥Ģà¤ľ": 3528,
      "-à¤ļ": 3529,
      "oug": 3530,
      "Ġà¤®à¤¹à¤¾à¤¸": 3531,
      "à¤¿à¤Łà¤²": 3532,
      "Ġà¤ªà¤°à¥įà¤µ": 3533,
      "Ġà¤¸à¤Ĥà¤¸à¤¾à¤§à¤¨à¥ĭà¤Ĥ": 3534,
      "Ġà¤®à¤¿à¤Łà¥įà¤Łà¥Ģ": 3535,
      "à¥Īà¤¨à¤¿à¤ķ": 3536,
      "Ġà¤ªà¥Ĥà¤°à¥įà¤µà¥Ģ": 3537,
      "Ġà¤²à¥ĩà¤Ĥ": 3538,
      "à¥Ģà¤µà¥Ģ": 3539,
      "Ġà¤¸à¥īà¤«à¥įà¤Łà¤µà¥ĩà¤¯à¤°": 3540,
      "à¤¿à¤Ĥà¤Ł": 3541,
      "Ġà¤«à¤¿à¤²": 3542,
      "à¤°à¥įà¤¯": 3543,
      "Ġà¤µà¤¿à¤¶à¤¾à¤²": 3544,
      "Ġall": 3545,
      "à¤Ńà¥Ĥà¤®": 3546,
      "Ġà¤ľà¥Ģà¤µà¤¿à¤¤": 3547,
      "Ġwhich": 3548,
      "à¤ľà¤¿à¤ı": 3549,
      "Ġà¤µà¤¿à¤ªà¤°à¥Ģà¤¤": 3550,
      "__": 3551,
      "odel": 3552,
      "Ġà¤¯à¥Į": 3553,
      "ĠY": 3554,
      "Ġmore": 3555,
      "à¤µà¤°à¥įà¤¡": 3556,
      "(à¤īà¤¤à¥įà¤¤à¤°à¤¾à¤ĸà¤£à¥įà¤¡": 3557,
      "Ġà¤ļà¥ģà¤¨à¥Įà¤¤à¥Ģ": 3558,
      "chn": 3559,
      "Ġà¤µà¤¿à¤ľà¥įà¤ŀ": 3560,
      "ning": 3561,
      "à¤¿à¤¸à¥įà¤¥à¤¿à¤¤": 3562,
      "Ġà¤°à¤¾à¤ľà¤§à¤¾à¤¨à¥Ģ": 3563,
      "Ġà¤Ŀà¥Ģà¤²": 3564,
      "Ġà¤°à¥ģà¤ª": 3565,
      "35": 3566,
      "Ġgo": 3567,
      "à¤¤à¥įà¤¯à¤¾": 3568,
      "à¤¿à¤¡à¤¼": 3569,
      "ia": 3570,
      "Ġà¤®à¤¸à¥įà¤¤à¤¿à¤·à¥įà¤ķ": 3571,
      "Ġà¤Ĭà¤Ĥà¤ļ": 3572,
      "Ġà¤¬à¤¢à¤¼à¤¾à¤µà¤¾": 3573,
      "à¤¯à¤¸à¥įà¤ķ": 3574,
      "Ġà¤¬à¤ľà¥ĩ": 3575,
      "iven": 3576,
      "Ġà¤Ľà¤¹": 3577,
      "Ġà¤Ĩà¤µà¤¶à¥įà¤¯à¤ķà¤¤à¤¾à¤ĵà¤Ĥ": 3578,
      "à¥ĩà¤¦à¤¨à¤¶à¥Ģà¤²": 3579,
      "Ġà¤īà¤ªà¤¾à¤¯": 3580,
      "Ġà¤¸à¤¾à¤§": 3581,
      "ark": 3582,
      "Ġà¤¦à¤¿à¤¶à¤¾": 3583,
      "à¥ģà¤µ": 3584,
      "à¥īà¤¸": 3585,
      "Ġà¤¸à¤¾à¤¤": 3586,
      "à¤¾à¤ĩà¤ľ": 3587,
      "Ġà¤°à¤¾à¤¯": 3588,
      "Ġà¤Ĭà¤ģ": 3589,
      "Ġà¤¬à¤¨à¤¾à¤¤à¥ĩ": 3590,
      "Ġà¤ķà¥įà¤²à¤¬": 3591,
      "à¤¿à¤¨à¥Ģ": 3592,
      "Ġà¤¸à¥įà¤µà¤¤à¤Ĥà¤¤à¥įà¤°à¤¤à¤¾": 3593,
      "Ġà¤ªà¤¾à¤°à¤Ĥà¤ªà¤°à¤¿à¤ķ": 3594,
      "Ġà¤¬à¤¿à¤ķ": 3595,
      "Ġeach": 3596,
      "Ġà¤¸à¤¾à¤¬": 3597,
      "Ġà¤Ĺà¥įà¤°à¤¾à¤¹à¤ķà¥ĭà¤Ĥ": 3598,
      "Ġà¤ªà¥Īà¤Ł": 3599,
      "Ġà¤µà¥ĭ": 3600,
      "à¤īà¤¦": 3601,
      "Ġà¤¨à¤¿à¤ľ": 3602,
      "Ġà¤ĸà¤°à¤¾à¤¬": 3603,
      "à¤ļà¤¿": 3604,
      "à¤®à¥ĩà¤²": 3605,
      "Ġà¤ªà¤¾à¤ģà¤ļ": 3606,
      "Ġà¤¤à¤¨à¤¾à¤µ": 3607,
      "Ġà¤¬à¤¾à¤§": 3608,
      "Ġà¤Ĩà¤¯à¥ĭà¤ľà¤¿à¤¤": 3609,
      "à¤¿à¤ľà¥įà¤ŀà¤¾à¤¨": 3610,
      "Ġà¤µà¤¿à¤¦à¥įà¤¯à¥ģà¤¤": 3611,
      "à¤ķà¤²": 3612,
      "Ġà¤ķà¥ģà¤¶": 3613,
      "à¥ĩà¤·à¥įà¤ł": 3614,
      "Ġà¤µà¥Īà¤¶à¥įà¤µà¤¿à¤ķ": 3615,
      "à¤§à¥įà¤¯": 3616,
      "Ġà¤µà¤¿à¤¤à¥įà¤¤à¥Ģà¤¯": 3617,
      "Ġà¤ķà¤¿à¤¶": 3618,
      "Ġà¤¨à¥įà¤¯à¥Ĥà¤¯à¥īà¤°à¥įà¤ķ": 3619,
      "Ġà¤¶à¤¿à¤ķ": 3620,
      "Ġà¤ªà¥įà¤°à¤®à¤¾à¤£": 3621,
      "à¤²à¥ĩà¤Ł": 3622,
      "Ġà¤ķà¤°à¥ĭà¤¡à¤¼": 3623,
      "Ġà¤«à¥Ĥà¤²": 3624,
      "Ġà¤¬à¤¿à¤Ĥà¤¦à¥ģ": 3625,
      "Ġà¤¸à¤¿": 3626,
      "à¤ĩà¤¨à¤ªà¥ģà¤Ł": 3627,
      "val": 3628,
      "Ġà¤¸à¤ª": 3629,
      "Ġà¤ªà¥įà¤¯à¤¾à¤°": 3630,
      "cript": 3631,
      "Ġà¤Ĺà¤¤à¤¿à¤µà¤¿à¤§à¤¿": 3632,
      "Ġà¤īà¤²": 3633,
      "Ġà¤ĺà¥ĭà¤·à¤£à¤¾": 3634,
      "à¤¾à¤ķà¥įà¤·": 3635,
      "à¤¿à¤¯à¤¾à¤ĵà¤Ĥ": 3636,
      "à¤¤à¥įà¤¤à¥Ģà¤¸": 3637,
      "Ġà¤ħà¤Ńà¤¿à¤¯à¤¾à¤¨": 3638,
      "Ġà¤µà¤¾à¤¯à¥ģ": 3639,
      "-à¤¶": 3640,
      "Ġà¤ħà¤¨à¥ĩà¤ķ": 3641,
      "à¤¾à¤ĺ": 3642,
      "Ġà¤¤à¥ĩà¤ľ": 3643,
      "Ġà¤¸à¤Ĥà¤¸à¤¾à¤§à¤¨": 3644,
      "à¥ģà¤ľ": 3645,
      "Ġà¤ªà¥įà¤°à¥ĩà¤°à¤¿à¤¤": 3646,
      "ful": 3647,
      "Ġà¤ªà¥įà¤°à¥ĩà¤®": 3648,
      "à¤®à¥ģà¤ĸ": 3649,
      "Ġà¤®à¤ľ": 3650,
      "Ġà¤°à¤ķà¥įà¤·à¤¾": 3651,
      "Ġà¤¨à¤¿à¤ķà¤Ł": 3652,
      "Ġà¤ªà¤¾à¤łà¥įà¤¯": 3653,
      "à¤«à¥įà¤¤": 3654,
      "à¥Ĥà¤¡": 3655,
      "Ġà¤łà¤Ĥà¤¡": 3656,
      "Ġà¤ªà¤¶à¥ģ": 3657,
      "Ġà¤Ńà¥ģà¤Ĺ": 3658,
      "Ġà¤ªà¥įà¤°à¥ĭ": 3659,
      "Ġà¤®à¥ĩà¤°à¥Ģ": 3660,
      "Ġà¤ľà¤¿à¤¤": 3661,
      "Ġà¤¸à¤¿à¤¤à¤Ĥà¤¬à¤°": 3662,
      "Ġused": 3663,
      "Ġà¤ķà¥Īà¤°": 3664,
      "à¥Ģà¤²à¥įà¤¡": 3665,
      "Ġà¤®à¤ķ": 3666,
      "à¤°à¥įà¤¨à¤¿à¤Ĥà¤Ĺ": 3667,
      "Ġà¤¸à¤¦à¤¸à¥įà¤¯à¥ĭà¤Ĥ": 3668,
      "Ġinter": 3669,
      "Ġà¤°à¥Ģ": 3670,
      "45": 3671,
      "à¤¾à¤ľà¥įà¤¯": 3672,
      "Ġà¤®à¤¾à¤¨à¤¸à¤¿à¤ķ": 3673,
      "à¤¸à¤Ĥà¤Ĺ": 3674,
      "ey": 3675,
      "à¤¿à¤¯à¥ĭà¤Ĺ": 3676,
      "Ġà¤®à¤¹à¤¾à¤°": 3677,
      "Ġà¤ªà¥įà¤°à¤¸à¤¾à¤°": 3678,
      "à¥¨à¥¦à¥¦": 3679,
      "Ġà¤¨à¤¿à¤®à¥įà¤¨": 3680,
      "\"à¤¬": 3681,
      "70": 3682,
      "à¤¾à¤®à¤¾": 3683,
      "Ġà¤ĺà¤¾à¤Ł": 3684,
      "lect": 3685,
      "Ġà¤°à¤¾à¤ľà¥įà¤¯à¥ĭà¤Ĥ": 3686,
      "))": 3687,
      "ased": 3688,
      "Ġà¤ıà¤ķà¤¤à¥įà¤°": 3689,
      "Ġà¤®à¥Īà¤ķ": 3690,
      "à¤ĩà¤¸à¤ķà¥ĩ": 3691,
      "Ġà¤¬à¤¨à¤¾à¤Ī": 3692,
      "Ġà¤¸à¥ĩà¤µà¤¾à¤ĵà¤Ĥ": 3693,
      "velo": 3694,
      "\"à¤µ": 3695,
      "Ġà¤®à¥Īà¤¨": 3696,
      "Ġà¤¬à¤¾à¤µ": 3697,
      "90": 3698,
      "Ġà¤¤à¤ķà¤¨à¥Ģà¤ķà¥Ģ": 3699,
      "Ġà¤°à¤ĸà¤¤à¤¾": 3700,
      "Ġà¤ıà¤ķà¤²": 3701,
      "://": 3702,
      "Ġà¤ªà¤¡à¤¼à¤¾": 3703,
      "Ġà¤ªà¥įà¤°à¤ķà¥ĥà¤¤à¤¿": 3704,
      "Ġà¤®à¤¾à¤ĩ": 3705,
      "Ġà¤ªà¥įà¤°à¤Ĺ": 3706,
      "\"à¤¦": 3707,
      "ft": 3708,
      "¢à¤¼": 3709,
      "à¥ĭà¤°à¥įà¤¨": 3710,
      "à¥ģà¤£": 3711,
      "Ġà¤¨à¥ĩà¤¤à¤¾": 3712,
      "Ġà¤®à¤¾à¤¨à¤ķ": 3713,
      "Ġà¤ªà¥ģà¤°à¤¾à¤¨à¥ĩ": 3714,
      "gram": 3715,
      "à¤īà¤ª": 3716,
      "Ġà¤¨à¤¿à¤µà¤¾à¤¸": 3717,
      "à¥ĩà¤¥": 3718,
      "Ġà¤¸à¤¾à¤«": 3719,
      "Ġà¤ªà¥įà¤°à¥ĭà¤«": 3720,
      "Ġà¤µà¥įà¤¯à¤¾à¤µ": 3721,
      "Ġà¤ªà¤Ł": 3722,
      "ustom": 3723,
      "Ġà¤ªà¤°à¤¿à¤£à¤¾à¤®à¤¸à¥įà¤µà¤°à¥Ĥà¤ª": 3724,
      "Ġà¤ªà¥įà¤°à¤¶à¤¿à¤ķà¥įà¤·à¤£": 3725,
      "Ġà¤°à¥ĭà¤ľ": 3726,
      "ie": 3727,
      "Ġà¤«à¥ĭà¤Ł": 3728,
      "Ġà¤¦à¤¸à¥įà¤¤à¤¾à¤µ": 3729,
      "Ġà¤®à¤¸": 3730,
      "Ġadd": 3731,
      "Ġà¤µà¥įà¤¯à¤µà¤¸à¥įà¤¥à¤¾": 3732,
      "ov": 3733,
      "Ġà¤ĸà¤¼": 3734,
      "Ġà¤ªà¥Īà¤Łà¤°à¥įà¤¨": 3735,
      "Ġà¤¦à¤¿à¤¸à¤Ĥà¤¬à¤°": 3736,
      "Ġà¤¹à¥ĭà¤ķà¤°": 3737,
      "à¤¾à¤ķà¥Ģ": 3738,
      "Ġà¤µà¤¿à¤¦à¥įà¤¯à¤¾à¤²à¤¯": 3739,
      "==": 3740,
      "Ġà¤ªà¤Ĥ": 3741,
      "Ġà¤Ĩà¤Ĥà¤¤": 3742,
      "Ġà¤°à¤¸": 3743,
      "Ġà¤ľà¤¨à¤¤à¤¾": 3744,
      "à¤¾à¤Ĥà¤Ĺà¥įà¤²à¤¾à¤¦à¥ĩà¤¶": 3745,
      "Ġà¤¸à¥ģà¤Ĥà¤¦à¤°": 3746,
      "à¤¨à¥įà¤¯à¤¾à¤¸": 3747,
      "angu": 3748,
      "à¥Ĥà¤·à¤£": 3749,
      "ax": 3750,
      "à¤ľà¤¹": 3751,
      "Ġtime": 3752,
      "Ġà¤ķà¤¾à¤°à¥įà¤¡": 3753,
      "Ġà¤ªà¤°à¤¿à¤£à¤¾à¤®à¥ĭà¤Ĥ": 3754,
      "à¤¸à¥Ģà¤¸à¥Ģ": 3755,
      "à¤¿à¤ķà¤¨": 3756,
      "Ġfe": 3757,
      "Ġà¤¸à¤®à¤Ŀà¥Į": 3758,
      "Ġà¤ħà¤¤à¥įà¤¯à¤§à¤¿à¤ķ": 3759,
      "Ġà¤¨à¥Īà¤¤à¤¿à¤ķ": 3760,
      "Ġà¤Ńà¥ģà¤Ĺà¤¤à¤¾à¤¨": 3761,
      "à¥ĭà¤²à¥ī": 3762,
      ".,": 3763,
      "à¤£à¥ĭà¤Ĥ": 3764,
      "à¤¿à¤¹à¤¿à¤¤": 3765,
      "à¤ļà¤¨à¤¾à¤¤à¥įà¤®à¤ķ": 3766,
      "à¤Ĺà¤¾à¤°": 3767,
      "Ġà¤¸à¤Ĥà¤ªà¤¾à¤¦": 3768,
      "à¥Ĥà¤¬": 3769,
      "Ġits": 3770,
      "Ġà¤¸à¤Ĥà¤ĸà¥įà¤¯à¤¾à¤ĵà¤Ĥ": 3771,
      "Ġà¤ľà¤²à¥įà¤¦": 3772,
      "Ġà¤¸à¤«à¥ĩà¤¦": 3773,
      "Ġà¤¤à¤°à¤«": 3774,
      "Ġà¤¸à¤¾à¤Ĥà¤¸": 3775,
      "2009": 3776,
      "igh": 3777,
      "Ġà¤¸à¤®à¥Ģà¤ķà¤°à¤£": 3778,
      "Ġà¤ªà¥įà¤°à¤Ńà¤¾": 3779,
      "à¥Įà¤¡à¤¼": 3780,
      "ics": 3781,
      "Ġà¤µà¤¾à¤²à¥ĭà¤Ĥ": 3782,
      "2008": 3783,
      "à¤ĸà¥įà¤¯": 3784,
      "print": 3785,
      "à¤¾à¤ĩà¤¡à¥įà¤°": 3786,
      "Ġà¤ĩà¤Ĥà¤Ĺà¥įà¤²à¥Īà¤Ĥà¤¡": 3787,
      "ures": 3788,
      "Ġà¤¸à¥ģà¤¬à¤¹": 3789,
      "Ġà¤ªà¤¦à¤¾à¤°à¥įà¤¥à¥ĭà¤Ĥ": 3790,
      "-à¤«": 3791,
      "Ġà¤ļà¤°à¤¿à¤¤à¥įà¤°": 3792,
      "Ġà¤µà¤¿à¤ļà¤¾à¤°à¥ĭà¤Ĥ": 3793,
      "à¥įà¤µà¥Ģà¤Ł": 3794,
      "Ġà¤ħà¤ķà¤¾à¤¦": 3795,
      "Ġà¤«à¤°à¤µà¤°à¥Ģ": 3796,
      "op": 3797,
      "Ġà¤ªà¤¤à¥įà¤¨à¥Ģ": 3798,
      "à¤°à¤¾à¤·à¥įà¤Łà¥įà¤°à¥Ģà¤¯": 3799,
      "à¤¶à¤¾à¤²à¤¾": 3800,
      "Ġà¤¸à¤¿à¤°à¥įà¤«": 3801,
      "-à¤Ĩà¤°": 3802,
      "ities": 3803,
      "Ġman": 3804,
      "olog": 3805,
      "Ġà¤¦à¤¸": 3806,
      "à¤¨à¥įà¤§à¥įà¤°": 3807,
      "Ġà¤°à¤¾à¤¸à¥įà¤¤": 3808,
      "ray": 3809,
      "Ġà¤¬à¥įà¤°à¤¹à¥įà¤®": 3810,
      "Ġà¤īà¤¤à¥įà¤¤à¤°à¤¾": 3811,
      "à¤ļà¤¸à¥įà¤ª": 3812,
      "Ġà¤¨à¥Įà¤ķà¤°à¥Ģ": 3813,
      "QL": 3814,
      "Ġà¤ªà¥įà¤²à¥ĩà¤Ł": 3815,
      "Ġà¤¸à¥ĭà¤¶à¤²": 3816,
      "Ġà¤µà¤Ĥà¤¶": 3817,
      "Ġcomm": 3818,
      "Ġà¤¦à¥ģà¤ķ": 3819,
      "Ġà¤µà¤¿à¤§à¤¾à¤¨à¤¸à¤Ńà¤¾": 3820,
      "à¤¾à¤¡à¤¾": 3821,
      "193": 3822,
      "à¤ıà¤«": 3823,
      "Ġà¤ħà¤ªà¤°à¤¾à¤§": 3824,
      "Ġà¤¤à¥įà¤µà¤ļà¤¾": 3825,
      "à¤¾à¤¨à¥ģ": 3826,
      "Ġdiffer": 3827,
      "Ġà¤®à¥ĩà¤¡": 3828,
      "Ġà¤Ľà¤¤à¥įà¤¤à¥Ģà¤¸": 3829,
      "à¥ĭà¤¦": 3830,
      "à¤°à¥įà¤ľà¤¨": 3831,
      "Ġà¤¦à¥įà¤°": 3832,
      "à¥įà¤ĸ": 3833,
      "Ġà¤ļà¤Ĥà¤¦à¥įà¤°": 3834,
      "........": 3835,
      "Ġà¤Īà¤¸": 3836,
      "Ġà¤µà¤¿à¤®à¤¾à¤¨": 3837,
      "Ġà¤ķà¥Ģà¤®à¤¤": 3838,
      "à¥ĩà¤¸à¤°": 3839,
      "Ġà¤ľà¥įà¤ŀ": 3840,
      "Ġà¤ĸà¤¾à¤¨": 3841,
      "à¤²à¥ĭà¤ķ": 3842,
      "Ġà¤¯à¤¾à¤¤": 3843,
      "Ġà¤ķà¥įà¤¯à¥Ĥ": 3844,
      "Ġà¤°à¤¹à¤¤à¥Ģ": 3845,
      "rand": 3846,
      "Ġà¤°à¥ĭà¤ķà¤¨à¥ĩ": 3847,
      "Ġà¤ıà¤²à¥įà¤¬": 3848,
      "Ġà¤¯à¤¹à¥Ģ": 3849,
      "Ġup": 3850,
      "Ġà¤¦à¤¿à¤²à¤ļà¤¸à¥įà¤ª": 3851,
      "à¤°à¥įà¤®à¤¾": 3852,
      "Ġà¤ľà¤²à¥įà¤¦à¥Ģ": 3853,
      "Ġà¤ľà¤Ĥà¤Ĺ": 3854,
      "Ġà¤¨à¤¿à¤ª": 3855,
      "Ġà¤¦à¤¬à¤¾à¤µ": 3856,
      "Ġà¤¸à¥Ģà¤§à¥ĩ": 3857,
      "ates": 3858,
      "Ġà¤ľà¤°à¥Ĥà¤°à¤¤": 3859,
      "Ġeff": 3860,
      "Ġà¤¸à¤Ĥà¤Ńà¤µà¤¤à¤ĥ": 3861,
      "Ġà¤µà¤¿à¤§à¤¾à¤¯à¤ķ": 3862,
      "ize": 3863,
      "Ġà¤Ĩà¤¤à¥Ģ": 3864,
      "Ġà¤ľà¤¾à¤ıà¤Ĺà¥Ģ": 3865,
      "Ġà¤¤à¥ģà¤°": 3866,
      "à¥įà¤ľà¤¼": 3867,
      "Ġà¤¸à¥ģà¤µà¤¿à¤§à¤¾": 3868,
      "Ġà¤¨à¤µà¤Ĥà¤¬à¤°": 3869,
      "Ġà¤¸à¤Ĥà¤µà¥ĩà¤¦à¤¨à¤¶à¥Ģà¤²": 3870,
      "à¤Ĥà¤¦à¤¨": 3871,
      "à¥ĩà¤Ĥà¤ľ": 3872,
      "Ġà¤ľà¤¼à¤¿à¤²à¥ĩ": 3873,
      "Ġnumber": 3874,
      "ook": 3875,
      "Ġà¤¸à¤®à¥Ĥà¤¹à¥ĭà¤Ĥ": 3876,
      "Ġà¤Łà¥įà¤µà¥Ģà¤Ł": 3877,
      "Ġabout": 3878,
      "-à¤¨": 3879,
      "Ġà¤ļà¥ĩ": 3880,
      "Ġà¤ļà¥ĭà¤Ł": 3881,
      "Ġà¤ķà¤¾à¤īà¤Ĥà¤Łà¥Ģ": 3882,
      "Ġà¤Ĩà¤µà¤¾à¤¸": 3883,
      "Ġdo": 3884,
      "Ġà¤°à¤¾à¤¶": 3885,
      "Ġà¤¡à¥ĩà¤µ": 3886,
      "Ġà¤¯à¥Ĥà¤°à¥ĭà¤ªà¥Ģà¤¯": 3887,
      "Ġà¤µà¥įà¤¹": 3888,
      "eg": 3889,
      "Ġà¤¶à¥ĭà¤§à¤ķà¤°à¥įà¤¤à¤¾à¤ĵà¤Ĥ": 3890,
      "Ġà¤µà¤¯à¤¸à¥įà¤ķ": 3891,
      "Ġà¤Ĺà¤¯à¥Ģ": 3892,
      "ĠHT": 3893,
      "à¥§à¥®": 3894,
      "à¤Ńà¥Ĥà¤®à¤¿": 3895,
      "à¤¾à¤¯à¤¾à¤®": 3896,
      "à¤¬à¤°à¥įà¤Ĺ": 3897,
      "Ġà¤ªà¤Ĥà¤ļ": 3898,
      "Ġà¤µà¤¿à¤·à¤¯à¥ĭà¤Ĥ": 3899,
      "('": 3900,
      "Ġà¤ħà¤Ĥà¤¤à¤¤à¤ĥ": 3901,
      "Ġà¤²à¤°à¥įà¤¨à¤¿à¤Ĥà¤Ĺ": 3902,
      "Ġsentence": 3903,
      "++": 3904,
      "Ġà¤¬à¤¾à¤µà¤ľà¥Ĥà¤¦": 3905,
      "Ġà¤¬à¥ģà¤¨": 3906,
      "Ġà¤¸à¤®à¥įà¤¬": 3907,
      "Ġà¤ķà¤¿à¤²à¥ĭà¤®à¥Ģà¤Łà¤°": 3908,
      "ob": 3909,
      "\"à¤ª": 3910,
      "Ġà¤®à¤Ĥà¤Ĺà¤²": 3911,
      "à¥įà¤®à¤¾": 3912,
      "wo": 3913,
      "Ġà¤¸à¥įà¤¥à¤¿à¤¤à¤¿à¤¯à¥ĭà¤Ĥ": 3914,
      "Ġà¤¬à¥ĩà¤²": 3915,
      "Ġà¤¬à¤¨à¤¾à¤ıà¤ģ": 3916,
      "à¤®à¤¹": 3917,
      "Ġà¤¦à¤ķà¥įà¤·à¤¿à¤£à¥Ģ": 3918,
      "Ġà¤ĩà¤®à¤¾à¤°": 3919,
      "Ġà¤§à¤¾à¤°à¥įà¤®à¤¿à¤ķ": 3920,
      "Ġà¤Ĺà¥ĩà¤Ĥà¤¦": 3921,
      "à¤¸à¤®à¤¸à¥įà¤¯": 3922,
      "Ġà¤ľà¤¨à¥įà¤®à¥ĩ": 3923,
      "Ġà¤¹à¤µà¤¾à¤Ī": 3924,
      "à¤Ĥà¤§à¤¨": 3925,
      "ments": 3926,
      "à¤ľà¤²": 3927,
      "Ġà¤ªà¥ĩà¤¶à¥ĩà¤µà¤°": 3928,
      "AT": 3929,
      "Ġà¤ħà¤¨à¥ģà¤µà¤¾à¤¦": 3930,
      "Ġà¤Ĺà¥įà¤°à¤¾à¤®": 3931,
      "Ġà¤ħà¤µà¤§à¤¾à¤°": 3932,
      "gorith": 3933,
      "Ġà¤Ľà¤µà¤¿": 3934,
      "Ġà¤ªà¤°à¥ĩà¤¶": 3935,
      "Ġà¤®à¥Įà¤¤": 3936,
      "à¤ľà¤µà¤¾à¤¬à¤ĥ": 3937,
      "Ġà¤¬à¤¾à¤¹à¤°à¥Ģ": 3938,
      "Ġà¤ĺà¤Łà¤¨à¤¾à¤ĵà¤Ĥ": 3939,
      "velop": 3940,
      "Ġà¤Ńà¤¾à¤µà¤¨à¤¾": 3941,
      "Ġuser": 3942,
      "Ġà¤ĩà¤Ĥà¤Łà¤°à¤¨à¥ĩà¤Ł": 3943,
      "-à¤ıà¤ķ": 3944,
      "à¥Ĥà¤ł": 3945,
      "erson": 3946,
      "Ġà¤¨à¥Ģà¤¤à¤¿": 3947,
      "Ġsc": 3948,
      "à¤ķà¤¤à¤¾": 3949,
      "Ġinto": 3950,
      "Ġà¤¬à¥ĩà¤ļ": 3951,
      "Ġà¤ķà¤¾à¤°à¥įà¤°": 3952,
      "Ġtechn": 3953,
      "ally": 3954,
      "Ġà¤ĳà¤ķà¥įà¤¸": 3955,
      "---": 3956,
      "Ġà¤®à¤Ľà¤²à¥Ģ": 3957,
      "à¤°à¤¾à¤¨à¥Ģ": 3958,
      "Ġà¤īà¤ªà¤Ń": 3959,
      "à¤¾à¤¦à¤¾": 3960,
      "Ġà¤ħà¤¸à¥įà¤¥": 3961,
      "à¤¾à¤¨à¤¿": 3962,
      "Ġà¤ĩà¤ļà¥įà¤Ľ": 3963,
      "ON": 3964,
      "Ġà¤¸à¤¾à¤®à¥įà¤°": 3965,
      "à¤¾à¤¡à¤¼à¤¿à¤¯à¥ĭà¤Ĥ": 3966,
      "-à¤§": 3967,
      "Ġà¤¨à¤¾à¤°": 3968,
      "Ġà¤Ĺà¥ĩà¤®": 3969,
      "**": 3970,
      "Ġhelp": 3971,
      "à¤¨à¥įà¤¤": 3972,
      "à¤ıà¤ĥ": 3973,
      "à¤¸à¤®à¤¸à¥įà¤¯à¤¾à¤ĥ": 3974,
      "Ġà¤Ĩà¤Ĥà¤¦": 3975,
      "Ġà¤¬à¤¢à¤¼à¤¤à¥Ģ": 3976,
      "ĠCreate": 3977,
      "Ġà¤«à¤¾à¤°": 3978,
      "Ġà¤Ĩà¤ªà¤¨à¥ĩ": 3979,
      "à¥ħ": 3980,
      "à¤¾à¤ľà¤¾": 3981,
      "Ġà¤ķà¤¹à¥Ģà¤Ĥ": 3982,
      "Ġà¤Ĩà¤Ĥà¤ķ": 3983,
      "Ġà¤¸à¤¤à¥įà¤¯": 3984,
      "Ġà¤¬à¥ĭà¤°à¥įà¤¡": 3985,
      "à¤ļà¤¾à¤°à¥Ģ": 3986,
      "Ġà¤«à¥Īà¤¸à¤²à¤¾": 3987,
      "Ġà¤²à¤ķ": 3988,
      "cul": 3989,
      "Ġà¤¸à¤Ĥà¤ļà¤¾à¤²à¤¨": 3990,
      "Ġà¤¸à¥Įà¤°": 3991,
      "Ġà¤ļà¤ķà¥įà¤°": 3992,
      "Ġà¤¡à¤°": 3993,
      "à¤¿à¤Łà¤°": 3994,
      "à¤¿à¤Ĥà¤Ĺà¤Łà¤¨": 3995,
      "Ġà¤¤à¤²à¤¾à¤¶": 3996,
      "à¥ģà¤ħà¤²": 3997,
      "ĠThis": 3998,
      "Ġà¤ªà¥ī": 3999,
      "Ġà¤¸à¥įà¤Łà¥įà¤°à¤¿à¤Ĥà¤Ĺ": 4000,
      "Ġà¤ľà¤¿à¤¸à¤ķà¥Ģ": 4001,
      "Ġà¤¢à¥Ĥà¤Ĥ": 4002,
      "Ġà¤¦à¥įà¤µà¤¿à¤¤à¥Ģà¤¯": 4003,
      "Ġà¤ļà¤Łà¥įà¤Ł": 4004,
      "2007": 4005,
      "Ġà¤īà¤¦à¥įà¤¯à¤¾à¤¨": 4006,
      "à¤¡à¥įà¤°": 4007,
      "Ġà¤Łà¤¿à¤ªà¥įà¤ª": 4008,
      "Ġà¤¹à¥ĭà¤¨à¥Ģ": 4009,
      "Ġà¤ªà¥ĩ": 4010,
      "Ġà¤ħà¤ªà¤¨": 4011,
      "Ġthem": 4012,
      "Ġà¤¦à¥Ģà¤µ": 4013,
      "Ġà¤ĸà¥ĭà¤ľà¤¨à¥ĩ": 4014,
      "à¤¿à¤ľà¥įà¤ŀ": 4015,
      "Ġà¤¦à¤µà¤¾": 4016,
      "Ġsp": 4017,
      "Ġà¤ķà¤°à¤¨à¥Ģ": 4018,
      "à¥ĩà¤¶à¤¨à¤²": 4019,
      "ĠCh": 4020,
      "Ġà¤ħà¤§à¤¿à¤ķà¤¾à¤°à¤¿à¤¯à¥ĭà¤Ĥ": 4021,
      "à¤¸à¥Ĥ": 4022,
      "Ġà¤¬à¥Į": 4023,
      "à¥įà¤°à¤¿à¤ªà¥įà¤Ł": 4024,
      "Ġà¤¡à¤¾à¤¯": 4025,
      "Ġà¤¹à¤¿à¤®": 4026,
      "Ġà¤²à¤Ĥà¤¬à¥Ģ": 4027,
      "Ġà¤¹à¤¿à¤¨à¥įà¤¦": 4028,
      "<<": 4029,
      "Ġà¤¸à¥įà¤²": 4030,
      "à¤Łà¤®": 4031,
      "-à¤ıà¤²": 4032,
      "ĠX": 4033,
      "à¤¾à¤¯à¤¤": 4034,
      "Ġà¤īà¤¤à¥įà¤ķ": 4035,
      "Ġpr": 4036,
      "Ġà¤Łà¥ĩà¤¬à¤²": 4037,
      "Ġà¤®à¤¾à¤¸": 4038,
      "à¤ĩà¤¸à¤ķà¤¾": 4039,
      "Ġà¤¤à¤¾à¤°à¥Ģ": 4040,
      "Ġbet": 4041,
      "Ġà¤ķà¤µà¤¿à¤¤à¤¾": 4042,
      "Ġà¤¸à¤¾à¤ĩ": 4043,
      "Ġà¤ªà¥įà¤°à¤¤à¤¿à¤¯à¥ĭà¤Ĺ": 4044,
      "ility": 4045,
      "Ġà¤®à¤Ĥà¤¤à¥įà¤°": 4046,
      "Ġà¤¦à¥ĩà¤Ĥà¤ĥ": 4047,
      "Ġà¤®à¥ĭà¤¹": 4048,
      "Ġother": 4049,
      "Ġà¤¬à¥ĩà¤¸": 4050,
      "Ġà¤¨à¤¿à¤ľà¥Ģ": 4051,
      "à¤¾à¤Ĥà¤¤à¤°à¤¿à¤¤": 4052,
      "Ġà¤¸à¤¿à¤²": 4053,
      "Ġà¤®à¥Īà¤¦à¤¾à¤¨": 4054,
      "à¤ıà¤ļ": 4055,
      "à¤¾à¤ĩà¤¯à¥ĭà¤Ĥ": 4056,
      "Ġà¤¬à¤¨à¤¨à¥ĩ": 4057,
      "ze": 4058,
      "à¤«à¥Ģ": 4059,
      "Ġà¤²à¥ĩà¤¨à¤¾": 4060,
      "Ġà¤ħà¤Ńà¤¿à¤µ": 4061,
      "à¥ĩà¤ķà¤°": 4062,
      "Ġà¤²à¥ĩà¤¤à¤¾": 4063,
      "Ġà¤Ńà¥Įà¤¤à¤¿à¤ķ": 4064,
      "Ġà¤¤à¥ģà¤°à¤Ĥà¤¤": 4065,
      "Ġà¤ªà¥Īà¤ķ": 4066,
      "Ġà¤ıà¤²à¥įà¤¬à¤®": 4067,
      "Ġform": 4068,
      "Ġà¤²à¤Ĥà¤¬à¤¾à¤Ī": 4069,
      "à¤¿à¤ľà¤¨": 4070,
      "Ġà¤²à¥Ģà¤Ĺ": 4071,
      "Ġà¤²à¤¡à¤¼à¤¾à¤Ī": 4072,
      "à¤¹à¤¾à¤²": 4073,
      "à¤µà¥Ī": 4074,
      "line": 4075,
      "Ġà¤ªà¥Įà¤§à¥ĭà¤Ĥ": 4076,
      "Ġà¤ªà¤¾à¤łà¥įà¤¯à¤ķà¥įà¤°à¤®": 4077,
      "Ġà¤ªà¤°à¥įà¤¯à¤Łà¤¨": 4078,
      "de": 4079,
      "Ġà¤ªà¥ģà¤°à¥ģà¤·à¥ĭà¤Ĥ": 4080,
      "Ġà¤¶à¤°à¤¾à¤¬": 4081,
      "Ġà¤¸à¤¾à¤¹": 4082,
      "à¥ĩà¤ľà¤¼à¥Ģ": 4083,
      "Ġà¤¸à¤¿à¤¨": 4084,
      "Ġà¤¸à¤¾à¤®à¥įà¤°à¤¾à¤ľà¥įà¤¯": 4085,
      "Ġà¤¹à¥ĩà¤²": 4086,
      "Ġà¤§à¥ĭ": 4087,
      "Ġimport": 4088,
      "Ġà¤µà¤°à¥įà¤Ĺà¥Ģà¤ķà¥ĥà¤¤": 4089,
      "Ġà¤ħà¤¥": 4090,
      "Ġà¤ķà¤¾à¤°à¥įà¤°à¤µà¤¾à¤Ī": 4091,
      "iqu": 4092,
      "à¥ĩà¤ķà¥įà¤·à¤£": 4093,
      "Ġà¤¸à¤Ĥà¤¬à¤Ĥà¤§à¥Ģ": 4094,
      "à¤²à¤¿à¤¤": 4095,
      "ough": 4096,
      "à¤ķà¥įà¤·à¤ķ": 4097,
      "Ġà¤¨à¤¿à¤°à¤Ĥà¤¤à¤°": 4098,
      "à¤¿à¤¨à¤¿à¤¯à¤®": 4099,
      "Ġà¤ļà¤¿à¤ķà¤¿à¤¤à¥įà¤¸": 4100,
      "Ġà¤¦à¥ĥà¤·à¥įà¤Łà¤¿": 4101,
      "Ġà¤ħà¤ķà¤¾à¤¦à¤®à¥Ģ": 4102,
      "ĠIndi": 4103,
      "à¥ĩà¤¶à¤ķ": 4104,
      "Ġà¤¢à¥Ĥà¤Ĥà¤¢": 4105,
      "Ġà¤¸à¥ģà¤ªà¤°": 4106,
      "Ġà¤¬à¤¿à¤ķà¥įà¤°à¥Ģ": 4107,
      "data": 4108,
      "Ġà¤¸à¤¾à¤°à¥ĩ": 4109,
      "à¥ģà¤Ī": 4110,
      "Ġà¤ľà¥ĭà¤°": 4111,
      "Ġà¤¸à¤Ĥà¤¤à¥ģà¤²": 4112,
      "Ġvari": 4113,
      "Ġà¤°à¥ĩà¤ĸà¤¾": 4114,
      "Ġà¤ķà¥ĭà¤¶à¤¿à¤ķà¤¾à¤ĵà¤Ĥ": 4115,
      "Ġà¤¹à¥ī": 4116,
      "Ġà¤ıà¤²à¥įà¤Ĺà¥ĭà¤°à¤¿à¤¥à¥įà¤®": 4117,
      "Ġà¤ªà¤°à¤¿à¤¸": 4118,
      "Ġà¤ªà¤°à¤¿à¤·à¤¦": 4119,
      "Ġsa": 4120,
      "Ġà¤ªà¤°à¤®à¤¾à¤£à¥ģ": 4121,
      "à¤¶à¥įà¤®": 4122,
      "Ġà¤µà¥įà¤¯à¤¾à¤¯à¤¾à¤®": 4123,
      "ib": 4124,
      "Ġà¤īà¤ªà¤¨à¥įà¤¯à¤¾à¤¸": 4125,
      "Ġà¤¬à¥Ģà¤®à¤¾à¤°": 4126,
      "Ġà¤¶à¥ģ": 4127,
      "Ġà¤ķà¤¾à¤°à¤ķà¥ĭà¤Ĥ": 4128,
      "Ġà¤¬à¤¹à¥ģ": 4129,
      "Ġà¤ķà¤¿à¤®à¥Ģ": 4130,
      "à¤¹à¤°à¤¾": 4131,
      "Ġà¤ªà¥įà¤°à¤£à¤¾à¤²": 4132,
      "_t": 4133,
      "à¥Ĥà¤¨à¥Ģ": 4134,
      "à¤®à¤¾à¤¤à¥įà¤°": 4135,
      "à¥ĩà¤Ĥà¤¡à¤°": 4136,
      "Ġà¤¶à¤¾à¤ĸ": 4137,
      "Ġthey": 4138,
      "à¤¾à¤Ĺà¤¤": 4139,
      "Ġprogram": 4140,
      "Ġà¤Ĳà¤ª": 4141,
      "à¤¤à¤¾à¤ıà¤Ĥ": 4142,
      "row": 4143,
      "ating": 4144,
      "-à¤Ĺ": 4145,
      "Ġà¤ķà¤¹à¤¾à¤ģ": 4146,
      "à¤¾à¤°à¤ķ": 4147,
      "à¤¾à¤Ĺà¥įà¤°": 4148,
      "à¥įà¤µà¥Ģà¤ª": 4149,
      "à¤¡à¤¼à¤¿à¤¤": 4150,
      "ĠIt": 4151,
      "Ġà¤«à¥ģà¤Łà¤¬à¥īà¤²": 4152,
      "Ġfunction": 4153,
      "Ġà¤¨à¤¿à¤¯à¥ģà¤ķà¥įà¤¤": 4154,
      "à¤°à¥Ģà¤¯": 4155,
      "Ġalgorith": 4156,
      "à¥ĭà¤°à¥įà¤¨à¤¿à¤¯à¤¾": 4157,
      "à¤¤à¤¾à¤ª": 4158,
      "Ġà¤ªà¥įà¤°à¤¤à¤¿à¤Ń": 4159,
      "Ġà¤ķà¤¿à¤¤à¤¾à¤¬": 4160,
      "à¥ģà¤·à¥įà¤Łà¤¿": 4161,
      "ĠĠčĊ": 4162,
      "Ġà¤ªà¥įà¤°à¥ĭà¤¤à¥įà¤¸à¤¾à¤¹à¤¿à¤¤": 4163,
      "Ġà¤²à¤Ĺà¥ĩ": 4164,
      "Ġà¤®à¤¿à¤²à¤¿à¤¯à¤¨": 4165,
      "anguage": 4166,
      "à¤¾à¤°à¤¿à¤¶": 4167,
      "à¤ķà¥įà¤·à¥įà¤®": 4168,
      "ove": 4169,
      "Ġà¤ĩà¤²à¤¾à¤ľ": 4170,
      "Ġà¤ªà¤¢à¤¼à¤¨à¥ĩ": 4171,
      "à¤¾à¤¸à¤¾à¤¯": 4172,
      "Ġà¤ĸà¥ĭà¤²": 4173,
      "led": 4174,
      "Ġà¤°à¤¸à¤¾à¤¯": 4175,
      "ues": 4176,
      "Ġà¤Ĺà¥ģà¤²": 4177,
      "Ġà¤ĩà¤Ĥ": 4178,
      "à¤§à¥Ģ": 4179,
      "Ġà¤ľà¤¹à¤¾à¤ľ": 4180,
      "Ġà¤Łà¤¿à¤ķ": 4181,
      "Ġà¤¬à¤°à¤¾à¤¬": 4182,
      "cre": 4183,
      "Ġà¤ªà¥ģà¤¤à¥įà¤°": 4184,
      "irst": 4185,
      "Ġà¤ıà¤¶à¤¿à¤¯à¤¾": 4186,
      "Ġà¤ªà¥įà¤°à¥ĭà¤Łà¥Ģà¤¨": 4187,
      "Ġà¤¸à¥ģà¤²": 4188,
      "Ġà¤¤à¤¯": 4189,
      "Ġà¤¡à¥ĩ": 4190,
      "Ġà¤ļà¤°à¤£à¥ĭà¤Ĥ": 4191,
      "Ġà¤¬à¤¦à¤²à¤¨à¥ĩ": 4192,
      "Ġà¤ªà¥įà¤°à¤¤à¤¿à¤¬à¤Ĥà¤§": 4193,
      "Ġà¤µà¤¾à¤¯à¤°à¤¸": 4194,
      "Ġà¤¹à¤¾à¤Ī": 4195,
      "Ġà¤Ĩà¤ł": 4196,
      "Ġà¤¦à¤°à¥įà¤¶à¤¾à¤¤à¤¾": 4197,
      "Ġà¤ķà¤¿à¤¶à¥ĭà¤°": 4198,
      "Ġà¤ªà¤°à¤¿à¤Ńà¤¾à¤·à¤¿à¤¤": 4199,
      "Ġà¤¸à¤®à¥įà¤®à¤¾à¤¨à¤¿à¤¤": 4200,
      "Ġcustom": 4201,
      "Ġà¤µà¥įà¤¯à¤¾à¤ĸà¥įà¤¯à¤¾": 4202,
      "Ġà¤ļà¤¾à¤°à¥ĭà¤Ĥ": 4203,
      "Ġà¤²à¤¾à¤ĩà¤¨": 4204,
      "Ġà¤Ĩà¤īà¤Łà¤ªà¥ģà¤Ł": 4205,
      "\"à¤¯à¤¹": 4206,
      "ative": 4207,
      "Ġà¤ľà¥īà¤°à¥įà¤ľ": 4208,
      "à¤¾à¤µà¤°": 4209,
      "Ġà¤ªà¥įà¤°à¤Ńà¤¾à¤µà¥ĭà¤Ĥ": 4210,
      "Ġà¤¸à¤¨à¥į": 4211,
      "à¥ĭà¤¬à¤¾à¤ĩà¤²": 4212,
      "Ġà¤¤à¤¾à¤°à¥Ģà¤ĸ": 4213,
      "à¥įà¤Łà¤¨": 4214,
      "Ġà¤¡à¤¿à¤ľà¤¼": 4215,
      "à¤¾à¤¸à¤¾à¤¯à¤¨à¤¿à¤ķ": 4216,
      "à¤®à¤¾à¤¨à¥ĩ": 4217,
      "Ġà¤¨à¤¿à¤ªà¤Ł": 4218,
      "à¤°à¤¾à¤ľà¥įà¤¯": 4219,
      "Ġà¤¬à¤Ĥà¤Ĺ": 4220,
      "Ġà¤§à¥Ģà¤°à¥ĩ": 4221,
      "Ġà¤ļà¤²à¤¨à¥ĩ": 4222,
      "Ġà¤ķà¤¿à¤°": 4223,
      "à¥Īà¤¨à¤²": 4224,
      "à¤¶à¥įà¤ļà¤°à¥įà¤¯": 4225,
      "Ġà¤ľà¥įà¤ŀà¤¾à¤¤": 4226,
      "-à¤ı": 4227,
      "sis": 4228,
      "Ġà¤ħà¤«à¥įà¤°à¥Ģà¤ķà¤¾": 4229,
      "à¥ĭà¤§à¤¨": 4230,
      "à¥ĩà¤²à¥Ĥ": 4231,
      "Ġà¤¸à¤Ĥà¤ļà¤¾à¤²à¤¿à¤¤": 4232,
      "Ġà¤ıà¤¥": 4233,
      "arch": 4234,
      "Ġà¤®à¥ĩà¤ľ": 4235,
      "Ġà¤ĩà¤¤à¤¨à¤¾": 4236,
      "31": 4237,
      "Ġà¤ªà¤°à¥Ģà¤ķà¥įà¤·à¤¾": 4238,
      "Ġà¤¸à¥ĩà¤ķ": 4239,
      "Ġà¤¶à¤¾à¤¨": 4240,
      "Ġà¤¨à¤µà¥Ģà¤¨": 4241,
      "Ġà¤¸à¥įà¤°à¥ĭà¤¤à¥ĭà¤Ĥ": 4242,
      "à¤¿à¤§à¤¨": 4243,
      "ater": 4244,
      "Ġà¤ªà¤¹à¥ĩà¤²à¥Ģ": 4245,
      "pon": 4246,
      "à¤¹à¤¾à¤ģ": 4247,
      "Ġà¤¸à¥įà¤ªà¥ĩà¤¨": 4248,
      "Ġà¤ķà¤°à¥įà¤®à¤ļà¤¾à¤°à¥Ģ": 4249,
      "Ġà¤µà¤¿à¤µà¤¾à¤¦": 4250,
      "à¤¶à¥įà¤°à¥ĩà¤·à¥įà¤ł": 4251,
      "Ġà¤µà¤°": 4252,
      "Ġà¤¸à¤¿à¤«": 4253,
      "Ġà¤²à¥Ī": 4254,
      "Ġà¤°à¥ĩà¤²à¤µà¥ĩ": 4255,
      "à¤¡à¥ĩà¤Ł": 4256,
      "à¥ĩà¤°à¥ĩ": 4257,
      "à¥Īà¤Ĥà¤ª": 4258,
      "Ġà¤ķà¤ķà¥įà¤·": 4259,
      "erv": 4260,
      "Ġà¤ħà¤Ĥà¤¶": 4261,
      "Ġover": 4262,
      "à¤¨à¤¾à¤ķ": 4263,
      "Ġà¤Ĩà¤ªà¥Ĥà¤°à¥įà¤¤à¤¿": 4264,
      "Ġà¤īà¤¨à¥įà¤¨à¤¤": 4265,
      "Ġà¤¹à¤¤à¥įà¤¯à¤¾": 4266,
      "99": 4267,
      "Ġà¤§à¤¾à¤¤": 4268,
      "Ġà¤¬à¤¾à¤¯à¥ĭ": 4269,
      "Ġà¤ľà¤¿à¤¨à¤ķà¥ĩ": 4270,
      "Ġà¤¤à¥Ĥ": 4271,
      "Ġset": 4272,
      "75": 4273,
      "Ġà¤Ĺà¥ģà¤°à¥ģ": 4274,
      "à¤īà¤¦à¤¾à¤¹à¤°à¤£": 4275,
      "Ġdet": 4276,
      "Ġà¤ħà¤¨à¥ģà¤ªà¥įà¤°": 4277,
      "Ġà¤¸à¥įà¤¤à¤Ĥà¤Ń": 4278,
      "Ġà¤Ĩà¤°à¤¾à¤®": 4279,
      "Ġà¤¸à¤¾à¤¬à¤¿à¤¤": 4280,
      "Ġà¤ķà¥īà¤®": 4281,
      "||": 4282,
      "à¤¿à¤¯à¤¾à¤¦à¥Ģ": 4283,
      "à¥įà¤°à¥Ģà¤®": 4284,
      "dd": 4285,
      "Ġà¤Ĩà¤Ĥà¤¦à¥ĭà¤²à¤¨": 4286,
      "Ġà¤¸à¥ĩà¤Ĥ": 4287,
      "Ġà¤¤à¥įà¤°à¥ģà¤Ł": 4288,
      "Ġà¤¬à¤¤à¤¾à¤¤à¤¾": 4289,
      "Ġà¤¤à¤¤": 4290,
      "its": 4291,
      "Ġid": 4292,
      "à¤īà¤¨à¥įà¤¹à¥ĭà¤Ĥà¤¨à¥ĩ": 4293,
      ").": 4294,
      "à¤ªà¤¾": 4295,
      "Ġà¤µà¤¿à¤«": 4296,
      "Ġà¤Ĺà¥įà¤°à¤¾à¤®à¥Ģ": 4297,
      "Ġà¤¸à¤°à¥įà¤µà¥ĩà¤ķà¥įà¤·à¤£": 4298,
      "Ġà¤ļà¤²à¥ĩ": 4299,
      "à¤°à¥įà¤¤à¤¨": 4300,
      "Ġà¤®à¤¿à¤¶à¤¨": 4301,
      "Ġà¤¨à¤¿à¤°à¥įà¤µà¤¾à¤ļà¤¨": 4302,
      "500": 4303,
      "Ġà¤¦à¤¿à¤ĸà¤¾à¤¯à¤¾": 4304,
      "Ġà¤®à¥ĩà¤°à¤¾": 4305,
      "td": 4306,
      "Ġà¤µà¤¿à¤«à¤²": 4307,
      "Ġà¤ħà¤°à¥įà¤¥à¤µà¥įà¤¯à¤µ": 4308,
      "Ġunder": 4309,
      "Ġà¤¦à¥Įà¤¡à¤¼": 4310,
      "Ġchar": 4311,
      "à¤¾à¤®à¤¾à¤¨à¥įà¤¯": 4312,
      "Ġà¤²à¤¿à¤Ĥà¤ķ": 4313,
      "à¥ģà¤°à¤¾": 4314,
      "Ġà¤¸à¤¾à¤ĩà¤Ł": 4315,
      "à¤°à¥įà¤ľà¥Ģ": 4316,
      "Ġà¤ľà¤¾à¤ģà¤ļ": 4317,
      "Ġà¤ıà¤Ĥà¤Łà¥Ģ": 4318,
      "Ġà¤¥à¥ĭà¤¡à¤¼à¤¾": 4319,
      "à¤¾à¤¯à¥ĩ": 4320,
      "à¤¿à¤«à¥ĭà¤°à¥įà¤¨à¤¿à¤¯à¤¾": 4321,
      "à¥įà¤ªà¤¾à¤¦": 4322,
      "Ġà¤µà¤¿à¤Ĥ": 4323,
      "à¥ĩà¤°à¤¾": 4324,
      "à¤ļà¤¾à¤°à¤¿à¤¯à¥ĭà¤Ĥ": 4325,
      "Ġà¤ªà¥įà¤°à¤ľà¤¾à¤¤à¤¿à¤¯à¥ĭà¤Ĥ": 4326,
      "à¥ĩà¤¦à¤¾à¤°à¥Ģ": 4327,
      "Ġgiven": 4328,
      "Ġmodel": 4329,
      "Ġà¤ĳà¤ªà¤°": 4330,
      "à¤®à¤Ĥà¤¤à¥įà¤°à¥Ģ": 4331,
      "Ġà¤¸à¥ĭà¤®": 4332,
      "à¤¾à¤®à¤ķ": 4333,
      "à¥¨à¥¦à¥§à¥": 4334,
      "Ġpe": 4335,
      "Ġà¤Ĩà¤¶à¥įà¤ļà¤°à¥įà¤¯": 4336,
      "AB": 4337,
      "Ġà¤¸à¤Ĥà¤Ĺà¥įà¤°": 4338,
      "à¤ªà¥ģ": 4339,
      "ural": 4340,
      "Ġany": 4341,
      "190": 4342,
      "Ġà¤ĩà¤¨à¤ķà¥ĩ": 4343,
      "à¤¾à¤¸à¤¤": 4344,
      "cy": 4345,
      "à¥ĩà¤Ĥà¤¸à¥Ģ": 4346,
      "Ġà¤ªà¥įà¤°à¤Ĺà¤¤à¤¿": 4347,
      "à¥īà¤¯": 4348,
      "à¤¸à¥įà¤Łà¤°": 4349,
      "Ġà¤ªà¥ģà¤¸à¥įà¤¤à¤ķà¤¾à¤²à¤¯": 4350,
      "Ġà¤¸à¤Ĥà¤Ĺà¥įà¤°à¤¹à¤¾à¤²à¤¯": 4351,
      "à¤¬à¥įà¤¬": 4352,
      "à¥ĭà¤²à¥īà¤ľà¥Ģ": 4353,
      "à¤¿à¤¬à¥įà¤¬": 4354,
      "Ġà¤ªà¤¢à¤¼à¥ĩà¤Ĥ": 4355,
      "Ġà¤®à¤¿à¤²à¤¨à¥ĩ": 4356,
      "Ġà¤Ńà¤¾à¤·à¤¾à¤ĵà¤Ĥ": 4357,
      "Ġà¤¦à¤¿à¤µà¤¸": 4358,
      "Ġà¤ľà¤¿à¤®à¥įà¤®à¥ĩà¤¦à¤¾à¤°": 4359,
      "Ġà¤ķà¥ģà¤¶à¤²": 4360,
      "Ġà¤Ĩà¤¶": 4361,
      "Ġexp": 4362,
      "Ġà¤ĸà¤¤à¤°à¤¾": 4363,
      "Ġà¤ķà¥įà¤°à¤¿à¤¯à¤¾": 4364,
      "]:": 4365,
      "à¤¦à¤Ĥà¤¡": 4366,
      "Ġà¤¦à¥ĭà¤·": 4367,
      "Ġà¤ĩà¤²à¤¾à¤ķ": 4368,
      "à¤¾à¤·à¥įà¤Łà¥įà¤°": 4369,
      "Ġà¤¦à¥ģà¤ķà¤¾à¤¨": 4370,
      "alcul": 4371,
      "Ġà¤ľà¥ģà¤¡à¤¼": 4372,
      "Ġà¤¸à¤¿à¤«à¤¾à¤°à¤¿à¤¶": 4373,
      "Ġà¤¦à¥ĩà¤Ĺà¤¾": 4374,
      "Ġà¤ħà¤ķà¥įà¤·à¤°": 4375,
      "vi": 4376,
      "Ġà¤ªà¤¤à¥įà¤¤": 4377,
      "\";": 4378,
      "Ġà¤®à¤§à¥ģà¤®": 4379,
      "à¤¡à¤¾": 4380,
      "Ġà¤ĩà¤°": 4381,
      "à¤¨à¤¾à¤¥": 4382,
      "Ġà¤ªà¤Ĥà¤ľà¤¾à¤¬": 4383,
      "Ġà¤ıà¤ķà¤®à¤¾à¤¤à¥įà¤°": 4384,
      "als": 4385,
      "Ġà¤µà¥Īà¤ľà¥įà¤ŀà¤¾à¤¨à¤¿à¤ķà¥ĭà¤Ĥ": 4386,
      "Ġà¤¨à¤¿à¤°à¥įà¤®à¤¿à¤¤": 4387,
      "à¤¾à¤¤à¤¾à¤ĵà¤Ĥ": 4388,
      "Ġthese": 4389,
      "Ġà¤°à¤¿à¤¸": 4390,
      "Ġà¤ķà¤°à¥įà¤®à¤ļà¤¾à¤°à¤¿à¤¯à¥ĭà¤Ĥ": 4391,
      "Ġà¤ļà¤¿à¤Ĥà¤¤à¤¾": 4392,
      "Ġà¤ħà¤Ĺà¥įà¤°": 4393,
      "Ġone": 4394,
      "Ġà¤¬à¤°à¤¾à¤¬à¤°": 4395,
      "Ġà¤°à¥ģà¤ļà¤¿": 4396,
      "à¤¶à¤¿à¤ª": 4397,
      "ns": 4398,
      "Ġà¤ķà¤¿à¤¨à¤¾à¤°à¥ĩ": 4399,
      "2000": 4400,
      "Ġà¤¦à¥Īà¤¨à¤¿à¤ķ": 4401,
      "à¤¦à¤²": 4402,
      "Ġà¤¶à¤¿à¤ķà¤¾à¤°": 4403,
      "Ġà¤¸à¤¤à¥įà¤°": 4404,
      "36": 4405,
      "Ġmake": 4406,
      "Ġà¤ĩà¤ķà¤¾à¤Ī": 4407,
      "Ġà¤ħà¤§à¤¿à¤¨à¤¿à¤¯à¤®": 4408,
      "Ġà¤µà¤¾à¤¯": 4409,
      "Ġà¤Ĩà¤ģ": 4410,
      "Ġà¤¹à¤²à¥įà¤ķ": 4411,
      "Ġà¤¬à¥ģà¤¨à¤¿à¤¯à¤¾à¤¦à¥Ģ": 4412,
      "Ġà¤ªà¥įà¤°à¥ĭà¤«à¥ĩà¤¸à¤°": 4413,
      "Ġà¤Ĩà¤Ĥà¤¤à¤°à¤¿à¤ķ": 4414,
      "(n": 4415,
      "Ġà¤ķà¤Ĥà¤ªà¤¨à¤¿à¤¯à¥ĭà¤Ĥ": 4416,
      "Ġtwo": 4417,
      "Ġà¤Ľà¤¤à¥įà¤¤à¥Ģà¤¸à¤Ĺà¤¢à¤¼": 4418,
      "Ġà¤¸à¤¬à¥įà¤ľ": 4419,
      "Ġà¤Ĺà¤°à¥Ģ": 4420,
      "Ġà¤ķà¤¾à¤°à¤ķ": 4421,
      "à¥įà¤¯à¤¾à¤¤": 4422,
      "Ġà¤Ńà¤µà¤¨": 4423,
      "-à¤¹": 4424,
      "Ġà¤ªà¤¤à¥įà¤¥": 4425,
      "à¤Ĺà¤£à¤¨à¤¾": 4426,
      "SON": 4427,
      "Ġà¤ħà¤Ńà¤¿à¤¨à¥ĩà¤¤à¤¾": 4428,
      "],": 4429,
      "Ġà¤®à¤¨à¥ĭà¤°": 4430,
      "Ġà¤īà¤¤à¥įà¤ķà¥ĥà¤·à¥įà¤Ł": 4431,
      "à¤¾à¤ĩà¤µ": 4432,
      "Ġà¤¸à¥Īà¤¨à¥įà¤¯": 4433,
      "Ġà¤¦à¤¾à¤µà¤¾": 4434,
      "à¥īà¤ķà¥įà¤¸": 4435,
      "à¤ªà¤¤": 4436,
      "ght": 4437,
      "(à¤¬": 4438,
      "à¤¦à¥įà¤°": 4439,
      "vel": 4440,
      "Ġlik": 4441,
      "Ġà¤ªà¥Įà¤§à¥ĩ": 4442,
      "à¥įà¤µà¤¿à¤¤à¥Ģà¤¯": 4443,
      "Ġà¤Łà¥įà¤°à¥Īà¤ķ": 4444,
      "Ġà¤¸à¤°à¥įà¤µà¤¶à¥įà¤°à¥ĩà¤·à¥įà¤ł": 4445,
      "à¤¿à¤¸à¥įà¤ªà¤°à¥įà¤§": 4446,
      "Ġsol": 4447,
      "Ġà¤°à¤¾à¤¹": 4448,
      "Ġfollowing": 4449,
      "Ġà¤µà¤¿à¤¤à¤°à¤£": 4450,
      "à¥ĩà¤Ĥà¤¦à¥įà¤°": 4451,
      "Ġà¤ķà¤®à¤ľ": 4452,
      "erm": 4453,
      "à¥Ģà¤ľà¤¨": 4454,
      "2006": 4455,
      "Ġà¤ħà¤µà¤¶": 4456,
      "Ġà¤ĳà¤¸à¥įà¤Łà¥įà¤°à¥ĩà¤²à¤¿à¤¯à¤¾": 4457,
      "Ġà¤ªà¤¾à¤¤à¥įà¤°": 4458,
      "Ġà¤°à¤¾à¤¶à¤¿": 4459,
      "à¤°à¤²à¥Īà¤Ĥà¤¡": 4460,
      "Ġà¤®à¤¾à¤ĩà¤ķà¥įà¤°": 4461,
      "Ġà¤¸à¤Ĥà¤¦à¤°à¥įà¤Ńà¤¿à¤¤": 4462,
      "Ġà¤°à¥ĭà¤¬": 4463,
      "Ġà¤¸à¤Ĥà¤¸à¥įà¤ķà¥ĥà¤¤": 4464,
      "Ġà¤īà¤¨à¤¸à¥ĩ": 4465,
      "Ġà¤¡à¤¿à¤ľà¤¼à¤¾à¤ĩà¤¨": 4466,
      "Ġà¤¸à¤®à¤¿à¤¤à¤¿": 4467,
      "_s": 4468,
      "à¤¾à¤¯à¤²à¥īà¤Ĺ": 4469,
      "Ġà¤¶à¤¾à¤¸": 4470,
      "à¤¿à¤¹à¥įà¤¨": 4471,
      "à¤ľà¥Ĥ": 4472,
      "Ġà¤ĺà¤°à¥ĩà¤²à¥Ĥ": 4473,
      "Ġà¤ļà¥Ģà¤ľà¥ĭà¤Ĥ": 4474,
      "Ġstring": 4475,
      "own": 4476,
      "Ġà¤¸à¥Ģà¤Ł": 4477,
      "à¤¯à¤¹à¤¾à¤ģ": 4478,
      "Ġà¤¬à¤¢à¤¼à¤¾": 4479,
      "Ġà¤īà¤ľ": 4480,
      "Ġà¤ļà¥ĩà¤¤": 4481,
      "Ġrequ": 4482,
      "Ġdifferent": 4483,
      "Ġà¤ªà¥įà¤°à¤Ń": 4484,
      "ution": 4485,
      "te": 4486,
      "Ġlear": 4487,
      "Ġà¤ľà¤Ĥà¤Ĺà¤²": 4488,
      "Ġhis": 4489,
      "à¥Ĥà¤ģ": 4490,
      "à¤Ĩà¤īà¤Łà¤ªà¥ģà¤Ł": 4491,
      "Ġà¤ľà¤¼à¤¿à¤²à¤¾": 4492,
      "à¤ķà¥įà¤·à¤£à¤¿à¤ķ": 4493,
      "Ġà¤ľà¥ĭà¤¡à¤¼à¤¨à¥ĩ": 4494,
      "ip": 4495,
      "Ġà¤²à¤ķà¤¡à¤¼à¥Ģ": 4496,
      "Ġà¤²à¤¿à¤ĸà¤¿à¤¤": 4497,
      "Ġà¤µà¤¿à¤ķà¤²à¥įà¤ªà¥ĭà¤Ĥ": 4498,
      "Ġà¤¸à¤¿à¤ĸ": 4499,
      "à¥ĩà¤²à¤¨": 4500,
      "Ġpart": 4501,
      "Ġà¤¸à¥Ĥà¤ĸ": 4502,
      "à¥įà¤ªà¥įà¤°": 4503,
      "(à¤µ": 4504,
      "à¤ķà¥ĥà¤¤": 4505,
      "Ġà¤ªà¥įà¤°à¤¤à¤¿à¤¸à¥įà¤ªà¤°à¥įà¤§": 4506,
      "Ġà¤ĩà¤¸à¥įà¤²": 4507,
      "ential": 4508,
      "Ġà¤¸à¥įà¤¤à¤¨": 4509,
      "Ġà¤«à¥Ģà¤Ł": 4510,
      "alth": 4511,
      "ood": 4512,
      "Ġà¤¬à¤¿à¤¤": 4513,
      "Ġdevelop": 4514,
      "33": 4515,
      "à¤īà¤¸": 4516,
      "Ġà¤ªà¥ģà¤°à¤¾à¤¨à¥Ģ": 4517,
      "Ġà¤¬à¤¤à¤¾": 4518,
      "Ġà¤Ńà¤µà¤¿à¤·à¥įà¤¯à¤µ": 4519,
      "Ġà¤¤à¤¾à¤°": 4520,
      "à¤¾à¤ķà¤°à¤£": 4521,
      "Ġà¤¶à¤¾à¤Ĥà¤¤": 4522,
      "Ġresult": 4523,
      "Ġà¤Ĩà¤ĸ": 4524,
      "Ġà¤®à¥ģà¤¦à¥įà¤¦à¥ĭà¤Ĥ": 4525,
      "à¤®à¥įà¤Ń": 4526,
      "à¤Ĥà¤Ĺà¤¿à¤ķ": 4527,
      "à¤¾à¤¨à¤ķ": 4528,
      "ĠSQL": 4529,
      "Ġà¤ħà¤¥à¤µà¤¾": 4530,
      "à¤¾à¤¶à¤¯": 4531,
      "Ġev": 4532,
      "Ġà¤ľà¥Īà¤µ": 4533,
      "à¤¾à¤®à¤¿à¤¨": 4534,
      "Ġà¤ĩà¤¨à¥įà¤¹à¥ĩà¤Ĥ": 4535,
      "Ġà¤ªà¥Ģà¤¡à¤¼à¤¿à¤¤": 4536,
      "Ġà¤Łà¥Ģà¤µà¥Ģ": 4537,
      "Ġà¤Ĺà¤°à¥įà¤®à¥Ģ": 4538,
      "à¤¨à¤ķ": 4539,
      "Ġà¤ĸà¤¾à¤¨à¤¾": 4540,
      "Ġinform": 4541,
      "à¤¶à¤¾à¤¸à¥įà¤¤à¥įà¤°": 4542,
      "Ġà¤ľà¥ĭà¤¡à¤¼à¤¾": 4543,
      "ert": 4544,
      "Ġà¤«à¥īà¤°à¥įà¤®": 4545,
      "à¤ªà¤¹": 4546,
      "Ġà¤¬à¤¢à¤¼à¤¤à¥ĩ": 4547,
      "Ġà¤¶à¤¾à¤¨à¤¦à¤¾à¤°": 4548,
      "(C": 4549,
      "à¤¾à¤ĩà¤¸": 4550,
      "ĠHTML": 4551,
      "Ġà¤¸à¤¿à¤ķ": 4552,
      "à¤īà¤¨": 4553,
      "Ġà¤ķà¥Īà¤²à¤¿à¤«à¥ĭà¤°à¥įà¤¨à¤¿à¤¯à¤¾": 4554,
      "Ġà¤¦à¤°à¥įà¤¶à¤¨": 4555,
      "ans": 4556,
      "à¤Ĥà¤ľà¥Ģ": 4557,
      "ublic": 4558,
      "Ġà¤Ĩà¤ķà¤°à¥įà¤·à¤¿à¤¤": 4559,
      "Ġà¤«à¤Ĥà¤ķà¥įà¤¶à¤¨": 4560,
      "à¤Ĥà¤¡à¥Ģ": 4561,
      "à¤ļà¥įà¤Ľà¤¿à¤ķ": 4562,
      "ml": 4563,
      "Ġà¤¶à¥ģà¤ķà¥įà¤°": 4564,
      "Ġà¤¤à¥ģà¤®": 4565,
      "Ġà¤¦à¤µà¤¾à¤ĵà¤Ĥ": 4566,
      "à¤¾à¤¯à¤²à¥īà¤Ĺà¤ĥ": 4567,
      "Ġà¤Ĺà¥įà¤°à¤Ĥà¤¥": 4568,
      "Ġà¤ķà¥ĩà¤Ĥà¤¦": 4569,
      "à¤ķà¥ĭà¤¶": 4570,
      "à¤Łà¤ķ": 4571,
      "Ġà¤Łà¤¾à¤ĩà¤®": 4572,
      ".com": 4573,
      "['": 4574,
      "Ġà¤§à¥įà¤µà¤¨à¤¿": 4575,
      ".s": 4576,
      "Ġà¤®à¤¾à¤¨à¥įà¤¯à¤¤à¤¾": 4577,
      "Ġà¤¹à¤¡à¥įà¤¡": 4578,
      "Ġà¤ªà¤¹à¤¨": 4579,
      "Ġà¤¶à¤¹à¤°à¥ĭà¤Ĥ": 4580,
      "à¤¿à¤¨à¥įà¤¦": 4581,
      "Ġà¤¸à¤Ĥà¤ªà¤¤à¥įà¤¤à¤¿": 4582,
      "Ġà¤µà¤¿à¤¶à¥ĩà¤·à¤¤à¤¾": 4583,
      "Ġam": 4584,
      "à¤¿à¤°à¥Ģ": 4585,
      "Ġà¤ĩà¤²à¥ĩà¤ķà¥įà¤Łà¥įà¤°à¥īà¤¨": 4586,
      "Ġà¤¨à¥ĥà¤¤à¥įà¤¯": 4587,
      "ise": 4588,
      "Ġà¤®à¥ĩà¤Ł": 4589,
      "Ġà¤°à¤¾à¤¸à¤¾à¤¯à¤¨à¤¿à¤ķ": 4590,
      "Ġsum": 4591,
      "à¤¦à¥ĭ": 4592,
      "Ġà¤¬à¤¢à¤¼à¤¨à¥ĩ": 4593,
      "po": 4594,
      "Ġel": 4595,
      "Ġà¤µà¥įà¤¯à¤µà¤¸à¥įà¤¥à¤¿à¤¤": 4596,
      "Ġà¤¬à¤ľà¤Ł": 4597,
      "à¤®à¤²": 4598,
      "à¥įà¤°à¥Ģà¤¨": 4599,
      "à¥įà¤ķà¤¾à¤°": 4600,
      "Ġà¤¬à¤ļà¤¾à¤¨à¥ĩ": 4601,
      "Ġà¤ķà¤®à¤¾à¤Ĥà¤¡": 4602,
      "à¤µà¤°à¥įà¤¤à¥Ģ": 4603,
      "Ġà¤¬à¥ĩà¤Łà¥ĩ": 4604,
      "à¤Ĺà¥ĭ": 4605,
      "Ġwork": 4606,
      "à¤¾à¤µà¤²à¥Ģ": 4607,
      "Ġà¤§à¤¾à¤°à¤¾": 4608,
      "à¤µà¥ģà¤¡": 4609,
      "ĠCon": 4610,
      "Ġà¤µà¤¾à¤¹à¤¨": 4611,
      "\"à¤²": 4612,
      "à¤®à¤¿à¤²": 4613,
      "ences": 4614,
      "Ġà¤ªà¥įà¤°à¤¾à¤°à¥Ĥà¤ª": 4615,
      "Ġpol": 4616,
      "Ġà¤²à¤Ĥà¤¦à¤¨": 4617,
      "à¤°à¥Ģà¤ľ": 4618,
      "Ġà¤¨à¤¿à¤·": 4619,
      "(s": 4620,
      "Ġà¤ªà¥ĩà¤°": 4621,
      "à¤¿à¤®à¤¾": 4622,
      "Ġà¤¨à¤¿à¤¯à¤®à¥ĭà¤Ĥ": 4623,
      "à¤ħà¤¨": 4624,
      "sign": 4625,
      "à¥ĩà¤®à¥įà¤¸": 4626,
      "ify": 4627,
      "Ġà¤ħà¤¨à¥ģà¤ªà¥įà¤°à¤¯à¥ĭà¤Ĺ": 4628,
      "Ġà¤ķà¥Ģà¤ľà¤¿à¤ı": 4629,
      "Ġà¤¨à¤¿à¤°à¥įà¤®à¤¾à¤¤à¤¾": 4630,
      "Ġà¤ªà¤²": 4631,
      "Ġà¤ķà¤°à¤¿à¤¯à¤°": 4632,
      "Ġph": 4633,
      "ower": 4634,
      "Ġà¤¦à¥ĩà¤µà¥Ģ": 4635,
      "Ġà¤ıà¤Ĥà¤ľ": 4636,
      "à¤¸à¤Ĥà¤¦à¤°à¥įà¤Ń": 4637,
      "Ġà¤ħà¤°à¥įà¤¥à¤µà¥įà¤¯à¤µà¤¸à¥įà¤¥à¤¾": 4638,
      "Ġà¤®à¥Ĥà¤²à¥įà¤¯à¥ĭà¤Ĥ": 4639,
      "48": 4640,
      "ĉĉ": 4641,
      "à¥įà¤°à¥ĭ": 4642,
      "âĢįà¤¯": 4643,
      "Ġà¤ľà¤¾à¤ªà¤¾à¤¨": 4644,
      "Ġà¤¬à¤¾à¤Ĥà¤Ĺà¥įà¤²à¤¾à¤¦à¥ĩà¤¶": 4645,
      "Ġà¤¨à¤ķ": 4646,
      "Ġà¤°à¤ļà¤¨à¤¾": 4647,
      "Ġà¤¸à¤Ĥà¤°à¤ķà¥įà¤·à¤¿à¤¤": 4648,
      "Ġà¤¹à¤¿à¤Ĥà¤¦à¥Ģ": 4649,
      "Ġà¤ªà¥īà¤²": 4650,
      "Ġà¤Ĺà¥ĥà¤¹": 4651,
      "Ġà¤ħà¤¸à¥įà¤¤": 4652,
      "à¤¿à¤¶à¤¾à¤²à¥Ģ": 4653,
      "Ġà¤Ĺà¥įà¤°à¤¾à¤®à¥Ģà¤£": 4654,
      "Ġà¤ªà¤¾à¤Ī": 4655,
      "Ġà¤Ĺà¤¯à¥ĩ": 4656,
      "ays": 4657,
      "Ġà¤Ĩà¤²à¥ĭ": 4658,
      "à¥ĭà¤ľà¤¨à¤¾à¤ĵà¤Ĥ": 4659,
      "à¥įà¤ľà¤¾": 4660,
      "Ġà¤Łà¥įà¤¯à¥Ĥ": 4661,
      "Ġà¤ķà¥Īà¤ª": 4662,
      "à¤ķà¤¾à¤²à¤¿à¤ķ": 4663,
      "Ġà¤°à¥ĭà¤Ĺà¤¿à¤¯à¥ĭà¤Ĥ": 4664,
      "},": 4665,
      "Ġà¤ªà¥įà¤°à¤ļ": 4666,
      "Ġbut": 4667,
      "Ġà¤¡à¤¿à¤ľà¤¿à¤Łà¤²": 4668,
      "ah": 4669,
      "Ġà¤ĺà¥Ĥà¤®": 4670,
      "Ġwould": 4671,
      "-à¤Ń": 4672,
      "Ġà¤ľà¤¾à¤¨à¤¨à¥ĩ": 4673,
      "Ġà¤ħà¤¶": 4674,
      "à¤Ĳ": 4675,
      "à¤Ĥà¤Ĺà¥Ģ": 4676,
      "Ġà¤°à¤¨": 4677,
      "Ġà¤µà¤¿à¤¦à¥ĩà¤¶à¥Ģ": 4678,
      "Ġà¤¶à¤¾à¤Ĥà¤¤à¤¿": 4679,
      "à¥ģà¤ĩ": 4680,
      "Ġà¤¹à¤¾à¤ĩà¤¡à¥įà¤°": 4681,
      "Ġrel": 4682,
      "Ġà¤ļà¥ģà¤ķà¥ĩ": 4683,
      "Ġà¤µà¤¿à¤µà¤¿à¤§à¤¤à¤¾": 4684,
      "Ġà¤®à¤Ĥà¤ļ": 4685,
      "Ġà¤¦à¥Ĥà¤§": 4686,
      "Ġà¤¸à¤Ĥà¤¬à¤Ĥà¤§à¥ĭà¤Ĥ": 4687,
      "à¤ĳà¤ķà¥įà¤¸": 4688,
      "à¥įà¤ķà¤¾à¤²": 4689,
      "Ġà¤ķà¥Īà¤®": 4690,
      "à¥Īà¤¡": 4691,
      "Ġwho": 4692,
      "à¤¸à¤¨à¥Ģà¤¯": 4693,
      "Ġà¤ıà¤¯à¤°": 4694,
      "Ġproduct": 4695,
      "à¥ģà¤Ľ": 4696,
      "Ġà¤ªà¥Īà¤®à¤¾à¤¨à¥ĩ": 4697,
      "Ġà¤¬à¥įà¤°à¤¿à¤Łà¥ĩà¤¨": 4698,
      "Ġà¤¸à¤Ĥà¤ĺà¥Ģà¤¯": 4699,
      "Ġà¤Ĺà¥ģà¤ªà¥įà¤¤": 4700,
      "Ġà¤¶à¥Īà¤ķà¥įà¤·à¤£à¤¿à¤ķ": 4701,
      "à¤ªà¥įà¤°à¤¦à¥ĩà¤¶": 4702,
      "text": 4703,
      "à¤ľà¥ĩ": 4704,
      "à¤¾à¤¯à¤¨": 4705,
      "Ġà¤Łà¥Ĥà¤Ł": 4706,
      "à¤¸à¤°à¤¾": 4707,
      ".\"": 4708,
      "Ġà¤¸à¤¾à¤Ĺ": 4709,
      "Ġà¤ħà¤¸à¤®": 4710,
      "à¤ľà¤¨à¤ķ": 4711,
      "Ġà¤°à¤¹à¥ĩà¤Ĥ": 4712,
      "2005": 4713,
      "string": 4714,
      "à¤®à¤¾à¤°à¥įà¤Ĺ": 4715,
      "à¥§à¥¯": 4716,
      "Ġà¤®à¤¾à¤¨à¤¨à¤¾": 4717,
      "Ġà¤ħà¤²à¥įà¤ª": 4718,
      "Ġcould": 4719,
      "Ġà¤Īà¤®à¥ĩà¤²": 4720,
      "Ġà¤ªà¥ĩà¤ľ": 4721,
      "Ġà¤Ĭà¤Ĥà¤ļà¤¾à¤Ī": 4722,
      "Ġà¤¶à¥įà¤µ": 4723,
      "ĠĠĠĠĠĠĠĠĠĠĠĠĠĠĠ": 4724,
      "Ġà¤²à¤¿à¤Ĥà¤Ĺ": 4725,
      "Ġà¤ķà¤¨à¤¾à¤¡à¤¾": 4726,
      "-à¤Ľ": 4727,
      "Ġcount": 4728,
      "à¤¾à¤¤à¤°": 4729,
      "Ġà¤¦à¥Ĥà¤¸à¤°à¥ĭà¤Ĥ": 4730,
      "Ġà¤®à¤¨à¥ĭà¤µ": 4731,
      "Ġà¤«à¤¿à¤²à¥įà¤®à¥ĭà¤Ĥ": 4732,
      "à¥ĭà¤·": 4733,
      "à¤¿à¤°à¤£": 4734,
      "Ġà¤ĩà¤Ĥà¤ľà¥Ģà¤¨à¤¿à¤¯à¤°à¤¿à¤Ĥà¤Ĺ": 4735,
      "ER": 4736,
      "Ġà¤¸à¤¾à¤µ": 4737,
      "Ġà¤īà¤ªà¤¨": 4738,
      "à¤®à¥ĩ": 4739,
      "Ġà¤Īà¤Ĥà¤§à¤¨": 4740,
      "ract": 4741,
      "à¤ªà¥ĩà¤¶": 4742,
      "à¤°à¥įà¤¦à¥ĩà¤¶": 4743,
      "Ġà¤Ńà¤Ĥà¤¡": 4744,
      "ices": 4745,
      "Ġgener": 4746,
      "Ġà¤¸à¤°à¥įà¤µà¥ĭ": 4747,
      "Ġà¤¸à¥Ĥà¤ķà¥įà¤·à¥įà¤®": 4748,
      "Ġà¤ªà¥įà¤°à¤¦à¥Ĥà¤·à¤£": 4749,
      "Ġà¤¶à¤ķà¥įà¤¤à¤¿à¤¶à¤¾à¤²à¥Ģ": 4750,
      "à¤ķà¥įà¤²": 4751,
      "Ġà¤ªà¥įà¤°à¤£à¤¾à¤²à¤¿à¤¯à¥ĭà¤Ĥ": 4752,
      "Ġà¤ķà¤¿à¤¤à¤¨à¤¾": 4753,
      "à¤µà¤¿à¤§à¤¾à¤¨": 4754,
      "Ġà¤¬à¥Īà¤łà¤ķ": 4755,
      "Ġà¤ªà¥įà¤°à¤¤à¥Ģà¤ķ": 4756,
      "Ġà¤ªà¥įà¤°à¤¾à¤¯": 4757,
      "Ġà¤¸à¥įà¤¥à¤¾à¤¯à¥Ģ": 4758,
      "Ġà¤ħà¤ķà¥ĩ": 4759,
      "Ġbeen": 4760,
      "Ġà¤ķà¥Īà¤¥": 4761,
      "Ġà¤µà¤¿à¤ķà¤²à¥įà¤ªà¤ĥ": 4762,
      "Ġà¤¹à¤®à¤²à¤¾": 4763,
      "Ġà¤ĸà¥Ģ": 4764,
      "Ġà¤ļà¥Ģà¤ľà¤¼": 4765,
      "Ġà¤ķà¥ĩà¤Ĥà¤¦à¥įà¤°à¥Ģà¤¯": 4766,
      "à¤¤à¤ķ": 4767,
      "Ġà¤µà¤ľà¤¹": 4768,
      "Ġhigh": 4769,
      "Ġà¤²à¥ĩà¤ĸà¤¨": 4770,
      "ww": 4771,
      "Ġà¤ĵà¤²à¤Ĥà¤ª": 4772,
      "à¤¿à¤ĥ": 4773,
      "Ġà¤ªà¥įà¤°à¤¿à¤Ĥà¤Ł": 4774,
      "à¤«à¥įà¤°": 4775,
      "\"à¤¹à¤®": 4776,
      "à¤ļà¤¾à¤Ī": 4777,
      "Ġà¤īà¤¡à¤¼à¤¾à¤¨": 4778,
      "à¤¥à¤¨": 4779,
      "Ġà¤ĳà¤Ł": 4780,
      "Ġà¤¬à¤¾à¤Ĺ": 4781,
      "Ġà¤®à¤¾à¤¨à¤¤à¥ĩ": 4782,
      "à¤¨à¥ĩà¤¸": 4783,
      "Ġà¤ľà¤¿à¤¨à¤ķà¤¾": 4784,
      "à¤ķà¤Ĥà¤ª": 4785,
      "Ġà¤ªà¤°à¤Ĥà¤ªà¤°": 4786,
      "32": 4787,
      "ĠAn": 4788,
      "ild": 4789,
      "-à¤§à¥Ģà¤°à¥ĩ": 4790,
      "\"à¤ľ": 4791,
      "à¥§à¥¦": 4792,
      "Ġà¤Ľà¤¿à¤ª": 4793,
      "bject": 4794,
      "Ġà¤¸à¥įà¤Łà¤¾à¤°": 4795,
      "Ġà¤ľà¥įà¤µ": 4796,
      "Ġà¤µà¤¿à¤²à¤¿à¤¯à¤®": 4797,
      "à¤°à¥Ģà¤¨": 4798,
      "ype": 4799,
      "Ġà¤¸à¤¦à¥Ģ": 4800,
      "Ġà¤ħà¤Ńà¤¿à¤µà¥įà¤¯": 4801,
      "Ġà¤ĸà¥ĩà¤²à¥ĭà¤Ĥ": 4802,
      "à¤Ĥà¤ķà¤¾": 4803,
      "Ġà¤®à¥ĭà¤¬à¤¾à¤ĩà¤²": 4804,
      "à¤¦à¤°": 4805,
      "Ġwords": 4806,
      "ople": 4807,
      "Ġà¤Ĩà¤ķà¤°à¥įà¤·à¤ķ": 4808,
      "Ġà¤®à¤¾à¤¨à¤ļà¤¿à¤¤à¥įà¤°": 4809,
      "Ġà¤°à¥īà¤¬": 4810,
      "à¥ģà¤ªà¥įà¤¤": 4811,
      "Ġà¤īà¤ªà¤¸à¥įà¤¥à¤¿à¤¤à¤¿": 4812,
      "Ġà¤ľà¤°à¥įà¤®à¤¨": 4813,
      "Ġà¤ªà¥įà¤°à¤¾à¤Ĥà¤¤": 4814,
      "à¤Ĥà¤¬à¤Ī": 4815,
      "à¥ĭà¤¨à¥Ģ": 4816,
      "ick": 4817,
      "à¥Ģà¤°à¤¿à¤¯à¤¾": 4818,
      "âĢĶ": 4819,
      "Ġà¤ľà¤¾à¤¤à¤¿": 4820,
      "à¥ĩà¤Łà¥įà¤¸": 4821,
      "à¤Ĥà¤Ĺà¥įà¤°": 4822,
      "Ġà¤ħà¤¹à¤®": 4823,
      "Ġà¤²à¤¾à¤¨à¥ĩ": 4824,
      "Ġà¤ħà¤¦à¥įà¤µà¤¿à¤¤à¥Ģà¤¯": 4825,
      "Ġà¤ªà¤¤à¥įà¤°à¤¿à¤ķà¤¾": 4826,
      "Ġà¤¤à¥Ĥà¤«": 4827,
      "Ġà¤ªà¥ĭà¤·à¤£": 4828,
      "Ġà¤ĩà¤Ĥà¤ľà¤¨": 4829,
      "Ġà¤¸à¤®à¥įà¤®à¥ĩà¤²à¤¨": 4830,
      "Ġà¤°à¤µ": 4831,
      "Ġà¤ļà¥ģà¤¨à¥ĩà¤Ĥ": 4832,
      "Ġà¤īà¤¸à¤®à¥ĩà¤Ĥ": 4833,
      "Ġà¤®à¥ģà¤¹": 4834,
      "ength": 4835,
      ".S": 4836,
      "Ġà¤ľà¤®à¥Ģà¤¨": 4837,
      "Ġà¤ķà¤®à¥įà¤ª": 4838,
      "Ġà¤ªà¤°à¥įà¤µà¤¤": 4839,
      "-à¤¸à¤®": 4840,
      "Ġà¤ªà¥Īà¤¸à¥ĩ": 4841,
      "ign": 4842,
      "Ġsome": 4843,
      "ature": 4844,
      "Ġsystem": 4845,
      "Ġà¤¨à¥įà¤¯à¥Ĥà¤°": 4846,
      "à¤¨à¥įà¤¡": 4847,
      "à¤Łà¥įà¤ł": 4848,
      "Ġprovide": 4849,
      "Ġà¤ķà¤®à¤°à¥ĩ": 4850,
      "Ġà¤ªà¤ķà¥įà¤·à¥Ģ": 4851,
      "Ġà¤µà¤¿à¤Ł": 4852,
      "à¤¾à¤¶à¥Ģ": 4853,
      "Ġlet": 4854,
      "Ġà¤ªà¥įà¤°à¤µà¤¾à¤¹": 4855,
      "Ġà¤°à¤£à¤¨à¥Ģà¤¤à¤¿": 4856,
      "à¤ļà¤¾à¤°à¤¿à¤ķ": 4857,
      "Ġà¤¬à¥Įà¤¦à¥įà¤§": 4858,
      "Ġà¤ķà¤¿à¤Ĥà¤Ĺ": 4859,
      "à¥įà¤«à¥ĭà¤Ł": 4860,
      "Ġà¤¬à¤ļà¤¨à¥ĩ": 4861,
      "ens": 4862,
      "à¥ĩà¤¤à¥įà¤°à¥Ģ": 4863,
      "Ġà¤ľà¥Ģà¤¤à¤¾": 4864,
      "Ġà¤Łà¥ĩà¤ķ": 4865,
      "Ġà¤°à¥ĭà¤¡": 4866,
      "Ġind": 4867,
      "Ġà¤µà¥ĩà¤²": 4868,
      "à¤Ĥà¤ĺ": 4869,
      "Ġend": 4870,
      "-à¤Ł": 4871,
      "Ġà¤ĩà¤®": 4872,
      "Ġlanguage": 4873,
      "Ġstr": 4874,
      "65": 4875,
      "Ġà¤īà¤ªà¤Ńà¥ĭà¤ķà¥įà¤¤": 4876,
      "-à¤¨à¤¾à¤®": 4877,
      "Ġà¤®à¤¾à¤¹": 4878,
      "Ġhow": 4879,
      "à¤¿à¤¨à¥ĭ": 4880,
      "Ġgr": 4881,
      "Ġreg": 4882,
      "Ġà¤ķà¤²à¥įà¤ªà¤¨à¤¾": 4883,
      "Ġà¤®à¤¹à¤¾à¤¸à¤¾à¤Ĺà¤°": 4884,
      "Ġà¤¸à¥ĩà¤µà¤¨": 4885,
      "Ġà¤¬à¥ĩà¤Łà¥Ģ": 4886,
      "Ġà¤¹à¤¿à¤Ĥà¤¦": 4887,
      "à¤¯à¤¹à¤¾à¤Ĥ": 4888,
      "Ġà¤ķà¤°à¥ĩà¤Ĺà¥Ģ": 4889,
      "Ġà¤ľà¤¨à¤Ĺà¤£à¤¨à¤¾": 4890,
      "Ġà¤¸à¥įà¤Łà¥ĭà¤°": 4891,
      "Ġorg": 4892,
      "Ġà¤°à¥ĭà¤¬à¥ĭà¤Ł": 4893,
      "Ġà¤ĸà¤¾à¤¤à¥ĩ": 4894,
      "Ġà¤ļà¥Įà¤¥": 4895,
      "Ġà¤¹à¤¥": 4896,
      "Ġà¤µà¤¹à¥Ģà¤Ĥ": 4897,
      "à¥ĩà¤ķà¥įà¤Łà¤°": 4898,
      "à¤ħà¤¬": 4899,
      "Ġà¤Ĺà¥Ģ": 4900,
      "Ġà¤ķà¤®à¤ľà¥ĭà¤°": 4901,
      "-à¤¡": 4902,
      "Ġà¤®à¥ĩà¤¹": 4903,
      "Ġà¤ķà¤¾à¤°à¤£à¥ĭà¤Ĥ": 4904,
      "Ġà¤ķà¥ĥà¤·à¥įà¤£": 4905,
      "Ġà¤¸à¤Ĥà¤¯à¥ĭà¤ľà¤¨": 4906,
      "Ġperson": 4907,
      "aking": 4908,
      "cal": 4909,
      "Ġà¤¬à¥įà¤¯": 4910,
      "à¥ĭà¤Ĥà¤Ł": 4911,
      "Ġà¤¬à¤¾à¤Ĥ": 4912,
      "Ġà¤²à¤¡à¤¼à¤ķà¥Ģ": 4913,
      "(A": 4914,
      "co": 4915,
      "son": 4916,
      "à¤°à¥įà¤®à¥Ģ": 4917,
      "Ġà¤ĸà¤¤à¤°à¥ĩ": 4918,
      "à¥ģà¤²à¥ĩ": 4919,
      "à¤²à¥Ģà¤¯": 4920,
      "à¤¿à¤ķà¥ĩà¤¶à¤¨": 4921,
      "Ġà¤ĺà¤¨": 4922,
      "Ġà¤°à¥īà¤ķ": 4923,
      "Ġà¤¸à¤Ĥà¤¸à¤¦": 4924,
      "à¥Ĥà¤¸à¤°à¥ĩ": 4925,
      "ĠJSON": 4926,
      "Ġà¤Ĩà¤ĩà¤Łà¤®": 4927,
      "Ġà¤ªà¥įà¤°à¤¤à¤¿à¤¬": 4928,
      "à¥ĩà¤¡à¥Ģ": 4929,
      "ages": 4930,
      "Ġà¤¨à¤¾à¤Łà¤ķ": 4931,
      "Ġà¤ĩà¤®à¤¾à¤°à¤¤": 4932,
      "à¤¾à¤Ĥà¤¤à¥įà¤°": 4933,
      "Ġà¤ķà¤¥à¤¾à¤¨à¤ķ": 4934,
      "Ġà¤¹à¤¿à¤¸à¥įà¤¸à¥ĭà¤Ĥ": 4935,
      "Ġà¤īà¤Ĺ": 4936,
      "à¤¿à¤¯à¤¤": 4937,
      "2004": 4938,
      "à¤ľà¥Ĥà¤¦à¤¾": 4939,
      "ular": 4940,
      "Ġà¤ĸà¥Ģà¤Ĥà¤ļ": 4941,
      "Ġà¤ľà¥įà¤¯": 4942,
      "à¤ķà¤¾à¤°à¥įà¤¯": 4943,
      "Ġà¤¤à¤°à¤²": 4944,
      "34": 4945,
      "à¤°à¤¿à¤¯à¤¾": 4946,
      "Ġà¤Łà¥ĩà¤²à¥Ģà¤µ": 4947,
      "à¥ģà¤µà¤Ĥà¤¶": 4948,
      "Ġprint": 4949,
      "Ġà¤¸à¤¾à¤¥à¥Ģ": 4950,
      "Ġà¤¬à¥Īà¤Ĥà¤¡": 4951,
      "ings": 4952,
      "Ġexample": 4953,
      "Ġà¤ªà¤°à¤¿à¤ķ": 4954,
      "Ġà¤§à¥Ĥà¤®": 4955,
      "Ġfind": 4956,
      "[]": 4957,
      "à¤²à¥įà¤¸": 4958,
      "à¤ķà¥įà¤µ": 4959,
      "resent": 4960,
      "Ġà¤ľà¥ģà¤¡à¤¼à¤¾": 4961,
      "Ġà¤ľà¤°à¥įà¤®à¤¨à¥Ģ": 4962,
      "Ġà¤¸à¤¾à¤§à¤¨": 4963,
      "Ġà¤ķà¤¾à¤°à¥įà¤¯à¤ķà¥įà¤°à¤®à¥ĭà¤Ĥ": 4964,
      "à¤¾à¤īà¤¡": 4965,
      "Ġà¤ķà¤¼": 4966,
      "à¤«à¥ĭà¤¨": 4967,
      "Ġà¤ķà¤¿à¤¯à¥ĩ": 4968,
      "Ġà¤¸à¤°à¥įà¤¦": 4969,
      "à¥įà¤ļà¤°": 4970,
      "Ġà¤¤à¥Īà¤¯à¤¾à¤°à¥Ģ": 4971,
      "order": 4972,
      "erg": 4973,
      "à¤¾à¤Ĥà¤¸à¥Ģà¤¸à¥Ģ": 4974,
      "Ġlike": 4975,
      "Ġà¤ľà¤®à¤¾": 4976,
      "Ġà¤ļà¤¿à¤¹à¥įà¤¨": 4977,
      "Ġget": 4978,
      "à¥ĩà¤Łà¤¿à¤ķ": 4979,
      "urren": 4980,
      "à¤°à¥ĭà¤ķà¥įà¤¤": 4981,
      "Ġà¤īà¤¤à¥įà¤¸à¤°à¥įà¤ľà¤¨": 4982,
      "Ġà¤Ĩà¤°à¥įà¤ķ": 4983,
      "à¤¾à¤µà¤¨à¥Ģ": 4984,
      "\"à¤¨": 4985,
      "Ġà¤īà¤ªà¤°à¥ĭà¤ķà¥įà¤¤": 4986,
      "à¤¹à¥Ģà¤¤": 4987,
      "à¤¿à¤¶à¥Ģà¤²": 4988,
      "Ġexper": 4989,
      "à¤¾à¤ªà¤¿à¤¤": 4990,
      "ween": 4991,
      "à¥Ĥà¤¦à¥Ģ": 4992,
      "à¤¿à¤«à¥įà¤Ł": 4993,
      "Ġà¤ªà¥ģà¤¨à¤ĥ": 4994,
      "ĠRe": 4995,
      "Ġà¤¸à¥įà¤ķà¥ĭà¤°": 4996,
      "Ġhad": 4997,
      "à¤¾à¤¶à¤¿à¤Ĥà¤Ĺà¤Łà¤¨": 4998,
      "à¥Įà¤²": 4999,
      "Ġà¤ıà¤Ĩà¤Ī": 5000,
      "Ġà¤ħà¤°à¥įà¤ľ": 5001,
      "Ġà¤¶à¥ĩà¤·": 5002,
      "à¤¾à¤ªà¤ķ": 5003,
      "Ġà¤ķà¤ªà¤¡à¤¼à¥ĩ": 5004,
      "Ġà¤¸à¥ĩà¤¨": 5005,
      "Ġà¤ªà¤°à¥ĩà¤¶à¤¾à¤¨": 5006,
      "Ġà¤¸à¥įà¤¨à¤¾à¤¤à¤ķ": 5007,
      "Ġà¤¶à¤¾à¤¹": 5008,
      "let": 5009,
      "Ġà¤¨à¤¿à¤Ĺà¤°à¤¾à¤¨à¥Ģ": 5010,
      "ology": 5011,
      "Ġà¤®à¤¿à¤²à¥ĩ": 5012,
      "div": 5013,
      "\"à¤¹": 5014,
      "Ġà¤¬à¤¾à¤ķà¥Ģ": 5015,
      "Ġà¤¹à¤¿à¤²": 5016,
      "à¥ĥà¤ļà¥įà¤Ľà¤¿à¤ķ": 5017,
      "à¤ĸà¤Ĥà¤¡": 5018,
      "à¥ģà¤²à¥įà¤ķ": 5019,
      "à¥įà¤¯à¤®à¤Ĥà¤¤à¥įà¤°à¥Ģ": 5020,
      "Ġà¤®à¤¾à¤Ĥ": 5021,
      "Ġact": 5022,
      "Ġà¤ªà¤¤à¥įà¤¥à¤°": 5023,
      "Ġà¤¤à¥ģ": 5024,
      "Ġà¤ĸà¤¨": 5025,
      "Ġà¤¤à¥ĭà¤¡à¤¼": 5026,
      "Ġà¤ľà¤¾à¤ıà¤ģ": 5027,
      "Ġà¤¶à¥ĩà¤¯à¤°": 5028,
      "à¥įà¤·à¤¿à¤ķ": 5029,
      "55": 5030,
      "Ġà¤ĵà¤²à¤Ĥà¤ªà¤¿à¤ķ": 5031,
      "very": 5032,
      "Ġà¤¨à¤¿à¤¶": 5033,
      "Ġà¤¨à¤·à¥įà¤Ł": 5034,
      "à¤ľà¤¨à¤¨": 5035,
      "à¤¾à¤¸à¥įà¤Łà¤¿à¤ķ": 5036,
      "-à¤ľà¥Īà¤¸à¥ĩ": 5037,
      "Ġà¤®à¤¾à¤ĩà¤ķ": 5038,
      "à¤¾à¤§à¥įà¤¯": 5039,
      "Ġà¤ľà¤¯": 5040,
      "Ġà¤ªà¥įà¤°à¤ľà¤¾à¤¤à¤¿": 5041,
      "Ġà¤Ĺà¤łà¤¨": 5042,
      "§à¤¾à¤°à¤£": 5043,
      "Ġà¤Ĩà¤¦à¤°à¥įà¤¶": 5044,
      "2015": 5045,
      "atter": 5046,
      "ational": 5047,
      "Ġà¤ķà¤¿à¤¤à¤¨à¥ĩ": 5048,
      "Ġà¤ħà¤¨à¥ģà¤ķà¥Ĥà¤²à¤¿à¤¤": 5049,
      "2016": 5050,
      "Ġà¤®à¤¿à¤¶à¥įà¤°à¤£": 5051,
      "à¤ľà¥įà¤ŀà¤¾à¤¤": 5052,
      "Ġà¤ªà¤°à¤¿à¤ª": 5053,
      "Ġà¤ľà¥Īà¤ķ": 5054,
      "Ġà¤ªà¥įà¤°à¤ļà¤¾à¤°": 5055,
      "Ġà¤¨à¤ľà¤°": 5056,
      "Ġident": 5057,
      "Ġà¤¸à¤Ĥà¤ķà¤Ł": 5058,
      ".A": 5059,
      "à¤ķà¥ģà¤®": 5060,
      "Ġà¤°à¥ģà¤ªà¤¯à¥ĩ": 5061,
      "Ġà¤¨à¤¿à¤ļ": 5062,
      "Ġà¤¹à¤¿à¤¨à¥įà¤¦à¥Ĥ": 5063,
      "Ġà¤Ĺà¥ĭà¤ª": 5064,
      "Ġà¤ļà¤¾à¤°à¥įà¤Ł": 5065,
      "Ġà¤¨à¤¿à¤¹à¤¿à¤¤": 5066,
      "Ġà¤īà¤¦à¥įà¤§": 5067,
      "Ġà¤²à¤ķà¥įà¤·à¤£à¥ĭà¤Ĥ": 5068,
      "Ġà¤ĸà¥ĩà¤¤": 5069,
      "à¤¾à¤īà¤Ĥà¤Ł": 5070,
      "Ġà¤¨à¤¿à¤µà¤¾à¤¸à¥Ģ": 5071,
      "Ġà¤ªà¥įà¤°à¤¯à¥ĭà¤Ĺà¤¶à¤¾à¤²à¤¾": 5072,
      "Ġà¤¸à¤Ĥà¤¬": 5073,
      "Ġdes": 5074,
      "Ġà¤®à¥Įà¤ľà¥Ĥà¤¦à¤¾": 5075,
      "Ġà¤ľà¥Īà¤µà¤¿à¤ķ": 5076,
      "Ġà¤¸à¥ģà¤ĸ": 5077,
      "à¤µà¥ĩà¤²": 5078,
      "à¤¾à¤ĩà¤¨à¤²": 5079,
      "Ġà¤ªà¥įà¤°à¤¶à¥įà¤¨à¥ĭà¤Ĥ": 5080,
      "à¤¸à¤¾à¤¯à¤¿à¤ķ": 5081,
      "Ġà¤Ĺà¥įà¤°à¤¾à¤«": 5082,
      "à¤µà¤¿à¤¶à¥įà¤µ": 5083,
      "à¤¾à¤°à¥ĭà¤¹": 5084,
      "Ġà¤ľà¥ĩà¤²": 5085,
      "64": 5086,
      "ife": 5087,
      "Ġà¤«à¤¸à¤²": 5088,
      "Ġà¤°à¤¸à¤¾à¤¯à¤¨": 5089,
      "ava": 5090,
      "Ġà¤ªà¥įà¤°à¤¾à¤¨à¥įà¤¤": 5091,
      "à¤¿à¤¸à¥Ģ": 5092,
      "Ġtext": 5093,
      "Ġsk": 5094,
      "Ġà¤¬à¤¯à¤¾à¤¨": 5095,
      "Ġà¤¨à¤¿à¤¦à¤¾à¤¨": 5096,
      "Ġà¤µà¤¹à¤¾à¤Ĥ": 5097,
      "Ġà¤ĩà¤Ł": 5098,
      "Ġà¤ĳà¤«à¤¼": 5099,
      "Ġà¤ħà¤Ńà¤¿à¤¨à¥ĩà¤¤à¥įà¤°à¥Ģ": 5100,
      "à¤¿à¤µà¤°à¥įà¤¸": 5101,
      "Ġbetween": 5102,
      "2001": 5103,
      "raph": 5104,
      "Ġà¤¦à¥ĭà¤¸à¥įà¤¤à¥ĭà¤Ĥ": 5105,
      "Ġà¤Ĩà¤¯à¥ĭà¤Ĺ": 5106,
      "Ġà¤ªà¥įà¤°à¤§à¤¾à¤¨à¤®à¤Ĥà¤¤à¥įà¤°à¥Ģ": 5107,
      "Ġà¤Ĺà¥Īà¤²": 5108,
      "Ġà¤§à¤¾à¤¤à¥ģ": 5109,
      "ll": 5110,
      "Ġà¤ħà¤«à¥įà¤°à¥Ģà¤ķà¥Ģ": 5111,
      "Ġà¤ªà¥įà¤°à¤¤à¤¿à¤·à¥įà¤ł": 5112,
      "à¤¾à¤¢à¤¼": 5113,
      "Ġà¤¹à¤ľà¤¾à¤°": 5114,
      "à¤ĩà¤¸à¤²à¤¿à¤ı": 5115,
      "rough": 5116,
      "à¤¦à¤°à¥įà¤¶à¤¨": 5117,
      "Ġà¤®à¤¾à¤Ĥà¤¸à¤ªà¥ĩà¤¶": 5118,
      "Ġcomple": 5119,
      "ite": 5120,
      "Ġà¤Ĺà¥įà¤°à¥Ģà¤¨": 5121,
      "Ġà¤ķà¤¹à¤¤à¤¾": 5122,
      "Ġinput": 5123,
      "Ġà¤°à¥Ĥà¤¸": 5124,
      "Ġà¤īà¤¤à¥įà¤¤à¤°à¤ĥ": 5125,
      "Ġà¤Ĩà¤¯à¥ĭà¤ľà¤¨": 5126,
      "à¤¦à¥įà¤¦": 5127,
      "ok": 5128,
      "à¦": 5129,
      "Ġà¤¯à¤¾à¤¦à¥ĥà¤ļà¥įà¤Ľà¤¿à¤ķ": 5130,
      "Ġà¤ļà¥ģà¤¨à¥Įà¤¤à¤¿à¤¯à¥ĭà¤Ĥ": 5131,
      "à¥ĩà¤ķà¤¿à¤¨": 5132,
      "Ġà¤¬à¤¤à¤¾à¤¤à¥ĩ": 5133,
      "à¤ħà¤Ĥà¤¤": 5134,
      "Ġà¤«à¤¾à¤¯à¤¦": 5135,
      "Ġwhile": 5136,
      "à¤¾à¤£à¤¾": 5137,
      "Ġà¤ļà¥ģà¤¨à¤¾": 5138,
      "Ġà¤¹à¤¾à¤īà¤¸": 5139,
      "à¤¸à¥Ĥà¤°": 5140,
      "Ġprocess": 5141,
      "Ġà¤¨à¤¿à¤ķà¤¾à¤²à¤¨à¥ĩ": 5142,
      "Ġà¤®à¤§à¥įà¤¯à¤®": 5143,
      "Ġà¤ĭà¤£": 5144,
      "ars": 5145,
      "Ġà¤¹à¥ĭà¤®": 5146,
      "à¤¿à¤¤à¥įà¤¤": 5147,
      "Ġà¤µà¤¿à¤¸à¥įà¤«à¥ĭà¤Ł": 5148,
      "Ġà¤ªà¤°à¥įà¤¯à¤¾à¤µà¤°à¤£à¥Ģà¤¯": 5149,
      "stand": 5150,
      "cho": 5151,
      "Ġà¤ķà¤¿à¤¤à¤¨à¥Ģ": 5152,
      "LAB": 5153,
      "Ġà¤Ĩà¤ķà¤¾à¤¶": 5154,
      "à¤¾à¤ķà¥ĥà¤¤": 5155,
      "Ġà¤²à¤¿à¤ĸà¤¨à¥ĩ": 5156,
      "Ġà¤µà¥Īà¤ķ": 5157,
      "Ġimpact": 5158,
      "à¥ĩà¤Ĥà¤ķ": 5159,
      "Ġà¤¤à¤¤à¥įà¤ķà¤¾à¤²": 5160,
      "à¤¿à¤°à¤¾": 5161,
      "Ġà¤ªà¥įà¤°à¥ĩà¤¸": 5162,
      "à¤¨à¥įà¤«": 5163,
      "Ġà¤Łà¥ĩà¤ķà¥įà¤¸à¥įà¤Ł": 5164,
      "Ġà¤®à¤¿à¤²à¤ķà¤°": 5165,
      "ATLAB": 5166,
      "Ġà¤¸à¥įà¤¥à¤¾à¤¨à¤¾à¤Ĥà¤¤à¤°à¤¿à¤¤": 5167,
      "Ġà¤µà¤¿à¤µà¤¾à¤¹": 5168,
      "Ġà¤īà¤ªà¤ľ": 5169,
      "Ġà¤īà¤Ń": 5170,
      "à¥ĭà¤¨à¥ĩ": 5171,
      "à¤¦à¥įà¤¯": 5172,
      "Ġà¤¸à¤Ĥà¤¶à¥ĭà¤§à¤¨": 5173,
      "à¤ķà¥ĥà¤ªà¤¯à¤¾": 5174,
      "Ġà¤²à¥ĭ": 5175,
      "Ġbo": 5176,
      "(à¤°": 5177,
      "Ġà¤ķà¤Ĥà¤Ł": 5178,
      "à¥ĥà¤·à¥įà¤£": 5179,
      "Ġà¤¹à¤Łà¤¾": 5180,
      "à¤¾à¤µà¤¸à¥įà¤¥à¤¾": 5181,
      "à¤¦à¥įà¤¯à¥ĭà¤Ĺà¤¿à¤ķ": 5182,
      "à¤¾à¤µà¤²": 5183,
      "Ġà¤®à¤¿à¤²à¤¤à¥ĩ": 5184,
      "37": 5185,
      "à¤¨à¥įà¤¯à¤µà¤¾à¤¦": 5186,
      "Ġà¤ķà¤¨à¥ĩà¤ķ": 5187,
      "à¤Ĥà¤ķà¤°": 5188,
      "Ġà¤¨à¤¿à¤¦à¥ĩà¤¶à¤ķ": 5189,
      "Ġà¤®à¤¨à¥ģà¤·à¥įà¤¯": 5190,
      "Ġà¤ªà¤¤à¤¿": 5191,
      "à¤µà¤¿à¤¤à¥įà¤°": 5192,
      "Ġà¤ķà¤¹à¤¾à¤¨": 5193,
      "à¤®à¥įà¤®à¤¦": 5194,
      "Ġà¤ľà¤°à¥Ĥà¤°à¥Ģ": 5195,
      "Ġà¤¸à¤¾à¤Ĺà¤°": 5196,
      "Ġà¤¶à¥ģà¤°à¥ģà¤Ĩà¤¤à¥Ģ": 5197,
      "Ġà¤ľà¥ĩà¤¨": 5198,
      "Ġà¤ĩà¤Ĥà¤ļ": 5199,
      "à¤¾à¤§à¤¿à¤ķà¤¾à¤°": 5200,
      "Ġà¤ħà¤Ĥà¤¤à¤°à¥įà¤Ĺà¤¤": 5201,
      "à¤²à¥ĭà¤ķà¤¨": 5202,
      "Ġà¤¸à¤Ĥà¤Ĺà¥įà¤°à¤¹à¥Ģà¤¤": 5203,
      "Ġà¤ľà¤¾à¤¨à¥Ģ": 5204,
      "ĠPro": 5205,
      "Ġà¤Ńà¤¾à¤µà¤¨à¤¾à¤ĵà¤Ĥ": 5206,
      "Ġà¤ĸà¥ģà¤¶à¥Ģ": 5207,
      "Ġà¤ķà¥Ģà¤Ł": 5208,
      "à¤ĩà¤¤à¤¿à¤¹à¤¾à¤¸": 5209,
      "Ġà¤ªà¤¹à¥ģà¤Ĥà¤ļà¤¨à¥ĩ": 5210,
      "Ġà¤¨à¤®à¥Ĥà¤¨à¤¾": 5211,
      "à¥Ģà¤®": 5212,
      "Ġà¤Ĩà¤¨à¥ģà¤µà¤Ĥà¤¶": 5213,
      "Ġà¤µà¥ĩà¤¸à¥įà¤Ł": 5214,
      "Ġà¤ĩà¤¨à¥įà¤¹à¥ĭà¤Ĥà¤¨à¥ĩ": 5215,
      "Ġà¤¨à¥Ģà¤Ĥà¤¦": 5216,
      "Ġà¤²à¤Ĺà¥Ģ": 5217,
      "']": 5218,
      "à¤¾à¤ªà¥ģà¤°": 5219,
      "Ġà¤°à¤¹à¤¨à¤¾": 5220,
      "Ġà¤¦à¥ĩà¤ĸà¤¨à¤¾": 5221,
      "à¤¿à¤¶à¥įà¤¤": 5222,
      "itle": 5223,
      "Ġfirst": 5224,
      "à¥ĩà¤¤à¥Ģ": 5225,
      "Ġà¤®à¤¿à¤²à¤¾à¤ķà¤°": 5226,
      "Ġà¤ľà¥ģà¤¡à¤¼à¥Ģ": 5227,
      "Ġà¤¨à¤¾à¤ĩà¤Ł": 5228,
      "Ġà¤¦à¥Ģà¤°à¥įà¤ĺ": 5229,
      "Ġà¤¬à¥Ĥ": 5230,
      "Ġinformation": 5231,
      "à¥įà¤¯à¥Ĥà¤²": 5232,
      "Ġà¤ĸà¤¾à¤¸": 5233,
      "Ġà¤µà¤¿à¤¦à¥įà¤µ": 5234,
      "Ġà¤¸à¤®à¤Ĺà¥įà¤°": 5235,
      "à¤§à¤¾à¤°à¤¿à¤¤": 5236,
      "();": 5237,
      "Ġà¤Ńà¥įà¤°": 5238,
      "Ġà¤¬à¥įà¤°à¤¾à¤Ĥà¤¡": 5239,
      "Ġà¤ªà¥ĭà¤²": 5240,
      "à¤¾à¤Łà¤¾": 5241,
      "Ġà¤µà¤°à¥įà¤Ĺà¥Ģà¤ķà¤°à¤£": 5242,
      "à¤ķà¤¾à¤¶": 5243,
      "à¤ªà¤¹à¤°": 5244,
      "Ġà¤®à¤¾à¤²à¤¿à¤ķ": 5245,
      "Ġinclude": 5246,
      "Ġour": 5247,
      "Ġname": 5248,
      "Ġà¤ļà¤¢à¤¼": 5249,
      "Ġà¤ĺà¤¾à¤Łà¥Ģ": 5250,
      "Ġà¤¸à¥Ī": 5251,
      "Ġà¤¶à¥ģà¤¦à¥įà¤§": 5252,
      "à¤ķà¥įà¤·à¥ĩà¤¤à¥įà¤°": 5253,
      "Ġà¤°à¥ĭà¤Ĺà¥Ģ": 5254,
      "Ġà¤¬à¥įà¤²à¥īà¤ķ": 5255,
      "Ġà¤¦à¥ĭà¤ªà¤¹à¤°": 5256,
      "Ġà¤ħà¤¸à¤¾à¤®à¤¾à¤¨à¥įà¤¯": 5257,
      "Ġà¤Ńà¤µà¤¿à¤·à¥įà¤¯à¤µà¤¾à¤£à¥Ģ": 5258,
      "Ġà¤°à¥ĩà¤¡à¤¿à¤¯à¥ĭ": 5259,
      "col": 5260,
      "Ġà¤ªà¥įà¤°à¤ķà¤¾à¤¶à¤¨": 5261,
      "Ġà¤Ĩà¤µà¤¾à¤ľ": 5262,
      "Ġher": 5263,
      "à¤Ĩà¤°à¤¬à¥Ģ": 5264,
      "Ġà¤¸à¤®à¤°à¥įà¤ª": 5265,
      "à¤ļà¤¨à¤¾à¤ĵà¤Ĥ": 5266,
      "à¤µà¤¾à¤Ĥ": 5267,
      "Ġà¤°à¤ļà¤¨à¤¾à¤¤à¥įà¤®à¤ķ": 5268,
      "à¤¾à¤Ĥà¤¤à¤°à¤£": 5269,
      "Ġà¤²à¤Ĥà¤¬à¤¾": 5270,
      "Ġà¤§à¥Ģ": 5271,
      "Ġà¤ªà¥įà¤°à¤¤à¤¿à¤¯à¥ĭà¤Ĺà¤¿à¤¤à¤¾": 5272,
      "Ġà¤¸à¤Ĥà¤Ńà¤¾à¤²": 5273,
      "ruct": 5274,
      "Ġà¤°à¤¾à¤ľà¤¨à¥Ģà¤¤à¤¿": 5275,
      "Ġà¤ªà¤¹à¤²à¥Ĥ": 5276,
      "à¤¿à¤²à¥įà¤²": 5277,
      "Ġà¤ªà¤¹à¤¾à¤¡à¤¼": 5278,
      "IC": 5279,
      "wor": 5280,
      "2017": 5281,
      "à¤ªà¤¾à¤¨": 5282,
      "Ġà¤Ĺà¥ĭà¤²à¥Ģ": 5283,
      "Ġà¤ķà¥įà¤²à¤¿à¤ķ": 5284,
      "Ġà¤ķà¤¾à¤²à¥ĩ": 5285,
      "ds": 5286,
      "Ġà¤¤à¥Ģà¤¸à¤°à¥ĩ": 5287,
      "Ġà¤®à¥Īà¤ķà¥įà¤¸": 5288,
      "Ġà¤ªà¥įà¤°à¤¤à¥Ģà¤¤": 5289,
      "Ġà¤ķà¤łà¥ĭà¤°": 5290,
      "Ġà¤¸à¤¾à¤§à¤¾à¤°à¤£": 5291,
      "à¥Ģà¤µà¥įà¤°": 5292,
      "à¤ľà¤¨à¥įà¤®": 5293,
      "\">": 5294,
      "Ġà¤Ľà¥ģà¤Ł": 5295,
      "2018": 5296,
      "Ġà¤¨à¤µà¥Ģà¤¨à¤¤à¤®": 5297,
      "Ġà¤®à¥ģà¤ĸà¥įà¤¯à¤¾à¤²à¤¯": 5298,
      "(à¤¨": 5299,
      "Ġà¤ħà¤µà¤§à¤¾à¤°à¤£à¤¾": 5300,
      "(S": 5301,
      "Ġà¤ħà¤¸à¤°": 5302,
      "à¤¿à¤Ĥà¤¡": 5303,
      "Ġeffect": 5304,
      "à¥ĩà¤Ĥà¤ļ": 5305,
      "à¤ľà¥Ģà¤µà¤¿à¤¤": 5306,
      "Ġà¤Ľà¤µ": 5307,
      "à¤¾à¤µà¤¤": 5308,
      "Ġà¤µà¤°à¥įà¤£à¤¿à¤¤": 5309,
      "Ġà¤¦à¥ģà¤°à¥įà¤ĺ": 5310,
      "Ġà¤«à¤¿à¤Ł": 5311,
      "Ġà¤ªà¤¾à¤°à¤¿à¤¸à¥įà¤¥à¤¿à¤¤": 5312,
      "Ġà¤¬à¤ļà¥įà¤ļà¤¾": 5313,
      "Ġà¤µà¤¾à¤°à¥įà¤·à¤¿à¤ķ": 5314,
      "Ġà¤Łà¥įà¤µ": 5315,
      "à¤¸à¤µà¤¾à¤²": 5316,
      "Ġà¤¬à¤¾à¤°à¤¿à¤¶": 5317,
      "à¥ĭà¤ľà¤¼": 5318,
      "à¥ĭà¤ĩ": 5319,
      "-à¤ªà¤¶à¥įà¤ļà¤¿à¤®": 5320,
      "Ġà¤ľà¥ĩà¤®à¥įà¤¸": 5321,
      "Ġalgorithm": 5322,
      "à¤·à¥įà¤®": 5323,
      "Ġpeople": 5324,
      "Ġà¤ļà¥Ģà¤ľà¥ĩà¤Ĥ": 5325,
      "ery": 5326,
      "\".": 5327,
      "Ġà¤¡à¥ĩà¤µà¤¿à¤¡": 5328,
      "à¤ªà¥įà¤Ł": 5329,
      "Ġà¤ķà¥įà¤²à¤¾à¤¸": 5330,
      "Â°": 5331,
      "à¤¾à¤ķà¥įà¤·à¤°": 5332,
      "Ġmay": 5333,
      "(à¤ľà¥Īà¤¸à¥ĩ": 5334,
      "Ġà¤ªà¤¦à¤ķ": 5335,
      "Ġà¤¤à¥Ģà¤µà¥įà¤°": 5336,
      "Ġà¤ħà¤Ĥ": 5337,
      "Ġkn": 5338,
      "Ġra": 5339,
      "à¤¿à¤Ĺà¥įà¤°": 5340,
      "Ġà¤ķà¥ĥ": 5341,
      "Ġà¤¸à¥ĭà¤²": 5342,
      "à¤ĩà¤¨à¤ªà¥ģà¤Łà¤ĥ": 5343,
      "Ġà¤¬à¥īà¤ķà¥įà¤¸": 5344,
      "Ġà¤¸à¥įà¤ķà¥īà¤Ł": 5345,
      "à¤¾à¤Ĺà¤°à¥Ĥà¤ķ": 5346,
      "Ġà¤Ĩà¤Ĥà¤ĸ": 5347,
      "à¤¿à¤ľà¥įà¤¯": 5348,
      "Ġà¤ªà¥įà¤°à¤¤à¤¿à¤°à¥ĭà¤§": 5349,
      "à¥ĭà¤¥": 5350,
      "($": 5351,
      "Ġà¤ľà¤¨à¤ľà¤¾à¤¤": 5352,
      "Ġà¤¨à¤¦": 5353,
      "Ġà¤ĩà¤ķà¤Łà¥įà¤ł": 5354,
      "Ġnum": 5355,
      "Ġà¤ªà¤°à¤¿à¤Ńà¤¾à¤·à¤¾": 5356,
      "Ġmed": 5357,
      "Ġà¤ķà¤ªà¥Ĥà¤°": 5358,
      "(à¤ľà¤¨à¥įà¤®": 5359,
      "Ġà¤Łà¥ĩà¤²à¥Ģà¤µà¤¿à¤ľà¤¨": 5360,
      "Ġà¤ķà¥ģà¤¤à¥įà¤¤à¥ĩ": 5361,
      "à¤ªà¤°à¥Ģ": 5362,
      "Ġà¤Ńà¥ĩà¤ľà¤¾": 5363,
      "Ġà¤ªà¥ģà¤·à¥įà¤Łà¤¿": 5364,
      "Ġà¤ļà¤¿à¤ķà¤¿à¤¤à¥įà¤¸à¤ķ": 5365,
      "Ġà¤ħà¤¸à¥įà¤¤à¤¿à¤¤à¥įà¤µ": 5366,
      "Ġà¤ľà¥įà¤¯à¤¾à¤¦à¤¾à¤¤à¤°": 5367,
      "à¤ªà¤ļà¤¾à¤°à¤¿à¤ķ": 5368,
      "Ġà¤Ĺà¤¿à¤°à¤¾à¤µà¤Ł": 5369,
      "à¤¦à¤¿à¤ı": 5370,
      "Ġà¤ļà¤²à¤¤à¥ĩ": 5371,
      "à¥įà¤Ńà¥ģà¤¤": 5372,
      "Ġà¤ıà¤²à¥įà¤Ĺà¥ĭà¤°à¤¿à¤¥à¤®": 5373,
      "\"à¤Ĩ": 5374,
      "Ġhealth": 5375,
      "Ġà¤¹à¤¦": 5376,
      "\"à¥¤": 5377,
      "à¥ģà¤¬": 5378,
      "Ġà¤¡à¥ĩà¤¨": 5379,
      "Ġà¤¦à¤°à¤µ": 5380,
      "Ġà¤ħà¤¨à¥ģà¤ªà¤¾à¤¤": 5381,
      "Ġà¤µà¥įà¤¯à¤¾à¤µà¤¸à¤¾à¤¯à¤¿à¤ķ": 5382,
      "Ġà¤°à¤¾à¤¸à¥įà¤¤à¥ĩ": 5383,
      "Ġà¤ĩà¤¸à¤¨à¥ĩ": 5384,
      "Ġà¤ĸà¤¾à¤¡à¤¼à¥Ģ": 5385,
      "à¤¤à¥Ĥ": 5386,
      "à¥ĩà¤¤à¥ģ": 5387,
      "Ġà¤¶à¥įà¤°à¥ĩà¤£à¤¿à¤¯à¥ĭà¤Ĥ": 5388,
      "à¥Ŀ": 5389,
      "Ġà¤²à¤¾à¤ĩà¤¬à¥įà¤°": 5390,
      "Ġà¤¯à¥Įà¤¨": 5391,
      "Ġà¤²à¤¾": 5392,
      "yn": 5393,
      "à¤°à¤¤": 5394,
      "elf": 5395,
      "fore": 5396,
      "à¤¾à¤¤à¥įà¤ķà¤¾à¤°": 5397,
      "à¤¶à¥įà¤®à¥Ģà¤°": 5398,
      "Ġà¤®à¥ĩà¤¨": 5399,
      "Ġà¤¹à¤ľ": 5400,
      "à¤¸à¥ĩà¤¸": 5401,
      "à¤ķà¤¾à¤°à¥ĭà¤Ĥ": 5402,
      "-à¤Ĩà¤§à¤¾à¤°à¤¿à¤¤": 5403,
      "Ġà¤ħà¤Ĥà¤¡à¥ĩ": 5404,
      "Ġà¤¸à¤¿à¤®": 5405,
      "Ġà¤ķà¥įà¤µà¥ĩà¤°à¥Ģ": 5406,
      "Ġà¤ªà¤°à¤¿à¤ķà¤²à¥įà¤ªà¤¨à¤¾": 5407,
      "hat": 5408,
      "à¥įà¤¤à¤°à¤¾à¤Ĥ": 5409,
      "Ġà¤µà¤¿à¤ľà¥įà¤ŀà¤¾à¤ªà¤¨": 5410,
      "Ġà¤ªà¥įà¤°à¥ĩ": 5411,
      "à¤¾à¤£à¤¿à¤ľà¥įà¤¯": 5412,
      "Ġà¤ªà¥įà¤°à¤ķà¥įà¤°à¤¿à¤¯à¤¾à¤ĵà¤Ĥ": 5413,
      "à¤¤à¤¿à¤ķà¥Ģ": 5414,
      "ĠEn": 5415,
      "Ġà¤ľà¤¿à¤¤à¤¨à¤¾": 5416,
      "1990": 5417,
      "à¤¢à¤¼à¥Ģ": 5418,
      "Ġà¤µà¤¾à¤¯à¥ģà¤®": 5419,
      "ĠDe": 5420,
      "ĠIndia": 5421,
      "Ġà¤¦à¤¸à¥įà¤¤à¤¾à¤µà¥ĩà¤ľ": 5422,
      "à¤²à¤°": 5423,
      "[i": 5424,
      "Ġà¤®à¤ľà¤¬à¥Ĥà¤°": 5425,
      "Ġà¤ķà¤µà¤°": 5426,
      "Ġà¤®à¥Īà¤°à¥Ģ": 5427,
      "Ġà¤°à¤¾à¤¨à¥Ģ": 5428,
      "2002": 5429,
      "Ġà¤ļà¤®à¤ķ": 5430,
      "Ġfil": 5431,
      "38": 5432,
      "import": 5433,
      "range": 5434,
      "à¤«à¥ĭà¤°à¥įà¤¡": 5435,
      "à¤¨à¤¤à¤®": 5436,
      "Ġà¤µà¤¾à¤¶à¤¿à¤Ĥà¤Ĺà¤Łà¤¨": 5437,
      "Ġà¤īà¤¤à¥įà¤ªà¤¤à¥įà¤¤à¤¿": 5438,
      "2003": 5439,
      "Ġà¤ľà¥ĭà¤¡à¤¼à¥ĩà¤Ĥ": 5440,
      "')": 5441,
      "Ġà¤®à¤Ĥà¤ľ": 5442,
      "à¤¾à¤¯à¤£": 5443,
      "sible": 5444,
      "Ġà¤«à¥įà¤°à¤¾à¤Ĥà¤¸à¥Ģà¤¸à¥Ģ": 5445,
      "Ġà¤ľà¥Ĥ": 5446,
      "Ġà¤Łà¥Īà¤Ĺ": 5447,
      "à¤ķà¥ģà¤²": 5448,
      "à¤¹à¤°à¤¾à¤Ī": 5449,
      "à¥ĥà¤¶à¥įà¤¯": 5450,
      "Ġà¤Ńà¤°à¤¾": 5451,
      "Ġà¤ľà¥ĭà¤¡à¤¼à¥Ģ": 5452,
      "à¤ĺà¤°": 5453,
      "sive": 5454,
      "Ġà¤°à¤¾à¤ľà¤¸à¥įà¤¥à¤¾à¤¨": 5455,
      "Ġà¤¸à¤®à¤Ŀà¤¨à¤¾": 5456,
      "(à¤¹": 5457,
      "à¥ĭà¤Ĥà¤Ĺ": 5458,
      "Ġbased": 5459,
      "Ġmy": 5460,
      "tal": 5461,
      "ĠWrite": 5462,
      "à¥Ģà¤¶": 5463,
      "Ġatt": 5464,
      "à¤¹à¤¸": 5465,
      "Ġà¤ħà¤²à¥Ģ": 5466,
      "atch": 5467,
      "à¤°à¥įà¤®à¤¾à¤£": 5468,
      "Ġà¤ħà¤¨à¥ģà¤ķà¥įà¤°à¤®": 5469,
      "ici": 5470,
      "Ġà¤ĺà¤Łà¤ķ": 5471,
      "ness": 5472,
      "Ġà¤Ĺà¤µ": 5473,
      "Ġà¤¸à¤®à¥įà¤¬à¤¨à¥įà¤§": 5474,
      "à¤ķà¥įà¤¤à¤¾": 5475,
      "Ġthere": 5476,
      "Ġele": 5477,
      "Ġà¤¸à¥įà¤®à¤¾à¤°à¥įà¤Ł": 5478,
      "Ġà¤ĩà¤Ĥà¤¡à¤¿à¤¯à¤¾": 5479,
      "Ġà¤®à¥ģà¤ĸà¥įà¤¯à¤®à¤Ĥà¤¤à¥įà¤°à¥Ģ": 5480,
      "pro": 5481,
      "Ġà¤¤à¥Ģà¤¸": 5482,
      "95": 5483,
      "app": 5484,
      "Ġà¤ķà¤¾à¤¨à¥Ĥà¤¨à¥Ģ": 5485,
      "Ġcalcul": 5486,
      "Ġà¤°à¤ľ": 5487,
      "à¤¡à¥ĩ": 5488,
      "Ġcor": 5489,
      "ĠUn": 5490,
      "ĠĠĠĠĠĠ": 5491,
      "Ġà¤ķà¤¾à¤Ĺ": 5492,
      "Ġà¤µà¤¿à¤Ńà¤¾à¤ľà¤¨": 5493,
      "à¥ģà¤ĸà¥Ģ": 5494,
      "à¥įà¤Łà¤¿à¤¨": 5495,
      "vent": 5496,
      "str": 5497,
      "Ġà¤ħà¤¨à¥ģà¤°à¥ĭà¤§": 5498,
      "(à¤Ĩ": 5499,
      "Ġà¤ĸà¤¬à¤°": 5500,
      "Ġà¤¬à¤¤à¤¾à¤ıà¤Ĥ": 5501,
      "Ġà¤ħà¤Ĥà¤¤à¤°à¤°à¤¾à¤·à¥įà¤Łà¥įà¤°à¥Ģà¤¯": 5502,
      "à¥ģà¤¤à¥įà¤µ": 5503,
      "Ġà¤Ķà¤¦à¥įà¤¯à¥ĭà¤Ĺà¤¿à¤ķ": 5504,
      "à¤¸à¥Ģà¤¯": 5505,
      "Ġrem": 5506,
      "Ġà¤¸à¥įà¤Łà¥ĩà¤Ł": 5507,
      "Ġà¤ªà¤Ĥà¤ĸ": 5508,
      "ĠSh": 5509,
      "Ġà¤²à¥ĩà¤¬à¤²": 5510,
      "ced": 5511,
      "Ġcharact": 5512,
      "Ġlearning": 5513,
      "à¤¦à¥ĩà¤µ": 5514,
      "String": 5515,
      "Ġà¤§à¤®": 5516,
      "Ġà¤¬à¤¹à¤¨": 5517,
      "Ġà¤ľà¤¾à¤Ĺà¤°à¥Ĥà¤ķ": 5518,
      "Ġà¤°à¥ĭà¤®à¤¨": 5519,
      "Ġà¤ĩà¤¤à¤¨à¥Ģ": 5520,
      "-à¤ī": 5521,
      "à¤¨à¥įà¤ķ": 5522,
      "Ġà¤Ńà¤¾à¤Ĺà¥ĭà¤Ĥ": 5523,
      "à¤¿à¤·à¥įà¤ķà¤¾à¤°": 5524,
      "Ġà¤µà¤°à¥įà¤·à¤¾": 5525,
      "à¤¾à¤Łà¤°": 5526,
      "Ġà¤ĩà¤¨à¤ķà¤¾": 5527,
      "à¥Ģà¤¦à¤¾": 5528,
      "Ġà¤¬à¤¨à¤¾à¤¤à¥Ģ": 5529,
      "à¤¸à¥įà¤Łà¤¨": 5530,
      "random": 5531,
      "ĠEx": 5532,
      "Ġà¤¸à¤Ĥà¤µà¤¿à¤§à¤¾à¤¨": 5533,
      "Ġà¤µà¤¿à¤ľà¤¯": 5534,
      "à¤µà¤¹": 5535,
      "à¤Ńà¤¾à¤Ĺ": 5536,
      "Ġà¤¤à¥įà¤¯": 5537,
      "Ġà¤¶à¥Īà¤²": 5538,
      "Ġà¤ĸà¤¤à¤°à¤¨à¤¾à¤ķ": 5539,
      "à¤¸à¤¾à¤¦": 5540,
      "Ġà¤°à¥ĩà¤¸à¥įà¤¤à¤°à¤¾à¤Ĥ": 5541,
      "Ġà¤µà¥ĥà¤¤à¥įà¤¤": 5542,
      "Ġà¤®à¤¹à¤¾à¤®": 5543,
      "ateg": 5544,
      "Ġà¤ªà¥ĩà¤ªà¤°": 5545,
      "Ġà¤ħà¤¦à¥įà¤Ńà¥ģà¤¤": 5546,
      "Ġà¤ªà¥įà¤¯": 5547,
      "ash": 5548,
      "à¤Ĥà¤¤à¥ģ": 5549,
      "Ġà¤¶à¤°à¥įà¤¤": 5550,
      "à¤¿à¤ķà¥Ģà¤¯": 5551,
      "Ġà¤§à¤¨à¥įà¤¯à¤µà¤¾à¤¦": 5552,
      "\"à¤®à¥Īà¤Ĥ": 5553,
      "à¥īà¤ĩ": 5554,
      "Ġà¤ĸà¤¿à¤²à¤¾à¤¡à¤¼à¤¿à¤¯à¥ĭà¤Ĥ": 5555,
      "(à¤¸à¥Ģ": 5556,
      "Ġà¤ĺà¥ĭà¤·à¤¿à¤¤": 5557,
      "Ġà¤¬à¤¨à¤¤à¤¾": 5558,
      "Ġà¤ıà¤ķà¥įà¤¸à¥ĩà¤²": 5559,
      "Ġà¤¸à¤®à¤¾à¤°à¥ĭà¤¹": 5560,
      "à¤Ńà¤¾à¤·": 5561,
      "Ġà¤¸à¤®à¥Ģà¤ķà¥įà¤·": 5562,
      "Ġà¤¤à¤Ĥà¤¤à¥įà¤°à¤¿à¤ķà¤¾": 5563,
      "à¤ªà¥įà¤²": 5564,
      "cent": 5565,
      "à¥ĭà¤Ī": 5566,
      "Ġà¤¶à¤¿à¤¶": 5567,
      "red": 5568,
      "-à¤ªà¥Ĥà¤°à¥įà¤µ": 5569,
      "à¥ĭà¤¡à¤¼à¤¾": 5570,
      "Ġà¤®à¥ģà¤²": 5571,
      "à¤¶à¤¾à¤²à¥Ģ": 5572,
      "à¤Ĺà¥įà¤¨": 5573,
      "Ġà¤¨à¤¿à¤§à¤¨": 5574,
      "Ġà¤ľà¤Ĥà¤Ĺà¤²à¥Ģ": 5575,
      "Ġà¤ĩà¤ķà¤Łà¥įà¤łà¤¾": 5576,
      "Ġà¤ħà¤Ńà¤¿à¤¨à¤¯": 5577,
      "Ġanalysis": 5578,
      "Ġà¤ªà¤¾à¤¯": 5579,
      "Ġà¤¸à¤®à¥įà¤ª": 5580,
      "Ġà¤¦à¤°à¥įà¤¶à¤ķà¥ĭà¤Ĥ": 5581,
      "ives": 5582,
      "Ġà¤¬à¤Ĥà¤Ĺà¤¾à¤²": 5583,
      "à¥įà¤°à¥ĭà¤²": 5584,
      "Ġà¤ĩà¤Ĥà¤¸": 5585,
      "ument": 5586,
      "à¤¸à¤¿à¤Ĥ": 5587,
      "Ġthrough": 5588,
      "Ġà¤µà¤¹à¥Ģ": 5589,
      "à¤¬à¤¾à¤°": 5590,
      "Ġà¤¹à¤®à¤¾à¤°à¤¾": 5591,
      "à¤²à¥įà¤ªà¤¿à¤ķ": 5592,
      "à¤°à¤¤à¤¾": 5593,
      "à¥Īà¤²à¥Ģ": 5594,
      "Ġà¤ªà¤µà¤¿à¤¤à¥įà¤°": 5595,
      "Ġcreat": 5596,
      "Ġà¤Łà¥įà¤°à¤¾à¤Ĥà¤¸": 5597,
      "Ġà¤²à¤¿à¤ĸà¥Ģ": 5598,
      "Ġà¤ħà¤µà¤²à¥ĭà¤ķà¤¨": 5599,
      "Ġà¤¶à¤¿à¤ķà¥įà¤·à¤ķà¥ĭà¤Ĥ": 5600,
      "Ġà¤¸à¥įà¤ķà¥Ĥà¤²à¥ĭà¤Ĥ": 5601,
      "à¤¤à¤²": 5602,
      "à¤¤à¥įà¤®": 5603,
      "Ġà¤¸à¥įà¤ķà¥įà¤°à¥Ģà¤¨": 5604,
      "Ġà¤¸à¤Ĥà¤ľà¥įà¤ŀ": 5605,
      "Ġmin": 5606,
      "(à¤²": 5607,
      "à¤ħà¤°": 5608,
      "à¥įà¤¸à¤¨": 5609,
      "à¤¤à¥įà¤°à¤¿à¤®": 5610,
      "à¤Ĥà¤§à¤¿à¤¤": 5611,
      "Ġà¤¸à¤Ĥà¤¦à¥ĩà¤¹": 5612,
      "Ġà¤¹à¤¾à¤¨": 5613,
      "Ġà¤īà¤ªà¤Ĺà¥įà¤°à¤¹": 5614,
      "Ġà¤¡à¤¿à¤µ": 5615,
      "ss": 5616,
      "Ġà¤¨à¤¿à¤°à¥įà¤§à¤¾à¤°à¤£": 5617,
      "à¤¯à¤¨à¥ĭà¤Ĥ": 5618,
      "Ġà¤¨à¤¿à¤°à¥įà¤¦à¤¿à¤·à¥įà¤Ł": 5619,
      "sp": 5620,
      "Ġà¤µà¤¿à¤ķà¤¾à¤°": 5621,
      "à¤¸à¥ĩà¤¨à¤¾": 5622,
      "pport": 5623,
      "Ġà¤ķà¥Īà¤¨": 5624,
      "Ġà¤µà¤¾à¤ķà¥įà¤¯à¥ĭà¤Ĥ": 5625,
      "Ġà¤¯à¤¾à¤¤à¥įà¤°": 5626,
      "ĠMATLAB": 5627,
      "à¤°à¤¾à¤¨": 5628,
      "Ġà¤µà¤¸à¤¾": 5629,
      "Ġà¤ªà¥įà¤°à¤¯à¤¾à¤¸à¥ĭà¤Ĥ": 5630,
      "Ġà¤®à¤¹à¤¾à¤¦": 5631,
      "Ġà¤µà¤¿à¤ľà¥ĩà¤¤à¤¾": 5632,
      "Ġens": 5633,
      "à¤¾à¤«à¤¼": 5634,
      "à¤¤à¤¾à¤ıà¤ģ": 5635,
      "Ġà¤ľà¤¾à¤ıà¤Ĥà¤Ĺà¥ĩ": 5636,
      "Ġà¤®à¥ģà¤¦à¥įà¤¦à¥ĩ": 5637,
      "Ġà¤¸à¤ļà¤¿à¤µ": 5638,
      "à¤¿à¤µà¥ĩà¤¶": 5639,
      "Ġconsi": 5640,
      "Ġart": 5641,
      "Ġà¤ĩà¤Ĥà¤¸à¥įà¤Ł": 5642,
      "Ġà¤ıà¤ªà¥įà¤²": 5643,
      "Ġà¤µà¤¾à¤£à¤¿à¤ľà¥įà¤¯": 5644,
      "Ġà¤Łà¤¾à¤ĩà¤ª": 5645,
      "à¤¸à¤¾à¤°à¤¾à¤Ĥà¤¶": 5646,
      "à¤¾à¤ĩà¤ķà¤¿à¤²": 5647,
      "Ġimportant": 5648,
      "Ġà¤²à¥ĩà¤¨": 5649,
      "Ġà¤¶à¤¿à¤ķà¥įà¤·à¤£": 5650,
      "Ġà¤ªà¤Ĥà¤ķà¥įà¤¤à¤¿": 5651,
      "à¤°à¥ĩà¤Ł": 5652,
      "à¤®à¥ģ": 5653,
      "à¥įà¤¤à¥įà¤°": 5654,
      "à¤°à¥įà¤²à¤Ń": 5655,
      "Ġà¤ħà¤¦à¥įà¤¯": 5656,
      "Ġà¤Ĺà¤¾à¤Ĥà¤§à¥Ģ": 5657,
      "Ġà¤¤à¥Ĥà¤«à¤¾à¤¨": 5658,
      "Ġà¤¹à¥ĩà¤¤à¥ģ": 5659,
      "à¤°à¥ĭà¤¨à¤¾": 5660,
      "Ġà¤Ĺà¤¹à¤°à¤¾à¤Ī": 5661,
      "Ġà¤®à¥ģà¤¦à¥įà¤°": 5662,
      "à¥ģà¤®à¥įà¤¬": 5663,
      "44": 5664,
      "Ġà¤®à¤¿à¤¤à¥įà¤°": 5665,
      "Ġà¤Ńà¥įà¤°à¤®": 5666,
      "Ġweb": 5667,
      "Ġelse": 5668,
      "à¥įà¤°à¥ģà¤µ": 5669,
      "à¥ĩà¤²à¤¾": 5670,
      ".c": 5671,
      "Ġà¤¸à¤¹à¤¯à¥ĭà¤Ĺà¥Ģ": 5672,
      "ems": 5673,
      "à¤¸à¤¾à¤Ĥ": 5674,
      "Ġà¤ĺà¤¾à¤¸": 5675,
      "Ġà¤«à¥įà¤²à¥ĭà¤°": 5676,
      "II": 5677,
      "Ġà¤Ĺà¤¿à¤°à¤«à¥įà¤¤": 5678,
      "Ġà¤ļà¤²à¤¾à¤¨à¥ĩ": 5679,
      "Ġà¤¨à¤¿à¤Ĺà¤®": 5680,
      "à¤¾à¤¸à¥ĩà¤Ł": 5681,
      "Ġà¤¸à¤Ĥà¤Ĺà¤łà¤¨à¥ĭà¤Ĥ": 5682,
      "Ġà¤µà¤¾à¤ķà¥įà¤¯à¤¾à¤Ĥà¤¶": 5683,
      "Ġà¤¸à¤®à¥ģà¤¦à¤¾à¤¯à¥ĭà¤Ĥ": 5684,
      "Ġà¤ķà¥įà¤°à¤¿à¤¸à¥įà¤Ł": 5685,
      "Ġà¤®à¤¨à¥ĭà¤°à¤Ĥà¤ľà¤¨": 5686,
      "à¤²à¤¾à¤ĩà¤¨": 5687,
      "Ġdat": 5688,
      "Ġà¤ħà¤¨à¥ģà¤¶": 5689,
      "à¤¿à¤ªà¥Ģ": 5690,
      "Ġunderstand": 5691,
      "à¤¾à¤¯à¤¾à¤¤": 5692,
      "ement": 5693,
      "Ġà¤ªà¤¾à¤īà¤Ĥà¤¡": 5694,
      "ange": 5695,
      "Ġà¤¤à¤°à¤Ĥà¤Ĺ": 5696,
      "Ġà¤¬à¥Īà¤ķà¥įà¤Ł": 5697,
      "Ġà¤¦à¥įà¤µà¤¾à¤°": 5698,
      "Ġà¤Łà¥Ĥà¤²": 5699,
      "à¤¯à¤²": 5700,
      "à¤¾à¤Ĥà¤Łà¤¿à¤ķ": 5701,
      "Ġà¤ªà¤°à¤¿à¤¸à¤°": 5702,
      "à¥Īà¤¶": 5703,
      "Ġà¤ķà¥ĩà¤¨à¥įà¤¦à¥įà¤°": 5704,
      "Ġà¤ħà¤ľ": 5705,
      "à¥ĭà¤²à¥įà¤¡": 5706,
      "à¤ĸà¤¿à¤ķ": 5707,
      "Ġà¤¸à¥įà¤µà¤ļà¥įà¤Ľ": 5708,
      "Ġdesign": 5709,
      "Ġà¤ıà¤°": 5710,
      "à¤°à¥įà¤·à¤ķ": 5711,
      "iron": 5712,
      "Ġà¤ķà¤µà¤¿": 5713,
      "Ġà¤¯à¥ģà¤ķà¥įà¤¤": 5714,
      "Ġà¤ħà¤²à¥įà¤®": 5715,
      "Ġà¤Īà¤¸à¤¾à¤Ī": 5716,
      "ĠFor": 5717,
      "à¤®à¤¾à¤°à¥įà¤ļ": 5718,
      "à¤¾à¤ľà¤¨à¤ķ": 5719,
      "à¤¾à¤ķà¥Ĥ": 5720,
      "à¥įà¤°à¥Ģà¤Ł": 5721,
      "à¤ķà¤¿à¤¯à¥ĭà¤Ĥ": 5722,
      "ĠCom": 5723,
      "Ġà¤¨à¥įà¤¯à¥Ĥà¤¨à¤¤à¤®": 5724,
      "Ġà¤¹à¤¸à¥įà¤¤à¤¾à¤ķà¥įà¤·à¤°": 5725,
      "Ġà¤¸à¥įà¤µà¤°à¥Ĥà¤ª": 5726,
      "Ġà¤¦à¥Įà¤°à¤¾": 5727,
      "Ġà¤¦à¥Ģà¤µà¤¾à¤°": 5728,
      "ner": 5729,
      "à¤ħà¤ķ": 5730,
      "Ġà¤ªà¤¸à¤Ĥà¤¦à¥Ģà¤¦à¤¾": 5731,
      "Ġsm": 5732,
      "right": 5733,
      "à¥§à¥«": 5734,
      "Ġà¤ķà¥ĭà¤¶à¤¿à¤ķà¤¾": 5735,
      "htt": 5736,
      "à¤¾à¤®à¥ĩà¤Ĥà¤Ł": 5737,
      "Ġà¤ıà¤ľà¥ĩà¤Ĥà¤¸à¥Ģ": 5738,
      "à¥ĭà¤®à¤¾": 5739,
      "Ġco": 5740,
      "à¥įà¤°à¥ĩ": 5741,
      "Ġà¤īà¤²à¥įà¤²à¥ĩà¤ĸà¤¨à¥Ģà¤¯": 5742,
      "Ġà¤ļà¥Īà¤Ĥà¤ª": 5743,
      "Ġà¤µà¤¿à¤Łà¤¾à¤®à¤¿à¤¨": 5744,
      "Ġà¤¶à¥Į": 5745,
      "à¤®à¤¾à¤°à¥įà¤ķ": 5746,
      "Ġà¤ªà¥įà¤°à¤¶à¤¾à¤¸à¤¨à¤¿à¤ķ": 5747,
      "\");": 5748,
      "Ġclass": 5749,
      "à¥Ģà¤¡à¥Ģ": 5750,
      "Ġà¤ªà¤°à¤¿à¤µà¤°à¥įà¤¤à¤¿à¤¤": 5751,
      "Ġà¤ķà¤¥à¤¾": 5752,
      "Ġà¤¬à¤Ĥà¤¦à¤°": 5753,
      "Ġà¤ªà¤°à¤¿à¤ļà¤¯": 5754,
      "Ġà¤¹à¤®à¤²à¥ĩ": 5755,
      "188": 5756,
      "Ġà¤§à¤°": 5757,
      "Ġà¤¨à¥įà¤¯à¤¾à¤¯à¤¾à¤²à¤¯": 5758,
      "Ġtrans": 5759,
      "Ġà¤ĩà¤¸à¥įà¤²à¤¾à¤®": 5760,
      "2020": 5761,
      "à¤ªà¥įà¤°à¥Īà¤²": 5762,
      "à¤Łà¤¨à¤¾": 5763,
      "Ġà¤¸à¤®à¤¾à¤¯": 5764,
      "Ġfact": 5765,
      "This": 5766,
      "LE": 5767,
      "Ġà¤ħà¤Ĥà¤§": 5768,
      "Ġà¤ªà¥Īà¤ķà¥ĩà¤ľ": 5769,
      "Ġà¤¡à¤¾à¤²à¤¾": 5770,
      "Ġà¤ĩà¤Ĥà¤¤": 5771,
      "Ġà¤°à¤¿à¤¶à¥įà¤¤": 5772,
      "à¤¸à¥įà¤¤à¥Ģ": 5773,
      "Ġà¤¸à¤ľ": 5774,
      "mer": 5775,
      "Ġà¤ĩà¤ļà¥įà¤Ľà¤¾": 5776,
      "Ġà¤¶à¤°à¥įà¤®à¤¾": 5777,
      "ody": 5778,
      "à¤¶à¥įà¤°à¥Ģ": 5779,
      "Ġà¤°à¤¿à¤²à¥Ģ": 5780,
      "à¤²à¥įà¤ªà¤¨": 5781,
      "tr": 5782,
      "Ġà¤¸à¤¹à¤®à¤¤": 5783,
      "Ġà¤ħà¤¦à¤¾à¤²": 5784,
      "Ġà¤¦à¥ģà¤°à¥įà¤²à¤Ń": 5785,
      "Ġag": 5786,
      "Ġà¤¨à¤¸à¥įà¤²": 5787,
      "Ġà¤ļà¥ģà¤ķà¤¾": 5788,
      "à¤¿à¤²à¥įà¤²à¥Ģ": 5789,
      "Ġà¤¸à¥įà¤µà¤ļ": 5790,
      "Ġà¤ªà¥Ĥà¤ľà¤¾": 5791,
      "Ġà¤Ĺà¤£à¤¿à¤¤à¥Ģà¤¯": 5792,
      "ized": 5793,
      "Ġà¤µà¥ĥ": 5794,
      "à¥įà¤¸à¥Ģ": 5795,
      "Ġà¤ķà¥įà¤°à¤¾à¤Ĥà¤¤à¤¿": 5796,
      "Ġà¤ħà¤§à¥įà¤¯à¤¾à¤¯": 5797,
      "Ġà¤ħà¤Ĺà¥įà¤¨": 5798,
      "Ġà¤®à¥ĭà¤Łà¤°": 5799,
      "à¤¤à¥įà¤¤à¥įà¤µ": 5800,
      "à¤¬à¤¾": 5801,
      "Ġà¤¶à¤¾à¤ĸà¤¾": 5802,
      "Ġà¤Ĩà¤īà¤Ł": 5803,
      "âĢĮ": 5804,
      "à¥įà¤£à¥ģ": 5805,
      "Ġà¤ªà¥įà¤°à¤ľà¤¨à¤¨": 5806,
      "Ġà¤ħà¤ĸ": 5807,
      "à¤ľà¤¨à¤µà¤°à¥Ģ": 5808,
      "Ġà¤Ńà¤¾à¤µà¤¨à¤¾à¤¤à¥įà¤®à¤ķ": 5809,
      "à¥ģà¤°à¥Ģ": 5810,
      "Ġà¤°à¥ģà¤ķ": 5811,
      "Ġà¤ĸà¤¾à¤²à¥Ģ": 5812,
      "ouble": 5813,
      "Ġà¤®à¤¹à¤¾à¤µ": 5814,
      "Ġà¤²à¤¿à¤ª": 5815,
      "à¤Ĥà¤¸à¥įà¤ķ": 5816,
      "Ġà¤Ńà¥Ģà¤¡à¤¼": 5817,
      "à¤¾à¤Ĥà¤µ": 5818,
      "Ġà¤¸à¤¿à¤Łà¥Ģ": 5819,
      "à¤¶à¤¿à¤ķà¥įà¤·": 5820,
      "-à¤¦à¥Ĥà¤¸à¤°à¥ĩ": 5821,
      "urrent": 5822,
      "ever": 5823,
      "à¤¾à¤¤à¥į": 5824,
      "Ġà¤¶à¤¹à¤°à¥Ģ": 5825,
      "Ġà¤®à¥ĭà¤¦à¥Ģ": 5826,
      "Ġà¤¹à¤¥à¤¿à¤¯": 5827,
      "à¤¸à¥įà¤¥à¤²": 5828,
      "à¥Ľ": 5829,
      "Ġà¤ĺà¤°à¥ĭà¤Ĥ": 5830,
      "Ġà¤²à¤ĺ": 5831,
      "à¤¦à¥ĩ": 5832,
      "Ġà¤¯à¤¹à¥Ĥà¤¦à¥Ģ": 5833,
      "Ġà¤²à¤¾à¤ĩà¤¬à¥įà¤°à¥ĩà¤°à¥Ģ": 5834,
      "à¤Ĺà¤¨": 5835,
      "ĠAr": 5836,
      "Ġtotal": 5837,
      "à¤µà¤¾à¤¸": 5838,
      "Ġà¤¶à¤¿à¤²": 5839,
      "Ġà¤¸à¥įà¤µà¤°": 5840,
      "Ġà¤®à¤¨à¥ģà¤·à¥įà¤¯à¥ĭà¤Ĥ": 5841,
      "Ġà¤ľà¤¨à¤°à¤²": 5842,
      "Ġvi": 5843,
      "78": 5844,
      "Ġà¤ľà¤¾à¤µà¤¾": 5845,
      "Ġà¤¦à¥ĩà¤°": 5846,
      "Ġà¤ªà¥įà¤°à¥ĩà¤°à¤£": 5847,
      "?\"": 5848,
      "Ġà¤¯à¥Ĥà¤¨à¤¿à¤µà¤°à¥įà¤¸": 5849,
      "Ġà¤®à¤¿": 5850,
      "à¤¿à¤¨à¥įà¤¦à¥Ģ": 5851,
      "Ġà¤¸à¤®à¤¾à¤¨à¤¤à¤¾": 5852,
      "ption": 5853,
      "Ġà¤¬à¥ĩà¤¹à¤¦": 5854,
      "à¤Ĥà¤¡à¤°": 5855,
      "Ġà¤¸à¥ĭà¤®à¤µà¤¾à¤°": 5856,
      "à¤Ĩà¤īà¤Łà¤ªà¥ģà¤Łà¤ĥ": 5857,
      "à¥įà¤°à¤¾à¤Ł": 5858,
      "Ġà¤ķà¥įà¤·à¥ĩà¤¤à¥įà¤°à¥Ģà¤¯": 5859,
      "Ġà¤¬à¤¢à¤¼à¤¤à¤¾": 5860,
      "Ġà¤ļà¥ĩà¤¤à¤¾à¤µà¤¨à¥Ģ": 5861,
      "Ġà¤«à¤¾à¤°à¥įà¤®": 5862,
      "ĠWe": 5863,
      "à¤¨à¥įà¤¨à¤¾": 5864,
      "Ġà¤ħà¤Ĥà¤Ĺà¥įà¤°à¥ĩà¤ľà¤¼à¥Ģ": 5865,
      "Ġà¤ªà¥įà¤°à¤¤à¤¿à¤¦": 5866,
      "Ġà¤Ĺà¤°": 5867,
      "ication": 5868,
      "Ġà¤¡à¥ĩà¤Łà¤¾à¤¸à¥ĩà¤Ł": 5869,
      "Ġà¤¸à¤®à¤Ŀà¥Įà¤¤à¥ĩ": 5870,
      "Ġà¤®à¥ģà¤¸à¥įà¤²": 5871,
      "à¤ĸà¥įà¤¤": 5872,
      "à¤Ĩà¤ªà¤ķà¥ĭ": 5873,
      "Ġà¤¸à¥ĭà¤¨à¥ĩ": 5874,
      "Ġà¤Ĩà¤¨à¥ģà¤µà¤Ĥà¤¶à¤¿à¤ķ": 5875,
      "CT": 5876,
      "à¤ıà¤ķà¥įà¤¸": 5877,
      "Ġà¤°à¤Ĥà¤Ĺà¥ĭà¤Ĥ": 5878,
      "Ġà¤¸à¥Ģà¤®à¤¾à¤ĵà¤Ĥ": 5879,
      "Ġà¤ļà¤¾à¤¹à¥ĩ": 5880,
      "ines": 5881,
      "Ġà¤¸à¤®à¥ĥà¤¦à¥įà¤§": 5882,
      "Ġà¤ªà¥įà¤°à¤ķà¤Ł": 5883,
      "à¥ĭà¤²à¤¿à¤ķ": 5884,
      "à¤°à¤¨": 5885,
      "à¤¬à¥ģà¤ķ": 5886,
      "39": 5887,
      "Ġà¤¸à¤Ń": 5888,
      "Ġà¤Ĺà¤¿à¤¨": 5889,
      "Ġà¤ªà¤°à¤¤": 5890,
      "Ġà¤ķà¤¿à¤¸à¤¾à¤¨": 5891,
      "--------------------------------": 5892,
      "Ġprovid": 5893,
      "vol": 5894,
      "à¥įà¤Łà¤¾": 5895,
      "Ġà¤Ĩà¤¨à¥įà¤§à¥įà¤°": 5896,
      "à¤¡à¤®": 5897,
      "ift": 5898,
      "Ġworld": 5899,
      "ming": 5900,
      "Ġà¤¸à¥įà¤Łà¥īà¤ķ": 5901,
      "Ġdist": 5902,
      "Ġà¤¹à¤Łà¤¾à¤¨à¥ĩ": 5903,
      "Ġtable": 5904,
      "rib": 5905,
      "Ġà¤®à¤¿à¤¸à¥įà¤°": 5906,
      "aj": 5907,
      "Ġequ": 5908,
      "Ġnumbers": 5909,
      "err": 5910,
      "Ġthan": 5911,
      "à¤Ĥà¤µ": 5912,
      "Ġà¤¬à¥ģà¤§": 5913,
      "-à¤¸à¤¿à¤¤": 5914,
      "Ġà¤ķà¤ļ": 5915,
      "Ġà¤¨à¤ľà¤¼à¤°": 5916,
      "Ġà¤ĸà¥ĩà¤²à¤¨à¥ĩ": 5917,
      "Ġà¤µà¤¿à¤°à¤¾à¤¸à¤¤": 5918,
      "à¥ĭà¤¨à¤¾": 5919,
      "Ġà¤ħà¤§à¥Ģà¤¨": 5920,
      "Ġà¤łà¥ĭà¤¸": 5921,
      "à¤¿à¤ķà¤¿à¤¯à¥ĭà¤Ĥ": 5922,
      "Ġà¤ķà¤¿à¤¸à¤¾à¤¨à¥ĭà¤Ĥ": 5923,
      "Ġà¤¬à¥įà¤²à¥Īà¤ķ": 5924,
      "Ġà¤Ńà¤²à¥ĩ": 5925,
      "tt": 5926,
      "Ġà¤²à¤Ĺà¤¾à¤¨à¤¾": 5927,
      "Ġà¤µà¤°à¥įà¤·à¥Ģà¤¯": 5928,
      "à¤ļà¥įà¤Ľà¥ĩà¤¦": 5929,
      "Ġà¤µà¤¿à¤¶à¥įà¤µà¤¸à¤¨à¥Ģà¤¯": 5930,
      "Ġà¤¤à¥įà¤°à¥ģà¤Łà¤¿": 5931,
      "Ġà¤®à¥ģà¤¸à¥įà¤²à¤¿à¤®": 5932,
      "Ġà¤¡à¤¾à¤ĩ": 5933,
      "Ġà¤¸à¥įà¤®à¥ĥà¤¤à¤¿": 5934,
      "à¤¾à¤Ĥà¤¤à¥įà¤°à¤¿à¤ķ": 5935,
      "à¤Ĥà¤¸à¤¾": 5936,
      "ique": 5937,
      "viron": 5938,
      "à¤°à¥įà¤¤à¤®à¤¾à¤¨": 5939,
      "Ġà¤®à¤¾à¤Ĥà¤¸à¤ªà¥ĩà¤¶à¤¿à¤¯à¥ĭà¤Ĥ": 5940,
      "Ġà¤īà¤¦à¥įà¤¯à¤®": 5941,
      "à¤ĳà¤ķà¥įà¤¸à¤¾à¤ĩà¤¡": 5942,
      "cur": 5943,
      "Ġà¤ľà¤¾à¤¦": 5944,
      "Ġà¤ıà¤¸à¤¿à¤¡": 5945,
      "Ġà¤¬à¥ģà¤ķ": 5946,
      "à¤²à¥Ģà¤Ł": 5947,
      "Ġà¤¸à¥Īà¤¨à¤¿à¤ķà¥ĭà¤Ĥ": 5948,
      "Ġà¤ļà¤Ĥà¤¦à¥įà¤°à¤®à¤¾": 5949,
      "Ġà¤¸à¥ģà¤µà¤¿à¤§à¤¾à¤ĵà¤Ĥ": 5950,
      "à¤ĸà¤¾": 5951,
      "Ġà¤®à¥ģà¤Ĥà¤¬à¤Ī": 5952,
      "Ġà¤ļà¥ĩà¤¹à¤°à¥ĩ": 5953,
      "Ġà¤®à¤¹à¤²": 5954,
      "Ġà¤®à¤¾à¤¯": 5955,
      "Ġà¤ħà¤µà¤°": 5956,
      "Ġà¤¬à¥ĭà¤²à¥Ģ": 5957,
      "-à¤¬à¤¾à¤°": 5958,
      "Ġà¤²à¤®à¥įà¤¬": 5959,
      "à¥įà¤ķà¥Ģ": 5960,
      "à¤Ĥà¤¦à¥Ģ": 5961,
      "Ġà¤¸à¤¾à¤®à¤¾à¤¨": 5962,
      "plo": 5963,
      "Ġà¤ķà¤°à¥įà¤¨": 5964,
      "Ġthen": 5965,
      "Ġà¤¸à¤¿à¤¦à¥įà¤§à¤¾à¤Ĥà¤¤à¥ĭà¤Ĥ": 5966,
      "HP": 5967,
      "Ġà¤Ńà¥ĩà¤¦": 5968,
      "2019": 5969,
      "Ġà¤®à¤§à¥ģà¤®à¥ĩà¤¹": 5970,
      "Ġà¤Ĩà¤°à¥įà¤Ł": 5971,
      "Ġà¤¸à¥Ĥà¤ļà¥Ģà¤¬à¤¦à¥įà¤§": 5972,
      "[\"": 5973,
      "Ġà¤ıà¤ķà¥Ģà¤ķà¥ĥà¤¤": 5974,
      "Ġwere": 5975,
      "âĢľ": 5976,
      "Ġà¤ªà¥ĥà¤·à¥įà¤łà¤Ńà¥Ĥà¤®à¤¿": 5977,
      "yle": 5978,
      "Ġà¤®à¤Ĥà¤¡à¤²": 5979,
      "Ġà¤ıà¤Ĥà¤Ł": 5980,
      "Ġà¤ļà¤¾à¤²à¤ķ": 5981,
      "à¤ķà¥įà¤°à¤®à¤¿à¤¤": 5982,
      "Ġà¤²à¥ĭà¤¡": 5983,
      "à¤Ĺà¥ĭà¤²à¤¿à¤ķ": 5984,
      "It": 5985,
      "Ġà¤ľà¥Ģà¤µà¥ĭà¤Ĥ": 5986,
      "Ġà¤¨à¤¿à¤°à¥įà¤¦à¥ĩà¤¶à¤ķ": 5987,
      "Ġspec": 5988,
      "1998": 5989,
      "\"à¤°": 5990,
      "Ġà¤ħà¤ªà¥ĩà¤ķà¥įà¤·": 5991,
      "Ġà¤®à¥ĭà¤¡à¤¼": 5992,
      "à¥ĩà¤ĸà¤¾": 5993,
      "à¤¬à¥Ĥ": 5994,
      "nect": 5995,
      "Ġà¤¶à¥ģà¤Ń": 5996,
      "à¤¸à¥įà¤ªà¤¤à¤¿": 5997,
      "à¤Ĺà¤¾à¤¹": 5998,
      "Ġà¤¦à¥ĭà¤¹à¤°": 5999,
      "à¤ķà¥įà¤°à¤¾à¤®à¤ķ": 6000,
      "Ġà¤¤à¥Īà¤°": 6001,
      "à¤°à¤¿à¤¤": 6002,
      "Ġà¤µà¤¨à¥įà¤¯": 6003,
      "Ġà¤īà¤¤à¥įà¤¤à¥ĩà¤ľ": 6004,
      "(i": 6005,
      "300": 6006,
      "Ġà¤Łà¥ģà¤ķà¤¡à¤¼à¥ĩ": 6007,
      "Ġà¤µà¤¸": 6008,
      "Ġfin": 6009,
      "à¤ļà¤¾à¤¨à¤ķ": 6010,
      "Ġà¤¯à¥Įà¤Ĺ": 6011,
      "=>": 6012,
      "à¥įà¤¯à¤¾à¤£": 6013,
      "Ġà¤®à¤Ĥà¤¤à¥įà¤°à¤¾à¤²à¤¯": 6014,
      "Ġà¤®à¤¹à¥Ģà¤¨à¥ĭà¤Ĥ": 6015,
      "Ġà¤ªà¥ĩà¤¯": 6016,
      "Ġà¤¸à¤Ĥà¤Ĺà¤łà¤¿à¤¤": 6017,
      "à¤ħà¤ªà¥įà¤°à¥Īà¤²": 6018,
      "1980": 6019,
      "(à¤Ĺ": 6020,
      "oh": 6021,
      "Ġà¤«à¥īà¤°": 6022,
      "gest": 6023,
      "Ġà¤¨à¤®à¤ķ": 6024,
      "ym": 6025,
      "Ġà¤ĩà¤¨à¤ķà¤¾à¤°": 6026,
      "Ġà¤°à¤¿à¤ļ": 6027,
      "Ġà¤Ĺà¥Ĥ": 6028,
      "à¤¨à¥įà¤¥": 6029,
      "Ġà¤Ĭà¤ªà¤°à¥Ģ": 6030,
      "Ġà¤ªà¥įà¤²à¤¾à¤¸à¥įà¤Łà¤¿à¤ķ": 6031,
      "à¤«à¥īà¤°à¥įà¤®": 6032,
      "Ġà¤ķà¥įà¤·à¥ĩà¤¤à¥įà¤°à¤«à¤²": 6033,
      "Ġà¤ħà¤§à¥įà¤¯à¤¯à¤¨à¥ĭà¤Ĥ": 6034,
      "à¤¿à¤¶à¤¨": 6035,
      "à¤¬à¥ĭà¤°à¥įà¤¡": 6036,
      "à¤¾à¤ľà¤ªà¤¾": 6037,
      "à¤¾à¤§à¥Ģà¤¶": 6038,
      "Ġà¤¸à¥Ĥà¤°à¤ľ": 6039,
      "Ġà¤µà¥Īà¤ķà¤²à¥įà¤ªà¤¿à¤ķ": 6040,
      "Ġà¤ļà¤¿à¤ª": 6041,
      "Ġà¤¬à¥Īà¤ķà¥įà¤Łà¥Ģà¤°à¤¿à¤¯à¤¾": 6042,
      "Ġà¤¸à¤®à¥įà¤®à¤¿à¤²": 6043,
      "à¤ķà¤Ł": 6044,
      "à¤®à¥ģà¤ĸà¥įà¤¯": 6045,
      "ink": 6046,
      "à¤«à¤¾": 6047,
      "riv": 6048,
      "def": 6049,
      "à¤§à¤°": 6050,
      "Ġà¤ķà¤¾à¤²à¥Ģ": 6051,
      "Ġà¤ļà¥ģà¤ķà¥Ģ": 6052,
      "Ġà¤ĸà¤°à¥Ģà¤¦à¤¨à¥ĩ": 6053,
      "Ġà¤ªà¥įà¤°à¤¤à¤¿à¤¸à¥įà¤ªà¤°à¥įà¤§à¤¾": 6054,
      "Ġà¤²à¤ķà¥įà¤·à¥įà¤¯à¥ĭà¤Ĥ": 6055,
      "Ġà¤ĸà¥ĩà¤²à¤¾": 6056,
      "Ġà¤ªà¤ķà¤¡à¤¼à¤¨à¥ĩ": 6057,
      "Ġà¤²à¥ĭà¤¹": 6058,
      "Ġà¤ļà¥Īà¤¨à¤²": 6059,
      "Ġà¤ħà¤¡à¥įà¤¡": 6060,
      "Ġà¤ĸà¥ĩà¤¤à¥Ģ": 6061,
      "à¥ĩà¤¶à¤¿à¤¯à¤¾": 6062,
      "Ġloc": 6063,
      "Ġà¤ħà¤Ĥà¤ķà¥ĭà¤Ĥ": 6064,
      "Ġà¤¦à¤¾à¤¨": 6065,
      "à¤ħà¤ªà¤¨à¥ĩ": 6066,
      "à¥Ĥà¤°à¥įà¤µà¤ķ": 6067,
      "Ġà¤¬à¥Īà¤Ł": 6068,
      "Ġà¤¯à¥ģà¤µ": 6069,
      "à¥ĩà¤Ĥà¤Ĺ": 6070,
      "Ġà¤Łà¥Ĥ": 6071,
      "Ġà¤ħà¤¨à¥ģà¤®à¤¾à¤¨à¤¿à¤¤": 6072,
      "Ġà¤¤à¥įà¤µà¤°": 6073,
      "à¤īà¤ªà¤°": 6074,
      "Ġà¤ªà¥įà¤°à¤¤à¤¿à¤¨à¤¿à¤§à¤¿": 6075,
      "Ġà¤ħà¤Ńà¤¿à¤µà¥įà¤¯à¤ķà¥įà¤¤à¤¿": 6076,
      "à¤°à¥įà¤·à¤£": 6077,
      "Ġà¤¶à¥ĩà¤°": 6078,
      "ĠAdd": 6079,
      "Ġà¤Ĺà¥ģà¤¨à¤¾": 6080,
      "à¤Ńà¥Į": 6081,
      "Ġà¤Łà¤¿à¤ªà¥įà¤ªà¤£à¥Ģ": 6082,
      "Ġà¤ħà¤¦à¥įà¤¯à¤¤à¤¨": 6083,
      "à¤ªà¥įà¤ª": 6084,
      "Ġà¤Ĩà¤ķà¥įà¤°à¤®à¤£": 6085,
      "Ġà¤ªà¥Įà¤§à¤¾": 6086,
      "1999": 6087,
      "Ġà¤¸à¥ĩà¤®à¥Ģ": 6088,
      "à¤¦à¤¾à¤¯à¤ķ": 6089,
      "à¤°à¥įà¤ķà¥Ģ": 6090,
      "Ġà¤Ľà¥ĭà¤¡à¤¼à¤¨à¥ĩ": 6091,
      "Ġà¤ħà¤Ĺà¤²à¥Ģ": 6092,
      "à¤Ĩà¤¨à¥įà¤§à¥įà¤°": 6093,
      "Ġà¤¸à¥įà¤µà¤¾à¤Ĺà¤¤": 6094,
      "à¤°à¥įà¤¨à¤°": 6095,
      "à¤¾à¤ľà¥ĩ": 6096,
      "aw": 6097,
      "à¤¬à¥įà¤ľ": 6098,
      "Ġà¤ķà¥ģà¤Ĥà¤ľà¥Ģ": 6099,
      "Ġà¤¦à¥ĩà¤ķà¤°": 6100,
      "à¤¾à¤ªà¥Ģ": 6101,
      "Ġà¤µà¥ī": 6102,
      "Ġà¤¹à¥ģà¤ıà¤ĥ": 6103,
      "Ġà¤¶à¥ģà¤ķà¥įà¤°à¤µà¤¾à¤°": 6104,
      "Ġà¤¸à¥ĩà¤¬": 6105,
      "Ġwhen": 6106,
      "Ġarray": 6107,
      "Ġà¤²à¤¿à¤®": 6108,
      "à¤¿à¤ĺ": 6109,
      "Ġsim": 6110,
      "Ġà¤Ĺà¥ģà¤£à¥ĭà¤Ĥ": 6111,
      "à¤¤à¤¾à¤°": 6112,
      "ont": 6113,
      "Ġà¤¨à¤¿à¤°à¥įà¤¦à¥ĩà¤¶à¤¿à¤¤": 6114,
      "Ġà¤ĸà¤¡à¤¼à¥ĩ": 6115,
      "à¤¾à¤ĩà¤Łà¥ĩà¤¡": 6116,
      "Ġperform": 6117,
      "Ġà¤¬à¤¾à¤¬": 6118,
      "Ġà¤«à¥įà¤°à¥Ģ": 6119,
      "Ġà¤¢à¤¾à¤Ĥà¤ļ": 6120,
      "Ġà¤µà¤°à¤¿à¤·à¥įà¤ł": 6121,
      "à¥įà¤²à¥įà¤¸": 6122,
      "Ġà¤Ńà¤¾à¤Ĺà¥Ģà¤¦": 6123,
      "Ġà¤¸à¤®à¤°à¥įà¤ªà¤¿à¤¤": 6124,
      "à¤¿à¤Ĥà¤¸": 6125,
      "Ġà¤ªà¤°à¤¿à¤µà¤¾à¤°à¥ĭà¤Ĥ": 6126,
      "Ġà¤ķà¥įà¤°à¥īà¤¸": 6127,
      "Ġà¤Ĩà¤¨à¥įà¤§à¥įà¤°à¤ªà¥įà¤°à¤¦à¥ĩà¤¶": 6128,
      "à¤¦à¤¾à¤¯": 6129,
      "Ġà¤¹à¤¾à¤°à¥įà¤¡": 6130,
      "Ġà¤¸à¤¾à¤Ĥà¤¸à¤¦": 6131,
      "Ġà¤®à¥ĩà¤¡à¤¿à¤ķà¤²": 6132,
      "à¤²à¥įà¤¯": 6133,
      "Ġà¤ªà¤¹à¤¾à¤¡à¤¼à¥Ģ": 6134,
      "Ġà¤¦à¥įà¤°à¤µà¥įà¤¯": 6135,
      "Ġà¤¸à¤Ĥà¤¬à¥ĭà¤§à¤¿à¤¤": 6136,
      "Ġà¤µà¤¿à¤ķà¤¿à¤°à¤£": 6137,
      "(f": 6138,
      "Ġtr": 6139,
      "Ġà¤µà¥įà¤¯à¤Ĥà¤ľà¤¨": 6140,
      "à¤²à¥Ģà¤µà¥ģà¤¡": 6141,
      "Ġà¤¨à¤¿à¤°à¤¾à¤¶": 6142,
      "Ġà¤ħà¤ļà¤¾à¤¨à¤ķ": 6143,
      "uring": 6144,
      "(à¤¡": 6145,
      "à¥įà¤¤à¤¾": 6146,
      "Ġcar": 6147,
      "Ġà¤¹à¤¡à¥įà¤¡à¥Ģ": 6148,
      "Ġà¤¸à¥Ĥà¤ļà¤¿à¤¤": 6149,
      "Ġà¤¦à¥ĩà¤Ĥà¤Ĺà¥ĩ": 6150,
      "Ġà¤ĳà¤ķà¥įà¤¸à¥Ģà¤ľà¤¨": 6151,
      ".p": 6152,
      "à¤Łà¤¿à¤ķ": 6153,
      "Ġà¤ĳà¤«à¤¿à¤¸": 6154,
      "_c": 6155,
      "Ġà¤ªà¤°à¤¿à¤¸à¥įà¤¥à¤¿à¤¤": 6156,
      "Ġcustomer": 6157,
      "Ġimpro": 6158,
      "à¤¾à¤¬à¥Ģ": 6159,
      "Ġsaid": 6160,
      "oup": 6161,
      "Ġà¤Ĩà¤¤à¤Ĥà¤ķ": 6162,
      "Ġà¤²à¤Ĺà¤¾à¤ıà¤Ĥ": 6163,
      "à¤ľà¥ģà¤²à¤¾à¤Ī": 6164,
      "Re": 6165,
      "pect": 6166,
      "Ġà¤ªà¥ģà¤¸à¥įà¤¤à¤ķà¥ĭà¤Ĥ": 6167,
      "(m": 6168,
      "Ġquest": 6169,
      "à¤²à¤¿à¤ķ": 6170,
      "ting": 6171,
      "Ġà¤®à¤¾à¤®à¤²à¤¾": 6172,
      "Ġexperi": 6173,
      "ne": 6174,
      "Ġà¤«à¤¾à¤ĩà¤²": 6175,
      "ĠNIC": 6176,
      "vironment": 6177,
      "âĢĿ": 6178,
      "sions": 6179,
      "à¤¾à¤¨à¥ģà¤®à¤¾à¤¨": 6180,
      "Ġà¤ħà¤£": 6181,
      "Ġyear": 6182,
      "Ġà¤¡à¥ĩà¤²": 6183,
      "à¤°à¥įà¤¡à¤°": 6184,
      "189": 6185,
      "Ġà¤īà¤¦à¥įà¤¦à¥ĩà¤¶à¥įà¤¯à¥ĭà¤Ĥ": 6186,
      "à¤ľà¥ĭ": 6187,
      "à¥īà¤¨à¥įà¤Ł": 6188,
      "Ġà¤¦à¥ĥà¤¢à¤¼": 6189,
      "à¤µà¤¿à¤¨": 6190,
      "Ġà¤ħà¤¨à¥ģà¤¸à¤°à¤£": 6191,
      "ĠYou": 6192,
      "Ġà¤ķà¥ĭà¤°à¥ĭà¤¨à¤¾": 6193,
      "66": 6194,
      "(x": 6195,
      "Ġà¤¦à¥ĩà¤ĸà¤¤à¤¾": 6196,
      "Ġà¤¸à¤¾à¤°à¥Ģ": 6197,
      "à¥ĭà¤¸à¥įà¤Ł": 6198,
      "Ġmost": 6199,
      "ĠHow": 6200,
      "Ġà¤Ĩà¤Ĥà¤ķà¤¡à¤¼à¥ĭà¤Ĥ": 6201,
      "Ġà¤ķà¥ĭà¤°à¥įà¤Ł": 6202,
      "ade": 6203,
      "Ġà¤¹à¤ľà¤¾à¤°à¥ĭà¤Ĥ": 6204,
      "Ġstate": 6205,
      "à¥ĭà¤¸à¤¿à¤¸": 6206,
      "Ġà¤¹à¥ĩà¤¨": 6207,
      "use": 6208,
      "Ġà¤¬à¤ļà¤ªà¤¨": 6209,
      "Ġà¤ħà¤ķà¥įà¤·à¤°à¥ĭà¤Ĥ": 6210,
      "Ġà¤¸à¤®à¤¸à¥įà¤¯à¤¾à¤ıà¤Ĥ": 6211,
      "-à¤ĩ": 6212,
      "à¥įà¤ķà¥ģà¤²": 6213,
      "à¥ģà¤¦à¥įà¤°": 6214,
      "à¤ħà¤ķà¥įà¤Łà¥Ĥà¤¬à¤°": 6215,
      "Ġà¤«à¤¼à¤¿à¤²": 6216,
      "Ġà¤®à¤Ĥà¤Ĺà¤²à¤µà¤¾à¤°": 6217,
      "SE": 6218,
      "Ġà¤Ĺà¤¿à¤²": 6219,
      "Ġà¤ħà¤§à¤¿à¤ķà¤¾à¤°à¥ĭà¤Ĥ": 6220,
      "à¥Ĥà¤°à¥ĩ": 6221,
      "-à¤¯": 6222,
      "Ġà¤¨à¥Ģà¤¤à¤¿à¤¯à¥ĭà¤Ĥ": 6223,
      "Ġà¤ªà¥įà¤°à¤¸à¤Ĥà¤¸à¥įà¤ķ": 6224,
      "à¥Ĥà¤²à¥Ģ": 6225,
      "atures": 6226,
      "à¤¿à¤Ĥà¤Ĺà¥įà¤¸": 6227,
      "Ġidentify": 6228,
      "à¤¿à¤²à¥ĭà¤Ĥ": 6229,
      "Ġà¤¨à¥įà¤¯à¥Ĥà¤ľ": 6230,
      "à¤ķà¤®": 6231,
      "Ġà¤ĩà¤¨à¤ķà¥Ģ": 6232,
      "Ġà¤ħà¤®à¥Ģà¤°": 6233,
      "Ġà¤¤à¤¾à¤ķà¤¤": 6234,
      "Ġà¤īà¤¤à¥įà¤¸à¤¾à¤¹": 6235,
      "Ġà¤¤à¤®à¤¿à¤²": 6236,
      "Ġà¤Ĩà¤§à¥ĩ": 6237,
      "Ġà¤ªà¤¾à¤¸à¤µà¤°à¥įà¤¡": 6238,
      "Ġpublic": 6239,
      "Ġà¤¸à¥ĩà¤ķà¤Ĥà¤¡": 6240,
      "47": 6241,
      "ee": 6242,
      "à¥ĭà¤·à¤£": 6243,
      "(N": 6244,
      "à¤¾à¤µà¥įà¤¯": 6245,
      "Ġpot": 6246,
      "Ġà¤®à¥ĥà¤¤": 6247,
      "ĠGo": 6248,
      "Ġà¤¨à¥ī": 6249,
      "ality": 6250,
      "Ġà¤«à¤¾à¤ĩ": 6251,
      "Ġà¤īà¤®à¥įà¤®à¥Ģà¤¦à¤µà¤¾à¤°": 6252,
      "ulation": 6253,
      "Ġà¤¨à¤¾à¤¸à¤¾": 6254,
      "à¤²à¥ĩà¤¸": 6255,
      "ug": 6256,
      "ries": 6257,
      "à¤®à¤¤à¤¾": 6258,
      "Ġstart": 6259,
      "Ġà¤ªà¤¶à¥įà¤ļ": 6260,
      "ency": 6261,
      "Ġvalue": 6262,
      "Ġà¤°à¥ĭà¤²": 6263,
      "Ġà¤ħà¤¨à¤¿à¤µà¤¾à¤°": 6264,
      "................": 6265,
      "Ġà¤¯à¤¾à¤¤à¥įà¤°à¥Ģ": 6266,
      "Ġà¤¬à¤²à¥įà¤²": 6267,
      "à¤¾à¤£à¥įà¤¡": 6268,
      "Ġà¤ļà¤Łà¥įà¤Łà¤¾à¤¨": 6269,
      "old": 6270,
      "Ġà¤¬à¤¿à¤Ĺ": 6271,
      "read": 6272,
      "Ġà¤µà¤¿à¤µà¤°à¤£à¥ĭà¤Ĥ": 6273,
      "(à¤¯à¤¾": 6274,
      "Ġà¤ĸà¥ģà¤²à¥ĩ": 6275,
      "Ġà¤ħà¤¨à¥įà¤µ": 6276,
      "Ġappro": 6277,
      "à¤¶à¤¨à¥Ģ": 6278,
      "Ġà¤ªà¥ģà¤°à¤¾à¤¨à¤¾": 6279,
      "Ġà¤¸à¥įà¤µà¤ļà¤¾à¤²à¤¿à¤¤": 6280,
      "Ġà¤«à¥ĩà¤Ĥà¤ķ": 6281,
      "Ġà¤ķà¤¶à¥įà¤®à¥Ģà¤°": 6282,
      "Ġà¤Ĺà¤°à¥Ģà¤¬": 6283,
      "Ġca": 6284,
      "Ġà¤Ľà¥Ĥà¤Ł": 6285,
      "à¤ªà¤¤à¥įà¤°": 6286,
      "à¤¾à¤ķà¥įà¤¯": 6287,
      "ily": 6288,
      "Ġà¤Ĩà¤µà¥ĩà¤¦à¤¨": 6289,
      "à¥Īà¤Łà¤¿à¤¨": 6290,
      "Ġà¤ķà¥ĥà¤¤à¥įà¤°à¤¿à¤®": 6291,
      "à¥Ĥà¤¨à¥įà¤¯": 6292,
      "Ġà¤¹à¤¾à¤¥à¥ĭà¤Ĥ": 6293,
      "Ġà¤ľà¤¾à¤ªà¤¾à¤¨à¥Ģ": 6294,
      "Ġà¤ªà¤¾à¤¦": 6295,
      "Ġà¤ĺà¤¾à¤¯à¤²": 6296,
      "emb": 6297,
      "Ġà¤ĩà¤Ĥà¤¤à¤ľà¤¾à¤°": 6298,
      "Ġà¤Ńà¤°à¥įà¤¤à¥Ģ": 6299,
      "Ġà¤ªà¥Ĥà¤°à¥įà¤µà¤¾à¤¨à¥ģà¤®à¤¾à¤¨": 6300,
      "Ġà¤¸à¤®à¥įà¤®à¤¿à¤²à¤¿à¤¤": 6301,
      "Ġà¤¡à¤¿à¤¸à¥įà¤ķ": 6302,
      "ric": 6303,
      "Ġà¤¸à¤®à¥įà¤°à¤¾à¤Ł": 6304,
      "Ġà¤ħà¤ľà¥Ģ": 6305,
      "à¤ķà¥ģà¤Ľ": 6306,
      "à¥ĭà¤¸à¤¿à¤ı": 6307,
      "à¤µà¤¿à¤ľà¥įà¤ŀà¤¾à¤¨": 6308,
      "iness": 6309,
      "Ġà¤ħà¤ªà¤¡à¥ĩà¤Ł": 6310,
      "Ġà¤ªà¥įà¤°à¤¾à¤ĩà¤®": 6311,
      "Ġà¤Ĩà¤ªà¤¾à¤¤": 6312,
      "à¥ĭà¤°à¤¾": 6313,
      "Ġà¤¬à¤ļà¤¤": 6314,
      "Ġà¤Łà¥ĩà¤ķà¥įà¤¨": 6315,
      "Ġà¤ĸà¤°": 6316,
      "Ġà¤¦à¥ĩà¤ĸà¥Ģ": 6317,
      "à¤¿à¤²à¥ĩà¤ĸ": 6318,
      "Ġà¤ĸà¥ģà¤°": 6319,
      "Ġext": 6320,
      "':": 6321,
      "any": 6322,
      "à¤·à¥įà¤£": 6323,
      "à¥ĩà¤ľà¤°": 6324,
      "2021": 6325,
      "à¥§à¥¯à¥®": 6326,
      "-à¤Ķà¤°": 6327,
      "ability": 6328,
      "(à¤¦": 6329,
      "Ġà¤®à¤¾à¤¤": 6330,
      "Ġà¤Ĩà¤µà¥ĥà¤¤à¥įà¤¤à¤¿": 6331,
      "Ġà¤Ĺà¤£à¤°à¤¾à¤ľà¥įà¤¯": 6332,
      "à¤¨à¥įà¤µ": 6333,
      "sole": 6334,
      "Ġà¤¸à¤Ĥà¤¤à¥ģà¤²à¤¨": 6335,
      "Ġà¤¹à¤¿à¤¤": 6336,
      "(à¤ªà¥įà¤°": 6337,
      "Ġpop": 6338,
      "Ġpos": 6339,
      "Ġà¤²à¥Ĥà¤ª": 6340,
      "à¤ķà¥įà¤·à¤¿à¤ķ": 6341,
      "\"à¤ªà¥įà¤°": 6342,
      "RO": 6343,
      "à¤°à¤¾à¤®": 6344,
      "Ġà¤¨à¤¾à¤¶": 6345,
      "ploy": 6346,
      "Ġà¤¬à¤¿à¤²à¥įà¤²à¥Ģ": 6347,
      "à¤¹à¤¾à¤°à¤¿à¤ķ": 6348,
      "à¤ķà¥ĭà¤Ł": 6349,
      "Ġincre": 6350,
      "Ġdef": 6351,
      "Ġà¤¸à¥Ģà¤¨": 6352,
      "-à¤ľà¥Ĥà¤¨": 6353,
      "Ġà¤¡à¤¾à¤²à¥ĩà¤Ĥ": 6354,
      "Ġà¤°à¥Ĥà¤¸à¥Ģ": 6355,
      "imal": 6356,
      "Ġà¤ķà¤°à¤¾à¤¨à¥ĩ": 6357,
      "ets": 6358,
      "Ġà¤Ĺà¤¾à¤¡à¤¼à¥Ģ": 6359,
      "Ġà¤ķà¤°à¤¾à¤¯à¤¾": 6360,
      "Ġà¤¸à¤Ĥà¤¯à¤Ĥà¤¤à¥įà¤°": 6361,
      "list": 6362,
      "à¤¤à¥ĭ": 6363,
      "à¤²à¤¿à¤Ĥà¤Ĺ": 6364,
      "à¤¹à¤¾à¤īà¤¸": 6365,
      "à¤²à¥ĩà¤ĸ": 6366,
      "à¤®à¤ķ": 6367,
      "Ġthree": 6368,
      "Ġà¤¨à¤¾": 6369,
      "Ġà¤Łà¤ķà¤°": 6370,
      "abel": 6371,
      "Ġà¤µà¥Ģà¤Ĥ": 6372,
      "Ġà¤ıà¤¥à¤²à¥Ģà¤Ł": 6373,
      "Ġà¤°à¥īà¤¬à¤°à¥įà¤Ł": 6374,
      "49": 6375,
      "Ġorder": 6376,
      "à¤Ĺà¤¤": 6377,
      "Ġà¤µà¥įà¤¯à¤ķà¥įà¤¤à¤¿à¤¤à¥įà¤µ": 6378,
      "à¥§à¥Ń": 6379,
      "Ġà¤¨à¤¿à¤ķà¤²à¤¨à¥ĩ": 6380,
      "Ġà¤«à¥ĭà¤Łà¥ĭ": 6381,
      "Ġà¤¸à¤µ": 6382,
      "Ġcommun": 6383,
      "Ġserv": 6384,
      "à¤¹à¤¾": 6385,
      "âĢ²": 6386,
      "fter": 6387,
      "1000": 6388,
      "Ġà¤¸à¥įà¤ķà¥įà¤°à¤¿à¤ªà¥įà¤Ł": 6389,
      "Ġrespon": 6390,
      "He": 6391,
      "à¤Ĺà¤¢": 6392,
      "Ġvarious": 6393,
      "ward": 6394,
      "Ġà¤Ńà¤°à¥Ģ": 6395,
      "Ġà¤¨à¤¿à¤ªà¤Łà¤¨à¥ĩ": 6396,
      "org": 6397,
      "Ġà¤Ńà¤¾à¤·à¤£": 6398,
      "-à¤¦à¤¿à¤¸": 6399,
      "67": 6400,
      "Ġà¤ħà¤¨à¥ģà¤ļà¥įà¤Ľà¥ĩà¤¦": 6401,
      "Ġà¤°à¤¾à¤ľà¤ķà¥ģà¤®": 6402,
      "Ġà¤®à¤¾à¤¨à¤ķà¥ĭà¤Ĥ": 6403,
      "à¤¸à¤Ĥà¤ĸà¥įà¤¯": 6404,
      "Ġà¤®à¤¾à¤ĩà¤ķà¤²": 6405,
      "Ġà¤¬à¤¾à¤ĩ": 6406,
      "Ġà¤¨à¤¾à¤ķ": 6407,
      "à¥§à¥¨": 6408,
      "Ġà¤¦à¤°à¥įà¤¶à¤¾à¤¤à¥Ģ": 6409,
      "Ġà¤¸à¥ĩà¤Ĥà¤Łà¤°": 6410,
      "ask": 6411,
      "à¤·à¤ķ": 6412,
      "à¥ģà¤·à¥įà¤ķ": 6413,
      "Ġà¤¸à¤Ĥà¤ķà¥įà¤°à¤®à¤¿à¤¤": 6414,
      "à¤¿à¤ĵ": 6415,
      "Ġà¤ķà¤²à¥įà¤¯à¤¾à¤£": 6416,
      "Ġà¤ªà¤ķà¥įà¤·à¤¿à¤¯à¥ĭà¤Ĥ": 6417,
      "(P": 6418,
      "Ġmain": 6419,
      "à¥Īà¤ľà¥įà¤ŀà¤¾à¤¨à¤¿à¤ķ": 6420,
      "Ġà¤ĩà¤Ĥà¤Ł": 6421,
      "à¥ĩà¤¨à¤¿à¤¯à¤¾": 6422,
      "ather": 6423,
      "Ġà¤¬à¥ģà¤§à¤µà¤¾à¤°": 6424,
      "Ġà¤¤à¥įà¤µà¤°à¤¿à¤¤": 6425,
      "à¤īà¤ªà¤°à¥ĭà¤ķà¥įà¤¤": 6426,
      "oy": 6427,
      "Ġà¤¹à¥ĭà¤Łà¤²": 6428,
      "à¥Ĥà¤°à¥įà¤¨": 6429,
      "Ġà¤Ńà¥Įà¤¤à¤¿à¤ķà¥Ģ": 6430,
      "-à¤®à¤¾à¤°à¥įà¤ļ": 6431,
      "Ġà¤ľà¤¾à¤¨à¤¨à¤¾": 6432,
      "à¤µà¤¾à¤²à¤¾": 6433,
      "Ġà¤ħà¤¦à¤¾à¤²à¤¤": 6434,
      "Ġste": 6435,
      "come": 6436,
      "à¤¤à¤¾à¤ªà¥Ĥà¤°à¥įà¤µà¤ķ": 6437,
      "à¤ķà¥įà¤ķà¤°": 6438,
      "Ġà¤¹à¤¸à¥įà¤¤à¤ķà¥įà¤·à¥ĩà¤ª": 6439,
      "à¥Īà¤¬": 6440,
      "Ġà¤®à¥ģà¤«": 6441,
      "ĠHe": 6442,
      "à¥§à¥¬": 6443,
      "Ġà¤ªà¥įà¤°à¤¤à¥įà¤¯à¤ķà¥įà¤·": 6444,
      "Ġà¤ľà¤¾à¤¯": 6445,
      "Ġà¤ļà¥ģà¤Ĥà¤¬": 6446,
      "An": 6447,
      "à¥Įà¤¤à¥Ģ": 6448,
      "Ġensure": 6449,
      "à¤ħà¤Ĥà¤¤à¤°": 6450,
      "à¤¾à¤Ĥà¤¤à¤¿à¤ķ": 6451,
      "Ġà¤¶à¥ģà¤²à¥įà¤ķ": 6452,
      "Ġà¤ªà¤°à¤¿à¤¦": 6453,
      "Ġà¤ħà¤¨à¥ģà¤°à¥Ĥà¤ª": 6454,
      "-à¤¸à¤¿à¤¤à¤Ĥà¤¬à¤°": 6455,
      "Ġà¤ªà¥ĩà¤Ĥà¤Ł": 6456,
      "à¤¾à¤²à¥ĩ": 6457,
      "Ġà¤µà¤¿à¤¶à¥ĩà¤·à¤ľà¥įà¤ŀà¥ĭà¤Ĥ": 6458,
      "Ġà¤ħà¤ķà¥ĩà¤²à¥ĩ": 6459,
      "Ġà¤µà¥ĭà¤²": 6460,
      "Ġà¤µà¥ĩà¤¤à¤¨": 6461,
      "Ġà¤ķà¤¹à¤²": 6462,
      "à¤¸à¤¾à¤Ĥà¤ĸà¥įà¤¯": 6463,
      "Ġà¤Ńà¤¾à¤·à¤¾à¤ıà¤ģ": 6464,
      "Ġà¤ĩà¤¤à¤¨à¥ĩ": 6465,
      "1970": 6466,
      "Ġà¤§à¥įà¤°à¥ģà¤µ": 6467,
      "Âłà¤ķ": 6468,
      "Ġà¤²à¤¾à¤Ńà¥ĭà¤Ĥ": 6469,
      "à¤¶à¥Ģà¤°à¥įà¤·à¤ķ": 6470,
      "Ġà¤¸à¥ĭà¤¨": 6471,
      "Ġway": 6472,
      "à¤¿à¤¯à¤¨à¤¶à¤¿à¤ª": 6473,
      "à¤¾à¤§à¤¿à¤ķà¤¾à¤°à¥Ģ": 6474,
      "Ġà¤¬à¤¾à¤Ĥà¤§": 6475,
      "ergy": 6476,
      "Ġà¤¨à¤¤à¥Ģ": 6477,
      "Ġà¤¡à¥ĩà¤µà¤²": 6478,
      "Ġà¤¬à¤¾à¤¢à¤¼": 6479,
      "Ġà¤ĸà¤°à¥Ģà¤¦à¤¾à¤°à¥Ģ": 6480,
      "Ġà¤ķà¤¿à¤Ĥ": 6481,
      "Ġà¤¹à¥īà¤²": 6482,
      "Ġà¤ļà¥Ĥà¤¹": 6483,
      "Ġdi": 6484,
      "Ġà¤¨à¥ĩà¤ªà¤¾à¤²": 6485,
      "Ġà¤ĵà¤µà¤°": 6486,
      "Ġà¤ħà¤¤à¥įà¤¯à¤Ĥà¤¤": 6487,
      "Ġà¤µà¥Ģà¤°": 6488,
      "âĢĭ": 6489,
      "Ġà¤ķà¥ĭà¤¯": 6490,
      "Ġà¤Ĩà¤ģà¤ĸ": 6491,
      "Ġà¤¤à¥Ģà¤¸à¤°à¥Ģ": 6492,
      "Ġà¤¨à¥Įà¤ķà¤°": 6493,
      "Ġà¤Ĺà¤°à¥įà¤®à¤¿à¤¯à¥ĭà¤Ĥ": 6494,
      "Ġà¤®à¤¾à¤°à¥įà¤ķà¥ĩà¤Łà¤¿à¤Ĥà¤Ĺ": 6495,
      "Ġà¤µà¤¿à¤°à¥ĭà¤§à¥Ģ": 6496,
      "Ġà¤ħà¤¨à¤¿à¤µà¤¾à¤°à¥įà¤¯": 6497,
      "\"à¤¶": 6498,
      "(M": 6499,
      "Ġà¤¶à¥įà¤°à¤®à¤¿à¤ķ": 6500,
      "Ġà¤¡à¤¿à¤ª": 6501,
      "Ġstud": 6502,
      "ety": 6503,
      "Ġà¤¦à¤ķà¥įà¤·à¤¤à¤¾": 6504,
      "à¤¹à¤¿à¤¨à¥įà¤¦à¥Ģ": 6505,
      "Ġà¤²à¤¹à¤°": 6506,
      "à¤µà¤¾à¤²à¥ĩ": 6507,
      "à¤§à¤¾à¤°à¥Ģ": 6508,
      "Ġà¤īà¤¤à¤¨à¤¾": 6509,
      "à¤¤à¥Ģà¤¤": 6510,
      "aint": 6511,
      "à¤¾à¤²à¥įà¤¡": 6512,
      "acy": 6513,
      "à¥Ĥà¤°à¥įà¤¨à¤¾à¤®à¥ĩà¤Ĥà¤Ł": 6514,
      "Ġredu": 6515,
      "hen": 6516,
      "Ġà¤®à¥ĭà¤¨": 6517,
      "Ġà¤Ĺà¤¹à¤°à¥ĩ": 6518,
      "Ġà¤Ľà¥ĭà¤¡à¤¼à¤ķà¤°": 6519,
      "à¤ªà¤¾à¤¤": 6520,
      "à¥ĭà¤Łà¥Ģ": 6521,
      "vern": 6522,
      "Ġà¤ªà¥įà¤°à¤¶à¤¿à¤ķà¥įà¤·à¤¿à¤¤": 6523,
      "Ġà¤Łà¥ĩà¤ķà¥įà¤¸à¤¾à¤¸": 6524,
      "Ġà¤¸à¤®à¤Ŀà¤¾": 6525,
      "Ġà¤¸à¤°à¥įà¤¦à¤¿à¤¯à¥ĭà¤Ĥ": 6526,
      "85": 6527,
      "Ġà¤¹à¤°à¥ĩ": 6528,
      "Ġà¤¨à¥įà¤¯à¤¾à¤¯à¤¾à¤§à¥Ģà¤¶": 6529,
      "pen": 6530,
      "Ġà¤ķà¥įà¤°à¤¿à¤¸": 6531,
      "Ġà¤°à¤£à¤¨à¥Ģà¤¤à¤¿à¤¯à¥ĭà¤Ĥ": 6532,
      "à¤®à¥ģà¤Ŀà¥ĩ": 6533,
      "Ġà¤¸à¤¾à¤ª": 6534,
      "150": 6535,
      "à¥Ĥà¤¸à¥Ģ": 6536,
      "Ġà¤¨à¤¾à¤µ": 6537,
      "à¤¾à¤¹à¤¿à¤ķ": 6538,
      "Ġà¤®à¥Įà¤ķà¤¾": 6539,
      "Ġchall": 6540,
      "ources": 6541,
      "à¥ģà¤²à¤¾": 6542,
      "42": 6543,
      "ln": 6544,
      "Ġà¤¬à¤ļà¤¾à¤µ": 6545,
      "Ġà¤ªà¤¾à¤²à¤¤à¥Ĥ": 6546,
      "à¤ľà¤¾à¤¨": 6547,
      "Ġà¤¸à¤¾à¤Ĥà¤ĸà¥įà¤¯": 6548,
      "Ġà¤¹à¥ĩà¤¡": 6549,
      "Ġà¤ľà¥Īà¤¨": 6550,
      "Ġà¤¦à¤¸à¥įà¤¤à¤¾à¤µà¥ĩà¤ľà¤¼": 6551,
      "Ġà¤ªà¤¾à¤Ĥà¤¡": 6552,
      "iment": 6553,
      "Ġà¤¸à¥Įà¤Ĥà¤ª": 6554,
      "cription": 6555,
      "Ġà¤Ĩà¤¶à¥įà¤°": 6556,
      "Ġà¤µà¥ĩà¤°": 6557,
      "Ġà¤ħà¤µà¤¸à¤¾à¤¦": 6558,
      "à¤ªà¤¦": 6559,
      "Ġà¤®à¤¤à¤¦à¤¾à¤¨": 6560,
      "Ġà¤²à¥īà¤¨à¥įà¤": 6561,
      "à¥īà¤®à¤¸": 6562,
      "Ġà¤°à¤µà¤¿à¤µà¤¾à¤°": 6563,
      "Ġà¤¬à¤¤à¤¾à¤¨à¥ĩ": 6564,
      "à¤Ĥà¤¤à¥įà¤°à¤¿à¤¤": 6565,
      "à¤¥à¤¾à¤®": 6566,
      "Ġà¤µà¤°à¥įà¤ľ": 6567,
      "Ġà¤ħà¤ľà¥įà¤ŀà¤¾à¤¤": 6568,
      "Ġà¤¡à¥ĩà¤®": 6569,
      "assif": 6570,
      "Ġà¤¶à¥Ģà¤¤": 6571,
      "Ġà¤®à¤¾à¤¤à¥įà¤°": 6572,
      "à¤¹à¤¾à¤¨": 6573,
      "Ġà¤Ĺà¤Īà¤Ĥ": 6574,
      "riend": 6575,
      "à¤Ĥà¤Ńà¤µ": 6576,
      "Ġplan": 6577,
      "Ġà¤¨à¥Ģà¤²": 6578,
      "Ġà¤¸à¤¾à¤¹à¤¿à¤¤à¥įà¤¯à¤ķà¤¾à¤°": 6579,
      "à¤Ĺà¤¾à¤¨": 6580,
      "Ġà¤Ńà¥Įà¤Ĺà¥ĭà¤²à¤¿à¤ķ": 6581,
      "Ġà¤¶à¥įà¤°à¤®": 6582,
      "Ġà¤¬à¥Ģà¤®à¤¾à¤°à¤¿à¤¯à¥ĭà¤Ĥ": 6583,
      "à¥ĩà¤¸à¥įà¤Łà¤°": 6584,
      "Ġsocial": 6585,
      "à¤¾à¤¸à¤Ĥà¤Ĺà¤¿à¤ķ": 6586,
      "Ġà¤¬à¤¨à¤¾à¤ķà¤°": 6587,
      "edu": 6588,
      "sity": 6589,
      "\"à¤Ĺ": 6590,
      "à¤¯à¤¾à¤²": 6591,
      "Ġà¤¯à¤¾à¤¤à¤¾à¤¯à¤¾à¤¤": 6592,
      "à¤¿à¤ľà¥įà¤®": 6593,
      "Ġread": 6594,
      "1996": 6595,
      "Ġà¤®à¥Ĥà¤¤à¥įà¤°": 6596,
      "Ġà¤Ĩà¤ĩà¤¸": 6597,
      "1997": 6598,
      "Ġà¤®à¤¹à¤¿à¤²à¤¾à¤ıà¤Ĥ": 6599,
      "Ġsub": 6600,
      "Ġà¤¸à¥įà¤®à¤¿à¤¥": 6601,
      "Ġà¤µà¥ĥà¤ķà¥įà¤·": 6602,
      "à¥įà¤°à¥ĭà¤¹": 6603,
      "Ġà¤¹à¥Īà¤Ĥà¤¡": 6604,
      "Ġà¤ķà¥īà¤«à¥Ģ": 6605,
      "à¤ķà¥įà¤·à¤¿à¤£": 6606,
      "ivity": 6607,
      "Ġà¤¬à¥įà¤°à¤¹à¥įà¤®à¤¾à¤Ĥà¤¡": 6608,
      "achine": 6609,
      "Ġà¤ķà¤²à¤¾à¤ķ": 6610,
      "Ġlead": 6611,
      "Ġconsider": 6612,
      "à¥ĭà¤¸à¤¾": 6613,
      "Ġà¤ªà¤¾à¤¨à¥ĩ": 6614,
      "Ġà¤ªà¤¥": 6615,
      "Ġoff": 6616,
      "Ġà¤®à¤¾à¤°à¥ĩ": 6617,
      "Ġà¤¸à¤Ĥà¤¤à¥ģà¤²à¤¿à¤¤": 6618,
      "Ġà¤¬à¥Īà¤ķ": 6619,
      "Ġà¤ļà¥ĩà¤ķ": 6620,
      "à¤¨à¥Ģà¤¤à¤¾à¤²": 6621,
      "à¤¬à¥įà¤ľà¥ĩà¤ķà¥įà¤Ł": 6622,
      "à¤¨à¤Ĺà¤°": 6623,
      "Ġà¤ªà¥ĩà¤¡à¤¼à¥ĭà¤Ĥ": 6624,
      "à¤¸à¤Ĥà¤Ĺà¥Ģà¤¤": 6625,
      "Ġà¤®à¤°à¥Ģà¤ľ": 6626,
      "Ġau": 6627,
      "ames": 6628,
      "180": 6629,
      "Ġà¤µà¥ĭà¤Ł": 6630,
      "Ġmark": 6631,
      "lish": 6632,
      "Ġà¤¦à¤¿à¤®": 6633,
      "Ġà¤ļà¤²à¥Ģ": 6634,
      "ases": 6635,
      "à¤¦à¤¾à¤¨à¤¿à¤ķ": 6636,
      "Ġà¤¨à¤¿à¤Ńà¤¾à¤Ī": 6637,
      "à¤°à¥įà¤¦à¥Ĥ": 6638,
      "à¤¾à¤Ĺà¥ĭ": 6639,
      "à¤¶à¥įà¤µà¤°": 6640,
      "ization": 6641,
      "ccess": 6642,
      "à¤Ĥà¤¶à¤¿à¤ķ": 6643,
      "iel": 6644,
      "à¤§à¤¾à¤°à¤¾": 6645,
      "Ġà¤«à¤¾à¤ĩà¤¨à¤²": 6646,
      "Ġà¤¬à¤ļà¤¾": 6647,
      "Ġà¤¸à¥ĭà¤µ": 6648,
      "Ġà¤¶à¤¨": 6649,
      "Ġà¤¶à¥Īà¤ķà¥įà¤·à¤¿à¤ķ": 6650,
      "Ġà¤Ĩà¤µà¤¿à¤·à¥įà¤ķà¤¾à¤°": 6651,
      "à¤Ĺà¥įà¤°à¤¾à¤®": 6652,
      "Ġà¤Łà¤¿à¤ªà¥įà¤ªà¤£": 6653,
      "-à¤®à¥ĥà¤¤à¥įà¤¯à¥ģ": 6654,
      "à¤ĸà¤¼": 6655,
      "Ġà¤°à¥Ĥà¤ªà¥ĭà¤Ĥ": 6656,
      "Ġà¤¬à¤¿à¤¸": 6657,
      "à¤£à¤¨": 6658,
      "Ġà¤ıà¤¸à¥ĭà¤¸à¤¿à¤ı": 6659,
      "à¤¾à¤łà¥Ģ": 6660,
      "Ġà¤ħà¤Łà¤²": 6661,
      "Ġà¤Ńà¤¾à¤ľà¤ªà¤¾": 6662,
      "Ġà¤ĸà¤¤à¥įà¤®": 6663,
      "Ġà¤ªà¥ģà¤°à¤¾à¤¤": 6664,
      "Ġà¤¸à¥Ĥà¤ļà¤ķ": 6665,
      "Ġà¤ļà¤¿à¤¤à¥įà¤°à¤¿à¤¤": 6666,
      "Ġkey": 6667,
      "Ġà¤łà¤¹à¤°": 6668,
      "Ġà¤®à¥ģà¤¦à¥įà¤°à¤¾": 6669,
      "Ġà¤¬à¤¿à¤²à¥įà¤ķà¥ģà¤²": 6670,
      "à¤¬à¤¸à¥ĩ": 6671,
      "Ġà¤Ĺà¤¾à¤°": 6672,
      "Ġà¤Łà¥ĭà¤ķ": 6673,
      "Ġà¤ªà¤¾à¤°à¤¿à¤¤": 6674,
      "Ġà¤°à¤ĸà¥Ģ": 6675,
      "Ġà¤ªà¤°à¤¿à¤µà¤°à¥įà¤¤à¤¨à¥ĭà¤Ĥ": 6676,
      "-à¤ªà¤°": 6677,
      "à¥Ģà¤²à¥Īà¤Ĥà¤¡": 6678,
      "Ġent": 6679,
      "Ġà¤¸à¥įà¤¥à¤²à¥ĭà¤Ĥ": 6680,
      "à¥§à¥§": 6681,
      "Ġà¤¸à¥ĭà¤ļà¤¾": 6682,
      "ocument": 6683,
      "68": 6684,
      "Ġà¤¬à¥ĩà¤ķ": 6685,
      "Ġà¤¦à¤¿à¤ĸà¤¾à¤¨à¥ĩ": 6686,
      "Ġà¤¶à¤²à¥įà¤¯": 6687,
      "à¤¿à¤°à¥įà¤®à¤¾à¤£": 6688,
      "à¤¾à¤ķà¤¾": 6689,
      "to": 6690,
      "Ġà¤¦à¤¾à¤°": 6691,
      "Ġà¤ªà¥įà¤°à¥ĭà¤ľ": 6692,
      "à¤ħà¤Ĺà¤°": 6693,
      "Ġà¤«à¥įà¤°à¥ĩà¤®": 6694,
      "Ġà¤ªà¤¹à¤²à¥ģà¤ĵà¤Ĥ": 6695,
      "date": 6696,
      "Ġtake": 6697,
      "à¤¶à¤¿à¤·à¥įà¤Ł": 6698,
      "à¥Įà¤¨": 6699,
      "Ġà¤¸à¤ļà¥įà¤ļ": 6700,
      "Ġà¤Ĺà¥ĭà¤°": 6701,
      "Ġà¤ħà¤®à¤°": 6702,
      "Ġà¤ĳà¤¡": 6703,
      "Ch": 6704,
      "Ġà¤Ĺà¤¹à¤°à¥Ģ": 6705,
      "Ġenvironment": 6706,
      "Ġplay": 6707,
      "Ġà¤ĩà¤Łà¤²à¥Ģ": 6708,
      "vers": 6709,
      "Ġà¤¬à¥ĩ": 6710,
      "à¤¶à¤¾": 6711,
      "Ġsign": 6712,
      "Ġtop": 6713,
      "Ġà¤Ĩà¤µà¤¾à¤ľà¤¼": 6714,
      "site": 6715,
      "à¤ļà¤¾à¤ª": 6716,
      "à¤¸à¥ĩà¤¨": 6717,
      "à¤¾à¤ĩà¤ľà¤¼": 6718,
      "|-": 6719,
      "Ġà¤¨à¥ĩà¤¤à¤¾à¤ĵà¤Ĥ": 6720,
      "ĠList": 6721,
      "Ġà¤¸à¤Ĥà¤ķà¥ĩà¤¤à¥ĭà¤Ĥ": 6722,
      "Ġà¤ħà¤§à¤¿à¤ķà¤¤à¤°": 6723,
      "Ġà¤Ńà¥Ĥà¤²": 6724,
      "à¥§à¥¯à¥Ń": 6725,
      "Ġà¤µà¤¿à¤¦à¥įà¤°à¥ĭà¤¹": 6726,
      "-à¤ħà¤ª": 6727,
      "Ġà¤°à¥ĭà¤¶à¤¨à¥Ģ": 6728,
      "à¤¸à¥ģ": 6729,
      "Ġà¤¹à¥ĭà¤²": 6730,
      "Ġà¤ľà¤¿à¤¨à¤ķà¥Ģ": 6731,
      "Ġà¤¸à¤Ĥà¤Ĺà¥įà¤°à¤¹à¤¿à¤¤": 6732,
      "à¥įà¤°à¤ªà¤¾à¤¨": 6733,
      "Ġà¤ħà¤ªà¥ĩ": 6734,
      "Ġà¤¨à¥Īà¤¨à¥Ģà¤¤à¤¾à¤²": 6735,
      "à¤¿à¤ªà¥ĩà¤Ł": 6736,
      "Ġà¤¸à¥ĭà¤µà¤¿à¤¯à¤¤": 6737,
      "à¤«à¤¨": 6738,
      "à¤¸à¤¿à¤Ĥà¤¹": 6739,
      "Ġà¤µà¤¿à¤¨à¤¾à¤¶": 6740,
      "Ġà¤Ĺà¤¤à¤¿à¤¶à¥Ģà¤²": 6741,
      "Ġà¤µà¤ķà¥Ģ": 6742,
      "Ġà¤²à¤¾à¤¯à¤¾": 6743,
      "à¤¿à¤¯à¤¾à¤¨à¤¾": 6744,
      "Ġà¤ļà¤¾à¤°à¥įà¤²à¥įà¤¸": 6745,
      "Ġà¤µà¤¿à¤§à¤¿à¤¯à¥ĭà¤Ĥ": 6746,
      "Ġà¤Ĺà¤¿à¤°à¤«à¥įà¤¤à¤¾à¤°": 6747,
      "Ġà¤¶à¤¿à¤ķà¤¾à¤¯à¤¤": 6748,
      "Ġà¤¨à¤¾à¤®à¥ĭà¤Ĥ": 6749,
      "à¥įà¤¤à¥ģ": 6750,
      "Ġà¤¨à¥ĩà¤¶à¤¨à¤²": 6751,
      "Ġbu": 6752,
      "Ġà¤Łà¥Ĥà¤°à¥įà¤¨à¤¾à¤®à¥ĩà¤Ĥà¤Ł": 6753,
      "à¤¾à¤ıà¤Ĺà¤¾": 6754,
      "à¥įà¤¯à¥Ĥà¤ľ": 6755,
      "Ġà¤¨à¤¿à¤ķà¤¾à¤²à¤¾": 6756,
      "Ġà¤¸à¤¾à¤ķà¥įà¤·à¤¾à¤¤à¥įà¤ķà¤¾à¤°": 6757,
      "Ġà¤Ĭà¤ģà¤ļà¤¾à¤Ī": 6758,
      "Ġà¤¶à¤¾à¤¸à¤ķ": 6759,
      "à¤«à¥Ģà¤²à¥įà¤¡": 6760,
      "Ġà¤¡à¥įà¤°à¤¾à¤ĩà¤µ": 6761,
      "Ġà¤īà¤ªà¤¾à¤¯à¥ĭà¤Ĥ": 6762,
      "dict": 6763,
      "à¤ľà¥ĭà¤Ĥ": 6764,
      "Ġà¤¨à¤¿à¤°à¥Ģ": 6765,
      "Ġà¤ıà¤µ": 6766,
      "Ġà¤Ĩà¤Ń": 6767,
      "à¤®à¥Ĥà¤²": 6768,
      "Ġlife": 6769,
      "Ġà¤¯à¥Ĥà¤¨à¤¿à¤µà¤°à¥įà¤¸à¤¿à¤Łà¥Ģ": 6770,
      "\"]": 6771,
      "Ġrep": 6772,
      "ols": 6773,
      "Ġà¤¥à¥ĭà¤¡à¤¼à¥Ģ": 6774,
      "Ġrange": 6775,
      "à¥Ģà¤Ł": 6776,
      "à¤ķà¤¶": 6777,
      "Ġà¤¸à¤Ĥà¤ľà¥įà¤ŀà¤¾à¤¨": 6778,
      "Ġà¤¸à¥Ĥà¤ľà¤¨": 6779,
      "Ġà¤Ĺà¤¾à¤ĩà¤¡": 6780,
      "Ġà¤¬à¤¹à¤¸": 6781,
      "Ġà¤ķà¤£": 6782,
      "ĠPHP": 6783,
      "Ġà¤¡à¤¾à¤ĩà¤ĳà¤ķà¥įà¤¸à¤¾à¤ĩà¤¡": 6784,
      "à¤¯à¥ģà¤¦à¥įà¤§": 6785,
      "Ġà¤Ńà¥Ĥà¤ķà¤Ĥà¤ª": 6786,
      "+=": 6787,
      "ware": 6788,
      "à¥įà¤¯à¥Ĥà¤¨": 6789,
      "Ġposit": 6790,
      "Ġà¤ıà¤¶à¤¿à¤¯à¤¾à¤Ī": 6791,
      "à¤®à¥ĩà¤°à¤¿à¤ķà¥Ģ": 6792,
      "Ġà¤®à¤¾à¤°à¤¨à¥ĩ": 6793,
      "Ġà¤ĸà¤¨à¤¿à¤ľ": 6794,
      "à¥ĭà¤ªà¥Ģ": 6795,
      "57": 6796,
      "Ġà¤Ĩà¤¹": 6797,
      "Ġà¤Īà¤¸à¤¾": 6798,
      "Ġà¤µà¥įà¤¯à¤¾à¤µà¤¹à¤¾à¤°à¤¿à¤ķ": 6799,
      "à¤¿à¤¨à¥įà¤¸": 6800,
      "à¤¿à¤¡à¤¾": 6801,
      "Ġno": 6802,
      "Ġà¤¨à¤¿à¤ļà¤²à¥ĩ": 6803,
      "Ġà¤®à¤¨à¥įà¤¦": 6804,
      "ute": 6805,
      "Ġtest": 6806,
      "à¤¾à¤¸à¥įà¤¤à¥įà¤°à¥Ģà¤¯": 6807,
      "Ġà¤¹à¤¾à¤ĩ": 6808,
      "à¤¿à¤ĸà¤°": 6809,
      "Ġà¤ıà¤ľà¥ĩà¤Ĥà¤Ł": 6810,
      "Ġà¤ķà¤°à¥ĩ": 6811,
      "à¤¬à¤¾à¤¯": 6812,
      "view": 6813,
      "à¤ħà¤Ĺ": 6814,
      "Ġà¤µà¤¿à¤Ĥà¤¡": 6815,
      "400": 6816,
      "à¤ªà¥Ĥà¤°": 6817,
      "à¤ķà¤¨": 6818,
      "Ġwell": 6819,
      "Ġà¤¤à¥Ģà¤¸à¤°à¤¾": 6820,
      "Ġà¤¸à¤°à¥įà¤µà¤°": 6821,
      "Ġà¤ķà¥ĭà¤Ł": 6822,
      "thod": 6823,
      "Ġà¤Ĺà¤¾à¤¯à¤ķ": 6824,
      "à¤ĸà¤¨": 6825,
      "Ġà¤¸à¤®à¤Ŀà¥Įà¤¤à¤¾": 6826,
      "à¥įà¤ķà¤¾": 6827,
      "ables": 6828,
      "Ġà¤¨à¥Īà¤¦à¤¾à¤¨à¤¿à¤ķ": 6829,
      "Ġà¤®à¤¹à¤¾à¤®à¤¾à¤°à¥Ģ": 6830,
      "à¤¨à¤¤": 6831,
      "xt": 6832,
      "à¤ķà¥Ģà¤¨": 6833,
      "Ġà¤ªà¥įà¤°à¤¸à¤Ĥà¤¸à¥įà¤ķà¤°à¤£": 6834,
      "(c": 6835,
      "Ġà¤ķà¤°à¤µ": 6836,
      "Ġà¤²à¤ĺà¥ģ": 6837,
      "à¥įà¤°à¤¿à¤ķ": 6838,
      "ream": 6839,
      "Ġà¤®à¤¿à¤²à¥ĩà¤Ĺà¥Ģ": 6840,
      "Ġinst": 6841,
      "ha": 6842,
      "Ġà¤°à¥ĭà¤ķà¤¥à¤¾à¤®": 6843,
      "Ġà¤µà¥įà¤¯à¤¾à¤ķà¤°à¤£": 6844,
      "à¤¨à¥įà¤¦à¤°": 6845,
      "(B": 6846,
      "be": 6847,
      "Ġà¤¬à¤®": 6848,
      "Ġà¤¸à¤Ĥà¤ªà¥Ĥà¤°à¥įà¤£": 6849,
      "Ġà¤ĸà¤ªà¤¤": 6850,
      "à¥§à¥¯à¥¯à¥": 6851,
      "Ġà¤¸à¤®à¤¨à¥įà¤µ": 6852,
      "Ġà¤īà¤¤à¥įà¤ªà¤¾à¤¦à¤ķà¤¤à¤¾": 6853,
      "Ġrequire": 6854,
      "rain": 6855,
      "à¤¾à¤¶à¥įà¤®": 6856,
      "Ġà¤¸à¥ĩà¤²à¥įà¤¸": 6857,
      "Ġà¤²à¥ĩà¤Ł": 6858,
      "essage": 6859,
      "à¥įà¤ĺ": 6860,
      "Ġà¤²à¤¿à¤ĸà¥ĩ": 6861,
      "Ġvalues": 6862,
      "46": 6863,
      "Ġve": 6864,
      "Ġà¤ķà¤¸": 6865,
      "à¤¦à¤¾à¤°à¥Ģ": 6866,
      "à¤¹à¥Ģà¤¨": 6867,
      "à¥įà¤®à¤¨": 6868,
      "Ġà¤¨à¤¾à¤®à¤¿à¤¤": 6869,
      "Ġspecific": 6870,
      "à¤ļà¤²": 6871,
      "Ġday": 6872,
      "à¥ĭà¤Ĺà¥įà¤°à¤¾à¤«à¥Ģ": 6873,
      "Ġà¤Ĩà¤Ĥà¤¶à¤¿à¤ķ": 6874,
      "Ġà¤ĺà¥ģà¤®": 6875,
      "à¤¦à¤Ĥà¤¡à¥ĭà¤Ĥ": 6876,
      "à¤¾à¤Łà¤ķ": 6877,
      "Ġstat": 6878,
      "Ġà¤®à¥ģà¤ķà¤¾à¤¬": 6879,
      "Ġpotential": 6880,
      "<-": 6881,
      "Ġà¤¤à¥Ģà¤¨à¥ĭà¤Ĥ": 6882,
      "Ġà¤¸à¥ĩà¤µà¤¾à¤ıà¤Ĥ": 6883,
      "à¤¿à¤µà¤¾à¤°à¤¿à¤ķ": 6884,
      "à¤ªà¥ģà¤²": 6885,
      "Ġà¤ĳà¤¬à¥įà¤ľà¥ĩà¤ķà¥įà¤Ł": 6886,
      "à¤°à¥įà¤¸à¥Ģ": 6887,
      "Ġà¤īà¤ľà¤¾à¤Ĺà¤°": 6888,
      "(à¤ľà¤¿à¤¸": 6889,
      "Ġà¤ķà¥ĭà¤£": 6890,
      "à¥ĭà¤Ĺà¥įà¤°à¤¾à¤«": 6891,
      "Ġà¤¸à¤¾à¤ĩà¤ķà¤¿à¤²": 6892,
      "Ġav": 6893,
      "à¤¾à¤ķà¥įà¤¤": 6894,
      "Ġà¤µà¤¾à¤ªà¤¸à¥Ģ": 6895,
      "Ġà¤ľà¤¾à¤Ĺ": 6896,
      "Ġà¤ªà¥įà¤°à¤¤à¤¿à¤Ńà¤¾à¤Ĺ": 6897,
      "Ġà¤ķà¥Ģà¤®": 6898,
      "Ġtem": 6899,
      "Ġà¤ªà¥įà¤°à¤¬à¤Ĥà¤§à¤ķ": 6900,
      "Ġà¤ķà¥ĭà¤ļ": 6901,
      "Ġà¤«à¥ĩà¤«": 6902,
      "Ġà¤ħà¤¨à¤¾à¤ľ": 6903,
      "à¥įà¤¯à¤¾à¤¦à¤¿": 6904,
      "Ġtrain": 6905,
      "_p": 6906,
      "Ġà¤Ĺà¤¾à¤°à¥įà¤¡": 6907,
      "à¥īà¤°à¥įà¤Ł": 6908,
      "Ġà¤ļà¥ģà¤¨à¥ĩ": 6909,
      "oid": 6910,
      "à¥ĭà¤µà¤¾": 6911,
      "Ġà¤ħà¤µà¤¸à¥įà¤¥à¤¾": 6912,
      "Ġà¤Ĺà¤¾à¤¯à¤¬": 6913,
      "à¤¸à¥įà¤¤à¥įà¤°": 6914,
      "Ġà¤Łà¥Ģà¤®à¥ĭà¤Ĥ": 6915,
      "Ġà¤¶à¤¿à¤µà¤¿à¤°": 6916,
      "à¤Ńà¤¾à¤·à¤¾": 6917,
      "Ġà¤¸à¥įà¤®à¤¾à¤°à¤ķ": 6918,
      "Ġà¤®à¥ĩà¤ľà¤¬": 6919,
      "Ġà¤ªà¤¾à¤¯à¤¥à¤¨": 6920,
      "Ġà¤ľà¤¾à¤ıà¤Ĥ": 6921,
      "à¤¾à¤¨à¥įà¤µ": 6922,
      "Ġà¤¬à¥ĩà¤¨": 6923,
      "Ġà¤ķà¤¾à¤°à¥įà¤¯à¤ķà¤¾à¤°à¥Ģ": 6924,
      "Ġà¤¬à¤¿à¤Ĥà¤¦à¥ģà¤ĵà¤Ĥ": 6925,
      "Ġà¤¬à¥Īà¤Łà¤°à¥Ģ": 6926,
      "Ġà¤¶à¤¾à¤¹à¥Ģ": 6927,
      "Ġà¤¦à¥įà¤°à¤µà¥įà¤¯à¤®à¤¾à¤¨": 6928,
      "Ġà¤°à¤¾à¤ľà¤µà¤Ĥà¤¶": 6929,
      "words": 6930,
      "Ġà¤¶à¥Ĥà¤¨à¥įà¤¯": 6931,
      "Ġà¤¦à¥Įà¤°à¥ĩ": 6932,
      "Ġà¤¸à¥įà¤ªà¥ĩà¤¨à¤¿à¤¶": 6933,
      "Ġà¤ļà¤¿à¤¨": 6934,
      "Ġà¤¦à¤¿à¤®à¤¾à¤Ĺ": 6935,
      "à¤¨à¤¾à¤Ĺ": 6936,
      "à¤¾à¤¸à¥įà¤¤à¥įà¤°à¥Ģ": 6937,
      "Ġà¤ĵà¤¬": 6938,
      "Ġà¤ıà¤ªà¥įà¤²à¤¿à¤ķà¥ĩà¤¶à¤¨": 6939,
      "Ġà¤¶à¤¨à¤¿à¤µà¤¾à¤°": 6940,
      "à¤ķà¥įà¤Ł": 6941,
      "log": 6942,
      "Ġà¤µà¤¨à¥įà¤¯à¤ľà¥Ģà¤µ": 6943,
      "à¤¡à¤¾à¤¯à¤²à¥īà¤Ĺà¤ĥ": 6944,
      "ons": 6945,
      "Ġà¤¶à¥Ģà¤°à¥įà¤·à¤ķà¤ĥ": 6946,
      "Ġà¤«à¥Ĥà¤²à¥ĭà¤Ĥ": 6947,
      "Ġà¤µà¤¯à¤¸à¥įà¤ķà¥ĭà¤Ĥ": 6948,
      "Ġà¤ªà¥Īà¤¸à¤¾": 6949,
      "ĠXML": 6950,
      "Ġà¤Ĺà¥Į": 6951,
      "Ġà¤¡à¤¾à¤ī": 6952,
      "play": 6953,
      "à¤¾à¤Łà¤¨": 6954,
      "Ġà¤Ķà¤ªà¤ļà¤¾à¤°à¤¿à¤ķ": 6955,
      "Ġà¤¯à¥Ĥà¤¨à¤¾à¤¨à¥Ģ": 6956,
      "77": 6957,
      "-à¤¤": 6958,
      "à¤ķà¤¾à¤®": 6959,
      "à¤¾à¤ļà¤²": 6960,
      "Ġà¤ķà¥įà¤·à¤®à¤¤à¤¾à¤ĵà¤Ĥ": 6961,
      "Ġà¤¸à¤Łà¥Ģà¤ķà¤¤à¤¾": 6962,
      "Ġà¤Łà¤¿à¤ķà¤Ł": 6963,
      "Ġà¤®à¤¿à¤¥": 6964,
      "Ġà¤¸à¥ģà¤Ĺ": 6965,
      "Ġà¤µà¤°à¥įà¤ļ": 6966,
      "à¤Ĥà¤¤à¤ªà¥ģà¤°": 6967,
      "Ġà¤Ĺà¥įà¤°à¤¹à¤£": 6968,
      ".j": 6969,
      "à¤¿à¤¯à¤¾à¤£à¤¾": 6970,
      "à¤¿à¤Ĥà¤¦à¥Ģ": 6971,
      "Ġà¤°à¤¾à¤ľà¤®à¤¾à¤°à¥įà¤Ĺ": 6972,
      "à¥ĭà¤§à¥Ģ": 6973,
      "Ġà¤¸à¥įà¤¤à¤°à¥ĭà¤Ĥ": 6974,
      "We": 6975,
      "Ġà¤®à¥ģà¤¤": 6976,
      "Ġbre": 6977,
      "Ġà¤Ĺà¥ģà¤°à¥ģà¤µà¤¾à¤°": 6978,
      "Ġà¤ķà¥ĩà¤¨": 6979,
      "Ġpower": 6980,
      "Ġà¤ľà¥ĭà¤¡à¤¼à¥ĩ": 6981,
      "Ġà¤¸à¥įà¤¨à¤¿à¤ªà¥ĩà¤Ł": 6982,
      "Ġà¤°à¤¿à¤Ł": 6983,
      "à¤¿à¤²à¥įà¤¸": 6984,
      "Ġà¤łà¤Ĥà¤¡à¤¾": 6985,
      "à¤²à¥Ī": 6986,
      "Ġà¤ħà¤¨à¥įà¤µà¥ĩà¤·à¤£": 6987,
      "Ġà¤«à¥ĩà¤¸": 6988,
      "à¤Łà¥īà¤ª": 6989,
      "à¥ĩà¤ķà¥įà¤¶à¤¨": 6990,
      "Ġà¤īà¤¤à¥įà¤¸à¤µ": 6991,
      "ving": 6992,
      "Ġà¤°à¤ĸà¤¤à¥Ģ": 6993,
      "à¤¤à¤¿à¤¤": 6994,
      "Ġà¤¸à¥įà¤µà¤¾à¤®": 6995,
      "Ġà¤ªà¥Ģà¤¨à¥ĩ": 6996,
      "à¤ľà¤¼à¤¨": 6997,
      "(à¤¶": 6998,
      "::": 6999,
      "à¥Ĥà¤¤à¤¿": 7000,
      "Ġà¤§à¤¾à¤°à¤£": 7001,
      "à¤²à¤¿à¤¨": 7002,
      "ĠCS": 7003,
      "Ġà¤īà¤łà¤¾à¤¨à¥ĩ": 7004,
      "conom": 7005,
      "Ġà¤§à¥Ĥà¤®à¥įà¤°à¤ªà¤¾à¤¨": 7006,
      "Ġà¤Ĺà¥ĭà¤ªà¤¨à¥Ģà¤¯": 7007,
      "Ġà¤¹à¥ĩà¤¨à¤°à¥Ģ": 7008,
      "Ġà¤¨à¤¿à¤µà¤¾à¤¸à¤¿à¤¯à¥ĭà¤Ĥ": 7009,
      "Ġà¤®à¥Ĥà¤°à¥įà¤¤": 7010,
      "Ġà¤ĸà¥Ĥà¤¬": 7011,
      "imate": 7012,
      "Ġà¤ĩà¤¤à¥įà¤¯à¤¾à¤¦à¤¿": 7013,
      "Ġà¤§à¤¾à¤°à¤ķ": 7014,
      "Ġà¤ªà¥Ģà¤Ľà¤¾": 7015,
      "Ġà¤Ľà¤µà¤¿à¤¯à¥ĭà¤Ĥ": 7016,
      "à¤¶à¥Ģà¤²à¤¤à¤¾": 7017,
      "Ġà¤®à¥ģà¤«à¥įà¤¤": 7018,
      "Ġà¤¦à¤µ": 7019,
      "à¥ĩà¤ĥ": 7020,
      "ank": 7021,
      "Ġà¤ĸà¤¿à¤¡à¤¼": 7022,
      "Ġà¤ķà¥ĭà¤°à¤¿à¤¯à¤¾": 7023,
      "à¥ĩà¤Łà¥ĩà¤¡": 7024,
      "arm": 7025,
      "Ġà¤²à¤¾à¤ĸà¥ĭà¤Ĥ": 7026,
      "Ġà¤¸à¤®à¥ĩà¤¤": 7027,
      "Ġà¤īà¤ªà¤Ńà¥ĭà¤ķà¥įà¤¤à¤¾": 7028,
      "Ġà¤ªà¤¾à¤°à¤¿à¤¸à¥įà¤¥à¤¿à¤¤à¤¿à¤ķà¥Ģ": 7029,
      "ied": 7030,
      "à¤Łà¥ĩ": 7031,
      "ĠSystem": 7032,
      "Ġà¤ļà¤¾à¤µà¤²": 7033,
      "Ġà¤®à¤¾à¤°à¥įà¤Ĺà¤¦à¤°à¥įà¤¶à¤¨": 7034,
      "à¤¦à¥ĩà¤ĸ": 7035,
      "à¤¿à¤ķà¤¾à¤ıà¤ģ": 7036,
      "Ġmult": 7037,
      "1995": 7038,
      "Ġà¤ĸà¤¡à¤¼à¤¾": 7039,
      "Ġà¤¦à¤¾à¤¸": 7040,
      "43": 7041,
      "En": 7042,
      "Ġà¤¸à¤¾à¤°à¤¾": 7043,
      "Ġà¤«à¤¼à¤¿à¤²à¥įà¤Łà¤°": 7044,
      "à¤¿à¤¸à¥įà¤¤à¤¾à¤¨à¥Ģ": 7045,
      "day": 7046,
      "Ġà¤°à¤¾à¤ľà¤¨": 7047,
      "Ġà¤¸à¤¬à¥Ĥà¤¤": 7048,
      "à¤¹à¤¾à¤²à¤¾à¤Ĥà¤ķà¤¿": 7049,
      "à¤ķà¤¾à¤¨": 7050,
      "PI": 7051,
      "Ġà¤ĺà¤¨à¤¤à¥įà¤µ": 7052,
      "à¥įà¤²à¤¾": 7053,
      "ĸà¥įà¤¯à¤¾à¤¤": 7054,
      "à¤²à¤¾à¤Ĥà¤Ĺ": 7055,
      "à¤²à¥ĩà¤¨": 7056,
      "Ġà¤ĸà¥ĩà¤²à¤¤à¥ĩ": 7057,
      "Ġà¤Ńà¤°à¥ĩ": 7058,
      "Ġà¤ľà¥Ģà¤¤à¤¨à¥ĩ": 7059,
      "à¤¦à¤¾à¤¤à¤¾": 7060,
      "ĠTo": 7061,
      "à¥ĭà¤¬à¤²": 7062,
      "Ġà¤ļà¥Ī": 7063,
      "1960": 7064,
      "à¤«à¤°": 7065,
      "Ġà¤¬à¤¦à¤²à¥ĩ": 7066,
      "Ġà¤¡à¤¾à¤²à¤¨à¥ĩ": 7067,
      "Ġà¤¬à¤Ĥà¤§": 7068,
      "Ġà¤¦à¤¾à¤Ĥà¤¤": 7069,
      "Ġstory": 7070,
      "Data": 7071,
      "ĠString": 7072,
      "Ġà¤ªà¤°à¤Ĥà¤ªà¤°à¤¾": 7073,
      "à¤¿à¤¸à¤¨": 7074,
      "à¤ªà¥Ĥà¤°à¥įà¤µà¤ķ": 7075,
      "à¤¤à¥įà¤¨": 7076,
      "Ġà¤®à¥ĩà¤®": 7077,
      "Ġà¤¸à¥įà¤µà¤°à¥įà¤£": 7078,
      "Ġà¤ªà¥įà¤°à¤¶à¤¾à¤Ĥà¤¤": 7079,
      "Ġobject": 7080,
      "ĠJava": 7081,
      "Ġà¤ķà¥Īà¤°à¥ĭà¤²": 7082,
      "Ġà¤ķà¤¾à¤Ĺà¤ľ": 7083,
      "odi": 7084,
      "Ġà¤¸à¤°à¥įà¤µà¥ĭà¤ļà¥įà¤ļ": 7085,
      "Ġà¤²à¥ĭà¤ķà¤¸à¤Ńà¤¾": 7086,
      "(à¤ıà¤ķ": 7087,
      "Ġà¤¹à¤«à¥įà¤¤": 7088,
      "Ġà¤Łà¥ģà¤ķà¤¡à¤¼à¥ĭà¤Ĥ": 7089,
      "-à¤ĸ": 7090,
      "Ġà¤¸à¤ľà¤¾": 7091,
      "Ġà¤Ĺà¥ĭà¤²à¥įà¤¡": 7092,
      "Ġà¤ĳà¤ªà¤°à¥ĩà¤¶à¤¨": 7093,
      "inist": 7094,
      "Ġà¤¯à¤¾à¤¦à¤µ": 7095,
      "Ġà¤ľà¥ģà¤Ł": 7096,
      "Ġà¤¹à¤¿à¤Ĥà¤¦à¥Ĥ": 7097,
      "Ġà¤µà¤¾à¤Ī": 7098,
      "Ġbus": 7099,
      "Ġà¤ªà¥ģà¤¨à¤°": 7100,
      "Ġà¤µà¤¿à¤¤à¤°à¤¿à¤¤": 7101,
      "à¤¸à¥ĩà¤²": 7102,
      "(p": 7103,
      "Ġeng": 7104,
      "Ġà¤ªà¤¾": 7105,
      "à¤µà¤°à¥įà¤·": 7106,
      "ited": 7107,
      "Ġà¤¯à¥Ĥà¤¨à¤¾à¤ĩà¤Łà¥ĩà¤¡": 7108,
      "(t": 7109,
      "Ġà¤¥à¥īà¤®à¤¸": 7110,
      "Ġà¤¹à¤¿à¤Ĥà¤¸à¤¾": 7111,
      "Ġà¤¸à¥įà¤µà¤¾à¤¦à¤¿à¤·à¥įà¤Ł": 7112,
      "Ġà¤Ńà¤¾à¤Ĺà¥Ģà¤¦à¤¾à¤°à¥Ģ": 7113,
      "Ġà¤®à¤¨à¥įà¤¦à¤¿à¤°": 7114,
      "Ġà¤°à¥ĩ": 7115,
      "ism": 7116,
      "Ġlar": 7117,
      "Ġallow": 7118,
      "Ġà¤¹à¤¾à¤¨à¤¿": 7119,
      "à¤µà¤¾à¤ķà¥įà¤¯": 7120,
      "à¥ģà¤ıà¤ģ": 7121,
      "Ġà¤ķà¥ģà¤°": 7122,
      "Ġà¤¡à¤¿à¤¬à¥įà¤¬": 7123,
      "Ġà¤īà¤¤à¤°": 7124,
      "ely": 7125,
      "Ġà¤ªà¤°à¤¿à¤ļà¤¿à¤¤": 7126,
      "à¤¡à¥įà¤°à¥ĭà¤®": 7127,
      "Ġà¤ħà¤ªà¥ĩà¤ķà¥įà¤·à¤¾à¤ķà¥ĥà¤¤": 7128,
      "Ġà¤µà¤¿à¤ªà¤£à¤¨": 7129,
      "Ġà¤ªà¥įà¤°à¤¤à¤¿à¤°à¤ķà¥įà¤·à¤¾": 7130,
      "Ġà¤ªà¤°à¤¿à¤¸à¥įà¤¥à¤¿à¤¤à¤¿à¤¯à¥ĭà¤Ĥ": 7131,
      "Ġà¤ªà¥Ĥà¤Ľà¤¾": 7132,
      "Ġà¤ĩà¤²à¤¾à¤ķà¥ĭà¤Ĥ": 7133,
      "à¤¿à¤¯à¤¾à¤¸": 7134,
      "Ġà¤¸à¥ģà¤§à¤¾à¤°à¤¨à¥ĩ": 7135,
      "à¥Ĥà¤Ĥà¤Ĺà¤¾": 7136,
      "à¥ģà¤¦à¤¾à¤¯": 7137,
      "à¤¸à¤²à¤®à¤¾à¤¨": 7138,
      "56": 7139,
      "Ġà¤ªà¥įà¤°à¤ķà¥įà¤·à¥ĩà¤ª": 7140,
      "à¤«à¥įà¤²": 7141,
      "Ġà¤¸à¤Ĥà¤¸à¥įà¤¥à¤¾à¤ªà¤ķ": 7142,
      "____": 7143,
      "à¤¨à¤¾à¤ĵà¤Ĥ": 7144,
      "-à¤°à¤¾à¤·à¥įà¤Łà¥įà¤°à¥Ģà¤¯": 7145,
      "à¤ªà¤¹à¤²à¥ĩ": 7146,
      "à¤°à¤¦": 7147,
      "à¥ĥà¤·à¥įà¤Łà¤¿": 7148,
      "Ġà¤¨à¤¿à¤¶à¤¾à¤¨": 7149,
      "Ġà¤¸à¤¿à¤µ": 7150,
      "à¤¸à¤¾à¤°à¤¾à¤Ĥà¤¶à¤ĥ": 7151,
      "Ġà¤«à¤²à¥ĭà¤Ĥ": 7152,
      "à¤¬à¥Īà¤ķ": 7153,
      "Ġà¤ªà¥ĩà¤¶à¤ķà¤¶": 7154,
      "Ġadv": 7155,
      "Ġà¤¬à¥Ģà¤®à¤¾": 7156,
      "Ġà¤ħà¤¶à¥įà¤µ": 7157,
      "Ġà¤²à¥ģà¤Ī": 7158,
      "Ġà¤ķà¤¬à¥įà¤ľà¤¾": 7159,
      "Ġà¤ľà¤¿à¤®à¥įà¤®à¥ĩà¤¦à¤¾à¤°à¥Ģ": 7160,
      "Ġà¤¤à¤¸à¥įà¤µà¥Ģà¤°à¥ĩà¤Ĥ": 7161,
      "à¥ĩà¤¡à¤¿à¤Ł": 7162,
      "Ġà¤µà¤¿à¤¶à¥ĩà¤·à¤¤à¤¾à¤ıà¤Ĥ": 7163,
      "à¤¾à¤«à¥įà¤Ł": 7164,
      "Ġà¤Łà¥įà¤°à¥Ī": 7165,
      "Ġpar": 7166,
      "Ġrec": 7167,
      "à¤²à¥įà¤ªà¤¨à¤¾à¤ĥ": 7168,
      "Ġà¤ªà¥įà¤°à¤¾à¤£": 7169,
      "Ġà¤ķà¤ªà¥įà¤¤": 7170,
      "Ġà¤¸à¥Īà¤ķ": 7171,
      "à¥įà¤¸à¥ĩ": 7172,
      "Ġcase": 7173,
      "Ġà¤¸à¤¹à¤ľ": 7174,
      "Ġà¤¦à¥Ģà¤°à¥įà¤ĺà¤ķà¤¾à¤²à¤¿à¤ķ": 7175,
      "à¥ĭà¤¶": 7176,
      "rect": 7177,
      "à¤¬à¤Ĥà¤§à¤¨": 7178,
      "Ġà¤¦à¥ĩà¤ĸà¥ĩ": 7179,
      "à¤®à¥įà¤®à¥Ĥ": 7180,
      "Ġà¤īà¤łà¤¾": 7181,
      "Ġà¤µà¤¾à¤£à¤¿à¤ľà¥įà¤¯à¤¿à¤ķ": 7182,
      "Ġcent": 7183,
      "Ġà¤²à¥Īà¤Ĥà¤¡": 7184,
      "Ġà¤ªà¤¡à¤¼à¥ĩ": 7185,
      "à¥¤-": 7186,
      "Ġà¤¬à¤Ĺà¥Ģ": 7187,
      "''": 7188,
      ".m": 7189,
      "Ġà¤¨à¤®à¥Ĥà¤¨à¥ĩ": 7190,
      "Ġà¤°à¥ĭà¤ľà¤Ĺà¤¾à¤°": 7191,
      "abase": 7192,
      "ctions": 7193,
      "Ġà¤¬à¥įà¤°à¥ĩà¤ķ": 7194,
      "-à¤¨à¤¿": 7195,
      "Ġà¤¶à¥ĭà¤°": 7196,
      "verage": 7197,
      "Ġà¤¬à¥įà¤²à¥īà¤Ĺ": 7198,
      "à¥īà¤¨à¥įà¤¸": 7199,
      "Ġà¤¸à¤¿à¤Ĺ": 7200,
      "Ġà¤ªà¤¾à¤°à¤¿à¤µà¤¾à¤°à¤¿à¤ķ": 7201,
      "Ġà¤Ľà¤¤": 7202,
      "à¥ĭà¤¡à¤¾": 7203,
      "à¥¦à¥¦à¥¦": 7204,
      "à¤¿à¤¤à¥įà¤¯": 7205,
      "Ġwhere": 7206,
      "Ġaccur": 7207,
      "Ġà¤ªà¥Īà¤°à¥ĭà¤Ĥ": 7208,
      "Ġà¤¹à¤²à¥įà¤ķà¥ĩ": 7209,
      "Ġà¤īà¤¦à¥įà¤§à¤°à¤£": 7210,
      "à¤®à¤¸": 7211,
      "Ġcurrent": 7212,
      "à¥ĩà¤¨à¤¿à¤¸": 7213,
      "Ġà¤¬à¥įà¤°à¤¾à¤ī": 7214,
      "à¤¾à¤ĺà¤°": 7215,
      "Ġà¤ĸà¤Ĺà¥ĭà¤²": 7216,
      "Ġà¤ªà¥įà¤°à¤¤à¤¿à¤¸à¥įà¤¥": 7217,
      "ÂłÂłÂłÂł": 7218,
      "Ġà¤®à¥ĭà¤°": 7219,
      "Ġà¤¦à¤¾à¤µ": 7220,
      "à¤µà¤¤à¥Ģ": 7221,
      "à¤¨à¤²à¥ĭà¤¡": 7222,
      "Ġà¤®à¤¹à¤¾à¤¦à¥įà¤µà¥Ģà¤ª": 7223,
      "Ġà¤¸à¥Īà¤¨à¤¿à¤ķ": 7224,
      "Ġà¤ħà¤ľà¥Ģà¤¬": 7225,
      "Ġà¤¸à¤«à¤¾à¤Ī": 7226,
      "Ġà¤°à¥ĭà¤®à¤¾à¤Ĥà¤ļ": 7227,
      "Ġà¤ĳà¤¸à¥įà¤Łà¥įà¤°à¥ĩà¤²à¤¿à¤¯à¤¾à¤Ī": 7228,
      "Ġà¤°à¤¿à¤ľ": 7229,
      "à¤µà¤£": 7230,
      "Ġà¤ªà¥įà¤°à¤¾à¤¸à¤Ĥà¤Ĺà¤¿à¤ķ": 7231,
      "Ġà¤¸à¥įà¤µà¤¾à¤®à¥Ģ": 7232,
      "Ġà¤Ĭà¤¤à¤ķ": 7233,
      "Ġà¤ħà¤¨à¥ģà¤Ńà¤µà¥ĭà¤Ĥ": 7234,
      "Ġà¤¸à¥įà¤¥à¤¿à¤°à¤¤à¤¾": 7235,
      "Ġà¤²à¥ĩà¤¤à¥Ģ": 7236,
      "ec": 7237,
      "Ġà¤ħà¤ªà¤¶à¤¿à¤·à¥įà¤Ł": 7238,
      "1994": 7239,
      "Ġà¤§à¤¾à¤°à¤£à¤¾": 7240,
      "Ġà¤ľà¤¾à¤Ĺà¤°à¥Ĥà¤ķà¤¤à¤¾": 7241,
      "Ġà¤ķà¤¡à¤¼à¥Ģ": 7242,
      "Ġà¤Ĺà¤¹à¤¨": 7243,
      "Ġà¤ľà¥ĭà¤¸": 7244,
      "à¥ģà¤²à¤°": 7245,
      "à¤¸à¤Ĥà¤ķà¥įà¤·à¥ĩà¤ª": 7246,
      "Ġà¤®à¤¹à¤¾à¤°à¤¾à¤·à¥įà¤Łà¥įà¤°": 7247,
      "à¥ĭà¤¸à¥Ģ": 7248,
      "Ġopt": 7249,
      "Ġà¤ĺà¤Łà¤ķà¥ĭà¤Ĥ": 7250,
      "à¥Ĥà¤°à¤¾": 7251,
      "Ġà¤Ĺà¥ģà¤£à¤¾": 7252,
      "[à¤ı": 7253,
      "Ġà¤ķà¥ĥà¤¤": 7254,
      "à¥¤à¥¤": 7255,
      "à¤¾à¤§à¤¾à¤°à¤£": 7256,
      "Ġà¤ļà¤°à¤®": 7257,
      "à¥Ĥà¤Ĥà¤ķà¤¿": 7258,
      "des": 7259,
      "à¤¾à¤°à¥įà¤®": 7260,
      "Ġwhat": 7261,
      "Ġà¤Ĩà¤ķà¤°à¥įà¤·à¤£": 7262,
      "Ġà¤ıà¤ĥ": 7263,
      "Ġà¤µà¥ĩà¤¨": 7264,
      "Ġà¤ķà¥īà¤²à¤®": 7265,
      "Ġà¤Ĺà¥ģà¤«": 7266,
      "Ġà¤§à¥Ĥà¤ª": 7267,
      "Ġà¤ĩà¤Ĥà¤Ĺà¤¿à¤¤": 7268,
      "Ġà¤ħà¤µà¥Ī": 7269,
      "Ġà¤ħà¤®à¥ĩà¤°à¤¿à¤ķà¤¨": 7270,
      "à¤¹à¤²": 7271,
      "Ġà¤ªà¤°à¤¿à¤¯à¥ĭà¤ľà¤¨à¤¾à¤ĵà¤Ĥ": 7272,
      "Ġà¤²à¤Ĺà¤¾à¤ı": 7273,
      "à¤¦à¤¿à¤¨": 7274,
      "Ġà¤¬à¥ĩà¤°": 7275,
      "ense": 7276,
      "az": 7277,
      "Ġà¤ľà¤¼à¤°": 7278,
      "Ġà¤ľà¤¾à¤µ": 7279,
      "enef": 7280,
      "à¥įà¤¯à¥Ĥà¤®": 7281,
      "Ġà¤®à¥Īà¤Łà¥įà¤°": 7282,
      "Ġà¤®à¥ģà¤¤à¤¾à¤¬": 7283,
      "Ġà¤ľà¤¾à¤ķà¤°": 7284,
      "à¥ĭà¤¤à¥įà¤¤à¤°": 7285,
      "à¥ľà¥Ģ": 7286,
      "à¤¾à¤°à¥įà¤ķà¤¿à¤ķ": 7287,
      "Ġà¤¡à¤¾à¤ķ": 7288,
      "à¤¾à¤ĩà¤Łà¤¿à¤¸": 7289,
      "Ġà¤°à¥ĩà¤Ĺ": 7290,
      "Ġà¤ĸà¤¾à¤¤à¤¾": 7291,
      "Ġà¤°à¤¾à¤ľà¤¨à¥ĩ": 7292,
      "à¤¿à¤Ńà¥ģà¤ľ": 7293,
      "58": 7294,
      "Ġà¤¦à¤¶à¤ķà¥ĭà¤Ĥ": 7295,
      ".get": 7296,
      "Ġà¤ªà¥įà¤°à¤¶à¤Ĥà¤¸": 7297,
      "Ġac": 7298,
      "Ġdeci": 7299,
      "work": 7300,
      "Ġà¤ķà¤¥à¤¨": 7301,
      "à¥įà¤°à¤²": 7302,
      "Ġà¤ķà¥ĩà¤ķ": 7303,
      "Ġà¤¬à¥ĭà¤²à¤¨à¥ĩ": 7304,
      "à¤¬à¥ĩ": 7305,
      "Âłà¤ķà¤¡à¤¼à¤¿à¤¯à¤¾à¤ģ": 7306,
      "Ġà¤¬à¤¹à¥ģà¤®": 7307,
      "Ġà¤¸à¥Īà¤®": 7308,
      "à¤°à¤ĸ": 7309,
      "Ġhand": 7310,
      "-s": 7311,
      "Ġà¤¨à¤¿à¤¬à¤Ĥà¤§": 7312,
      "à¥ĭà¤²à¤¾": 7313,
      "Ġà¤¯à¤¾à¤¨à¥Ģ": 7314,
      "Ġà¤ľà¥Ģà¤µà¤¾à¤¶à¥įà¤®": 7315,
      "Ġà¤®à¥Įà¤²à¤¿à¤ķ": 7316,
      "à¤°à¤ķ": 7317,
      "lear": 7318,
      "Ġà¤²à¤¡à¤¼à¤¨à¥ĩ": 7319,
[...]
