{
  "version": "1.0",
  "truncation": null,
  "padding": null,
  "added_tokens": [
    {
      "id": 0,
      "content": "<pad>",
      "single_word": false,
      "lstrip": false,
      "rstrip": false,
      "normalized": false,
      "special": true
    },
    {
      "id": 1,
      "content": "<s>",
      "single_word": false,
      "lstrip": false,
      "rstrip": false,
      "normalized": false,
      "special": true
    },
    {
      "id": 2,
      "content": "</s>",
      "single_word": false,
      "lstrip": false,
      "rstrip": false,
      "normalized": false,
      "special": true
    },
    {
      "id": 3,
      "content": "<unk>",
      "single_word": false,
      "lstrip": false,
      "rstrip": false,
      "normalized": false,
      "special": true
    },
    {
      "id": 4,
      "content": "<|im_start|>",
      "single_word": false,
      "lstrip": false,
      "rstrip": false,
      "normalized": false,
      "special": true
    },
    {
      "id": 5,
      "content": "<|im_end|>",
      "single_word": false,
      "lstrip": false,
      "rstrip": false,
      "normalized": false,
      "special": true
    },
    {
      "id": 6,
      "content": "<|system|>",
      "single_word": false,
      "lstrip": false,
      "rstrip": false,
      "normalized": false,
      "special": true
    },
    {
      "id": 7,
      "content": "<|user|>",
      "single_word": false,
      "lstrip": false,
      "rstrip": false,
      "normalized": false,
      "special": true
    },
    {
      "id": 8,
      "content": "<|assistant|>",
      "single_word": false,
      "lstrip": false,
      "rstrip": false,
      "normalized": false,
      "special": true
    },
    {
      "id": 9,
      "content": "<|thought|>",
      "single_word": false,
      "lstrip": false,
      "rstrip": false,
      "normalized": false,
      "special": true
    },
    {
      "id": 10,
      "content": "</|thought|>",
      "single_word": false,
      "lstrip": false,
      "rstrip": false,
      "normalized": false,
      "special": true
    },
    {
      "id": 11,
      "content": "<|call:tool|>",
      "single_word": false,
      "lstrip": false,
      "rstrip": false,
      "normalized": false,
      "special": true
    },
    {
      "id": 12,
      "content": "<|tool_output|>",
      "single_word": false,
      "lstrip": false,
      "rstrip": false,
      "normalized": false,
      "special": true
    },
    {
      "id": 13,
      "content": "```python",
      "single_word": false,
      "lstrip": false,
      "rstrip": false,
      "normalized": false,
      "special": true
    },
    {
      "id": 14,
      "content": "```json",
      "single_word": false,
      "lstrip": false,
      "rstrip": false,
      "normalized": false,
      "special": true
    },
    {
      "id": 15,
      "content": "```cpp",
      "single_word": false,
      "lstrip": false,
      "rstrip": false,
      "normalized": false,
      "special": true
    },
    {
      "id": 16,
      "content": "```rust",
      "single_word": false,
      "lstrip": false,
      "rstrip": false,
      "normalized": false,
      "special": true
    },
    {
      "id": 17,
      "content": "```sql",
      "single_word": false,
      "lstrip": false,
      "rstrip": false,
      "normalized": false,
      "special": true
    },
    {
      "id": 18,
      "content": "def __init__",
      "single_word": false,
      "lstrip": false,
      "rstrip": false,
      "normalized": false,
      "special": true
    },
    {
      "id": 19,
      "content": "import torch",
      "single_word": false,
      "lstrip": false,
      "rstrip": false,
      "normalized": false,
      "special": true
    },
    {
      "id": 20,
      "content": "async def",
      "single_word": false,
      "lstrip": false,
      "rstrip": false,
      "normalized": false,
      "special": true
    },
    {
      "id": 21,
      "content": "fn main()",
      "single_word": false,
      "lstrip": false,
      "rstrip": false,
      "normalized": false,
      "special": true
    },
    {
      "id": 22,
      "content": "User:",
      "single_word": false,
      "lstrip": false,
      "rstrip": false,
      "normalized": false,
      "special": true
    },
    {
      "id": 23,
      "content": "Assistant:",
      "single_word": false,
      "lstrip": false,
      "rstrip": false,
      "normalized": false,
      "special": true
    },
    {
      "id": 24,
      "content": "System:",
      "single_word": false,
      "lstrip": false,
      "rstrip": false,
      "normalized": false,
      "special": true
    }
  ],
  "normalizer": null,
  "pre_tokenizer": {
    "type": "ByteLevel",
    "add_prefix_space": false,
    "trim_offsets": true,
    "use_regex": true
  },
  "post_processor": null,
  "decoder": {
    "type": "ByteLevel",
    "add_prefix_space": true,
    "trim_offsets": true,
    "use_regex": true
  },
  "model": {
    "type": "BPE",
    "dropout": null,
    "unk_token": null,
    "continuing_subword_prefix": null,
    "end_of_word_suffix": null,
    "fuse_unk": false,
    "byte_fallback": false,
    "ignore_merges": false,
    "vocab": {
      "<pad>": 0,
      "<s>": 1,
      "</s>": 2,
      "<unk>": 3,
      "<|im_start|>": 4,
      "<|im_end|>": 5,
      "<|system|>": 6,
      "<|user|>": 7,
      "<|assistant|>": 8,
      "<|thought|>": 9,
      "</|thought|>": 10,
      "<|call:tool|>": 11,
      "<|tool_output|>": 12,
      "```python": 13,
      "```json": 14,
      "```cpp": 15,
      "```rust": 16,
      "```sql": 17,
      "def __init__": 18,
      "import torch": 19,
      "async def": 20,
      "fn main()": 21,
      "User:": 22,
      "Assistant:": 23,
      "System:": 24,
      "!": 25,
      "\"": 26,
      "#": 27,
      "$": 28,
      "%": 29,
      "&": 30,
      "'": 31,
      "(": 32,
      ")": 33,
      "*": 34,
      "+": 35,
      ",": 36,
      "-": 37,
      ".": 38,
      "/": 39,
      "0": 40,
      "1": 41,
      "2": 42,
      "3": 43,
      "4": 44,
      "5": 45,
      "6": 46,
      "7": 47,
      "8": 48,
      "9": 49,
      ":": 50,
      ";": 51,
      "<": 52,
      "=": 53,
      ">": 54,
      "?": 55,
      "@": 56,
      "A": 57,
      "B": 58,
      "C": 59,
      "D": 60,
      "E": 61,
      "F": 62,
      "G": 63,
      "H": 64,
      "I": 65,
      "J": 66,
      "K": 67,
      "L": 68,
      "M": 69,
      "N": 70,
      "O": 71,
      "P": 72,
      "Q": 73,
      "R": 74,
      "S": 75,
      "T": 76,
      "U": 77,
      "V": 78,
      "W": 79,
      "X": 80,
      "Y": 81,
      "Z": 82,
      "[": 83,
      "\\": 84,
      "]": 85,
      "^": 86,
      "_": 87,
      "`": 88,
      "a": 89,
      "b": 90,
      "c": 91,
      "d": 92,
      "e": 93,
      "f": 94,
      "g": 95,
      "h": 96,
      "i": 97,
      "j": 98,
      "k": 99,
      "l": 100,
      "m": 101,
      "n": 102,
      "o": 103,
      "p": 104,
      "q": 105,
      "r": 106,
      "s": 107,
      "t": 108,
      "u": 109,
      "v": 110,
      "w": 111,
      "x": 112,
      "y": 113,
      "z": 114,
      "{": 115,
      "|": 116,
      "}": 117,
      "~": 118,
      "¡": 119,
      "¢": 120,
      "£": 121,
      "¤": 122,
      "¥": 123,
      "¦": 124,
      "§": 125,
      "¨": 126,
      "©": 127,
      "ª": 128,
      "«": 129,
      "¬": 130,
      "®": 131,
      "¯": 132,
      "°": 133,
      "±": 134,
      "²": 135,
      "³": 136,
      "´": 137,
      "µ": 138,
      "¶": 139,
      "·": 140,
      "¸": 141,
      "¹": 142,
      "º": 143,
      "»": 144,
      "¼": 145,
      "½": 146,
      "¾": 147,
      "¿": 148,
      "À": 149,
      "Á": 150,
      "Â": 151,
      "Ã": 152,
      "Ä": 153,
      "Å": 154,
      "Æ": 155,
      "Ç": 156,
      "È": 157,
      "É": 158,
      "Ê": 159,
      "Ë": 160,
      "Ì": 161,
      "Í": 162,
      "Î": 163,
      "Ï": 164,
      "Ð": 165,
      "Ñ": 166,
      "Ò": 167,
      "Ó": 168,
      "Ô": 169,
      "Õ": 170,
      "Ö": 171,
      "×": 172,
      "Ø": 173,
      "Ù": 174,
      "Ú": 175,
      "Û": 176,
      "Ü": 177,
      "Ý": 178,
      "Þ": 179,
      "ß": 180,
      "à": 181,
      "á": 182,
      "â": 183,
      "ã": 184,
      "ä": 185,
      "å": 186,
      "æ": 187,
      "ç": 188,
      "è": 189,
      "é": 190,
      "ê": 191,
      "ë": 192,
      "ì": 193,
      "í": 194,
      "î": 195,
      "ï": 196,
      "ð": 197,
      "ñ": 198,
      "ò": 199,
      "ó": 200,
      "ô": 201,
      "õ": 202,
      "ö": 203,
      "÷": 204,
      "ø": 205,
      "ù": 206,
      "ú": 207,
      "û": 208,
      "ü": 209,
      "ý": 210,
      "þ": 211,
      "ÿ": 212,
      "Ā": 213,
      "ā": 214,
      "Ă": 215,
      "ă": 216,
      "Ą": 217,
      "ą": 218,
      "Ć": 219,
      "ć": 220,
      "Ĉ": 221,
      "ĉ": 222,
      "Ċ": 223,
      "ċ": 224,
      "Č": 225,
      "č": 226,
      "Ď": 227,
      "ď": 228,
      "Đ": 229,
      "đ": 230,
      "Ē": 231,
      "ē": 232,
      "Ĕ": 233,
      "ĕ": 234,
      "Ė": 235,
      "ė": 236,
      "Ę": 237,
      "ę": 238,
      "Ě": 239,
      "ě": 240,
      "Ĝ": 241,
      "ĝ": 242,
      "Ğ": 243,
      "ğ": 244,
      "Ġ": 245,
      "ġ": 246,
      "Ģ": 247,
      "ģ": 248,
      "Ĥ": 249,
      "ĥ": 250,
      "Ħ": 251,
      "ħ": 252,
      "Ĩ": 253,
      "ĩ": 254,
      "Ī": 255,
      "ī": 256,
      "Ĭ": 257,
      "ĭ": 258,
      "Į": 259,
      "į": 260,
      "İ": 261,
      "ı": 262,
      "Ĳ": 263,
      "ĳ": 264,
      "Ĵ": 265,
      "ĵ": 266,
      "Ķ": 267,
      "ķ": 268,
      "ĸ": 269,
      "Ĺ": 270,
      "ĺ": 271,
      "Ļ": 272,
      "ļ": 273,
      "Ľ": 274,
      "ľ": 275,
      "Ŀ": 276,
      "ŀ": 277,
      "Ł": 278,
      "ł": 279,
      "Ń": 280,
      "Ġa": 281,
      "Ġt": 282,
      "in": 283,
      "he": 284,
      "re": 285,
      "at": 286,
      "on": 287,
      "er": 288,
      "Ġc": 289,
      "st": 290,
      "an": 291,
      "Ġthe": 292,
      "or": 293,
      "Ġ\"": 294,
      "Ġan": 295,
      "ou": 296,
      "le": 297,
      "ing": 298,
      "Ġs": 299,
      "en": 300,
      "Ġw": 301,
      "it": 302,
      "Ġf": 303,
      "al": 304,
      "Ġb": 305,
      "Ġp": 306,
      "Ġo": 307,
      "ar": 308,
      "ed": 309,
      "is": 310,
      "Ġand": 311,
      "ĠA": 312,
      "es": 313,
      "ion": 314,
      "Ġin": 315,
      "Ġto": 316,
      "Ġm": 317,
      "Ġd": 318,
      "\":": 319,
      "as": 320,
      "Ġof": 321,
      "ct": 322,
      "ĠT": 323,
      "ly": 324,
      "ro": 325,
      "ant": 326,
      "ic": 327,
      "\",": 328,
      "us": 329,
      "ent": 330,
      "ra": 331,
      "Ġn": 332,
      "Ġe": 333,
      "ist": 334,
      "Ġth": 335,
      "ate": 336,
      "Ġre": 337,
      "et": 338,
      "Ġy": 339,
      "Ġh": 340,
      "om": 341,
      "ll": 342,
      "``": 343,
      "de": 344,
      "Ġyou": 345,
      "sist": 346,
      "im": 347,
      "ve": 348,
      "ow": 349,
      "Ġl": 350,
      "Ġas": 351,
      "Ġis": 352,
      "sistant": 353,
      "ur": 354,
      "em": 355,
      "ĠAI": 356,
      "ch": 357,
      "Ġare": 358,
      "ĠI": 359,
      "ation": 360,
      "Ġg": 361,
      ".\",": 362,
      "ul": 363,
      "Ġst": 364,
      "ĠS": 365,
      "ĠC": 366,
      "Ġfor": 367,
      "Ġby": 368,
      "un": 369,
      "am": 370,
      "ut": 371,
      "Ġpro": 372,
      "ce": 373,
      "ith": 374,
      "Ġ1": 375,
      "ol": 376,
      "\\\"": 377,
      "ig": 378,
      "um": 379,
      "Ġhe": 380,
      "Ġcre": 381,
      "ory": 382,
      "ver": 383,
      "You": 384,
      "Ġthat": 385,
      "ĠB": 386,
      "ction": 387,
      "Ġus": 388,
      "ple": 389,
      "ot": 390,
      "yst": 391,
      "Ġcon": 392,
      "Ġbe": 393,
      "ay": 394,
      "ated": 395,
      "ystem": 396,
      "Ġex": 397,
      "ĠThe": 398,
      "if": 399,
      "tu": 400,
      "ode": 401,
      "Ġon": 402,
      "il": 403,
      "Ġ=": 404,
      "```": 405,
      "Ġwith": 406,
      "ir": 407,
      "th": 408,
      "se": 409,
      "ge": 410,
      "ĠW": 411,
      "Ġ```": 412,
      "Ġde": 413,
      "'s": 414,
      "Ġ(": 415,
      "id": 416,
      "ateg": 417,
      "Ġv": 418,
      "ad": 419,
      "čĊ": 420,
      "Ġcom": 421,
      "lya": 422,
      "tulya": 423,
      "ĠAtulya": 424,
      "user": 425,
      "ĠP": 426,
      "system": 427,
      "ategory": 428,
      "Ġit": 429,
      "assistant": 430,
      "{\"": 431,
      "\"}": 432,
      "category": 433,
      "Ġwe": 434,
      "ri": 435,
      "ment": 436,
      "ter": 437,
      "Ġ`": 438,
      "Ġ2": 439,
      "ĠH": 440,
      "Ġcreated": 441,
      "Ġcan": 442,
      "\\\\": 443,
      "antra": 444,
      "ĠTantra": 445,
      "Ġassistant": 446,
      "pp": 447,
      "ĠE": 448,
      "and": 449,
      "ab": 450,
      "ers": 451,
      "qu": 452,
      "ĠM": 453,
      "Ġ-": 454,
      "ain": 455,
      "Ġne": 456,
      "ĠR": 457,
      "res": 458,
      "Ġor": 459,
      "od": 460,
      "ke": 461,
      "Ġal": 462,
      "Ġ#": 463,
      "nt": 464,
      "out": 465,
      "Ġse": 466,
      "ĠD": 467,
      "ĠF": 468,
      "Ġwh": 469,
      "ck": 470,
      "lo": 471,
      "ort": 472,
      "ess": 473,
      "Ġcle": 474,
      "ru": 475,
      "pt": 476,
      "pe": 477,
      "Ġyour": 478,
      "Ġhel": 479,
      "ful": 480,
      "her": 481,
      "ata": 482,
      "ĠN": 483,
      "ĠIn": 484,
      "Ġle": 485,
      "Ġhelp": 486,
      "cc": 487,
      "ld": 488,
      "Ġim": 489,
      "ĠL": 490,
      "ive": 491,
      "ite": 492,
      "ore": 493,
      "iz": 494,
      "ere": 495,
      "Ġsu": 496,
      "pl": 497,
      "iv": 498,
      "Ġ$": 499,
      "igh": 500,
      "ity": 501,
      "Ġfun": 502,
      "Ġ\\\"": 503,
      "rom": 504,
      "ies": 505,
      "Ġr": 506,
      "yth": 507,
      "Ġthis": 508,
      "ect": 509,
      "per": 510,
      "ine": 511,
      "ĠTh": 512,
      "Ġint": 513,
      "all": 514,
      "Ġ3": 515,
      "ns": 516,
      "oc": 517,
      "llow": 518,
      "el": 519,
      "ĠG": 520,
      "00": 521,
      "ile": 522,
      "ial": 523,
      "Ġfunction": 524,
      "Ġfrom": 525,
      "ĠO": 526,
      "art": 527,
      "Ġcode": 528,
      "end": 529,
      "Ġma": 530,
      "int": 531,
      "arly": 532,
      "age": 533,
      "ython": 534,
      "ill": 535,
      "av": 536,
      "Ġdata": 537,
      "Ġte": 538,
      "ram": 539,
      "ĠJ": 540,
      "Ġch": 541,
      "able": 542,
      "Ġacc": 543,
      "nd": 544,
      "ure": 545,
      "ĠBe": 546,
      "Ġwas": 547,
      "Ġar": 548,
      "Ġme": 549,
      "Ġat": 550,
      "ue": 551,
      "ural": 552,
      "arm": 553,
      "Ġapp": 554,
      "Ġha": 555,
      "ag": 556,
      "ight": 557,
      "Ġcomp": 558,
      "Ġnat": 559,
      "Ġclearly": 560,
      "os": 561,
      "umb": 562,
      "Ġab": 563,
      "Ġhelpful": 564,
      "ample": 565,
      "ame": 566,
      "our": 567,
      "Ġun": 568,
      "act": 569,
      "ĠEx": 570,
      "ations": 571,
      "Ġnatural": 572,
      "ach": 573,
      "rect": 574,
      "ĠU": 575,
      "ass": 576,
      "ork": 577,
      "ust": 578,
      "up": 579,
      "ĠThis": 580,
      "Ġwarm": 581,
      "ult": 582,
      "orm": 583,
      "ep": 584,
      "wer": 585,
      "Ġfo": 586,
      "rite": 587,
      "Ġen": 588,
      "Ġad": 589,
      "ime": 590,
      "Ġsh": 591,
      "Ġwhe": 592,
      "ason": 593,
      "are": 594,
      "ie": 595,
      "ide": 596,
      "gram": 597,
      "ard": 598,
      "cl": 599,
      "ise": 600,
      "ich": 601,
      "ary": 602,
      "ib": 603,
      "Ġcl": 604,
      "ould": 605,
      "der": 606,
      "ack": 607,
      "Ġhave": 608,
      "Ġexample": 609,
      "oo": 610,
      "ome": 611,
      "Ġusing": 612,
      "Ġuse": 613,
      "xt": 614,
      "ap": 615,
      "Ġprogram": 616,
      "ately": 617,
      "Ġpl": 618,
      "Ġnumb": 619,
      "ind": 620,
      "Ġ\\\\": 621,
      "Ġimp": 622,
      "ject": 623,
      "Ġret": 624,
      "ip": 625,
      "Ġdef": 626,
      "Ġ4": 627,
      "Ġfollow": 628,
      "ang": 629,
      "ff": 630,
      "Ġ##": 631,
      "Ġhas": 632,
      "Ġres": 633,
      "Ġcor": 634,
      "form": 635,
      "ĠAns": 636,
      "?\",": 637,
      "ally": 638,
      "asoning": 639,
      "Ġk": 640,
      "Ġup": 641,
      "Ġaccur": 642,
      "ĠAnswer": 643,
      "Ġ'": 644,
      "Ġcont": 645,
      "Ġpr": 646,
      "ph": 647,
      "ĠIt": 648,
      "ak": 649,
      "est": 650,
      "Ġ5": 651,
      "ĠWrite": 652,
      "ud": 653,
      "lic": 654,
      "Ġwhich": 655,
      "ost": 656,
      "Ġaccurately": 657,
      "code": 658,
      "ac": 659,
      "so": 660,
      "ance": 661,
      "du": 662,
      "ans": 663,
      "ord": 664,
      "Ġnew": 665,
      "Ġretur": 666,
      "ition": 667,
      "Ġabout": 668,
      "erc": 669,
      "gh": 670,
      "ari": 671,
      "Ġcomm": 672,
      "rou": 673,
      "Ġdo": 674,
      "Ġman": 675,
      "Ġset": 676,
      "Ġ19": 677,
      "()": 678,
      "ast": 679,
      "ount": 680,
      "ents": 681,
      "Ġif": 682,
      "Ġtheir": 683,
      "ell": 684,
      "ther": 685,
      "Ġval": 686,
      "ign": 687,
      "fere": 688,
      "Ġsc": 689,
      "ks": 690,
      "Ġgo": 691,
      "ous": 692,
      "Ġj": 693,
      "stru": 694,
      "Ġ{": 695,
      "og": 696,
      "led": 697,
      "ating": 698,
      "Ġneed": 699,
      "Ġcorrect": 700,
      "Ġ+": 701,
      "cess": 702,
      "reasoning": 703,
      "Ġ<": 704,
      "Ġclean": 705,
      "ice": 706,
      "les": 707,
      "sion": 708,
      "Ġpo": 709,
      "ithm": 710,
      "Ġfollowing": 711,
      "Ġwill": 712,
      "Ġper": 713,
      "Ġnot": 714,
      "ĠTo": 715,
      "python": 716,
      "ry": 717,
      "ercise": 718,
      "Ġmore": 719,
      "Ġfe": 720,
      "ub": 721,
      "Ġreturn": 722,
      "ution": 723,
      "Ġtime": 724,
      "ize": 725,
      "ase": 726,
      "ong": 727,
      "ace": 728,
      "irst": 729,
      "ces": 730,
      "etw": 731,
      "ors": 732,
      "chat": 733,
      "gor": 734,
      "plain": 735,
      "Ġused": 736,
      "ĠRe": 737,
      "hat": 738,
      "gorithm": 739,
      "Ġits": 740,
      "Ġspe": 741,
      "ĠExercise": 742,
      "ence": 743,
      "Ġinst": 744,
      "ring": 745,
      "ĠSt": 746,
      "!\",": 747,
      "pres": 748,
      "ical": 749,
      "Ġele": 750,
      "Ġalgorithm": 751,
      "wo": 752,
      "Ġ0": 753,
      "Ġout": 754,
      "ound": 755,
      "struction": 756,
      "ike": 757,
      "ning": 758,
      "Ġsp": 759,
      "Ġinto": 760,
      "Ġqu": 761,
      "ne": 762,
      "mer": 763,
      "ray": 764,
      "eth": 765,
      "Ġro": 766,
      "Ġwork": 767,
      "ble": 768,
      "Ġalso": 769,
      "Ġadd": 770,
      "Ġcal": 771,
      "ĠK": 772,
      "Ġnumber": 773,
      "Ġvari": 774,
      "Ġeach": 775,
      "Ġwell": 776,
      "Ġimport": 777,
      "red": 778,
      "plement": 779,
      "ĠYou": 780,
      "ree": 781,
      "cri": 782,
      "Ġbut": 783,
      "Ġclass": 784,
      "ates": 785,
      "Ġ*": 786,
      "ays": 787,
      "Ġ}": 788,
      "Ġcreate": 789,
      "Ġhow": 790,
      "Ġty": 791,
      "ific": 792,
      "Ġother": 793,
      "):": 794,
      "Ġtwo": 795,
      "Ġstep": 796,
      "Ġincl": 797,
      "ia": 798,
      "ĠPython": 799,
      "te": 800,
      "Ġdif": 801,
      "tern": 802,
      "Ġall": 803,
      "Ġthan": 804,
      "ove": 805,
      "own": 806,
      "put": 807,
      "ĠV": 808,
      "Ġprov": 809,
      "ments": 810,
      "Ġev": 811,
      "Ġone": 812,
      "raph": 813,
      "Ġser": 814,
      "Ġsuch": 815,
      "ava": 816,
      "ont": 817,
      "Ġfile": 818,
      "Ġcol": 819,
      "'m": 820,
      "Ġso": 821,
      "Ġsim": 822,
      "Ġmat": 823,
      "Ġlike": 824,
      "ft": 825,
      "velo": 826,
      "Ġdi": 827,
      "Ġthey": 828,
      "Ġspec": 829,
      "pic": 830,
      "one": 831,
      "ear": 832,
      "Ġx": 833,
      "Ġwhen": 834,
      "Ġdes": 835,
      "Ġfirst": 836,
      "Ġtra": 837,
      "ument": 838,
      "Ġbas": 839,
      "rit": 840,
      "Ġkn": 841,
      "Ġdiffere": 842,
      "vers": 843,
      "ative": 844,
      "ng": 845,
      "ient": 846,
      "ĠFor": 847,
      "velop": 848,
      "Ġlist": 849,
      "pert": 850,
      "ual": 851,
      "--": 852,
      "ond": 853,
      "eg": 854,
      "),": 855,
      ");": 856,
      "Ġimplement": 857,
      "Ġpart": 858,
      "Ġ6": 859,
      "ath": 860,
      "ĠCh": 861,
      "ures": 862,
      "Ġdis": 863,
      "cript": 864,
      "Ġob": 865,
      "Ex": 866,
      "olution": 867,
      "ues": 868,
      "Ġwould": 869,
      "Ġbu": 870,
      "els": 871,
      "ĠCre": 872,
      "ĠHere": 873,
      "ild": 874,
      "Ġke": 875,
      "Ġstru": 876,
      "Ġco": 877,
      "erm": 878,
      "Ġprocess": 879,
      "get": 880,
      "Ġsome": 881,
      "Ġprint": 882,
      "Ġpre": 883,
      "ail": 884,
      "'t": 885,
      "stand": 886,
      "king": 887,
      "Ġhis": 888,
      "blem": 889,
      "een": 890,
      "ec": 891,
      "Ġsystem": 892,
      "ys": 893,
      "ethod": 894,
      "Ġdevelop": 895,
      "ish": 896,
      "Ġthere": 897,
      "Ġi": 898,
      "Ġthem": 899,
      "ps": 900,
      "Ġunder": 901,
      "Ġstruct": 902,
      "Ġallow": 903,
      "Ġinter": 904,
      ").": 905,
      "arch": 906,
      "Explain": 907,
      "ake": 908,
      "Ġrec": 909,
      "Ġeff": 910,
      "ions": 911,
      "ert": 912,
      "Ġarray": 913,
      "ings": 914,
      "Ġ[": 915,
      "ices": 916,
      "Ġwhere": 917,
      "Ġ/": 918,
      "Ġlet": 919,
      "ss": 920,
      "Ġday": 921,
      "Ġproject": 922,
      "Ġfind": 923,
      "Ġmy": 924,
      "etween": 925,
      "Ġpe": 926,
      "ĠJava": 927,
      "Ġtext": 928,
      "ons": 929,
      "Ġmethod": 930,
      "Ġthese": 931,
      "Ġ20": 932,
      "Ġapplic": 933,
      "read": 934,
      "Ġoper": 935,
      "Ġcomput": 936,
      "Ġover": 937,
      "Ġproblem": 938,
      "very": 939,
      "ĠWhat": 940,
      "pen": 941,
      "Ġdifferent": 942,
      "Ġstart": 943,
      "ocument": 944,
      "Ġtopic": 945,
      "Ġoff": 946,
      "odel": 947,
      "Ġgen": 948,
      "ange": 949,
      "Ġrun": 950,
      "Ġcomple": 951,
      "Ġvalue": 952,
      "Ġrepres": 953,
      "Ġbetween": 954,
      "Ġperform": 955,
      "cy": 956,
      "ni": 957,
      "rough": 958,
      "cul": 959,
      "ark": 960,
      "Ġmem": 961,
      "Ġmake": 962,
      "ian": 963,
      "cept": 964,
      "ĠHow": 965,
      "Ġtr": 966,
      "ater": 967,
      "Ġwho": 968,
      "Ġ200": 969,
      "The": 970,
      "lf": 971,
      "ude": 972,
      "Ġ|": 973,
      "ics": 974,
      "Ġed": 975,
      "Ġ10": 976,
      "ming": 977,
      "ĠHe": 978,
      "ople": 979,
      "row": 980,
      "Ġany": 981,
      "Ġmult": 982,
      "io": 983,
      "Ġvariable": 984,
      "à¤": 985,
      "ify": 986,
      "Ġweb": 987,
      "ting": 988,
      "Ġher": 989,
      "Ġgiv": 990,
      "Ġsub": 991,
      "'re": 992,
      "ber": 993,
      "Ġresult": 994,
      "Ġpos": 995,
      "its": 996,
      "Ġbec": 997,
      "ire": 998,
      "Ġgre": 999,
      "ens": 1000,
      "ility": 1001,
      "ook": 1002,
      "Ġsum": 1003,
      "orld": 1004,
      "ick": 1005,
      "ĠAn": 1006,
      "ular": 1007,
      "Ġwhile": 1008,
      "Ġget": 1009,
      "Ġ\"#": 1010,
      "ough": 1011,
      "oth": 1012,
      "Ġbeen": 1013,
      "Ġfunctions": 1014,
      "Ġdep": 1015,
      "ization": 1016,
      "Ġinstall": 1017,
      "owels": 1018,
      "Ġhad": 1019,
      "ew": 1020,
      "Ġthrough": 1021,
      "instruction": 1022,
      "Ġequ": 1023,
      "Ġform": 1024,
      "Ġconst": 1025,
      "Ġprodu": 1026,
      "ĠCreate": 1027,
      "Ġ8": 1028,
      "Ġdist": 1029,
      "Ġam": 1030,
      "Ġinclud": 1031,
      "Ġgood": 1032,
      "fore": 1033,
      "Ġwere": 1034,
      "Ġpeople": 1035,
      "Ġsm": 1036,
      "ĠWe": 1037,
      "Ġprovid": 1038,
      "ational": 1039,
      "'ll": 1040,
      "Ġ7": 1041,
      "nce": 1042,
      "Ġobject": 1043,
      "Ġappro": 1044,
      "Ġnumbers": 1045,
      "ves": 1046,
      "fter": 1047,
      "Ġtech": 1048,
      "Ġknow": 1049,
      "Ġrem": 1050,
      "ink": 1051,
      "Ġcount": 1052,
      "ibr": 1053,
      "Ġpar": 1054,
      "ress": 1055,
      "Ġhand": 1056,
      "Ġsec": 1057,
      "Ġmay": 1058,
      "Ġopt": 1059,
      "Ġthen": 1060,
      "iple": 1061,
      "Ġhere": 1062,
      "Ġsort": 1063,
      "inal": 1064,
      "lect": 1065,
      "Ġshe": 1066,
      "Ġtak": 1067,
      "Ġmodel": 1068,
      "Ġver": 1069,
      "Ġlear": 1070,
      "ctions": 1071,
      "Ġrel": 1072,
      "ced": 1073,
      "Ġwhat": 1074,
      "aus": 1075,
      "Ġmain": 1076,
      "Ġra": 1077,
      "Ġrequ": 1078,
      "Ġgraph": 1079,
      "old": 1080,
      "Ġkey": 1081,
      "Ġem": 1082,
      "ities": 1083,
      "ages": 1084,
      "Ġsee": 1085,
      "Ġcalled": 1086,
      "Ġag": 1087,
      "hed": 1088,
      "Ġcons": 1089,
      "ob": 1090,
      "ract": 1091,
      "Ġstring": 1092,
      "Ġcommand": 1093,
      "dition": 1094,
      "Ġprogramming": 1095,
      "ower": 1096,
      "ways": 1097,
      "cho": 1098,
      "urre": 1099,
      "ital": 1100,
      "`,": 1101,
      "iron": 1102,
      "Ġname": 1103,
      "Ġstate": 1104,
      "Ġloc": 1105,
      "ving": 1106,
      "ĠCom": 1107,
      "pect": 1108,
      "Ġexpert": 1109,
      "Ġinc": 1110,
      "ible": 1111,
      "ax": 1112,
      "hes": 1113,
      "Ġtrans": 1114,
      "Ġanal": 1115,
      "rib": 1116,
      "Ġdirect": 1117,
      "op": 1118,
      "ix": 1119,
      "Ġstand": 1120,
      "Ġpoint": 1121,
      "\\\",": 1122,
      "uring": 1123,
      "day": 1124,
      "Ġfl": 1125,
      "Ġspecific": 1126,
      "Ġdevelopment": 1127,
      "viron": 1128,
      "yn": 1129,
      "Tell": 1130,
      "Ġplay": 1131,
      "Ġour": 1132,
      "Ġlibr": 1133,
      "Ġass": 1134,
      "ser": 1135,
      "Ġinteg": 1136,
      "Ġmod": 1137,
      "Ġvalues": 1138,
      "(\\\"": 1139,
      "ience": 1140,
      "ider": 1141,
      "Ġexp": 1142,
      "`.": 1143,
      "Ġdec": 1144,
      "Ġline": 1145,
      "alle": 1146,
      "erson": 1147,
      "document": 1148,
      "Ġgiven": 1149,
      "ose": 1150,
      "Ġcalcul": 1151,
      "Ġinv": 1152,
      "Ġfact": 1153,
      "Ġreg": 1154,
      "Ġprogrammer": 1155,
      "als": 1156,
      "vel": 1157,
      "Ġatt": 1158,
      "ved": 1159,
      "ential": 1160,
      "standing": 1161,
      "Ġrepresent": 1162,
      "Ġmany": 1163,
      "Ġ###": 1164,
      "tal": 1165,
      "documented": 1166,
      "Ġact": 1167,
      "ĠThey": 1168,
      "pes": 1169,
      "ash": 1170,
      "vironment": 1171,
      "Ġsa": 1172,
      "fra": 1173,
      "Ġmin": 1174,
      "Ġyear": 1175,
      "Ġind": 1176,
      "Ġbet": 1177,
      "ten": 1178,
      "Ġjust": 1179,
      "Ġdet": 1180,
      "Ġelements": 1181,
      "wn": 1182,
      "ited": 1183,
      "Ġback": 1184,
      "Ġgener": 1185,
      "('": 1186,
      "inue": 1187,
      "Ġtotal": 1188,
      "iew": 1189,
      "etwork": 1190,
      "Ġ9": 1191,
      "ug": 1192,
      "Ġbetter": 1193,
      "Ġmost": 1194,
      "Ġvowels": 1195,
      "tt": 1196,
      "ĠDe": 1197,
      "..": 1198,
      "ĠAd": 1199,
      "ute": 1200,
      "port": 1201,
      "Ġstructure": 1202,
      "Ġenvironment": 1203,
      "Ġright": 1204,
      "Ġcomplex": 1205,
      "Ġdat": 1206,
      "pro": 1207,
      "ines": 1208,
      "}{": 1209,
      "structions": 1210,
      "Ġsimple": 1211,
      "Cont": 1212,
      "Ġpub": 1213,
      "Ġexec": 1214,
      "Ġchar": 1215,
      "ident": 1216,
      "Ġshould": 1217,
      "Ġtype": 1218,
      "ĠIf": 1219,
      "Ġway": 1220,
      "Ġvis": 1221,
      "lock": 1222,
      "olog": 1223,
      "angu": 1224,
      "ĠNow": 1225,
      "',": 1226,
      "Ġcould": 1227,
      "air": 1228,
      "Ġins": 1229,
      "icient": 1230,
      "Ġdesign": 1231,
      "Ġsol": 1232,
      "ĠSolution": 1233,
      "Ġallows": 1234,
      "ood": 1235,
      "Ġterm": 1236,
      "hip": 1237,
      "ince": 1238,
      "Ġcap": 1239,
      "ols": 1240,
      "ords": 1241,
      "frac": 1242,
      "Ġstud": 1243,
      "Ġdiv": 1244,
      "Ġtest": 1245,
      "mat": 1246,
      "Ġend": 1247,
      "other": 1248,
      "Ġonly": 1249,
      "Ġelement": 1250,
      "Ġaccess": 1251,
      "ious": 1252,
      "err": 1253,
      "Ġtypes": 1254,
      "sing": 1255,
      "ased": 1256,
      "self": 1257,
      "Ġsign": 1258,
      "Ġsearch": 1259,
      "Ġgrou": 1260,
      "inc": 1261,
      "ĠAl": 1262,
      "ency": 1263,
      "riend": 1264,
      "Script": 1265,
      "Ġinput": 1266,
      "Ġmemory": 1267,
      "ator": 1268,
      "formation": 1269,
      "Ġfeat": 1270,
      "ause": 1271,
      "ield": 1272,
      "com": 1273,
      "ask": 1274,
      "Ġstandard": 1275,
      "nces": 1276,
      "ĠPro": 1277,
      "gan": 1278,
      "Ġfeel": 1279,
      "nder": 1280,
      "Ġsupp": 1281,
      "Ġlar": 1282,
      "Ġalways": 1283,
      "ĠIm": 1284,
      "ward": 1285,
      "pr": 1286,
      "hen": 1287,
      "app": 1288,
      "ier": 1289,
      "imes": 1290,
      "10": 1291,
      "Ġche": 1292,
      "Ġboth": 1293,
      "Ġinclude": 1294,
      "ĠSe": 1295,
      "Ġeven": 1296,
      "Ġbuild": 1297,
      "ern": 1298,
      "Ġno": 1299,
      "land": 1300,
      "Ġwant": 1301,
      "ton": 1302,
      "ĠThere": 1303,
      "Ġcommon": 1304,
      "Ġfil": 1305,
      "ĠY": 1306,
      "Continue": 1307,
      "urrent": 1308,
      "Ġwrit": 1309,
      "Ġafter": 1310,
      "niqu": 1311,
      "Ġinvol": 1312,
      "val": 1313,
      "Ġdepend": 1314,
      "ctor": 1315,
      "Ġbus": 1316,
      "Ġapplication": 1317,
      "Ġtakes": 1318,
      "ized": 1319,
      "ric": 1320,
      "Ġlangu": 1321,
      "Ġoptim": 1322,
      "ined": 1323,
      "ision": 1324,
      "Ġbased": 1325,
      "js": 1326,
      "Ġaut": 1327,
      "ĠUn": 1328,
      "Ġcomputer": 1329,
      "Ġdoing": 1330,
      "\\\\_": 1331,
      "Ġnetwork": 1332,
      "Ġtechniqu": 1333,
      "Ġsy": 1334,
      "Ġent": 1335,
      "Ġincluding": 1336,
      "ĠCon": 1337,
      "Ġcontain": 1338,
      "ied": 1339,
      "Ġcompon": 1340,
      "++": 1341,
      "ets": 1342,
      "Ġpat": 1343,
      "Ġconvers": 1344,
      "uc": 1345,
      "ife": 1346,
      "Ġdown": 1347,
      "ĠAs": 1348,
      "Ġresp": 1349,
      "Ġhigh": 1350,
      "Ġdisc": 1351,
      "ily": 1352,
      "ĠThese": 1353,
      "Ġuser": 1354,
      "gest": 1355,
      "20": 1356,
      "Ġsame": 1357,
      "ars": 1358,
      "Ġthree": 1359,
      ".\\\"": 1360,
      "Ġread": 1361,
      "Ġsmall": 1362,
      "Ġopen": 1363,
      "')": 1364,
      "Ġ18": 1365,
      "::": 1366,
      "Ġinde": 1367,
      "Ġprovides": 1368,
      "000": 1369,
      "way": 1370,
      "Ġel": 1371,
      "ral": 1372,
      "Ġcommun": 1373,
      "Ġref": 1374,
      "ello": 1375,
      "rol": 1376,
      "ement": 1377,
      "Ġspace": 1378,
      "Ġapproach": 1379,
      "Ġpop": 1380,
      "Ġconcept": 1381,
      "Ġhash": 1382,
      "name": 1383,
      "Ġinformation": 1384,
      "to": 1385,
      "ustom": 1386,
      "Ġlearning": 1387,
      "Ġ199": 1388,
      "ins": 1389,
      "ĠAr": 1390,
      "Ġevery": 1391,
      "ale": 1392,
      "Ġfriend": 1393,
      "cial": 1394,
      "Ġimportant": 1395,
      "Ġexpres": 1396,
      "Ġph": 1397,
      "Ġmanag": 1398,
      "ames": 1399,
      "Ġstr": 1400,
      "Ġworld": 1401,
      "ext": 1402,
      "chool": 1403,
      "ever": 1404,
      "Ġac": 1405,
      "ĠLet": 1406,
      "'\",": 1407,
      "ĠInstructions": 1408,
      "ability": 1409,
      "ĠInst": 1410,
      "Ġpower": 1411,
      "Ġalgorithms": 1412,
      "italize": 1413,
      "Ġpublic": 1414,
      "Ġ//": 1415,
      "ex": 1416,
      "Ġbo": 1417,
      "Ġ&": 1418,
      "my": 1419,
      "aw": 1420,
      "nect": 1421,
      "Ġ$\\\\": 1422,
      "Ġloo": 1423,
      "ĠUnder": 1424,
      "Ġpass": 1425,
      "ling": 1426,
      "Ġlibrary": 1427,
      "rix": 1428,
      "ĠSc": 1429,
      "data": 1430,
      "Can": 1431,
      "Ġwon": 1432,
      "Ġeas": 1433,
      "Ġarg": 1434,
      "uch": 1435,
      "ĠJavaScript": 1436,
      "ron": 1437,
      "Ġefficient": 1438,
      "Ġworks": 1439,
      "Ġcall": 1440,
      "ngth": 1441,
      "vice": 1442,
      "ĠX": 1443,
      "ran": 1444,
      "ĠSo": 1445,
      "Ġsing": 1446,
      "Ġimpro": 1447,
      "$.": 1448,
      "cd": 1449,
      "ner": 1450,
      "Ġapplications": 1451,
      "Ġcondition": 1452,
      "Ġgame": 1453,
      "Ġtoday": 1454,
      "ĠNew": 1455,
      "Ġcharact": 1456,
      "Ġfound": 1457,
      "Ġlong": 1458,
      "Ġnow": 1459,
      "Ġreal": 1460,
      "Ġbeing": 1461,
      "$,": 1462,
      "Ġerr": 1463,
      "----": 1464,
      "Ġperformance": 1465,
      "any": 1466,
      "Ġbre": 1467,
      "Ġve": 1468,
      "Ġhapp": 1469,
      "Ġconf": 1470,
      "Ġproduct": 1471,
      "__": 1472,
      "Ġperson": 1473,
      "Ġmean": 1474,
      "Ġprovide": 1475,
      "meric": 1476,
      ":\",": 1477,
      "ery": 1478,
      "Ġblock": 1479,
      "py": 1480,
      "Ġtable": 1481,
      "Ġext": 1482,
      "))": 1483,
      "Ġstore": 1484,
      "alk": 1485,
      "Ġlanguage": 1486,
      "Ġmade": 1487,
      "Ġ12": 1488,
      "Ġsecond": 1489,
      "verse": 1490,
      "Ġ:": 1491,
      "veral": 1492,
      "Ġmess": 1493,
      "ysis": 1494,
      "ining": 1495,
      "ually": 1496,
      "ulation": 1497,
      "Ġident": 1498,
      "ross": 1499,
      "time": 1500,
      "Ġvariables": 1501,
      "Ġwrite": 1502,
      "Ġsupport": 1503,
      "ts": 1504,
      "**": 1505,
      "ĠExplain": 1506,
      "Ġown": 1507,
      "ware": 1508,
      "ferences": 1509,
      "Ġconversation": 1510,
      "Ġlead": 1511,
      "ock": 1512,
      "Ġens": 1513,
      "Ġcreating": 1514,
      "ared": 1515,
      "Ġans": 1516,
      "Ġseveral": 1517,
      "Ġpropert": 1518,
      "()`": 1519,
      "ĠUnderstanding": 1520,
      "ember": 1521,
      "ness": 1522,
      "Ġcost": 1523,
      "rue": 1524,
      "lis": 1525,
      "Ġconc": 1526,
      "oy": 1527,
      "oint": 1528,
      "oh": 1529,
      "Ġsur": 1530,
      "con": 1531,
      "Ġsom": 1532,
      "Ġpartic": 1533,
      "izing": 1534,
      "Ġbecause": 1535,
      "Ġpack": 1536,
      "vent": 1537,
      "ases": 1538,
      "Ġorig": 1539,
      "ven": 1540,
      "ication": 1541,
      "ĠAmeric": 1542,
      "itive": 1543,
      "Ġenc": 1544,
      "Ġbefore": 1545,
      "ired": 1546,
      "Ġ201": 1547,
      "Ġmethods": 1548,
      "Ġvarious": 1549,
      "Ġest": 1550,
      "Ġanalysis": 1551,
      "Ġrange": 1552,
      "Ġtre": 1553,
      "itial": 1554,
      "ertain": 1555,
      "Ġcustom": 1556,
      "Ġmed": 1557,
      "Ġbasic": 1558,
      "Ġagain": 1559,
      "Ġoperations": 1560,
      "Ġtake": 1561,
      "Ġmultiple": 1562,
      "ict": 1563,
      "ĠQ": 1564,
      "line": 1565,
      "Ġgu": 1566,
      "St": 1567,
      "Ġpres": 1568,
      "derful": 1569,
      "Ġdoes": 1570,
      "Ġsolution": 1571,
      "Ġshow": 1572,
      "Ġimplementation": 1573,
      "aries": 1574,
      "^{": 1575,
      "Ġunderstand": 1576,
      "Ġthings": 1577,
      "atic": 1578,
      "ĠData": 1579,
      "load": 1580,
      "\\\")": 1581,
      "ĠBy": 1582,
      "Hello": 1583,
      "Ġcent": 1584,
      "ene": 1585,
      "Ġnode": 1586,
      "Ġyears": 1587,
      "Ġaltern": 1588,
      "sions": 1589,
      "ality": 1590,
      "Ġprinc": 1591,
      "Ġz": 1592,
      "Ġleft": 1593,
      "tle": 1594,
      "Ġquest": 1595,
      "ĠHT": 1596,
      "low": 1597,
      "Ġeffect": 1598,
      "be": 1599,
      "Ġcurrent": 1600,
      "Ġreasoning": 1601,
      "inary": 1602,
      "orn": 1603,
      "Ġlog": 1604,
      "ything": 1605,
      "Ġtoo": 1606,
      "Ġnum": 1607,
      "oid": 1608,
      "Ġcontrol": 1609,
      "Ġgreat": 1610,
      "Ġ$$": 1611,
      "urs": 1612,
      "Ġav": 1613,
      "Ġstructures": 1614,
      "Ġexper": 1615,
      ".,": 1616,
      "ull": 1617,
      "Ġcare": 1618,
      "orth": 1619,
      "50": 1620,
      "Ġredu": 1621,
      "ters": 1622,
      "Ġsqu": 1623,
      "Ġarr": 1624,
      "Ġ%": 1625,
      "Ġcolle": 1626,
      "ges": 1627,
      "amed": 1628,
      "odes": 1629,
      "Ġthough": 1630,
      "oun": 1631,
      "ists": 1632,
      "Ġcar": 1633,
      "Ġ.": 1634,
      "ĠSh": 1635,
      "tain": 1636,
      "Ġwithin": 1637,
      "Ġconnect": 1638,
      "cessary": 1639,
      "Ġanother": 1640,
      "ilt": 1641,
      "asks": 1642,
      "ĠShe": 1643,
      "utes": 1644,
      "ĠWhen": 1645,
      "ML": 1646,
      "az": 1647,
      "Ġbeh": 1648,
      "Ġmaking": 1649,
      "Ġchang": 1650,
      "iment": 1651,
      "Ġmon": 1652,
      "Ġconsider": 1653,
      "par": 1654,
      "ology": 1655,
      "ĠAnd": 1656,
      "Ġincre": 1657,
      "rid": 1658,
      "Ġtoget": 1659,
      "Ġtogether": 1660,
      "Ġdon": 1661,
      "Ġwebs": 1662,
      "ave": 1663,
      "Ġmo": 1664,
      "Ġcomb": 1665,
      "ĠHowever": 1666,
      "ives": 1667,
      "Ġpath": 1668,
      "Ġclo": 1669,
      "Ġwithout": 1670,
      "Ġanswer": 1671,
      "Ġprinciple": 1672,
      "Ġposs": 1673,
      "Ġprom": 1674,
      "Ġalternative": 1675,
      "by": 1676,
      "Ġgl": 1677,
      "Ġdatab": 1678,
      "ior": 1679,
      "que": 1680,
      "til": 1681,
      "Ġlife": 1682,
      "iting": 1683,
      "kes": 1684,
      "Ġknown": 1685,
      "Ġpri": 1686,
      "ĠInt": 1687,
      "Ġart": 1688,
      "Ġmeans": 1689,
      "Ġsingle": 1690,
      "Ġcheck": 1691,
      "arget": 1692,
      "we": 1693,
      "Ġtechniques": 1694,
      "Ġeduc": 1695,
      "//": 1696,
      "ething": 1697,
      "What": 1698,
      "oci": 1699,
      "ody": 1700,
      "Ġlarge": 1701,
      "'ve": 1702,
      "vices": 1703,
      "ae": 1704,
      "Ġgoing": 1705,
      "Ġsk": 1706,
      "oad": 1707,
      "Ġthink": 1708,
      "ĠOne": 1709,
      "Ġdefine": 1710,
      "Ġduring": 1711,
      "ging": 1712,
      "Ġexplo": 1713,
      "ĠSet": 1714,
      "`:": 1715,
      "Ġtasks": 1716,
      "Ġmanip": 1717,
      "alth": 1718,
      "aving": 1719,
      "Ġhim": 1720,
      "Ġorgan": 1721,
      "loy": 1722,
      "Ġthread": 1723,
      "text": 1724,
      "://": 1725,
      "Ġgroup": 1726,
      ")\",": 1727,
      "Ġdirectory": 1728,
      "rypt": 1729,
      "Ġmet": 1730,
      "Ġsequ": 1731,
      "Ġscience": 1732,
      "Ġaddition": 1733,
      "ather": 1734,
      "arr": 1735,
      "Ġfin": 1736,
      "Ġrele": 1737,
      "Ġtree": 1738,
      "Ġ30": 1739,
      "ank": 1740,
      "Ġ```\",": 1741,
      "Ġfeatures": 1742,
      "sh": 1743,
      "Ġword": 1744,
      "log": 1745,
      "Ġfam": 1746,
      "ternal": 1747,
      "Ġaround": 1748,
      "Ġcase": 1749,
      "Ġorder": 1750,
      "irc": 1751,
      "PI": 1752,
      "Ġess": 1753,
      "Ġmuch": 1754,
      "Ġsug": 1755,
      "Ġsystems": 1756,
      "Ġuses": 1757,
      "Ġ>": 1758,
      "ccess": 1759,
      "Ġ**": 1760,
      "Ġsize": 1761,
      "Ġcolum": 1762,
      "Ġnecessary": 1763,
      "amp": 1764,
      "ĠPl": 1765,
      "Ġ198": 1766,
      "sc": 1767,
      "\\\".": 1768,
      "ĠReferences": 1769,
      "face": 1770,
      "Ġreally": 1771,
      "ism": 1772,
      "Ġ<<": 1773,
      "Ġhour": 1774,
      "ĠUse": 1775,
      "rodu": 1776,
      "Ġconstant": 1777,
      "Ġwebsite": 1778,
      "Ġru": 1779,
      "Ġbl": 1780,
      "Ġreturns": 1781,
      "xim": 1782,
      "Ġeng": 1783,
      "outh": 1784,
      "Ġsomething": 1785,
      "ats": 1786,
      "Ġtry": 1787,
      "Ġsorted": 1788,
      "Ġ\"```": 1789,
      "ĠCl": 1790,
      "Ġinitial": 1791,
      "yz": 1792,
      "Ġteam": 1793,
      "uments": 1794,
      "orning": 1795,
      "ĠInstall": 1796,
      "Ġmus": 1797,
      "ote": 1798,
      "Ġremain": 1799,
      "Ġsay": 1800,
      "Ġarea": 1801,
      "ource": 1802,
      "lish": 1803,
      "Ġ15": 1804,
      "ger": 1805,
      "ted": 1806,
      "bo": 1807,
      "Ġpract": 1808,
      "ah": 1809,
      "ots": 1810,
      "Ġcalculate": 1811,
      "Ġserver": 1812,
      "Ġpoints": 1813,
      "Ġselect": 1814,
      "Ġsection": 1815,
      "less": 1816,
      "gin": 1817,
      "Ġstre": 1818,
      "Ġsteps": 1819,
      "ouse": 1820,
      "ead": 1821,
      "Ġocc": 1822,
      "Ġimprove": 1823,
      "enc": 1824,
      "Ġscri": 1825,
      "Ġinvolves": 1826,
      "ĠCan": 1827,
      "right": 1828,
      "Ġscript": 1829,
      "ivid": 1830,
      "Ġmessage": 1831,
      "rame": 1832,
      "Ġwriting": 1833,
      "Ġobjects": 1834,
      "hemat": 1835,
      "Ġoutput": 1836,
      "ml": 1837,
      "aut": 1838,
      "oring": 1839,
      "ources": 1840,
      "Ġprinciples": 1841,
      "Ġtri": 1842,
      "fact": 1843,
      "Ġbreak": 1844,
      "ĠAmerican": 1845,
      "Ġtarget": 1846,
      "the": 1847,
      "Ġadv": 1848,
      "Ġnext": 1849,
      "ek": 1850,
      "uted": 1851,
      "icial": 1852,
      "Ġuntil": 1853,
      "ane": 1854,
      "play": 1855,
      "Ġseries": 1856,
      "view": 1857,
      "Ġide": 1858,
      "],": 1859,
      "Ġmatrix": 1860,
      "ey": 1861,
      "Ġconsist": 1862,
      "avas": 1863,
      "ird": 1864,
      "Ġfield": 1865,
      "Ġmis": 1866,
      "Ġtem": 1867,
      "Ġamount": 1868,
      "iness": 1869,
      "Ġgra": 1870,
      "ope": 1871,
      "avascript": 1872,
      "Ġdid": 1873,
      "Ġuni": 1874,
      "Ġinf": 1875,
      "Ġrequest": 1876,
      "Ġelse": 1877,
      "man": 1878,
      "ĠCons": 1879,
      "ĠIs": 1880,
      "Ġoften": 1881,
      "aces": 1882,
      "ren": 1883,
      "ule": 1884,
      "12": 1885,
      "ense": 1886,
      "ĠOnce": 1887,
      "Ġ100": 1888,
      "ĠSp": 1889,
      "set": 1890,
      "amb": 1891,
      "Ġdeterm": 1892,
      "Ġsuggest": 1893,
      "ĠFl": 1894,
      "Ġcertain": 1895,
      "onest": 1896,
      "Ġrole": 1897,
      "Ġpot": 1898,
      "inks": 1899,
      "Ġtools": 1900,
      "ĠUnited": 1901,
      "alled": 1902,
      "math": 1903,
      "Ġdeb": 1904,
      "oin": 1905,
      "ĠCol": 1906,
      "Ġbest": 1907,
      "Th": 1908,
      "Ġdistrib": 1909,
      "sole": 1910,
      "Ġmach": 1911,
      "Ġbuilt": 1912,
      "ails": 1913,
      "Ġrece": 1914,
      "gy": 1915,
      "erest": 1916,
      "Ġessential": 1917,
      "ively": 1918,
      "ered": 1919,
      "Ġsolve": 1920,
      "Ġcomponents": 1921,
      "ohn": 1922,
      "à¥": 1923,
      "Ġdatabase": 1924,
      "Ġnamed": 1925,
      "ĠComm": 1926,
      "ament": 1927,
      "Ġevent": 1928,
      "ĠEng": 1929,
      "Ġself": 1930,
      "ann": 1931,
      "dio": 1932,
      "ints": 1933,
      "ĠOpen": 1934,
      "Ġoffer": 1935,
      "search": 1936,
      "ety": 1937,
      "Here": 1938,
      "=\\\"": 1939,
      "Ġmorning": 1940,
      "Ġpopular": 1941,
      "lying": 1942,
      "Ġà¤": 1943,
      "add": 1944,
      "Ġindex": 1945,
      "pos": 1946,
      "au": 1947,
      "Ġmark": 1948,
      "Ġlove": 1949,
      "Ġtimes": 1950,
      "Ġthose": 1951,
      "word": 1952,
      "Ġmakes": 1953,
      "ocus": 1954,
      "istory": 1955,
      "Ġmar": 1956,
      "Ġproblems": 1957,
      "Ġoriginal": 1958,
      "ici": 1959,
      "ty": 1960,
      "Ġfilm": 1961,
      "Ġtalk": 1962,
      "19": 1963,
      "Ġrelations": 1964,
      "ade": 1965,
      "over": 1966,
      "entiment": 1967,
      "Ġrepresents": 1968,
      "Ġlocal": 1969,
      "ified": 1970,
      "li": 1971,
      "Ġhead": 1972,
      "di": 1973,
      "In": 1974,
      "Ġrunning": 1975,
      "Ġmulti": 1976,
      "Ġprot": 1977,
      "Ġpol": 1978,
      "asure": 1979,
      "Ġchild": 1980,
      "cing": 1981,
      "}$": 1982,
      "ĠZ": 1983,
      "ĠNode": 1984,
      "Ġprof": 1985,
      "ĠReact": 1986,
      "Ġsoft": 1987,
      "Ġwater": 1988,
      "Ġflow": 1989,
      "ape": 1990,
      "Ġwonderful": 1991,
      "let": 1992,
      "Ġnever": 1993,
      "Ġlim": 1994,
      "Ġbuilding": 1995,
      "ĠAPI": 1996,
      "Ġage": 1997,
      "Ġworking": 1998,
      "ĠWh": 1999,
      "plit": 2000,
      "Ġnodes": 2001,
      "Ġ25": 2002,
      "Ġbinary": 2003,
      "Ġnp": 2004,
      "Ġfactors": 2005,
      "Ġhappy": 2006,
      "Ġproperties": 2007,
      "Ġthanks": 2008,
      "Ġiss": 2009,
      "Ġexplore": 2010,
      "Ġfiles": 2011,
      "rict": 2012,
      "ĠLe": 2013,
      "QL": 2014,
      "inu": 2015,
      "Ġ197": 2016,
      "Ġcharacter": 2017,
      "Ġsynt": 2018,
      "ators": 2019,
      "_{": 2020,
      "Ġ16": 2021,
      "Ġindivid": 2022,
      "Ġsince": 2023,
      "Ġgcd": 2024,
      "Ġversion": 2025,
      "Ġfeeling": 2026,
      "igure": 2027,
      "ĠThat": 2028,
      "Ġrow": 2029,
      "Ġcomplexity": 2030,
      "htt": 2031,
      "ĠImplement": 2032,
      "Ġcho": 2033,
      "Ġinstalled": 2034,
      "javascript": 2035,
      "ences": 2036,
      "Ġpossible": 2037,
      "Ġdatas": 2038,
      "Ġwide": 2039,
      "atch": 2040,
      "Ġshort": 2041,
      "ĠCreating": 2042,
      "Ġfactor": 2043,
      "ĠCal": 2044,
      "itor": 2045,
      "ems": 2046,
      "Ġcapitalize": 2047,
      "Ġfocus": 2048,
      "Ġ==": 2049,
      "urn": 2050,
      "ĠUsing": 2051,
      "Ġnon": 2052,
      "Ġtechn": 2053,
      "itle": 2054,
      "ants": 2055,
      "Ġchat": 2056,
      "Ġsignific": 2057,
      "How": 2058,
      "ĠHTML": 2059,
      "Ġbusy": 2060,
      "ball": 2061,
      "Ġboo": 2062,
      "Ġfund": 2063,
      "Ġlit": 2064,
      "Ġrelationship": 2065,
      "Ġlearn": 2066,
      "gle": 2067,
      "ature": 2068,
      "Ġchange": 2069,
      "Ġfour": 2070,
      "Ġinterest": 2071,
      "Ġpair": 2072,
      "Ġever": 2073,
      "ĠMy": 2074,
      "Ġwa": 2075,
      "bum": 2076,
      "ional": 2077,
      "ĠBut": 2078,
      "Ġmathemat": 2079,
      "Ġlay": 2080,
      "Ġestab": 2081,
      "verage": 2082,
      "Ġmight": 2083,
      "head": 2084,
      "ides": 2085,
      "Ġusage": 2086,
      "Ġposition": 2087,
      "ĠSome": 2088,
      "IO": 2089,
      "Ġindividual": 2090,
      "sed": 2091,
      "ym": 2092,
      "Ġlevel": 2093,
      "Ġparalle": 2094,
      "Ġuseful": 2095,
      "rie": 2096,
      "Ġlinear": 2097,
      "cture": 2098,
      "anced": 2099,
      "Ġdra": 2100,
      "rand": 2101,
      "ograph": 2102,
      "lished": 2103,
      "Ġmust": 2104,
      "Ġconstra": 2105,
      "Ġmid": 2106,
      "ently": 2107,
      "ches": 2108,
      "alse": 2109,
      "eting": 2110,
      "Ġcru": 2111,
      "ynam": 2112,
      "ĠOn": 2113,
      "sentiment": 2114,
      "Ġless": 2115,
      "Ġunderstanding": 2116,
      "Ġmove": 2117,
      "ĠCS": 2118,
      "ĠOut": 2119,
      "andas": 2120,
      "ww": 2121,
      "Ġadj": 2122,
      "To": 2123,
      "back": 2124,
      "Ġclasses": 2125,
      "Ġprob": 2126,
      "Ġsyntax": 2127,
      "ĠEn": 2128,
      "Ġgrow": 2129,
      "por": 2130,
      "Ġsw": 2131,
      "ĠConsider": 2132,
      "Ġconsole": 2133,
      "Ġcontent": 2134,
      "Ġdocument": 2135,
      "Ġlinks": 2136,
      "Ġlength": 2137,
      "Ġanalyz": 2138,
      "Ġhonest": 2139,
      "string": 2140,
      "ĠGre": 2141,
      "for": 2142,
      "Ġlibraries": 2143,
      "gs": 2144,
      "ĠInd": 2145,
      "Ġvisual": 2146,
      "Ġeducational": 2147,
      "Ġstory": 2148,
      "ocial": 2149,
      "versity": 2150,
      "Ġerror": 2151,
      "unction": 2152,
      "Ġpur": 2153,
      "Ġreverse": 2154,
      "Ġresults": 2155,
      "PU": 2156,
      "Ġdesigned": 2157,
      "Ġsaid": 2158,
      "indow": 2159,
      "gre": 2160,
      "ilar": 2161,
      "round": 2162,
      "Ġglad": 2163,
      "Ġsuccess": 2164,
      "onse": 2165,
      "Ġstill": 2166,
      "Ġensure": 2167,
      "Ġmachine": 2168,
      "Ġhandle": 2169,
      "Ġpowerful": 2170,
      "Ġequation": 2171,
      "Ġhealth": 2172,
      "vious": 2173,
      "ering": 2174,
      "Ġconver": 2175,
      "Ġupd": 2176,
      "Ġkeep": 2177,
      "amet": 2178,
      "Ġtop": 2179,
      "Ġpotential": 2180,
      "ĠWorld": 2181,
      "Ġschool": 2182,
      "ived": 2183,
      "Ġsequence": 2184,
      "Ġalong": 2185,
      "ĠCount": 2186,
      "ture": 2187,
      "ration": 2188,
      "Ġbro": 2189,
      "ights": 2190,
      "ĠStates": 2191,
      "ĠAdd": 2192,
      "aring": 2193,
      "Ġgot": 2194,
      "Ġsoftware": 2195,
      "Ġsound": 2196,
      "Ġhum": 2197,
      "Ġtell": 2198,
      "Ġidentify": 2199,
      "Ġear": 2200,
      "Ġview": 2201,
      "Ġdays": 2202,
      "Ġcomponent": 2203,
      "Ġ--": 2204,
      "Ġstudents": 2205,
      "tml": 2206,
      "hor": 2207,
      "pend": 2208,
      "Ġprocessing": 2209,
      "Ġsquare": 2210,
      "':": 2211,
      "words": 2212,
      "ero": 2213,
      "ury": 2214,
      "Ġrespons": 2215,
      "me": 2216,
      "Ġofficial": 2217,
      "lie": 2218,
      "ĠSer": 2219,
      "point": 2220,
      "ĠStu": 2221,
      "ĠFirst": 2222,
      "not": 2223,
      "avig": 2224,
      "arent": 2225,
      "ploy": 2226,
      "Ġrest": 2227,
      "Ġple": 2228,
      "}\\\\": 2229,
      "ĠAt": 2230,
      "Ġhelps": 2231,
      "Ġsym": 2232,
      "</": 2233,
      "Ġmanagement": 2234,
      "Ġlot": 2235,
      "ĠAfter": 2236,
      "ener": 2237,
      "Ġside": 2238,
      "Ġdepending": 2239,
      "ĠRead": 2240,
      "Ġdem": 2241,
      "ories": 2242,
      "Ġpackage": 2243,
      "Ġcompany": 2244,
      "Ġplace": 2245,
      "Ġarch": 2246,
      "ĠApp": 2247,
      "Ġtrue": 2248,
      "oose": 2249,
      "Ġbene": 2250,
      "ov": 2251,
      "chie": 2252,
      "iate": 2253,
      "Ġimage": 2254,
      "ention": 2255,
      "ĠSince": 2256,
      "Ġalbum": 2257,
      "Ġ11": 2258,
      "Ġdistance": 2259,
      "ilities": 2260,
      "Ġbehav": 2261,
      "anks": 2262,
      "())": 2263,
      "ĠUni": 2264,
      "llo": 2265,
      "Ġstatement": 2266,
      "Ġbusiness": 2267,
      "Ġlast": 2268,
      "Ġsignificant": 2269,
      "Ġpositive": 2270,
      "ĠPr": 2271,
      "Ġcour": 2272,
      "AE": 2273,
      "Ġiter": 2274,
      "ivity": 2275,
      "Ġaddress": 2276,
      "Ġtool": 2277,
      "Ġlab": 2278,
      "ush": 2279,
      "Ġhome": 2280,
      "Ġplan": 2281,
      "Ġhig": 2282,
      "Ġcrucial": 2283,
      "Ġlook": 2284,
      "sq": 2285,
      "part": 2286,
      "ĠDes": 2287,
      "Ġhold": 2288,
      "ouble": 2289,
      "Ġcolor": 2290,
      "requ": 2291,
      "cap": 2292,
      "yle": 2293,
      "encies": 2294,
      ")$": 2295,
      "clude": 2296,
      "ination": 2297,
      "Ġhours": 2298,
      "Ġconstraints": 2299,
      "numb": 2300,
      "Ġdecl": 2301,
      "Ġminim": 2302,
      "new": 2303,
      "ĠSchool": 2304,
      "Ġstation": 2305,
      "Ġavail": 2306,
      "Ġ14": 2307,
      "Ġsimilar": 2308,
      "Ġmaintain": 2309,
      "ynamic": 2310,
      "Ġ196": 2311,
      "tra": 2312,
      "Ġintegers": 2313,
      "Ġletter": 2314,
      "Ġimpact": 2315,
      "Ġassist": 2316,
      "DE": 2317,
      "ĠYour": 2318,
      "Just": 2319,
      "cel": 2320,
      "ĠWith": 2321,
      "Ġpattern": 2322,
      "Ġlater": 2323,
      "Ġassign": 2324,
      "min": 2325,
      "'d": 2326,
      "ken": 2327,
      "Ġspecial": 2328,
      "Ġfamily": 2329,
      "ĠCar": 2330,
      "ma": 2331,
      "ta": 2332,
      "Ġmind": 2333,
      "Ġterms": 2334,
      "Ġvery": 2335,
      "plic": 2336,
      "Ġden": 2337,
      "iou": 2338,
      "inally": 2339,
      "Ġequal": 2340,
      "of": 2341,
      "uss": 2342,
      "file": 2343,
      "Ġwords": 2344,
      "ĠExternal": 2345,
      "Ġinterface": 2346,
      "Ġchanges": 2347,
      "Ġbrow": 2348,
      "Ġbenef": 2349,
      "bers": 2350,
      "ries": 2351,
      "Ġcur": 2352,
      "lex": 2353,
      "Ġflo": 2354,
      "Ġrequire": 2355,
      "Ġgive": 2356,
      "ulate": 2357,
      "Ġ\\\\(": 2358,
      "ream": 2359,
      "ĠMan": 2360,
      "])": 2361,
      "Ġquestion": 2362,
      "Ġroot": 2363,
      "Ġaw": 2364,
      "Ġdescri": 2365,
      "aeiou": 2366,
      "Ġunique": 2367,
      "Ġachie": 2368,
      "Ġrout": 2369,
      "Ġarguments": 2370,
      "bal": 2371,
      "Ġchalle": 2372,
      "vowels": 2373,
      "Ġput": 2374,
      "ĠTe": 2375,
      "based": 2376,
      "angle": 2377,
      "IOU": 2378,
      "Ġstd": 2379,
      "iving": 2380,
      "AEIOU": 2381,
      "aeiouAEIOU": 2382,
      "ression": 2383,
      "Ġcr": 2384,
      "Ġprevious": 2385,
      "iss": 2386,
      "Ġdig": 2387,
      "ances": 2388,
      "side": 2389,
      "left": 2390,
      "Ġincludes": 2391,
      "ither": 2392,
      "ĠRem": 2393,
      "wards": 2394,
      ">>": 2395,
      "Ġhard": 2396,
      "ls": 2397,
      "25": 2398,
      "ends": 2399,
      "That": 2400,
      "...": 2401,
      "Ġoptimization": 2402,
      "Ġ->": 2403,
      "ynch": 2404,
      "co": 2405,
      "Ġ50": 2406,
      "come": 2407,
      "str": 2408,
      "Ġvert": 2409,
      "inter": 2410,
      "omet": 2411,
      "ik": 2412,
      "ording": 2413,
      "Ġbegin": 2414,
      "oot": 2415,
      "ference": 2416,
      "Ġminutes": 2417,
      "Ġlight": 2418,
      "Ġhaving": 2419,
      "ĠSetting": 2420,
      "Ġtrack": 2421,
      "Ġcollection": 2422,
      "ĠEach": 2423,
      "Ġsl": 2424,
      "ĠThen": 2425,
      "oney": 2426,
      "ĠBefore": 2427,
      "Ġdri": 2428,
      "ending": 2429,
      ",\\\"": 2430,
      "Ġcirc": 2431,
      "Ġsmaller": 2432,
      "Ġloop": 2433,
      "();": 2434,
      "ledge": 2435,
      "Ġexist": 2436,
      "Ġfew": 2437,
      "Ġexpression": 2438,
      "alf": 2439,
      "da": 2440,
      "ĠOr": 2441,
      "Ġdue": 2442,
      "Ġabove": 2443,
      "oss": 2444,
      "Ġpresent": 2445,
      "Ġneeded": 2446,
      "Ġener": 2447,
      "Ġdeal": 2448,
      "iles": 2449,
      "!\\\"": 2450,
      "ĠTake": 2451,
      "ularly": 2452,
      "Ġcomplete": 2453,
      "Ġweek": 2454,
      "ynchron": 2455,
      "Let": 2456,
      "org": 2457,
      "Ġmeaning": 2458,
      "ĠAust": 2459,
      "vest": 2460,
      "Ġthought": 2461,
      "AT": 2462,
      "Ġsong": 2463,
      "Ġanim": 2464,
      "Ġmodule": 2465,
      "Ġresponse": 2466,
      "ium": 2467,
      "Ġsit": 2468,
      "Ġsent": 2469,
      "dle": 2470,
      "Ġstarted": 2471,
      "join": 2472,
      "Ġsocial": 2473,
      "atform": 2474,
      "rec": 2475,
      "Ġfeature": 2476,
      "Ġexecution": 2477,
      "Hey": 2478,
      "Ġmodels": 2479,
      "Ġavailable": 2480,
      "Ġdataset": 2481,
      "Ġaff": 2482,
      "Ġfore": 2483,
      "Ġ13": 2484,
      "(\\\\": 2485,
      "plot": 2486,
      "Ġmom": 2487,
      "Ġred": 2488,
      "ĠPh": 2489,
      "cs": 2490,
      "Ġresearch": 2491,
      "rt": 2492,
      "Ġarrays": 2493,
      "upp": 2494,
      "Ġcity": 2495,
      "Ġcolumn": 2496,
      "Ġmaxim": 2497,
      "Ġ40": 2498,
      "Ġold": 2499,
      "med": 2500,
      "Ġresources": 2501,
      "apt": 2502,
      "Ġexperience": 2503,
      "Ġacross": 2504,
      "key": 2505,
      "Ġ17": 2506,
      "Ġcontains": 2507,
      "Ġneeds": 2508,
      "Ġenergy": 2509,
      "ĠCounty": 2510,
      "ret": 2511,
      "Ġparallel": 2512,
      "ĠOutput": 2513,
      "terns": 2514,
      "Ġpie": 2515,
      "Ġpred": 2516,
      "Ġarchite": 2517,
      "pping": 2518,
      "Ġeasier": 2519,
      "ards": 2520,
      "ĠComp": 2521,
      "oding": 2522,
      "Ġdebug": 2523,
      "Ġstack": 2524,
      "Ġnavig": 2525,
      "Frame": 2526,
      "Ġexcept": 2527,
      "Ġparamet": 2528,
      "Ġinteract": 2529,
      "value": 2530,
      "sp": 2531,
      "fe": 2532,
      "Ġautom": 2533,
      "ault": 2534,
      "ĠYork": 2535,
      "Ġinteger": 2536,
      "isp": 2537,
      "Ġmusic": 2538,
      "Ġstrateg": 2539,
      "array": 2540,
      "ĠUniversity": 2541,
      "Ġspeed": 2542,
      "urity": 2543,
      "cal": 2544,
      "Ġlow": 2545,
      "40": 2546,
      "html": 2547,
      "Ġerrors": 2548,
      "Ġbox": 2549,
      "here": 2550,
      "mathb": 2551,
      "ided": 2552,
      "ango": 2553,
      "15": 2554,
      "Ġfundament": 2555,
      "ills": 2556,
      "istic": 2557,
      "ised": 2558,
      "ĠRec": 2559,
      "https": 2560,
      "icro": 2561,
      "Ġvector": 2562,
      "ĠBrit": 2563,
      "Ġconcepts": 2564,
      "ged": 2565,
      "Ġothers": 2566,
      "Ġsepar": 2567,
      "Ġpriv": 2568,
      "ĠDef": 2569,
      "ighb": 2570,
      "Ġaverage": 2571,
      "uro": 2572,
      "Ġmanage": 2573,
      "Ġelect": 2574,
      "ĠGe": 2575,
      "Ġdefined": 2576,
      "oon": 2577,
      "Ġpatterns": 2578,
      "**:": 2579,
      "Ġbring": 2580,
      "ĠCont": 2581,
      "ables": 2582,
      "Ġintrodu": 2583,
      "Ġterminal": 2584,
      "Ġlists": 2585,
      "Ġtru": 2586,
      "Ġpost": 2587,
      "avor": 2588,
      "andom": 2589,
      "ramew": 2590,
      "ramework": 2591,
      "uine": 2592,
      "Ġmonth": 2593,
      "Ġmag": 2594,
      "Ġpip": 2595,
      "java": 2596,
      "Ġexact": 2597,
      "Ġexamples": 2598,
      "aster": 2599,
      "Ġcoll": 2600,
      "{\\\\": 2601,
      "eep": 2602,
      "Ġair": 2603,
      "200": 2604,
      "Ġopp": 2605,
      "ĠBu": 2606,
      "ĠList": 2607,
      "ply": 2608,
      "oud": 2609,
      "Ġconditions": 2610,
      "Ġcharacters": 2611,
      "Ġhandling": 2612,
      "print": 2613,
      "ĠTra": 2614,
      "def": 2615,
      "alu": 2616,
      "iver": 2617,
      "Ġwaiting": 2618,
      "ĠSouth": 2619,
      "Ġvs": 2620,
      "ĠJohn": 2621,
      "Ġbehavior": 2622,
      "ĠRub": 2623,
      "Ġ</": 2624,
      "aps": 2625,
      "ips": 2626,
      "Ġsure": 2627,
      "split": 2628,
      "oing": 2629,
      "resp": 2630,
      "etic": 2631,
      "Ġgover": 2632,
      "fer": 2633,
      "Ġbody": 2634,
      "ĠMat": 2635,
      "Ġbig": 2636,
      "Ġpage": 2637,
      "Ġstat": 2638,
      "sol": 2639,
      "order": 2640,
      "urther": 2641,
      "lev": 2642,
      "30": 2643,
      "ĠCo": 2644,
      "Ġgoal": 2645,
      "ĠHigh": 2646,
      "Ġder": 2647,
      "Ġknowledge": 2648,
      "Ġgreater": 2649,
      "Ġdefin": 2650,
      "che": 2651,
      "Ġload": 2652,
      "cpp": 2653,
      "Ġsets": 2654,
      "ley": 2655,
      "Ġtask": 2656,
      "ĠBl": 2657,
      "cle": 2658,
      "Ġcontinu": 2659,
      "Ġtechnique": 2660,
      "ĠSee": 2661,
      "ĠAustral": 2662,
      "Ġgenuine": 2663,
      "ee": 2664,
      "Ġ'.": 2665,
      "Ġnumer": 2666,
      "ĠAss": 2667,
      "ype": 2668,
      "Ġrespect": 2669,
      "Ġusers": 2670,
      "yl": 2671,
      "80": 2672,
      "Ġedges": 2673,
      "ĠNext": 2674,
      "bed": 2675,
      "rans": 2676,
      "Ġgames": 2677,
      "Ġevents": 2678,
      "11": 2679,
      "Ġdisplay": 2680,
      "include": 2681,
      "Ġways": 2682,
      "Ġsuper": 2683,
      "anging": 2684,
      "$$": 2685,
      "ST": 2686,
      "Ġappear": 2687,
      "irtu": 2688,
      "Ġvertices": 2689,
      "Ġcross": 2690,
      "Ġfix": 2691,
      "Ġsense": 2692,
      "ĠRes": 2693,
      "Ġdynamic": 2694,
      "Ġengine": 2695,
      "bit": 2696,
      "Ġservice": 2697,
      "ache": 2698,
      "ĠGo": 2699,
      "Ġweight": 2700,
      "ĠEm": 2701,
      "ĠVis": 2702,
      "TP": 2703,
      "ott": 2704,
      "roll": 2705,
      "Ġblocks": 2706,
      "Ġmembers": 2707,
      "jango": 2708,
      "Ġprovided": 2709,
      "roid": 2710,
      "Ġexpect": 2711,
      "ĠWest": 2712,
      "Ġbase": 2713,
      "Ġsto": 2714,
      "col": 2715,
      "Ġquant": 2716,
      "\\\":": 2717,
      "ift": 2718,
      "Ġgenuinely": 2719,
      "Ġemploy": 2720,
      "OM": 2721,
      "Ġphys": 2722,
      "ĠMar": 2723,
      "Ġmatch": 2724,
      "aking": 2725,
      "und": 2726,
      "ires": 2727,
      "nment": 2728,
      "factual": 2729,
      "Ġland": 2730,
      "Ġservices": 2731,
      "Ġpay": 2732,
      "Ġport": 2733,
      "Ġconne": 2734,
      "Ġisn": 2735,
      "ET": 2736,
      "Ġmer": 2737,
      "eff": 2738,
      "ster": 2739,
      "Ġevalu": 2740,
      "Ġeverything": 2741,
      "Ġalloc": 2742,
      "ĠNational": 2743,
      "Ġ=>": 2744,
      "ina": 2745,
      "ĠNe": 2746,
      "14": 2747,
      "Ġissues": 2748,
      "Ġsumm": 2749,
      "Ġlate": 2750,
      "rate": 2751,
      "Ġaway": 2752,
      "Ġcommunication": 2753,
      "ĠRuby": 2754,
      "ĠExample": 2755,
      "Ġbecome": 2756,
      "iful": 2757,
      "ibility": 2758,
      "ney": 2759,
      "Ġes": 2760,
      "Ġplatform": 2761,
      "Ġcover": 2762,
      "Ġmissing": 2763,
      "list": 2764,
      "erial": 2765,
      "bash": 2766,
      "ĠPar": 2767,
      "Ġlocated": 2768,
      "ĠImplementing": 2769,
      "sum": 2770,
      "lection": 2771,
      "Ġassoci": 2772,
      "ambda": 2773,
      "Ġbra": 2774,
      "Ġplot": 2775,
      "Ġsorting": 2776,
      "csv": 2777,
      "Ġaccount": 2778,
      "jor": 2779,
      "Ġchalleng": 2780,
      "ln": 2781,
      "Ġpersonal": 2782,
      "Ġquestions": 2783,
      "Ġparent": 2784,
      "Ġcontext": 2785,
      "Ġcomputing": 2786,
      "ok": 2787,
      "Ġhigher": 2788,
      "ĠNorth": 2789,
      "autiful": 2790,
      "Ġtechnology": 2791,
      "dd": 2792,
      "--------": 2793,
      "ĠOver": 2794,
      "Ġeither": 2795,
      "Ġattrib": 2796,
      "ĠPer": 2797,
      "ideo": 2798,
      "Ġfree": 2799,
      "60": 2800,
      "Ġbal": 2801,
      "Ġinstead": 2802,
      "aves": 2803,
      "conom": 2804,
      "Ġge": 2805,
      "ĠFlask": 2806,
      "ala": 2807,
      "Ġbook": 2808,
      "Ġoperation": 2809,
      "lice": 2810,
      "Ġeasy": 2811,
      "Ġreduce": 2812,
      "ĠReady": 2813,
      "ĠTherefore": 2814,
      "pple": 2815,
      "Ġyourself": 2816,
      "Ġcompil": 2817,
      "pri": 2818,
      "ĠSystem": 2819,
      "Ġlink": 2820,
      "Ġfundamental": 2821,
      "Ġhuman": 2822,
      "Ġrandom": 2823,
      "imen": 2824,
      "Ġhear": 2825,
      "ĠAm": 2826,
      "ĠCent": 2827,
      "alls": 2828,
      "Ġfood": 2829,
      "Ġparticularly": 2830,
      "Ġcome": 2831,
      "Ġ,": 2832,
      "Ġhalf": 2833,
      "Ġargument": 2834,
      "lu": 2835,
      "Ġtrees": 2836,
      "ĠRep": 2837,
      "Ġthird": 2838,
      "Ġformat": 2839,
      "Ġtravel": 2840,
      "idth": 2841,
      "Ġonce": 2842,
      "ically": 2843,
      "Ġtw": 2844,
      "ĠSim": 2845,
      "Ġfrequ": 2846,
      "ula": 2847,
      "Ġintern": 2848,
      "Ġfollows": 2849,
      "Ġdifference": 2850,
      "omm": 2851,
      "Ġfactorial": 2852,
      "capitalize": 2853,
      "aced": 2854,
      "esome": 2855,
      "Ġarchitecture": 2856,
      "ĠPy": 2857,
      "ounter": 2858,
      "Ġagainst": 2859,
      "Ġrepl": 2860,
      "Ġinvest": 2861,
      "Ġfoot": 2862,
      "Ġprograms": 2863,
      "Ġvoid": 2864,
      "Ġadjac": 2865,
      "100": 2866,
      "sqrt": 2867,
      "It": 2868,
      "Ġtransform": 2869,
      "ended": 2870,
      "Ġprim": 2871,
      "Ġfinding": 2872,
      "CT": 2873,
      "book": 2874,
      "Ġband": 2875,
      "Ġconstru": 2876,
      "Ġtesting": 2877,
      "Ġbenefits": 2878,
      "Ġitems": 2879,
      "wise": 2880,
      "Ġareas": 2881,
      "itch": 2882,
      "Ġfull": 2883,
      "Ġbelie": 2884,
      "ĠOb": 2885,
      "Ġentire": 2886,
      "Ġimportance": 2887,
      "Ġearly": 2888,
      "Ġneg": 2889,
      "Ġeditor": 2890,
      "ync": 2891,
      "Ġexplain": 2892,
      "Ġfinal": 2893,
      "ana": 2894,
      "pically": 2895,
      "lobal": 2896,
      "ĠLisp": 2897,
      "Ġgives": 2898,
      "irtual": 2899,
      "Ġbecame": 2900,
      "Ġpa": 2901,
      "Ġdownload": 2902,
      "Ġplayers": 2903,
      "Ġ24": 2904,
      "stra": 2905,
      "ĠReg": 2906,
      "dent": 2907,
      "izes": 2908,
      "ĠCanad": 2909,
      "Ġallowing": 2910,
      "Ġanalyze": 2911,
      "ĠRed": 2912,
      "Ġadditional": 2913,
      "ison": 2914,
      "Ġidea": 2915,
      "Ġque": 2916,
      "Ġjob": 2917,
      "Ġparticular": 2918,
      "enn": 2919,
      "ises": 2920,
      "omen": 2921,
      "Ġcrit": 2922,
      "uck": 2923,
      "Ġleast": 2924,
      "Ġframework": 2925,
      "Ġsource": 2926,
      "rist": 2927,
      "Ġrecord": 2928,
      "down": 2929,
      "ĠDi": 2930,
      "iled": 2931,
      "Ġwhether": 2932,
      "Ġawesome": 2933,
      "Ġdeep": 2934,
      "ĠUS": 2935,
      "process": 2936,
      "uture": 2937,
      "cent": 2938,
      "Ġneighb": 2939,
      "ogn": 2940,
      "ĠDist": 2941,
      "Ġpd": 2942,
      "ĠEl": 2943,
      "Ġsat": 2944,
      "ones": 2945,
      "Ġregular": 2946,
      "pped": 2947,
      "ĠFe": 2948,
      "Ġreach": 2949,
      "ume": 2950,
      "ĠWeb": 2951,
      "tex": 2952,
      "fully": 2953,
      "imate": 2954,
      "Ġguide": 2955,
      "ĠBritish": 2956,
      "ox": 2957,
      "Ġmathematical": 2958,
      "Ġinstance": 2959,
      "omes": 2960,
      "Ġdistribution": 2961,
      "ising": 2962,
      "AB": 2963,
      "Ġindust": 2964,
      "ĠJust": 2965,
      "Ġrecurs": 2966,
      "Ġshare": 2967,
      "Ġquick": 2968,
      "rop": 2969,
      "Ġreleased": 2970,
      "respond": 2971,
      "Ġstrong": 2972,
      "Ġcommunity": 2973,
      "hern": 2974,
      "Ġzero": 2975,
      "ĠMay": 2976,
      "Ġdependencies": 2977,
      "test": 2978,
      "Ġproperty": 2979,
      "Ġexecuted": 2980,
      "like": 2981,
      "agine": 2982,
      "ĠCSS": 2983,
      "Ġpython": 2984,
      "Ġwritten": 2985,
      "ĠState": 2986,
      "Ġconfig": 2987,
      "sel": 2988,
      "Ġlittle": 2989,
      "Ġmoney": 2990,
      "dex": 2991,
      "Ġindepend": 2992,
      "Ġhy": 2993,
      "Ġtypically": 2994,
      "Ġreason": 2995,
      "ares": 2996,
      "imal": 2997,
      "ography": 2998,
      "Ġfollowed": 2999,
      "ĠStudio": 3000,
      "Ġplayer": 3001,
      "ĠAll": 3002,
      "];": 3003,
      "Ġthing": 3004,
      "Ġstudy": 3005,
      "An": 3006,
      "Ġcorrespond": 3007,
      "Ġstatements": 3008,
      "Ġsolutions": 3009,
      "Ch": 3010,
      "ĠCity": 3011,
      "Ġsal": 3012,
      "Ġactiv": 3013,
      "ification": 3014,
      "Ġrepresented": 3015,
      "Ġprivate": 3016,
      "sequ": 3017,
      "duct": 3018,
      "ĠChe": 3019,
      "iven": 3020,
      "Ġchildren": 3021,
      "Ġbasics": 3022,
      "Ġcalculates": 3023,
      "cast": 3024,
      "pi": 3025,
      "Ġrate": 3026,
      "Ġfriends": 3027,
      "Ġclose": 3028,
      "Ġexpl": 3029,
      "otal": 3030,
      "otes": 3031,
      "Ġaud": 3032,
      "Ġinsert": 3033,
      "Ġmaximum": 3034,
      "ĠDo": 3035,
      "Ġrows": 3036,
      "ĠDon": 3037,
      "RE": 3038,
      "ror": 3039,
      "Ġdouble": 3040,
      "iciency": 3041,
      "bra": 3042,
      "Ġadding": 3043,
      "Ġsomeone": 3044,
      "Ġamong": 3045,
      "Ġcourse": 3046,
      "Ġencrypt": 3047,
      "Ġable": 3048,
      "Ġbound": 3049,
      ")^": 3050,
      "Ġgroups": 3051,
      "Ġinstructions": 3052,
      "Ġgenerate": 3053,
      "Ġmanipulation": 3054,
      "Ġexpressions": 3055,
      "Ġthreads": 3056,
      "Doing": 3057,
      "iding": 3058,
      "Ġdetermine": 3059,
      "Ġtradition": 3060,
      "usion": 3061,
      "ils": 3062,
      "Ġnear": 3063,
      "Ġbit": 3064,
      "Ġtaking": 3065,
      "Ġmedia": 3066,
      "Ġnorm": 3067,
      "As": 3068,
      "Ġheight": 3069,
      "Ġpopulation": 3070,
      "Ġprice": 3071,
      "Ġexecute": 3072,
      "pose": 3073,
      "Ġvalid": 3074,
      "af": 3075,
      "ifying": 3076,
      "ĠSpe": 3077,
      "My": 3078,
      "Ġlaw": 3079,
      "une": 3080,
      "ront": 3081,
      "Ġmeasure": 3082,
      "roup": 3083,
      "ister": 3084,
      "ready": 3085,
      "ĠHey": 3086,
      "Ġseason": 3087,
      "Ġauthor": 3088,
      "Ġanything": 3089,
      "Ġmill": 3090,
      "Ġcreates": 3091,
      "Ġdiff": 3092,
      "mit": 3093,
      "Ġleg": 3094,
      "ĠDataFrame": 3095,
      "Ġhistory": 3096,
      "atter": 3097,
      "Ġapply": 3098,
      "Ġ2006": 3099,
      "ynchronous": 3100,
      "Ġcolumns": 3101,
      "Ġprobability": 3102,
      "']": 3103,
      "ele": 3104,
      "Ġfurther": 3105,
      "Ġrefer": 3106,
      "Ġapprec": 3107,
      "ĠCho": 3108,
      "16": 3109,
      "asing": 3110,
      "Ġdel": 3111,
      "Ġchoice": 3112,
      "ĠCPU": 3113,
      "ĠHistory": 3114,
      "use": 3115,
      "Ġ60": 3116,
      "([": 3117,
      "Ġmaterial": 3118,
      "levision": 3119,
      "Ġformer": 3120,
      "acc": 3121,
      "Ġprior": 3122,
      "Ġmot": 3123,
      "Ġdivide": 3124,
      "ĠVisual": 3125,
      "Ġeconom": 3126,
      "Ġcoding": 3127,
      "Ġfive": 3128,
      "class": 3129,
      "Ġscal": 3130,
      "ĠSQL": 3131,
      "oogle": 3132,
      "gress": 3133,
      "Ġclear": 3134,
      "Ġthank": 3135,
      "ĠRun": 3136,
      "met": 3137,
      "ctors": 3138,
      "Ġobser": 3139,
      "iod": 3140,
      "Ġrules": 3141,
      "Ġbooks": 3142,
      "wh": 3143,
      "Ġprime": 3144,
      "ĠNo": 3145,
      "Ġprevent": 3146,
      "orpor": 3147,
      "Ġpandas": 3148,
      "Ġindic": 3149,
      "uth": 3150,
      "ler": 3151,
      "ground": 3152,
      "Ġsimpl": 3153,
      "Ġpers": 3154,
      "ille": 3155,
      "Ġplayed": 3156,
      "numbers": 3157,
      "Ġdone": 3158,
      "Ġprocesses": 3159,
      "Ġsecurity": 3160,
      "Ġprints": 3161,
      "augh": 3162,
      "Ġmultip": 3163,
      "akes": 3164,
      "Ġhouse": 3165,
      "isf": 3166,
      "abor": 3167,
      "Ġlimit": 3168,
      "Ġsymb": 3169,
      "Ġprompt": 3170,
      "Ġ$(": 3171,
      "ĠDec": 3172,
      "Ġsolving": 3173,
      "ission": 3174,
      "ĠWar": 3175,
      "Ġpoly": 3176,
      "Ġcell": 3177,
      "istor": 3178,
      "raight": 3179,
      "Ġretrie": 3180,
      "txt": 3181,
      "na": 3182,
      "culate": 3183,
      "Ġdecision": 3184,
      "Ġreport": 3185,
      "Ġability": 3186,
      "reate": 3187,
      "Ġinside": 3188,
      "Ġfilter": 3189,
      "go": 3190,
      "isions": 3191,
      "Ġcases": 3192,
      "Ġ195": 3193,
      "sort": 3194,
      "Ġcannot": 3195,
      "Ġkind": 3196,
      "Ġbar": 3197,
      "Ġnice": 3198,
      "ĠGood": 3199,
      "Every": 3200,
      "istics": 3201,
      "Ġalready": 3202,
      "first": 3203,
      "div": 3204,
      "Ġoptions": 3205,
      "izations": 3206,
      "ĠEnglish": 3207,
      "ĠDjango": 3208,
      "ales": 3209,
      "Ġblue": 3210,
      "hent": 3211,
      "Ġitself": 3212,
      "pre": 3213,
      "Ġmajor": 3214,
      "uff": 3215,
      "Ġscen": 3216,
      "Ġremo": 3217,
      "Ġestablished": 3218,
      "=\\\\": 3219,
      "Ġvol": 3220,
      "Ġattack": 3221,
      "DA": 3222,
      "Ġtraining": 3223,
      "ĠMin": 3224,
      "aging": 3225,
      "irth": 3226,
      "Ġsold": 3227,
      "Ġsetting": 3228,
      "Ġwhy": 3229,
      "Ġrelationships": 3230,
      "ĠFinally": 3231,
      "lib": 3232,
      "oura": 3233,
      "node": 3234,
      "Ġconnected": 3235,
      "off": 3236,
      "Ġappl": 3237,
      "ncy": 3238,
      "Ġgovernment": 3239,
      "ĠNum": 3240,
      "Ġfunctional": 3241,
      "ura": 3242,
      "If": 3243,
      "},": 3244,
      "Ġbutton": 3245,
      "ĠRemember": 3246,
      "Ġwindow": 3247,
      "Ġrequired": 3248,
      "ĠSec": 3249,
      "Ġdraw": 3250,
      "Ġ<-": 3251,
      "Ġcollect": 3252,
      "ai": 3253,
      "atever": 3254,
      "aches": 3255,
      "ili": 3256,
      "Ġoperating": 3257,
      "Ġparts": 3258,
      "13": 3259,
      "Ġexc": 3260,
      "Ġmanipulate": 3261,
      "Ġsatisf": 3262,
      "num": 3263,
      "Ġsitu": 3264,
      "Ġgeneral": 3265,
      "ĠQu": 3266,
      "arn": 3267,
      "loc": 3268,
      "Ġcand": 3269,
      "aun": 3270,
      "isk": 3271,
      "ese": 3272,
      "Ġdiscuss": 3273,
      "ption": 3274,
      "Ġoverall": 3275,
      "Well": 3276,
      "Ġunit": 3277,
      "ched": 3278,
      "Ġrepe": 3279,
      "ored": 3280,
      "Ġpain": 3281,
      "Keep": 3282,
      "Ġkeyword": 3283,
      "Ġcomes": 3284,
      "Ġactually": 3285,
      "ublic": 3286,
      "Ġri": 3287,
      "ĠEd": 3288,
      "cont": 3289,
      "Py": 3290,
      "ients": 3291,
      "Ġnames": 3292,
      "pty": 3293,
      "List": 3294,
      "\\\");": 3295,
      "Ġefficiency": 3296,
      "Ġhanging": 3297,
      "Ġ`<": 3298,
      "Ġfuture": 3299,
      "orts": 3300,
      "Ġmoment": 3301,
      "Ġmen": 3302,
      "Ġvideo": 3303,
      "Ġexperi": 3304,
      "Ġproducts": 3305,
      "bles": 3306,
      "omain": 3307,
      "ites": 3308,
      "Ġbegan": 3309,
      "ĠDis": 3310,
      "\\\">": 3311,
      "ridge": 3312,
      "Ġcamp": 3313,
      "Ġfac": 3314,
      "ĠMed": 3315,
      "ony": 3316,
      "Ġface": 3317,
      "Ġwhatever": 3318,
      "Ġvirtual": 3319,
      "ĠCode": 3320,
      "Ġequations": 3321,
      "Ġavoid": 3322,
      "body": 3323,
      "Ġnavigate": 3324,
      "vant": 3325,
      "Ġstrings": 3326,
      "cket": 3327,
      "Ġcaus": 3328,
      "onderful": 3329,
      "[]": 3330,
      "Ġgraphs": 3331,
      "oms": 3332,
      "Ġ;": 3333,
      "Ġheap": 3334,
      "ban": 3335,
      "ĠHTTP": 3336,
      "Ġqueue": 3337,
      "Ġtheory": 3338,
      "Ġchoose": 3339,
      "18": 3340,
      "Ġcommonly": 3341,
      "ection": 3342,
      "Ġgr": 3343,
      "ursion": 3344,
      "ĠPost": 3345,
      "Ġtempl": 3346,
      "Ġfine": 3347,
      "Ġexactly": 3348,
      "Ġestablish": 3349,
      "Ġdebugging": 3350,
      "ump": 3351,
      "cdot": 3352,
      "ees": 3353,
      "ilit": 3354,
      "Ġcompet": 3355,
      "Ġsides": 3356,
      "Ġpress": 3357,
      "Ġmix": 3358,
      "ĠRiver": 3359,
      "Ġbrowser": 3360,
      "osp": 3361,
      "omin": 3362,
      "ĠSub": 3363,
      "Ġrepresentation": 3364,
      "Ġdiction": 3365,
      "ĠAct": 3366,
      "inking": 3367,
      "icult": 3368,
      "Ġyoung": 3369,
      "ĠPark": 3370,
      "Ġmeas": 3371,
      "hood": 3372,
      "Ġmiles": 3373,
      "erv": 3374,
      "Ġcustomer": 3375,
      "Ġprofess": 3376,
      "Ġfru": 3377,
      "Ġfar": 3378,
      "Ġpast": 3379,
      "Ġaction": 3380,
      "Ġturn": 3381,
      "urch": 3382,
      "Ġbehind": 3383,
      "Ġcy": 3384,
      "ĠAb": 3385,
      "Ġlines": 3386,
      "Ġadvant": 3387,
      "Ġshared": 3388,
      "icle": 3389,
      "lent": 3390,
      "ĠDep": 3391,
      "ercent": 3392,
      "Ġwin": 3393,
      "Ġquery": 3394,
      "String": 3395,
      "gra": 3396,
      "Ġmap": 3397,
      "ĠAndroid": 3398,
      "son": 3399,
      "Ġtitle": 3400,
      "Ġnegative": 3401,
      "This": 3402,
      "Ġappreciate": 3403,
      "Ġfra": 3404,
      "chan": 3405,
      "now": 3406,
      "ening": 3407,
      "ĠIDE": 3408,
      "Ġ@": 3409,
      "Ġbi": 3410,
      "ortun": 3411,
      "User": 3412,
      "ĠSw": 3413,
      "igns": 3414,
      "dered": 3415,
      "Ġfit": 3416,
      "ĠAddition": 3417,
      "ĠTrans": 3418,
      "utable": 3419,
      "Ġasking": 3420,
      "anc": 3421,
      "Ġperiod": 3422,
      "resh": 3423,
      "Ġlocation": 3424,
      "Ġnetworks": 3425,
      "Ġfields": 3426,
      "Ġstatic": 3427,
      "ĠInter": 3428,
      "ho": 3429,
      "anger": 3430,
      "SQL": 3431,
      "Name": 3432,
      "Ġedge": 3433,
      "equ": 3434,
      "Ġappropri": 3435,
      "Bus": 3436,
      "aur": 3437,
      "jure": 3438,
      "Ġfavor": 3439,
      "ourn": 3440,
      "www": 3441,
      "action": 3442,
      "selves": 3443,
      "Ġimm": 3444,
      "oman": 3445,
      "Ġrather": 3446,
      "ĠChar": 3447,
      "Ġproviding": 3448,
      "uration": 3449,
      "pack": 3450,
      "ĠMe": 3451,
      "att": 3452,
      "ached": 3453,
      "spe": 3454,
      "Ġdefinition": 3455,
      "Ġprec": 3456,
      "imension": 3457,
      "itude": 3458,
      "Ġincrease": 3459,
      "Ġ($": 3460,
      "Ġregression": 3461,
      "alking": 3462,
      "Ġinstallation": 3463,
      "eter": 3464,
      "Ġoccur": 3465,
      "Ġconsists": 3466,
      "Ġprotect": 3467,
      "Ġpolit": 3468,
      "stit": 3469,
      "fect": 3470,
      "Ġvill": 3471,
      "Ġhtt": 3472,
      "gg": 3473,
      ")\\\\": 3474,
      "Ġintegr": 3475,
      "Ġsignal": 3476,
      "rel": 3477,
      "sec": 3478,
      "light": 3479,
      "Ġcontrib": 3480,
      "Ġtook": 3481,
      "Ġflex": 3482,
      "Ġvertex": 3483,
      "ranch": 3484,
      "world": 3485,
      "ĠJS": 3486,
      "atio": 3487,
      "Cl": 3488,
      "Ġdifficult": 3489,
      "Data": 3490,
      "Ġscre": 3491,
      "Ġremaining": 3492,
      "example": 3493,
      "uting": 3494,
      "ĠRust": 3495,
      "Ġtown": 3496,
      "Ġadded": 3497,
      "Ġrecogn": 3498,
      "Ġdetails": 3499,
      "Ġhost": 3500,
      "ĠPe": 3501,
      "Ġcompos": 3502,
      "Ġmultipl": 3503,
      "ĠMark": 3504,
      "Ġcut": 3505,
      "Ġstyle": 3506,
      "ams": 3507,
      "urrency": 3508,
      "Ġsche": 3509,
      "ĠGu": 3510,
      "ancial": 3511,
      "Ġapproxim": 3512,
      "Ġpairs": 3513,
      "Ġrequests": 3514,
      "Ġsens": 3515,
      "Ġsecure": 3516,
      "Ġmarket": 3517,
      "lling": 3518,
      "Ġaccurate": 3519,
      "FS": 3520,
      "ĠFalse": 3521,
      "ĠPH": 3522,
      "ON": 3523,
      "Busy": 3524,
      "ĠNumb": 3525,
      "astic": 3526,
      "Ġadjacency": 3527,
      "onent": 3528,
      "ĠChoices": 3529,
      "ĠChrist": 3530,
      "Ġthoughtful": 3531,
      "Ġbirth": 3532,
      "Ġformula": 3533,
      "Ġcreative": 3534,
      "Ġhello": 3535,
      "rank": 3536,
      "\\\\_{": 3537,
      "aim": 3538,
      "lin": 3539,
      "Ġparameters": 3540,
      "Ġann": 3541,
      "Ġdire": 3542,
      "overed": 3543,
      "den": 3544,
      "Ġsounds": 3545,
      "22": 3546,
      "Ġbuy": 3547,
      "Ġperspect": 3548,
      "raft": 3549,
      "matrix": 3550,
      "size": 3551,
      "Ġwor": 3552,
      "Ġrequires": 3553,
      "ĠWork": 3554,
      "Ġ21": 3555,
      "ought": 3556,
      "ĠInteg": 3557,
      "');": 3558,
      "Ġut": 3559,
      "Ġleading": 3560,
      "ĠType": 3561,
      "Ġdevelopers": 3562,
      "Ġmember": 3563,
      "ounc": 3564,
      "tract": 3565,
      "ĠAlways": 3566,
      "RA": 3567,
      "title": 3568,
      "Ġmodern": 3569,
      "icks": 3570,
      "ishing": 3571,
      "Ġaim": 3572,
      "raw": 3573,
      "ĠColle": 3574,
      "Ġ194": 3575,
      "Ġtransl": 3576,
      "Ġmac": 3577,
      "cially": 3578,
      "orage": 3579,
      "ĠIntrodu": 3580,
      "Ġbecomes": 3581,
      "Ġsentence": 3582,
      "ĠMon": 3583,
      "Ġstarting": 3584,
      "Ġtelevision": 3585,
      "ĠEr": 3586,
      "Ġdr": 3587,
      "Ġexcel": 3588,
      "lean": 3589,
      "abilities": 3590,
      "Ġobtain": 3591,
      "Ġevening": 3592,
      "Ġwidely": 3593,
      "Ġconsum": 3594,
      "Ġsun": 3595,
      "Ġaffect": 3596,
      "Ġaf": 3597,
      "Ġdirectly": 3598,
      "Ġrule": 3599,
      "Ġdemon": 3600,
      "Ġrefers": 3601,
      "Ġdeveloped": 3602,
      "ished": 3603,
      "Ġclust": 3604,
      "ocol": 3605,
      "Ġpercent": 3606,
      "ĠAnother": 3607,
      "Ġlarger": 3608,
      "Ġprojects": 3609,
      "Ġrecursive": 3610,
      "Ġcountry": 3611,
      "board": 3612,
      "arb": 3613,
      "Ġmanaging": 3614,
      "Ġpractices": 3615,
      "Ġefficiently": 3616,
      "Ġprogress": 3617,
      "[::": 3618,
      "ague": 3619,
      "Ġchallenges": 3620,
      "mathbb": 3621,
      "Ġreview": 3622,
      "ological": 3623,
      "Ġclient": 3624,
      "ĠAut": 3625,
      "ĠTest": 3626,
      "eral": 3627,
      "OS": 3628,
      "ellig": 3629,
      "Ġtables": 3630,
      "level": 3631,
      "ĠAf": 3632,
      "Ġspecies": 3633,
      "Ġpractice": 3634,
      "joy": 3635,
      "ses": 3636,
      "ĠEast": 3637,
      "[::-": 3638,
      "ably": 3639,
      "Ġlinked": 3640,
      "ĠClo": 3641,
      "Ġmicro": 3642,
      "idence": 3643,
      "Ġdevices": 3644,
      "pecially": 3645,
      "script": 3646,
      "ĠOpt": 3647,
      "gree": 3648,
      "path": 3649,
      "Ġvisit": 3650,
      "ĠWhile": 3651,
      "solute": 3652,
      "['": 3653,
      "Ġ\\\\[": 3654,
      "earch": 3655,
      "ĠKing": 3656,
      "ĠBro": 3657,
      "ĠFil": 3658,
      "ously": 3659,
      "Ġroad": 3660,
      "Ġsmo": 3661,
      "anies": 3662,
      "Ġdepth": 3663,
      "emb": 3664,
      "Ġrecomm": 3665,
      "ĠJan": 3666,
      "vert": 3667,
      "Ġtraditional": 3668,
      "ĠGener": 3669,
      "Ġgreen": 3670,
      "Ġauthent": 3671,
      "ordin": 3672,
      "AR": 3673,
      "rices": 3674,
      "abel": 3675,
      "bs": 3676,
      "Ġbrings": 3677,
      "ipe": 3678,
      "ĠPre": 3679,
      "cher": 3680,
      "Int": 3681,
      "ifies": 3682,
      "ĠConf": 3683,
      "Ġcalls": 3684,
      "Ġadvanced": 3685,
      "eel": 3686,
      "ags": 3687,
      "omial": 3688,
      "Ġespecially": 3689,
      "ario": 3690,
      "iction": 3691,
      "Ġproduction": 3692,
      "Ġhope": 3693,
      "IN": 3694,
      "Ġdescript": 3695,
      "Ġsample": 3696,
      "Ġminimum": 3697,
      "ĠSu": 3698,
      "times": 3699,
      "Ġassociated": 3700,
      "Ġquality": 3701,
      "ened": 3702,
      "Ġ80": 3703,
      "Ġappropriate": 3704,
      "Ġoperator": 3705,
      "Ġcommunic": 3706,
      "Keeping": 3707,
      "Ġdistrict": 3708,
      "System": 3709,
      "Con": 3710,
      "Ġstrength": 3711,
      "Ġgrowth": 3712,
      "box": 3713,
      "Ġdiving": 3714,
      "Ġquickly": 3715,
      "Ġstates": 3716,
      "Ġtur": 3717,
      "ĠDefine": 3718,
      "eal": 3719,
      "ĠAir": 3720,
      "obile": 3721,
      "ĠLine": 3722,
      "Ġrob": 3723,
      "ĠCalculate": 3724,
      "reet": 3725,
      "Ġoptimize": 3726,
      "Ġeffectively": 3727,
      "Ġones": 3728,
      "Pro": 3729,
      "ms": 3730,
      "Ġinflu": 3731,
      "ids": 3732,
      "ĠIntern": 3733,
      "Ġpleasure": 3734,
      "index": 3735,
      "ules": 3736,
      "Ġlanguages": 3737,
      "Ġlive": 3738,
      "Ġ['": 3739,
      "ĠCommon": 3740,
      "ĠAdditionally": 3741,
      "Ġactions": 3742,
      "}}": 3743,
      "Ġstop": 3744,
      "ĠString": 3745,
      "length": 3746,
      "lym": 3747,
      "Ġbeautiful": 3748,
      "Ġindividuals": 3749,
      "Ġglobal": 3750,
      "ternoon": 3751,
      "Ġcommands": 3752,
      "iation": 3753,
      "Ġonline": 3754,
      "Ġmeet": 3755,
      "ĠII": 3756,
      "Ġcolors": 3757,
      "Ġtrying": 3758,
      "Ġlonger": 3759,
      "Ġlayout": 3760,
      "ĠSm": 3761,
      "Ġkeys": 3762,
      "Ġbroad": 3763,
      "Ġclick": 3764,
      "ĠNone": 3765,
      "Ġeffective": 3766,
      "zz": 3767,
      "Ġapple": 3768,
      "Ġfigure": 3769,
      "utton": 3770,
      "ĠHi": 3771,
      "Ġexisting": 3772,
      "Ġconnection": 3773,
      "egin": 3774,
      "Ġafternoon": 3775,
      "Ġmechan": 3776,
      "older": 3777,
      "Ġeasily": 3778,
      "Ġcook": 3779,
      "Ġaccording": 3780,
      "Ġattention": 3781,
      "21": 3782,
      "Ġoffers": 3783,
      "pper": 3784,
      "Com": 3785,
      "ĠPart": 3786,
      "mar": 3787,
      "Ġinteresting": 3788,
      "Ġu": 3789,
      "Ġindustry": 3790,
      "pd": 3791,
      "ĠPHP": 3792,
      "map": 3793,
      "Ġlo": 3794,
      "Ġmath": 3795,
      "Ġachieve": 3796,
      "begin": 3797,
      "Ġnorth": 3798,
      "ĠThanks": 3799,
      "Ġwar": 3800,
      "Ġfair": 3801,
      "Ġreceived": 3802,
      "most": 3803,
      "ulture": 3804,
      "len": 3805,
      "Ġdesired": 3806,
      "Ġcorresponding": 3807,
      "Ġreflect": 3808,
      "Ġ\\\\\\\\": 3809,
      "Ġdefault": 3810,
      "Ġcontaining": 3811,
      "Ġphysical": 3812,
      "Ġupdate": 3813,
      "run": 3814,
      "ĠRob": 3815,
      "Ġnove": 3816,
      "SP": 3817,
      "ĠDevelop": 3818,
      "Ġshap": 3819,
      "tings": 3820,
      "Ġasynchronous": 3821,
      "ountain": 3822,
      "Ġkm": 3823,
      "Ġfeet": 3824,
      "ĠDistrict": 3825,
      "ĠTrue": 3826,
      "cer": 3827,
      "Ġfeed": 3828,
      "Ġemot": 3829,
      "Ġlargest": 3830,
      "Ġenough": 3831,
      "ĠWill": 3832,
      "ĠRail": 3833,
      "Ġimplementing": 3834,
      "John": 3835,
      "ĠIntroduction": 3836,
      "Ġexcellent": 3837,
      "atives": 3838,
      "CD": 3839,
      "Ġthroughout": 3840,
      "orph": 3841,
      "ĠFun": 3842,
      "ze": 3843,
      "actions": 3844,
      "Ġheart": 3845,
      "ĠEuro": 3846,
      "Ġsix": 3847,
      "Ġplt": 3848,
      ">`": 3849,
      "}{\\\\": 3850,
      "Ġideas": 3851,
      "reat": 3852,
      "ĠCor": 3853,
      "Ġpreprocess": 3854,
      "Ġencryption": 3855,
      "iforn": 3856,
      "Ġ22": 3857,
      "Ġcompiler": 3858,
      "Ġaspect": 3859,
      "though": 3860,
      "ifornia": 3861,
      "ĠMem": 3862,
      "Ġdemonstr": 3863,
      "ners": 3864,
      "Ġstay": 3865,
      "idered": 3866,
      "eng": 3867,
      "Ġrepresenting": 3868,
      "tty": 3869,
      "Ġconcurrent": 3870,
      "Ġtowards": 3871,
      "ham": 3872,
      "LE": 3873,
      "eta": 3874,
      "Ġfinancial": 3875,
      "Ġmax": 3876,
      "Ġnormal": 3877,
      "ka": 3878,
      "Ġ__": 3879,
      "ĠAg": 3880,
      "Ġderiv": 3881,
      ").\",": 3882,
      "Ġep": 3883,
      "Ġfast": 3884,
      "Ġcosts": 3885,
      "Ġblack": 3886,
      "Ġattributes": 3887,
      "RL": 3888,
      "ĠBo": 3889,
      "ĠMc": 3890,
      "Ġtrain": 3891,
      "leep": 3892,
      "Ġskills": 3893,
      "BC": 3894,
      "ĠHello": 3895,
      "ĠGoogle": 3896,
      "edy": 3897,
      "Ġgain": 3898,
      "place": 3899,
      "lim": 3900,
      "Ġloops": 3901,
      "ĠAustralia": 3902,
      "cks": 3903,
      "acy": 3904,
      "Ġpublished": 3905,
      "Ġincluded": 3906,
      "Ġconsidered": 3907,
      "';": 3908,
      "agraph": 3909,
      "Ġperfect": 3910,
      "Ġexpand": 3911,
      "Ġinternet": 3912,
      "Ġimages": 3913,
      "function": 3914,
      "Ġproper": 3915,
      "ĠBas": 3916,
      "Ġlower": 3917,
      "do": 3918,
      "Ġill": 3919,
      "Ġrelated": 3920,
      "ĠMus": 3921,
      "24": 3922,
      "Ġ2005": 3923,
      "Ġsite": 3924,
      "Ġscient": 3925,
      "Ġshortest": 3926,
      "Ġdevice": 3927,
      "Ġunits": 3928,
      "Ġneighbor": 3929,
      "Ġpredict": 3930,
      "ĠPandas": 3931,
      "Ġpy": 3932,
      "Ġspent": 3933,
      "lease": 3934,
      "Ġpurch": 3935,
      "ounds": 3936,
      "Ġruns": 3937,
      "mm": 3938,
      "ĠAdv": 3939,
      "ĠFrom": 3940,
      "ried": 3941,
      "Ġdistributed": 3942,
      "Ġcareer": 3943,
      "ĠCalifornia": 3944,
      "ĠGraph": 3945,
      "Ġfavorite": 3946,
      "Ġsupports": 3947,
      "ha": 3948,
      "iling": 3949,
      "Ġsuit": 3950,
      "Ġremember": 3951,
      "ollow": 3952,
      "Ġmessages": 3953,
      "Ġtests": 3954,
      "Ġ2000": 3955,
      "Ġindependent": 3956,
      "Ġhey": 3957,
      "Ġfootball": 3958,
      "ansk": 3959,
      "Ġrecursion": 3960,
      "Ġwhole": 3961,
      "Ġcup": 3962,
      "Ġgoes": 3963,
      "Ġmatrices": 3964,
      "Ġeffects": 3965,
      "ino": 3966,
      "ĠRails": 3967,
      "count": 3968,
      "Ġlabel": 3969,
      "})": 3970,
      "never": 3971,
      "Ġpaths": 3972,
      "ĠOff": 3973,
      "Ġcentral": 3974,
      "Ġstorage": 3975,
      "ĠDesign": 3976,
      "ĠIdent": 3977,
      "Ġchart": 3978,
      "Ġinstalling": 3979,
      "Ġdoesn": 3980,
      "Ġcustomers": 3981,
      "Ġnight": 3982,
      "Ġ$$\\\\": 3983,
      "Ġseparate": 3984,
      "Ġtopics": 3985,
      "Ġshape": 3986,
      "partial": 3987,
      "ception": 3988,
      "ĠCollege": 3989,
      "32": 3990,
      "project": 3991,
      "Ġtaken": 3992,
      "Ġdev": 3993,
      "Ġvariety": 3994,
      "Ġproduce": 3995,
      "Ġchann": 3996,
      "Ġcat": 3997,
      "Ġsurpr": 3998,
      "ky": 3999,
      "Ġground": 4000,
      "ĠPerson": 4001,
      "ĠHis": 4002,
      "Ġsources": 4003,
      "Ġdecor": 4004,
      "apan": 4005,
      "Ġconstruct": 4006,
      "hens": 4007,
      "Ġexten": 4008,
      "Ġjo": 4009,
      "?,": 4010,
      "result": 4011,
      "Ġstudent": 4012,
      "75": 4013,
      "Ġprimary": 4014,
      "Ġresponsible": 4015,
      "Ġstrategies": 4016,
      "Ġloss": 4017,
      "inct": 4018,
      "Ġnpm": 4019,
      "uary": 4020,
      "Ġenjoy": 4021,
      "à¥į": 4022,
      "ĠBuild": 4023,
      "fs": 4024,
      "}(": 4025,
      "ait": 4026,
      "atell": 4027,
      "Ġratio": 4028,
      "Ġemail": 4029,
      "lier": 4030,
      "Ġrect": 4031,
      "Ġusually": 4032,
      "chools": 4033,
      "Ġwent": 4034,
      "ĠNetwork": 4035,
      "ara": 4036,
      "Ġintellig": 4037,
      "Ġlevels": 4038,
      "'.": 4039,
      "sin": 4040,
      "mod": 4041,
      "Ġroute": 4042,
      "Sure": 4043,
      "ental": 4044,
      "ĠOptim": 4045,
      "Ġ^": 4046,
      "Ġmodify": 4047,
      "Ġsales": 4048,
      "ĠEurope": 4049,
      "oted": 4050,
      "kell": 4051,
      "ĠArray": 4052,
      "lls": 4053,
      "Ġpieces": 4054,
      "ĠNumPy": 4055,
      "Ġadapt": 4056,
      "kay": 4057,
      "vector": 4058,
      "ulating": 4059,
      "ĠModel": 4060,
      "elt": 4061,
      "Ġseen": 4062,
      "ĠAcc": 4063,
      "ĠBoo": 4064,
      "Ġcompanies": 4065,
      "iented": 4066,
      "Ġopportun": 4067,
      "Ġregard": 4068,
      "Ġremove": 4069,
      "Ġdigital": 4070,
      "Ġempty": 4071,
      "Ġheld": 4072,
      "Ġmention": 4073,
      "Ġexercise": 4074,
      "Ġsimply": 4075,
      "Ġfalse": 4076,
      "Ġregion": 4077,
      "Ġstored": 4078,
      "Ġdele": 4079,
      "Ġcollabor": 4080,
      "Ġant": 4081,
      "Ġpages": 4082,
      "year": 4083,
      "fty": 4084,
      "atically": 4085,
      "Ġsouth": 4086,
      "Ġresulting": 4087,
      "Ġtemper": 4088,
      "Ġreducing": 4089,
      "lick": 4090,
      "dom": 4091,
      "Ġdiag": 4092,
      "Ġoptimal": 4093,
      "ville": 4094,
      "Ġthinking": 4095,
      "Ġdegree": 4096,
      "Ġhor": 4097,
      "tc": 4098,
      "Ġnature": 4099,
      "Ġpurpose": 4100,
      "Ġexam": 4101,
      "gebra": 4102,
      "Ġtransport": 4103,
      "-\\\\": 4104,
      "Wonderful": 4105,
      "ĠIsland": 4106,
      "rap": 4107,
      "ĠOther": 4108,
      "Ġ35": 4109,
      "Ġfib": 4110,
      "askell": 4111,
      "ER": 4112,
      "Ġvillage": 4113,
      "Ġ};": 4114,
      "anskrit": 4115,
      "Ġvia": 4116,
      "ĠMich": 4117,
      "Ġcame": 4118,
      "Ġinvolve": 4119,
      "aff": 4120,
      "icy": 4121,
      "ĠSanskrit": 4122,
      "Ġdomain": 4123,
      "press": 4124,
      "Ġeducation": 4125,
      "Ġey": 4126,
      "aste": 4127,
      "Ġexpected": 4128,
      "start": 4129,
      "Ġupon": 4130,
      "main": 4131,
      "ica": 4132,
      "sub": 4133,
      "Ġwhenever": 4134,
      "ĠTime": 4135,
      "Ġgoals": 4136,
      "ĠPlay": 4137,
      "Ġcenter": 4138,
      "Ġtemplate": 4139,
      "ceed": 4140,
      "fit": 4141,
      "inger": 4142,
      "Ġdest": 4143,
      "Ġcontin": 4144,
      "Ġwomen": 4145,
      "ĠImport": 4146,
      "Ġyield": 4147,
      "ivil": 4148,
      "ĠAnal": 4149,
      "Ġmov": 4150,
      "ĠAfric": 4151,
      "Ġlooking": 4152,
      "Ġbr": 4153,
      "umn": 4154,
      "thread": 4155,
      "infty": 4156,
      "ĠDOM": 4157,
      "orial": 4158,
      "ĠMarch": 4159,
      "Ġsatell": 4160,
      "Ġpretty": 4161,
      "ĠJu": 4162,
      "Ġlatest": 4163,
      "ensor": 4164,
      "ĠJapan": 4165,
      "Ġmillion": 4166,
      "ros": 4167,
      "Ġintegration": 4168,
      "oriented": 4169,
      "ouncil": 4170,
      "Qu": 4171,
      "des": 4172,
      "flow": 4173,
      "appy": 4174,
      "Ġnote": 4175,
      "Ġeast": 4176,
      "Ġstraight": 4177,
      "Ġda": 4178,
      "Ġmeasures": 4179,
      "faces": 4180,
      "ĠEar": 4181,
      "Ġ...": 4182,
      "Assistant": 4183,
      "ĠBay": 4184,
      "Ġgrid": 4185,
      "Ġchain": 4186,
      "Ġdirection": 4187,
      "osing": 4188,
      "Ġstarts": 4189,
      "Ġabsolute": 4190,
      "ĠClass": 4191,
      "Count": 4192,
      "Ġsmooth": 4193,
      "ĠQue": 4194,
      "():": 4195,
      "mon": 4196,
      "Ġwidth": 4197,
      "Ġbrand": 4198,
      "Ġstations": 4199,
      "Ġparagraph": 4200,
      "artment": 4201,
      "Ġadds": 4202,
      "ondon": 4203,
      "ĠWell": 4204,
      "state": 4205,
      "Ġwhite": 4206,
      "ailed": 4207,
      "cos": 4208,
      "born": 4209,
      "Ġcorrectly": 4210,
      "ociety": 4211,
      "Ġperspective": 4212,
      "empt": 4213,
      "Ġready": 4214,
      "Ġpiece": 4215,
      "Ġvisualization": 4216,
      "ĠIndian": 4217,
      "asc": 4218,
      "ĠAnge": 4219,
      "ĠAug": 4220,
      "ession": 4221,
      "Ġimplemented": 4222,
      "Ġopened": 4223,
      "Ġled": 4224,
      "Ġwest": 4225,
      "Ġtyp": 4226,
      "Ġoperators": 4227,
      "Ġinher": 4228,
      "Ġensures": 4229,
      "So": 4230,
      "host": 4231,
      "Ġdate": 4232,
      "alent": 4233,
      "ĠTotal": 4234,
      "Ġrisk": 4235,
      "Ġopening": 4236,
      "Ġball": 4237,
      "ĠDav": 4238,
      "Ġphot": 4239,
      "Ġmonths": 4240,
      "field": 4241,
      "rehens": 4242,
      "Ġasync": 4243,
      "ris": 4244,
      "}^{": 4245,
      "Ġboard": 4246,
      "Ġexperiences": 4247,
      "ĠEff": 4248,
      "uple": 4249,
      "Ġdescribe": 4250,
      "Ġdivided": 4251,
      "Ġextra": 4252,
      "aching": 4253,
      "plotlib": 4254,
      "dis": 4255,
      "Ġrev": 4256,
      "Ġrail": 4257,
      "Ġdictionary": 4258,
      "Ġvisited": 4259,
      "ĠRoad": 4260,
      "Ġforms": 4261,
      "Ġplaying": 4262,
      "Ġsummary": 4263,
      "lement": 4264,
      "Ġproduced": 4265,
      "Ġconfigure": 4266,
      "ĠPerform": 4267,
      "Ġplant": 4268,
      "Ġcontainer": 4269,
      "align": 4270,
      "ĠJack": 4271,
      "nomial": 4272,
      "Ġtold": 4273,
      "Ġoutside": 4274,
      "Ġforce": 4275,
      "base": 4276,
      "Ġstar": 4277,
      "ĠGra": 4278,
      "Ġgeomet": 4279,
      "Ġpaper": 4280,
      "yles": 4281,
      "ĠNot": 4282,
      "avy": 4283,
      "theta": 4284,
      "Ar": 4285,
      "Ġactivities": 4286,
      "unic": 4287,
      "versal": 4288,
      "ĠGreat": 4289,
      "Ġshows": 4290,
      "ĠFollow": 4291,
      "Ġ<=": 4292,
      "inst": 4293,
      "ford": 4294,
      "Ġcontinue": 4295,
      "45": 4296,
      "ĠOlym": 4297,
      "Ġreli": 4298,
      "Ġorganization": 4299,
      "New": 4300,
      "Ġtax": 4301,
      "Ġsend": 4302,
      "Good": 4303,
      "Ġexception": 4304,
      "weight": 4305,
      "ĠCanada": 4306,
      "arrow": 4307,
      "Ġ28": 4308,
      "Ġfront": 4309,
      "Ġcatch": 4310,
      "Ġcommit": 4311,
      "ĠThus": 4312,
      "Ġconversations": 4313,
      "cto": 4314,
      "Ġseem": 4315,
      "Ġspecified": 4316,
      "roller": 4317,
      "Ġlen": 4318,
      "Ġserved": 4319,
      "Ġremains": 4320,
      ")(": 4321,
      "ington": 4322,
      "Ġsho": 4323,
      "choice": 4324,
      "minist": 4325,
      "ĠNove": 4326,
      "ĠPrint": 4327,
      "Ġfaster": 4328,
      "ĠApr": 4329,
      "Ġenh": 4330,
      "17": 4331,
      "ES": 4332,
      "ĠPo": 4333,
      "Ġsubject": 4334,
      "ĠPa": 4335,
      "ĠFind": 4336,
      "acci": 4337,
      "essage": 4338,
      "Ġmerge": 4339,
      "onacci": 4340,
      "Ġgets": 4341,
      "ĠStep": 4342,
      "Ġcentury": 4343,
      "Ġissue": 4344,
      "ĠLondon": 4345,
      "Ġdeploy": 4346,
      "Ġreus": 4347,
      "Ġ27": 4348,
      "ocuments": 4349,
      "Ġinteractive": 4350,
      "App": 4351,
      "Ġpan": 4352,
      "rest": 4353,
      "Ġcompleted": 4354,
      "Ġ\\\\]": 4355,
      "Ġpointer": 4356,
      "ultural": 4357,
      "Ġresource": 4358,
      "Ġcoordin": 4359,
      "ĠCSV": 4360,
      "Er": 4361,
      "ung": 4362,
      "Ġtwice": 4363,
      "Ġdiscus": 4364,
      "Ġlayer": 4365,
      "ĠLove": 4366,
      "Ġroom": 4367,
      "Ġitem": 4368,
      "à¤¾": 4369,
      "mathbf": 4370,
      "eries": 4371,
      "Ġlovely": 4372,
      "dy": 4373,
      "hello": 4374,
      "ĠSupp": 4375,
      "graph": 4376,
      "}$.": 4377,
      "Ġ2007": 4378,
      "Ġdirected": 4379,
      "reme": 4380,
      "long": 4381,
      "ĠPol": 4382,
      "Ġspecify": 4383,
      "ux": 4384,
      "Ġsymbol": 4385,
      "work": 4386,
      "Ġ23": 4387,
      "opt": 4388,
      "FT": 4389,
      "Node": 4390,
      "mic": 4391,
      "Ġcontra": 4392,
      "Ġfrequency": 4393,
      "Ġ:-": 4394,
      "Ġchanged": 4395,
      "Ġpackages": 4396,
      "allest": 4397,
      "ĠFunctions": 4398,
      "init": 4399,
      "ĠSing": 4400,
      "Ġ2004": 4401,
      "Ġfail": 4402,
      "ultane": 4403,
      "Ġbalance": 4404,
      "Write": 4405,
      "ĠBar": 4406,
      "ĠBig": 4407,
      "ĠObject": 4408,
      "Ġscreen": 4409,
      "((": 4410,
      "fl": 4411,
      "ĠHer": 4412,
      "Ġlogic": 4413,
      "Ġmiddle": 4414,
      "Ġstores": 4415,
      "ĠSan": 4416,
      "Ġ36": 4417,
      "Ġcomprehens": 4418,
      "Ġbackground": 4419,
      "imensional": 4420,
      "Ġlif": 4421,
      "Ġask": 4422,
      "reek": 4423,
      "ĠChoose": 4424,
      "oute": 4425,
      "Ġexpress": 4426,
      "Ġpark": 4427,
      "Ġangle": 4428,
      "Ġexists": 4429,
      "Ġclaim": 4430,
      "Ġful": 4431,
      "pass": 4432,
      "Ġmass": 4433,
      "etimes": 4434,
      "ĠPres": 4435,
      "Ġsave": 4436,
      "Ġcred": 4437,
      "Ġ26": 4438,
      "Ġsharing": 4439,
      "Ġhistor": 4440,
      "ĠSol": 4441,
      "issions": 4442,
      "urg": 4443,
      "Ġsimultane": 4444,
      "Ġvectors": 4445,
      "Ġapplied": 4446,
      "Ġalgebra": 4447,
      "AS": 4448,
      "gment": 4449,
      "Ġdeath": 4450,
      "ourage": 4451,
      "ĠApril": 4452,
      "ĠURL": 4453,
      "ĠAugust": 4454,
      "ĠEngland": 4455,
      "Ġpick": 4456,
      "Ġassum": 4457,
      "Ġfunctionality": 4458,
      "Ġrequirements": 4459,
      "->": 4460,
      "download": 4461,
      "ptember": 4462,
      "ĠAdvanced": 4463,
      "Ġsurface": 4464,
      "ĠSun": 4465,
      "Ġ+=": 4466,
      "ĠJanuary": 4467,
      "etch": 4468,
      "Thanks": 4469,
      "Ġten": 4470,
      "Ġsuccessful": 4471,
      "orem": 4472,
      "Ġmoving": 4473,
      "Ġprote": 4474,
      "ulations": 4475,
      "Ġvar": 4476,
      "ĠName": 4477,
      "Ġ90": 4478,
      "Ġkil": 4479,
      "Ġensuring": 4480,
      "Ġemployees": 4481,
      "Ġcollections": 4482,
      "ĠDown": 4483,
      "ĠTech": 4484,
      "lines": 4485,
      "Ġrespond": 4486,
      "pha": 4487,
      "rs": 4488,
      "ĠJune": 4489,
      "Ġnews": 4490,
      "ocker": 4491,
      "Ġstrategy": 4492,
      "Ġconfiguration": 4493,
      "Ġharm": 4494,
      "Ġwel": 4495,
      "direct": 4496,
      "ama": 4497,
      "Ġspread": 4498,
      "Ġperformed": 4499,
      "Ġauthentication": 4500,
      "fil": 4501,
      "ĠStreet": 4502,
      "58": 4503,
      "Ġstands": 4504,
      "Ġdecisions": 4505,
      "Ġearlier": 4506,
      "Ġcard": 4507,
      "Al": 4508,
      "orthern": 4509,
      "Ġdf": 4510,
      "Ġincreased": 4511,
      "Ġmeeting": 4512,
      "itions": 4513,
      "Ġslow": 4514,
      "Ġclosed": 4515,
      "Ġdidn": 4516,
      "Ġhardware": 4517,
      "Ġadvice": 4518,
      "clusion": 4519,
      "Ġstream": 4520,
      "Ġhi": 4521,
      "Ġinvolved": 4522,
      "Ġlocally": 4523,
      "attle": 4524,
      "Ġbranch": 4525,
      "arp": 4526,
      "kn": 4527,
      "ĠMAT": 4528,
      "Ġfilms": 4529,
      "ĠBit": 4530,
      "acity": 4531,
      "Ġmultiplication": 4532,
      "arily": 4533,
      "Ġbelieve": 4534,
      "Ġcounter": 4535,
      "ocal": 4536,
      "Ġinsight": 4537,
      "Ġpolynomial": 4538,
      "AC": 4539,
      "Ġrace": 4540,
      "Ġquite": 4541,
      "Ġconv": 4542,
      "ĠInc": 4543,
      "vis": 4544,
      "quad": 4545,
      "Ġradi": 4546,
      "Ġnumerical": 4547,
      "Ġhttps": 4548,
      "ĠDiv": 4549,
      "db": 4550,
      "ĠStart": 4551,
      "Ġbill": 4552,
      "Ġperm": 4553,
      "rown": 4554,
      "Ġpow": 4555,
      "Ġlikely": 4556,
      "ĠProv": 4557,
      "ĠOlympic": 4558,
      "Ġ\\\\)": 4559,
      "ĠScala": 4560,
      "Ġtruly": 4561,
      "DK": 4562,
      "Ġrespectively": 4563,
      "lang": 4564,
      "ouch": 4565,
      "Ġhot": 4566,
      "Ġbelow": 4567,
      "Class": 4568,
      "Ġadjust": 4569,
      "indows": 4570,
      "Ġlaun": 4571,
      "icians": 4572,
      "LAB": 4573,
      "iff": 4574,
      "Ġdifferences": 4575,
      "atures": 4576,
      "era": 4577,
      "Ġtips": 4578,
      "ĠLoad": 4579,
      "Ġcompared": 4580,
      "ithmetic": 4581,
      "ĠSeptember": 4582,
      "ampions": 4583,
      "igu": 4584,
      "http": 4585,
      "Ġmanager": 4586,
      "Ġcateg": 4587,
      "Ġcontinuous": 4588,
      "Ġfixed": 4589,
      "apple": 4590,
      "Ġdefines": 4591,
      "Ġsometimes": 4592,
      "ĠAustralian": 4593,
      "Ġcause": 4594,
      "Ġswe": 4595,
      "Ġdam": 4596,
      "inters": 4597,
      "Ġcombined": 4598,
      "Ġframe": 4599,
      "ĠRE": 4600,
      "Ġextension": 4601,
      "ĠTod": 4602,
      "icles": 4603,
      "iam": 4604,
      "Ġmentioned": 4605,
      "_^": 4606,
      "Ġcompute": 4607,
      "Ġ^_^": 4608,
      "ancy": 4609,
      "ĠMod": 4610,
      "ival": 4611,
      "Ġincreasing": 4612,
      "Query": 4613,
      "br": 4614,
      "Ġrelease": 4615,
      "Ġoccurs": 4616,
      "Error": 4617,
      "90": 4618,
      "Ġlost": 4619,
      "ĠHouse": 4620,
      "Ġ45": 4621,
      "ĠAc": 4622,
      "ĠMATLAB": 4623,
      "Ġcircu": 4624,
      "lt": 4625,
      "Ġcircle": 4626,
      "bug": 4627,
      "Ġapplying": 4628,
      "Hi": 4629,
      "Ġonto": 4630,
      "max": 4631,
      "wood": 4632,
      "ĠAmerica": 4633,
      "number": 4634,
      "));": 4635,
      "Ġcloud": 4636,
      "ĠJuly": 4637,
      "Ġdeclare": 4638,
      "ĠFire": 4639,
      "ĠBob": 4640,
      "cribe": 4641,
      "atively": 4642,
      "Ġdistinct": 4643,
      "ĠAssoci": 4644,
      "Ġrecommend": 4645,
      "problem": 4646,
      "hips": 4647,
      "Ġswitch": 4648,
      "Ġintelligence": 4649,
      "oming": 4650,
      "ĠGerm": 4651,
      "Ġtalking": 4652,
      "json": 4653,
      "ĠClojure": 4654,
      "23": 4655,
      "Ġ});": 4656,
      "igen": 4657,
      "Ġselection": 4658,
      "Ġrock": 4659,
      "Ġreceive": 4660,
      "Ġfire": 4661,
      "Ġworked": 4662,
      "Ġreference": 4663,
      "fort": 4664,
      "ufact": 4665,
      "aven": 4666,
      "Ġallocation": 4667,
      "ixir": 4668,
      "Ġparameter": 4669,
      "ĠDevelopment": 4670,
      "mber": 4671,
      "Ġcars": 4672,
      "Ġcombination": 4673,
      "Ġreading": 4674,
      "++)": 4675,
      "Ġgetting": 4676,
      "Ġformed": 4677,
      "ĠRepres": 4678,
      "rong": 4679,
      "ĠHar": 4680,
      "Ġ2008": 4681,
      "Ġattempt": 4682,
      "clo": 4683,
      "à¤°": 4684,
      "Ġfill": 4685,
      "Ġround": 4686,
      "Ġextract": 4687,
      "Ġmarketing": 4688,
      "Ġforest": 4689,
      "mid": 4690,
      "Ġmobile": 4691,
      "Ġdetect": 4692,
      "Ġanalyzing": 4693,
      "Ġspir": 4694,
      "Ġcomputation": 4695,
      "Ġ2003": 4696,
      "cific": 4697,
      "Ġdise": 4698,
      "change": 4699,
      "<<": 4700,
      "pite": 4701,
      "Ġprofessional": 4702,
      "rc": 4703,
      "ĠInternational": 4704,
      "Ġsubtract": 4705,
      "ĠFunction": 4706,
      "Ġtreat": 4707,
      "ĠIndia": 4708,
      "Ġepis": 4709,
      "unk": 4710,
      "rics": 4711,
      "rew": 4712,
      "Ġtrust": 4713,
      "van": 4714,
      "Ġcoeff": 4715,
      "ĠSum": 4716,
      "Ġchanging": 4717,
      "Ġ:-)\",": 4718,
      "Ġhowever": 4719,
      "Ġactual": 4720,
      "Ġmoved": 4721,
      "ID": 4722,
      "orge": 4723,
      "duc": 4724,
      "PS": 4725,
      "ĠMa": 4726,
      "Ġrelevant": 4727,
      "Ġbought": 4728,
      "ologies": 4729,
      "Ġfarm": 4730,
      "Ġjoy": 4731,
      "Ġoption": 4732,
      "plend": 4733,
      "ctober": 4734,
      "ĠMiss": 4735,
      "Ġcool": 4736,
      "ĠTypeScript": 4737,
      "Ġradio": 4738,
      "Ġestim": 4739,
      "Ġrep": 4740,
      "ĠMid": 4741,
      "ĠDuring": 4742,
      "bu": 4743,
      "ny": 4744,
      "ratic": 4745,
      "Ġnumpy": 4746,
      "Create": 4747,
      "ffic": 4748,
      "ĠVi": 4749,
      "ding": 4750,
      "Ġtour": 4751,
      "Ġdividing": 4752,
      "}^": 4753,
      "Ġparticip": 4754,
      "Ġq": 4755,
      "ĠMake": 4756,
      "Ġbott": 4757,
      "Ġgir": 4758,
      "ĠLake": 4759,
      "Ġliving": 4760,
      ")+": 4761,
      "Ġlambda": 4762,
      "Ġnational": 4763,
      "track": 4764,
      "Ġaccept": 4765,
      "plendid": 4766,
      "Ġtoken": 4767,
      "Ġhop": 4768,
      "Ġsubproblem": 4769,
      ")$,": 4770,
      "Ġperforming": 4771,
      "Ġinsp": 4772,
      "Ġpassed": 4773,
      "react": 4774,
      "Ġcrypt": 4775,
      "Ġwonderfully": 4776,
      "Ġincorpor": 4777,
      "ĠGit": 4778,
      "eks": 4779,
      "ĠMac": 4780,
      "Ġcompar": 4781,
      "Ġcapable": 4782,
      "hest": 4783,
      "Ġsn": 4784,
      "Ġclub": 4785,
      "Ġidentity": 4786,
      "ilitary": 4787,
      "Ġblo": 4788,
      "ĠRet": 4789,
      "nes": 4790,
      "Ġfolder": 4791,
      "Ġapples": 4792,
      "IT": 4793,
      "Ġfriendly": 4794,
      "Alice": 4795,
      "iers": 4796,
      "Ġsurround": 4797,
      "ipher": 4798,
      "Ġsuitable": 4799,
      "kens": 4800,
      "model": 4801,
      "NET": 4802,
      "Ġ^_^\",": 4803,
      "Ġ!": 4804,
      "Ġid": 4805,
      "ĠThank": 4806,
      "ĠHand": 4807,
      "Ġneural": 4808,
      "^{-": 4809,
      "eeling": 4810,
      "].": 4811,
      "utive": 4812,
      "DB": 4813,
      "ancing": 4814,
      "Ġclar": 4815,
      "oyal": 4816,
      "erve": 4817,
      "venue": 4818,
      "ief": 4819,
      "ĠJames": 4820,
      "Ġsmallest": 4821,
      "Ġsearching": 4822,
      "hib": 4823,
      "Ġ2002": 4824,
      "Ġinfin": 4825,
      "Ġpolitical": 4826,
      "Ġstri": 4827,
      "ĠHam": 4828,
      "Ġ;)\",": 4829,
      "Ġax": 4830,
      ",\\\\": 4831,
      "west": 4832,
      "Ġsettings": 4833,
      "ole": 4834,
      "oph": 4835,
      "Ġcele": 4836,
      "ders": 4837,
      "Ġprintf": 4838,
      "ĠTV": 4839,
      "bru": 4840,
      "pace": 4841,
      "stain": 4842,
      "yt": 4843,
      "Ġdeli": 4844,
      "Ġresid": 4845,
      "ĠNovember": 4846,
      "Ġ2010": 4847,
      "Ġsignificantly": 4848,
      "ĠDecember": 4849,
      "Ġfall": 4850,
      "ruby": 4851,
      "ĠOctober": 4852,
      "ĠPat": 4853,
      "Ġthemselves": 4854,
      "Ġarri": 4855,
      "Ġgradu": 4856,
      "uracy": 4857,
      ")=": 4858,
      "Ġenable": 4859,
      "ef": 4860,
      "Ġintroduced": 4861,
      "Ġoil": 4862,
      "Ġwanted": 4863,
      "Ġapart": 4864,
      "Ġscore": 4865,
      "ĠJSON": 4866,
      "ĠInstead": 4867,
      "Ġwelcome": 4868,
      "Ġou": 4869,
      "Ġyet": 4870,
      "Ġdu": 4871,
      "Ġjava": 4872,
      "dri": 4873,
      "Ġdatabases": 4874,
      "64": 4875,
      "atory": 4876,
      "Ġwalk": 4877,
      "sy": 4878,
      "ĠLu": 4879,
      "Feeling": 4880,
      "Ġmatches": 4881,
      "Ġparty": 4882,
      "ĠControl": 4883,
      "Ġmaterials": 4884,
      "CC": 4885,
      "Ġknew": 4886,
      "pot": 4887,
      "Ġult": 4888,
      "Ġmode": 4889,
      "Ġlimited": 4890,
      "Ġautomatically": 4891,
      "Ġsem": 4892,
      "Ġsustain": 4893,
      "Ġcritical": 4894,
      "Ġfish": 4895,
      "ĠEngine": 4896,
      "ĠGroup": 4897,
      "ooks": 4898,
      "Ġelif": 4899,
      "gon": 4900,
      "Ġstars": 4901,
      "Ġalign": 4902,
      "comes": 4903,
      "game": 4904,
      "Ġpointers": 4905,
      "Ġadvantages": 4906,
      "==": 4907,
      "ael": 4908,
      "ĠFran": 4909,
      "enced": 4910,
      "à¤¤": 4911,
      "Ġsends": 4912,
      "Ġinj": 4913,
      "Ġdescribed": 4914,
      "Ġachieved": 4915,
      "Ġdecided": 4916,
      "ĠBra": 4917,
      "Ġexternal": 4918,
      "dimensional": 4919,
      "Ġ2009": 4920,
      "net": 4921,
      "ĠLiving": 4922,
      "}.": 4923,
      "error": 4924,
      "Ġconnections": 4925,
      "36": 4926,
      "oe": 4927,
      "Ġinform": 4928,
      "Ġplaces": 4929,
      "anges": 4930,
      "ĠCour": 4931,
      "points": 4932,
      "Ġmeters": 4933,
      "Ġanimals": 4934,
      "ĠAPIs": 4935,
      "ĠEarth": 4936,
      "Ġimagine": 4937,
      "next": 4938,
      "ĠBasic": 4939,
      "Ġschools": 4940,
      "Ġteams": 4941,
      "outhern": 4942,
      "rief": 4943,
      "println": 4944,
      "Ġinit": 4945,
      "imin": 4946,
      "Ġbeginning": 4947,
      "}$,": 4948,
      "Ġ2001": 4949,
      "ded": 4950,
      "ensive": 4951,
      "ĠEvery": 4952,
      "Ġtemperature": 4953,
      "la": 4954,
      "ĠArt": 4955,
      "Ġmultiply": 4956,
      "ĠToday": 4957,
      "Ġpict": 4958,
      "Ġdatasets": 4959,
      "ĠCanadian": 4960,
      "alt": 4961,
      "Ġrepeated": 4962,
      "ĠForm": 4963,
      "ube": 4964,
      "Ġdark": 4965,
      "agement": 4966,
      "Ġodd": 4967,
      "ership": 4968,
      "Ġcompare": 4969,
      "Ġnovel": 4970,
      "ĠLeague": 4971,
      "Ġdeveloping": 4972,
      "ĠOverall": 4973,
      "bruary": 4974,
      "Ġpassword": 4975,
      "Ġalmost": 4976,
      "yond": 4977,
      "ouri": 4978,
      "Ġdog": 4979,
      "à¤Ĥ": 4980,
      "Ġutil": 4981,
      "ĠTex": 4982,
      "ournal": 4983,
      "Ġmatter": 4984,
      "Ġpeace": 4985,
      "Ġdivision": 4986,
      "ĠSuper": 4987,
      "Ġmanufact": 4988,
      "Ġtransfer": 4989,
      "alue": 4990,
      "='": 4991,
      "eper": 4992,
      "Ġdispl": 4993,
      "ĠSam": 4994,
      "squ": 4995,
      "ĠWindows": 4996,
      "Ġbusinesses": 4997,
      "Ġ32": 4998,
      "ĠSelect": 4999,
      "stract": 5000,
      "Ġmental": 5001,
      ":**": 5002,
      "Ġretrieve": 5003,
      "acher": 5004,
      "Sim": 5005,
      "itely": 5006,
      "imately": 5007,
      "ĠVari": 5008,
      "Ġdivis": 5009,
      "Ġacqu": 5010,
      "nov": 5011,
      "Net": 5012,
      "uce": 5013,
      "Ġsuff": 5014,
      "99": 5015,
      "itation": 5016,
      "std": 5017,
      "Ġliter": 5018,
      "First": 5019,
      "ements": 5020,
      "hel": 5021,
      "OR": 5022,
      "care": 5023,
      "acing": 5024,
      "Ġhonestly": 5025,
      "ĠPen": 5026,
      "ighter": 5027,
      "Ġveh": 5028,
      "gen": 5029,
      "Ġassigned": 5030,
      "ulia": 5031,
      "Ġaudience": 5032,
      "bin": 5033,
      "Ġsimultaneously": 5034,
      "LL": 5035,
      "ĠSy": 5036,
      "ĠIdentify": 5037,
      "Ġsleep": 5038,
      "ckets": 5039,
      "Ġmechanism": 5040,
      "width": 5041,
      "df": 5042,
      "ilk": 5043,
      "Ġnotation": 5044,
      "Ġserve": 5045,
      "0000": 5046,
      "Ġelection": 5047,
      "Ġderivative": 5048,
      "aks": 5049,
      "cout": 5050,
      "Ġcards": 5051,
      "oup": 5052,
      "ĠIts": 5053,
      "Ġpractical": 5054,
      "ĠPlease": 5055,
      "Ġruntime": 5056,
      "Ġeconomic": 5057,
      "33": 5058,
      "70": 5059,
      "Ġinvolving": 5060,
      "Ġplanning": 5061,
      "Ġrot": 5062,
      "learn": 5063,
      "ĠGl": 5064,
      "Ġcommunities": 5065,
      "Ġcurrently": 5066,
      "Ġsongs": 5067,
      "Ġmathematics": 5068,
      "Ġselecting": 5069,
      "Ġpreprocessing": 5070,
      "char": 5071,
      "ĠAngeles": 5072,
      "}$$": 5073,
      "atab": 5074,
      "Ġdocuments": 5075,
      "Ġmother": 5076,
      "vey": 5077,
      "ĠMult": 5078,
      "Id": 5079,
      "ĠMore": 5080,
      "ĠSte": 5081,
      "Ġsaw": 5082,
      "Ġinterp": 5083,
      "Ġoriginally": 5084,
      "ĠAng": 5085,
      "Ġvo": 5086,
      "ulated": 5087,
      "Ġreturned": 5088,
      "osen": 5089,
      "Ġtraffic": 5090,
      "Ġbuildings": 5091,
      "lism": 5092,
      "Ġtuple": 5093,
      "Ġplatforms": 5094,
      "Ġ1990": 5095,
      "ĠCompany": 5096,
      "ĠTre": 5097,
      "Ġcreation": 5098,
      "Ġmodules": 5099,
      "Ġgave": 5100,
      "Ġfeedback": 5101,
      "Ġhighlight": 5102,
      "Ġsplit": 5103,
      "Age": 5104,
      "Ġbird": 5105,
      "ourney": 5106,
      "aj": 5107,
      "Ġculture": 5108,
      "Ġweeks": 5109,
      "Ġconcurrency": 5110,
      "Ġhit": 5111,
      "ĠIP": 5112,
      "ender": 5113,
      "ĠOh": 5114,
      "rete": 5115,
      "Ġcam": 5116,
      "Ġbreath": 5117,
      "](": 5118,
      "Ġdead": 5119,
      "Ġexpen": 5120,
      "metric": 5121,
      "ĠRS": 5122,
      "rig": 5123,
      "Ġsecret": 5124,
      "onal": 5125,
      "table": 5126,
      "ĠVer": 5127,
      "Ġinterfaces": 5128,
      "Ġleaves": 5129,
      "erry": 5130,
      "Ġfelt": 5131,
      "Ġ()": 5132,
      "po": 5133,
      "Ġaccuracy": 5134,
      "structure": 5135,
      "su": 5136,
      "Ġbreaking": 5137,
      "Ġvalu": 5138,
      "Ġpropos": 5139,
      "orphism": 5140,
      "Ġtoys": 5141,
      "Ġsav": 5142,
      "ĠTom": 5143,
      "Ġforward": 5144,
      "ĠPri": 5145,
      "Ġtells": 5146,
      "Ġengineering": 5147,
      "ĠFebruary": 5148,
      "ĠMo": 5149,
      "rames": 5150,
      "Ġcampa": 5151,
      "Ġplants": 5152,
      "Ġverify": 5153,
      "bon": 5154,
      "reed": 5155,
      "itory": 5156,
      "Ġlives": 5157,
      "Oh": 5158,
      "type": 5159,
      "28": 5160,
      "ĠCouncil": 5161,
      "Ġlooks": 5162,
      "aker": 5163,
      "ĠExpl": 5164,
      "roy": 5165,
      "Ġconvert": 5166,
      "Ġahead": 5167,
      "iny": 5168,
      "local": 5169,
      "Ġelectric": 5170,
      "known": 5171,
      "Ġrender": 5172,
      "Ġbroadcast": 5173,
      "ĠDavid": 5174,
      "ĠLog": 5175,
      "ellow": 5176,
      "ĠOptimizing": 5177,
      "Ġarithmetic": 5178,
      "ificial": 5179,
      "ĠProgram": 5180,
      "ED": 5181,
      "where": 5182,
      "ĠAre": 5183,
      "ya": 5184,
      "Ġ2011": 5185,
      "ĠHaskell": 5186,
      "ios": 5187,
      "ĠGover": 5188,
      "Ġsubstit": 5189,
      "Ġmodular": 5190,
      "ĠAccording": 5191,
      "Ġreached": 5192,
      "Ġcountries": 5193,
      "Ġchecks": 5194,
      "Ġindeed": 5195,
      "Ġconcise": 5196,
      "ierarch": 5197,
      "ĠjQuery": 5198,
      "Ġspaces": 5199,
      "ĠBlack": 5200,
      "ager": 5201,
      "ĠMicro": 5202,
      "aged": 5203,
      "soft": 5204,
      "Ġ1000": 5205,
      "Ġjud": 5206,
      "Ġworth": 5207,
      "Ġstress": 5208,
      ")$.": 5209,
      "Ġoutcomes": 5210,
      "Ġcurve": 5211,
      "ĠChurch": 5212,
      "Ġborn": 5213,
      "Ġseconds": 5214,
      "ĠRecords": 5215,
      "Ġcollege": 5216,
      "Ġupp": 5217,
      "rum": 5218,
      "Ġ####": 5219,
      "ned": 5220,
      "ĠHappy": 5221,
      "ponent": 5222,
      "ĠOur": 5223,
      "Ġexport": 5224,
      "eria": 5225,
      "Ġsequences": 5226,
      "ĠGiven": 5227,
      "group": 5228,
      "Ġbag": 5229,
      "elcome": 5230,
      "Ġcalculations": 5231,
      "ospital": 5232,
      "Ġfoundation": 5233,
      "Ġmatching": 5234,
      "ĠAlice": 5235,
      "ĠMain": 5236,
      "anguage": 5237,
      "bl": 5238,
      "Ġ?": 5239,
      "Ġwrong": 5240,
      "Ġsquares": 5241,
      "Ġalbums": 5242,
      "Ġapproximately": 5243,
      "Ġcommunicate": 5244,
      "ĠUnion": 5245,
      "Ġemer": 5246,
      "version": 5247,
      "Ġbrother": 5248,
      "ĠConfigure": 5249,
      "Ġenter": 5250,
      "Ġdaily": 5251,
      "Ġinterse": 5252,
      "xy": 5253,
      "ĠAL": 5254,
      "istical": 5255,
      "ĠDownload": 5256,
      "embly": 5257,
      "ands": 5258,
      "idget": 5259,
      "ĠDel": 5260,
      "Ġrich": 5261,
      "Ġinstr": 5262,
      "Ġsurv": 5263,
      "ani": 5264,
      "ĠCheck": 5265,
      "Ġfather": 5266,
      "ĠDocker": 5267,
      "ĠDem": 5268,
      "Ġsays": 5269,
      "else": 5270,
      "ĠGeorge": 5271,
      "ĠInitial": 5272,
      "Ġfocused": 5273,
      "bing": 5274,
      "Ġbeyond": 5275,
      "35": 5276,
      "depend": 5277,
      "Ġarrang": 5278,
      "ĠRailway": 5279,
      "Ġcapacity": 5280,
      "Ġselected": 5281,
      "Ġ70": 5282,
      "ĠPeople": 5283,
      "OP": 5284,
      "Ġinitialize": 5285,
      "Ġsaf": 5286,
      "lor": 5287,
      "itar": 5288,
      "Ġcombin": 5289,
      "We": 5290,
      "There": 5291,
      "Ġflexible": 5292,
      "ĠBack": 5293,
      "Core": 5294,
      "Ġisland": 5295,
      "Ġ)": 5296,
      "ads": 5297,
      "Ġsplendid": 5298,
      "Ġoffice": 5299,
      "ĠYear": 5300,
      "Ġdepends": 5301,
      "Ġetc": 5302,
      "ubble": 5303,
      "Ġfem": 5304,
      "atabase": 5305,
      "lication": 5306,
      "Ġmarbles": 5307,
      "cons": 5308,
      "ĠTop": 5309,
      "ĠSpring": 5310,
      "Ġbur": 5311,
      "Ġadult": 5312,
      "Ġdecre": 5313,
      "Ġallowed": 5314,
      "$:": 5315,
      "Ġoptimizing": 5316,
      "Ġeveryone": 5317,
      "friend": 5318,
      "Ġcore": 5319,
      "ores": 5320,
      "MP": 5321,
      "Ġfresh": 5322,
      "Ġsituation": 5323,
      "Ġsubproblems": 5324,
      "Ġlies": 5325,
      "eds": 5326,
      "Ġhous": 5327,
      "ĠTexas": 5328,
      "Ġcivil": 5329,
      "ĠPostgre": 5330,
      "Ġwood": 5331,
      "Ġplays": 5332,
      "cular": 5333,
      "Ġur": 5334,
      "Ġ&=": 5335,
      "wers": 5336,
      "icking": 5337,
      "Ġtrade": 5338,
      "eared": 5339,
      "ĠDet": 5340,
      "Ġtriangle": 5341,
      "cient": 5342,
      "Ġwind": 5343,
      "ĠCentral": 5344,
      "ĠLinear": 5345,
      "ota": 5346,
      "ĠWash": 5347,
      "Ġstranger": 5348,
      "Ġpriority": 5349,
      "Ġsatisfy": 5350,
      "Ġcm": 5351,
      "Ġveget": 5352,
      "lict": 5353,
      "Ġholds": 5354,
      "Ġcontract": 5355,
      "Ġfloat": 5356,
      "ĠImagine": 5357,
      "Ġhighest": 5358,
      "Ġnull": 5359,
      "Ġlock": 5360,
      "ĠItal": 5361,
      "Ġcomputers": 5362,
      "Ġson": 5363,
      "itution": 5364,
      "ĠIns": 5365,
      "ĠPostgreSQL": 5366,
      "Ġcast": 5367,
      "Ġtag": 5368,
      "rust": 5369,
      "NA": 5370,
      "Yes": 5371,
      "Ġjourney": 5372,
      "Ġoppos": 5373,
      "Ġir": 5374,
      "input": 5375,
      "Ġgold": 5376,
      "Hmm": 5377,
      "Ġadminist": 5378,
      "ĠAssociation": 5379,
      "Ġcandid": 5380,
      "ĠMary": 5381,
      "ipal": 5382,
      "lay": 5383,
      "itance": 5384,
      "ĠBest": 5385,
      "ĠGreen": 5386,
      "Ġmist": 5387,
      "idden": 5388,
      "ĠTwo": 5389,
      "Ġokay": 5390,
      "Ġhelped": 5391,
      "Find": 5392,
      "uzz": 5393,
      "Ġconcer": 5394,
      "Person": 5395,
      "ĠID": 5396,
      "Ġdefining": 5397,
      "ĠPlot": 5398,
      "Ġcomfort": 5399,
      "ĠNote": 5400,
      "'(": 5401,
      "ocols": 5402,
      "Ġcompile": 5403,
      "Ġ1980": 5404,
      "lambda": 5405,
      "Ġecho": 5406,
      "Ġconsistent": 5407,
      "Ġscope": 5408,
      "Act": 5409,
      "ades": 5410,
      "eration": 5411,
      "Ġclos": 5412,
      "Ġ1999": 5413,
      "Ġsni": 5414,
      "Ġconstruction": 5415,
      "Ġtrend": 5416,
      "Car": 5417,
      "Ġmoments": 5418,
      "Ġreaching": 5419,
      "Ġquad": 5420,
      "Ġcleaning": 5421,
      "Ġinsights": 5422,
      "Cap": 5423,
      "Ġstyles": 5424,
      "oop": 5425,
      "ĠCython": 5426,
      "Ġmale": 5427,
      "Ġsolid": 5428,
      "Ġextends": 5429,
      "rm": 5430,
      "Ġeh": 5431,
      "Ġorganizations": 5432,
      "Ġing": 5433,
      "lear": 5434,
      "ĠGCD": 5435,
      "(-": 5436,
      "Ġordered": 5437,
      "Ġscale": 5438,
      "Ġbelong": 5439,
      "Ġwhose": 5440,
      "color": 5441,
      "Ġgraphics": 5442,
      "Ġreusable": 5443,
      "Ġrepos": 5444,
      "Ġpush": 5445,
      "ĠText": 5446,
      "hy": 5447,
      "Ġbrief": 5448,
      "Ġstock": 5449,
      "create": 5450,
      "ĠAccess": 5451,
      "from": 5452,
      "Ġarticle": 5453,
      "ĠCustom": 5454,
      "uts": 5455,
      "Ġfinger": 5456,
      "Ġexecuting": 5457,
      "Ġsafe": 5458,
      "ĠRich": 5459,
      "Ġchosen": 5460,
      "Ġhierarch": 5461,
      "Ġsmart": 5462,
      "Element": 5463,
      "Ġdoll": 5464,
      "Ġactivity": 5465,
      "++,": 5466,
      "ians": 5467,
      "Ġprotocols": 5468,
      "sql": 5469,
      "sequently": 5470,
      "Ġscenario": 5471,
      "ĠMag": 5472,
      "Ġste": 5473,
      "mark": 5474,
      "het": 5475,
      "ĠGame": 5476,
      "Ġconstructor": 5477,
      "DO": 5478,
      "Ġwatch": 5479,
      "ĠMor": 5480,
      "lab": 5481,
      "Ġinterval": 5482,
      "Ġplots": 5483,
      "ĠAp": 5484,
      "Ġded": 5485,
      "iously": 5486,
      "Ġplease": 5487,
      "Ġsnipp": 5488,
      "\\\"\\\"": 5489,
      "ĠBre": 5490,
      "while": 5491,
      "Ġmovie": 5492,
      "Ġchecking": 5493,
      "Ġ120": 5494,
      "ĠMet": 5495,
      "__(": 5496,
      "Ġdealing": 5497,
      "Ġslic": 5498,
      "VM": 5499,
      "nge": 5500,
      "abit": 5501,
      "Ġpassing": 5502,
      "cis": 5503,
      "ĠIntegr": 5504,
      "sw": 5505,
      "Ġfruits": 5506,
      "Ġgenerated": 5507,
      "Ġsummar": 5508,
      "ĠNumber": 5509,
      "ĠArrays": 5510,
      "append": 5511,
      "step": 5512,
      "Ġheat": 5513,
      "Ġcells": 5514,
      "ĠAlex": 5515,
      "Ġpounds": 5516,
      "Ġanytime": 5517,
      "image": 5518,
      "ibonacci": 5519,
      "pare": 5520,
      "Ġcontinues": 5521,
      "Ġbright": 5522,
      "ĠLaw": 5523,
      "Ġmanipulating": 5524,
      "NS": 5525,
      "Ġequiv": 5526,
      "Ġbot": 5527,
      "Ġhashing": 5528,
      "Ġimproving": 5529,
      "ĠBash": 5530,
      "Ġreceives": 5531,
      "house": 5532,
      "ĠEduc": 5533,
      "ago": 5534,
      "Ġwants": 5535,
      "Ġevaluation": 5536,
      "Ġattribute": 5537,
      "ĠBuilding": 5538,
      "UDA": 5539,
      "olf": 5540,
      "Ġexciting": 5541,
      "\\\";": 5542,
      "axis": 5543,
      "ĠRad": 5544,
      "27": 5545,
      "NT": 5546,
      "WS": 5547,
      "dient": 5548,
      "ĠVir": 5549,
      "Ġpromot": 5550,
      "ĠPaul": 5551,
      "bar": 5552,
      "Ġrectangle": 5553,
      ")/": 5554,
      "century": 5555,
      "ĠBoth": 5556,
      "ĠRock": 5557,
      "Ġgenerally": 5558,
      "Ġter": 5559,
      "Ġgram": 5560,
      "Ġdescription": 5561,
      "Ġfilled": 5562,
      "azing": 5563,
      "Ġreve": 5564,
      "Ġli": 5565,
      "Ġconditional": 5566,
      "Ġcluster": 5567,
      "Ġsoon": 5568,
      "writ": 5569,
      "used": 5570,
      "Ġprofit": 5571,
      "Ġboxes": 5572,
      "ĠWorking": 5573,
      "ops": 5574,
      "onds": 5575,
      "bmatrix": 5576,
      "Ġbread": 5577,
      "rupt": 5578,
      "Ġsatellite": 5579,
      "PE": 5580,
      "oes": 5581,
      "Ġsus": 5582,
      "aught": 5583,
      "Ġremoving": 5584,
      "Im": 5585,
      "ĠWestern": 5586,
      "Ġmovement": 5587,
      "city": 5588,
      "uest": 5589,
      "Ġeventually": 5590,
      "Ġschedu": 5591,
      "ĠLa": 5592,
      "Ġexploring": 5593,
      "pat": 5594,
      "uel": 5595,
      "Ġhimself": 5596,
      "500": 5597,
      "GP": 5598,
      "Ġshown": 5599,
      "ĠWashington": 5600,
      "Col": 5601,
      "unc": 5602,
      "Ġcalculated": 5603,
      "Ġhappening": 5604,
      "date": 5605,
      "more": 5606,
      "Ġwat": 5607,
      "Ġimmed": 5608,
      "Ġ2012": 5609,
      "sey": 5610,
      "Ġcontinued": 5611,
      "Ġquantization": 5612,
      ")}": 5613,
      "Ġsafety": 5614,
      "Ġvers": 5615,
      "Ġaccessed": 5616,
      "Ġstatus": 5617,
      "Ġtick": 5618,
      "Ġdou": 5619,
      "Ġ42": 5620,
      "inux": 5621,
      "iring": 5622,
      "Ġextreme": 5623,
      "Sh": 5624,
      "ĠRo": 5625,
      "Ġdetermined": 5626,
      "Ġneighborhood": 5627,
      "beta": 5628,
      "Ġapps": 5629,
      "Ġsession": 5630,
      "Ġmedical": 5631,
      "pm": 5632,
      "omb": 5633,
      "ĠConc": 5634,
      "Ġspirit": 5635,
      "izz": 5636,
      "airs": 5637,
      "ĠHope": 5638,
      "Ġopportunities": 5639,
      "ĠDask": 5640,
      "Ġran": 5641,
      "ga": 5642,
      "Ġfight": 5643,
      "ij": 5644,
      "Ġstage": 5645,
      "Ġtrig": 5646,
      "Ġinitially": 5647,
      "iter": 5648,
      "Ġequals": 5649,
      "Ġchannel": 5650,
      "Ġhighly": 5651,
      "ĠCD": 5652,
      "ruth": 5653,
      "Ġdive": 5654,
      "ĠAv": 5655,
      "ographic": 5656,
      "ql": 5657,
      "Ġweights": 5658,
      "Ġphone": 5659,
      "Ġholding": 5660,
      "Ġ500": 5661,
      "ĠCommun": 5662,
      "Ġreliable": 5663,
      "Ġisol": 5664,
      "Look": 5665,
      "ĠMal": 5666,
      "Ġillust": 5667,
      "CA": 5668,
      "ĠGPU": 5669,
      "Ġlabels": 5670,
      "unch": 5671,
      "ĠRoute": 5672,
      "flo": 5673,
      "person": 5674,
      "hold": 5675,
      "Ġgas": 5676,
      "ĠClick": 5677,
      "SL": 5678,
      "Ġsports": 5679,
      "Ġintegral": 5680,
      "Ġactive": 5681,
      "olic": 5682,
      "Ġcultural": 5683,
      "tures": 5684,
      "ida": 5685,
      "ki": 5686,
      "term": 5687,
      "arden": 5688,
      "+\\\\": 5689,
      "Ġrecent": 5690,
      "Ġaudio": 5691,
      "Ġ190": 5692,
      "rench": 5693,
      "Ġmaps": 5694,
      "Ġ1998": 5695,
      "Ġupdates": 5696,
      "ĠBill": 5697,
      "Ġremote": 5698,
      "Ġparallelism": 5699,
      "hire": 5700,
      "ptr": 5701,
      "ports": 5702,
      "ĠNeuro": 5703,
      "ĠEfficient": 5704,
      "Capitalize": 5705,
      "orough": 5706,
      "Ġabs": 5707,
      "ĠEnter": 5708,
      "Ġcities": 5709,
      "Ġconclusion": 5710,
      "Ġtouch": 5711,
      "ĠSecond": 5712,
      "Ġren": 5713,
      "Ġbud": 5714,
      "ĠMusic": 5715,
      "Ġconduct": 5716,
      "Ġclimate": 5717,
      "Ġconflict": 5718,
      "Ġdenote": 5719,
      "ĠElixir": 5720,
      "26": 5721,
      "Of": 5722,
      "Ġfounded": 5723,
      "vas": 5724,
      "ercial": 5725,
      "Ġbask": 5726,
      "Ġevidence": 5727,
      "conf": 5728,
      "ĠAnalyz": 5729,
      "irm": 5730,
      "ĠDay": 5731,
      "ensity": 5732,
      "Ġ:)\",": 5733,
      "Ġqueries": 5734,
      "ibly": 5735,
      "bert": 5736,
      "ius": 5737,
      "Ġappeared": 5738,
      "Ġorigin": 5739,
      "ĠColumb": 5740,
      "ĠFrancis": 5741,
      "Ġthus": 5742,
      "rome": 5743,
      "Ġmilitary": 5744,
      "position": 5745,
      "Ġinterpre": 5746,
      "bes": 5747,
      "Ġbank": 5748,
      "Ġstatistical": 5749,
      "top": 5750,
      "Ġgrade": 5751,
      "Ġrepository": 5752,
      "Ġsynchron": 5753,
      "Ġcallback": 5754,
      "Ġfant": 5755,
      "Ġletters": 5756,
      "Ġsnippet": 5757,
      "izer": 5758,
      "Ġinteractions": 5759,
      "ĠBitNet": 5760,
      "ĠALRA": 5761,
      "tree": 5762,
      "Ġrestaur": 5763,
      "LI": 5764,
      "Ġsand": 5765,
      "endl": 5766,
      "Ġplaced": 5767,
      "lisp": 5768,
      "Ġkeeping": 5769,
      "column": 5770,
      "Ġ2013": 5771,
      "xi": 5772,
      "rought": 5773,
      "Ġfinally": 5774,
      "Ġcache": 5775,
      "ĠDr": 5776,
      ")`": 5777,
      "ĠHill": 5778,
      "phas": 5779,
      "Ġsubs": 5780,
      "ĠComput": 5781,
      "ĠCenter": 5782,
      "Ġfully": 5783,
      "Ġmotiv": 5784,
      "tan": 5785,
      "Ġaid": 5786,
      "Ġdeeper": 5787,
      "Ġ29": 5788,
      "ĠSpark": 5789,
      "Ġadvantage": 5790,
      "iveness": 5791,
      "ĠMany": 5792,
      "life": 5793,
      "istan": 5794,
      "ĠExpress": 5795,
      "Ġaccom": 5796,
      "ipment": 5797,
      "à¥ĩ": 5798,
      "ĠStand": 5799,
      "Ġmoves": 5800,
      "Ġfloating": 5801,
      "ĠRobert": 5802,
      "Ġ300": 5803,
      "ĠHind": 5804,
      "Ġtextbook": 5805,
      "Ġimproved": 5806,
      "Ġobserv": 5807,
      "'],": 5808,
      "Ġenables": 5809,
      "Ġbirths": 5810,
      "Ġstoring": 5811,
      "ĠSen": 5812,
      "Ġdrive": 5813,
      "Ġderived": 5814,
      "ued": 5815,
      "Ġtheorem": 5816,
      "Ġstories": 5817,
      "Ġspecifically": 5818,
      "ĠAlso": 5819,
      "Ġwait": 5820,
      "Ġultimately": 5821,
      "ipse": 5822,
      "Ġstudies": 5823,
      "Ġchoices": 5824,
      "Ġresponses": 5825,
      "amar": 5826,
      "Ġenclo": 5827,
      "grees": 5828,
      "ĠLeg": 5829,
      "Ġlogical": 5830,
      "Ġsubset": 5831,
      "Ġtransportation": 5832,
      "En": 5833,
      "Ġ1970": 5834,
      "OT": 5835,
      "ĠCUDA": 5836,
      "Array": 5837,
      "True": 5838,
      "heast": 5839,
      "ĠFoot": 5840,
      "Ġattacks": 5841,
      "ĠGeneral": 5842,
      "Ġdisplays": 5843,
      "stud": 5844,
      "Ġprecise": 5845,
      "Ġscientific": 5846,
      "ederal": 5847,
      "ĠTechn": 5848,
      "Ġgeneration": 5849,
      "driven": 5850,
      "ech": 5851,
      "Gener": 5852,
      "px": 5853,
      "Ġeg": 5854,
      "Ġcoming": 5855,
      "Ġalt": 5856,
      "phi": 5857,
      "ĠView": 5858,
      "ertainly": 5859,
      "ounced": 5860,
      "Ġcou": 5861,
      "Ġlack": 5862,
      "ĠProm": 5863,
      "ĠMost": 5864,
      "ondition": 5865,
      "ĠXML": 5866,
      "Ġdiscount": 5867,
      "Ġpotentially": 5868,
      "sm": 5869,
      "otlin": 5870,
      "Re": 5871,
      "Ġscene": 5872,
      "Ġprefer": 5873,
      "iliar": 5874,
      "Ġrecorded": 5875,
      "Ġsymbols": 5876,
      "ĠKingdom": 5877,
      "ĠMichael": 5878,
      "Ġ(-": 5879,
      "orrow": 5880,
      "Ġinternational": 5881,
      "Ġtokens": 5882,
      "Ġ(`": 5883,
      "Ġvary": 5884,
      "ĠApplying": 5885,
      "Ġinvestig": 5886,
      "Ġinputs": 5887,
      "Ġdigit": 5888,
      "Ġstronger": 5889,
      "][": 5890,
      "ows": 5891,
      "Ġeat": 5892,
      "Ġgall": 5893,
      "Ġvaluable": 5894,
      "band": 5895,
      "olk": 5896,
      "ibrary": 5897,
      "Ġappearance": 5898,
      "Numb": 5899,
      "asy": 5900,
      "ĠPublic": 5901,
      "write": 5902,
      "Ġban": 5903,
      "ilarly": 5904,
      "ĠThink": 5905,
      "Ġriver": 5906,
      "View": 5907,
      "isl": 5908,
      "Ġ48": 5909,
      "Ġpromote": 5910,
      "Simply": 5911,
      "Ġunc": 5912,
      "Ġmodeling": 5913,
      "Ġthrow": 5914,
      "Ġven": 5915,
      "ĠUser": 5916,
      "Ġguitar": 5917,
      "Thread": 5918,
      "aled": 5919,
      "ĠNeuroCore": 5920,
      "room": 5921,
      "redients": 5922,
      "Ġboost": 5923,
      "Ġdro": 5924,
      "Ġ`[": 5925,
      "prime": 5926,
      "heses": 5927,
      "Ġhealthy": 5928,
      "Ġupdated": 5929,
      "Ġchallenging": 5930,
      "ĠTw": 5931,
      "ĠTim": 5932,
      "Ġrecords": 5933,
      "Ġartificial": 5934,
      "Ġanimal": 5935,
      "ĠBel": 5936,
      "ĠWilliam": 5937,
      "ĠUI": 5938,
      "Ġwoman": 5939,
      "ĠLou": 5940,
      "Ġfeelings": 5941,
      "Ġshowing": 5942,
      "Ġpercentage": 5943,
      "ĠSeries": 5944,
      "Ġupper": 5945,
      "ĠFlor": 5946,
      "Ġcovered": 5947,
      "Ġparents": 5948,
      "Ġdegrees": 5949,
      "ĠLos": 5950,
      "Ġabstract": 5951,
      "Ġ1996": 5952,
      "Ġpaid": 5953,
      "Ġcipher": 5954,
      "olve": 5955,
      "Ġgiving": 5956,
      "ĠVirgin": 5957,
      "Certainly": 5958,
      "Ġhom": 5959,
      "rance": 5960,
      "};": 5961,
      "ĠUK": 5962,
      "Ġcharacteristics": 5963,
      "Ġdemand": 5964,
      "owns": 5965,
      "Ġappears": 5966,
      "Ġnumerous": 5967,
      "Sc": 5968,
      "ĠRepresent": 5969,
      "ĠArch": 5970,
      "Ġexceptions": 5971,
      "hesis": 5972,
      "Ġvolume": 5973,
      "Ġmacro": 5974,
      "Ġcontents": 5975,
      "Ġ1997": 5976,
      "orrect": 5977,
      "Ġtail": 5978,
      "Ġballs": 5979,
      "quer": 5980,
      "ĠGames": 5981,
      "Ġ75": 5982,
      "inked": 5983,
      "Ġblood": 5984,
      "hand": 5985,
      "road": 5986,
      "ĠRepublic": 5987,
      "button": 5988,
      "ĠChampions": 5989,
      "apping": 5990,
      "downloads": 5991,
      "Ġfiction": 5992,
      "arios": 5993,
      "Ġmagn": 5994,
      "Ġmut": 5995,
      "Ġmountain": 5996,
      "ĠCarol": 5997,
      "Ġvoice": 5998,
      "DF": 5999,
      "ston": 6000,
      "Ġdetailed": 6001,
      "Ġmaintaining": 6002,
      "Ġlimitations": 6003,
      "hi": 6004,
      "ĠHash": 6005,
      "Ġvi": 6006,
      "Ġhoping": 6007,
      "double": 6008,
      "hing": 6009,
      "Ġbul": 6010,
      "ĠSar": 6011,
      "Ġtall": 6012,
      "Ġtrou": 6013,
      "ĠAward": 6014,
      "ether": 6015,
      "Ġsegment": 6016,
      "ĠThom": 6017,
      "Ġproud": 6018,
      "ĠParty": 6019,
      "Ġapproaches": 6020,
      "ĠPhil": 6021,
      "ĠExploring": 6022,
      "localhost": 6023,
      "Ġpicture": 6024,
      "rial": 6025,
      "ĠRs": 6026,
      "Ġhands": 6027,
      "Ġshell": 6028,
      "server": 6029,
      "ĠCourt": 6030,
      "MA": 6031,
      "iced": 6032,
      "ĠPoint": 6033,
      "Ġpowers": 6034,
      "{(": 6035,
      "icing": 6036,
      "Ġexplan": 6037,
      "ĠRuss": 6038,
      "dist": 6039,
      "Ġ`.": 6040,
      "Ġaccessible": 6041,
      "Ġmanaged": 6042,
      "Ġestablishments": 6043,
      "struct": 6044,
      "Ġdocumentation": 6045,
      "Ġsweet": 6046,
      "ictions": 6047,
      "Ġbad": 6048,
      "leq": 6049,
      "ĠMax": 6050,
      "ĠLast": 6051,
      "Ġgenerates": 6052,
      "Ġabsolutely": 6053,
      "ĠTheir": 6054,
      "Ġago": 6055,
      "Ġlearned": 6056,
      "urt": 6057,
      "Ġweather": 6058,
      "Ġintroduce": 6059,
      "Ġcircuits": 6060,
      "Ġice": 6061,
      "Ġconvent": 6062,
      "Ġsociety": 6063,
      "Ġeight": 6064,
      "api": 6065,
      "azy": 6066,
      "dx": 6067,
      "Ġeyes": 6068,
      "LP": 6069,
      "total": 6070,
      "aming": 6071,
      "Ġpartial": 6072,
      "Ġtrip": 6073,
      "Frank": 6074,
      "aling": 6075,
      "()`,": 6076,
      "Ġlocations": 6077,
      "values": 6078,
      "Ġrailway": 6079,
      "ĠFore": 6080,
      "Ġchance": 6081,
      "Ġversions": 6082,
      "Ġalthough": 6083,
      "Ġsections": 6084,
      "orms": 6085,
      "Ġdeeply": 6086,
      "199": 6087,
      "Ġsuccessfully": 6088,
      "Ġradius": 6089,
      "ĠFin": 6090,
      "Ġdecrypt": 6091,
      "forward": 6092,
      "iet": 6093,
      "File": 6094,
      "Ġtim": 6095,
      "Ġcos": 6096,
      "Ġrelig": 6097,
      "ĠGet": 6098,
      "Ġdenoted": 6099,
      "Ġcaused": 6100,
      "ensus": 6101,
      "Between": 6102,
      "Ġemphas": 6103,
      "show": 6104,
      "Ġevaluate": 6105,
      "Ġcoo": 6106,
      "ĠDebug": 6107,
      "Ġ_": 6108,
      "itute": 6109,
      "Ġtow": 6110,
      "allel": 6111,
      "ulner": 6112,
      "Ġinstances": 6113,
      "ĠResearch": 6114,
      "Ġfraction": 6115,
      "ĠCore": 6116,
      "Ġconcurrently": 6117,
      "Ġserves": 6118,
      "Ġconfiguring": 6119,
      "Ġinsertion": 6120,
      "del": 6121,
      "Ġfont": 6122,
      "Ġleave": 6123,
      "Ġdecimal": 6124,
      "UI": 6125,
      "iost": 6126,
      "open": 6127,
      "Ġinner": 6128,
      "ĠLinux": 6129,
      "ĠEven": 6130,
      "Button": 6131,
      "icients": 6132,
      "jk": 6133,
      "alpha": 6134,
      "46": 6135,
      "Ġheard": 6136,
      "Ġpositions": 6137,
      "ĠErlang": 6138,
      "arest": 6139,
      "Ġtraversal": 6140,
      "Ġtravels": 6141,
      "Be": 6142,
      "ĠApple": 6143,
      "ĠLib": 6144,
      "Ġmanner": 6145,
      "Ġmicroser": 6146,
      "ĠHistor": 6147,
      "onestly": 6148,
      "Ġboolean": 6149,
      "Ġseems": 6150,
      "Ġcd": 6151,
      "plicit": 6152,
      "Ġscenarios": 6153,
      "Ġcapabilities": 6154,
      "Ġplug": 6155,
      "AI": 6156,
      "solving": 6157,
      "ĠDepartment": 6158,
      "Ġtoy": 6159,
      "Ġbottom": 6160,
      "gence": 6161,
      "Ġargs": 6162,
      "Ġang": 6163,
      "Ġ{'": 6164,
      "inner": 6165,
      "Ġeggs": 6166,
      "Ġplane": 6167,
      "Ġpreviously": 6168,
      "*}": 6169,
      "case": 6170,
      "FL": 6171,
      "Ġreflecting": 6172,
      "onom": 6173,
      "ĠMach": 6174,
      "Ġ$|": 6175,
      "php": 6176,
      "alley": 6177,
      "ĠClub": 6178,
      "istry": 6179,
      "ĠSl": 6180,
      "igma": 6181,
      "Ġentry": 6182,
      "Ġincreases": 6183,
      "cessing": 6184,
      "ĠDecl": 6185,
      "42": 6186,
      "ĠMr": 6187,
      "ĠChina": 6188,
      "Ġourselves": 6189,
      "Ġcalling": 6190,
      "ĠSpace": 6191,
      "Honestly": 6192,
      "Ġblog": 6193,
      "mt": 6194,
      "Ġfasc": 6195,
      "Ġgenetic": 6196,
      "Ġhypot": 6197,
      "aughter": 6198,
      "pg": 6199,
      "antic": 6200,
      "Ġlayers": 6201,
      "Truth": 6202,
      "sive": 6203,
      "acement": 6204,
      "ĠSE": 6205,
      "ĠSort": 6206,
      "SE": 6207,
      "Ġteacher": 6208,
      "Ġdigits": 6209,
      "Ġaspects": 6210,
      "Ġbridge": 6211,
      "Ġinches": 6212,
      "Ġ:=": 6213,
      "Ġproperly": 6214,
      "Ġhelping": 6215,
      "velte": 6216,
      "azine": 6217,
      "ightly": 6218,
      "Ġ(\\\\": 6219,
      "Ġmemo": 6220,
      "Ġ${": 6221,
      "Char": 6222,
      "eger": 6223,
      "All": 6224,
      "Ġorganized": 6225,
      "Ġcontact": 6226,
      "Ġenhance": 6227,
      "iostream": 6228,
      "Ġancient": 6229,
      "rote": 6230,
      "Ġreplaced": 6231,
      "ĠPresident": 6232,
      "Ġepisode": 6233,
      "Truthfully": 6234,
      "Ġtab": 6235,
      "Ġtalked": 6236,
      "arbage": 6237,
      "mission": 6238,
      "cean": 6239,
      "Ġcomments": 6240,
      "ĠFrench": 6241,
      "Ġgreet": 6242,
      "Ġdelete": 6243,
      "ĠSuppose": 6244,
      "48": 6245,
      "stream": 6246,
      "Ġinverse": 6247,
      "Ġrenew": 6248,
      "ĠKe": 6249,
      "ĠBeautiful": 6250,
      "clud": 6251,
      "Ġexperiment": 6252,
      "ĠSch": 6253,
      "clus": 6254,
      "Ġfinite": 6255,
      "Ġdemonstrates": 6256,
      "Actually": 6257,
      "asp": 6258,
      "onym": 6259,
      "ilon": 6260,
      "Ġbutter": 6261,
      "tes": 6262,
      "with": 6263,
      "Ġchallenge": 6264,
      "ĠDirect": 6265,
      "Ġpipe": 6266,
      "ĠGr": 6267,
      "Ġquar": 6268,
      "Ġtransformation": 6269,
      "Ġpresence": 6270,
      "defined": 6271,
      "find": 6272,
      "rem": 6273,
      "Ġweak": 6274,
      "Ġchem": 6275,
      "friendly": 6276,
      "ĠMathemat": 6277,
      "Ġ1995": 6278,
      "ĠCr": 6279,
      "Ġship": 6280,
      "Ġreplace": 6281,
      "Ġcopy": 6282,
      "Ġ\"\\\"": 6283,
      "itors": 6284,
      "ĠSym": 6285,
      "Ġaward": 6286,
      "ĠMer": 6287,
      "ivot": 6288,
      "Ġdetection": 6289,
      "Ġcombine": 6290,
      "Ġconstantly": 6291,
      "banana": 6292,
      "Ġhidden": 6293,
      "Ġleaving": 6294,
      "Ġstrugg": 6295,
      "ĠProject": 6296,
      "Ġmood": 6297,
      "empl": 6298,
      "Ġgrand": 6299,
      "ĠGold": 6300,
      "State": 6301,
      "Ġshapes": 6302,
      "Ġpen": 6303,
      "ĠAh": 6304,
      "Ġvulner": 6305,
      "ĠFibonacci": 6306,
      "Ġcorout": 6307,
      "Ġidentifying": 6308,
      "ĠWrit": 6309,
      "Ġadvent": 6310,
      ".)": 6311,
      "Ġ]": 6312,
      "Ġwild": 6313,
      "ĠAWS": 6314,
      "---": 6315,
      "Pr": 6316,
      "ado": 6317,
      "ĠHall": 6318,
      "gr": 6319,
      "kins": 6320,
      "vised": 6321,
      "etes": 6322,
      "Ġpressure": 6323,
      "ĠPop": 6324,
      "Ġunderlying": 6325,
      "dir": 6326,
      "Ġmilk": 6327,
      "Ġmeaningful": 6328,
      "sych": 6329,
      "Ġdiscovered": 6330,
      "ND": 6331,
      "root": 6332,
      "ĠPort": 6333,
      "ĠScott": 6334,
      "Ġpolicy": 6335,
      "Ġ31": 6336,
      "Frankly": 6337,
      "Ġamazing": 6338,
      "Ġremainder": 6339,
      "Ġmachines": 6340,
      "Ġtechnologies": 6341,
      "aper": 6342,
      "Ġbrought": 6343,
      "edge": 6344,
      "Ġheavy": 6345,
      "Ġdetail": 6346,
      "Ġinspect": 6347,
      "Ġpolice": 6348,
      "RI": 6349,
      "uge": 6350,
      "arse": 6351,
      "ĠCreek": 6352,
      "Ġcommercial": 6353,
      "ĠAlthough": 6354,
      "Ġdependency": 6355,
      "Ġturns": 6356,
      "leans": 6357,
      "also": 6358,
      "illa": 6359,
      "iform": 6360,
      "porary": 6361,
      "Ġop": 6362,
      "apter": 6363,
      "Ġclassification": 6364,
      "cending": 6365,
      "Ġremoved": 6366,
      "ĠChristian": 6367,
      "Ġinnov": 6368,
      "Ġhtml": 6369,
      "Ġiterate": 6370,
      "Ġstatistics": 6371,
      "ĠRoyal": 6372,
      "Ġla": 6373,
      "AL": 6374,
      "Ġassert": 6375,
      "ronic": 6376,
      "Ġscripts": 6377,
      "ĠNative": 6378,
      "Ġ2020": 6379,
      "ylvan": 6380,
      "ĠSpecific": 6381,
      "Ġ1994": 6382,
      "Ġroutes": 6383,
      "Ġdiscover": 6384,
      "Ġ!=": 6385,
      "ibilities": 6386,
      "Ġequivalent": 6387,
      "men": 6388,
      "ums": 6389,
      "ĠAnt": 6390,
      "uristic": 6391,
      "Ġgradient": 6392,
      "Ġcoefficients": 6393,
      "....": 6394,
      "ĠLovely": 6395,
      "ĠColumbia": 6396,
      "source": 6397,
      "Ġmatplotlib": 6398,
      "ĠFilm": 6399,
      "Ġbow": 6400,
      "ĠBen": 6401,
      "aint": 6402,
      "Ġeffort": 6403,
      "Ġsignals": 6404,
      "Ġoccurre": 6405,
      "ĠEuropean": 6406,
      "Ġfunc": 6407,
      "Ġseven": 6408,
      "Ġfinds": 6409,
      "Ġenvironmental": 6410,
      "Ġrecognition": 6411,
      "ĠFootball": 6412,
      "eras": 6413,
      "ansion": 6414,
      "Ġraised": 6415,
      "Time": 6416,
      "Ġyellow": 6417,
      "Ġincome": 6418,
      "mult": 6419,
      "atial": 6420,
      "Ġimpl": 6421,
      "Ġbudget": 6422,
      "elly": 6423,
      "Ġlimits": 6424,
      "Ġchatting": 6425,
      "ervation": 6426,
      "Des": 6427,
      "lands": 6428,
      "Ġadjacent": 6429,
      "ĠAM": 6430,
      "ĠApache": 6431,
      "Ġbasket": 6432,
      "ira": 6433,
      "thlet": 6434,
      "osed": 6435,
      "ĠMart": 6436,
      "ĠMemory": 6437,
      "css": 6438,
      "Straight": 6439,
      "Ġminimize": 6440,
      ")]": 6441,
      ".$": 6442,
      "Ġ150": 6443,
      "ĠBus": 6444,
      "oul": 6445,
      "ĠHy": 6446,
      "Ġlend": 6447,
      "ĠLists": 6448,
      "Ġperforms": 6449,
      "Ġnavigation": 6450,
      "Ġregarding": 6451,
      "rian": 6452,
      "Ġplans": 6453,
      "Ġgrowing": 6454,
      "Ġbottle": 6455,
      "uk": 6456,
      "see": 6457,
      "Ġreduced": 6458,
      "Ġparentheses": 6459,
      "ĠSmith": 6460,
      "Ġcream": 6461,
      "Ġequipment": 6462,
      "Ġembed": 6463,
      "Ġannot": 6464,
      "Ġsell": 6465,
      "Ġpuzz": 6466,
      "ipped": 6467,
      "Ġwife": 6468,
      "Ġbasis": 6469,
      "----------------": 6470,
      "ylvania": 6471,
      "Ġinequ": 6472,
      "Ġfloor": 6473,
      "Ġinternal": 6474,
      "Ġphr": 6475,
      "Ġconsidering": 6476,
      "ĠRel": 6477,
      "Ġcouldn": 6478,
      "Ġfamous": 6479,
      "Ġleads": 6480,
      "Ġestimate": 6481,
      "ĠDisc": 6482,
      "bre": 6483,
      "ĠAtt": 6484,
      "Ġlic": 6485,
      "olid": 6486,
      "ĠConnect": 6487,
      "query": 6488,
      "Ġmyst": 6489,
      "icago": 6490,
      "ĠRoman": 6491,
      "Ġrates": 6492,
      "Ġkill": 6493,
      "Ġguess": 6494,
      "Ġcompletely": 6495,
      "Ġrobot": 6496,
      "Map": 6497,
      "Ser": 6498,
      "ĠDev": 6499,
      "Ġcarry": 6500,
      "amarin": 6501,
      "Ġotherwise": 6502,
      "ĠImpro": 6503,
      "Ġsimplify": 6504,
      "Tantra": 6505,
      "tracking": 6506,
      "Ġclarity": 6507,
      "Ġcoordinates": 6508,
      "Ġforces": 6509,
      "clipse": 6510,
      "Ġdeclar": 6511,
      "Ġhistorical": 6512,
      "ĠOlympics": 6513,
      "water": 6514,
      "Ġspend": 6515,
      "Ġtrib": 6516,
      "Ġsen": 6517,
      "estival": 6518,
      "Ġsummer": 6519,
      "Ġsigned": 6520,
      "ĠOverview": 6521,
      "By": 6522,
      "ĠSat": 6523,
      "ĠLife": 6524,
      "Ġ||": 6525,
      "ĠScience": 6526,
      "Ġcollaboration": 6527,
      "message": 6528,
      "agon": 6529,
      "Ġscatter": 6530,
      "car": 6531,
      "frame": 6532,
      "ĠCong": 6533,
      "ĠMountain": 6534,
      "Ġfruit": 6535,
      "Ġcloser": 6536,
      "/).": 6537,
      "unt": 6538,
      "Ġmodified": 6539,
      "Ġflowers": 6540,
      "Ġpresented": 6541,
      "Ġkern": 6542,
      "Ġgenerator": 6543,
      "itiz": 6544,
      "ĠWater": 6545,
      "Ġ2014": 6546,
      "Ġaware": 6547,
      "Ġemotions": 6548,
      "ĠAcade": 6549,
      "FX": 6550,
      "Ġcycle": 6551,
      "TV": 6552,
      "cles": 6553,
      "Ġattract": 6554,
      "Ġforever": 6555,
      "ĠAfrican": 6556,
      "Ġcouple": 6557,
      "Ob": 6558,
      "Ġinfra": 6559,
      "Ġroots": 6560,
      "ĠJulia": 6561,
      "Ġowned": 6562,
      "ĠWhite": 6563,
      "Ġphysics": 6564,
      "active": 6565,
      "ĠService": 6566,
      "Ġdenomin": 6567,
      "ĠEducation": 6568,
      "crypt": 6569,
      "Ġrain": 6570,
      "Ġimmutable": 6571,
      "ĠMicrosoft": 6572,
      "uler": 6573,
      "ĠThread": 6574,
      "Any": 6575,
      "Ġsizes": 6576,
      "Ġimag": 6577,
      "ĠValley": 6578,
      "Ġelimin": 6579,
      "nsylvania": 6580,
      "Ġchurch": 6581,
      "Ġdirectories": 6582,
      "Ġcombinations": 6583,
      "AX": 6584,
      "ĠAfrica": 6585,
      "ĠREST": 6586,
      "Un": 6587,
      "ifier": 6588,
      "ĠLocal": 6589,
      "Ġreferred": 6590,
      "Ġinfluence": 6591,
      "\\\\)": 6592,
      "Ġcourage": 6593,
      "Ġcapture": 6594,
      "Ġcarbon": 6595,
      "onic": 6596,
      "Ġolder": 6597,
      "ĠJer": 6598,
      "Ġdeclared": 6599,
      "Ġmig": 6600,
      "Ġobjective": 6601,
      "UT": 6602,
      "Ġpredictions": 6603,
      "Ġproport": 6604,
      "Ġyields": 6605,
      "Ġinstrument": 6606,
      "tee": 6607,
      ",$": 6608,
      "gins": 6609,
      "ĠJim": 6610,
      "circ": 6611,
      "hr": 6612,
      "Ġannounced": 6613,
      "var": 6614,
      "atest": 6615,
      "Ġeco": 6616,
      "Ġnotice": 6617,
      "scale": 6618,
      "Ġ>=": 6619,
      "Are": 6620,
      "hash": 6621,
      "Ġactor": 6622,
      "Ġproced": 6623,
      "\\\"]": 6624,
      "Ġunion": 6625,
      "Ġcoast": 6626,
      "ĠBur": 6627,
      "Ġcompat": 6628,
      "à¤¨": 6629,
      "Ġdistances": 6630,
      "Ġconcerns": 6631,
      "make": 6632,
      "Ġinvent": 6633,
      "Ġdefinitely": 6634,
      "Ġbed": 6635,
      "Ġchick": 6636,
      "ĠStar": 6637,
      "Res": 6638,
      "ĠEnvironment": 6639,
      "Ġapplies": 6640,
      "iately": 6641,
      "tr": 6642,
      "inating": 6643,
      "Ġincrement": 6644,
      "nings": 6645,
      "Ġexpressed": 6646,
      "Ġcontrast": 6647,
      "ĠPennsylvania": 6648,
      "ĠVirginia": 6649,
      "Ġspeak": 6650,
      "Ġoffic": 6651,
      "Ġstraightforward": 6652,
      "ĠProf": 6653,
      "ĠFrancisco": 6654,
      "AM": 6655,
      "diction": 6656,
      "Ġnx": 6657,
      "ĠUp": 6658,
      "ogram": 6659,
      "ffee": 6660,
      "Ġmedian": 6661,
      "Ġpresident": 6662,
      "Ġà¤¹": 6663,
      "dict": 6664,
      "sit": 6665,
      "ilies": 6666,
      "ilder": 6667,
      "Ġstaff": 6668,
      "Ġexhib": 6669,
      "ĠLua": 6670,
      "othing": 6671,
      "pected": 6672,
      "ĠVariables": 6673,
      "stant": 6674,
      "Ġslo": 6675,
      "igan": 6676,
      "HE": 6677,
      "style": 6678,
      "Ġalone": 6679,
      "Ġsituations": 6680,
      "icated": 6681,
      "Ġcomment": 6682,
      "Ġefforts": 6683,
      "velous": 6684,
      "Ġentities": 6685,
      "Ġprotocol": 6686,
      "Ġdriving": 6687,
      "ĠJapanese": 6688,
      "auty": 6689,
      "ico": 6690,
      "author": 6691,
      "Ġgift": 6692,
      "Ġdream": 6693,
      "Ġincorrect": 6694,
      "ULL": 6695,
      "Ġwave": 6696,
      "Ġble": 6697,
      "Ġ[]": 6698,
      "Ġcomparison": 6699,
      "books": 6700,
      "ĠPak": 6701,
      "Ġ193": 6702,
      "ĠComb": 6703,
      "Ġcampaign": 6704,
      "Ġserving": 6705,
      "Ġprintln": 6706,
      "Ġcomputations": 6707,
      "Ġraise": 6708,
      "Ġreasons": 6709,
      "Ġeconomy": 6710,
      "Ġdru": 6711,
      "sign": 6712,
      "Ġoccas": 6713,
      "xml": 6714,
      "ĠPet": 6715,
      "Ġtreating": 6716,
      "ĠFrank": 6717,
      "Ġconnecting": 6718,
      "Ġ1960": 6719,
      "Ġjoined": 6720,
      "Ġingredients": 6721,
      "Ġqual": 6722,
      "Ġguest": 6723,
      "ĠCup": 6724,
      "Welcome": 6725,
      "Ġpet": 6726,
      "this": 6727,
      "ĠNorthern": 6728,
      "Ġkg": 6729,
      "ĠBlue": 6730,
      "29": 6731,
      "Ġfetch": 6732,
      "Ġflavor": 6733,
      "Ġanswers": 6734,
      "Ġfitness": 6735,
      "post": 6736,
      "Ġreward": 6737,
      "Ġnest": 6738,
      "Ġassess": 6739,
      "ĠExamples": 6740,
      "Ġnearby": 6741,
      "BA": 6742,
      "oke": 6743,
      "heap": 6744,
      "mitted": 6745,
      "DD": 6746,
      "nel": 6747,
      "Ġsetup": 6748,
      "Ġessentially": 6749,
      "Ġfrequently": 6750,
      "rical": 6751,
      "Ġpreferences": 6752,
      "Ġwrote": 6753,
      "Ġfig": 6754,
      "Ġinference": 6755,
      "ĠCome": 6756,
      "arian": 6757,
      "Ġanyone": 6758,
      "Ġrights": 6759,
      "Ġputs": 6760,
      "well": 6761,
      "ockey": 6762,
      "Ġcapital": 6763,
      "ĠFirebase": 6764,
      "je": 6765,
      "ĠHealth": 6766,
      "Ġflu": 6767,
      "Ġcollected": 6768,
      "Ġplain": 6769,
      "Ġglass": 6770,
      "which": 6771,
      "Ġsustainable": 6772,
      "tered": 6773,
      "Ġtit": 6774,
      "ĠEv": 6775,
      "Ġfourth": 6776,
      "01": 6777,
      "Ġcalculating": 6778,
      "TK": 6779,
      "area": 6780,
      "answer": 6781,
      "ĠProt": 6782,
      "Ġrecursively": 6783,
      "dest": 6784,
      "Ġclim": 6785,
      "Ġnothing": 6786,
      "Ġ1993": 6787,
      "Ġjournal": 6788,
      "Ġ2015": 6789,
      "Ġfeatured": 6790,
      "Ġmagic": 6791,
      "Ġconsumer": 6792,
      "Ġagent": 6793,
      "ĠScot": 6794,
      "Ġengaging": 6795,
      "Ġgeometry": 6796,
      "Ġcra": 6797,
      "Ġgun": 6798,
      "Ġ2016": 6799,
      "Ġmultiplying": 6800,
      "iors": 6801,
      "veloper": 6802,
      "Ġfinished": 6803,
      "Ġworry": 6804,
      "ini": 6805,
      "Ġorganizing": 6806,
      "Ġquantum": 6807,
      "ĠCall": 6808,
      "Ġpurchase": 6809,
      "ĠBoot": 6810,
      "Ġdram": 6811,
      "fill": 6812,
      "Ġ1992": 6813,
      "Ġinstitution": 6814,
      "Ġcheese": 6815,
      "Ġelev": 6816,
      "Anytime": 6817,
      "ĠKeep": 6818,
      "Ġorganize": 6819,
      "Ġmotion": 6820,
      "Ġtrends": 6821,
      "Ġasked": 6822,
      "ĠFlorida": 6823,
      "han": 6824,
      "Ġsparse": 6825,
      "Ġartists": 6826,
      "Ġindicates": 6827,
      "Ġdecorator": 6828,
      "!\\\")": 6829,
      "free": 6830,
      "ĠIll": 6831,
      "ĠExp": 6832,
      "Ġrecipe": 6833,
      "Ġhealthcare": 6834,
      "Ġfiltering": 6835,
      "push": 6836,
      "ĠJoh": 6837,
      "Ġdealloc": 6838,
      "Ġprices": 6839,
      "Ġnut": 6840,
      "related": 6841,
      "Ġworst": 6842,
      "ĠUpd": 6843,
      "Ġkids": 6844,
      "ests": 6845,
      "ilver": 6846,
      "Ġimmediately": 6847,
      "Ġprop": 6848,
      "Ġmanufacture": 6849,
      "pop": 6850,
      "ĠOld": 6851,
      "Ġfamiliar": 6852,
      "ĠSpecifically": 6853,
      "vironments": 6854,
      "Ġsex": 6855,
      "Ġamounts": 6856,
      "greg": 6857,
      "Ġking": 6858,
      "queue": 6859,
      "IS": 6860,
      "ĠEarly": 6861,
      "ĠVol": 6862,
      "Ġskin": 6863,
      "dig": 6864,
      "ĠOper": 6865,
      "ĠNor": 6866,
      "ĠKn": 6867,
      "ĠHen": 6868,
      "ĠMel": 6869,
      "ĠMass": 6870,
      "arg": 6871,
      "strap": 6872,
      "lam": 6873,
      "ĠElect": 6874,
      "ĠGod": 6875,
      "Ġpolic": 6876,
      "itz": 6877,
      "Ġacade": 6878,
      "Ġlegal": 6879,
      "Ġemotional": 6880,
      "pid": 6881,
      "Ġdenotes": 6882,
      "Ġ<!": 6883,
      "Ġcompetition": 6884,
      "onday": 6885,
      "chers": 6886,
      "Ġfemale": 6887,
      "Ġresist": 6888,
      "Ġhon": 6889,
      "ĠBi": 6890,
      "Component": 6891,
      "ourier": 6892,
      "inder": 6893,
      "ionally": 6894,
      "Ġsea": 6895,
      "ĠFFT": 6896,
      "ĠInitialize": 6897,
      "CP": 6898,
      "ĠHo": 6899,
      "Ġroles": 6900,
      "scala": 6901,
      "util": 6902,
      "Ġ400": 6903,
      "Ġbrown": 6904,
      "Ġregist": 6905,
      "Ġends": 6906,
      "mathcal": 6907,
      "leton": 6908,
      "Ġinvestment": 6909,
      "Ġgarbage": 6910,
      "Ġreads": 6911,
      "Ġowner": 6912,
      "Ġturned": 6913,
      "]:": 6914,
      "vals": 6915,
      "ĠCamp": 6916,
      "valu": 6917,
      "YPE": 6918,
      "mosp": 6919,
      "Ġsimulation": 6920,
      "400": 6921,
      "ĠFurther": 6922,
      "Ġincred": 6923,
      "Ġencoura": 6924,
      "Ġlogging": 6925,
      "Ġcombining": 6926,
      "Ġresponsive": 6927,
      "ĠTy": 6928,
      "ĠiOS": 6929,
      "Ġbind": 6930,
      "Ġdirector": 6931,
      "Ġdoub": 6932,
      "Se": 6933,
      "ithread": 6934,
      "Ġspot": 6935,
      "ĠDespite": 6936,
      "Ġlaunch": 6937,
      "Flow": 6938,
      "Ġcapt": 6939,
      "ĠMont": 6940,
      "ola": 6941,
      "Ġjoin": 6942,
      "()`:": 6943,
      "ĠTalk": 6944,
      "Ġconsistently": 6945,
      "ealand": 6946,
      "Ġofficially": 6947,
      "ĠMySQL": 6948,
      "Ġhumans": 6949,
      "Ġdestroy": 6950,
      ".$$": 6951,
      ":\\\",": 6952,
      "Ġcausing": 6953,
      "ĠNumba": 6954,
      "Ġsurprising": 6955,
      "filter": 6956,
      "chain": 6957,
      "ĠLanguage": 6958,
      "Ġtang": 6959,
      "connect": 6960,
      "Bob": 6961,
      "Ġpure": 6962,
      "ector": 6963,
      "ĠZealand": 6964,
      "Ġencaps": 6965,
      "Ġviews": 6966,
      "gl": 6967,
      "Ġhospital": 6968,
      "Ġthreat": 6969,
      "Ġtreatment": 6970,
      "alloc": 6971,
      "verything": 6972,
      "Ġidentical": 6973,
      "trans": 6974,
      "Ġrank": 6975,
      "Ġwaste": 6976,
      "Ġ},": 6977,
      "ifications": 6978,
      "ĠTeam": 6979,
      "ĠGeorg": 6980,
      "Ġcookies": 6981,
      "Ġdot": 6982,
      "Ġ64": 6983,
      "Ġproductive": 6984,
      "Ġgather": 6985,
      "Ġlightweight": 6986,
      "ĠInstitute": 6987,
      "Ġasyncio": 6988,
      "Ġcert": 6989,
      "Ġtex": 6990,
      "Ġappoint": 6991,
      "Ġdescribes": 6992,
      "Ġchannels": 6993,
      "zen": 6994,
      "ĠLear": 6995,
      "DataFrame": 6996,
      "ĠMachine": 6997,
      "orch": 6998,
      "pression": 6999,
      "overy": 7000,
      "Ġrelative": 7001,
      "Ġflexibility": 7002,
      "ĠSocial": 7003,
      "ĠSal": 7004,
      "Ġris": 7005,
      "Ġoutcome": 7006,
      "Ġeth": 7007,
      "igm": 7008,
      "ĠBook": 7009,
      "inese": 7010,
      "Ġà¤®": 7011,
      "mu": 7012,
      "ref": 7013,
      "Ġhesit": 7014,
      "Ġclassic": 7015,
      "Ġlisted": 7016,
      "Ġmetrics": 7017,
      "Ġcategor": 7018,
      "Ġdollars": 7019,
      "bur": 7020,
      "Ġenvironments": 7021,
      "Ġrecall": 7022,
      "Ġol": 7023,
      "Ġbecoming": 7024,
      "Ġgeometric": 7025,
      "Ġexchange": 7026,
      "Ġ2018": 7027,
      "current": 7028,
      "anning": 7029,
      "Ġ(\\\"": 7030,
      "Ġadvert": 7031,
      "product": 7032,
      "Model": 7033,
      "Ġexerc": 7034,
      "ĠKey": 7035,
      "ĠArmy": 7036,
      "ircraft": 7037,
      "Ġcompilation": 7038,
      "Ġslightly": 7039,
      "Ġdamage": 7040,
      "ĠVictor": 7041,
      "ocolate": 7042,
      "ander": 7043,
      "ĠXamarin": 7044,
      "Ġcontribute": 7045,
      "ĠBank": 7046,
      "ĠHol": 7047,
      "angular": 7048,
      "Ġexpon": 7049,
      "ĠAlgorithm": 7050,
      "Ġ1991": 7051,
      "Ġtried": 7052,
      "ĠSk": 7053,
      "ĠBal": 7054,
      "ĠMap": 7055,
      "Ġweap": 7056,
      "Ġrise": 7057,
      "Ġherself": 7058,
      "Ġfinish": 7059,
      "Ġselling": 7060,
      "Line": 7061,
      "Ġcorner": 7062,
      "Ġhttp": 7063,
      "Ġproceed": 7064,
      "Ġpool": 7065,
      "ĠReal": 7066,
      "78": 7067,
      "ipl": 7068,
      "inn": 7069,
      "Ġpivot": 7070,
      "ĠWhe": 7071,
      "Ġinfrastructure": 7072,
      "making": 7073,
      "Ġfold": 7074,
      "Ġbubble": 7075,
      "Ġbreakpoint": 7076,
      "Ġconsequ": 7077,
      "ormal": 7078,
      "Ġ188": 7079,
      "ĠDemoc": 7080,
      "ĠAz": 7081,
      "Ġintegrated": 7082,
      "Ġobtained": 7083,
      "Ġvict": 7084,
      "ĠHig": 7085,
      "Ġjump": 7086,
      "Ġregions": 7087,
      "Ġoptimized": 7088,
      "ambigu": 7089,
      "He": 7090,
      "Ġstick": 7091,
      "Ġring": 7092,
      "AP": 7093,
      "ĠSearch": 7094,
      "ĠPal": 7095,
      "Ġcounting": 7096,
      "nor": 7097,
      "adium": 7098,
      "ĠJavaFX": 7099,
      "imensions": 7100,
      "urance": 7101,
      "Ġpriorit": 7102,
      "vantages": 7103,
      "label": 7104,
      "ĠWood": 7105,
      "Ġrecip": 7106,
      "Ġportion": 7107,
      "your": 7108,
      "oses": 7109,
      "Ġconverting": 7110,
      "Ġdriver": 7111,
      "CTED": 7112,
      "Ġexamine": 7113,
      "Ġdanger": 7114,
      "Ġstreet": 7115,
      "ĠColor": 7116,
      "Ġhyd": 7117,
      "Graph": 7118,
      "aten": 7119,
      "Ġdifferential": 7120,
      "Ġallocated": 7121,
      "esian": 7122,
      "utch": 7123,
      "ĠEclipse": 7124,
      "Ġvisualize": 7125,
      "CTYPE": 7126,
      "itoring": 7127,
      "ĠHum": 7128,
      "Ġunne": 7129,
      "Ġsupply": 7130,
      ".\\\")": 7131,
      "mers": 7132,
      "ĠCare": 7133,
      "Ġcomparing": 7134,
      "Ġdogs": 7135,
      "ĠGerman": 7136,
      "ĠCarolina": 7137,
      "gu": 7138,
      "Ġprem": 7139,
      "Ġsalt": 7140,
      "annel": 7141,
      "DOCTYPE": 7142,
      "ĠChicago": 7143,
      "float": 7144,
      "cor": 7145,
      "stdio": 7146,
      "ĠParallel": 7147,
      "ĠSimilarly": 7148,
      "Ġcomposed": 7149,
      "output": 7150,
      "sers": 7151,
      "ĠLouis": 7152,
      "76": 7153,
      "II": 7154,
      "vari": 7155,
      "token": 7156,
      "Ġwidget": 7157,
      "ĠAge": 7158,
      "Ġpartition": 7159,
      "Ġwriter": 7160,
      "REDA": 7161,
      "Ġcomprehensive": 7162,
      "jkstra": 7163,
      "core": 7164,
      "ĠTr": 7165,
      "omic": 7166,
      "plete": 7167,
      "Ġatmosp": 7168,
      "Ġnewsp": 7169,
      "range": 7170,
      "Ġaddressing": 7171,
      "REDACTED": 7172,
      "Ġvib": 7173,
      "Ġleader": 7174,
      "prints": 7175,
      "Ġmunic": 7176,
      "mediate": 7177,
      "Ġcategories": 7178,
      "orter": 7179,
      "ĠCath": 7180,
      "Ġworkers": 7181,
      "mean": 7182,
      "Red": 7183,
      "utral": 7184,
      "ĠHot": 7185,
      "comm": 7186,
      "ĠNews": 7187,
      "ĠFound": 7188,
      "Ġvisualizations": 7189,
      "CL": 7190,
      "draw": 7191,
      "ĠPeter": 7192,
      "ubern": 7193,
      "Ġcolon": 7194,
      "Ġscalable": 7195,
      "Ġhoriz": 7196,
      "ĠCap": 7197,
      "ATE": 7198,
      "Ġrespective": 7199,
      "boxed": 7200,
      "Value": 7201,
      "duction": 7202,
      "Ġinterview": 7203,
      "square": 7204,
      "Ġactors": 7205,
      "Ġprobably": 7206,
      "eros": 7207,
      "Ġwra": 7208,
      "Ġbeauty": 7209,
      "Ġmapping": 7210,
      "Ġdesigning": 7211,
      "Ġchoosing": 7212,
      "({": 7213,
      "ĠLand": 7214,
      "Ġideal": 7215,
      "ĠGovernment": 7216,
      "Ġwall": 7217,
      "ĠTensor": 7218,
      "Ġcoffee": 7219,
      "Ġ2019": 7220,
      "ĠFact": 7221,
      "Ġfilters": 7222,
      "reg": 7223,
      "ĠBer": 7224,
      "Ġhair": 7225,
      "Ġadopt": 7226,
      "Ġsending": 7227,
      "Ġdictionaries": 7228,
      "ĠNULL": 7229,
      "Ġduplic": 7230,
      "IDE": 7231,
      "ĠDynamic": 7232,
      "Ġshad": 7233,
      "Ġcertainly": 7234,
      "Ġeigen": 7235,
      "Ġarbit": 7236,
      "Ġexcited": 7237,
      "Ġrepeat": 7238,
      "page": 7239,
      "ĠSociety": 7240,
      "ride": 7241,
      "osh": 7242,
      "Ġwarms": 7243,
      "Ġclients": 7244,
      "arsh": 7245,
      "Ġ189": 7246,
      "Ġtack": 7247,
      "ĠSeriously": 7248,
      "ĠDebugging": 7249,
      "ĠLinked": 7250,
      "Ġpatient": 7251,
      "Ġsister": 7252,
      "Ġbags": 7253,
      "Ġanimation": 7254,
      "Ġcandidate": 7255,
      "fection": 7256,
      "itan": 7257,
      "ĠRadio": 7258,
      "ĠFile": 7259,
      "$)": 7260,
      "Ġquadratic": 7261,
      "Ġnearest": 7262,
      "ĠDivision": 7263,
      "ingu": 7264,
      "ĠTor": 7265,
      "ective": 7266,
      "Ġreduces": 7267,
      "rd": 7268,
      "arant": 7269,
      "Ġproduces": 7270,
      "Ġoccup": 7271,
      "fru": 7272,
      "no": 7273,
      "Ġcustomize": 7274,
      "ĠWales": 7275,
      "ĠLibrary": 7276,
      "ideos": 7277,
      "Ġpix": 7278,
      "ĠTri": 7279,
      "ĠThrough": 7280,
      "Ġimplements": 7281,
      "Text": 7282,
      "Ġinterpret": 7283,
      "Ġfault": 7284,
      "Ġpermissions": 7285,
      "Ġunnecessary": 7286,
      "Ġcitiz": 7287,
      "ĠKore": 7288,
      "Ġglo": 7289,
      "unct": 7290,
      "fered": 7291,
      "Ġpoll": 7292,
      "Ġreality": 7293,
      "Ġdebut": 7294,
      "ĠIre": 7295,
      "Ġbucket": 7296,
      "eled": 7297,
      "ĠMiddle": 7298,
      "Ġrenewable": 7299,
      "atitude": 7300,
      "amma": 7301,
      "Ġdefe": 7302,
      "Ġtransition": 7303,
      "Ġdx": 7304,
      "ĠMad": 7305,
      "Ġrepeatedly": 7306,
      "ĠVal": 7307,
      "Ġsupporting": 7308,
      "Ġsynchronization": 7309,
      "itivity": 7310,
      "Ġhabit": 7311,
      "Ġprove": 7312,
      "ĠNature": 7313,
      "Ġoperated": 7314,
      "item": 7315,
      "ĠSuch": 7316,
      "Ġminor": 7317,
      "ĠColl": 7318,
      "ucl": 7319,
      "uling": 7320,
      "aby": 7321,
      "Ġcop": 7322,
      "Ġsignificance": 7323,
      "Ġiteration": 7324,
      "Ġindicate": 7325,
      "RM": 7326,
      "ano": 7327,
      "Ġconven": 7328,
      "ĠNavig": 7329,
      "hour": 7330,
      "Ġdimensions": 7331,
      "utations": 7332,
      "Ġju": 7333,
      "Ġgreedy": 7334,
      "Ġparad": 7335,
      "opy": 7336,
      "Ġcomposition": 7337,
      "Set": 7338,
      "aked": 7339,
      "Ġintegrate": 7340,
      "ooting": 7341,
      "Ġsalary": 7342,
      "relation": 7343,
      "pire": 7344,
      "ĠPower": 7345,
      "ĠShow": 7346,
      "Ġsugar": 7347,
      "Ġupdating": 7348,
      "ĠSummer": 7349,
      "Ġexpensive": 7350,
      "AG": 7351,
      "fall": 7352,
      "ĠCast": 7353,
      "ĠFort": 7354,
      "Ġappeal": 7355,
      "Ġcontainers": 7356,
      "Ġplanet": 7357,
      "Ġcryptography": 7358,
      "Ġtend": 7359,
      "Ġbits": 7360,
      "ĠBridge": 7361,
      "Ġ34": 7362,
      "Ġinequality": 7363,
      "tion": 7364,
      "().": 7365,
      "Ġanalyt": 7366,
      "ĠSur": 7367,
      "Ġgenerating": 7368,
      "ĠBroad": 7369,
      "ambiguation": 7370,
      "\\\\\\\\": 7371,
      "ĠThomas": 7372,
      "true": 7373,
      "vin": 7374,
      "Ġresolution": 7375,
      "Ġdescent": 7376,
      "Ġparties": 7377,
      "Ġimprovement": 7378,
      "Ġcategory": 7379,
      "Ġ`@": 7380,
      "Ġarchitect": 7381,
      "Ġmenu": 7382,
      "olation": 7383,
      "Ġbugs": 7384,
      "ĠUSA": 7385,
      "ubernetes": 7386,
      "ona": 7387,
      "Ġopportunity": 7388,
      "gn": 7389,
      "}_": 7390,
      "Ġexplicit": 7391,
      "Ġreported": 7392,
      "Ġdisease": 7393,
      "ĠAngular": 7394,
      "lete": 7395,
      "Ġclosure": 7396,
      "Ġoffered": 7397,
      "/)": 7398,
      "MS": 7399,
      "atre": 7400,
      "Ġbatter": 7401,
      "Ġrese": 7402,
      "angles": 7403,
      "ĠRemove": 7404,
      "=(": 7405,
      "Ġshift": 7406,
      "utex": 7407,
      "anta": 7408,
      "Ġrevenue": 7409,
      "force": 7410,
      "Ġelected": 7411,
      "rapy": 7412,
      "Ġmission": 7413,
      "Love": 7414,
      "Ġgem": 7415,
      "Ġmur": 7416,
      "child": 7417,
      "ĠRi": 7418,
      "Ġyours": 7419,
      "zero": 7420,
      "Ġdelic": 7421,
      "ĠEnt": 7422,
      "ĠFourier": 7423,
      "azon": 7424,
      "Ġassistance": 7425,
      "ĠStandard": 7426,
      "Ġpsych": 7427,
      "ada": 7428,
      "Ġwebsites": 7429,
      "build": 7430,
      "ĠPos": 7431,
      "ĠDeclare": 7432,
      "Ġkernel": 7433,
      "Ġindicating": 7434,
      "Ġeye": 7435,
      "Ġnuc": 7436,
      "^{\\\\": 7437,
      "Ġsouthern": 7438,
      "Ġlived": 7439,
      "Ġheuristic": 7440,
      "Ġ('": 7441,
      "Ġvoc": 7442,
      "func": 7443,
      "Ġvibes": 7444,
      "ĠMethod": 7445,
      "liers": 7446,
      "Ġprimarily": 7447,
      "ĠReplace": 7448,
      "Ġtermin": 7449,
      "Ġinterested": 7450,
      "Ġhal": 7451,
      "Ġscaling": 7452,
      "Ġgrant": 7453,
      "LECT": 7454,
      "ĠCa": 7455,
      "ĠCy": 7456,
      "Ġpasses": 7457,
      "ĠCat": 7458,
      "Ġbuff": 7459,
      "liament": 7460,
      "lers": 7461,
      "icket": 7462,
      "linear": 7463,
      "Ġ180": 7464,
      "Generate": 7465,
      "Ġtough": 7466,
      "Ġphil": 7467,
      "ranches": 7468,
      "Ġfascinating": 7469,
      "rain": 7470,
      "ĠMong": 7471,
      "Ġmusical": 7472,
      "Ġgap": 7473,
      "Ġgarden": 7474,
      "Ġpoem": 7475,
      "Ġaccessing": 7476,
      "element": 7477,
      "Wow": 7478,
      "ĠSGP": 7479,
      "Ġ2017": 7480,
      "disambiguation": 7481,
      "atural": 7482,
      "Ġclock": 7483,
      "ĠTur": 7484,
      "Ġarrow": 7485,
      "phone": 7486,
      "ĠOrgan": 7487,
      "Ġdrawing": 7488,
      "ĠSarah": 7489,
      "ishes": 7490,
      "Ġroll": 7491,
      "Ġopposite": 7492,
      "Ġpull": 7493,
      "Ġdied": 7494,
      "Ġwonder": 7495,
      "Ġvehicles": 7496,
      "Ġintersection": 7497,
      "Ġboy": 7498,
      "ĠAtl": 7499,
      "Ġiniti": 7500,
      "burg": 7501,
      "stone": 7502,
      "args": 7503,
      "ĠSave": 7504,
      "Ġformats": 7505,
      "Ġproducer": 7506,
      "ĠLike": 7507,
      "ĠKubernetes": 7508,
      "Ġentity": 7509,
      "sharp": 7510,
      "wide": 7511,
      "Ġoperate": 7512,
      "Ġhappens": 7513,
      "Ġdance": 7514,
      "Ġceleb": 7515,
      ".\"}": 7516,
      "Ġ\"\",": 7517,
      "Ġfantastic": 7518,
      "Ġarbitr": 7519,
      "300": 7520,
      "ativity": 7521,
      "async": 7522,
      "Ġlon": 7523,
      "iply": 7524,
      "config": 7525,
      "ĠCross": 7526,
      "ĠHave": 7527,
      "Ġscores": 7528,
      "ĠChinese": 7529,
      "Ġbacktracking": 7530,
      "Ġstudio": 7531,
      "Ġ186": 7532,
      "1000": 7533,
      "ĠGen": 7534,
      "Ġdrag": 7535,
      "Ġswim": 7536,
      "Em": 7537,
      "arithm": 7538,
      "pling": 7539,
      "Ġgrew": 7540,
      "fin": 7541,
      "Ġthoughts": 7542,
      "ROM": 7543,
      "ĠEvent": 7544,
      "Ġenclosed": 7545,
      "Object": 7546,
      "Function": 7547,
      "NN": 7548,
      "oration": 7549,
      "ittle": 7550,
      "Ġunknown": 7551,
      "neg": 7552,
      "Ġcharts": 7553,
      ")*": 7554,
      "SS": 7555,
      "Ġpig": 7556,
      "ĠWonderful": 7557,
      "ĠOf": 7558,
      "Ġrecently": 7559,
      "Ġdepartment": 7560,
      "Ġnarr": 7561,
      "Ġ`-": 7562,
      "Ġcompression": 7563,
      "Ġcombines": 7564,
      "web": 7565,
      "Ġhesitate": 7566,
      "Ġfamilies": 7567,
      "55": 7568,
      "Ġdress": 7569,
      "hers": 7570,
      "Ġperfection": 7571,
      "ĠGeorgia": 7572,
      "CH": 7573,
      "ĠHad": 7574,
      "ĠLim": 7575,
      "Ġoverview": 7576,
      "Ġcourt": 7577,
      "atin": 7578,
      "Ġpolicies": 7579,
      "Man": 7580,
      "Ġsubsequ": 7581,
      "Ġbenefit": 7582,
      "erate": 7583,
      "ĠPM": 7584,
      "ĠDa": 7585,
      "198": 7586,
      "efficient": 7587,
      "ĠNon": 7588,
      "à¤¿": 7589,
      "Ġearned": 7590,
      "Ġloading": 7591,
      "Ġextremely": 7592,
      "^\\\\": 7593,
      "}}{": 7594,
      "Ġlazy": 7595,
      "Ġ1988": 7596,
      "Ġearth": 7597,
      "Ġrisks": 7598,
      "Ġpoor": 7599,
      "Ġdetermining": 7600,
      "ikit": 7601,
      "Ġaccompl": 7602,
      "Ġproof": 7603,
      "ĠWal": 7604,
      "Ġindexing": 7605,
      "Ġcollision": 7606,
      "Ġtensor": 7607,
      "ician": 7608,
      "ĠPlayer": 7609,
      "JS": 7610,
      "Ġpizz": 7611,
      "Ġserial": 7612,
      "Ġdenominator": 7613,
      "mas": 7614,
      "then": 7615,
      "Ġresear": 7616,
      "eon": 7617,
      "Ġbattle": 7618,
      "ĠAwards": 7619,
      "vere": 7620,
      "ĠSong": 7621,
      "plex": 7622,
      "ĠKotlin": 7623,
      "Ġframeworks": 7624,
      "rab": 7625,
      "Ġ1989": 7626,
      "lihood": 7627,
      "Ġ`(": 7628,
      "Ġcovers": 7629,
      "Ġmixed": 7630,
      "Ġsurrounding": 7631,
      "ĠHandling": 7632,
      "Hope": 7633,
      "Ġcir": 7634,
      "Ġfancy": 7635,
      "ĠIr": 7636,
      "Ġnorthern": 7637,
      "Ġweigh": 7638,
      "ĠHighway": 7639,
      "Ġobserve": 7640,
      "ĠTransport": 7641,
      "Ġpartners": 7642,
      "incial": 7643,
      "Ġpreser": 7644,
      "Ġdisplayed": 7645,
      "De": 7646,
      "amily": 7647,
      "nders": 7648,
      "ĠNetworkX": 7649,
      "rill": 7650,
      "pan": 7651,
      "illed": 7652,
      "cription": 7653,
      "matlab": 7654,
      "Ġhappened": 7655,
      "Ġaircraft": 7656,
      "ĠMichigan": 7657,
      "Ġrouting": 7658,
      "Ġbrain": 7659,
      "Ġ`$": 7660,
      "Ġaccel": 7661,
      "Ġouter": 7662,
      "Ġschedule": 7663,
      "ayout": 7664,
      "Ġprofile": 7665,
      "Ġtyping": 7666,
      "Ġprotein": 7667,
      "Ġvideos": 7668,
      "ĠPage": 7669,
      "250": 7670,
      "valid": 7671,
      "Ġbillion": 7672,
      "Ġsummarize": 7673,
      "Ġrestaurant": 7674,
      "ĠIreland": 7675,
      "oper": 7676,
      "tuitive": 7677,
      "ĠPract": 7678,
      "Ġneur": 7679,
      "Ġtele": 7680,
      "Ġnative": 7681,
      ")}{": 7682,
      "ĠHome": 7683,
      "Ġpurs": 7684,
      "ĠLab": 7685,
      "apers": 7686,
      "Ġstret": 7687,
      "ĠDijkstra": 7688,
      "ĠHindi": 7689,
      "ĠTensorFlow": 7690,
      "Ġflat": 7691,
      "Ġfiltered": 7692,
      "Ġvegetables": 7693,
      "ĠLambda": 7694,
      "ĠMatplotlib": 7695,
      "?\\\"": 7696,
      "illy": 7697,
      "ĠPress": 7698,
      "ĠMonday": 7699,
      "Ġalum": 7700,
      "Ġextended": 7701,
      "Ġinheritance": 7702,
      "ĠConcurrency": 7703,
      "Ġleaks": 7704,
      "ĠJo": 7705,
      "à¥Ģ": 7706,
      "Ġmechanisms": 7707,
      "iant": 7708,
      "ĠLong": 7709,
      "Ġmonitor": 7710,
      "Ġ2021": 7711,
      "Ġ1987": 7712,
      "Ġspring": 7713,
      "BS": 7714,
      "uries": 7715,
      "Ġarm": 7716,
      "Ġmedal": 7717,
      "Ġfailure": 7718,
      "gers": 7719,
      "Ġfewer": 7720,
      "Ġremained": 7721,
      "Ġfocuses": 7722,
      "Ġvan": 7723,
      "Ġali": 7724,
      "Ġrelax": 7725,
      "strument": 7726,
      "Ġindependently": 7727,
      "Ġdefinitions": 7728,
      "ĠBinary": 7729,
      "ĠES": 7730,
      "Ġgreeting": 7731,
      "Ġsky": 7732,
      "parent": 7733,
      "Ġbranches": 7734,
      "ĠSDK": 7735,
      "Ġsettle": 7736,
      "Ġmanageable": 7737,
      "Ġconquer": 7738,
      "Ġmagazine": 7739,
      "Ġanti": 7740,
      "csharp": 7741,
      "Ġmaster": 7742,
      "Ġbasically": 7743,
      "Ġimplies": 7744,
      "Ġstandards": 7745,
      "Ġtemplates": 7746,
      "Ġsensitive": 7747,
      "Enter": 7748,
      "och": 7749,
      "ool": 7750,
      "Ġdaughter": 7751,
      "ĠVen": 7752,
      "Ġ65": 7753,
      "Ġsauce": 7754,
      "Ġcharge": 7755,
      "Ġstopping": 7756,
      "ipp": 7757,
      "Ġcub": 7758,
      "Ġservers": 7759,
      "Ġsuggestions": 7760,
      "password": 7761,
      "Add": 7762,
      "Ġcv": 7763,
      "Ġassume": 7764,
      "Ġallocate": 7765,
      "ped": 7766,
      "win": 7767,
      "rocessing": 7768,
      "atus": 7769,
      "irt": 7770,
      "ĠFlo": 7771,
      "ĠHead": 7772,
      "Ġrou": 7773,
      "Ġcrossing": 7774,
      "Ġminute": 7775,
      "Ġfro": 7776,
      "Ġeveryday": 7777,
      "Ġencounter": 7778,
      "ĠOrig": 7779,
      "Ġcups": 7780,
      "When": 7781,
      "stab": 7782,
      "under": 7783,
      "\\\").": 7784,
      "Ġweaves": 7785,
      "ĠEucl": 7786,
      "Ġenem": 7787,
      "ĠForce": 7788,
      "ĠWay": 7789,
      "poses": 7790,
      "34": 7791,
      "Ġbegins": 7792,
      "locks": 7793,
      "Ġrealized": 7794,
      "ĠManagement": 7795,
      "Ġbirds": 7796,
      "ker": 7797,
      "Ġwalking": 7798,
      "Ġreferences": 7799,
      "ĠBase": 7800,
      "ĠReview": 7801,
      "Ġtowns": 7802,
      "}=": 7803,
      "Ġstudying": 7804,
      "Ġfiber": 7805,
      "Ġ[\\\"": 7806,
      "Ġannual": 7807,
      "Ġgirl": 7808,
      "target": 7809,
      "ĠDE": 7810,
      "Ġshot": 7811,
      "rightarrow": 7812,
      "Ġrendering": 7813,
      "ĠHigher": 7814,
      "Ġwire": 7815,
      "Ġsaying": 7816,
      "Ġbiggest": 7817,
      "ains": 7818,
      "Ġdespite": 7819,
      "Ġartist": 7820,
      "Ġbin": 7821,
      "Ġfear": 7822,
      "Ġcomputational": 7823,
      "Ġinterests": 7824,
      "Ġsatellites": 7825,
      "xiety": 7826,
      "Ġcomplic": 7827,
      "ĠInsert": 7828,
      "oma": 7829,
      "nty": 7830,
      "Ġlisten": 7831,
      "directory": 7832,
      "ĠJose": 7833,
      "38": 7834,
      "Ġnoise": 7835,
      "ĠXcode": 7836,
      "Ġbroken": 7837,
      "ilton": 7838,
      "Ġtheme": 7839,
      "Ġrobust": 7840,
      "fix": 7841,
      "Ġmutable": 7842,
      "Ġlib": 7843,
      "ĠCost": 7844,
      "Ġdestination": 7845,
      "ĠOhio": 7846,
      "Ġchocolate": 7847,
      "Ġmedium": 7848,
      "Ġguarant": 7849,
      "Ġemployee": 7850,
      "ĠFilter": 7851,
      "Ġmeets": 7852,
      "Ġsuppose": 7853,
      "ĠTrack": 7854,
      "Ġvote": 7855,
      "Ġ$<<": 7856,
      "Ġ\\\"\\\"\\\"": 7857,
      "Ġcontroller": 7858,
      "tenance": 7859,
      "Ġdeliver": 7860,
      "rated": 7861,
      "Ġlately": 7862,
      "Ġslices": 7863,
      "ĠPack": 7864,
      "Ġintended": 7865,
      "Ġmonitoring": 7866,
      "ĠDescribe": 7867,
      "Ġcart": 7868,
      "Ġborrow": 7869,
      "ĠSports": 7870,
      "Ġroutine": 7871,
      "undred": 7872,
      "OST": 7873,
      "]`": 7874,
      "asant": 7875,
      "ĠDocument": 7876,
      "Ġshif": 7877,
      "Ġintroduction": 7878,
      "Ġsurprise": 7879,
      "mond": 7880,
      "Ġfif": 7881,
      "Ġboundary": 7882,
      "Ġinfinite": 7883,
      "US": 7884,
      "irts": 7885,
      "ĠLL": 7886,
      "Ġflag": 7887,
      "Ġsimplifies": 7888,
      "Ġsatisfies": 7889,
      "ulp": 7890,
      "ria": 7891,
      "ĠGET": 7892,
      "Ġextend": 7893,
      "Ġscientists": 7894,
      "ĠCam": 7895,
      "riday": 7896,
      "ĠCommission": 7897,
      "One": 7898,
      "ĠPass": 7899,
      "ĠExec": 7900,
      "ĠAnn": 7901,
      "ĠGermany": 7902,
      "Stu": 7903,
      "grade": 7904,
      "ĠCharles": 7905,
      "Ġproposed": 7906,
      "ĠCirc": 7907,
      "ĠGreek": 7908,
      "module": 7909,
      "Ġinformed": 7910,
      "instrument": 7911,
      "ĠDog": 7912,
      "Exception": 7913,
      "gener": 7914,
      "Ġdry": 7915,
      "Ġidentified": 7916,
      "Ġcandy": 7917,
      "oded": 7918,
      "ĠProduct": 7919,
      "Ġcontrols": 7920,
      "ĠStud": 7921,
      "Ġmagical": 7922,
      "Ġcamera": 7923,
      "Ġmicroservices": 7924,
      "$;": 7925,
      "zy": 7926,
      "anda": 7927,
      "Ġwasn": 7928,
      "greet": 7929,
      "Ġexercises": 7930,
      "Ġdimension": 7931,
      "anned": 7932,
      "Ġlandsc": 7933,
      "Ġdiscrete": 7934,
      "casting": 7935,
      "Ġalgebraic": 7936,
      "ĠHistoric": 7937,
      "Ġpi": 7938,
      "Ġmultithread": 7939,
      "Ġreduction": 7940,
      "Ġdelve": 7941,
      "Ġinspired": 7942,
      "unior": 7943,
      "ups": 7944,
      ")))": 7945,
      "imeter": 7946,
      "ĠGrand": 7947,
      "Ġdoor": 7948,
      "Ġdesigns": 7949,
      "Ġrecommendations": 7950,
      "Sort": 7951,
      "kin": 7952,
      "stood": 7953,
      "aria": 7954,
      "Ġprepar": 7955,
      "ĠAcademy": 7956,
      "ĠPakistan": 7957,
      "120": 7958,
      "ĠDFS": 7959,
      "Ġlogarithm": 7960,
      "Ġskill": 7961,
      "Ġtracks": 7962,
      "Ġcauses": 7963,
      "ĠWriting": 7964,
      "gal": 7965,
      "iance": 7966,
      "ĠAnimal": 7967,
      "ye": 7968,
      "omega": 7969,
      "berg": 7970,
      "IP": 7971,
      "found": 7972,
      "Ġast": 7973,
      "Your": 7974,
      "ĠPac": 7975,
      "Ġoffering": 7976,
      "cious": 7977,
      "Ġfaced": 7978,
      "Ġgreatest": 7979,
      "Ġrad": 7980,
      "Ġrapid": 7981,
      "backs": 7982,
      "dfrac": 7983,
      "iler": 7984,
      "ĠEns": 7985,
      "ĠMex": 7986,
      "Ġindices": 7987,
      "ĠTechnology": 7988,
      "ĠEqu": 7989,
      "Ġtransformations": 7990,
      "Ġwalls": 7991,
      "ĠSouthern": 7992,
      "()`.": 7993,
      "Ġspecifies": 7994,
      "Ġharmless": 7995,
      "37": 7996,
      "Ġkilled": 7997,
      "unte": 7998,
      "umps": 7999,
      "Ġseat": 8000,
      "Ġretrieval": 8001,
      "fulness": 8002,
      "Ġpartner": 8003,
      "Ġagre": 8004,
      "orange": 8005,
      "Ġstrict": 8006,
      "oda": 8007,
      "Ġrid": 8008,
      "idean": 8009,
      "acks": 8010,
      "Ġnotes": 8011,
      "Ġinstant": 8012,
      "Ġinjection": 8013,
      "nic": 8014,
      "Ġlake": 8015,
      "ĠMind": 8016,
      "Ġ1984": 8017,
      "44": 8018,
      "ĠGive": 8019,
      "Ġreader": 8020,
      "Ġsupported": 8021,
      "Ġborder": 8022,
      "ĠAny": 8023,
      "ĠImage": 8024,
      "Ġimprovements": 8025,
      "Ġmarried": 8026,
      "random": 8027,
      "Ġforeign": 8028,
      "ĠItalian": 8029,
      "bb": 8030,
      "Ġheav": 8031,
      "ĠWishing": 8032,
      "Ġ37": 8033,
      "ĠOnt": 8034,
      "ĠStation": 8035,
      "Ġsolar": 8036,
      "Ġsolved": 8037,
      "ĠJew": 8038,
      "Ġuniform": 8039,
      "Ġgoods": 8040,
      "Ġbrackets": 8041,
      "abling": 8042,
      "ĠFROM": 8043,
      "ĠLoc": 8044,
      "Ġspatial": 8045,
      "Ġclosely": 8046,
      "Ġwestern": 8047,
      "Sum": 8048,
      "Ġgar": 8049,
      "ĠBFS": 8050,
      "Ġpersonalized": 8051,
      "Ġdeviation": 8052,
      "Ġdrop": 8053,
      "Ġconj": 8054,
      "ĠHaw": 8055,
      "Ġsched": 8056,
      "Ġquantity": 8057,
      "Ġecosystem": 8058,
      "Ġbars": 8059,
      "employ": 8060,
      "Ġkid": 8061,
      "ĠKar": 8062,
      "Ġentered": 8063,
      "Ġpaint": 8064,
      "World": 8065,
      "Ġcaught": 8066,
      "Ġfeels": 8067,
      "Ġcelebr": 8068,
      "Ġcas": 8069,
      "uses": 8070,
      "ette": 8071,
      "ĠMike": 8072,
      "Ġorders": 8073,
      "Ġunex": 8074,
      "Ġkit": 8075,
      "Ġproductivity": 8076,
      "Ġscripting": 8077,
      "Ġatmosphere": 8078,
      "ĠHence": 8079,
      "]);": 8080,
      "Ġ1950": 8081,
      "ĠStream": 8082,
      "Ġagric": 8083,
      "azz": 8084,
      "factorial": 8085,
      "Ġcriteria": 8086,
      "Ġreviews": 8087,
      "height": 8088,
      "ĠSand": 8089,
      "ĠBow": 8090,
      "Ġprison": 8091,
      "à¥Ī": 8092,
      "Ġfocusing": 8093,
      "Ġoccurrences": 8094,
      "Ġconsequences": 8095,
      "ĠPDF": 8096,
      "Ġplus": 8097,
      "Ġregardless": 8098,
      "Ġmistakes": 8099,
      "ĠBC": 8100,
      "Ġvisually": 8101,
      "Ġintegrity": 8102,
      "ĠEngineering": 8103,
      "ĠJohns": 8104,
      "eq": 8105,
      "Ġsrc": 8106,
      "Ġ`/": 8107,
      "osoph": 8108,
      "Ġ55": 8109,
      "Ġconsec": 8110,
      "anged": 8111,
      "Ġmarvelous": 8112,
      "Ġheader": 8113,
      "Ġpurposes": 8114,
      "Ġvehicle": 8115,
      "Ph": 8116,
      "Rem": 8117,
      "Ġconstructed": 8118,
      "ĠArea": 8119,
      "Ġfederal": 8120,
      "ĠDri": 8121,
      "Ġsklearn": 8122,
      "score": 8123,
      "ournament": 8124,
      "Ġclustering": 8125,
      "iences": 8126,
      "otic": 8127,
      "Ġtrains": 8128,
      "ĠOfficial": 8129,
      "mem": 8130,
      "Ġanxiety": 8131,
      "icine": 8132,
      "Ġjoint": 8133,
      "Ġpygame": 8134,
      "ltk": 8135,
      "ĠHenry": 8136,
      "Forms": 8137,
      "stac": 8138,
      "ĠBlo": 8139,
      "eps": 8140,
      "Ġdecom": 8141,
      "Ġautomation": 8142,
      "Sp": 8143,
      "Ġassignment": 8144,
      "ĠFunctional": 8145,
      "Ġhappen": 8146,
      "Ġmetal": 8147,
      "Ġbelieved": 8148,
      "ucky": 8149,
      "Ġurban": 8150,
      "ĠRichard": 8151,
      "39": 8152,
      "AA": 8153,
      "ifact": 8154,
      "click": 8155,
      "Ġdish": 8156,
      "ĠDesigning": 8157,
      "Ġmel": 8158,
      "Ġclicking": 8159,
      "Ġprep": 8160,
      "Ġreact": 8161,
      "Ġconcern": 8162,
      "ĠJersey": 8163,
      "Ġgro": 8164,
      "odies": 8165,
      "ĠDra": 8166,
      "Animal": 8167,
      "ĠMedia": 8168,
      "ĠBrown": 8169,
      "Ġnearly": 8170,
      "Ġboys": 8171,
      "Ġgirls": 8172,
      "Lovely": 8173,
      "ĠKent": 8174,
      "Ġregularly": 8175,
      "Ġactress": 8176,
      "Ġshopping": 8177,
      "Ġillustrate": 8178,
      "Ġhorizont": 8179,
      "sigma": 8180,
      "ĠNOT": 8181,
      "Ġtrained": 8182,
      "Ġheads": 8183,
      "ĠError": 8184,
      "Ġlaunched": 8185,
      "ĠUpdate": 8186,
      "ogether": 8187,
      "Ġbehaviors": 8188,
      "ĠAmazon": 8189,
      "Ġacquired": 8190,
      "lets": 8191,
      "Ġ56": 8192,
      "Ġvision": 8193,
      "}^{\\\\": 8194,
      "Ġdiscussion": 8195,
      "Ġhaven": 8196,
      "Ġworker": 8197,
      "Ġkept": 8198,
      "Ġmole": 8199,
      "train": 8200,
      "Ġdelivery": 8201,
      "atile": 8202,
      "ĠTowns": 8203,
      "Ġdelet": 8204,
      "VC": 8205,
      "Ġexpansion": 8206,
      "____": 8207,
      "Ġsquared": 8208,
      "pur": 8209,
      "Ġbyte": 8210,
      "Field": 8211,
      "ĠMuse": 8212,
      "Ġtherefore": 8213,
      "Ġmostly": 8214,
      "ĠProfess": 8215,
      "Ġconvergence": 8216,
      "Ġcontribution": 8217,
      "Integer": 8218,
      "Ġsnow": 8219,
      "rael": 8220,
      "Ġunderstood": 8221,
      "Ġmuse": 8222,
      "instorm": 8223,
      "ĠRESTful": 8224,
      "Ġ38": 8225,
      "ĠArts": 8226,
      "Ġ1985": 8227,
      "Ġjobs": 8228,
      "inois": 8229,
      "Ġcredit": 8230,
      "ĠIntegrating": 8231,
      "she": 8232,
      "alks": 8233,
      "Ġrough": 8234,
      "Ġcalculation": 8235,
      "Ġreadability": 8236,
      "Ġ1983": 8237,
      "Ġà¤ķ": 8238,
      "Ġcandies": 8239,
      "Ġacademic": 8240,
      "ĠRen": 8241,
      "rolling": 8242,
      "cm": 8243,
      "ipy": 8244,
      "Ġtechnical": 8245,
      "stic": 8246,
      "iminal": 8247,
      "ĠMot": 8248,
      "Ġrecording": 8249,
      "Ġvisits": 8250,
      "ĠConsole": 8251,
      "Ġphase": 8252,
      "Ġaddresses": 8253,
      "Ġcomfortable": 8254,
      "Ġfingerprints": 8255,
      "Ad": 8256,
      "($": 8257,
      "RU": 8258,
      "Ġabilities": 8259,
      "Ġfat": 8260,
      "Ġà¤¤": 8261,
      "ometric": 8262,
      "cies": 8263,
      "git": 8264,
      "acter": 8265,
      "ĠRev": 8266,
      "Ġmyself": 8267,
      "ursive": 8268,
      "Ġdivisible": 8269,
      "ĠOntario": 8270,
      "dt": 8271,
      "Ġremark": 8272,
      "Ġrelatively": 8273,
      "chemy": 8274,
      "ĠProgramming": 8275,
      "cat": 8276,
      "ipping": 8277,
      "}+": 8278,
      "Ġpenc": 8279,
      "Ġhuge": 8280,
      "Ġ`'": 8281,
      "Ġdiverse": 8282,
      "Ġages": 8283,
      "Ġactivation": 8284,
      "Ġcere": 8285,
      "ĠLook": 8286,
      "Ġunless": 8287,
      "Ġclicked": 8288,
      "stack": 8289,
      "ĠValue": 8290,
      "ĠConsequently": 8291,
      "Ġadministr": 8292,
      "Ġsq": 8293,
      "Ġhar": 8294,
      "ĠMill": 8295,
      "Ġsentences": 8296,
      "directed": 8297,
      "Ġvac": 8298,
      "Ġwinning": 8299,
      "Ġdeployment": 8300,
      "=$": 8301,
      "Ġcaching": 8302,
      "ĠSvelte": 8303,
      "ansas": 8304,
      "Ġ600": 8305,
      "Ġstructured": 8306,
      "ĠDistrib": 8307,
      "Ġreligious": 8308,
      "emplate": 8309,
      "ĠAsia": 8310,
      "Ġgrav": 8311,
      "Ġboundaries": 8312,
      "ĠSolving": 8313,
      "ĠEner": 8314,
      "ĠDig": 8315,
      "Ġhouses": 8316,
      "ĠCatholic": 8317,
      "bound": 8318,
      "tons": 8319,
      "Ġtaste": 8320,
      "ega": 8321,
      "Ġneighbors": 8322,
      "Ġindustries": 8323,
      "ĠDen": 8324,
      "Ġengagement": 8325,
      "ĠWhy": 8326,
      "ĠServices": 8327,
      "Ġtransforming": 8328,
      "Post": 8329,
      "Ġfuel": 8330,
      "uesday": 8331,
      "Ġtruth": 8332,
      "Ġsymmetric": 8333,
      "Ġtracking": 8334,
      "dependent": 8335,
      "Ġtickets": 8336,
      "sorted": 8337,
      "AN": 8338,
      "Ġ$(\\\\": 8339,
      "berry": 8340,
      "Ġ1986": 8341,
      "ĠTer": 8342,
      "Ġspr": 8343,
      "Ġ2022": 8344,
      "Ġgeneric": 8345,
      "Ġtags": 8346,
      "oral": 8347,
      "Ġdecide": 8348,
      "Ġounces": 8349,
      "}=\\\\": 8350,
      "ĠEvalu": 8351,
      "akers": 8352,
      "ĠWant": 8353,
      "ĠCompar": 8354,
      "Ġclaims": 8355,
      "ĠCommunity": 8356,
      "Ġbasketball": 8357,
      "ĠLy": 8358,
      "ĠLar": 8359,
      "Ġsoil": 8360,
      "jection": 8361,
      "ĠInside": 8362,
      "++\",": 8363,
      "Ġcircum": 8364,
      "last": 8365,
      "Ġtoler": 8366,
      "Ġmit": 8367,
      "Ġstable": 8368,
      "ilater": 8369,
      "ĠJen": 8370,
      "Ġcompletion": 8371,
      "Ġexperienced": 8372,
      "ĠIllinois": 8373,
      "Ġsurprisingly": 8374,
      "49": 8375,
      "cost": 8376,
      "Ġasks": 8377,
      "Ġspect": 8378,
      "Ġemissions": 8379,
      "Ġownership": 8380,
      "Ġreceiver": 8381,
      "Ġshaping": 8382,
      "Ġride": 8383,
      "whel": 8384,
      "Ġmile": 8385,
      "Ġhence": 8386,
      "Ġrh": 8387,
      "Ġcoverage": 8388,
      "Ġtun": 8389,
      "Ġcompiled": 8390,
      "Ġintervals": 8391,
      "Ġtelling": 8392,
      "Ġmajority": 8393,
      "Ġderivatives": 8394,
      "Ġquarter": 8395,
      "Ġchemical": 8396,
      "Ġnet": 8397,
      "ĠBoy": 8398,
      "ĠWed": 8399,
      "Ġexistence": 8400,
      "ĠDoe": 8401,
      "nodejs": 8402,
      "ĠSecurity": 8403,
      "Ġresidents": 8404,
      "Ġow": 8405,
      "Ġho": 8406,
      "import": 8407,
      "Ġ((": 8408,
      "Ġnecess": 8409,
      "Ġinteraction": 8410,
      "Ġmodifying": 8411,
      "Ġpossess": 8412,
      "ME": 8413,
      "Ġcul": 8414,
      "ĠTour": 8415,
      "users": 8416,
      "Ġobstac": 8417,
      "const": 8418,
      "Ġdebugger": 8419,
      "Ġoccurred": 8420,
      "ench": 8421,
      "Ġ`__": 8422,
      "ĠLittle": 8423,
      "Ġessay": 8424,
      "Ġaccordingly": 8425,
      "fo": 8426,
      "ii": 8427,
      "ĠSH": 8428,
      "icksort": 8429,
      "ĠInternet": 8430,
      "âĢ": 8431,
      "Ġ::": 8432,
      "Ġsch": 8433,
      "Ġ49": 8434,
      "Ġconfidence": 8435,
      "ĠFeature": 8436,
      "Ġdiagram": 8437,
      "Ġfailed": 8438,
      "ĠMur": 8439,
      "ferent": 8440,
      "++.": 8441,
      "ĠApply": 8442,
      "ĠDivide": 8443,
      "Ġdedicated": 8444,
      "Ġopin": 8445,
      "bell": 8446,
      "cause": 8447,
      "lla": 8448,
      "dev": 8449,
      "Ġediting": 8450,
      "Ġtransactions": 8451,
      "gypt": 8452,
      "ĠFace": 8453,
      "ĠJeff": 8454,
      "ĠBeach": 8455,
      "Ġuniverse": 8456,
      "Americ": 8457,
      "Ġdensity": 8458,
      "ĠLight": 8459,
      "Ġcold": 8460,
      "Always": 8461,
      "Ġcube": 8462,
      "Ġdiet": 8463,
      "Ġpurchased": 8464,
      "haps": 8465,
      "isc": 8466,
      "forc": 8467,
      "Ġcourses": 8468,
      "Ġlegisl": 8469,
      "ĠSunday": 8470,
      "Ġchicken": 8471,
      "City": 8472,
      "Ġspo": 8473,
      "Ġencoding": 8474,
      "Ġexplores": 8475,
      "FA": 8476,
      "itter": 8477,
      "ĠCorpor": 8478,
      "ainer": 8479,
      "Ġrelation": 8480,
      "Ġattended": 8481,
      "Ġcarefully": 8482,
      "Ġseparated": 8483,
      "Ġseeds": 8484,
      "Ġchair": 8485,
      "Ġdishes": 8486,
      "ĠDeterm": 8487,
      "ĠEuclidean": 8488,
      "ĠEnergy": 8489,
      "ashion": 8490,
      "Ġrent": 8491,
      "Ġsubclass": 8492,
      "Ġsale": 8493,
      "Ġcrow": 8494,
      "Ġbeans": 8495,
      "Ġexplanation": 8496,
      "Ġpal": 8497,
      "quality": 8498,
      "Ġlikelihood": 8499,
      "Ġdependent": 8500,
      "Ġcrime": 8501,
      "Ġkilomet": 8502,
      "ĠMoreover": 8503,
      "Ġsatisfying": 8504,
      "ĠWin": 8505,
      "\\\"></": 8506,
      "sim": 8507,
      "Ġic": 8508,
      "idae": 8509,
      "ĠGCC": 8510,
      "Ġretail": 8511,
      "ipality": 8512,
      "ernary": 8513,
      "ĠCommit": 8514,
      "onymous": 8515,
      "pred": 8516,
      "Ġthick": 8517,
      "ĠChild": 8518,
      "Ġsmile": 8519,
      "Ġengines": 8520,
      "Ġhyper": 8521,
      "Ġcoroutine": 8522,
      "ĠBusiness": 8523,
      "ĠPacific": 8524,
      "ĠTenn": 8525,
      "ĠTony": 8526,
      "elli": 8527,
      "ĠBoard": 8528,
      "`)": 8529,
      "Ġstem": 8530,
      "Ġtrave": 8531,
      "Ġoverl": 8532,
      "Ġmacros": 8533,
      "600": 8534,
      "Click": 8535,
      "]`.": 8536,
      "ĠChange": 8537,
      "Ġarbitrary": 8538,
      "rat": 8539,
      "rement": 8540,
      "olved": 8541,
      "ĠDutch": 8542,
      "ĠFriday": 8543,
      "perform": 8544,
      "Ġmeant": 8545,
      "reedom": 8546,
      "ett": 8547,
      "Ġ33": 8548,
      "(),": 8549,
      "Ġprocessors": 8550,
      "ĠUnit": 8551,
      "Ġsinger": 8552,
      "Ġmixture": 8553,
      "cknow": 8554,
      "being": 8555,
      "Ġsuggests": 8556,
      "Ġconstraint": 8557,
      "ĠTransform": 8558,
      "54": 8559,
      "Ġnation": 8560,
      "Ġaccident": 8561,
      "Ġmaintenance": 8562,
      "lishing": 8563,
      "Ġestimated": 8564,
      "Ġsavings": 8565,
      "Ġembedded": 8566,
      "ĠJoe": 8567,
      "());": 8568,
      "Ġoverwhel": 8569,
      "ĠJSX": 8570,
      "Ġprinted": 8571,
      "Ġraw": 8572,
      "Ġ1982": 8573,
      "Ġexponential": 8574,
      "150": 8575,
      "Ġ);": 8576,
      "ĠFree": 8577,
      "orders": 8578,
      "à¤ķ": 8579,
      "Ġstandardized": 8580,
      "_{\\\\": 8581,
      "Ġnovels": 8582,
      "Ġcitizens": 8583,
      "rad": 8584,
      "ods": 8585,
      "price": 8586,
      "Ġlooked": 8587,
      "Ġlaws": 8588,
      "Ġcoefficient": 8589,
      "|\\\\": 8590,
      "Ġfirm": 8591,
      "advantages": 8592,
      "ĠFord": 8593,
      "Ġcorpor": 8594,
      "ĠAlbert": 8595,
      "Ġcentre": 8596,
      "Ġmaintainable": 8597,
      "ĠCoast": 8598,
      "Ġsmoothly": 8599,
      "Ġaxis": 8600,
      "Ġslope": 8601,
      "digit": 8602,
      "ĠMongo": 8603,
      "fast": 8604,
      "Ġ~": 8605,
      "Ġ1976": 8606,
      "clojure": 8607,
      "Ġspeech": 8608,
      "ĠInstalling": 8609,
      "traction": 8610,
      "ĠTry": 8611,
      "Ġhundred": 8612,
      "Ġkeywords": 8613,
      "Ġreports": 8614,
      "Ġstrengths": 8615,
      "dney": 8616,
      "Ġocean": 8617,
      "ĠAk": 8618,
      "=<<": 8619,
      "Ġvelo": 8620,
      "Ġdjango": 8621,
      "utor": 8622,
      "ĠMen": 8623,
      "Ġknowing": 8624,
      "plications": 8625,
      "ĠCondition": 8626,
      "amm": 8627,
      "Ġpytest": 8628,
      "ĠSatur": 8629,
      "yan": 8630,
      "ĠVerify": 8631,
      "emporary": 8632,
      "ersion": 8633,
      "Ġrig": 8634,
      "Ġoutliers": 8635,
      "Ġspending": 8636,
      "Ġgrows": 8637,
      "Ġbottlene": 8638,
      "ĠSud": 8639,
      "object": 8640,
      "hetic": 8641,
      "database": 8642,
      "gar": 8643,
      "Ġ$[": 8644,
      "ĠUtil": 8645,
      "ĠServer": 8646,
      "Ġterrit": 8647,
      "ĠCongress": 8648,
      "Ġconsecutive": 8649,
      "Ġascending": 8650,
      "Ġhero": 8651,
      "Ġenabling": 8652,
      "Ġ\\\\).": 8653,
      "Ġconcent": 8654,
      "Ġmeditation": 8655,
      "ĠDNA": 8656,
      "Ġvariance": 8657,
      "forcement": 8658,
      "[\\\"": 8659,
      "cts": 8660,
      "idy": 8661,
      "ĠEgypt": 8662,
      "ĠBecause": 8663,
      "Ġconsumption": 8664,
      "ĠTree": 8665,
      "Ġprev": 8666,
      "ĠAssembly": 8667,
      "Ġbaseball": 8668,
      "Who": 8669,
      "Ġtower": 8670,
      "serv": 8671,
      "ĠIsrael": 8672,
      "Ġbat": 8673,
      "ĠHor": 8674,
      "ĠField": 8675,
      "ĠQt": 8676,
      "Ġsites": 8677,
      "Ġesc": 8678,
      "Describe": 8679,
      "Le": 8680,
      "ras": 8681,
      "erior": 8682,
      "ĠSqu": 8683,
      "Ġinterpreter": 8684,
      "Ġpuzzle": 8685,
      "Type": 8686,
      "Ġdial": 8687,
      "ĠCLI": 8688,
      "Ġrare": 8689,
      "Ġengage": 8690,
      "ĠWithout": 8691,
      "models": 8692,
      "vec": 8693,
      "ĠFrance": 8694,
      "Ġcurious": 8695,
      "Tree": 8696,
      "sea": 8697,
      "Ġeastern": 8698,
      "Ġunexpected": 8699,
      "Ġconve": 8700,
      "Ġconstit": 8701,
      "ilingual": 8702,
      "Ġhoney": 8703,
      "Ġcomedy": 8704,
      "ĠFre": 8705,
      "types": 8706,
      "ometimes": 8707,
      "66": 8708,
      "Ġfle": 8709,
      "Ġstability": 8710,
      "Ġformal": 8711,
      "Ġdrawn": 8712,
      "Ġlabeled": 8713,
      "plicity": 8714,
      "Ġdynamically": 8715,
      "Ġprecisely": 8716,
      "Print": 8717,
      "Ġdomin": 8718,
      "Ġhus": 8719,
      "ĠSa": 8720,
      "Ġforced": 8721,
      "onents": 8722,
      "Ġprotection": 8723,
      "Controller": 8724,
      "Ġlengths": 8725,
      "Ġtank": 8726,
      "Ġthous": 8727,
      "ĠDan": 8728,
      "iana": 8729,
      "nesses": 8730,
      "Ġincredibly": 8731,
      "Given": 8732,
      "Layout": 8733,
      "uit": 8734,
      "ĠPan": 8735,
      "Ġshop": 8736,
      "Ġprinting": 8737,
      "Ġgenus": 8738,
      "Ġcalculus": 8739,
      "Ġpayment": 8740,
      "Ġrecommended": 8741,
      "delta": 8742,
      "bf": 8743,
      "ĠST": 8744,
      "omething": 8745,
      "Ġreceiving": 8746,
      "Ġnested": 8747,
      "Ġreject": 8748,
      "urb": 8749,
      "ĠWomen": 8750,
      "ĠEnd": 8751,
      "Ġpatients": 8752,
      "Ġbrowse": 8753,
      "ĠQueens": 8754,
      "drop": 8755,
      "Ġsport": 8756,
      "insert": 8757,
      "ĠBritain": 8758,
      "Ġtranslate": 8759,
      "Ġaligned": 8760,
      "bro": 8761,
      "hors": 8762,
      "mes": 8763,
      "Ġacknow": 8764,
      "Ġtone": 8765,
      "ĠAND": 8766,
      "ighted": 8767,
      "Ġ85": 8768,
      "ĠPrior": 8769,
      "ĠJohnson": 8770,
      "ique": 8771,
      "Ġsurely": 8772,
      "Ġprecision": 8773,
      "Ġcoordinate": 8774,
      "burgh": 8775,
      "Okay": 8776,
      "ald": 8777,
      "Ġtomat": 8778,
      "ĠMath": 8779,
      "ĠWho": 8780,
      "Ġevaluating": 8781,
      "False": 8782,
      "site": 8783,
      "ĠGir": 8784,
      "Ġ72": 8785,
      "Ġmaybe": 8786,
      "Ġfacts": 8787,
      "Qt": 8788,
      "format": 8789,
      "Ġaggreg": 8790,
      "Ġsenior": 8791,
      "gments": 8792,
      "Ġign": 8793,
      "oned": 8794,
      "Ġgg": 8795,
      "ĠCase": 8796,
      "Ġbeach": 8797,
      "tudio": 8798,
      "Ġ(*": 8799,
      "ĠGUI": 8800,
      "Ġpreced": 8801,
      "ĠRStudio": 8802,
      "Ġreaches": 8803,
      "Ġdesk": 8804,
      "Ġcounty": 8805,
      "space": 8806,
      "Ġconvey": 8807,
      "Ġdetermines": 8808,
      "Ġcomprehension": 8809,
      "Ġly": 8810,
      "ita": 8811,
      "Ġnone": 8812,
      "Ġshall": 8813,
      "ĠYoung": 8814,
      "coming": 8815,
      "ĠTelevision": 8816,
      "ĠSteve": 8817,
      "Ġhypothesis": 8818,
      "Ġhalves": 8819,
      "rus": 8820,
      "ĠTru": 8821,
      "Ġ39": 8822,
      "ĠChrome": 8823,
      "Ġthemes": 8824,
      "Ġparse": 8825,
      "Ġcomplicated": 8826,
      "can": 8827,
      "vate": 8828,
      "Ġpros": 8829,
      "ccer": 8830,
      "ĠSydney": 8831,
      "Ġadventure": 8832,
      "ĠScotland": 8833,
      "Ġalumni": 8834,
      "Che": 8835,
      "comp": 8836,
      "Ġuniversity": 8837,
      "Ġlabor": 8838,
      "Ġresearchers": 8839,
      "Ġhearing": 8840,
      "idential": 8841,
      "ĠEle": 8842,
      "Ġprobabilities": 8843,
      "ĠEastern": 8844,
      "ĠPolit": 8845,
      "Ġpromoting": 8846,
      "Ġrenders": 8847,
      "ĠCivil": 8848,
      "ĠBattle": 8849,
      "Ġvast": 8850,
      "Ġ1979": 8851,
      "ĠCorrect": 8852,
      "jections": 8853,
      "ĠBBC": 8854,
      "ĠExcel": 8855,
      "src": 8856,
      "ĠRh": 8857,
      "Ġevolution": 8858,
      "ĠDisplay": 8859,
      "specific": 8860,
      "Ġtuples": 8861,
      "power": 8862,
      "select": 8863,
      "tery": 8864,
      "Ġamb": 8865,
      "ĠSoft": 8866,
      "Ġdemonstrate": 8867,
      "Ġap": 8868,
      "ĠAvenue": 8869,
      "ĠMil": 8870,
      "ĠThree": 8871,
      ")$$": 8872,
      "inem": 8873,
      "ĠPC": 8874,
      "Ġconsisting": 8875,
      "Ġbrainstorm": 8876,
      "undle": 8877,
      "Ġlistened": 8878,
      "Ġeffectiveness": 8879,
      "balance": 8880,
      "ĠEmpire": 8881,
      "Ġbalanced": 8882,
      "straction": 8883,
      "Ġtranslation": 8884,
      ")-": 8885,
      "reen": 8886,
      "ĠVirtual": 8887,
      "ĠSign": 8888,
      "Ġcreatures": 8889,
      "ĠToken": 8890,
      "Ġblockchain": 8891,
      "Ġtemple": 8892,
      "Ġtranslates": 8893,
      "ba": 8894,
      "Ġcro": 8895,
      "ĠDif": 8896,
      "Ġsimpler": 8897,
      "Ġmovies": 8898,
      "Ġfre": 8899,
      "sistent": 8900,
      "Ġreaders": 8901,
      "Ġdescriptive": 8902,
      "Ġseemed": 8903,
      "Ġhierarchical": 8904,
      "ĠAnalyzing": 8905,
      "cases": 8906,
      "ds": 8907,
      "Ġhun": 8908,
      "\\\"),": 8909,
      "Ġinh": 8910,
      "ighth": 8911,
      "Python": 8912,
      "Ġ44": 8913,
      "Ġcorrelation": 8914,
      "Ġacting": 8915,
      "Context": 8916,
      "Ġphen": 8917,
      "Ġlegs": 8918,
      "Ġpepper": 8919,
      "Ġacts": 8920,
      "''": 8921,
      "Ġtro": 8922,
      "Ġlemon": 8923,
      "Ġ{}": 8924,
      "Ġsocket": 8925,
      "Ġprofiling": 8926,
      "ĠRegister": 8927,
      "Ġfacilit": 8928,
      "Ġhierarchy": 8929,
      "bi": 8930,
      "Ġternary": 8931,
      "Ġorange": 8932,
      "ĠJones": 8933,
      "Ġaims": 8934,
      "Ġsamples": 8935,
      "Ġcircuit": 8936,
      "%.": 8937,
      "Is": 8938,
      "VD": 8939,
      "Ġwish": 8940,
      "Ġnltk": 8941,
      "ercase": 8942,
      "Ġcheer": 8943,
      "content": 8944,
      "ĠAutom": 8945,
      "Ġpreferred": 8946,
      "ĠMuseum": 8947,
      "ĠIndex": 8948,
      "ĠIndust": 8949,
      "Ġ($\\\\": 8950,
      "56": 8951,
      "kg": 8952,
      "ĠEuler": 8953,
      "outs": 8954,
      "Ġthreading": 8955,
      "ĠOpenMP": 8956,
      "Ġprotected": 8957,
      "72": 8958,
      "Ġ52": 8959,
      "Ġinfinity": 8960,
      "---|": 8961,
      "31": 8962,
      "Ġsentiment": 8963,
      "Ġsimilarity": 8964,
      "Ġawait": 8965,
      "Ġphotos": 8966,
      "Do": 8967,
      "haskell": 8968,
      "ownt": 8969,
      "Ġflight": 8970,
      "Ġobserved": 8971,
      "Ġcraft": 8972,
      "ĠAES": 8973,
      "Ġplastic": 8974,
      "aterial": 8975,
      "Ġlogs": 8976,
      "Ġswap": 8977,
      "Ġpanel": 8978,
      "iders": 8979,
      "ĠVideo": 8980,
      "Ġedit": 8981,
      "Ġmodul": 8982,
      "Ġguidelines": 8983,
      "Ġfacilities": 8984,
      "ĠAirport": 8985,
      "ĠSELECT": 8986,
      "geq": 8987,
      "Ġchampions": 8988,
      "ĠRef": 8989,
      "auss": 8990,
      "Ġsingles": 8991,
      "nesday": 8992,
      "Ġphrase": 8993,
      "ĠMongoDB": 8994,
      "ordered": 8995,
      "Ġinstruction": 8996,
      "ĠKit": 8997,
      "Ġlisting": 8998,
      "Ġtricks": 8999,
      "Ġrotation": 9000,
      "Ġsubstitute": 9001,
      "/.": 9002,
      "aver": 9003,
      "ĠOR": 9004,
      "ĠPrim": 9005,
      "ĠCharlie": 9006,
      "Ġdrink": 9007,
      "Ġcooking": 9008,
      "Ġparadigm": 9009,
      "ati": 9010,
      "Ġsigns": 9011,
      "otype": 9012,
      "ĠHun": 9013,
      "Ġspeaking": 9014,
      "ĠImm": 9015,
      "Ġconsistency": 9016,
      "Ġdetermin": 9017,
      "ĠJackson": 9018,
      "Ġconvin": 9019,
      "ĠItaly": 9020,
      "holders": 9021,
      "ĠAJ": 9022,
      "Ġnine": 9023,
      "gex": 9024,
      "ĠInformation": 9025,
      "Ġtransmission": 9026,
      "ymmetric": 9027,
      "Ġmerged": 9028,
      "Ġfibonacci": 9029,
      "Ġaug": 9030,
      "eric": 9031,
      "Ġdie": 9032,
      "ayer": 9033,
      "outheast": 9034,
      "Ġscored": 9035,
      "Ġsorts": 9036,
      "Ġdelay": 9037,
      "authorized": 9038,
      "Ġfly": 9039,
      "Ġnotable": 9040,
      "Test": 9041,
      "mo": 9042,
      "uv": 9043,
      "Ġpul": 9044,
      "ĠBox": 9045,
      "Ġrating": 9046,
      "Ġspends": 9047,
      "à¤®": 9048,
      "Ġaccounts": 9049,
      "Ġmeasuring": 9050,
      "Ġannotations": 9051,
      "Ġggplot": 9052,
      "ĠRay": 9053,
      "ĠInclude": 9054,
      "ĠJud": 9055,
      "ĠLee": 9056,
      "ĠAdding": 9057,
      "ĠSupport": 9058,
      "ĠMissouri": 9059,
      "catch": 9060,
      "Ġcodes": 9061,
      "Ġentertain": 9062,
      "Ġcollisions": 9063,
      "Ġdiagn": 9064,
      "Ġinherits": 9065,
      "ĠFurthermore": 9066,
      "ora": 9067,
      "Ġdisapp": 9068,
      "Ġcrossed": 9069,
      "Ġpipeline": 9070,
      "ortheast": 9071,
      "ptions": 9072,
      "plyr": 9073,
      "Ġviol": 9074,
      "onomous": 9075,
      "LS": 9076,
      "fish": 9077,
      "ĠTimes": 9078,
      "oto": 9079,
      "ĠWinter": 9080,
      "phia": 9081,
      "await": 9082,
      "Ġperspectives": 9083,
      "Ġuncertain": 9084,
      "Ġangles": 9085,
      "Ġdeclaration": 9086,
      "etts": 9087,
      "ĠOk": 9088,
      "Ġovercome": 9089,
[...]
