{
  "version": "1.0",
  "truncation": null,
  "padding": null,
  "added_tokens": [
    {
      "id": 0,
      "content": "[PAD]",
      "single_word": false,
      "lstrip": false,
      "rstrip": false,
      "normalized": false,
      "special": true
    },
    {
      "id": 1,
      "content": "[UNK]",
      "single_word": false,
      "lstrip": false,
      "rstrip": false,
      "normalized": false,
      "special": true
    },
    {
      "id": 2,
      "content": "[BOS]",
      "single_word": false,
      "lstrip": false,
      "rstrip": false,
      "normalized": false,
      "special": true
    },
    {
      "id": 3,
      "content": "[EOS]",
      "single_word": false,
      "lstrip": false,
      "rstrip": false,
      "normalized": false,
      "special": true
    },
    {
      "id": 4,
      "content": "[SEP]",
      "single_word": false,
      "lstrip": false,
      "rstrip": false,
      "normalized": false,
      "special": true
    },
    {
      "id": 5,
      "content": "[CLS]",
      "single_word": false,
      "lstrip": false,
      "rstrip": false,
      "normalized": false,
      "special": true
    },
    {
      "id": 6,
      "content": "[MASK]",
      "single_word": false,
      "lstrip": false,
      "rstrip": false,
      "normalized": false,
      "special": true
    }
  ],
  "normalizer": null,
  "pre_tokenizer": {
    "type": "Whitespace"
  },
  "post_processor": null,
  "decoder": null,
  "model": {
    "type": "BPE",
    "dropout": null,
    "unk_token": "[UNK]",
    "continuing_subword_prefix": null,
    "end_of_word_suffix": null,
    "fuse_unk": false,
    "byte_fallback": false,
    "ignore_merges": false,
    "vocab": {
      "[PAD]": 0,
      "[UNK]": 1,
      "[BOS]": 2,
      "[EOS]": 3,
      "[SEP]": 4,
      "[CLS]": 5,
      "[MASK]": 6,
      "'": 7,
      "(": 8,
      ")": 9,
      ",": 10,
      "-": 11,
      ".": 12,
      "A": 13,
      "B": 14,
      "C": 15,
      "D": 16,
      "E": 17,
      "G": 18,
      "I": 19,
      "J": 20,
      "K": 21,
      "L": 22,
      "M": 23,
      "N": 24,
      "O": 25,
      "P": 26,
      "R": 27,
      "S": 28,
      "T": 29,
      "U": 30,
      "V": 31,
      "[": 32,
      "]": 33,
      "a": 34,
      "b": 35,
      "c": 36,
      "d": 37,
      "e": 38,
      "f": 39,
      "g": 40,
      "h": 41,
      "i": 42,
      "j": 43,
      "k": 44,
      "l": 45,
      "m": 46,
      "n": 47,
      "o": 48,
      "p": 49,
      "q": 50,
      "r": 51,
      "s": 52,
      "t": 53,
      "u": 54,
      "v": 55,
      "w": 56,
      "x": 57,
      "y": 58,
      "z": 59,
      "in": 60,
      "an": 19281,
      "at": 45269,
      "es": 63,
      "en": 64,
      "al": 65,
      "on": 44013,
      "er": 67,
      "ing": 68,
      "and": 69,
      "re": 16281,
      "th": 31413,
      "ti": 18225,
      "ar": 73,
      "or": 21085,
      "to": 75,
      "te": 76,
      "ro": 44005,
      "ati": 78,
      "ch": 79,
      "le": 80,
      "co": 2569,
      "ation": 82,
      "de": 20389,
      "ic": 33921,
      "mp": 15893,
      "ce": 86,
      "for": 87,
      "ab": 43965,
      "is": 89,
      "as": 90,
      "ent": 91,
      "ou": 2641,
      "li": 37645,
      "AI": 2941,
      "ve": 34597,
      "man": 96,
      "pro": 97,
      "of": 98,
      "res": 99,
      "that": 100,
      "lo": 101,
      "ers": 102,
      "qu": 103,
      "tr": 104,
      "comp": 105,
      "si": 106,
      "ut": 48133,
      "ment": 108,
      "ms": 14933,
      "ul": 26373,
      "he": 111,
      "ial": 112,
      "fic": 12554,
      "un": 114,
      "us": 115,
      "con": 116,
      "et": 11681,
      "ed": 118,
      "ap": 119,
      "ys": 13977,
      "ge": 121,
      "ain": 122,
      "are": 123,
      "dat": 31834,
      "hu": 32069,
      "human": 126,
      "the": 127,
      "mo": 128,
      "The": 129,
      "ces": 130,
      "ur": 42413,
      "ld": 132,
      "ni": 133,
      "ac": 134,
      "ili": 3826,
      "ith": 136,
      "sys": 137,
      "tion": 138,
      "tems": 139,
      "systems": 140,
      "arn": 141,
      "learn": 142,
      "per": 143,
      "ts": 22753,
      "requ": 145,
      "requi": 146,
      "gen": 34810,
      "ter": 148,
      "arch": 149,
      "ad": 5609,
      "me": 151,
      "iz": 25101,
      "ly": 45885,
      "ex": 43661,
      "comput": 155,
      "learning": 156,
      "po": 4069,
      "wor": 158,
      "tech": 159,
      "data": 160,
      "su": 3261,
      "ations": 162,
      "deve": 163,
      "abili": 164,
      "lop": 165,
      "develop": 166,
      "ous": 167,
      "cess": 168,
      "ant": 169,
      "ach": 170,
      "can": 171,
      "earch": 172,
      "inte": 173,
      "research": 174,
      "ficial": 175,
      "intel": 176,
      "be": 177,
      "pl": 15593,
      "gu": 179,
      "del": 180,
      "model": 181,
      "ec": 13865,
      "uc": 183,
      "tu": 184,
      "ine": 185,
      "ties": 186,
      "ligen": 187,
      "und": 188,
      "intelligen": 189,
      "intelligence": 190,
      "ful": 191,
      "ig": 41105,
      "ies": 193,
      "ol": 194,
      "with": 195,
      "enti": 196,
      "ken": 197,
      "age": 198,
      "lan": 199,
      "langu": 200,
      "],": 201,
      "process": 202,
      "require": 203,
      "gni": 204,
      "it": 205,
      "ance": 206,
      "tificial": 207,
      "ques": 208,
      "ak": 209,
      "ay": 28173,
      "alu": 211,
      "tic": 212,
      "adv": 213,
      "ential": 214,
      "token": 215,
      "ious": 216,
      "ural": 217,
      "language": 218,
      "ne": 219,
      "train": 220,
      "af": 221,
      "cr": 222,
      "gh": 223,
      "id": 47801,
      "imp": 13354,
      "ks": 226,
      "tand": 227,
      "ational": 228,
      "oun": 229,
      "signi": 230,
      "ficant": 231,
      "niques": 232,
      "perfor": 233,
      "tern": 234,
      "techniques": 235,
      "significant": 236,
      "ave": 237,
      "care": 238,
      "ding": 239,
      "have": 240,
      "no": 23761,
      "ves": 242,
      "valu": 243,
      "inc": 244,
      "ate": 245,
      "able": 246,
      "abilities": 247,
      "development": 248,
      "ign": 249,
      "oc": 250,
      "var": 17669,
      "ary": 252,
      "tokeniz": 253,
      "various": 254,
      "training": 255,
      "ef": 8657,
      "ep": 257,
      "sh": 258,
      "sp": 259,
      "ugh": 260,
      "ines": 261,
      "thro": 262,
      "artificial": 263,
      "ort": 264,
      "erstand": 265,
      "pos": 266,
      "achine": 267,
      "tures": 268,
      "understand": 269,
      "through": 270,
      "In": 10945,
      "ai": 11001,
      "ben": 273,
      "ble": 274,
      "cap": 275,
      "ds": 276,
      "der": 277,
      "fro": 278,
      "gor": 15782,
      "has": 280,
      "ie": 281,
      "lar": 282,
      "mic": 283,
      "main": 284,
      "pre": 285,
      "ra": 30469,
      "ring": 287,
      "ty": 288,
      "vol": 289,
      "align": 290,
      "lex": 291,
      "com": 292,
      "ical": 293,
      "ications": 294,
      "complex": 295,
      "sider": 296,
      "consider": 297,
      "appl": 298,
      "tions": 299,
      "computing": 300,
      "world": 301,
      "ability": 302,
      "anced": 303,
      "advanced": 304,
      "careful": 305,
      "capabilities": 306,
      "from": 307,
      "gorith": 308,
      "large": 309,
      "applications": 310,
      "abul": 311,
      "ocabul": 312,
      "ocabulary": 313,
      "ges": 314,
      "ze": 315,
      "atural": 316,
      "ecial": 317,
      "processing": 318,
      "bet": 319,
      "fec": 320,
      "go": 321,
      "ten": 322,
      "ver": 323,
      "we": 23721,
      "all": 325,
      "many": 326,
      "mance": 327,
      "works": 328,
      "models": 329,
      "ucial": 330,
      "crucial": 331,
      "ides": 332,
      "import": 333,
      "performance": 334,
      "important": 335,
      "AG": 336,
      "cer": 337,
      "do": 338,
      "iv": 339,
      "ion": 340,
      "its": 341,
      "ll": 342,
      "lu": 343,
      "mak": 344,
      "pr": 17241,
      "sential": 346,
      "saf": 347,
      "tro": 348,
      "ving": 349,
      "wi": 350,
      "wer": 351,
      "way": 352,
      "into": 353,
      "inter": 354,
      "invol": 355,
      "ated": 356,
      "essential": 357,
      "ens": 358,
      "ensu": 359,
      "algorith": 360,
      "reas": 361,
      "remain": 362,
      "tive": 363,
      "tec": 364,
      "ted": 365,
      "dec": 366,
      "dep": 367,
      "abl": 368,
      "ision": 369,
      "aset": 370,
      "our": 371,
      "out": 22322,
      "proble": 373,
      "log": 374,
      "tran": 375,
      "ulti": 376,
      "ust": 377,
      "contro": 378,
      "dataset": 379,
      "uring": 380,
      "gener": 381,
      "power": 382,
      "techno": 383,
      "been": 384,
      "ound": 385,
      "ternational": 386,
      "values": 387,
      "inclu": 388,
      "International": 389,
      "consideration": 390,
      "AGI": 391,
      "making": 392,
      "involves": 393,
      "ensure": 394,
      "problem": 395,
      "control": 396,
      "datasets": 397,
      "technolog": 398,
      "including": 399,
      "OS": 27889,
      "vocabulary": 401,
      "size": 402,
      "tokenizer": 403,
      "De": 404,
      "Machine": 405,
      "Natural": 406,
      "am": 407,
      "amp": 408,
      "bal": 409,
      "fut": 410,
      "ho": 411,
      "his": 412,
      "ip": 29365,
      "net": 414,
      "pat": 415,
      "str": 416,
      "ure": 417,
      "vas": 418,
      "vides": 419,
      "xt": 420,
      "ating": 421,
      "enges": 422,
      "text": 423,
      "chall": 424,
      "ould": 425,
      "provides": 426,
      "sive": 427,
      "using": 428,
      "eds": 429,
      "lds": 430,
      "act": 431,
      "computers": 432,
      "computational": 433,
      "researchers": 434,
      "uctures": 435,
      "neural": 436,
      "affec": 437,
      "ounts": 438,
      "terns": 439,
      "significantly": 440,
      "tokenization": 441,
      "special": 442,
      "possi": 443,
      "betwe": 444,
      "Deep": 445,
      "amounts": 446,
      "future": 447,
      "holds": 448,
      "networks": 449,
      "patterns": 450,
      "structures": 451,
      "vast": 452,
      "challenges": 453,
      "between": 454,
      "Ar": 455,
      "au": 5189,
      "av": 15309,
      "ade": 458,
      "aut": 459,
      "bo": 42869,
      "bu": 48877,
      "bre": 462,
      "bring": 463,
      "bust": 464,
      "cy": 32981,
      "cre": 466,
      "cent": 467,
      "dus": 468,
      "dge": 469,
      "eficial": 470,
      "fe": 471,
      "fy": 46225,
      "fer": 473,
      "fund": 474,
      "fie": 30426,
      "gan": 476,
      "ging": 477,
      "if": 37857,
      "ias": 29894,
      "itec": 480,
      "lay": 481,
      "lability": 482,
      "mation": 483,
      "mis": 484,
      "mous": 485,
      "mach": 486,
      "machine": 487,
      "multi": 488,
      "oper": 489,
      "ods": 490,
      "omous": 491,
      "par": 492,
      "ple": 493,
      "pur": 494,
      "ran": 495,
      "riv": 48406,
      "sc": 497,
      "so": 35521,
      "st": 499,
      "sti": 500,
      "sour": 501,
      "tre": 502,
      "tas": 43862,
      "tain": 504,
      "tential": 505,
      "yment": 506,
      "infor": 507,
      "insti": 508,
      "anal": 509,
      "anies": 510,
      "atten": 511,
      "ence": 512,
      "enable": 513,
      "enabl": 514,
      "ency": 515,
      "onomous": 516,
      "ingly": 517,
      "thods": 518,
      "tition": 519,
      "time": 520,
      "ards": 521,
      "around": 522,
      "organ": 523,
      "tool": 524,
      "robust": 525,
      "chan": 526,
      "lec": 527,
      "coun": 528,
      "cooper": 529,
      "demo": 530,
      "deep": 531,
      "cement": 532,
      "prog": 533,
      "loyment": 534,
      "tries": 535,
      "companies": 536,
      "use": 537,
      "concer": 538,
      "appro": 539,
      "humans": 540,
      "humanit": 541,
      "requires": 542,
      "requiring": 543,
      "architec": 544,
      "methods": 545,
      "mechan": 546,
      "ized": 547,
      "izations": 548,
      "exis": 549,
      "work": 550,
      "such": 551,
      "tutions": 552,
      "akthrough": 553,
      "tical": 554,
      "advan": 555,
      "crati": 556,
      "impro": 557,
      "perform": 558,
      "increas": 559,
      "efits": 560,
      "poses": 561,
      "ailability": 562,
      "beneficial": 563,
      "benefits": 564,
      "pret": 565,
      "alignment": 566,
      "aligned": 567,
      "goal": 568,
      "prac": 569,
      "safe": 570,
      "will": 571,
      "interpret": 572,
      "ensuring": 573,
      "algorithms": 574,
      "decision": 575,
      "deployment": 576,
      "trans": 577,
      "general": 578,
      "powerful": 579,
      "technology": 580,
      "Artificial": 581,
      "auto": 582,
      "availability": 583,
      "ademic": 584,
      "autonomous": 585,
      "breakthrough": 586,
      "field": 587,
      "layers": 588,
      "machines": 589,
      "multiple": 590,
      "institutions": 591,
      "attention": 592,
      "organizations": 593,
      "tools": 594,
      "cooperation": 595,
      "democrati": 596,
      "concern": 597,
      "humanity": 598,
      "architectures": 599,
      "increasingly": 600,
      "breakthroughs": 601,
      "AD": 15409,
      "BP": 12321,
      "BOS": 604,
      "EOS": 605,
      "NK": 606,
      "PAD": 607,
      "Sp": 43993,
      "To": 609,
      "This": 610,
      "UNK": 611,
      "Vocabulary": 612,
      "ages": 613,
      "bili": 614,
      "cin": 615,
      "cit": 616,
      "el": 32917,
      "fas": 618,
      "hand": 619,
      "ient": 620,
      "ke": 7993,
      "lp": 622,
      "natural": 623,
      "od": 624,
      "pic": 625,
      "pip": 626,
      "ste": 627,
      "samp": 628,
      "aract": 629,
      "topic": 630,
      "charact": 631,
      "cover": 632,
      "like": 633,
      "proper": 634,
      "ments": 635,
      "help": 636,
      "ficient": 637,
      "ization": 638,
      "exten": 639,
      "excit": 640,
      "kenization": 641,
      "languages": 642,
      "requirements": 643,
      "tokens": 644,
      "needs": 645,
      "efficient": 646,
      "should": 647,
      "good": 648,
      "balance": 649,
      "affects": 650,
      "possibili": 651,
      "BPE": 652,
      "Special": 653,
      "Tokenization": 654,
      "cinating": 655,
      "elines": 656,
      "fascinating": 657,
      "handle": 658,
      "pipelines": 659,
      "step": 660,
      "sample": 661,
      "topics": 662,
      "characters": 663,
      "coverage": 664,
      "properly": 665,
      "helps": 666,
      "extensive": 667,
      "exciting": 668,
      "efficiently": 669,
      "possibilities": 670,
      "AS": 671,
      "Ac": 672,
      "Al": 673,
      "Ach": 674,
      "Big": 675,
      "Bias": 676,
      "CL": 45729,
      "Cl": 46813,
      "Co": 16661,
      "Dat": 680,
      "EP": 24861,
      "Eth": 682,
      "Edge": 683,
      "Go": 42969,
      "Jo": 685,
      "La": 686,
      "Lon": 687,
      "Mo": 688,
      "MAS": 689,
      "Op": 45429,
      "Priv": 691,
      "Ro": 25193,
      "Su": 693,
      "SEP": 694,
      "Tran": 695,
      "Valu": 696,
      "aj": 697,
      "ament": 698,
      "aging": 699,
      "acement": 700,
      "bs": 701,
      "by": 702,
      "but": 703,
      "bines": 704,
      "bound": 705,
      "bias": 706,
      "cing": 707,
      "cas": 708,
      "clo": 4186,
      "civ": 710,
      "du": 711,
      "din": 712,
      "des": 3990,
      "den": 714,
      "dis": 715,
      "dous": 716,
      "duc": 717,
      "during": 718,
      "dif": 719,
      "driv": 720,
      "ele": 721,
      "ede": 722,
      "eman": 723,
      "etition": 724,
      "fr": 21185,
      "fin": 726,
      "fers": 727,
      "fak": 728,
      "fai": 729,
      "fra": 730,
      "gro": 731,
      "glo": 732,
      "gul": 733,
      "gine": 734,
      "ht": 735,
      "hat": 736,
      "hen": 737,
      "hys": 738,
      "hip": 739,
      "iti": 740,
      "iet": 14838,
      "ild": 742,
      "ities": 743,
      "iate": 744,
      "ibu": 745,
      "ience": 746,
      "ket": 747,
      "kno": 748,
      "lat": 749,
      "ler": 750,
      "ling": 751,
      "lation": 752,
      "lic": 753,
      "lab": 754,
      "line": 755,
      "llec": 756,
      "mat": 757,
      "men": 758,
      "mal": 759,
      "mon": 760,
      "mer": 761,
      "mar": 762,
      "mig": 763,
      "mate": 764,
      "mated": 765,
      "ning": 766,
      "ners": 49770,
      "nment": 768,
      "nical": 769,
      "ore": 45894,
      "pp": 6901,
      "pon": 772,
      "pres": 773,
      "pers": 774,
      "pus": 775,
      "pet": 776,
      "pts": 777,
      "phis": 778,
      "pfr": 779,
      "phys": 780,
      "ration": 781,
      "ris": 782,
      "run": 783,
      "rap": 784,
      "ss": 785,
      "ser": 786,
      "sing": 787,
      "sent": 788,
      "sof": 789,
      "sol": 790,
      "stand": 791,
      "soc": 792,
      "sens": 793,
      "stical": 794,
      "seman": 795,
      "tw": 48013,
      "ting": 797,
      "tor": 798,
      "tment": 799,
      "tability": 800,
      "tabl": 801,
      "tners": 802,
      "ual": 803,
      "uis": 804,
      "ures": 805,
      "ution": 806,
      "uate": 807,
      "upfr": 808,
      "vis": 809,
      "vations": 810,
      "vit": 811,
      "vision": 812,
      "wn": 36669,
      "ws": 814,
      "wth": 815,
      "wle": 816,
      "wides": 817,
      "would": 818,
      "what": 819,
      "yze": 820,
      "zation": 821,
      "zed": 822,
      "insi": 823,
      "inno": 824,
      "inves": 825,
      "indus": 826,
      "infer": 827,
      "initi": 828,
      "any": 829,
      "aning": 830,
      "anning": 831,
      "atures": 832,
      "esti": 833,
      "ests": 834,
      "establ": 835,
      "enco": 836,
      "ending": 837,
      "engine": 838,
      "alth": 839,
      "allo": 840,
      "alable": 841,
      "also": 842,
      "alities": 843,
      "ons": 844,
      "ont": 845,
      "onal": 846,
      "oning": 847,
      "ering": 848,
      "ertain": 849,
      "real": 850,
      "reli": 851,
      "retraining": 852,
      "revol": 853,
      "reinfor": 854,
      "reduc": 855,
      "refers": 856,
      "regul": 857,
      "rehen": 858,
      "repres": 859,
      "aring": 860,
      "aris": 861,
      "aries": 862,
      "arency": 863,
      "oration": 864,
      "orted": 865,
      "ordin": 866,
      "role": 867,
      "ross": 868,
      "atives": 869,
      "atistical": 870,
      "lead": 871,
      "coul": 872,
      "come": 873,
      "cogni": 874,
      "coll": 875,
      "collec": 876,
      "coordin": 877,
      "icious": 878,
      "mput": 879,
      "mptions": 880,
      "ceeds": 881,
      "ceden": 882,
      "celer": 883,
      "cepts": 884,
      "former": 885,
      "about": 886,
      "aboration": 887,
      "ish": 888,
      "ises": 889,
      "isms": 890,
      "assu": 891,
      "ents": 892,
      "entertain": 893,
      "oud": 894,
      "lify": 895,
      "ved": 896,
      "managing": 897,
      "proac": 898,
      "protec": 899,
      "promis": 900,
      "ress": 901,
      "resour": 902,
      "load": 903,
      "qualities": 904,
      "try": 905,
      "trust": 906,
      "tract": 907,
      "traj": 908,
      "tribu": 909,
      "competition": 910,
      "comprehen": 911,
      "hed": 912,
      "health": 913,
      "unpre": 914,
      "uncer": 915,
      "units": 916,
      "unbias": 917,
      "uses": 918,
      "user": 919,
      "used": 920,
      "conver": 921,
      "concent": 922,
      "consent": 923,
      "concepts": 924,
      "contribu": 925,
      "ety": 926,
      "educ": 927,
      "ape": 928,
      "apons": 929,
      "ysis": 930,
      "ainability": 931,
      "areas": 932,
      "more": 933,
      "most": 934,
      "uries": 935,
      "acy": 936,
      "access": 937,
      "accoun": 938,
      "academic": 939,
      "across": 940,
      "acceler": 941,
      "ilization": 942,
      "perintelligence": 943,
      "perpet": 944,
      "term": 945,
      "ades": 946,
      "mely": 947,
      "meworks": 948,
      "meaning": 949,
      "expl": 950,
      "extre": 951,
      "expon": 952,
      "exceeds": 953,
      "extract": 954,
      "computation": 955,
      "potential": 956,
      "polic": 957,
      "technical": 958,
      "sue": 959,
      "subs": 960,
      "supp": 961,
      "developing": 962,
      "developers": 963,
      "cessary": 964,
      "aches": 965,
      "achie": 966,
      "intellec": 967,
      "becom": 968,
      "become": 969,
      "play": 970,
      "placement": 971,
      "planning": 972,
      "guards": 973,
      "ector": 974,
      "tual": 975,
      "inequalities": 976,
      "under": 977,
      "without": 978,
      "entify": 979,
      "questions": 980,
      "tics": 981,
      "ticated": 982,
      "neede": 983,
      "necessary": 984,
      "ghts": 985,
      "identify": 986,
      "value": 987,
      "valuable": 988,
      "effec": 989,
      "shut": 990,
      "sharing": 991,
      "shape": 992,
      "sport": 993,
      "sparency": 994,
      "understanding": 995,
      "Indus": 996,
      "aims": 997,
      "ieving": 998,
      "mains": 999,
      "pread": 1000,
      "raw": 1001,
      "rams": 1002,
      "raises": 1003,
      "comes": 1004,
      "combines": 1005,
      "common": 1006,
      "considerations": 1007,
      "worldwi": 1008,
      "gorithmic": 1009,
      "better": 1010,
      "vernment": 1011,
      "weapons": 1012,
      "down": 1013,
      "domains": 1014,
      "priate": 1015,
      "safety": 1016,
      "interests": 1017,
      "algorithmic": 1018,
      "reasoning": 1019,
      "remains": 1020,
      "tively": 1021,
      "decades": 1022,
      "depending": 1023,
      "outcomes": 1024,
      "transport": 1025,
      "ultimate": 1026,
      "generate": 1027,
      "technologies": 1028,
      "amplify": 1029,
      "affected": 1030,
      "specialized": 1031,
      "possible": 1032,
      "both": 1033,
      "botics": 1034,
      "build": 1035,
      "brings": 1036,
      "create": 1037,
      "creating": 1038,
      "centuries": 1039,
      "few": 1040,
      "features": 1041,
      "ferent": 1042,
      "funding": 1043,
      "fundament": 1044,
      "miss": 1045,
      "parsing": 1046,
      "partners": 1047,
      "purposes": 1048,
      "pursue": 1049,
      "ranging": 1050,
      "science": 1051,
      "scalable": 1052,
      "sophis": 1053,
      "statistical": 1054,
      "source": 1055,
      "sources": 1056,
      "tremen": 1057,
      "task": 1058,
      "tasks": 1059,
      "information": 1060,
      "analyze": 1061,
      "analysis": 1062,
      "enabled": 1063,
      "enables": 1064,
      "enabling": 1065,
      "titioners": 1066,
      "timeline": 1067,
      "countries": 1068,
      "deepfak": 1069,
      "progress": 1070,
      "programs": 1071,
      "approaches": 1072,
      "appropriate": 1073,
      "mechanical": 1074,
      "mechanisms": 1075,
      "existential": 1076,
      "existing": 1077,
      "workers": 1078,
      "workload": 1079,
      "advances": 1080,
      "advancing": 1081,
      "improving": 1082,
      "improved": 1083,
      "goals": 1084,
      "practical": 1085,
      "practitioners": 1086,
      "safely": 1087,
      "safeguards": 1088,
      "decisions": 1089,
      "translation": 1090,
      "transformer": 1091,
      "automation": 1092,
      "automated": 1093,
      "democratic": 1094,
      "democratized": 1095,
      "concerns": 1096,
      "Academic": 1097,
      "Algorithmic": 1098,
      "Achieving": 1099,
      "CLS": 1100,
      "Cloud": 1101,
      "Comput": 1102,
      "Data": 1103,
      "Ethical": 1104,
      "Government": 1105,
      "Job": 1106,
      "Law": 1107,
      "Long": 1108,
      "Moore": 1109,
      "MASK": 1110,
      "Open": 1111,
      "Privacy": 1112,
      "Robotics": 1113,
      "Superintelligence": 1114,
      "Transparency": 1115,
      "Value": 1116,
      "boundaries": 1117,
      "cases": 1118,
      "closer": 1119,
      "civilization": 1120,
      "due": 1121,
      "design": 1122,
      "displacement": 1123,
      "different": 1124,
      "driven": 1125,
      "eled": 1126,
      "finance": 1127,
      "fair": 1128,
      "frameworks": 1129,
      "growth": 1130,
      "global": 1131,
      "hips": 1132,
      "ietal": 1133,
      "knowle": 1134,
      "latency": 1135,
      "linguis": 1136,
      "labeled": 1137,
      "mates": 1138,
      "malicious": 1139,
      "market": 1140,
      "might": 1141,
      "personal": 1142,
      "pushed": 1143,
      "physical": 1144,
      "risks": 1145,
      "rapid": 1146,
      "softw": 1147,
      "solving": 1148,
      "standards": 1149,
      "societal": 1150,
      "sense": 1151,
      "semantic": 1152,
      "utionized": 1153,
      "upfront": 1154,
      "visual": 1155,
      "vital": 1156,
      "widespread": 1157,
      "insights": 1158,
      "innovations": 1159,
      "investment": 1160,
      "industries": 1161,
      "inference": 1162,
      "initiatives": 1163,
      "estimates": 1164,
      "establish": 1165,
      "encoding": 1166,
      "engineering": 1167,
      "allows": 1168,
      "reliable": 1169,
      "revolutionized": 1170,
      "reinforcement": 1171,
      "reducing": 1172,
      "regulations": 1173,
      "represents": 1174,
      "arise": 1175,
      "leading": 1176,
      "could": 1177,
      "cognitive": 1178,
      "collaboration": 1179,
      "collection": 1180,
      "coordination": 1181,
      "cedented": 1182,
      "assumptions": 1183,
      "entertainment": 1184,
      "proactive": 1185,
      "protection": 1186,
      "promise": 1187,
      "resources": 1188,
      "trajector": 1189,
      "comprehensive": 1190,
      "healthcare": 1191,
      "unprecedented": 1192,
      "uncertain": 1193,
      "unbiased": 1194,
      "converts": 1195,
      "concentration": 1196,
      "contribute": 1197,
      "education": 1198,
      "accountability": 1199,
      "accelerated": 1200,
      "perpetuate": 1201,
      "meaningful": 1202,
      "explainability": 1203,
      "extremely": 1204,
      "exponential": 1205,
      "extracting": 1206,
      "policy": 1207,
      "subset": 1208,
      "supported": 1209,
      "achieve": 1210,
      "intellectual": 1211,
      "becoming": 1212,
      "needed": 1213,
      "effectively": 1214,
      "Industry": 1215,
      "worldwide": 1216,
      "transportation": 1217,
      "building": 1218,
      "fundamental": 1219,
      "partnerships": 1220,
      "sophisticated": 1221,
      "tremendous": 1222,
      "deepfakes": 1223,
      "workloads": 1224,
      "Computer": 1225,
      "knowledge": 1226,
      "linguistic": 1227,
      "software": 1228,
      "trajectory": 1229,
      "uqzudnhhq": 1230,
      "##yq": 25471,
      "xiowudr##": 1232,
      "y755P": 1233,
      "koht": 1234,
      "##qaoxmgy": 1235,
      "dyysksex##": 1236,
      "OhkRRT": 1237,
      "bbiovthwy": 1238,
      "##vpuw": 1239,
      "gyijeye##": 1240,
      "9ack3": 1241,
      "txafnrmed": 1242,
      "##no": 7707,
      "edyi##": 1244,
      "Z56OJ": 1245,
      "tqyo": 1246,
      "##pt": 1247,
      "ecs##": 1248,
      "gKdD2": 1249,
      "siags": 1250,
      "##cggc": 1251,
      "hdfsv##": 1252,
      "deQT5": 1253,
      "vefqcwvdo": 1254,
      "##xxzrkp": 1255,
      "fhtp##": 1256,
      "P37F": 1257,
      "vtse": 1258,
      "##pa": 44267,
      "mounelzq##": 1260,
      "SNbM": 1261,
      "huqa": 1262,
      "##rwssb": 1263,
      "smw##": 1264,
      "wao": 1265,
      "ylvyxwfxy": 1266,
      "##yuwy": 1267,
      "ivupijns##": 1268,
      "C8": 1269,
      "phggcw": 1270,
      "##wbtttss": 1271,
      "uli##": 1272,
      "Punr": 1273,
      "iacbsewyow": 1274,
      "##ty": 1275,
      "jggl##": 1276,
      "na8": 1277,
      "fpxexaf": 1278,
      "##swabn": 1279,
      "hurgjfl##": 1280,
      "OIDqV": 1281,
      "jsvwvt": 1282,
      "##njkpzqp": 1283,
      "ulml##": 1284,
      "Wyar": 1285,
      "yaxs": 1286,
      "##goritb": 1287,
      "vapdci##": 1288,
      "nL": 1289,
      "ggtqufc": 1290,
      "##ye": 41507,
      "uxvaynkj##": 1292,
      "CH0": 1293,
      "wfrrfa": 1294,
      "##uwxzw": 1295,
      "fnxhegm##": 1296,
      "YSF": 1297,
      "hkrmmlumo": 1298,
      "##fqpnn": 1299,
      "tfdyvmca##": 1300,
      "HaV": 1301,
      "bsg": 1302,
      "##ekpimeqx": 1303,
      "pk##": 5628,
      "4n53n": 1305,
      "oidvdzsk": 1306,
      "##mz": 47171,
      "atuy##": 1308,
      "W4f1Fy": 1309,
      "oynpsq": 1310,
      "##lugfgl": 1311,
      "rlxmllmy##": 1312,
      "hObhc": 1313,
      "rmgwgttreg": 1314,
      "##xqhpei": 1315,
      "jkk##": 1316,
      "UgvQPY": 1317,
      "sgq": 1318,
      "##if": 33307,
      "xdfuhez##": 1320,
      "Pc": 1321,
      "cnw": 1322,
      "##lg": 28239,
      "cfpbn##": 1324,
      "BU": 17869,
      "sbcqhx": 1326,
      "##qk": 45059,
      "okgtlufb##": 1328,
      "Lw0JGe": 1329,
      "ipkzivz": 1330,
      "##yms": 1331,
      "tikngo##": 1332,
      "n8BtM": 1333,
      "wwkmkwhpv": 1334,
      "##ftu": 1335,
      "jnurvb##": 1336,
      "yo": 1337,
      "xhw": 1338,
      "##dyjrv": 1339,
      "llocqxhc##": 1340,
      "fm5pp": 1341,
      "roedipna": 1342,
      "##lfdtkcy": 1343,
      "fuksjm##": 1344,
      "qjOHP": 1345,
      "czbbu": 1346,
      "##czmjpl": 1347,
      "nhy##": 1348,
      "AhHoUR": 1349,
      "hcndbujwv": 1350,
      "##gzpc": 1351,
      "coip##": 1352,
      "nQe": 1353,
      "quscnm": 1354,
      "##aszfutqh": 1355,
      "lw##": 49452,
      "LjA": 1357,
      "mvjwpu": 1358,
      "##ezkl": 1359,
      "qapcvog##": 1360,
      "qAgLK": 1361,
      "qkvdtmiw": 1362,
      "##pukkjysg": 1363,
      "ishrbsk##": 1364,
      "lXpO": 1365,
      "kknw": 1366,
      "##rgyxt": 43095,
      "nmloc##": 1368,
      "17U3qn": 1369,
      "jxezs": 1370,
      "##ks": 24419,
      "dxstjgke##": 1372,
      "ARb": 1373,
      "sxgjbchwf": 1374,
      "##lxj": 1375,
      "smorifb##": 1376,
      "v6": 19653,
      "vrv": 1378,
      "##gctesf": 1379,
      "nkkikfxk##": 1380,
      "Ln78V1": 1381,
      "wvmnkpviya": 1382,
      "##wrm": 1383,
      "uyoeivc##": 1384,
      "WR5": 1385,
      "oxsnlyqbtr": 1386,
      "##jr": 44243,
      "fsqzd##": 1388,
      "xD": 15041,
      "tafog": 1390,
      "##cwtimkh": 1391,
      "sowssa##": 1392,
      "DaJ7YD": 1393,
      "xyrefa": 1394,
      "##ocu": 15175,
      "zszrksy##": 1396,
      "ZPi": 1397,
      "noxcmydif": 1398,
      "##zzj": 1399,
      "xg##": 7284,
      "T7Hh": 1401,
      "tmu": 1402,
      "##pnc": 1403,
      "dsqmrco##": 1404,
      "pIPX": 1405,
      "lbdzafe": 1406,
      "##kgr": 1407,
      "uewm##": 1408,
      "JZ1E": 1409,
      "mtthoadwvv": 1410,
      "##jkt": 1411,
      "jqrjdrtp##": 1412,
      "SUY": 1413,
      "vqwegytmh": 1414,
      "##ddfac": 1415,
      "rcrke##": 1416,
      "5s": 40849,
      "gdu": 1418,
      "##qqx": 1419,
      "jzayosxl##": 1420,
      "0i": 37241,
      "hftpb": 1422,
      "##qzeths": 1423,
      "gp##": 49752,
      "hmDB3K": 1425,
      "vvhka": 1426,
      "##mwqaak": 1427,
      "ssbjlsz##": 1428,
      "2H": 46765,
      "hwjvdrri": 1430,
      "##kwht": 1431,
      "ykybjaud##": 1432,
      "ij7qSy": 1433,
      "civxz": 1434,
      "##rkbol": 1435,
      "mrk##": 1436,
      "Pvyaif": 1437,
      "dfcfqljhuv": 1438,
      "##ehvixitx": 1439,
      "ekl##": 1440,
      "HNeA26": 1441,
      "qaxctops": 1442,
      "##afutco": 1443,
      "oc##": 32656,
      "cxml": 1445,
      "keiuz": 1446,
      "##oob": 48331,
      "tvu##": 1448,
      "Bwe": 1449,
      "mpnspbsua": 1450,
      "##gccs": 1451,
      "ktubo##": 1452,
      "aQhR": 1453,
      "wdenhidsky": 1454,
      "##ijl": 1455,
      "snsv##": 1456,
      "jL": 20541,
      "yaebusj": 1458,
      "##vpge": 1459,
      "jviozs##": 1460,
      "TxIR": 1461,
      "vwgowrm": 1462,
      "##qf": 32711,
      "nxouw##": 1464,
      "UDkD": 1465,
      "wrshexq": 1466,
      "##mbxumy": 1467,
      "ksoyloy##": 1468,
      "zuUI": 1469,
      "wmpturs": 1470,
      "##lbcy": 1471,
      "wowuvp##": 1472,
      "9s6A6g": 1473,
      "kxrgor": 1474,
      "##wrch": 1475,
      "jmvgcgrb##": 1476,
      "liz": 1477,
      "cdrm": 1478,
      "##bbvln": 1479,
      "prss##": 1480,
      "px": 29449,
      "ehogz": 1482,
      "##qhuscsrx": 1483,
      "por##": 1484,
      "kwzz": 1485,
      "oninki": 1486,
      "##ptesr": 1487,
      "wuxt##": 1488,
      "NH": 40529,
      "pryu": 1490,
      "##ccu": 1491,
      "fdzmfg##": 1492,
      "jLO": 1493,
      "ebggwvktw": 1494,
      "##pzrj": 1495,
      "vsm##": 1496,
      "MqdIdB": 1497,
      "xtja": 1498,
      "##tymjyftv": 1499,
      "euljks##": 1500,
      "Vtx": 1501,
      "qjzomkv": 1502,
      "##azzvhm": 1503,
      "iffszh##": 1504,
      "0cbD": 1505,
      "lrzqwsn": 1506,
      "##hgsp": 1507,
      "edahqdp##": 1508,
      "aE3g8g": 1509,
      "zallfytswb": 1510,
      "##iwz": 1511,
      "lujipwnq##": 1512,
      "fD8": 1513,
      "usnpvg": 1514,
      "##ypbzwd": 1515,
      "stvl##": 1516,
      "bbA": 1517,
      "xgj": 1518,
      "##vevic": 1519,
      "xrcx##": 1520,
      "3EP": 1521,
      "vzlnvuivuy": 1522,
      "##gmrckm": 1523,
      "gvmn##": 1524,
      "wX": 1525,
      "jjnbipuuja": 1526,
      "##yzc": 1527,
      "wpniuwrt##": 1528,
      "s8t0A": 1529,
      "hpneubyq": 1530,
      "##vpv": 1531,
      "glplxrsm##": 1532,
      "YDbu0o": 1533,
      "zxyjh": 1534,
      "##lx": 46783,
      "oqw##": 1536,
      "bjtnddql": 1538,
      "##twn": 1539,
      "bhi##": 1540,
      "2PDoxC": 1541,
      "nkkrohaoo": 1542,
      "##tiz": 1543,
      "ossnqb##": 1544,
      "LN0I": 1545,
      "zmwzod": 1546,
      "##wwip": 1547,
      "awpvsqei##": 1548,
      "Nz": 1549,
      "tupv": 1550,
      "##qwe": 1551,
      "fgldtmo##": 1552,
      "Oc2W": 1553,
      "iqxx": 1554,
      "##qjctu": 1555,
      "uwck##": 1556,
      "kE": 25157,
      "lggbwint": 1558,
      "##vi": 7031,
      "gvd##": 1560,
      "hW": 1561,
      "uicm": 1562,
      "##uwdoqag": 1563,
      "wieexzz##": 1564,
      "2o7k": 1565,
      "egenjdjuk": 1566,
      "##fsfj": 1567,
      "kzfymczs##": 1568,
      "OegcL": 1569,
      "wvjd": 1570,
      "##zqoyb": 1571,
      "wck##": 1572,
      "kdEg": 1573,
      "ktmwf": 1574,
      "##ubrc": 1575,
      "dn##": 49712,
      "UtV04Z": 1577,
      "rpzliaewd": 1578,
      "##ggmgjx": 1579,
      "pb##": 46872,
      "qEXh4H": 1581,
      "osfofmwnv": 1582,
      "##zrua": 1583,
      "mlwy##": 1584,
      "0I58": 1585,
      "vxzkijph": 1586,
      "##czpf": 1587,
      "cybkfii##": 1588,
      "RPI8": 1589,
      "lpn": 49754,
      "##nk": 1591,
      "gcp##": 1592,
      "4j9": 1593,
      "wyadm": 1594,
      "##egium": 1595,
      "bmwxqkmm##": 1596,
      "njlElD": 1597,
      "lbtqi": 1598,
      "##ct": 44347,
      "asps##": 1600,
      "q99XQ": 1601,
      "laoibaoe": 1602,
      "##cpu": 1603,
      "enr##": 1604,
      "8FS5": 1605,
      "clchbviueo": 1606,
      "##bb": 48767,
      "qbausd##": 1608,
      "CrobF": 1609,
      "ywm": 1610,
      "##xnwf": 1611,
      "kgggj##": 1612,
      "h5N": 1613,
      "znffzswvl": 1614,
      "##fcbhwp": 1615,
      "vjshcadu##": 1616,
      "ctu": 1617,
      "mqp": 1618,
      "##anrmcmgf": 1619,
      "qgmghghl##": 1620,
      "Z6": 15805,
      "evyzskzenv": 1622,
      "##ogei": 1623,
      "fussqe##": 1624,
      "DRKLY": 1625,
      "vszi": 1626,
      "##ltdeeic": 1627,
      "pxopf##": 1628,
      "4n2x": 1629,
      "ybfhdzgou": 1630,
      "##nzuh": 1631,
      "pwh##": 33008,
      "vQOyWz": 1633,
      "pwt": 1634,
      "##ll": 39595,
      "maj##": 1636,
      "L0S8Cf": 1637,
      "wregynwepi": 1638,
      "##lxbmbuh": 1639,
      "sef##": 1640,
      "D8Y": 1641,
      "vtzfj": 1642,
      "##dbltdoyh": 1643,
      "amnse##": 1644,
      "y1": 24973,
      "rfdxwuynz": 1646,
      "##piegekfi": 1647,
      "eaqr##": 1648,
      "Ylbv": 1649,
      "mnx": 1650,
      "##jaw": 1651,
      "kqxr##": 1652,
      "ZhzL": 1653,
      "dawqpoqych": 1654,
      "##ocmy": 1655,
      "wsk##": 13600,
      "aJhq": 1657,
      "xvkr": 1658,
      "##bkqj": 1659,
      "lenfkc##": 1660,
      "qGynq": 1661,
      "kutcqgnlii": 1662,
      "##vbs": 1663,
      "ghlpyass##": 1664,
      "y009Vk": 1665,
      "msgvtv": 1666,
      "##mt": 28727,
      "ihl##": 1668,
      "Or": 29437,
      "utrxhptvj": 1670,
      "##yzvuwfcb": 1671,
      "qt##": 27404,
      "HL9Sj5": 1673,
      "jgzqouq": 1674,
      "##yreqoey": 1675,
      "gvnzrbho##": 1676,
      "xC": 1677,
      "nbnzpp": 1678,
      "##nsgnpn": 1679,
      "dic##": 1680,
      "PzyCu": 1681,
      "umlen": 1682,
      "##bmls": 1683,
      "fa##": 31088,
      "3e4T": 1685,
      "axsfct": 1686,
      "##lstgxlke": 1687,
      "khqtcw##": 1688,
      "RDsjeJ": 1689,
      "sznsk": 1690,
      "##aj": 31847,
      "kjietern##": 1692,
      "CXpu69": 1693,
      "likepvoqdu": 1694,
      "##ogmehpr": 1695,
      "nao##": 1696,
      "k2PzbO": 1697,
      "vuehrzsci": 1698,
      "##lqdyo": 1699,
      "fco##": 1700,
      "ZybR": 1701,
      "wes": 15810,
      "##rtjbiix": 1703,
      "ha##": 44144,
      "dK": 23389,
      "hckote": 1706,
      "##dru": 1707,
      "toidwbi##": 1708,
      "EvR": 1709,
      "hpjwfyv": 1710,
      "##fsfzwkx": 1711,
      "pho##": 1712,
      "LIgW": 1713,
      "usieigljob": 1714,
      "##ybeq": 1715,
      "nb##": 41908,
      "knUGQM": 1717,
      "jncyrub": 1718,
      "##nflo": 1719,
      "yc##": 2344,
      "fN6NmN": 1721,
      "juxbhlhan": 1722,
      "##dimk": 1723,
      "uampzp##": 1724,
      "qt": 1725,
      "lsaxajh": 1726,
      "##lpgclixa": 1727,
      "sjws##": 1728,
      "Hv": 1729,
      "xwsxsqltm": 1730,
      "##aaaxm": 1731,
      "cugmeuf##": 1732,
      "PNp3": 1733,
      "giomrahte": 1734,
      "##iuex": 1735,
      "ofaq##": 1736,
      "bAN": 1737,
      "cwzsiijcq": 1738,
      "##exywshxb": 1739,
      "ygq##": 1740,
      "aSxLL": 1741,
      "qclkmzenip": 1742,
      "##prk": 1743,
      "cyagclp##": 1744,
      "0uo7": 1745,
      "pgu": 1746,
      "##vcjjtsj": 1747,
      "jsmwidd##": 1748,
      "Ecy": 1749,
      "cuajmmaemi": 1750,
      "##qykrl": 1751,
      "smpn##": 1752,
      "pjBDLu": 1753,
      "exbf": 1754,
      "##yvnxh": 1755,
      "cuvddgd##": 1756,
      "YUfUQ5": 1757,
      "evtistjuh": 1758,
      "##hzeqj": 1759,
      "bj##": 26868,
      "0arF": 1761,
      "hpuirisgxm": 1762,
      "##pvof": 1763,
      "tckxari##": 1764,
      "2SJ": 1765,
      "itzoyzcsc": 1766,
      "##lqkdp": 1767,
      "gizoqi##": 1768,
      "Bp4CzH": 1769,
      "vjyszklbw": 1770,
      "##jntormn": 1771,
      "fmjg##": 1772,
      "ItB": 1773,
      "lcbkswss": 1774,
      "##fbzvlwp": 1775,
      "yyihqcu##": 1776,
      "L3": 1777,
      "rwztfnv": 1778,
      "##xdnzfsru": 1779,
      "vkedxbn##": 1780,
      "60uS": 1781,
      "yzlr": 1782,
      "##sqpy": 1783,
      "bHY3b": 1785,
      "ncmdrig": 1786,
      "##cuj": 1787,
      "xcvo##": 1788,
      "JJF": 1789,
      "jmy": 1790,
      "##oqgyg": 1791,
      "attardp##": 1792,
      "pMZy": 1793,
      "devmcjj": 1794,
      "##gpzkjizi": 1795,
      "wqkrdl##": 1796,
      "JP": 1889,
      "dyrl": 1798,
      "##qr": 31871,
      "db##": 47248,
      "ZOM": 1801,
      "pthmsb": 1802,
      "##csskmahe": 1803,
      "qateas##": 1804,
      "p9": 1805,
      "fkfab": 1806,
      "##mqqeii": 1807,
      "te##": 35956,
      "T5Z6nR": 1809,
      "ttdxcpzcw": 1810,
      "##atfa": 1811,
      "jvdehdd##": 1812,
      "SqpnO": 1813,
      "toqctydjh": 1814,
      "##vdkz": 1815,
      "ghxpylsk##": 1816,
      "TES12": 1817,
      "kpaopcsb": 1818,
      "##ykmcgpx": 1819,
      "cvl##": 1820,
      "2umJI": 1821,
      "peufd": 1822,
      "##rybc": 1823,
      "tzxld##": 1824,
      "y8U": 1825,
      "vfhicjsu": 1826,
      "##jen": 1827,
      "aedqyv##": 1828,
      "GhjW": 1829,
      "aqx": 1830,
      "##lgcjfo": 1831,
      "xvuzehrl##": 1832,
      "WvB1Z": 1833,
      "sgflu": 1834,
      "##vedbaix": 1835,
      "quw##": 1836,
      "rMRNv": 1837,
      "uyelf": 1838,
      "##xvra": 1839,
      "jdv##": 1840,
      "6mGmBc": 1841,
      "urgelht": 1842,
      "##ihagdsal": 1843,
      "sxeo##": 1844,
      "av5": 1845,
      "hvwqxv": 1846,
      "##ijj": 1847,
      "qfsch##": 1848,
      "hJ7": 24841,
      "cwtioye": 1850,
      "##abgmnis": 1851,
      "vvoohrz##": 1852,
      "0IJta6": 1853,
      "rmzjydepw": 1854,
      "##ilkpp": 1855,
      "ewt##": 1856,
      "JESef": 1857,
      "ywemplutw": 1858,
      "##vlypms": 1859,
      "hbiyo##": 1860,
      "uW1i4z": 1861,
      "mpwdh": 1862,
      "##ctozk": 1863,
      "qxg##": 1864,
      "BzlDrI": 1865,
      "wnion": 1866,
      "##th": 42423,
      "pmdzjutz##": 1868,
      "sT": 1869,
      "yxpzmrb": 1870,
      "##rkdipnli": 1871,
      "igw##": 16988,
      "eIh": 1873,
      "rnmathz": 1874,
      "##oovcsh": 1875,
      "fjojozli##": 1876,
      "5xT": 1877,
      "qat": 1878,
      "##xlcfgreq": 1879,
      "baez##": 1880,
      "mbwY": 1881,
      "uqlujbuu": 1882,
      "##albdr": 1883,
      "wds##": 40640,
      "OSEQS": 1885,
      "oocklo": 1886,
      "##mn": 7411,
      "ynwrfmj##": 1888,
      "nceyxbca": 1890,
      "##vjmflowm": 1891,
      "ljf##": 1892,
      "BkB8": 1893,
      "izjuasik": 1894,
      "##gx": 44971,
      "pholbmz##": 1896,
      "wLA": 1897,
      "hujubl": 1898,
      "##mes": 1899,
      "hqx##": 1900,
      "pV": 17617,
      "mmkww": 1902,
      "##gksjphun": 1903,
      "saslc##": 1904,
      "cwi": 1905,
      "dbgyo": 1906,
      "##hbr": 1907,
      "dozp##": 1908,
      "v3z": 1909,
      "ilmyqmhl": 1910,
      "##sshaf": 1911,
      "erx##": 1912,
      "ZRDtnQ": 1913,
      "ugu": 1914,
      "##ww": 31635,
      "yyledu##": 1916,
      "3WI": 1917,
      "xaqwlid": 1918,
      "##jkoxakld": 1919,
      "dw##": 46976,
      "n7oBv": 1921,
      "bjtexdxfp": 1922,
      "##kv": 1923,
      "mwx##": 36284,
      "DGDi": 1925,
      "tudpf": 1926,
      "##qm": 38163,
      "fqb##": 1928,
      "2qEEpR": 1929,
      "jtphy": 1930,
      "##gomxs": 1931,
      "cdtjf##": 1932,
      "PhFnN": 1933,
      "dwf": 1934,
      "##ubr": 1935,
      "gzuakfxc##": 1936,
      "Hj63uf": 1937,
      "owtkqaorn": 1938,
      "##vrtdcxjy": 1939,
      "kmajkyr##": 1940,
      "Z2dYV": 1941,
      "ewdoln": 1942,
      "##vcey": 1943,
      "eutr##": 1944,
      "g7CWn": 1945,
      "fguraattf": 1946,
      "##cqxui": 1947,
      "itgegvkf##": 1948,
      "Icu1Y": 1949,
      "sazjc": 1950,
      "##mitlhoj": 1951,
      "zk##": 22664,
      "6W": 40681,
      "xvvieqmpuv": 1954,
      "##fedlrq": 1955,
      "rlwqv##": 1956,
      "JmAGC": 1957,
      "hjnev": 1958,
      "##cr": 43479,
      "ptbmsl##": 1960,
      "D7": 1961,
      "ayfaeohog": 1962,
      "##kfioknu": 1963,
      "iwxk##": 1964,
      "o4O": 1965,
      "vvjjp": 1966,
      "##gxu": 1967,
      "eyphbe##": 1968,
      "WcL": 1969,
      "ddbbt": 1970,
      "##ygzzhy": 1971,
      "blbhut##": 1972,
      "84j": 1973,
      "wqow": 1974,
      "##ufzs": 1975,
      "tfixq##": 1976,
      "2Uwvr": 1977,
      "tqfbzoqoi": 1978,
      "##pnzdlpl": 1979,
      "pohcb##": 1980,
      "Uzwo6X": 1981,
      "oyvgbnx": 1982,
      "##mjnnooa": 1983,
      "hnalcbrl##": 1984,
      "uxX": 1985,
      "lsaezxz": 1986,
      "##abgxdsff": 1987,
      "dsvnu##": 1988,
      "395D8": 1989,
      "etgwm": 1990,
      "##xes": 1991,
      "wq##": 39568,
      "HTx9": 1993,
      "kouv": 1994,
      "##iolnhuu": 1995,
      "tqrw##": 1996,
      "uMX1bG": 1997,
      "ikkrcnnq": 1998,
      "##sheqt": 1999,
      "fi##": 44060,
      "n4mNC": 2001,
      "fruwovjvek": 2002,
      "##bpjsqvta": 2003,
      "gh##": 27196,
      "0F": 5953,
      "kyxemec": 2006,
      "##lnu": 2007,
      "fskdd##": 2008,
      "GyJ2Od": 2009,
      "dzb": 2010,
      "##rwm": 2011,
      "vrusqqm##": 2012,
      "dZxQz": 2013,
      "dag": 2014,
      "##yjcn": 2015,
      "skjqf##": 2016,
      "aeJ": 2017,
      "rfqe": 2018,
      "##kqiuh": 2019,
      "ew##": 41292,
      "qh": 2021,
      "imfxhsnp": 2022,
      "##zorbch": 2023,
      "rwdh##": 2024,
      "g2jb": 2025,
      "sgwth": 2026,
      "##yzsmuf": 2027,
      "scsqd##": 2028,
      "mHc": 2029,
      "kzmcagrl": 2030,
      "##cyo": 2031,
      "kgos##": 2032,
      "DtaVdG": 2033,
      "fiwuojjrt": 2034,
      "##sfuom": 2035,
      "bdjfq##": 2036,
      "fh": 2605,
      "zxnopmrq": 2038,
      "##kxvhykwp": 2039,
      "kzh##": 2040,
      "Tgv26": 2041,
      "uqlwarbk": 2042,
      "##tg": 42735,
      "lqfrftg##": 2044,
      "R6Y": 2045,
      "bnfybac": 2046,
      "##eaptde": 2047,
      "rnemu##": 2048,
      "ZUsL": 2049,
      "uyhfuag": 2050,
      "##cbuksqq": 2051,
      "yt##": 45068,
      "sv": 2053,
      "ahundwgxgq": 2054,
      "##tsj": 2055,
      "jghri##": 2056,
      "Y0": 2057,
      "plvrs": 2058,
      "##zzbq": 2059,
      "gxclgh##": 2060,
      "9obNH": 2061,
      "hszremse": 2062,
      "##nfgrywlp": 2063,
      "mmzai##": 2064,
      "rujyjE": 2065,
      "jcjtgc": 2066,
      "##cesjg": 2067,
      "nkla##": 2068,
      "Y2": 35589,
      "hyoh": 2070,
      "##ryby": 2071,
      "wpwcvwjm##": 2072,
      "7zSj": 2073,
      "fdx": 2074,
      "##lwuc": 2075,
      "nfn##": 18420,
      "REZf": 2077,
      "jmflryosw": 2078,
      "##vdvejbq": 2079,
      "bqqhh##": 2080,
      "XCylI6": 2081,
      "xlqci": 2082,
      "##bwr": 2083,
      "vce##": 2084,
      "MlYziA": 2085,
      "ovrlh": 2086,
      "##bxuxffyl": 2087,
      "luim##": 2088,
      "u1Y": 2089,
      "jcmekise": 2090,
      "##myblags": 2091,
      "iqgg##": 2092,
      "JWbp": 2093,
      "kounzvcd": 2094,
      "##kgmoq": 2095,
      "csbaj##": 2096,
      "bSfDK0": 2097,
      "yqsijyn": 2098,
      "##he": 27227,
      "vukhvi##": 2100,
      "239": 2101,
      "widn": 2102,
      "##ujaue": 2103,
      "vn##": 2104,
      "5w": 35429,
      "qvoct": 2106,
      "##qfruzrc": 2107,
      "fib##": 2108,
      "Md": 2109,
      "uftdngd": 2110,
      "##jbrzcwca": 2111,
      "crsqw##": 2112,
      "LjV": 2113,
      "dryoxzv": 2114,
      "##fdzaa": 2115,
      "uytdft##": 2116,
      "W8ghv": 2117,
      "iynkp": 2118,
      "##cink": 2119,
      "xzyatk##": 2120,
      "077aT": 2121,
      "fvo": 2122,
      "##ybjwztbn": 2123,
      "hsyq##": 2124,
      "TP4c6": 2125,
      "reknqivw": 2126,
      "##xeytxxl": 2127,
      "stuychqk##": 2128,
      "Vr7": 2129,
      "wqq": 2130,
      "##zxlt": 2131,
      "nd##": 15216,
      "ii": 2133,
      "oasjlbxh": 2134,
      "##oa": 39415,
      "ryso##": 2136,
      "XXmt4y": 2137,
      "uzquozpzl": 2138,
      "##jbsduojr": 2139,
      "vkjbrl##": 2140,
      "pwSVB": 2141,
      "gvnkiecetg": 2142,
      "##lansb": 2143,
      "cyxgkd##": 2144,
      "OifSw": 2145,
      "znbm": 2146,
      "##thqw": 2147,
      "gtxjn##": 2148,
      "DZSp": 2149,
      "ytjp": 2150,
      "##roly": 2151,
      "zsxfwi##": 2152,
      "dLd": 2153,
      "dojuchnv": 2154,
      "##ipgsjpd": 2155,
      "ryor##": 2156,
      "8zVm0v": 2157,
      "kjxx": 2158,
      "##yewmm": 2159,
      "xqzjsuua##": 2160,
      "ptdHat": 2161,
      "aexdvlgqdz": 2162,
      "##jn": 41015,
      "gzlyss##": 2164,
      "cw": 2165,
      "nhdjlunr": 2166,
      "##yqb": 2167,
      "ieb##": 2168,
      "6T": 42553,
      "lwcifthfbt": 2170,
      "##dw": 46755,
      "nfddwj##": 2172,
      "qx": 32353,
      "utxueegmih": 2174,
      "##tarilwsb": 2175,
      "arhs##": 2176,
      "HfgR7z": 2177,
      "imigjt": 2178,
      "##nrajs": 2179,
      "raa##": 2180,
      "jW": 35573,
      "dbrn": 2182,
      "##ghhxshm": 2183,
      "sct##": 2184,
      "zH": 2185,
      "qvh": 2186,
      "##bdh": 2187,
      "kyyqcpjs##": 2188,
      "Pw6Hy": 2189,
      "jjjdjerg": 2190,
      "##eniriog": 2191,
      "fxgihae##": 2192,
      "X2p": 2193,
      "hjr": 2194,
      "##tmtenby": 2195,
      "kq##": 2196,
      "b1L9gl": 2197,
      "ugjhsj": 2198,
      "##bi": 45579,
      "jxwalvt##": 2200,
      "J6cB": 2201,
      "giscpveaqj": 2202,
      "##ogpvcc": 2203,
      "omfzh##": 2204,
      "DUOgB": 2205,
      "ycadlmk": 2206,
      "##fks": 2207,
      "dygvx##": 2208,
      "gbRGe": 2209,
      "axttdzzbyz": 2210,
      "##ku": 36487,
      "sx##": 46868,
      "rane0B": 2213,
      "qwbqgzisvw": 2214,
      "##srtkzz": 2215,
      "vzd##": 2216,
      "9M0J5": 2217,
      "socle": 2218,
      "##invbe": 2219,
      "wlvqytoj##": 2220,
      "DrnVx": 2221,
      "ubtbzvawoa": 2222,
      "##taao": 2223,
      "dpcaapa##": 2224,
      "A0zS5": 2225,
      "nytbgjg": 2226,
      "##cdtlzp": 2227,
      "bzhumizw##": 2228,
      "Iu5": 2229,
      "ssd": 23322,
      "##shdrfv": 2231,
      "sp##": 11112,
      "0cPA": 2233,
      "fxfxieev": 2234,
      "##cfp": 2235,
      "ywstanai##": 2236,
      "CvU3": 2237,
      "nfcnjhrub": 2238,
      "##gl": 21711,
      "wyco##": 2240,
      "covq": 2242,
      "##rb": 39503,
      "kf##": 20968,
      "4n": 2245,
      "biwclecp": 2246,
      "##dpjjqll": 2247,
      "snqopu##": 2248,
      "Ka": 44465,
      "dygbomquxp": 2250,
      "##sjuhoe": 2251,
      "raqbvdu##": 2252,
      "Q4": 2253,
      "mfjgtxjlc": 2254,
      "##an": 48695,
      "soqcp##": 2256,
      "qqBe": 2257,
      "exuvdg": 2258,
      "##qz": 47167,
      "lzl##": 2260,
      "lOC": 2261,
      "mnv": 2262,
      "##pisqjxtl": 2263,
      "ss##": 46296,
      "eOg": 2265,
      "onwnmwzofm": 2266,
      "qlsdafhp##": 2268,
      "d4im": 2269,
      "rit": 2270,
      "##px": 29523,
      "iiluvjq##": 2272,
      "ddfYVs": 2273,
      "nqkwctqkb": 2274,
      "##vdap": 2275,
      "rpsmum##": 2276,
      "oSX": 2277,
      "efrq": 2278,
      "##jrfofcwl": 2279,
      "oe##": 48616,
      "Id7X": 2281,
      "viic": 2282,
      "##tjpylals": 2283,
      "ohmhj##": 2284,
      "3j": 33617,
      "qyxhmboyq": 2286,
      "##basiauw": 2287,
      "xhk##": 2288,
      "nyqo0": 2289,
      "thmj": 2290,
      "##hg": 6187,
      "dfh##": 2292,
      "VP5a": 2293,
      "qgktpzj": 2294,
      "##jmup": 2295,
      "ifnz##": 2296,
      "QNFOpE": 2297,
      "rfkthuvtd": 2298,
      "##nyuurs": 2299,
      "urdhln##": 2300,
      "qQ9": 2301,
      "hdabg": 2302,
      "##tddz": 2303,
      "yqmxoapu##": 2304,
      "7OwD": 2305,
      "syh": 2306,
      "##owhpmt": 2307,
      "prpgsyrj##": 2308,
      "T0Sikm": 2309,
      "uossu": 2310,
      "##lquk": 2311,
      "toeldw##": 2312,
      "2TjWb": 2313,
      "hvpyddzy": 2314,
      "##djejahiy": 2315,
      "wv##": 14380,
      "3ATFW": 2317,
      "wkqvekekh": 2318,
      "##cguhsbsx": 2319,
      "msx##": 2320,
      "dd87": 2321,
      "gwxpz": 2322,
      "##conwk": 2323,
      "lqimx##": 2324,
      "cB": 11825,
      "hsqnkqfmwh": 2326,
      "##kinsfka": 2327,
      "oyo##": 2328,
      "sphJ": 2329,
      "ivxpedwwzo": 2330,
      "##pojuq": 2331,
      "tvvnepk##": 2332,
      "qpbhby": 2333,
      "rty": 2334,
      "##fetlr": 2335,
      "xgbk##": 2336,
      "FJC": 2337,
      "wbbmlpq": 2338,
      "##ysbmk": 2339,
      "sacmnswr##": 2340,
      "lzze": 2341,
      "zfen": 2342,
      "##lghagcih": 2343,
      "Dw9Hf": 2345,
      "zlyxtypecm": 2346,
      "##ice": 2347,
      "umskzeji##": 2348,
      "3i6Hr": 2349,
      "gchlfqho": 2350,
      "##or": 8291,
      "bheypw##": 2352,
      "n5Dveb": 2353,
      "glamifytoi": 2354,
      "##ma": 47471,
      "kgltaup##": 2356,
      "LV8": 2357,
      "nru": 2358,
      "##tocvot": 2359,
      "riyy##": 2360,
      "seflou": 2362,
      "##dxikime": 2363,
      "lbmwi##": 2364,
      "GTm": 2365,
      "cinfxud": 2366,
      "##lhftdayc": 2367,
      "wmi##": 2368,
      "hUbr4": 2369,
      "msjjexg": 2370,
      "##lwsh": 2371,
      "ykth##": 2372,
      "LRc2": 2373,
      "lnelzzbe": 2374,
      "##igbhvqf": 2375,
      "derssxz##": 2376,
      "9KEx": 2377,
      "ixhgzyx": 2378,
      "##rt": 15399,
      "atgtw##": 2380,
      "Zu": 34373,
      "dccqk": 2382,
      "##xddjzdfs": 2383,
      "rtqt##": 2384,
      "e1lg": 2385,
      "qwxcehcoa": 2386,
      "##ugjf": 2387,
      "gikluhc##": 2388,
      "7jYXJE": 2389,
      "gttatwrpn": 2390,
      "##mpia": 2391,
      "tu##": 45052,
      "h4iE": 2393,
      "hspudfb": 2394,
      "##dszpcopq": 2395,
      "psy##": 2396,
      "Iz57zn": 2397,
      "gjlon": 2398,
      "##aapwdbb": 2399,
      "jk##": 36252,
      "Ffz": 2401,
      "dggfjvt": 2402,
      "##syoq": 2403,
      "vrqf##": 2404,
      "S5wPb": 2405,
      "pxoxa": 2406,
      "##pda": 2407,
      "wba##": 2408,
      "9fS": 2409,
      "wpfjnx": 2410,
      "##kvzua": 2411,
      "hwsgm##": 2412,
      "TlMo": 2413,
      "yeeebccu": 2414,
      "##sfiw": 2415,
      "dtwmnfos##": 2416,
      "w0G": 2417,
      "pwpbpslq": 2418,
      "##feqeayp": 2419,
      "baefrck##": 2420,
      "D8zkP": 2421,
      "wrxyziwl": 2422,
      "##ygq": 2423,
      "ijsfv##": 2424,
      "rm": 2425,
      "tua": 2426,
      "##gwyihow": 2427,
      "cs##": 32316,
      "EBXvt": 2429,
      "oilhzgeg": 2430,
      "##qwm": 2431,
      "kggsbjg##": 2432,
      "N4akUq": 2433,
      "hvbnozujgk": 2434,
      "##nksaqgiu": 2435,
      "dzydlf##": 2436,
      "3HYBac": 2437,
      "vlnxumqy": 2438,
      "##grphqdo": 2439,
      "xtghuajx##": 2440,
      "KDceM": 2441,
      "jgfn": 2442,
      "##idj": 2443,
      "suq##": 2444,
      "AGz2Rg": 2445,
      "wbvpj": 2446,
      "##ikkblcif": 2447,
      "jjoo##": 2448,
      "BZYh7K": 2449,
      "phvwev": 2450,
      "##zburdroe": 2451,
      "fugn##": 2452,
      "37aIlG": 2453,
      "xlrayirut": 2454,
      "##roj": 2455,
      "ddxabnyv##": 2456,
      "U4": 2457,
      "dubu": 2458,
      "##czmb": 2459,
      "yr##": 2460,
      "0I": 42681,
      "hjgpl": 2462,
      "##axqbvz": 2463,
      "taublimg##": 2464,
      "JKvDh": 2465,
      "wwhpv": 2466,
      "##slciib": 2467,
      "ky##": 33684,
      "HIuV": 2469,
      "fvzb": 2470,
      "##dmy": 2471,
      "ualzlrw##": 2472,
      "kT": 2473,
      "gctre": 2474,
      "##mvjji": 2475,
      "uxnnz##": 2476,
      "oZv": 2477,
      "smwuidcbqd": 2478,
      "##byq": 7251,
      "an##": 40244,
      "vIVOJ": 2481,
      "oaiuosoa": 2482,
      "##enf": 2483,
      "vzjdyf##": 2484,
      "uUCH": 2485,
      "xfqwp": 2486,
      "##jthpxfjn": 2487,
      "lcte##": 2488,
      "itQ6MV": 2489,
      "pobcs": 2490,
      "##pfc": 2491,
      "dkmavs##": 2492,
      "nqXg": 2493,
      "tkap": 2494,
      "##jo": 44563,
      "hlbfdhw##": 2496,
      "EDskZV": 2497,
      "xdffur": 2498,
      "##rnqd": 2499,
      "wvqhx##": 2500,
      "Zq": 2501,
      "hebbdid": 2502,
      "##oaaedbki": 2503,
      "iw##": 27020,
      "OLGYz": 2505,
      "kpv": 2506,
      "##qjw": 2507,
      "whfxaib##": 2508,
      "gy6Sf": 2509,
      "tizepn": 2510,
      "##wbiasl": 2511,
      "owwla##": 2512,
      "gJK": 2513,
      "jlunzwobkw": 2514,
      "##cpbk": 2515,
      "tibydxsp##": 2516,
      "KewY": 2517,
      "vwk": 2518,
      "##kwkja": 2519,
      "yeon##": 2520,
      "ImcCwu": 2521,
      "xdl": 2522,
      "##nvx": 2523,
      "covjv##": 2524,
      "mOA031": 2525,
      "riyszxgoyn": 2526,
      "##dl": 39743,
      "ryzftup##": 2528,
      "eF2": 2529,
      "okpbj": 2530,
      "##eo": 41267,
      "gy##": 40632,
      "9Fd": 2533,
      "wtniu": 2534,
      "##vn": 47059,
      "dllswqdn##": 2536,
      "Umu": 2537,
      "yyepvl": 2538,
      "##xijndti": 2539,
      "lxfu##": 2540,
      "8QtZo9": 2541,
      "salkb": 2542,
      "##rriyfxyc": 2543,
      "rldc##": 2544,
      "1V43B": 2545,
      "xmpe": 2546,
      "##eum": 2547,
      "uxjkaeu##": 2548,
      "7BJI": 2549,
      "odxzpc": 2550,
      "##gccytm": 2551,
      "di##": 2552,
      "wp9": 2553,
      "kqvlacbyvl": 2554,
      "##qtwmv": 2555,
      "qtg##": 2556,
      "NBzOp": 2557,
      "yymd": 2558,
      "##vvclom": 2559,
      "avhe##": 2560,
      "Vd": 2561,
      "jtf": 2562,
      "##grqlqjeb": 2563,
      "sqs##": 42544,
      "WWw": 2565,
      "aayioxlcaw": 2566,
      "##ovmajn": 2567,
      "hjbpyh##": 2568,
      "krszfjycv": 2570,
      "##huvwn": 2571,
      "wm##": 30892,
      "Ys": 2573,
      "gjitoslyq": 2574,
      "##otn": 2575,
      "saeiwbr##": 2576,
      "xWvm": 2577,
      "xxcymvkjbd": 2578,
      "##ddchlk": 2579,
      "nun##": 2580,
      "0r1LJ": 2581,
      "hmqpqb": 2582,
      "##ym": 38335,
      "stugtjc##": 2584,
      "hUbzT": 2585,
      "sjubvm": 2586,
      "##fk": 30067,
      "rw##": 22632,
      "K1hia": 2589,
      "czgbvju": 2590,
      "##hlioregu": 2591,
      "vqwdh##": 2592,
      "9d0A": 2593,
      "jiuwzoftkj": 2594,
      "##mssbbgoa": 2595,
      "xtrqpsz##": 2596,
      "qdGK": 2597,
      "xscjzk": 2598,
      "##iuuv": 2599,
      "kpyxy##": 2600,
      "AdSQjt": 2601,
      "jrmb": 2602,
      "##xtkgaop": 2603,
      "xu##": 49196,
      "feebbxqu": 2606,
      "##ai": 46983,
      "elyrjgui##": 2608,
      "4r": 2609,
      "ntkhso": 2610,
      "##jez": 2611,
      "wdnijv##": 2612,
      "c1VeT": 2613,
      "fviiaydr": 2614,
      "##kpqg": 2615,
      "xzdi##": 2616,
      "3p": 49941,
      "pqambm": 2618,
      "##kjnyafc": 2619,
      "dm##": 25504,
      "gX": 2621,
      "sqjf": 2622,
      "##bseyw": 2623,
      "ys##": 46664,
      "ik1": 2625,
      "yqblvc": 2626,
      "##lcske": 2627,
      "dzumrjsi##": 2628,
      "UVrv": 2629,
      "lpjwq": 2630,
      "##nruzcgw": 2631,
      "fqfdg##": 2632,
      "dlAv0": 2633,
      "ioitnn": 2634,
      "##oqghkn": 2635,
      "oiny##": 2636,
      "OF": 2637,
      "thavnjkf": 2638,
      "##ngotskwe": 2639,
      "goxwd##": 2640,
      "iyuhhi": 2642,
      "##dmcjpue": 2643,
      "krfodhm##": 2644,
      "2D5E": 2645,
      "qsxopci": 2646,
      "##ot": 40675,
      "gnsghbxs##": 2648,
      "TX": 2649,
      "klrwpifywh": 2650,
      "##dkog": 2651,
      "aw##": 28384,
      "DxM": 2653,
      "jpiddycah": 2654,
      "##jrgqwbg": 2655,
      "egwklql##": 2656,
      "F6iYD": 2657,
      "lbg": 2658,
      "##ulj": 2659,
      "oh##": 38348,
      "OWQIuz": 2661,
      "tdmlleiovf": 2662,
      "##aqm": 2663,
      "gcdt##": 2664,
      "eE3zeo": 2665,
      "dpfc": 2666,
      "##evwam": 2667,
      "pgcf##": 2668,
      "SBA": 2669,
      "lel": 2670,
      "##ywiebdtf": 2671,
      "kihdfel##": 2672,
      "ga": 2673,
      "ggvmm": 2674,
      "##aesgcq": 2675,
      "sbek##": 2676,
      "powZN": 2677,
      "kvvsxsplpj": 2678,
      "##yxbiqpeb": 2679,
      "qrd##": 2680,
      "MRMp": 2681,
      "njix": 2682,
      "##huzfday": 2683,
      "jvi##": 2684,
      "7nZ": 2685,
      "dwxrhgtnko": 2686,
      "##zeehi": 2687,
      "qqslrjb##": 2688,
      "8kHR": 2689,
      "xsuvufduc": 2690,
      "##tzhmmt": 2691,
      "lx##": 46532,
      "Bu": 2693,
      "utqhuna": 2694,
      "##zd": 22983,
      "lqjun##": 2696,
      "CqC": 2697,
      "mllew": 2698,
      "##zwy": 2699,
      "fgzc##": 2700,
      "uk": 2701,
      "ssrkyt": 2702,
      "##bta": 2703,
      "vcbixr##": 2704,
      "1TASb": 2705,
      "cdo": 2706,
      "##oynwgud": 2707,
      "zmg##": 2708,
      "wQ3BK": 2709,
      "tbey": 2710,
      "##xtjbbd": 2711,
      "ihvecg##": 2712,
      "jn7Br": 2713,
      "gxbmatdu": 2714,
      "##imsoqvh": 2715,
      "fexv##": 2716,
      "nX": 3941,
      "zmyah": 2718,
      "##begp": 2719,
      "um##": 47808,
      "21G": 2721,
      "grtzehgaf": 2722,
      "##jsv": 2723,
      "akg##": 36580,
      "SA": 29485,
      "hfcppaepc": 2726,
      "##qiuy": 2727,
      "rrwpryue##": 2728,
      "1nphb": 2729,
      "yeairm": 2730,
      "##ifjccs": 2731,
      "jigj##": 2732,
      "JtoD": 2733,
      "mpvbpxe": 2734,
      "##es": 39047,
      "qvehuvpx##": 2736,
      "Cjim0e": 2737,
      "nzpxigh": 2738,
      "##qprinb": 2739,
      "uf##": 41776,
      "oOT": 2741,
      "jhkruye": 2742,
      "##imxny": 2743,
      "lyheu##": 2744,
      "l0Ria": 2745,
      "ghmynr": 2746,
      "##lmyrjf": 2747,
      "mwac##": 2748,
      "XZsed": 2749,
      "gzliio": 2750,
      "##mzcuje": 2751,
      "xhq##": 28604,
      "bm": 2753,
      "dnqunpnpp": 2754,
      "##kcjwbr": 2755,
      "bgrvvr##": 2756,
      "RV1N": 2757,
      "scmvh": 2758,
      "##abrpdk": 2759,
      "dudqn##": 2760,
      "anE1": 2761,
      "zqnmkstzyk": 2762,
      "##muiromip": 2763,
      "mxmty##": 2764,
      "xsBn": 2765,
      "upbquwcjpq": 2766,
      "##vqxoskwf": 2767,
      "ikjg##": 2768,
      "UJrRaH": 2769,
      "owtv": 2770,
      "##ekste": 2771,
      "zyanag##": 2772,
      "caak": 2773,
      "pgcdmttzyn": 2774,
      "##ulvmxm": 2775,
      "uuvt##": 2776,
      "i3": 16901,
      "gkfjuxbbva": 2778,
      "##ucaeru": 2779,
      "ngw##": 2780,
      "2Ev": 2781,
      "gvegap": 2782,
      "##heeca": 2783,
      "fhhlsp##": 2784,
      "qbw": 2785,
      "lnerqnr": 2786,
      "##ikuaqc": 2787,
      "lt##": 46092,
      "4F": 39541,
      "nhnfpswpiz": 2790,
      "##wp": 49379,
      "jlmmzytu##": 2792,
      "Duvx": 2793,
      "syszy": 2794,
      "##jgpy": 2795,
      "dhda##": 2796,
      "Wb": 2797,
      "vckmy": 2798,
      "##adaijot": 2799,
      "xsjbqpp##": 2800,
      "w0": 3897,
      "xderfo": 2802,
      "##gq": 3939,
      "ja##": 49356,
      "syg5f4": 2805,
      "exylhrud": 2806,
      "##yulbmve": 2807,
      "muw##": 2808,
      "NrJxW6": 2809,
      "ozsav": 2810,
      "##ebxc": 2811,
      "pmqxnfqx##": 2812,
      "XSx3f": 2813,
      "pql": 2814,
      "##xq": 41399,
      "nc##": 26364,
      "iyy": 2817,
      "biet": 2818,
      "##wfreb": 2819,
      "url##": 2820,
      "ci": 18933,
      "thui": 2822,
      "##dwzk": 2823,
      "cfzxr##": 2824,
      "gnpX3x": 2825,
      "ejipfa": 2826,
      "##zhky": 2827,
      "bpqkmsao##": 2828,
      "ZG": 35193,
      "nwzxxmhzch": 2830,
      "##ichf": 2831,
      "lapxtfk##": 2832,
      "3LIlZ": 2833,
      "wefswni": 2834,
      "##nfgrreqm": 2835,
      "fg##": 41368,
      "MXHsw": 2837,
      "kbgoqby": 2838,
      "##lhsyx": 2839,
      "weovh##": 2840,
      "R58": 2841,
      "qifl": 2842,
      "##ch": 2843,
      "uwtbb##": 2844,
      "qf": 2845,
      "ucmgsn": 2846,
      "##lhuamwt": 2847,
      "vffexefi##": 2848,
      "Msb1p": 2849,
      "fphczuely": 2850,
      "##zilfy": 2851,
      "si##": 26464,
      "kJX9k": 2853,
      "wxtxkmjj": 2854,
      "##hcshwlk": 2855,
      "hcsw##": 2856,
      "vsDt1": 2857,
      "gwpifz": 2858,
      "##hpeh": 2859,
      "lg##": 46076,
      "BrHM3M": 2861,
      "ohbzgzaxvb": 2862,
      "##ed": 38483,
      "wujh##": 2864,
      "5gF": 2865,
      "egcwznvg": 2866,
      "##qqw": 2867,
      "qx##": 44124,
      "ZbB9v5": 2869,
      "mfihzusjq": 2870,
      "##bdzz": 2871,
      "shxs##": 2872,
      "Sf0X": 2873,
      "kjmideonhl": 2874,
      "##cchx": 2875,
      "hptusejl##": 2876,
      "jauLJF": 2877,
      "loeigbvwn": 2878,
      "##tbgvpm": 2879,
      "erst##": 2880,
      "2bj": 2881,
      "kpcjvu": 2882,
      "##zwwbhzg": 2883,
      "cnarm##": 2884,
      "0eqTn": 2885,
      "uudgonp": 2886,
      "##wnydkz": 2887,
      "ndc##": 2888,
      "tb9VC": 2889,
      "yxbsyjbw": 2890,
      "##sirjvcq": 2891,
      "ikg##": 2892,
      "iKfkp": 2893,
      "exsr": 2894,
      "##qppnmieq": 2895,
      "ktvojdo##": 2896,
      "ZaX": 2897,
      "pbcdct": 2898,
      "##ezbgfmhq": 2899,
      "ttey##": 2900,
      "JBN": 2901,
      "izpcx": 2902,
      "##tlsf": 2903,
      "ekoxypg##": 2904,
      "kN": 48661,
      "bahvfpvuf": 2906,
      "##vhrqola": 2907,
      "ww##": 16608,
      "6po": 2909,
      "rwcai": 2910,
      "##tcl": 2911,
      "ft##": 47172,
      "n5aay": 2913,
      "xssz": 2914,
      "##dbck": 2915,
      "yotpj##": 2916,
      "akqkc": 2917,
      "swemrdghf": 2918,
      "##mac": 2919,
      "wdcl##": 2920,
      "oeu": 2921,
      "bfarxvw": 2922,
      "##ng": 49855,
      "gu##": 40720,
      "QmSs": 2925,
      "etadwm": 2926,
      "##gzxsrlnl": 2927,
      "lftnjx##": 2928,
      "4Mwrr": 2929,
      "dfz": 2930,
      "##xuiu": 2931,
      "drcjw##": 2932,
      "vOnW": 2933,
      "azbb": 2934,
      "##hs": 37811,
      "lesahgu##": 2936,
      "vMw": 2937,
      "dqdwztq": 2938,
      "##hafws": 2939,
      "kgfrw##": 2940,
      "ppjteuxxr": 2942,
      "##ssjykdxi": 2943,
      "zmuqkpaa##": 2944,
      "Scn": 2945,
      "fvazmdsu": 2946,
      "##phn": 2947,
      "rvpx##": 2948,
      "pzR": 2949,
      "sdtkz": 2950,
      "pl##": 2952,
      "NrHL": 2953,
      "kfrzuw": 2954,
      "##qxl": 2955,
      "djdgelf##": 2956,
      "K12": 2957,
      "huojn": 2958,
      "##wnu": 2959,
      "tnu##": 2960,
      "9V44S": 2961,
      "hqmucsg": 2962,
      "##fosmb": 2963,
      "qr##": 32944,
      "MmBZ": 2965,
      "jddntxbi": 2966,
      "##pqcfzo": 2967,
      "ourxyjzy##": 2968,
      "J4As": 2969,
      "nayws": 2970,
      "##jnjjrhss": 2971,
      "uc##": 12104,
      "0M": 45705,
      "xkuk": 2974,
      "##tf": 36331,
      "fw##": 11596,
      "BjQf": 2977,
      "zkxe": 2978,
      "##vshy": 2979,
      "niv##": 2980,
      "QGx2": 2981,
      "towmlrhynd": 2982,
      "##eiaygea": 2983,
      "xuwyl##": 2984,
      "7hjhd": 2985,
      "qdukmnjq": 2986,
      "##unjmtb": 2987,
      "lizfclc##": 2988,
      "5vFBnm": 2989,
      "gsi": 2990,
      "##kkroa": 2991,
      "azdnyc##": 2992,
      "Pp": 2993,
      "dfrksowq": 2994,
      "##cohfp": 2995,
      "mwj##": 2996,
      "SSX": 2997,
      "vvnv": 2998,
      "##hktol": 2999,
      "bll##": 3000,
      "9tMNJD": 3001,
      "ejlkosz": 3002,
      "##krqysl": 3003,
      "nyacs##": 3004,
      "sc0": 3005,
      "ydrxuzzg": 3006,
      "##zyqiihct": 3007,
      "nve##": 3008,
      "oOn": 3009,
      "odrw": 3010,
      "##nsbrjsds": 3011,
      "nvi##": 3012,
      "QGvbB": 3013,
      "wtymydmxuo": 3014,
      "##np": 21215,
      "lan##": 3016,
      "1eqh": 3017,
      "tlagfgrjk": 3018,
      "##jwc": 3019,
      "zo##": 7484,
      "TL": 3021,
      "ritpzgd": 3022,
      "##uegfuo": 3023,
      "bot##": 3024,
      "LM8": 45641,
      "xvbybhsg": 3026,
      "##ppwc": 3027,
      "hvewrh##": 3028,
      "C82": 3029,
      "zqxei": 3030,
      "##cjocqqb": 3031,
      "jcrftmz##": 3032,
      "ei3vZ": 3033,
      "cnedyihfhz": 3034,
      "##ywrii": 3035,
      "sshn##": 3036,
      "0CJFY": 3037,
      "shvswmev": 3038,
      "##oqqcd": 3039,
      "dj##": 16888,
      "1Qpmg": 3041,
      "pilxmxplle": 3042,
      "##xkbscd": 3043,
      "ekjl##": 3044,
      "qJrh": 3045,
      "fwwqfur": 3046,
      "##nkypdjbu": 3047,
      "sjxit##": 3048,
      "WY33oG": 3049,
      "lzlyja": 3050,
      "##vhcpim": 3051,
      "vqvxewdv##": 3052,
      "0Rh": 3053,
      "flhdj": 3054,
      "##byrdsp": 3055,
      "riuouch##": 3056,
      "T5": 3057,
      "lytokt": 3058,
      "##ksaed": 3059,
      "sfxj##": 3060,
      "3Koeuy": 3061,
      "vepjzhwqc": 3062,
      "##vinwyb": 3063,
      "pndcvv##": 3064,
      "O7IzZd": 3065,
      "rhcba": 3066,
      "##acvfa": 3067,
      "B2MtM": 3069,
      "mcjscq": 3070,
      "##vmf": 3071,
      "bolsiie##": 3072,
      "hY": 36913,
      "jyiqqzrok": 3074,
      "##fpbyr": 3075,
      "mgxrpmq##": 3076,
      "75CD": 3077,
      "qpwrrdtjjp": 3078,
      "##ic": 48475,
      "jwpvrnsb##": 3080,
      "xyGh": 3081,
      "jjwxhwv": 3082,
      "griawjrj##": 3084,
      "BwbA8": 3085,
      "yedc": 3086,
      "##zrl": 3087,
      "hd##": 46760,
      "iDyx": 3089,
      "zvah": 3090,
      "##upkp": 3091,
      "pok##": 3092,
      "bePV": 3093,
      "sezhudfd": 3094,
      "##hzmvp": 3095,
      "qlnhgya##": 3096,
      "Ud5JAb": 3097,
      "jqqgkipc": 3098,
      "##kba": 3099,
      "uiz##": 3100,
      "f76": 3101,
      "jsagcmtrb": 3102,
      "##opl": 3103,
      "jpj##": 3104,
      "q8N": 3105,
      "gqccmxn": 3106,
      "##pgo": 3107,
      "wjngygdq##": 3108,
      "NLI": 3109,
      "nuunkxh": 3110,
      "##glshvav": 3111,
      "gzkcguhz##": 3112,
      "II9I": 3113,
      "wdwcdx": 3114,
      "##ivhvhs": 3115,
      "rzi##": 3116,
      "MYU17i": 3117,
      "kbhnihf": 3118,
      "##rhokxdkb": 3119,
      "agnnctuf##": 3120,
      "n5aUF": 3121,
      "qmbfp": 3122,
      "##uga": 26927,
      "mxjlwq##": 3124,
      "9XgOtZ": 3125,
      "xowkplwk": 3126,
      "##yqn": 8183,
      "stdqmr##": 3128,
      "HgNIgQ": 3129,
      "dxggejg": 3130,
      "##tot": 3131,
      "dtkfpsx##": 3132,
      "aI4h": 3133,
      "oujcinq": 3134,
      "##jm": 25775,
      "hmw##": 3136,
      "qcb": 3137,
      "adzsbealn": 3138,
      "##wc": 47251,
      "qfd##": 3140,
      "INHD4t": 3141,
      "jcgalpvpsz": 3142,
      "##heeeyprk": 3143,
      "km##": 36988,
      "s3": 3145,
      "jax": 3146,
      "##srccrjpq": 3147,
      "keft##": 3148,
      "ISraH": 3149,
      "dltiyxbyih": 3150,
      "##jpb": 3151,
      "pjmkkc##": 3152,
      "94Z": 3153,
      "rofc": 3154,
      "##cqpf": 3155,
      "hlezd##": 3156,
      "HJ": 3157,
      "fflthrlhd": 3158,
      "##sufcp": 3159,
      "ou##": 46064,
      "g951": 3161,
      "zdrfrmwsl": 3162,
      "##rux": 3163,
      "duhm##": 3164,
      "mmNjZ": 3165,
      "xmrgczd": 3166,
      "##scn": 3167,
      "ihqy##": 3168,
      "ca": 37437,
      "jjjkv": 3170,
      "##irg": 3171,
      "pjvtjfu##": 3172,
      "RG": 3173,
      "etoggfgmqq": 3174,
      "##zrmza": 3175,
      "ichcsafg##": 3176,
      "9CVg": 3177,
      "kczrr": 3178,
      "##ckpzi": 3179,
      "xrevmvic##": 3180,
      "UyYBe": 3181,
      "fgserx": 3182,
      "##dqaihno": 3183,
      "avigjwvc##": 3184,
      "Pl": 49049,
      "pwhwjhel": 3186,
      "##hz": 46271,
      "vxhwfl##": 3188,
      "oETX": 3189,
      "exkh": 3190,
      "##alge": 3191,
      "fpppq##": 3192,
      "rS": 3193,
      "leevgsvix": 3194,
      "##qqop": 3195,
      "eparw##": 3196,
      "T0": 3197,
      "xwx": 3198,
      "##tphupkh": 3199,
      "auk##": 3200,
      "FDBVJ": 3201,
      "fajif": 3202,
      "##iiqvq": 3203,
      "pjootb##": 3204,
      "8o": 3205,
      "ranaj": 3206,
      "##xmdtews": 3207,
      "zis##": 3208,
      "2d9vOF": 3209,
      "mrfsxkayxx": 3210,
      "##phjqrev": 3211,
      "eucqrin##": 3212,
      "oxYI87": 3213,
      "crj": 3214,
      "##eqdlvfwc": 3215,
      "hxrw##": 3216,
      "4Qkaj": 3217,
      "blnfqn": 3218,
      "##bqzc": 3219,
      "hbsrfuh##": 3220,
      "5b": 4173,
      "enjgwrqhwq": 3222,
      "##wgedlzz": 3223,
      "ggxfbm##": 3224,
      "YG": 13625,
      "ixyurfetl": 3226,
      "##wy": 14907,
      "ytmf##": 3228,
      "C0PK": 3229,
      "pnxe": 3230,
      "##uzaiy": 3231,
      "zqgyisv##": 3232,
      "Ym": 6097,
      "zgxmowhw": 3234,
      "##xa": 42291,
      "unu##": 3236,
      "t2OTL": 3237,
      "jyf": 3238,
      "##zxcomjg": 3239,
      "imttopd##": 3240,
      "kslzM": 3241,
      "dpeqkxgxa": 3242,
      "##zyf": 3243,
      "atjgnpzm##": 3244,
      "u9": 3245,
      "cylvfblzz": 3246,
      "##rjm": 3247,
      "imr##": 3248,
      "XV": 24601,
      "gmr": 3250,
      "##dhyd": 3251,
      "zylbjyms##": 3252,
      "pAXPT": 3253,
      "vxv": 3254,
      "##nl": 38603,
      "rew##": 3256,
      "4L": 3257,
      "udsf": 3258,
      "##gzgu": 3259,
      "kogcgk##": 3260,
      "cwk": 25386,
      "##zni": 39727,
      "rdih##": 3264,
      "vy1": 3265,
      "cmxrsxsvj": 3266,
      "##uujnmuz": 3267,
      "jhtvrkdy##": 3268,
      "sOSMOo": 3269,
      "asvyvxr": 3270,
      "##jgxgm": 3271,
      "iivujxl##": 3272,
      "Nai": 3273,
      "ruoewkq": 3274,
      "fv##": 4552,
      "qu7F": 3277,
      "llhgzld": 3278,
      "##tdjg": 3279,
      "ho##": 48728,
      "5XO6": 3281,
      "oniey": 3282,
      "##kb": 3283,
      "ukwfmb##": 3284,
      "OvJrZt": 3285,
      "ygcana": 3286,
      "##oy": 32555,
      "kiwbhnio##": 3288,
      "cYM": 3289,
      "zyzdyp": 3290,
      "##xqyky": 3291,
      "hignjc##": 3292,
      "NI5Jb": 3293,
      "yxzcsbiyyp": 3294,
      "##lbwmis": 3295,
      "emfe##": 3296,
      "2oduY": 3297,
      "hfuh": 3298,
      "##nkuhyoo": 3299,
      "uz##": 40376,
      "AYl": 3301,
      "hrztlb": 3302,
      "##boiimtgj": 3303,
      "duxvx##": 3304,
      "YP": 3305,
      "tvo": 3306,
      "##qpjoqq": 3307,
      "ugzk##": 3308,
      "VR": 39793,
      "pjzrvtboyj": 3310,
      "##xlcsmztm": 3311,
      "szh##": 3312,
      "AM": 3313,
      "ehktkzzhez": 3314,
      "##erx": 3315,
      "qcea##": 3316,
      "ms3": 3317,
      "febvn": 3318,
      "##lsshgri": 3319,
      "tforfq##": 3320,
      "Az": 7577,
      "yiuqw": 3322,
      "##vmat": 3323,
      "ahs##": 3324,
      "Uv": 3325,
      "hlhqhca": 3326,
      "##ti": 42623,
      "nymr##": 3328,
      "ExYK": 3329,
      "ugwnmyed": 3330,
      "##kdiw": 3331,
      "mh##": 45188,
      "ZX": 3333,
      "llrn": 3334,
      "##dsf": 3335,
      "vm##": 39244,
      "1gZ": 3337,
      "abtr": 3338,
      "##sb": 49535,
      "xlcvxu##": 3340,
      "N9cm": 3341,
      "hkks": 3342,
      "##juo": 3343,
      "orudgnv##": 3344,
      "Q0": 3345,
      "wgvt": 3346,
      "##pro": 3347,
      "xvbht##": 3348,
      "7kPq": 3349,
      "oulqpoohw": 3350,
      "##hvxgvknx": 3351,
      "nubvrvak##": 3352,
      "S1": 11633,
      "xowyekmb": 3354,
      "##pz": 3355,
      "spjvibkf##": 3356,
      "zd0uEh": 3357,
      "zdddvglx": 3358,
      "##for": 3359,
      "ndzvjmxb##": 3360,
      "LuC": 3361,
      "mamarbclh": 3362,
      "##onpqwcp": 3363,
      "xgbpvfpl##": 3364,
      "MD4TF": 3365,
      "pyt": 8569,
      "##fgfhi": 3367,
      "lnx##": 3368,
      "vAgH": 3369,
      "cmevr": 3370,
      "##nhdqj": 3371,
      "tvplmhbx##": 3372,
      "JyUw": 3373,
      "yubptr": 3374,
      "##wkhrxli": 3375,
      "nhh##": 3376,
      "Gk": 38641,
      "pokrwayn": 3378,
      "##hu": 14295,
      "xdtffk##": 3380,
      "JImxL": 3381,
      "ydbxgdcl": 3382,
      "##ptxlqje": 3383,
      "iyfgufui##": 3384,
      "RoV": 3385,
      "ydgtuecw": 3386,
      "##njeruwv": 3387,
      "zwapssqg##": 3388,
      "VQS8": 3389,
      "fynewdvibb": 3390,
      "##czqfxt": 3391,
      "ezul##": 3392,
      "23tvN": 3393,
      "bsgq": 3394,
      "##ddovtvr": 3395,
      "oqyp##": 3396,
      "Qo7i": 3397,
      "houirzeooz": 3398,
      "##uvdjbgq": 3399,
      "aq##": 24452,
      "0fB0": 3401,
      "wiedux": 3402,
      "##jwgxvmp": 3403,
      "lkpiy##": 3404,
      "DBGsu": 3405,
      "ybvlhk": 3406,
      "##zzwwgjkz": 3407,
      "bcu##": 3408,
      "PDd": 3409,
      "fdgymwpcy": 3410,
      "##rrzlosbv": 3411,
      "ek##": 49856,
      "0J4LB": 3413,
      "ngksrrdir": 3414,
      "##ctqpzm": 3415,
      "roeku##": 3416,
      "YqC": 3417,
      "rikawusc": 3418,
      "##ld": 10059,
      "bbmajzh##": 3420,
      "T4": 3421,
      "tzfph": 3422,
      "##gg": 25279,
      "hbybzb##": 3424,
      "tyvoQ": 3425,
      "trfb": 3426,
      "##jcasqho": 3427,
      "fjch##": 3428,
      "xI": 3429,
      "melrvhl": 3430,
      "##ml": 39551,
      "psdpxdwn##": 3432,
      "dh": 42881,
      "esjpkvqirf": 3434,
      "##nt": 41943,
      "xbfd##": 3436,
      "3I": 3437,
      "nmxbefe": 3438,
      "##pfyu": 3439,
      "epbedjyg##": 3440,
      "xX": 9941,
      "gtfvkmfgu": 3442,
      "##bg": 39783,
      "saglff##": 3444,
      "a42x": 3445,
      "nfme": 3446,
      "##annnmcth": 3447,
      "zv##": 3448,
      "GzO": 3449,
      "vzpjred": 3450,
      "##bwotvbay": 3451,
      "qjvmooyp##": 3452,
      "vMHRb": 3453,
      "hjqblks": 3454,
      "##timafhj": 3455,
      "gnkvmk##": 3456,
      "1T2OnJ": 3457,
      "nesjxrc": 3458,
      "##xmb": 3459,
      "qvn##": 3460,
      "85": 3461,
      "kuwunvxai": 3462,
      "##nbslumbm": 3463,
      "gfhjfatw##": 3464,
      "tIyz1": 3465,
      "ztpqvx": 3466,
      "##sin": 3467,
      "csrynay##": 3468,
      "mct6": 3469,
      "dsuittt": 3470,
      "##ukiit": 3471,
      "ybf##": 3472,
      "TF": 15525,
      "ygug": 3474,
      "##ywtozchh": 3475,
      "xmf##": 3476,
      "47Z": 3477,
      "hkvxyjdh": 3478,
      "##qrkvujvg": 3479,
      "nuz##": 3480,
      "3UlCaY": 3481,
      "pvmshoy": 3482,
      "##qtae": 3483,
      "iabfhxam##": 3484,
      "kqx": 3485,
      "hljkequud": 3486,
      "##dv": 14587,
      "gvldjgm##": 3488,
      "ygaa": 3489,
      "lrnxgq": 3490,
      "##powhkz": 3491,
      "afsbaqm##": 3492,
      "152kdh": 3493,
      "oynhzpig": 3494,
      "##guxpsv": 3495,
      "rqnuo##": 3496,
      "WHu2Bj": 3497,
      "zmiz": 3498,
      "##qjdptc": 3499,
      "vu##": 28420,
      "kQj7mZ": 3501,
      "szwfs": 3502,
      "##vplfi": 3503,
      "xzxy##": 3504,
      "h57ek": 3505,
      "wsoo": 3506,
      "cz##": 46736,
      "DQLR": 3509,
      "mij": 3510,
      "##nqfhthvv": 3511,
      "uarpbrr##": 3512,
      "tb": 3513,
      "qjtycjnw": 3514,
      "##el": 49723,
      "ohhdr##": 3516,
      "6m": 19641,
      "paer": 3518,
      "##vnysf": 3519,
      "qfh##": 3520,
      "6e02m": 3521,
      "fviefofdg": 3522,
      "##zallqf": 3523,
      "vxtt##": 3524,
      "dcS": 3525,
      "eipkkaj": 3526,
      "##qg": 45935,
      "kts##": 3528,
      "4ZmvLs": 3529,
      "lhi": 3530,
      "##ctsxy": 3531,
      "kiwyro##": 3532,
      "8y5": 3533,
      "qzzdvd": 3534,
      "##mdrkktr": 3535,
      "unnf##": 3536,
      "GsAksN": 3537,
      "ffsbn": 3538,
      "##wvbdzmf": 3539,
      "hxfyn##": 3540,
      "66K": 3541,
      "lsyzvm": 3542,
      "##zmvxbez": 3543,
      "zgumpnlf##": 3544,
      "u6iWRg": 3545,
      "hstg": 3546,
      "##rgyclit": 3547,
      "aqfbpbfx##": 3548,
      "L1il": 3549,
      "gfkdwfhm": 3550,
      "##ntun": 3551,
      "ecjxf##": 3552,
      "zGg0": 3553,
      "ckmguicz": 3554,
      "##gbhsq": 3555,
      "fkqly##": 3556,
      "yCmk": 3557,
      "uuonbdcbg": 3558,
      "##fboxagcq": 3559,
      "exvadpu##": 3560,
      "vG": 3561,
      "uoxnredxt": 3562,
      "##terc": 3563,
      "ezspgx##": 3564,
      "MT3kg": 3565,
      "yrrrzto": 3566,
      "##anzl": 3567,
      "wvff##": 3568,
      "On": 40061,
      "vkqomkljw": 3570,
      "##fvkdd": 3571,
      "ot##": 37640,
      "xk": 3573,
      "xjbrj": 3574,
      "##eovjsns": 3575,
      "fqtvkdyi##": 3576,
      "yZvcX": 3577,
      "ihcviof": 3578,
      "##rvayumnz": 3579,
      "kko##": 3580,
      "vRhyoZ": 3581,
      "wmkdm": 3582,
      "##qpsr": 3583,
      "laxdqq##": 3584,
      "09z4M": 3585,
      "uaydjraarg": 3586,
      "##phmr": 3587,
      "trdaacd##": 3588,
      "jZf": 3589,
      "msbgvrmve": 3590,
      "##nmxuyqk": 3591,
      "mddplz##": 3592,
      "6Zht": 3593,
      "snfrw": 3594,
      "##ekvbap": 3595,
      "weqaa##": 3596,
      "V4": 3597,
      "ppx": 3598,
      "##gamgt": 3599,
      "ujmho##": 3600,
      "HnfLv": 3601,
      "kqjmciw": 3602,
      "##gsjdrmf": 3603,
      "bztztrbc##": 3604,
      "k1": 3605,
      "fbqxfrbdqp": 3606,
      "##ulhbjz": 3607,
      "pvjgnwu##": 3608,
      "v5LPH2": 3609,
      "hcuoy": 3610,
      "##vaqos": 3611,
      "oazym##": 3612,
      "T4ddR7": 3613,
      "ebqj": 3614,
      "##prrroos": 3615,
      "nrgda##": 3616,
      "XPSrNF": 3617,
      "hukmtqnma": 3618,
      "##tfydfqxq": 3619,
      "odi##": 3620,
      "C1": 30677,
      "udzdzpwu": 3622,
      "##jyrn": 3623,
      "jplkucbz##": 3624,
      "51vy": 3625,
      "shcueqtkpk": 3626,
      "##lrmibcwh": 3627,
      "iagvn##": 3628,
      "SBx": 3629,
      "tcxfv": 3630,
      "##ykdpvsok": 3631,
      "uvgj##": 3632,
      "V5w0f": 3633,
      "cal": 3634,
      "##vtyy": 3635,
      "rooo##": 3636,
      "rQ": 3637,
      "apg": 3638,
      "##vzqtfft": 3639,
      "syxw##": 3640,
      "PeovT": 3641,
      "ccvm": 3642,
      "##mhfdel": 3643,
      "duyz##": 3644,
      "2rKG": 3645,
      "ukufggc": 3646,
      "##gsjgyy": 3647,
      "svdkee##": 3648,
      "OFoJf5": 3649,
      "mdktku": 3650,
      "##izhax": 3651,
      "vgqf##": 3652,
      "T3": 3653,
      "qjoukullm": 3654,
      "##bbyp": 3655,
      "fwmd##": 3656,
      "thP925": 3657,
      "zmukacdva": 3658,
      "##xax": 30667,
      "kfong##": 3660,
      "pg": 3661,
      "nvv": 3662,
      "##evwcigz": 3663,
      "rmjr##": 3664,
      "wH": 3665,
      "bokrol": 3666,
      "##bntxxvdh": 3667,
      "zmgwl##": 3668,
      "NrP": 3669,
      "nleqaspw": 3670,
      "##rg": 33195,
      "lni##": 3672,
      "wdSc": 3673,
      "mnxqighcyg": 3674,
      "##ldvltioy": 3675,
      "kacf##": 3676,
      "LL7B9": 3677,
      "melvq": 3678,
      "##zbwh": 3679,
      "mqwj4": 3681,
      "pvzxvojcwa": 3682,
      "##edjvmgo": 3683,
      "gqVKun": 3685,
      "zehg": 3686,
      "##dag": 3687,
      "jsidth##": 3688,
      "jq11dT": 3689,
      "xlvvnhq": 3690,
      "##tbe": 3691,
      "bvlnqsl##": 3692,
      "Fg6znE": 3693,
      "dylymfg": 3694,
      "##pygs": 3695,
      "99FJNh": 3697,
      "fwixw": 3698,
      "##mddt": 3699,
      "ypuukw##": 3700,
      "ABw": 3701,
      "rjiyvt": 3702,
      "##lq": 40051,
      "hmgxtbrk##": 3704,
      "npSG4e": 3705,
      "iqnxe": 3706,
      "##hpehy": 3707,
      "qxlm##": 3708,
      "GOY": 47909,
      "cxvjqelpoy": 3710,
      "##vjacrrur": 3711,
      "kbjnyktu##": 3712,
      "Esk": 3713,
      "bgvryfoh": 3714,
      "##vdl": 3715,
      "nntm##": 3716,
      "Gtr9r": 3717,
      "asgikn": 3718,
      "##dkadz": 3719,
      "qd##": 44996,
      "5vGG": 3721,
      "dkyrggz": 3722,
      "##mcailb": 3723,
      "dQ3wHB": 3725,
      "bgxsqre": 3726,
      "##yfwzkn": 3727,
      "mxn##": 3728,
      "TaAXd": 3729,
      "mza": 3730,
      "##jfgscya": 3731,
      "cfgm##": 3732,
      "r1": 3733,
      "ccoxlfc": 3734,
      "##uicuqkm": 3735,
      "jn##": 44096,
      "Nnvej2": 3737,
      "sosa": 3738,
      "##vhhr": 3739,
      "ljq##": 3740,
      "FDE6VL": 3741,
      "xhjpioo": 3742,
      "##jtibm": 3743,
      "mcfjqwso##": 3744,
      "mb81": 3745,
      "chsflqmij": 3746,
      "##vxdssjm": 3747,
      "tgshejlv##": 3748,
      "H9": 42621,
      "yvraugbwk": 3750,
      "rbhsdvfb##": 3752,
      "0w9wV1": 3753,
      "icjrm": 3754,
      "##ylii": 3755,
      "qxswd##": 3756,
      "MIs31d": 3757,
      "yhyafrdsz": 3758,
      "##dnkrkdiy": 3759,
      "vhq##": 3760,
      "Xyd": 3761,
      "hrjfehnfwd": 3762,
      "##obx": 3763,
      "pxradd##": 3764,
      "oJ": 42305,
      "uxzzsfdg": 3766,
      "##yw": 48835,
      "iacgkn##": 3768,
      "Y8z7": 3769,
      "nepdrcad": 3770,
      "##dmzo": 3771,
      "ym##": 43104,
      "xZOz5o": 3773,
      "nxmavuc": 3774,
      "##sakbw": 3775,
      "cxyrmz##": 3776,
      "UrU44s": 3777,
      "bvg": 3778,
      "##cv": 33355,
      "zfm##": 3780,
      "Q83l9": 3781,
      "kxodcabot": 3782,
      "##rjhrn": 3783,
      "eEvC": 3785,
      "oywy": 3786,
      "##so": 16959,
      "urezkzo##": 3788,
      "4nITv": 3789,
      "yifsoi": 3790,
      "##kgl": 34163,
      "rcndhs##": 3792,
      "eLb": 3793,
      "rynzeejkbw": 3794,
      "##odchyilk": 3795,
      "aghc##": 3796,
      "Djfd": 3797,
      "obtsjzsl": 3798,
      "##tzjrd": 3799,
      "viz##": 3800,
      "dk3x": 3801,
      "gdvzfbl": 3802,
      "##djmymynf": 3803,
      "lbbjaj##": 3804,
      "Lx7": 3805,
      "mzlnwud": 3806,
      "##pkgfwpy": 3807,
      "oabtvxo##": 3808,
      "DGYo0": 3809,
      "fkckymi": 3810,
      "##vvetxvji": 3811,
      "ogkyjlq##": 3812,
      "nk": 3813,
      "jmmaziqfgo": 3814,
      "##nrw": 3815,
      "gizf##": 3816,
      "hbhr0": 3817,
      "sdsllpptl": 3818,
      "##tt": 3819,
      "ceyhev##": 3820,
      "s6R6k": 3821,
      "hvzjze": 3822,
      "##jhag": 3823,
      "lro##": 3824,
      "l5Gh": 3825,
      "##yxtdv": 3827,
      "nvnpjl##": 3828,
      "zeDu": 3829,
      "fyl": 3830,
      "##tzeknl": 3831,
      "lv##": 39472,
      "2a8Sz": 3833,
      "dilspgrmk": 3834,
      "##cozih": 3835,
      "re##": 44392,
      "EN": 41809,
      "gme": 3838,
      "##shnmwl": 3839,
      "lvytdn##": 3840,
      "Wph": 3841,
      "ynzmgwiwy": 3842,
      "##dxkmuga": 3843,
      "sakjrkjg##": 3844,
      "KB9Zp8": 3845,
      "nscabn": 3846,
      "##hyrfu": 3847,
      "aojajq##": 3848,
      "dXbC13": 3849,
      "llg": 3850,
      "##mqoup": 3851,
      "wxw##": 3852,
      "bDBznP": 3853,
      "sjvjmqo": 3854,
      "##xisvmw": 3855,
      "H0qek": 3857,
      "znaacgos": 3858,
      "##iwqqrhm": 3859,
      "bon##": 3860,
      "vAzU": 3861,
      "lkhnh": 3862,
      "##mtx": 3863,
      "sk##": 37688,
      "uwK": 3865,
      "tuqwnypp": 3866,
      "##wi": 48143,
      "of##": 48392,
      "qX3GDC": 3869,
      "fadnfxgrrt": 3870,
      "##amviw": 3871,
      "uyxkug##": 3872,
      "8d": 9649,
      "brlk": 3874,
      "##mw": 38371,
      "ycqgfwts##": 3876,
      "ULw": 3877,
      "ymlo": 3878,
      "##tvtn": 3879,
      "hfigvno##": 3880,
      "planIX": 3881,
      "kmvpa": 3882,
      "##do": 28531,
      "eexxnw##": 3884,
      "ClsNo": 3885,
      "fxpuzbfz": 3886,
      "##aci": 3887,
      "jszidu##": 3888,
      "3A": 3889,
      "caucdbxtfr": 3890,
      "##uip": 3891,
      "nm##": 28300,
      "R3zEzA": 3893,
      "lnie": 3894,
      "##kcntvv": 3895,
      "zb##": 49236,
      "bfb": 3898,
      "##abikwmak": 3899,
      "wje##": 3900,
      "CeZl2": 3901,
      "zmbcw": 3902,
      "##ybcbvde": 3903,
      "ipsxvi##": 3904,
      "i9yh3": 3905,
      "fankwrmuxm": 3906,
      "##evkn": 3907,
      "mldznyin##": 3908,
      "e4kdq": 3909,
      "tbewudavpw": 3910,
      "##zqklnk": 3911,
      "ghuako##": 3912,
      "va": 7925,
      "qff": 3914,
      "##xigkj": 3915,
      "wmope##": 3916,
      "e0GgLW": 3917,
      "ntwaavqdsc": 3918,
      "##vrcyf": 3919,
      "ljp##": 3920,
      "xN3sFf": 3921,
      "cgbbcjjrnn": 3922,
      "dc##": 21192,
      "Xu9VmK": 3925,
      "uqf": 3926,
      "##dmmqpul": 3927,
      "ggsymy##": 3928,
      "OB": 19721,
      "nqxpqok": 3930,
      "##rr": 21439,
      "kkepg##": 3932,
      "6baD": 3933,
      "afjsoybkm": 3934,
      "##bsyciikr": 3935,
      "ayiklftp##": 3936,
      "Wz": 31677,
      "kbsf": 3938,
      "cea##": 3940,
      "iwdwtmc": 3942,
      "##mmysx": 3943,
      "fjcrnt##": 3944,
      "Bha7": 3945,
      "yitmjc": 3946,
      "##qanxmlz": 3947,
      "ssn##": 3948,
      "DrM6": 3949,
      "pbrc": 3950,
      "##ov": 41615,
      "hqlxvyx##": 3952,
      "EbgA": 3953,
      "tnswhkstee": 3954,
      "##xzj": 3955,
      "nnv##": 3956,
      "d2i": 3957,
      "cgc": 3958,
      "##evvvepfv": 3959,
      "gyzzdqrw##": 3960,
      "fpR": 3961,
      "ztdx": 3962,
      "##fe": 3963,
      "tmtzq##": 3964,
      "5K": 3965,
      "nureua": 3966,
      "zcpnb##": 3968,
      "AIv6l": 3969,
      "jhwikikiyv": 3970,
      "##bha": 3971,
      "oyrueopn##": 3972,
      "kBWmpm": 3973,
      "cyvilpl": 3974,
      "##jt": 12639,
      "uwahjen##": 3976,
      "XnWv": 3977,
      "xcryzxaedc": 3978,
      "##ui": 16175,
      "mxoxjsl##": 3980,
      "gv": 36777,
      "qurctrb": 3982,
      "##yabgql": 3983,
      "jwysxlgp##": 3984,
      "qRXZx": 3985,
      "unuoar": 3986,
      "##ylhbbejw": 3987,
      "cxesfbis##": 3988,
      "t6j1c": 3989,
      "##axr": 48931,
      "kilc##": 3992,
      "7H5sS": 3993,
      "odwqtnmgf": 3994,
      "##budkjz": 3995,
      "hhls##": 3996,
      "xxEV4h": 3997,
      "ltoi": 3998,
      "##oyucxsxe": 3999,
      "xqgjnlie##": 4000,
      "1Rh": 4001,
      "pjrgqp": 4002,
      "##odfruym": 4003,
      "rfjnm##": 4004,
      "41k3W": 4005,
      "iusqwse": 4006,
      "##vd": 33127,
      "xrhwtq##": 4008,
      "Fml": 4009,
      "refygt": 4010,
      "##fadohef": 4011,
      "gatgtli##": 4012,
      "5r": 4013,
      "cwttmxj": 4014,
      "##efwojf": 4015,
      "bm##": 4016,
      "ZIed7": 4017,
      "penotgyg": 4018,
      "##vpduahp": 4019,
      "ubrheyf##": 4020,
      "Pq": 32145,
      "cvnivcnv": 4022,
      "##wqz": 4023,
      "cgnisbfg##": 4024,
      "i30": 4025,
      "idhydomvk": 4026,
      "##mryelwj": 4027,
      "ezvfq##": 4028,
      "Zdon": 4029,
      "ixarigt": 4030,
      "##pzzx": 4031,
      "nbcxzzce##": 4032,
      "jk": 4033,
      "kqmyeahphl": 4034,
      "##gdlcppzp": 4035,
      "dcbyzzo##": 4036,
      "WTn62": 4037,
      "atzxazvup": 4038,
      "##zqewhe": 4039,
      "us##": 44572,
      "98": 9221,
      "leyifn": 4042,
      "##fms": 30963,
      "gmrrfeex##": 4044,
      "Xx": 4045,
      "ecoasiqek": 4046,
      "##crlls": 4047,
      "xkb##": 4048,
      "rH": 11209,
      "tcfj": 4050,
      "##ln": 43171,
      "rkh##": 4052,
      "AH2aT1": 4053,
      "wbszpwd": 4054,
      "##hxbgsj": 4055,
      "nsf##": 4056,
      "Gu2iB": 4057,
      "zgtxi": 4058,
      "##kxwqrqd": 4059,
      "bpdpayx##": 4060,
      "B2AC": 4061,
      "pagvxhn": 4062,
      "##tsf": 4063,
      "uuchqhs##": 4064,
      "Nmp21f": 4065,
      "yfyeoxrqh": 4066,
      "##xeejr": 4067,
      "hxb##": 4068,
      "ttivr": 4070,
      "##nhtz": 4071,
      "sjc##": 4072,
      "0Zmh": 4073,
      "euz": 4074,
      "##przmph": 4075,
      "zza##": 4076,
      "O7Mb": 4077,
      "btw": 4078,
      "##qi": 11239,
      "mussd##": 4080,
      "FEN6N": 4081,
      "zcd": 4082,
      "##xka": 4083,
      "ewgclswa##": 4084,
      "meZFj9": 4085,
      "aokzve": 4086,
      "##lbm": 4087,
      "jmny##": 4088,
      "m0rB": 4089,
      "vbshike": 4090,
      "##rownmyp": 4091,
      "vfri##": 4092,
      "UUEyE": 4093,
      "exv": 4094,
      "##raykipq": 4095,
      "qoqetiv##": 4096,
      "ql": 4097,
      "gqmhszxhry": 4098,
      "##avajru": 4099,
      "iwatyjfu##": 4100,
      "qdd": 4101,
      "vmjyotk": 4102,
      "##wpzurtns": 4103,
      "rfjx##": 4104,
      "ArZZaO": 4105,
      "eyy": 4106,
      "##tsm": 4107,
      "kg##": 48340,
      "AXlHS": 4109,
      "mtjmwfvyr": 4110,
      "##dyrojsz": 4111,
      "cqwc##": 4112,
      "F9": 4113,
      "torfyw": 4114,
      "##juts": 4115,
      "yknekqg##": 4116,
      "bNy6B7": 4117,
      "yhpk": 4118,
      "##lyad": 4119,
      "gtnijku##": 4120,
      "1YXG": 4121,
      "bcjzfp": 4122,
      "##krylow": 4123,
      "grf##": 4124,
      "1BF": 4125,
      "gxmzukwh": 4126,
      "##smpgs": 4127,
      "qzbtkhib##": 4128,
      "RCW0oz": 4129,
      "oyme": 4130,
      "##oniqhxkh": 4131,
      "rjqsrqx##": 4132,
      "owv": 4133,
      "yypklnex": 4134,
      "##kbdfxi": 4135,
      "rtjjvg##": 4136,
      "sSste": 4137,
      "norxhswdd": 4138,
      "##eej": 4139,
      "mqorasp##": 4140,
      "3rAAi": 4141,
      "quqcmbrae": 4142,
      "##gdqi": 4143,
      "egxtburq##": 4144,
      "eEEP": 4145,
      "qnvaxftvh": 4146,
      "##we": 46207,
      "kppy##": 4148,
      "8xerH4": 4149,
      "sejwyz": 4150,
      "##qlt": 4151,
      "oacj##": 4152,
      "wTJ3SX": 4153,
      "qoohedbj": 4154,
      "##ixya": 4155,
      "pocs##": 4156,
      "LJPEk": 4157,
      "iiumt": 4158,
      "##bvylyjad": 4159,
      "pxulf##": 4160,
      "fKJLk": 4161,
      "kkfjtrcql": 4162,
      "##gvjy": 4163,
      "tkrzf##": 4164,
      "eQB": 4165,
      "txoluehi": 4166,
      "##wtuqw": 4167,
      "cc##": 35388,
      "GQB": 4169,
      "wctpzv": 4170,
      "##fqjeoru": 4171,
      "zq##": 47992,
      "ppz": 4174,
      "##tnlof": 4175,
      "pwvttbqe##": 4176,
      "Gecxg": 4177,
      "xlciauf": 4178,
      "##lka": 4179,
      "buaehuy##": 4180,
      "KsdUza": 4181,
      "yovz": 4182,
      "##zqpcsz": 4183,
      "jw##": 36168,
      "2FJ8": 4185,
      "##naxuod": 4187,
      "ggr##": 34916,
      "TquBS": 4189,
      "olijdlzhpk": 4190,
      "detkkvz##": 4192,
      "nSCzgK": 4193,
      "iguracg": 4194,
      "kpf##": 4196,
      "EyviJy": 4197,
      "izcbmld": 4198,
      "##tntlwli": 4199,
      "hxiozi##": 4200,
      "wfgjgj": 4202,
      "##vnybply": 4203,
      "mmblv##": 4204,
      "qJLqmz": 4205,
      "aylcknok": 4206,
      "##ulngouva": 4207,
      "lfxrrna##": 4208,
      "sf": 6109,
      "tlofez": 4210,
      "##mjwmyul": 4211,
      "wkurceft##": 4212,
      "yaYPeu": 4213,
      "jsxulz": 4214,
      "##lbxs": 4215,
      "yn##": 7012,
      "ON": 4217,
      "tzvgyluse": 4218,
      "##zytbzkwl": 4219,
      "utpq##": 4220,
      "76YEE": 4221,
      "elyegwuyo": 4222,
      "##ujq": 4223,
      "wve##": 4224,
      "vW": 31321,
      "xbxnpo": 4226,
      "##cfav": 4227,
      "qmcskl##": 4228,
      "X18Enj": 4229,
      "ossneyjbk": 4230,
      "##zdq": 4231,
      "pftet##": 4232,
      "ByRF": 4233,
      "gmnrsrt": 4234,
      "##mnu": 6139,
      "ghqyconh##": 4236,
      "pO8IUa": 4237,
      "obsukksxl": 4238,
      "##ovz": 4239,
      "epglutf##": 4240,
      "eH": 17053,
      "aeshhtoui": 4242,
      "##crylxrz": 4243,
      "ooxmo##": 4244,
      "uP1PL": 4245,
      "gyfxqtnxw": 4246,
      "##nzexst": 4247,
      "irfivj##": 4248,
      "WhfDs": 4249,
      "bmzpwc": 4250,
      "##mxqh": 4251,
      "rfgcxwl##": 4252,
      "wx": 39877,
      "ddlfymj": 4254,
      "##hc": 35531,
      "hhk##": 4256,
      "BkIit": 4257,
      "hpmcjimwv": 4258,
      "##kzsls": 4259,
      "uemsetk##": 4260,
      "fpeC3": 4261,
      "ebejhayw": 4262,
      "##pnwnsbm": 4263,
      "ahq##": 23276,
      "JdkZ7U": 4265,
      "sea": 4266,
      "##ik": 19327,
      "eomy##": 4268,
      "3Y2nJj": 4269,
      "mgnhae": 4270,
      "##pff": 4271,
      "vxmh##": 4272,
      "v0gi": 4273,
      "fdlzng": 4274,
      "##ibwp": 4275,
      "tcuhwe##": 4276,
      "LDo96": 4277,
      "iogq": 4278,
      "##wv": 39907,
      "hlo##": 4280,
      "YI6yn": 4281,
      "abx": 4282,
      "##gog": 4283,
      "twtit##": 4284,
      "CBJ": 4285,
      "cyrruky": 4286,
      "##uupfpyl": 4287,
      "oztdwyq##": 4288,
      "X0oI": 4289,
      "ejsmndkkve": 4290,
      "##mmib": 4291,
      "jduj##": 4292,
      "2k": 4293,
      "ghffeyxtiw": 4294,
      "##jjfaxyr": 4295,
      "dwyenlk##": 4296,
      "ZbtnFx": 4297,
      "taipzkyd": 4298,
      "##kebqnl": 4299,
      "mpyey##": 4300,
      "Om7pC": 4301,
      "pmhitjyzga": 4302,
      "##cpffmazk": 4303,
      "mg##": 23804,
      "Pt": 39085,
      "maryzu": 4306,
      "##pwj": 4307,
      "pmnivnle##": 4308,
      "Ma8V6L": 4309,
      "cujxhziocn": 4310,
      "##zjo": 4311,
      "kcit##": 4312,
      "YMn9": 4313,
      "eytktrasp": 4314,
      "##it": 22619,
      "vgc##": 4316,
      "baRB2f": 4317,
      "fxfq": 4318,
      "##qocogx": 4319,
      "de##": 40492,
      "8lnCMj": 4321,
      "cdihlrsmqv": 4322,
      "##bd": 32251,
      "aulzrt##": 4324,
      "FsxUek": 4325,
      "sgtztiw": 4326,
      "##eytxibor": 4327,
      "yzpbj##": 4328,
      "IVHkV": 4329,
      "fepgjwhzc": 4330,
      "##bzjfdu": 4331,
      "wsxjfe##": 4332,
      "HY": 41593,
      "malxfq": 4334,
      "##hjvvdd": 4335,
      "ndqmlx##": 4336,
      "K2JHY": 4337,
      "fhuqxyn": 4338,
      "##ptuky": 4339,
      "cd##": 4340,
      "HuzF0P": 4341,
      "syfdj": 4342,
      "##xms": 4343,
      "zpwv##": 4344,
      "dY6": 4345,
      "tgrjbe": 4346,
      "##cvjzsrk": 4347,
      "fitbcqz##": 4348,
      "fi": 39513,
      "arhjgqlay": 4350,
      "##uwjfoqdw": 4351,
      "ibz##": 4352,
      "LUW": 4353,
      "dqregftf": 4354,
      "##nkwaqqp": 4355,
      "gs##": 44044,
      "uL": 34973,
      "zhp": 39742,
      "##jztzxtt": 4359,
      "as##": 44748,
      "0t": 17313,
      "wusjq": 4362,
      "##qiic": 4363,
      "wrlxi##": 4364,
      "6z": 28329,
      "jeis": 4366,
      "##xhlwvr": 4367,
      "finnmqqq##": 4368,
      "l8Z": 4369,
      "stkrnyepf": 4370,
      "##qw": 32815,
      "vubvcauy##": 4372,
      "HO": 20129,
      "impanbq": 4374,
      "##masplzg": 4375,
      "bpgtkg##": 4376,
      "pa": 4377,
      "pqgn": 4378,
      "kc##": 40256,
      "Re4": 4381,
      "vmes": 4382,
      "##uuwnq": 4383,
      "dsjaku##": 4384,
      "aBZ": 4385,
      "oojtr": 4386,
      "##lnfvqt": 4387,
      "bl##": 46212,
      "GkHdiQ": 4389,
      "ihsghit": 4390,
      "##jvfl": 4391,
      "ahkv##": 4392,
      "Sxbwq": 4393,
      "lhpdssrrs": 4394,
      "##ykluw": 4395,
      "pdx##": 4396,
      "qV5mNV": 4397,
      "cwkq": 4398,
      "##cooeqzdp": 4399,
      "pzdihjvq##": 4400,
      "9Gph6": 4401,
      "aunhe": 4402,
      "##mbc": 4403,
      "ossjjs##": 4404,
      "iBq1": 4405,
      "pahxh": 4406,
      "##hq": 7827,
      "tbcdtn##": 4408,
      "Xw5k": 4409,
      "xihl": 4410,
      "##vfjqikm": 4411,
      "gnfyza##": 4412,
      "qRrHY": 4413,
      "oqgqeubj": 4414,
      "##vhl": 4415,
      "rdkxh##": 4416,
      "NAfdXk": 4417,
      "lvxbtihag": 4418,
      "##sigch": 4419,
      "czglhs##": 4420,
      "q0AS": 4421,
      "oumlsa": 4422,
      "##vygsimfw": 4423,
      "xrjv##": 4424,
      "P2Sv": 4425,
      "oyreucxt": 4426,
      "##oetgvs": 4427,
      "jykrfebe##": 4428,
      "2G": 4429,
      "cjupodzh": 4430,
      "##tos": 9787,
      "djoop##": 4432,
      "pDu": 4433,
      "wuuejhulb": 4434,
      "##eddfxg": 4435,
      "pglqmbvk##": 4436,
      "6JFm": 4437,
      "fsfsv": 4438,
      "##uo": 21727,
      "gsyqjr##": 4440,
      "cDB": 4441,
      "uyyhunep": 4442,
      "##fwb": 4443,
      "hk##": 17548,
      "5J": 4445,
      "icyoqf": 4446,
      "##lv": 47307,
      "qysvicia##": 4448,
      "bLIG6i": 4449,
      "ntcivyi": 4450,
      "##hpor": 4451,
      "ztepgrrx##": 4452,
      "7oB4": 4453,
      "wtppgudsw": 4454,
      "##znpli": 4455,
      "ojhc##": 4456,
      "Dxz": 4457,
      "fensrzi": 4458,
      "##ju": 39251,
      "srgstxs##": 4460,
      "p9U1z4": 4461,
      "vwwxglsp": 4462,
      "##yzxrwnp": 4463,
      "wfty##": 4464,
      "ddm": 4465,
      "gfnmnp": 4466,
      "##qyifgbe": 4467,
      "gl##": 48552,
      "INgY": 4469,
      "srqnh": 4470,
      "##gf": 44647,
      "luijpjz##": 4472,
      "p1l": 4473,
      "hit": 4474,
      "##tapfhk": 4475,
      "ctb##": 4476,
      "dvN": 4477,
      "dtjiib": 4478,
      "##hk": 47127,
      "yfv##": 4480,
      "MASF": 4481,
      "qaj": 4482,
      "##merulodq": 4483,
      "6y2": 4485,
      "hccjoexucw": 4486,
      "##qqgdz": 4487,
      "hsbr##": 4488,
      "6ad2V": 4489,
      "hxdvbls": 4490,
      "##grkrr": 4491,
      "wpadmt##": 4492,
      "TIPo": 4493,
      "mjeymaee": 4494,
      "##ntsz": 4495,
      "vjkxsv##": 4496,
      "Le44Z": 4497,
      "ymiwx": 4498,
      "##tqchsybc": 4499,
      "qjazxn##": 4500,
      "6JfyEh": 4501,
      "pyyeky": 4502,
      "##vj": 35979,
      "xminuq##": 4504,
      "OUwDD": 4505,
      "epwb": 4506,
      "igkqvvyh##": 4508,
      "bOTo": 4509,
      "jlbekiysrx": 4510,
      "##bopmqdxk": 4511,
      "ysfxouro##": 4512,
      "WzadcF": 4513,
      "kimvlfrh": 4514,
      "##vhntd": 4515,
      "jabiqpc##": 4516,
      "Uu6EF": 4517,
      "zzqppdj": 4518,
      "##suukbqz": 4519,
      "ehjjjkzy##": 4520,
      "XhF": 4521,
      "fnafpbjq": 4522,
      "##xx": 48171,
      "gstslicr##": 4524,
      "Ew": 21461,
      "hrwkpepdc": 4526,
      "##qxduxjh": 4527,
      "ofqu##": 4528,
      "wZQ": 4529,
      "rijccudgol": 4530,
      "##sa": 28187,
      "tghcwhyz##": 4532,
      "TXEY9f": 4533,
      "wwqdfua": 4534,
      "##bgm": 4535,
      "qtjtrv##": 4536,
      "HIGn": 4537,
      "ffnlemsvrp": 4538,
      "##jolpo": 4539,
      "fkuze##": 4540,
      "TB4cR": 4541,
      "iqrkotksgq": 4542,
      "##fbmow": 4543,
      "aevoy##": 4544,
      "o9C5Wc": 4545,
      "esdatuz": 4546,
      "##sxwiz": 4547,
      "hyas##": 4548,
      "isn": 4549,
      "nlgarhincd": 4550,
      "##bsweman": 4551,
      "aN6": 4553,
      "bouussy": 4554,
      "##jooxf": 4555,
      "wj##": 49636,
      "2MhVN": 4557,
      "ljzvnvqdbt": 4558,
      "##fc": 40359,
      "qxwmm##": 4560,
      "uXhboU": 4561,
      "dgtlfrf": 4562,
      "##klnkpuij": 4563,
      "fdzus##": 4564,
      "1Q": 4565,
      "joebrufwzd": 4566,
      "##wkgev": 4567,
      "ktfvm##": 4568,
      "EpqC": 4569,
      "ipbyqct": 4570,
      "##wngmiz": 4571,
      "qoa##": 4572,
      "nbKo": 4573,
      "jgxobf": 4574,
      "##cigzpkyf": 4575,
      "hszyqau##": 4576,
      "qWe": 4577,
      "hfxlprfm": 4578,
      "##abgwcgo": 4579,
      "tglo##": 4580,
      "Kye8": 4581,
      "cqcfxho": 4582,
      "qw##": 20964,
      "7J": 4585,
      "qbrtb": 4586,
      "##sgfp": 4587,
      "odjosm##": 4588,
      "aa2FUs": 4589,
      "aaww": 4590,
      "##cofami": 4591,
      "wtcr##": 4592,
      "Qfz": 4593,
      "gxctbqtroh": 4594,
      "##btk": 4595,
      "wquzvl##": 4596,
      "x3b": 4597,
      "ytdyxvk": 4598,
      "##bxgtyk": 4599,
      "zjsarrgt##": 4600,
      "2u": 4601,
      "cdcvb": 4602,
      "##esrdfsdy": 4603,
      "fgdgmb##": 4604,
      "i4CI": 4605,
      "ussagi": 4606,
      "##nfau": 4607,
      "lgagrzb##": 4608,
      "8Pu4Fn": 4609,
      "mrfwwhi": 4610,
      "##eilt": 4611,
      "fl##": 44236,
      "FKC": 4613,
      "efo": 4614,
      "##zj": 13807,
      "bdqrjqon##": 4616,
      "Qzx": 4617,
      "cqzy": 4618,
      "##fxqmeftg": 4619,
      "lxgzyki##": 4620,
      "eaZym5": 4621,
      "lmbbjbsq": 4622,
      "##ls": 49039,
      "byyxbnns##": 4624,
      "CcB": 4625,
      "fkwthrhbs": 4626,
      "##liantgjb": 4627,
      "pxisffo##": 4628,
      "hF7": 4629,
      "jhefz": 4630,
      "##ydg": 4631,
      "qk##": 46720,
      "3NaP": 4633,
      "qduarb": 4634,
      "##fzicm": 4635,
      "kwbosh##": 4636,
      "tGWyC": 4637,
      "mhcdxxid": 4638,
      "##fysjvoc": 4639,
      "zvoe##": 4640,
      "pvbQ": 4641,
      "jqlpjyu": 4642,
      "##viitvzcl": 4643,
      "yyt##": 4644,
      "5wC7o": 4645,
      "jhhfexvgm": 4646,
      "##ldglu": 4647,
      "ibv##": 36116,
      "g0bku": 4649,
      "uzaycbydy": 4650,
      "##ltsb": 4651,
      "edmns##": 4652,
      "YdI": 4653,
      "hbrnmypgu": 4654,
      "##rp": 13979,
      "gtevypvt##": 4656,
      "cA50f": 4657,
      "wubkflg": 4658,
      "##xy": 41231,
      "yytfrpcp##": 4660,
      "aFYvpa": 4661,
      "zeuslxkecb": 4662,
      "##icdcn": 4663,
      "kk##": 38476,
      "f0C": 4665,
      "zzzavmu": 4666,
      "##ykvo": 4667,
      "ihwmtxqe##": 4668,
      "IG4o5": 4669,
      "swpq": 4670,
      "##etnkx": 4671,
      "xamlz##": 4672,
      "nv5hR": 4673,
      "jgmmxjs": 4674,
      "##qdqoxd": 4675,
      "mu##": 18396,
      "R6": 4677,
      "yroja": 4678,
      "##vf": 48971,
      "iwobwf##": 4680,
      "kx6": 4681,
      "mvnqmvcjh": 4682,
      "##nepx": 4683,
      "nhuop##": 4684,
      "ghIV": 4685,
      "pveqsmmnk": 4686,
      "##sy": 47443,
      "cmjgtgl##": 4688,
      "1WwKQo": 4689,
      "yqdqn": 4690,
      "##pfn": 4691,
      "nhxzil##": 4692,
      "CWyFF": 4693,
      "ikizx": 4694,
      "##tnnbdk": 4695,
      "zauti##": 4696,
      "sYa61w": 4697,
      "pdxst": 4698,
      "##xnlv": 4699,
      "timk##": 4700,
      "gr": 4701,
      "nyskiqrku": 4702,
      "##ossxh": 4703,
      "khtfay##": 4704,
      "hyvH0": 4705,
      "mulk": 4706,
      "##hlwwel": 4707,
      "acllaxmi##": 4708,
      "Izgo2": 4709,
      "pot": 4710,
      "##autonq": 4711,
      "qvks##": 4712,
      "aP": 4713,
      "xomk": 4714,
      "##ocdvpvfw": 4715,
      "qibqwole##": 4716,
      "EKrn": 4717,
      "oaeintec": 4718,
      "##luyw": 4719,
      "mkyrops##": 4720,
      "2yjal": 4721,
      "jbrpjl": 4722,
      "##sv": 4723,
      "vqlzsc##": 4724,
      "ADG": 4725,
      "yisyoer": 4726,
      "##qtr": 4727,
      "tlvjgay##": 4728,
      "zioqhak": 4730,
      "##jkezrcsy": 4731,
      "jf##": 41664,
      "1I8C": 4733,
      "wbdsxlkt": 4734,
      "##txdhies": 4735,
      "pja##": 4736,
      "h1Du": 4737,
      "vzunyuehu": 4738,
      "##pkjqd": 4739,
      "puaq##": 4740,
      "r6kMl": 4741,
      "lsx": 4742,
      "##svaap": 4743,
      "rx##": 44264,
      "rv8w1j": 4745,
      "quinafg": 4746,
      "##pgdcaii": 4747,
      "nng##": 4748,
      "7B95C": 4749,
      "jdyb": 4750,
      "##qxdg": 4751,
      "wllxm##": 4752,
      "t7QFl": 4753,
      "ashmveqkou": 4754,
      "##vttwau": 4755,
      "wztij##": 4756,
      "hc1": 4757,
      "owvbvgg": 4758,
      "##orrv": 4759,
      "cub##": 4760,
      "Dq4qZ": 4761,
      "jpvioodpur": 4762,
      "##slkatg": 4763,
      "nf##": 33112,
      "algoj": 4765,
      "beyrd": 4766,
      "##axfmwowd": 4767,
      "pkclglhs##": 4768,
      "02": 45061,
      "tamtuso": 4770,
      "##ew": 37203,
      "xc##": 4772,
      "c2qv": 4773,
      "rdguolx": 4774,
      "##ldxxyxd": 4775,
      "mqq##": 4776,
      "0b76": 4777,
      "mfaqdhtykt": 4778,
      "##ianditki": 4779,
      "qm##": 11508,
      "uV": 4781,
      "lnqaknv": 4782,
      "##gtzlrj": 4783,
      "vyk##": 4784,
      "uM": 17689,
      "nwrti": 4786,
      "##stz": 4787,
      "yfh##": 31128,
      "siqz": 4789,
      "xhwht": 4790,
      "##eamgxk": 4791,
      "juqnhe##": 4792,
      "Lzi": 4793,
      "ohx": 4794,
      "##qzu": 4795,
      "hzsleh##": 4796,
      "e8hB": 4797,
      "zytxhgszs": 4798,
      "##pfw": 4799,
      "wvkc##": 4800,
      "2p": 4801,
      "nutkdryoe": 4802,
      "##ghjofg": 4803,
      "pp##": 34892,
      "jzpy": 4805,
      "hldioesodg": 4806,
      "##wufe": 4807,
      "afavh##": 4808,
      "kHv9Y": 4809,
      "hpqex": 4810,
      "##lmlft": 4811,
      "ler##": 4812,
      "ZWvem": 4813,
      "nobtoqqrdc": 4814,
      "##ocqltet": 4815,
      "gxtuzjx##": 4816,
      "WHyP": 4817,
      "vpusf": 4818,
      "##wzt": 4819,
      "eqscmuti##": 4820,
      "j8jl0Q": 4821,
      "kbvji": 4822,
      "##zxgbyxu": 4823,
      "whixe##": 4824,
      "wnLJ": 4825,
      "zju": 4826,
      "##zrld": 4827,
      "plkp##": 4828,
      "VZA": 4829,
      "bez": 4830,
      "##vdhw": 4831,
      "hpwmmk##": 4832,
      "kp": 48705,
      "uyw": 4834,
      "##xxppwso": 4835,
      "htmc##": 4836,
      "Zv": 4837,
      "szguwkb": 4838,
      "##glxsdfw": 4839,
      "auyc##": 4840,
      "rKmj1": 4841,
      "zysfw": 4842,
      "##kon": 4843,
      "hyac##": 4844,
      "3M": 5741,
      "lgvdggcj": 4846,
      "gsqkgoq##": 4848,
      "lbZk7": 4849,
      "nwjqhuhk": 4850,
      "##ocljum": 4851,
      "nydhmqk##": 4852,
      "sDlBh": 4853,
      "ojwkh": 4854,
      "##ile": 4855,
      "vw##": 47372,
      "EV": 4857,
      "ixdxz": 4858,
      "##ytnyvek": 4859,
      "kMCzuQ": 4861,
      "nyeqlzz": 4862,
      "##sc": 33007,
      "nrlowje##": 4864,
      "a8": 4865,
      "anpzjj": 4866,
      "##lxiup": 4867,
      "lahwdef##": 4868,
      "OKCI": 4869,
      "gvz": 4870,
      "##bkwgap": 4871,
      "tlh##": 4872,
      "I2cJcd": 4873,
      "amdna": 4874,
      "##dcat": 4875,
      "6UQ3": 4877,
      "wyjjvea": 4878,
      "##dpopz": 4879,
      "qkbrai##": 4880,
      "7RmnK": 4881,
      "llervyf": 4882,
      "##luvhcg": 4883,
      "xnzfa##": 4884,
      "8LQbM": 4885,
      "cmkvekjnr": 4886,
      "##mij": 4887,
      "jbhw##": 4888,
      "hpB": 4889,
      "dtperzid": 4890,
      "##pp": 31531,
      "syxsefhg##": 4892,
      "1koqh8": 4893,
      "pebarbux": 4894,
      "##ynmhs": 4895,
      "swo##": 4896,
      "gk1I": 4897,
      "krletkpiny": 4898,
      "##cmlfqbvm": 4899,
      "aqvl##": 4900,
      "se": 4901,
      "oqsjn": 4902,
      "##hqywhlqq": 4903,
      "qimqguoc##": 4904,
      "2CY4eW": 4905,
      "pvd": 4906,
      "##otv": 4907,
      "vje##": 4908,
      "Iz": 46049,
      "cthffz": 4910,
      "##khabmc": 4911,
      "nmzstijc##": 4912,
      "hyi": 4913,
      "uarjcqt": 4914,
      "##fv": 8307,
      "wmkwg##": 4916,
      "OK17CC": 4917,
      "fgj": 4918,
      "##uscbwqou": 4919,
      "myhpe##": 4920,
      "adk": 4921,
      "zbnobvtnk": 4922,
      "##qwquufix": 4923,
      "vxlu##": 4924,
      "i2kJ": 4925,
      "sbie": 4926,
      "cohicra##": 4928,
      "eLW": 4929,
      "xzrpenxvz": 4930,
      "##pkrhesfp": 4931,
      "xs##": 18348,
      "jG": 18941,
      "ewnmqzv": 4934,
      "##yeeuq": 4935,
      "epcp##": 4936,
      "eOAx": 4937,
      "dlt": 4938,
      "##qpoufp": 4939,
      "fzrppcq##": 4940,
      "bX": 4941,
      "rzng": 4942,
      "##jhxrsdmx": 4943,
      "rwgurx##": 4944,
      "4a2e15": 4945,
      "kwvwbrwoi": 4946,
      "##ra": 29659,
      "mwpdydj##": 4948,
      "V5": 4949,
      "ahskcomuoe": 4950,
      "##pkikvsd": 4951,
      "ewtvvip##": 4952,
      "je5WfG": 4953,
      "qvkstiekco": 4954,
      "##uezxv": 4955,
      "eryhupjq##": 4956,
      "ft": 30545,
      "mky": 4958,
      "##vptefrl": 4959,
      "vlcn##": 4960,
      "EZioSY": 4961,
      "xkhwjvs": 4962,
      "##srqvzsqk": 4963,
      "YBXSoF": 4965,
      "mhzlhrdz": 4966,
      "##xoqcu": 4967,
      "qjf##": 4968,
      "ZXl4": 4969,
      "shppnb": 4970,
      "##tunum": 4971,
      "ehs##": 4972,
      "2oz": 4973,
      "ocvijhntti": 4974,
      "##aqjohn": 4975,
      "sevhs##": 4976,
      "4e7": 4977,
      "himyshelkm": 4978,
      "##ksnuby": 4979,
      "bafs##": 4980,
      "sc9RS": 4981,
      "aqoj": 4982,
      "##xkhhdtvs": 4983,
      "idec##": 4984,
      "w4": 4985,
      "gqt": 22278,
      "##ktamxlp": 4987,
      "fniwqkd##": 4988,
      "LnGGM": 4989,
      "bmdpbzgl": 4990,
      "##gz": 45007,
      "dydfixie##": 4992,
      "fQlB": 4993,
      "gxjcxul": 4994,
      "##pqxy": 4995,
      "zetkzzid##": 4996,
      "7M7atg": 4997,
      "dlq": 4998,
      "##fomtwpb": 4999,
      "vvinfr##": 5000,
      "Cd": 5001,
      "wmrvvwyk": 5002,
      "##xtfxxhs": 5003,
      "zcywfsi##": 5004,
      "Kyof": 5005,
      "bhrgmmz": 5006,
      "##dt": 43647,
      "jvlzcpig##": 5008,
      "6qmg": 5009,
      "pnvnfl": 5010,
      "##yb": 23275,
      "smxehay##": 5012,
      "hc0W": 5013,
      "gpdsu": 5014,
      "##byvf": 5015,
      "qfik##": 5016,
      "DSm4g": 5017,
      "mxeigyxzrb": 5018,
      "##tnmighfe": 5019,
      "oax##": 5020,
      "WBt16": 5021,
      "lyhoactblv": 5022,
      "##pckmwpwj": 5023,
      "xzyufxj##": 5024,
      "ILs": 5025,
      "sfn": 5026,
      "##vmdma": 5027,
      "dmotxna##": 5028,
      "Oqf4Q7": 5029,
      "cckivhgl": 5030,
      "##bfjzvxp": 5031,
      "oxqu##": 5032,
      "M7IWc": 5033,
      "hcgz": 5034,
      "##uqrungbe": 5035,
      "xe##": 19580,
      "kaL5Q8": 5037,
      "mouhsfjnx": 5038,
      "##hmkkbkmy": 5039,
      "LYmdyq": 5041,
      "kkcvkf": 5042,
      "##qni": 5043,
      "piiz##": 5044,
      "GJ5B": 5045,
      "mulffaqk": 5046,
      "##crxub": 5047,
      "bceom##": 5048,
      "SCc": 5049,
      "zhxtrz": 5050,
      "##dbpqcnn": 5051,
      "hu##": 49708,
      "mTF": 5053,
      "bcahiqiw": 5054,
      "##hrylul": 5055,
      "bblbxjaz##": 5056,
      "cH": 5057,
      "tthbpho": 5058,
      "##kliqvbt": 5059,
      "dl##": 40176,
      "RUmjn": 5061,
      "fqzdgzcxvf": 5062,
      "##bvdnjf": 5063,
      "tunfm##": 5064,
      "qgYu": 5065,
      "irkhxbnmyw": 5066,
      "##bqwa": 5067,
      "wbtlc##": 5068,
      "hk": 5069,
      "dfbquod": 5070,
      "##ramivxob": 5071,
      "rt##": 44212,
      "v2Bo": 5073,
      "syqwjpba": 5074,
      "##xaortnd": 5075,
      "sm##": 5076,
      "Vfb": 5077,
      "gwhheyj": 5078,
      "##haniyq": 5079,
      "gjfyd##": 5080,
      "BSEp": 5081,
      "wrz": 5082,
      "##asketvej": 5083,
      "zaihkgj##": 5084,
      "RE": 5085,
      "ohzsjvj": 5086,
      "##oyhqg": 5087,
      "whuascm##": 5088,
      "RrUsRj": 5089,
      "gailofg": 5090,
      "##mlzzle": 5091,
      "mrnbxbx##": 5092,
      "exb": 5093,
      "zxzibmezu": 5094,
      "##datunjln": 5095,
      "xvxallox##": 5096,
      "AOL": 5097,
      "brm": 39406,
      "##fpalfmvm": 5099,
      "pozdwba##": 5100,
      "kWjBw": 5101,
      "qjuuervw": 5102,
      "##tcczzcb": 5103,
      "jdijoj##": 5104,
      "0ghN1A": 5105,
      "vhygd": 5106,
      "##aeerqbjz": 5107,
      "gcelnpy##": 5108,
      "mbW": 5109,
      "ojccovxo": 5110,
      "##htwgud": 5111,
      "ljbsio##": 5112,
      "R7": 5113,
      "uudbfkwuzn": 5114,
      "##iwqmdawa": 5115,
      "lgcy##": 5116,
      "r83NDp": 5117,
      "yum": 8342,
      "dly##": 5120,
      "uE": 9249,
      "dywrkah": 5122,
      "##fhdeswhy": 5123,
      "su##": 48020,
      "3eS5": 5125,
      "jgcryrb": 5126,
      "##plv": 5127,
      "zqg##": 5128,
      "JeCwX": 5129,
      "wpbqqu": 5130,
      "##ri": 14551,
      "sfgbdn##": 5132,
      "Pp2Ly": 5133,
      "dvyanpcxp": 5134,
      "##gnwodozl": 5135,
      "wz##": 34788,
      "uAo": 5137,
      "xlhgbxwxr": 5138,
      "##aklb": 5139,
      "reabbpk##": 5140,
      "Ri": 5141,
      "wztfce": 5142,
      "##omoxw": 5143,
      "tHKZ": 5145,
      "tsj": 5146,
      "##yrfyc": 5147,
      "bktxejg##": 5148,
      "nm8g": 5149,
      "nmfswshotn": 5150,
      "##kaboz": 5151,
      "uemc##": 5152,
      "d3Vk6": 5153,
      "lrelja": 5154,
      "##hbeg": 5155,
      "ussili##": 5156,
      "rKCdXI": 5157,
      "whg": 5158,
      "##ftjvhv": 5159,
      "qn##": 5160,
      "MGa5J": 5161,
      "hrktl": 5162,
      "##tm": 45115,
      "urczm##": 5164,
      "UHEN": 5165,
      "ypzudks": 5166,
      "##cffnxp": 5167,
      "bvdgnqno##": 5168,
      "Mmjxji": 5169,
      "vhzzeikpm": 5170,
      "##fnv": 5171,
      "llsx##": 5172,
      "usv": 5173,
      "mhqnnxvt": 5174,
      "##hm": 25159,
      "quyqpmg##": 5176,
      "NhkT": 5177,
      "cfth": 5178,
      "##lpcfqpgr": 5179,
      "gfcn##": 5180,
      "vnqeuV": 5181,
      "yaz": 15625,
      "##du": 21167,
      "rattaoyt##": 5184,
      "b8F0bw": 5185,
      "eryurk": 5186,
      "##iy": 36879,
      "cg##": 33360,
      "luhdkxo": 5190,
      "##oxsacmsl": 5191,
      "vwtj##": 5192,
      "0s": 35425,
      "vxevphbwo": 5194,
      "##gfxkgdsb": 5195,
      "qztjpp##": 5196,
      "Y3a": 5197,
      "uflzmifpmq": 5198,
      "##erz": 5199,
      "vitedi##": 5200,
      "liX": 5201,
      "ggeoxrtpe": 5202,
      "##tajvwm": 5203,
      "uq##": 10900,
      "v387j": 5205,
      "ggyppzjxxr": 5206,
      "##femmvx": 5207,
      "npljjgo##": 5208,
      "Vv": 5209,
      "dxwjuxt": 5210,
      "##bttfv": 5211,
      "gbpq##": 5212,
      "Wjm9": 5213,
      "qbdkae": 5214,
      "##ewddbln": 5215,
      "bwpqjdz##": 5216,
      "1rC": 5217,
      "yxr": 5218,
      "##pou": 35507,
      "hrld##": 5220,
      "v3QS2": 5221,
      "fkaztzpm": 5222,
      "##spyffqw": 5223,
      "mjqzw##": 5224,
      "nnj": 5225,
      "pzaqsqdkq": 5226,
      "##bobobz": 5227,
      "hx##": 48272,
      "oBEa": 5229,
      "cyyyptdpl": 5230,
      "##mlwxkkb": 5231,
      "titn##": 5232,
      "EQP39": 5233,
      "qofzf": 5234,
      "##rgxo": 5235,
      "trpalrv##": 5236,
      "J6tlb6": 5237,
      "tnuf": 5238,
      "##kngd": 5239,
      "mpg##": 5240,
      "djg0": 5241,
      "fthvj": 5242,
      "##sq": 38451,
      "pnrbx##": 5244,
      "pnQO": 5245,
      "resjz": 5246,
      "##jrmni": 5247,
      "shvdkwte##": 5248,
      "jQqe2": 5249,
      "dncnsdc": 5250,
      "##fp": 5251,
      "vrj##": 5252,
      "go7N": 5253,
      "pitcjfk": 5254,
      "##vc": 47495,
      "ec##": 21764,
      "taHxP": 5257,
      "vllnshsfor": 5258,
      "##js": 27859,
      "gnyeook##": 5260,
      "YtwA2": 5261,
      "gwmjqpe": 5262,
      "##elpjbigj": 5263,
      "cghpxja##": 5264,
      "Qqz": 5265,
      "uxm": 5266,
      "##ctci": 5267,
      "nxuyapnw##": 5268,
      "7y": 29645,
      "qnhrpf": 5270,
      "##axns": 5271,
      "kj##": 34296,
      "hNC0C2": 5273,
      "iyabkkr": 5274,
      "##xsukn": 5275,
      "ofunog##": 5276,
      "cu5G": 5277,
      "ujnb": 5278,
      "##gvlhmn": 5279,
      "bzoqs##": 5280,
      "LL4c": 5281,
      "xcfcebi": 5282,
      "##ojlqom": 5283,
      "hiiqcrrb##": 5284,
      "b2ZBze": 5285,
      "gdgpome": 5286,
      "##eqzhqxu": 5287,
      "rlrnxyg##": 5288,
      "WK0": 5289,
      "lorwnxiyg": 5290,
      "##gqzuyeex": 5291,
      "vt##": 5292,
      "EqE7wg": 5293,
      "xzfnnew": 5294,
      "##cpnx": 5295,
      "qkcvw##": 5296,
      "cambG": 5297,
      "kxgij": 5298,
      "##ueom": 5299,
      "hgb##": 5300,
      "WVr": 5301,
      "gidtygyp": 5302,
      "##mxcievax": 5303,
      "kmljza##": 5304,
      "UeGLw9": 5305,
      "rpyeytrauk": 5306,
      "##ddgh": 5307,
      "kqiuelog##": 5308,
      "Zmftvj": 5309,
      "gvgeb": 5310,
      "##wfntedow": 5311,
      "vsnjltlf##": 5312,
      "yEtVn": 5313,
      "tofj": 5314,
      "##jocx": 5315,
      "jb##": 32360,
      "gXufvH": 5317,
      "lireawqwl": 5318,
      "##uq": 5319,
      "sthpjk##": 5320,
      "SAFnp": 5321,
      "vra": 5322,
      "##fq": 42295,
      "rsovj##": 5324,
      "Dvd1": 5325,
      "acmdgyb": 5326,
      "##zrhdfc": 5327,
      "lwsb##": 5328,
      "dlaHg": 5329,
      "cfghiscak": 5330,
      "##zhth": 5331,
      "eydobgq##": 5332,
      "8BzFXB": 5333,
      "wnzvo": 5334,
      "##bzimy": 5335,
      "jmeaiah##": 5336,
      "mtibz": 5338,
      "##xaioyh": 5339,
      "rjcsmcp##": 5340,
      "ZWQut": 5341,
      "zakywwhzx": 5342,
      "##qgqk": 5343,
      "xh##": 45504,
      "m3tHC": 5345,
      "ouqihmzlt": 5346,
      "##oj": 22059,
      "cvztjhdr##": 5348,
      "F2MLji": 5349,
      "vpdenagsqs": 5350,
      "##xqxmhlml": 5351,
      "qsefaz##": 5352,
      "4bS": 5353,
      "xjstu": 5354,
      "##mnxjxwp": 5355,
      "zai##": 5356,
      "5NIz": 5357,
      "rcnwsahtwu": 5358,
      "##cm": 10219,
      "jnhesz##": 5360,
      "4G7sX": 5361,
      "epuxh": 5362,
      "##lp": 47827,
      "djb##": 5364,
      "rv": 5365,
      "jodbgcc": 5366,
      "##uiej": 5367,
      "GfYfI": 5369,
      "xfmxpuxj": 5370,
      "##pph": 5371,
      "jeqonkg##": 5372,
      "pK": 37473,
      "uzkjcid": 5374,
      "##pblq": 5375,
      "ftotrch##": 5376,
      "Dh8": 5377,
      "cqkvoi": 5378,
      "##aqmvd": 5379,
      "nhic##": 5380,
      "uwh7V4": 5381,
      "ujjtuojbfz": 5382,
      "##pttbmmt": 5383,
      "tb##": 45496,
      "hB": 17857,
      "xehhsoh": 5386,
      "##axu": 5387,
      "ibg##": 5388,
      "ALWk": 5389,
      "uqbjfdhfjl": 5390,
      "##eillf": 5391,
      "gi##": 13900,
      "NlrdUI": 5393,
      "shvgy": 5394,
      "##hqz": 5395,
      "uu##": 42556,
      "ft8h5X": 5397,
      "bxopxbnztm": 5398,
      "##vtrlxcgy": 5399,
      "yeq##": 5400,
      "2A3eVP": 5401,
      "masxnzrf": 5402,
      "zbbdiqil##": 5404,
      "SZa3N": 5405,
      "rlsbkptes": 5406,
      "##wzddebdg": 5407,
      "dmstc##": 5408,
      "qAi": 5409,
      "sghhhbsn": 5410,
      "##pngusu": 5411,
      "rb##": 49244,
      "cqtF0G": 5413,
      "wnsglwvj": 5414,
      "##babu": 5415,
      "gdqs##": 5416,
      "bTx": 5417,
      "gsrucbvij": 5418,
      "##isyzy": 5419,
      "nzmgo##": 5420,
      "wg": 5421,
      "xgngzwikjf": 5422,
      "##cku": 5423,
      "EE": 47001,
      "ieegxtcxsg": 5426,
      "##zri": 5427,
      "miozgerc##": 5428,
      "AfbLk": 5429,
      "tyclgw": 5430,
      "##hgyy": 5431,
      "tdgy##": 5432,
      "h5Gow": 5433,
      "hdzga": 5434,
      "##ofktujng": 5435,
      "pqetnubv##": 5436,
      "fL": 19329,
      "ugrce": 5438,
      "##oazvyj": 5439,
      "ueqr##": 5440,
      "rfO": 5441,
      "lkbfuorq": 5442,
      "##ukcubcg": 5443,
      "rym##": 5444,
      "JI": 49537,
      "rjo": 5446,
      "##oqtctr": 5447,
      "fcthx##": 5448,
      "ubwvwhfcq": 5450,
      "##jnrluox": 5451,
      "uclmns##": 5452,
      "KW": 5453,
      "voeconcko": 5454,
      "##oc": 35395,
      "gqtk##": 5456,
      "RITI64": 5457,
      "lmjv": 5458,
      "##ouuii": 5459,
      "sfetlcc##": 5460,
      "Ty": 8089,
      "nmm": 5462,
      "##tdn": 5463,
      "blpg##": 5464,
      "Vr": 15101,
      "thss": 5466,
      "##gtaws": 5467,
      "vapi##": 5468,
      "QPQJ": 5469,
      "rgaqajeem": 5470,
      "##inygahm": 5471,
      "xlensr##": 5472,
      "xHlDd": 5473,
      "ccrrqv": 5474,
      "##uaca": 5475,
      "zwfs##": 5476,
      "Gpxi": 5477,
      "mjtwrugde": 5478,
      "##xpmoj": 5479,
      "dnso##": 5480,
      "jFkS7": 5481,
      "xxeqepcl": 5482,
      "##guuqg": 5483,
      "ooxyltq##": 5484,
      "L8": 5485,
      "lteiysynr": 5486,
      "##vyupc": 5487,
      "srics##": 5488,
      "K1Xn": 5489,
      "jjna": 5490,
      "##zuw": 5491,
      "mch##": 5492,
      "ASE3Zp": 5493,
      "ysjbz": 5494,
      "##txgz": 5495,
      "dh##": 5496,
      "pLZm": 5497,
      "rrvcw": 5498,
      "##mq": 20751,
      "bnea##": 5500,
      "NT2Ry": 5501,
      "aawu": 5502,
      "##zqpvlctc": 5503,
      "rnz##": 5504,
      "P5AQiX": 5505,
      "ughnqhhg": 5506,
      "##nslhon": 5507,
      "vfq##": 5508,
      "qeEt": 5509,
      "tfjvod": 5510,
      "##knntezwh": 5511,
      "lyebr##": 5512,
      "Y7vUy": 5513,
      "rqo": 5514,
      "##oaolbl": 5515,
      "rxaowdd##": 5516,
      "sALw": 5517,
      "ydw": 5518,
      "##jiwjinm": 5519,
      "efkp##": 5520,
      "rh3p": 5521,
      "kkcpwqtgy": 5522,
      "llzhiki##": 5524,
      "sopYz": 5525,
      "nbzunfkbl": 5526,
      "##dr": 20087,
      "nkyren##": 5528,
      "KCsE8j": 5529,
      "piqvohh": 5530,
      "##mbh": 5531,
      "lgf##": 5532,
      "yokTP": 5533,
      "gtwzmjj": 5534,
      "##hzynx": 5535,
      "enngmxs##": 5536,
      "3NkzJ": 5537,
      "mzvdh": 5538,
      "##vcvzhstt": 5539,
      "ol##": 28412,
      "mfCb": 5541,
      "qvpz": 5542,
      "##mto": 5543,
      "sW4": 5545,
      "lynbfrd": 5546,
      "##svqdwz": 5547,
      "wwqmlny##": 5548,
      "cUY60I": 5549,
      "sqzxrowi": 5550,
      "##ubelkm": 5551,
      "kwttsed##": 5552,
      "c1": 5553,
      "szuzbejvlo": 5554,
      "##gmueyiuw": 5555,
      "coq##": 5556,
      "bJ0P": 5557,
      "zevzcpi": 5558,
      "##moocpwml": 5559,
      "mibsq##": 5560,
      "aEUvk": 5561,
      "ocejmvf": 5562,
      "##xxht": 5563,
      "niit##": 5564,
      "LW2": 5565,
      "zecdhzvcro": 5566,
      "##bs": 46863,
      "jwxag##": 5568,
      "U7Ne": 5569,
      "ewdtplem": 5570,
      "##lyge": 5571,
      "mhh##": 5572,
      "HUcN": 5573,
      "nerkcq": 5574,
      "##esg": 5575,
      "ouwme##": 5576,
      "F9R": 5577,
      "yfsvuerbgz": 5578,
      "##ganls": 5579,
      "teffulik##": 5580,
      "v9Iyfb": 5581,
      "btlihmzhx": 5582,
      "##hb": 45483,
      "ysomeyw##": 5584,
      "mLA6": 5585,
      "defveqqlu": 5586,
      "##xbus": 5587,
      "dmulpq##": 5588,
      "T9Zz3": 5589,
      "ahey": 5590,
      "##ynv": 5591,
      "buosfuxm##": 5592,
      "ojzF0": 5593,
      "xmmshxs": 5594,
      "##ghp": 46023,
      "sn##": 41208,
      "ffw": 49622,
      "tjnvjnphi": 5598,
      "##gtndqlb": 5599,
      "bstqubw##": 5600,
      "3Squm": 5601,
      "dtklilhba": 5602,
      "##klmrbrj": 5603,
      "wu##": 48460,
      "9yygk3": 5605,
      "rvsyooqkd": 5606,
      "##mbmsfa": 5607,
      "vcnews##": 5608,
      "puveif": 5610,
      "##wwhgbof": 5611,
      "rxe##": 5612,
      "Xj8Kr": 5613,
      "ylcxyqm": 5614,
      "##bww": 5615,
      "eyz##": 5616,
      "bGEde": 5617,
      "cvsdx": 5618,
      "##dypqafx": 5619,
      "efzlnz##": 5620,
      "2LIr8q": 5621,
      "elcsjmy": 5622,
      "##ithlvuv": 5623,
      "fyfhvrz##": 5624,
      "VNxFw": 5625,
      "gcvdnrnszb": 5626,
      "##qrirnxj": 5627,
      "RSu7vN": 5629,
      "vspxzujwpo": 5630,
      "##pxxxllbg": 5631,
      "sunnw##": 5632,
      "P6": 5633,
      "wccmkgvc": 5634,
      "##jzgzekya": 5635,
      "krbup##": 5636,
      "zA42u": 5637,
      "ote": 5638,
      "##lqajjdbt": 5639,
      "iwl##": 5640,
      "VBMiki": 5641,
      "merrkkss": 5642,
      "##jtnnuuq": 5643,
      "viairrz##": 5644,
      "ElKQo5": 5645,
      "uzzflkb": 5646,
      "##mu": 10407,
      "qygvpawl##": 5648,
      "Gbc": 5649,
      "cvvfrxhhc": 5650,
      "##olniong": 5651,
      "iud##": 5652,
      "5Zc": 5653,
      "eqwsxgbs": 5654,
      "##xpohwlrp": 5655,
      "lsfzet##": 5656,
      "dHa2Ua": 5657,
      "slzpwfsxvy": 5658,
      "##azgn": 5659,
      "hlosh##": 5660,
      "fd1P": 5661,
      "haf": 5662,
      "##ja": 26603,
      "albazm##": 5664,
      "aWu5": 5665,
      "gxngpbq": 5666,
      "##gywm": 5667,
      "oqgvwwt##": 5668,
      "9X": 5669,
      "albuznfym": 5670,
      "##gfvs": 5671,
      "ztn##": 5672,
      "v1": 46649,
      "czp": 12686,
      "##uk": 36003,
      "M3": 5677,
      "enkonx": 5678,
      "##tktfss": 5679,
      "nwnwzt##": 5680,
      "6kpNGx": 5681,
      "ilgmc": 5682,
      "##stuboot": 5683,
      "llcdmbhq##": 5684,
      "jzxyswtsi": 5686,
      "##bvtehsfl": 5687,
      "jjopvpsg##": 5688,
      "v1DaU6": 5689,
      "awgpputkz": 5690,
      "##fjvwfky": 5691,
      "pqyi##": 5692,
      "WBW7CJ": 5693,
      "pka": 5694,
      "##bxqwrhku": 5695,
      "wxljrh##": 5696,
      "gGPNK": 5697,
      "plliy": 5698,
      "##ietqr": 5699,
      "xjpyh##": 5700,
      "0Rm": 5701,
      "qbpphhu": 5702,
      "##wt": 31259,
      "rxsewnc##": 5704,
      "D3MA": 5705,
      "fhmocgq": 5706,
      "##lpyg": 5707,
      "ayqj##": 5708,
      "WY": 5709,
      "mnrxxm": 5710,
      "##yvv": 5711,
      "oxhlqj##": 5712,
      "744oB": 5713,
      "zhujzwy": 5714,
      "##ufwztec": 5715,
      "jtctxqh##": 5716,
      "ffezll": 5718,
      "##zmpr": 5719,
      "shoxos##": 5720,
      "Vn2": 5721,
      "uirdle": 5722,
      "##jbg": 5723,
      "ojupuiv##": 5724,
      "epf": 5725,
      "ychpiejtov": 5726,
      "knzqltwk##": 5728,
      "1T9h3": 5729,
      "ekfqtmakap": 5730,
      "##leas": 5731,
      "axawn##": 5732,
      "6Esyi": 5733,
      "ikctyo": 5734,
      "##dasnslza": 5735,
      "ta##": 40388,
      "nGjivQ": 5737,
      "klstzocpoi": 5738,
      "##pej": 5739,
      "ocyc##": 5740,
      "rbc": 5742,
      "##vsjqpmws": 5743,
      "zfhvpurr##": 5744,
      "XPkXI": 5745,
      "radgk": 5746,
      "##eutc": 5747,
      "smisf##": 5748,
      "sO7": 5749,
      "hyrubr": 5750,
      "##pdoapfay": 5751,
      "iuwtcv##": 5752,
      "4w": 5753,
      "btcww": 5754,
      "nevfc##": 5756,
      "kbzbgzep": 5758,
      "##zvjp": 5759,
      "mzrljasp##": 5760,
      "TAUUI": 5761,
      "dadvoo": 5762,
      "##asbw": 5763,
      "umgrdrwr##": 5764,
      "qaHIC": 5765,
      "pmue": 5766,
      "##hinla": 5767,
      "xypfazqc##": 5768,
      "QM": 5769,
      "xugclbbasu": 5770,
      "##pabyohp": 5771,
      "kzfyet##": 5772,
      "0xf": 5773,
      "tvlkqdt": 5774,
      "##ysxzsxp": 5775,
      "vysx##": 5776,
      "Q5r": 5777,
      "belakifb": 5778,
      "##rbhbta": 5779,
      "ckkjp##": 5780,
      "jq6": 5781,
      "ebbip": 5782,
      "##hhr": 5783,
      "zirgdls##": 5784,
      "Lm2": 15729,
      "zxzddus": 5786,
      "##zta": 5787,
      "ztb##": 5788,
      "OqR": 5789,
      "flepjcamaz": 5790,
      "##jlr": 5791,
      "fmpxm##": 5792,
      "gbP1": 5793,
      "auue": 5794,
      "##uptuhjw": 5795,
      "udx##": 5796,
      "LjYaL": 5797,
      "lney": 5798,
      "##ysqwodmc": 5799,
      "pufcqjs##": 5800,
      "jgNrmu": 5801,
      "amrzo": 5802,
      "##td": 49667,
      "fgpt##": 5804,
      "pK9rqJ": 5805,
      "bhko": 5806,
      "##zjbe": 5807,
      "ckfeqf##": 5808,
      "h4": 5809,
      "qdfpqfad": 5810,
      "##xzzusf": 5811,
      "fiw##": 5812,
      "NcxL": 5813,
      "vjvphi": 5814,
      "##zvcmqfnc": 5815,
      "ax": 5817,
      "ixdqzkb": 5818,
      "##svuzo": 5819,
      "qafqkewp##": 5820,
      "mpFdWg": 5821,
      "zchqdnwjwu": 5822,
      "##kucrk": 5823,
      "itkd##": 5824,
      "EFuD": 5825,
      "tkxcuff": 5826,
      "##gspd": 5827,
      "mubpupwz##": 5828,
      "Ieivq": 5829,
      "dhv": 5830,
      "##qnihmbd": 5831,
      "kudjjskj##": 5832,
      "y73": 5833,
      "rpnolvco": 5834,
      "##wyz": 5835,
      "nl##": 29536,
      "gs4I": 5837,
      "fwyokwq": 5838,
      "##zu": 5839,
      "qjs##": 5840,
      "t9Cx": 5841,
      "mtg": 5842,
      "##vwfia": 5843,
      "bjkns##": 5844,
      "JiCkPt": 5845,
      "cysp": 5846,
      "##biryye": 5847,
      "tidylwy##": 5848,
      "im": 41137,
      "bxyuau": 5850,
      "##dykoaj": 5851,
      "yngbpfu##": 5852,
      "WH": 45137,
      "bwgwwqy": 5854,
      "##tfplyn": 5855,
      "pwiag##": 5856,
      "2lsNmw": 5857,
      "taihoknh": 5858,
      "##ngajyxxm": 5859,
      "lemhopz##": 5860,
      "zEEc": 5861,
      "qnikpkil": 5862,
      "##yqw": 5863,
      "jg##": 48856,
      "5xCQNA": 5865,
      "evrvloijx": 5866,
      "##wcwb": 5867,
      "bwh##": 5868,
      "8UQO": 5869,
      "xpdnmurxvj": 5870,
      "##lo": 32279,
      "naiewi##": 5872,
      "2Hc": 5873,
      "xljqlod": 5874,
      "##gab": 5875,
      "ngax##": 5876,
      "kCUHOh": 5877,
      "rqyvlyasag": 5878,
      "##tztscmsx": 5879,
      "kcygpr##": 5880,
      "63L8SF": 5881,
      "niimspg": 5882,
      "##hgnrx": 5883,
      "kq": 5885,
      "ojc": 5886,
      "##uflhx": 5887,
      "kodrvja##": 5888,
      "Gcyd": 5889,
      "kogwlokx": 5890,
      "##xvparqf": 5891,
      "xovoz##": 5892,
      "o8d": 5893,
      "ozrytjnmao": 5894,
      "##ijhg": 5895,
      "yz##": 11592,
      "zeVv": 5897,
      "seryxhfovr": 5898,
      "##hkltdbyr": 5899,
      "gwa##": 5900,
      "t0": 12845,
      "jbsilmra": 5902,
      "##oxu": 5903,
      "hgjrmo##": 5904,
      "4B": 5905,
      "yhlrhebfx": 5906,
      "##wpoq": 5907,
      "gcnoyjg##": 5908,
      "vLGh4": 5909,
      "nzbvmiwisw": 5910,
      "##kw": 46547,
      "dxdemup##": 5912,
      "IUOt": 5913,
      "auqo": 5914,
      "##dbzojllw": 5915,
      "shq##": 5916,
      "mR": 23209,
      "pkurxykie": 5918,
      "##ab": 5919,
      "yymrg##": 5920,
      "7LRgV": 5921,
      "wisemcmjq": 5922,
      "##rttkvwqb": 5923,
      "xrbmhbi##": 5924,
      "CisW2": 5925,
      "xczwdunns": 5926,
      "##qxmeam": 5927,
      "qu##": 40424,
      "QyI8j": 5929,
      "gvwxdfs": 5930,
      "##qlvtj": 5931,
      "btiqi##": 5932,
      "zb24q": 5933,
      "xwksjx": 5934,
      "##iihk": 5935,
      "hgh##": 5936,
      "mSuqj": 5937,
      "xygsmyt": 5938,
      "##bcbxx": 5939,
      "pfwpaqer##": 5940,
      "rp": 12285,
      "woeeyot": 5942,
      "##ejvraryv": 5943,
      "hz##": 34492,
      "NLFBW": 5945,
      "jvdogsaf": 5946,
      "##iscnwi": 5947,
      "nkosw##": 5948,
      "l7Y": 5949,
      "fppcmeb": 5950,
      "##dtlltky": 5951,
      "hdmfyikp##": 5952,
      "ekgdtmdcq": 5954,
      "##pn": 36691,
      "znw##": 5956,
      "AR": 5957,
      "hcwngbgyp": 5958,
      "##oz": 41823,
      "euhulf##": 5960,
      "VVd6d": 5961,
      "nakmuolytr": 5962,
      "##lu": 5963,
      "rgagem##": 5964,
      "IcI": 5965,
      "dxmddufcah": 5966,
      "##elmlzgl": 5967,
      "lxd##": 5968,
      "AqMQH0": 5969,
      "kxjxwaor": 5970,
      "##gewdh": 5971,
      "dxrgiux##": 5972,
      "Phsv": 5973,
      "adjza": 5974,
      "##yem": 5975,
      "euxvw##": 5976,
      "hb": 40465,
      "ncr": 5978,
      "##gwu": 5979,
      "sbn##": 5980,
      "LSQJNF": 5981,
      "nqvvyeg": 5982,
      "##vyytpugx": 5983,
      "zihoo##": 5984,
      "c3": 41969,
      "csvftd": 5986,
      "##rdxkljp": 5987,
      "bkl##": 5988,
      "T8Ruv": 5989,
      "pkotqy": 5990,
      "##xap": 5991,
      "mwbws##": 5992,
      "xqrl0K": 5993,
      "kbzhnifmzv": 5994,
      "##sxkmtytm": 5995,
      "cuembvh##": 5996,
      "1cgN": 5997,
      "zvawkynh": 5998,
      "##ungikfvr": 5999,
      "jhhel##": 6000,
      "7Sry": 6001,
      "rpkisy": 6002,
      "##jhzdp": 6003,
      "xbemjbfv##": 6004,
      "HseR": 6005,
      "pqjlirhsdo": 6006,
      "##qegp": 6007,
      "wn##": 49008,
      "AYg": 6009,
      "qmebcjf": 6010,
      "##yc": 31155,
      "ekjdnm##": 6012,
      "ZwG": 6013,
      "ajro": 6014,
      "##nszgnjo": 6015,
      "tzomrs##": 6016,
      "tJ2x": 6017,
      "vbbg": 6018,
      "yok##": 6020,
      "s97Qy6": 6021,
      "ctmi": 6022,
      "##bz": 36651,
      "kgykjgr##": 6024,
      "Plg": 6025,
      "rzjzdqpzan": 6026,
      "##lw": 21059,
      "myzskh##": 6028,
      "Xdh2": 6029,
      "ulwnmzfdj": 6030,
      "##nodls": 6031,
      "rqgntpa##": 6032,
      "OD": 6033,
      "akslimbb": 6034,
      "##dnnp": 6035,
      "oo##": 25652,
      "4Iqy": 6037,
      "mshddzzkx": 6038,
      "##riwn": 6039,
      "iiec##": 6040,
      "9Ym7XU": 6041,
      "gzjizossli": 6042,
      "##hmiltvm": 6043,
      "wl##": 47120,
      "Kll": 6045,
      "xrdmmvj": 6046,
      "##dwgvps": 6047,
      "kwdrkhaz##": 6048,
      "MUyN": 6049,
      "dwoobktkj": 6050,
      "##xwvkxelr": 6051,
      "tyzjsy##": 6052,
      "c68t": 6053,
      "njqkiuj": 6054,
      "##yqcuumh": 6055,
      "lvb##": 6056,
      "rsn67t": 6057,
      "glzkk": 6058,
      "##tjaiv": 6059,
      "jiofpmlm##": 6060,
      "EvRl": 6061,
      "wbzplrgwoz": 6062,
      "##zjob": 6063,
      "pjq##": 6064,
      "Fy": 48301,
      "cdtxrb": 6066,
      "##ipyfmcyh": 6067,
      "lrn##": 6068,
      "kaLaDM": 6069,
      "ucbhlrvgzk": 6070,
      "##ctncc": 6071,
      "jbdodlmp##": 6072,
      "tLFyg": 6073,
      "omdrjjueg": 6074,
      "##jhwbjj": 6075,
      "itbdo##": 6076,
      "aBC35t": 6077,
      "ikn": 6078,
      "##kbbd": 6079,
      "cakwftx##": 6080,
      "N6sGT": 6081,
      "yvrms": 6082,
      "##se": 41251,
      "wniap##": 6084,
      "gQC": 6085,
      "dew": 6086,
      "##mzj": 6087,
      "ncl##": 6088,
      "AAOs": 6089,
      "wkxnwutkbh": 6090,
      "##pghurnsp": 6091,
      "pesry##": 6092,
      "zkp": 6093,
      "nygiqtaft": 6094,
      "##aglm": 6095,
      "dqox##": 6096,
      "vmwpnrkkyl": 6098,
      "##vpoda": 6099,
      "dfmpbeo##": 6100,
      "UGZR": 6101,
      "gvao": 6102,
      "##rzivrdpf": 6103,
      "oz##": 40772,
      "zRcum": 6105,
      "czkfo": 6106,
      "##pwzxrjn": 6107,
      "yxpolb##": 6108,
      "toaayeksu": 6110,
      "##jegwzu": 6111,
      "nhdzj##": 6112,
      "rVWTRR": 6113,
      "zumokipdyr": 6114,
      "##mtvtqd": 6115,
      "caskwoz##": 6116,
      "nCv0mc": 6117,
      "wqgdmulyb": 6118,
      "##dasolh": 6119,
      "tn##": 46928,
      "4u": 26381,
      "zebhrecol": 6122,
      "##dfyynjc": 6123,
      "byxd##": 6124,
      "ltwb": 6125,
      "tkmorjen": 6126,
      "##beesnu": 6127,
      "w6": 9741,
      "gin": 6130,
      "##wpqi": 6131,
      "ypdytwqx##": 6132,
      "T7QK": 6133,
      "kxmabwpuzl": 6134,
      "##jj": 19967,
      "cxac##": 6136,
      "Xueh": 6137,
      "chuccxxwe": 6138,
      "zaufla##": 6140,
      "xo6FEb": 6141,
      "gtwovqnubn": 6142,
      "##yy": 22255,
      "wk##": 41528,
      "pE1": 6145,
      "hfuo": 6146,
      "##brcidrt": 6147,
      "erxiy##": 6148,
      "2UM0U": 6149,
      "zlysslqx": 6150,
      "##sehuh": 6151,
      "ysqsw##": 6152,
      "Cbx": 6153,
      "mxjktddont": 6154,
      "##tvriw": 6155,
      "dtf##": 6156,
      "qmC": 6157,
      "trwd": 6158,
      "##fw": 18455,
      "idciitn##": 6160,
      "wk": 45501,
      "vggsf": 6162,
      "##qtgkxba": 6163,
      "yorbds##": 6164,
      "YTjq": 6165,
      "gkgkfi": 6166,
      "##kls": 6167,
      "jrai##": 6168,
      "2GiGS4": 6169,
      "cbpi": 6170,
      "##bq": 37863,
      "by##": 6172,
      "SQ": 19405,
      "kcadkwawm": 6174,
      "##qt": 10499,
      "mqw##": 6176,
      "WboBa": 6177,
      "oesgpai": 6178,
      "##ijwfjf": 6179,
      "2qjb": 6181,
      "eanijrfrbe": 6182,
      "##fdi": 6183,
      "dx##": 30956,
      "WU2": 6185,
      "foxyhxgeua": 6186,
      "dccdfbwq##": 6188,
      "Xug": 6189,
      "ofx": 23590,
      "##vpwdvdof": 6191,
      "nifa##": 6192,
      "k2M8lU": 6193,
      "rbxlxada": 6194,
      "##syy": 6195,
      "ma##": 33876,
      "4QqW0": 6197,
      "ppgcywbz": 6198,
      "##kxhvqx": 6199,
      "ljjckh##": 6200,
      "hw": 6201,
      "urec": 6202,
      "##lfpwe": 6203,
      "ricv##": 6204,
      "uR2": 6205,
      "cijnqmpn": 6206,
      "##iblgqh": 6207,
      "xrzuq##": 6208,
      "P6l": 6209,
      "ycwb": 6210,
      "##lztl": 6211,
      "8Sj": 6213,
      "hmujfycy": 6214,
      "##fjknesvs": 6215,
      "viob##": 6216,
      "LOGiG": 6217,
      "vzhpp": 6218,
      "##vkkj": 6219,
      "lsgunmy##": 6220,
      "lIFo": 6221,
      "qgowcdiro": 6222,
      "##czcmptts": 6223,
      "jgcc##": 6224,
      "flj": 6225,
      "fmoiu": 6226,
      "##wulnroy": 6227,
      "jjktewk##": 6228,
      "L7Mciu": 6229,
      "nqfey": 6230,
      "##stx": 6231,
      "xt##": 6232,
      "Oibtb": 6233,
      "dbasavk": 6234,
      "##qh": 27823,
      "tewp##": 6236,
      "2ke": 6237,
      "ynzwg": 6238,
      "##kspcfe": 6239,
      "oosi##": 6240,
      "lOuqoW": 6241,
      "nmaok": 6242,
      "##xyqbztwg": 6243,
      "pvzsfxc##": 6244,
      "tUlhl": 6245,
      "edmjshy": 6246,
      "##gfabxmp": 6247,
      "oxdzh##": 6248,
      "Cs": 6249,
      "yqxfcapx": 6250,
      "##gze": 6251,
      "von##": 48156,
      "oVT": 6253,
      "mhbxyqgm": 6254,
      "##pjxpic": 6255,
      "jrqa##": 6256,
      "MrAXBy": 6257,
      "wjaddtkhq": 6258,
      "##rkjch": 6259,
      "ddmsakj##": 6260,
      "Mv": 6261,
      "bflmvrlfsb": 6262,
      "##mxj": 6263,
      "bqnlacl##": 6264,
      "56eGG": 6265,
      "einvgwqk": 6266,
      "##aiztviav": 6267,
      "zcsxf##": 6268,
      "wQopvP": 6269,
      "rahzxel": 6270,
      "##ea": 44767,
      "sdzi##": 6272,
      "Weo": 6273,
      "pgwnib": 6274,
      "##pdo": 6275,
      "iyxqlzg##": 6276,
      "Zg0SH": 6277,
      "dxj": 6278,
      "##ismhe": 6279,
      "xsf##": 24024,
      "6j700": 6281,
      "vcchwcub": 6282,
      "##ichpz": 6283,
      "dfxkryjq##": 6284,
      "nAZhM": 6285,
      "see": 12718,
      "##ewvx": 6287,
      "smovtkr##": 6288,
      "y0tIN": 6289,
      "srhnx": 6290,
      "##og": 48763,
      "btysovoy##": 6292,
      "Qiir": 6293,
      "nygcpsrn": 6294,
      "yjm##": 6296,
      "JLm": 6297,
      "oaqv": 6298,
      "##kwffiun": 6299,
      "bdaa##": 6300,
      "nM": 6301,
      "jbqzjlnlw": 6302,
      "##lbumxip": 6303,
      "iuhgat##": 6304,
      "Ydhx": 6305,
      "zwpoitcs": 6306,
      "##wf": 6307,
      "xlif##": 6308,
      "7iL": 6309,
      "hpkocohr": 6310,
      "##pjrxs": 6311,
      "jq##": 22604,
      "EEYCr": 6313,
      "ybxzpy": 6314,
      "##bvuv": 6315,
      "oct##": 6316,
      "yqScM": 6317,
      "ksghwcmr": 6318,
      "##eryje": 6319,
      "mhqtcohs##": 6320,
      "JbXVhr": 6321,
      "ggsrazhj": 6322,
      "##izca": 6323,
      "dehpqgpp##": 6324,
      "MV": 34765,
      "dmyx": 6326,
      "##hjl": 6327,
      "bzosojqh##": 6328,
      "IyaP": 6329,
      "dbytksl": 6330,
      "##hclw": 6331,
      "twjau##": 6332,
      "Uol3": 6333,
      "tdmgwpwy": 6334,
      "##vxqjl": 6335,
      "wagz##": 6336,
      "0X": 19681,
      "jxbptrmed": 6338,
      "##en": 8431,
      "zqqvjsrb##": 6340,
      "AwER": 6341,
      "utlltrfqr": 6342,
      "##xpblntdp": 6343,
      "abqxtg##": 6344,
      "3qEKE": 6345,
      "pvqvhg": 6346,
      "##kdn": 6347,
      "yzttyk##": 6348,
      "SYQrF": 6349,
      "urs": 6350,
      "##sxchk": 6351,
      "ysyxozmg##": 6352,
      "DdsAS": 6353,
      "ehj": 6354,
      "##vadm": 6355,
      "elcea##": 6356,
      "ZDK": 6357,
      "kkizbufrna": 6358,
      "##cvabj": 6359,
      "nzipxj##": 6360,
      "83rI": 6361,
      "lkm": 6362,
      "##yxwfjpmu": 6363,
      "teultiua##": 6364,
      "wB7YJs": 6365,
      "namlpqggjw": 6366,
      "##fop": 6367,
      "googju##": 6368,
      "giQh2m": 6369,
      "gpcajn": 6370,
      "##ntitdme": 6371,
      "uo##": 30340,
      "gvbio": 6374,
      "##vfjfqzgi": 6375,
      "siynsqro##": 6376,
      "CK": 6377,
      "xehevrex": 6378,
      "##dsv": 6379,
      "onzbn##": 6380,
      "TbDTF": 6381,
      "wenrrblpxn": 6382,
      "##yzos": 6383,
      "rfy##": 6384,
      "tpNI": 6385,
      "tlavuuip": 6386,
      "##xwl": 6387,
      "xloypq##": 6388,
      "qTl": 6389,
      "bowiz": 6390,
      "##mukzxuxk": 6391,
      "lptpaim##": 6392,
      "rOF": 6393,
      "lnvaflivzu": 6394,
      "##izapmn": 6395,
      "wbtfto##": 6396,
      "e1Yx8": 6397,
      "lgzey": 6398,
      "##uvyii": 6399,
      "xphlypf##": 6400,
      "3niaD": 6401,
      "rdub": 6402,
      "##fy": 41411,
      "oktik##": 6404,
      "Bionu": 6405,
      "veqkxxxq": 6406,
      "##zf": 38563,
      "illnwp##": 6408,
      "9v": 40513,
      "pnwqzyrhr": 6410,
      "##tlnksl": 6411,
      "vtm##": 6412,
      "32": 34717,
      "edatibdavv": 6414,
      "##npe": 6415,
      "hqwjjah##": 6416,
      "xOxw": 6417,
      "ujx": 6418,
      "##fbul": 6419,
      "wsfzfis##": 6420,
      "Ba": 6421,
      "crs": 6422,
      "##nkfjinvj": 6423,
      "xxhkvgao##": 6424,
      "uRj2": 6425,
      "rqrk": 6426,
      "##jjpdq": 6427,
      "ld##": 6428,
      "NAYk": 6429,
      "tmunwujb": 6430,
      "##mekrd": 6431,
      "xve##": 6432,
      "7ut43": 6433,
      "jqua": 6434,
      "##rejxm": 6435,
      "yhpl##": 6436,
      "o1Pt": 6437,
      "xrlqkh": 6438,
      "##vfhao": 6439,
      "hblzkkhx##": 6440,
      "9MvM": 6441,
      "gaymavatvy": 6442,
      "##lzginil": 6443,
      "fofaccom##": 6444,
      "eKe2": 6445,
      "pisiln": 6446,
      "##dvyxo": 6447,
      "sbakvxar##": 6448,
      "ZEo": 6449,
      "npjcwnet": 6450,
      "##jvsutidm": 6451,
      "kcpzd##": 6452,
      "ohac": 6454,
      "##okiafqx": 6455,
      "ysmf##": 6456,
      "ZIUh5": 6457,
      "kaigpeyla": 6458,
      "##qop": 6459,
      "wqs##": 6460,
      "fNUm": 6461,
      "rfzokaxt": 6462,
      "##dcyjmu": 6463,
      "lnofzwz##": 6464,
      "AS4f": 6465,
      "ilekftt": 6466,
      "##ej": 23091,
      "mka##": 6468,
      "L64bd2": 6469,
      "trza": 6470,
      "##jg": 32627,
      "ks##": 30544,
      "9c": 43397,
      "zkwsdgm": 6474,
      "##cyzxe": 6475,
      "milymv##": 6476,
      "NI": 31061,
      "lzth": 6478,
      "##ykwap": 6479,
      "lrcdusk##": 6480,
      "5lSr": 6481,
      "ifqxgygz": 6482,
      "##khc": 6483,
      "ldrigm##": 6484,
      "tm8Juj": 6485,
      "alhcdoybhi": 6486,
      "##czkfre": 6487,
      "dg##": 49572,
      "W0LtrT": 6489,
      "vmsjsuhfi": 6490,
      "##qxslaakj": 6491,
      "ubv##": 6492,
      "uA": 46465,
      "lehc": 6494,
      "##wddrhnp": 6495,
      "cp##": 41484,
      "ItF": 6497,
      "fgzst": 6498,
      "##edrndl": 6499,
      "kapmhevc##": 6500,
      "avSUn": 6501,
      "pmlsdy": 6502,
      "##xexqik": 6503,
      "ggcyspq##": 6504,
      "7JEih": 6505,
      "atpusmrz": 6506,
      "##lhzhhla": 6507,
      "zf##": 25700,
      "Y7AME": 6509,
      "ebvby": 6510,
      "##lawee": 6511,
      "upd##": 6512,
      "r8oz": 6513,
      "sudgp": 6514,
      "##ivs": 6515,
      "uyqgmjjo##": 6516,
      "sqJoXg": 6517,
      "uuep": 6518,
      "##wdobibgo": 6519,
      "kcoobl##": 6520,
      "HPR": 6521,
      "nrkw": 6522,
      "##pztrnrvu": 6523,
      "qnkiks##": 6524,
      "Hrn9": 6525,
      "pzbobe": 6526,
      "##eyk": 6527,
      "qid##": 6528,
      "T60Tt": 6529,
      "qcbierq": 6530,
      "##ojrwfnam": 6531,
      "bdn##": 6532,
      "h1C8": 6533,
      "dbgoaebzc": 6534,
      "##zlvkap": 6535,
      "ujmmz##": 6536,
      "EZ7r": 6537,
      "slnlrdyhz": 6538,
      "##kjwfmahy": 6539,
      "fsevkdgw##": 6540,
      "NUC3": 6541,
      "zswttp": 6542,
      "##vtcxm": 6543,
      "hbnby##": 6544,
      "5EENpy": 6545,
      "nqcecdr": 6546,
      "##kzdqfpu": 6547,
      "lwhg##": 6548,
      "mx0FBZ": 6549,
      "fmfxhwi": 6550,
      "##zwfc": 6551,
      "hv##": 31972,
      "SPW": 6553,
      "uiwj": 6554,
      "##wg": 33723,
      "ik##": 45524,
      "4SU": 6557,
      "rzbsuh": 6558,
      "##mjov": 6559,
      "clgaxtw##": 6560,
      "JumV": 6561,
      "poaqvtp": 6562,
      "##kpohflat": 6563,
      "tmdyny##": 6564,
      "CW5ilf": 6565,
      "zmqlfuj": 6566,
      "##zxwnxkzy": 6567,
      "pjl##": 6568,
      "HVK": 6569,
      "asj": 6570,
      "##yiqsi": 6571,
      "vnn##": 6572,
      "mm": 43393,
      "fxmhjhnh": 6574,
      "##hvyebpo": 6575,
      "ziialazn##": 6576,
      "F5v1": 6577,
      "uejgimr": 6578,
      "##ykft": 6579,
      "oltaid##": 6580,
      "CV": 6581,
      "dwwytmcv": 6582,
      "##jupprpnt": 6583,
      "mfetzf##": 6584,
      "hP": 6585,
      "xkfroggmvt": 6586,
      "##kcmmucyz": 6587,
      "vx##": 37972,
      "eK": 44621,
      "tlpas": 6590,
      "##qyuabu": 6591,
      "ee##": 39528,
      "CHUL": 6593,
      "ksb": 6594,
      "##zyhkwpu": 6595,
      "zhvd##": 6596,
      "H242yE": 6597,
      "vqtuodpa": 6598,
      "##thfrefm": 6599,
      "tlvg##": 6600,
      "9Zf7fZ": 6601,
      "pncowvh": 6602,
      "##ymrwtqep": 6603,
      "mxlfy##": 6604,
      "c3WQl": 6605,
      "yaloovflp": 6606,
      "##nkd": 18391,
      "dzarsip##": 6608,
      "79Ix": 6609,
      "vpwpwunfbu": 6610,
      "##cbn": 6611,
      "gko##": 6612,
      "Tz": 45937,
      "hzr": 6614,
      "##pbvlcui": 6615,
      "pudbm##": 6616,
      "k7NGN": 6617,
      "ynzuxom": 6618,
      "##pis": 6619,
      "oashjw##": 6620,
      "ZZ7IIZ": 6621,
      "dssqjd": 6622,
      "##psjk": 6623,
      "ax##": 35852,
      "luVO": 6625,
      "reibacz": 6626,
      "##sstqmd": 6627,
      "hiyxq##": 6628,
      "fpL": 6629,
      "tfmikek": 6630,
      "##ndwtyi": 6631,
      "fb##": 6632,
      "K1brCf": 6633,
      "mostn": 6634,
      "##yocjhxh": 6635,
      "xpe##": 6636,
      "ja4S2": 6637,
      "jovusemy": 6638,
      "##zogih": 6639,
      "txsy##": 6640,
      "b7ld": 6641,
      "rol": 6642,
      "##brphlzf": 6643,
      "apvfzf##": 6644,
      "GN": 20413,
      "ymnh": 6646,
      "##ojcfxrwd": 6647,
      "tajuzip##": 6648,
      "5rIzF": 6649,
      "cchrdy": 6650,
      "##vjvdy": 6651,
      "io##": 35988,
      "D71y": 6653,
      "ykzylzcqdb": 6654,
      "##bmkbq": 6655,
      "GJ": 6657,
      "rjtpjbvn": 6658,
      "##venocz": 6659,
      "ijdot##": 6660,
      "Bw": 6661,
      "rgzavxixmy": 6662,
      "##ve": 44635,
      "wpnkvsm##": 6664,
      "SY": 6665,
      "myvavm": 6666,
      "##wobkfmvb": 6667,
      "auwrbb##": 6668,
      "ngb": 6669,
      "etxizj": 6670,
      "##xralqs": 6671,
      "nyvcagn##": 6672,
      "3AP": 6673,
      "mdssxhli": 6674,
      "##xvzu": 6675,
      "zcbfgzib##": 6676,
      "6tu6R": 6677,
      "kknz": 6678,
      "##ggbficv": 6679,
      "qz##": 40220,
      "sr": 6681,
      "xnnxbytmxd": 6682,
      "##vka": 6683,
      "fdbwvp##": 6684,
      "ftg": 6685,
      "gplhoyp": 6686,
      "##jml": 6687,
      "gotopfoj##": 6688,
      "8wHw": 6689,
      "xkb": 6690,
      "##dg": 35847,
      "sydzkpvf##": 6692,
      "Exl": 6693,
      "dahroutxj": 6694,
      "##wegss": 6695,
      "vch##": 6696,
      "zcQ": 6697,
      "ipxgeijkpx": 6698,
      "##kjbcdxcq": 6699,
      "bg##": 41468,
      "vLhT1y": 6701,
      "pgoirytk": 6702,
      "##trd": 6703,
      "qutpxle##": 6704,
      "H5": 6705,
      "uscavve": 6706,
      "##idtj": 6707,
      "bkxkvaqe##": 6708,
      "UU1FrK": 6709,
      "rsmwqgr": 6710,
      "##fkjgo": 6711,
      "gzj##": 6712,
      "pis": 15494,
      "husdcvafp": 6714,
      "##bu": 49363,
      "vmjrb##": 6716,
      "Ek7l": 6717,
      "ebzwlayvt": 6718,
      "##ddtnj": 6719,
      "vtse##": 6720,
      "Lvqxzo": 6721,
      "plxgrdyvj": 6722,
      "##egxruhw": 6723,
      "ktfgoff##": 6724,
      "81va": 6725,
      "snmhzfudl": 6726,
      "##zlonq": 6727,
      "txw##": 6728,
      "m9CO": 6729,
      "ayskbpeys": 6730,
      "##hy": 46131,
      "kfcgmvl##": 6732,
      "9BRh53": 6733,
      "okqzu": 6734,
      "##dhp": 6735,
      "nsuwx##": 6736,
      "2c": 6737,
      "figfpv": 6738,
      "##fzz": 6739,
      "vmknlx##": 6740,
      "FEo": 6741,
      "ymyhacyj": 6742,
      "##dbice": 6743,
      "wjjsshia##": 6744,
      "kUj": 6745,
      "fsckesfvld": 6746,
      "##xyj": 6747,
      "avFsb": 6749,
      "fodm": 6750,
      "##bykx": 6751,
      "lkvmzwwx##": 6752,
      "4iZl": 6753,
      "uhmp": 6754,
      "##kupq": 6755,
      "qnyicjnd##": 6756,
      "aJYcW": 6757,
      "zqwbknwcj": 6758,
      "##ubrmpuy": 6759,
      "zuy##": 6760,
      "zi9MIh": 6761,
      "vymcnm": 6762,
      "##aaqrgp": 6763,
      "vcbczn##": 6764,
      "Wt": 6765,
      "kyksmloysj": 6766,
      "##ly": 40411,
      "oyqlix##": 6768,
      "SaQB": 6769,
      "ckhbdiqxj": 6770,
      "##qmgkmt": 6771,
      "bzkx##": 6772,
      "gc2": 6773,
      "zcxjfsi": 6774,
      "##pc": 47067,
      "ag##": 6776,
      "Uul": 6777,
      "niorq": 6778,
      "##nuqkqe": 6779,
      "bfiy##": 6780,
      "ntYTgN": 6781,
      "mbkch": 6782,
      "##cif": 6783,
      "virq##": 6784,
      "glevh": 6785,
      "dnapuspln": 6786,
      "##yk": 22531,
      "ac##": 27160,
      "11CMt1": 6789,
      "vschkznub": 6790,
      "##oolsk": 6791,
      "hyxeni##": 6792,
      "w40NR8": 6793,
      "ffwl": 6794,
      "##vzoelb": 6795,
      "tbcsohy##": 6796,
      "Umy": 6797,
      "srxesb": 6798,
      "##ffd": 6799,
      "ke##": 47284,
      "W5": 35841,
      "kaywwq": 6802,
      "##tnih": 6803,
      "uhca##": 6804,
      "yIaq": 6805,
      "nskkotv": 6806,
      "##ykyfxig": 6807,
      "lgocsyl##": 6808,
      "WXX": 6809,
      "abdvj": 6810,
      "##mgmu": 6811,
      "wd##": 6812,
      "7Sc": 6813,
      "nutlj": 6814,
      "##zofrfmrr": 6815,
      "me##": 44864,
      "QqJcM": 6817,
      "yglyhpplb": 6818,
      "##plqeq": 6819,
      "njvhilk##": 6820,
      "ncQHO": 6821,
      "mjrtwfih": 6822,
      "##lt": 45163,
      "npzpl##": 6824,
      "keac6q": 6825,
      "dfqugawjgr": 6826,
      "##cn": 45547,
      "cwpfsc##": 6828,
      "zZgA": 6829,
      "mlwpgcdeav": 6830,
      "##hkuvtv": 6831,
      "kwsayvm##": 6832,
      "KZeT": 6833,
      "piy": 6834,
      "##mljfuyz": 6835,
      "fsnuux##": 6836,
      "1WWleV": 6837,
      "ecpzw": 6838,
      "##lje": 6839,
      "qkrshe##": 6840,
      "zzBMRm": 6841,
      "hxngjslw": 6842,
      "##qmfugd": 6843,
      "pfdd##": 6844,
      "pql0": 6845,
      "vxiox": 6846,
      "##qkkfe": 6847,
      "cr##": 25420,
      "gQ19W": 6849,
      "pcsqbauf": 6850,
      "##pkvtg": 6851,
      "lxgh##": 6852,
      "Ehjqi": 6853,
      "doeg": 6854,
      "##ugjvo": 6855,
      "drsvs##": 6856,
      "tlee": 6857,
      "dxy": 6858,
      "##rvjlxaop": 6859,
      "xn##": 45864,
      "uID": 6861,
      "ymna": 6862,
      "##yexm": 6863,
      "jycgtz##": 6864,
      "Tq8U": 6865,
      "uxpxhiaxu": 6866,
      "##dpjr": 6867,
      "kitco##": 6868,
      "ipT": 6869,
      "mlc": 6870,
      "##snpyjubu": 6871,
      "eronx##": 6872,
      "E7h": 28713,
      "fce": 6874,
      "##dh": 31039,
      "zsnibp##": 6876,
      "ix": 6877,
      "ehlegu": 6878,
      "##uxg": 6879,
      "nxwccao##": 6880,
      "f9Fm": 6881,
      "vqr": 6882,
      "##bworkdr": 6883,
      "efqiqzwj##": 6884,
      "mLd": 6885,
      "zdvuyztj": 6886,
      "##brcke": 6887,
      "vee##": 6888,
      "GL9H": 6889,
      "kajmazq": 6890,
      "##ybwqflrq": 6891,
      "vas##": 6892,
      "lc": 33697,
      "kjlgivb": 6894,
      "##uxse": 6895,
      "xpqz##": 6896,
      "wobR7M": 6897,
      "frhdjeijz": 6898,
      "##hju": 6899,
      "wbnm##": 6900,
      "hfpnu": 6902,
      "nqnqdv##": 6904,
      "kmOStI": 6905,
      "oagfc": 6906,
      "##xijiybc": 6907,
      "wog##": 6908,
      "VRfKF9": 6909,
      "poprhhklnu": 6910,
      "##ffbr": 6911,
      "fmo##": 6912,
      "VGUdL": 6913,
      "tmyxigdfa": 6914,
      "##ntr": 6915,
      "qtbo##": 6916,
      "Jz": 6917,
      "lsxchqpb": 6918,
      "##lafegd": 6919,
      "oteczjf##": 6920,
      "5Aytp": 6921,
      "nsmbandj": 6922,
      "##jhi": 6923,
      "yvb##": 6924,
      "ofG": 6925,
      "zgz": 6926,
      "##aqkyk": 6927,
      "cjilo##": 6928,
      "VB": 6929,
      "kjfyqbe": 6930,
      "##hsmzg": 6931,
      "pee##": 6932,
      "D5": 34933,
      "ozjqmfzs": 6934,
      "##lskessx": 6935,
      "ukzhtih##": 6936,
      "vBplTn": 6937,
      "eaamwoxy": 6938,
      "##dz": 21491,
      "efkset##": 6940,
      "zTl": 6941,
      "fuawycjwe": 6942,
      "##xqwqi": 6943,
      "zsxztb##": 6944,
      "bdt": 6945,
      "hbftizadpq": 6946,
      "##dux": 6947,
      "rfd##": 6948,
      "spC": 6949,
      "hesflstc": 6950,
      "##mzlhx": 6951,
      "bq##": 46764,
      "31Vi": 6953,
      "ftpnbiekgo": 6954,
      "##wvzh": 6955,
      "ukqhiwxq##": 6956,
      "Uyl7": 6957,
      "bkqr": 6958,
      "##tsctuh": 6959,
      "qsybm##": 6960,
      "d5se3": 6961,
      "nvjn": 6962,
      "##bqnyygfn": 6963,
      "cbdz##": 6964,
      "oYWgO": 6965,
      "ufdzvgu": 6966,
      "##qvixsut": 6967,
      "wnsahlu##": 6968,
      "A7N": 6969,
      "txgdqg": 6970,
      "##ljymiv": 6971,
      "ivajsk##": 6972,
      "rDL": 6973,
      "sovyrsjms": 6974,
      "##ebhdq": 6975,
      "sa##": 29048,
      "OR0EvL": 6977,
      "cxyrqkc": 6978,
      "##lc": 47511,
      "tuyek##": 6980,
      "dg": 6981,
      "mfidnbc": 6982,
      "##ya": 49815,
      "ojqolxxf##": 6984,
      "oie": 6985,
      "egyck": 6986,
      "##zlajaq": 6987,
      "olvc##": 6988,
      "vFyX": 6989,
      "rzfc": 6990,
      "##sgwtwyyf": 6991,
      "pbkj##": 6992,
      "M1OPx": 6993,
      "wyaskajlqg": 6994,
      "##enmvohe": 6995,
      "paunwz##": 6996,
      "yl": 6997,
      "sgx": 6998,
      "##rggv": 6999,
      "bfjbqfgy##": 7000,
      "xbe": 7001,
      "grwdevqrdo": 7002,
      "##zcabo": 7003,
      "paqpr##": 7004,
      "5Am": 7005,
      "vhhxhyhl": 7006,
      "##pjccii": 7007,
      "cupa##": 7008,
      "KS9cj": 7009,
      "ictpsid": 7010,
      "##xfze": 7011,
      "1U4d": 7013,
      "yujjtktc": 7014,
      "##pbdcliw": 7015,
      "lcqnqx##": 7016,
      "XQB9YD": 7017,
      "yeejgcngz": 7018,
      "##dkuirl": 7019,
      "se##": 39000,
      "hMFG": 7021,
      "paubq": 7022,
      "##iuo": 16083,
      "ejlopu##": 7024,
      "ha": 38705,
      "mlqqiiw": 7026,
      "##wcoktd": 7027,
      "btfg##": 7028,
      "Fpuo": 7029,
      "rhimxqn": 7030,
      "nu##": 21228,
      "svphfc": 7033,
      "alevo": 7034,
      "##jghol": 7035,
      "netmjsxv##": 7036,
      "y2cK": 7037,
      "osijugty": 7038,
      "##hyt": 7039,
      "iqolbe##": 7040,
      "bvPrx": 7041,
      "kcarx": 7042,
      "##qqqmyhin": 7043,
      "ywlfzum##": 7044,
      "g4v52": 7045,
      "tfdvsc": 7046,
      "##gzkshsj": 7047,
      "cvkjorf##": 7048,
      "vxn": 7049,
      "orzwdn": 7050,
      "##klnstmfq": 7051,
      "abrwnko##": 7052,
      "jC": 45881,
      "uhedryswdv": 7054,
      "##nfow": 7055,
      "sjjacxwg##": 7056,
      "57h4I": 7057,
      "vmbd": 7058,
      "##gzqyvu": 7059,
      "gfrlic##": 7060,
      "D4k": 7061,
      "odd": 36654,
      "##lqzba": 7063,
      "fryxk##": 7064,
      "KhpSK": 7065,
      "zngurfat": 7066,
      "##nym": 7067,
      "zmpi##": 7068,
      "2UHl": 7069,
      "ymj": 7070,
      "##vrbxfyy": 7071,
      "ovfmawiw##": 7072,
      "cKUB": 7073,
      "xseahuoso": 7074,
      "##xv": 49187,
      "nlud##": 7076,
      "sTduH": 7077,
      "htkxxqr": 7078,
      "##wlwox": 7079,
      "shfsxu##": 7080,
      "Urhp5": 7081,
      "yqzcgpuyxc": 7082,
      "##arpvocum": 7083,
      "mitgbr##": 7084,
      "jU7dKD": 7085,
      "hfdpqwkrt": 7086,
      "##wdikz": 7087,
      "vcrzupgj##": 7088,
      "sN1j": 7089,
      "xbd": 40258,
      "##ol": 35787,
      "avykgsq##": 7092,
      "24XNf8": 7093,
      "jmnqgjt": 7094,
      "##udkylfrz": 7095,
      "yi##": 12416,
      "B8Urn": 7097,
      "ecgwuihy": 7098,
      "##zewz": 7099,
      "vqu##": 7100,
      "3p6eo9": 7101,
      "ucgppoiims": 7102,
      "##fakyj": 7103,
      "gyj##": 7104,
      "KRr": 7105,
      "uqqoyt": 7106,
      "##dj": 23255,
      "jtkat##": 7108,
      "8Kewh": 7109,
      "oocxjaik": 7110,
      "##oqgnf": 7111,
      "jdyuaq##": 7112,
      "N6nQhn": 7113,
      "jkan": 7114,
      "##ke": 7115,
      "pmmq##": 7116,
      "NRZx": 7117,
      "itfawnqgk": 7118,
      "##mzmt": 7119,
      "hy##": 39536,
      "tco": 13825,
      "##ztlruudn": 7123,
      "drxegoug##": 7124,
      "GS8g": 7125,
      "umzlxdfj": 7126,
      "##xfkm": 7127,
      "tmrgpzm##": 7128,
      "ZJ": 46265,
      "ujcmmzfuws": 7130,
      "##bhgcqhiw": 7131,
      "zr##": 21940,
      "eR": 7133,
      "pocpmrpwr": 7134,
      "##inzotnq": 7135,
      "ni##": 38460,
      "1K": 7137,
      "nqsyb": 7138,
      "##fein": 7139,
      "noo##": 7140,
      "mIaB": 7141,
      "aigz": 7142,
      "##ketth": 7143,
      "oloezu##": 7144,
      "50V3": 7145,
      "mdyrgrn": 7146,
      "##bwubezld": 7147,
      "fvfm##": 7148,
      "8DIsym": 7149,
      "yuq": 7150,
      "##lpjpul": 7151,
      "bs##": 47740,
      "OmJxPu": 7153,
      "wvergb": 7154,
      "##bvs": 7155,
      "oljc##": 7156,
      "tP": 17137,
      "pbqkmysev": 7158,
      "##audwr": 7159,
      "xrudxnjz##": 7160,
      "7T": 37689,
      "bxggw": 7162,
      "##hqvbpl": 7163,
      "rhkkxc##": 7164,
      "oRL3S": 7165,
      "ljwhtkrnw": 7166,
      "##vij": 7167,
      "dzw##": 7168,
      "YON": 7169,
      "xhivzciqqt": 7170,
      "##smcz": 7171,
      "cezmq##": 7172,
      "rxL4": 7173,
      "cpuj": 7174,
      "##cyw": 7175,
      "bytebqih##": 7176,
      "yb1U": 7177,
      "ibwjdqlpno": 7178,
      "##vyighf": 7179,
      "simw##": 7180,
      "kOn2": 7181,
      "kpe": 7182,
      "##txerksau": 7183,
      "lyyyw##": 7184,
      "vA0": 7185,
      "wzrfdohk": 7186,
      "##rva": 7187,
      "kjtgde##": 7188,
      "cT": 7189,
      "gykyn": 7190,
      "##sx": 20347,
      "xp##": 17748,
      "Ke": 7193,
      "lka": 7194,
      "##dtorv": 7195,
      "zofdpgf##": 7196,
      "SDE": 7197,
      "wyfuooqjz": 7198,
      "##xcne": 7199,
      "cdgltb##": 7200,
      "2pu": 7201,
      "njjv": 7202,
      "##nndydd": 7203,
      "lgapa##": 7204,
      "6W3O31": 7205,
      "wimumfh": 7206,
      "##ailvx": 7207,
      "ku##": 49740,
      "AFy2": 7209,
      "eih": 7210,
      "##lel": 7211,
      "oxefh##": 7212,
      "IH0Nd": 7213,
      "rtuu": 7214,
      "##herxca": 7215,
      "yeYWRX": 7217,
      "biktitgq": 7218,
      "##lvni": 7219,
      "xgwcvsp##": 7220,
      "2dSppk": 7221,
      "rvqi": 7222,
      "##kcwia": 7223,
      "hsb##": 7224,
      "iNLTiz": 7225,
      "nxfigoc": 7226,
      "##gn": 21351,
      "kxdjvgeg##": 7228,
      "dOLvF": 7229,
      "vqeq": 7230,
      "##ocb": 7231,
      "vvurkv##": 7232,
      "ZXUdc": 7233,
      "yxx": 21298,
      "##yqozfi": 7235,
      "zjsjll##": 7236,
      "BS": 7237,
      "vdg": 7238,
      "##ubwx": 7239,
      "tnecclgp##": 7240,
      "RRPPp": 7241,
      "bbpanptu": 7242,
      "##qgtgoor": 7243,
      "ivl##": 32652,
      "S2tz29": 7245,
      "jqo": 7246,
      "##pbpxsmo": 7247,
      "hucoir##": 7248,
      "i1": 28997,
      "kmuznmus": 7250,
      "sjl##": 7252,
      "Qls9I4": 7253,
      "jlkppkpkt": 7254,
      "##eio": 7255,
      "cdfyhaie##": 7256,
      "95yJJ2": 7257,
      "xrzxjkb": 7258,
      "##fb": 29287,
      "ktazihr##": 7260,
      "EP6": 7261,
      "scfdlfyim": 7262,
      "##kf": 37507,
      "jYGv": 7265,
      "wqltchh": 7266,
      "##xi": 28123,
      "cpddip##": 7268,
      "Yj19a": 7269,
      "pamj": 7270,
      "##obrn": 7271,
      "lggwdbog##": 7272,
      "qF1uJj": 7273,
      "mgruvmc": 7274,
      "##dksd": 7275,
      "macryeui##": 7276,
      "S9": 14853,
      "qftpo": 7278,
      "##eq": 41951,
      "hzpknhr##": 7280,
      "umj": 7281,
      "snyxo": 7282,
      "##nzy": 7283,
      "YON4I": 7285,
      "gkdkrmyaz": 7286,
      "##ubbff": 7287,
      "padsqy##": 7288,
      "PL": 7289,
      "nevooqywmc": 7290,
      "##pij": 7291,
      "hea##": 7292,
      "mUBp9": 7293,
      "zpaq": 7294,
      "##nv": 23783,
      "vob##": 7296,
      "KglA4": 7297,
      "qkgg": 7298,
      "##hfpvwzk": 7299,
      "dk##": 27844,
      "59l5B": 7301,
      "fvqlbewuo": 7302,
      "##hnntjfs": 7303,
      "jtp##": 7304,
      "XA": 7305,
      "ehc": 7306,
      "##ejcf": 7307,
      "fudk##": 7308,
      "o7Mxa": 7309,
      "oyrobyy": 7310,
      "##vudng": 7311,
      "mcdfl##": 7312,
      "HfD": 7313,
      "zhn": 7314,
      "##vzmofgu": 7315,
      "zesvztre##": 7316,
      "UqNTZ0": 7317,
      "mjtpqm": 7318,
      "##gddsacug": 7319,
      "nqmycka##": 7320,
      "RUBbT": 7321,
      "nmxgy": 7322,
      "##mxskrnxf": 7323,
      "zhppnn##": 7324,
      "M4P5up": 7325,
      "tfopakvkhz": 7326,
      "##idxuaroz": 7327,
      "jnxskmgc##": 7328,
      "IYhCA": 7329,
      "hgrpmzivk": 7330,
      "##mosym": 7331,
      "vnvlbim##": 7332,
      "MAjvAq": 7333,
      "mvaqsupyth": 7334,
      "##qkuqgc": 7335,
      "mcw##": 7336,
      "P9rjk": 7337,
      "cskzqnv": 7338,
      "##xf": 7339,
      "aazsg##": 7340,
      "2mF": 7341,
      "kznbliyxcz": 7342,
      "##uowlbx": 7343,
      "ykrt##": 7344,
      "VTq95O": 7345,
      "wrr": 7346,
      "##cy": 7347,
      "dlfa##": 7348,
      "5wJ": 7349,
      "dfs": 7350,
      "##hwgksrh": 7351,
      "ykhn##": 7352,
      "Eh": 16161,
      "obfs": 7354,
      "##qremhu": 7355,
      "jhuqy##": 7356,
      "cFg": 7357,
      "gugadc": 7358,
      "##dbblq": 7359,
      "kkh##": 7360,
      "XVhlv": 7361,
      "qzhbamxhs": 7362,
      "##ipy": 7363,
      "fzv##": 7364,
      "6LNifV": 7365,
      "cgmd": 7366,
      "##mwpuwps": 7367,
      "ldw##": 7368,
      "vjv": 7369,
      "tqdziasj": 7370,
      "##uokcoegu": 7371,
      "ji##": 37664,
      "4h": 7373,
      "jlcxblgjxf": 7374,
      "##vlyc": 7375,
      "cgfjgo##": 7376,
      "Qp1Y30": 7377,
      "mvmsuy": 7378,
      "qhiym##": 7380,
      "iIb": 7381,
      "ixogyj": 7382,
      "##xnz": 7383,
      "ux##": 25556,
      "Me": 7385,
      "tochbqoh": 7386,
      "##fpje": 7387,
      "hb##": 45760,
      "89K94": 7389,
      "crdqqyh": 7390,
      "##plgrg": 7391,
      "s2XeZl": 7393,
      "rgmzzv": 7394,
      "##dty": 7395,
      "vqyprjc##": 7396,
      "4Ja": 7397,
      "cupxaj": 7398,
      "##kjkc": 7399,
      "oveqxl##": 7400,
      "8h28n": 7401,
      "jvdkpkbek": 7402,
      "##ddvvo": 7403,
      "gsfgoyk##": 7404,
      "BQr7": 7405,
      "mxrj": 7406,
      "##hyn": 7407,
      "fbinio##": 7408,
      "Q0SnK": 7409,
      "nidylub": 7410,
      "lqymej##": 7412,
      "Vdqo0s": 7413,
      "flwp": 7414,
      "##zihmjht": 7415,
      "cyg##": 7416,
      "7Zpi": 7417,
      "iiq": 7418,
      "##xpxeox": 7419,
      "nuvxg##": 7420,
      "2hKb": 7421,
      "hmd": 7422,
      "##mbvmucqs": 7423,
      "ghikw##": 7424,
      "XdVY": 7425,
      "isdsf": 7426,
      "##rlpdyexi": 7427,
      "iwz##": 7428,
      "3lR3af": 7429,
      "racbf": 7430,
      "ccyh##": 7432,
      "miWgg": 7433,
      "bcbp": 7434,
      "##jujmpw": 7435,
      "oobxk##": 7436,
      "Lj": 48749,
      "aduihzwkym": 7438,
      "##uefgmm": 7439,
      "thieano##": 7440,
      "aM": 33705,
      "hxx": 7442,
      "##zayhfm": 7443,
      "cndm##": 7444,
      "11": 7445,
      "lpg": 7446,
      "##mk": 46535,
      "md##": 29044,
      "bxxxX": 7449,
      "waxkkkovub": 7450,
      "##gty": 7451,
      "sdgtb##": 7452,
      "naSAr": 7453,
      "cofb": 7454,
      "##kosgp": 7455,
      "sjfezdp##": 7456,
      "xRR5S": 7457,
      "jqf": 7458,
      "##sjflljqb": 7459,
      "tcrot##": 7460,
      "UCrLDu": 7461,
      "brezomvj": 7462,
      "##enyucrxz": 7463,
      "bwtxr##": 7464,
      "CEP35": 7465,
      "gshcnkglks": 7466,
      "##pylgk": 7467,
      "osbz##": 7468,
      "Hd": 7469,
      "agjwqzg": 7470,
      "##emcrg": 7471,
      "ii##": 46924,
      "Sag": 7473,
      "ezvc": 7474,
      "##zciljap": 7475,
      "ug": 7477,
      "sqrrmgsq": 7478,
      "##ptlbsf": 7479,
      "gw##": 34408,
      "KVcB": 7481,
      "lqilmz": 7482,
      "##yaxwj": 7483,
      "sdu": 7485,
      "tlhle": 7486,
      "##cuxka": 7487,
      "mmjzq##": 7488,
      "fX9": 7489,
      "qgfbag": 7490,
      "##wgm": 7491,
      "gkxa##": 7492,
      "W6pD": 7493,
      "vwstqb": 7494,
      "##rmyrxk": 7495,
      "eyh##": 7496,
      "vC": 7497,
      "djwd": 7498,
      "##wzsmi": 7499,
      "wparuoq##": 7500,
      "wQZ": 7501,
      "pregi": 7502,
      "##tmkpe": 7503,
      "bolzhyzu##": 7504,
      "7Dv": 7505,
      "mfpmu": 7506,
      "##ougkoz": 7507,
      "kfmvodfj##": 7508,
      "KAIr": 7509,
      "nagsmsjiw": 7510,
      "##khxysbre": 7511,
      "vodynd##": 7512,
      "Nq": 7513,
      "kyoz": 7514,
      "##hjemmp": 7515,
      "pnsjflt##": 7516,
      "HE": 9037,
      "mfur": 7518,
      "##jpjbw": 7519,
      "hjzn##": 7520,
      "Cxx": 7521,
      "kcojjtaj": 7522,
      "##wgjo": 7523,
      "zh##": 48996,
      "tXEHse": 7525,
      "eztstz": 7526,
      "##eohfqxic": 7527,
      "utupzd##": 7528,
      "zhC": 7529,
      "qdilpw": 7530,
      "##rtmuc": 7531,
      "gvszkf##": 7532,
      "SvW2l": 7533,
      "akv": 7534,
      "##cdyfnq": 7535,
      "isxio##": 7536,
      "UqkQuW": 7537,
      "vqkvjwk": 7538,
      "##dfyqmty": 7539,
      "ro##": 25740,
      "M2AfI": 7541,
      "qkj": 7542,
      "##wpyll": 7543,
      "jqcejear##": 7544,
      "RnsDXf": 7545,
      "buxepqy": 7546,
      "##gzqmhnjl": 7547,
      "ll##": 35708,
      "ode": 7550,
      "##boy": 7551,
      "PQM": 7553,
      "pkaz": 7554,
      "##dmuu": 7555,
      "gpashuyl##": 7556,
      "Y9dQ29": 7557,
      "jlgfo": 7558,
      "##usbnfrtp": 7559,
      "zuqfybu##": 7560,
      "8rv": 7561,
      "qcg": 7562,
      "##qljc": 7563,
      "iurei##": 7564,
      "8PIELF": 7565,
      "vjfwacclni": 7566,
      "##wrf": 27007,
      "imvbich##": 7568,
      "x7WPKj": 7569,
      "iygiqte": 7570,
      "##ncqamnuh": 7571,
      "yvi##": 7572,
      "3BeqA": 7573,
      "llldnja": 7574,
      "##dwnvl": 7575,
      "legyq##": 7576,
      "twq": 7578,
      "##ctesk": 7579,
      "rgancltw##": 7580,
      "Rv2jC": 7581,
      "yob": 7582,
      "##sciftl": 7583,
      "pipgs##": 7584,
      "kW": 31713,
      "baphd": 7586,
      "##eip": 7587,
      "ny##": 7588,
      "SI": 30189,
      "xwnte": 7590,
      "##wzvtn": 7591,
      "rpixRR": 7593,
      "psqjeqa": 7594,
      "##rkhzmuz": 7595,
      "ghc##": 7596,
      "irKGg": 7597,
      "nqosyf": 7598,
      "##jhius": 7599,
      "qowzdehd##": 7600,
      "GumgcX": 7601,
      "aoijvy": 7602,
      "llolfap##": 7604,
      "wXm8pb": 7605,
      "pah": 7606,
      "##cdszo": 7607,
      "izylvkuy##": 7608,
      "254": 7609,
      "xstgowwkpi": 7610,
      "##mao": 7611,
      "okpf##": 7612,
      "Hcmaz": 7613,
      "gvnezir": 7614,
      "ofbphzyj##": 7616,
      "3ww": 7617,
      "dxbko": 7618,
      "##nkob": 7619,
      "lxcb##": 7620,
      "rY0Q5U": 7621,
      "xyjjbcrln": 7622,
      "##bwjew": 7623,
      "vel##": 7624,
      "nwfaF": 7625,
      "vdqfyqkljg": 7626,
      "##tfj": 7627,
      "ahekye##": 7628,
      "wlUl": 7629,
      "svtfldlfmp": 7630,
      "##wklngrb": 7631,
      "sgceofbf##": 7632,
      "UtR2": 7633,
      "yoayel": 7634,
      "##pgsoyat": 7635,
      "dhr##": 7636,
      "2mZit": 7637,
      "xdw": 7638,
      "##obj": 15687,
      "zxlikxj##": 7640,
      "GEO9": 7641,
      "yaokxmofs": 7642,
      "##ofj": 7643,
      "gvihfv##": 7644,
      "qZMON": 7645,
      "zrpm": 7646,
      "##eqbrt": 7647,
      "lur##": 7648,
      "hU2N": 7649,
      "mjshljt": 7650,
      "##lvnsealo": 7651,
      "crocj##": 7652,
      "9n": 39645,
      "ywxyjvwf": 7654,
      "##xvli": 7655,
      "iwzf##": 7656,
      "ylLqH": 7657,
      "yojfix": 7658,
      "##nlc": 7659,
      "un##": 38112,
      "g6Q504": 7661,
      "qkur": 7662,
      "##hiomltq": 7663,
      "hmru##": 7664,
      "SaTv": 7665,
      "yhwzelz": 7666,
      "##yhvvxs": 7667,
      "pokcuosn##": 7668,
      "edJ0": 7669,
      "wgtjzl": 7670,
      "##zfnqf": 7671,
      "zbcby##": 7672,
      "fB3": 7673,
      "nnpwaj": 7674,
      "##ywb": 7675,
      "ynsoz##": 7676,
      "DbJA1O": 7677,
      "kzkybsj": 7678,
      "##egai": 7679,
      "tmr##": 7680,
      "XSny0S": 7681,
      "zaca": 7682,
      "##ayfnjwom": 7683,
      "gzsh##": 7684,
      "Zu2": 7685,
      "bvqhdqoh": 7686,
      "##tz": 29187,
      "abnvg##": 7688,
      "WPTUK": 7689,
      "unk": 7690,
      "##dvkecpfd": 7691,
      "yjfv##": 7692,
      "a4M": 7693,
      "widtb": 7694,
      "##gfir": 7695,
      "mhj##": 7696,
      "zEqa0": 7697,
      "ikqtzak": 7698,
      "##qs": 7699,
      "uvnzabin##": 7700,
      "0cv5k": 7701,
      "qzqspxv": 7702,
      "##hqi": 7703,
      "ekbnplfx##": 7704,
      "R6mh": 7705,
      "mrjnh": 7706,
      "miwnvcs##": 7708,
      "vY2W": 7709,
      "gzptcillv": 7710,
      "##totvwdh": 7711,
      "dxp##": 7712,
      "GV": 7713,
      "dogmfz": 7714,
      "##jlygh": 7715,
      "gykpyqqv##": 7716,
      "sY": 23673,
      "hiqdrwlekp": 7718,
      "##vuhr": 7719,
      "tja##": 7720,
      "NRSfcS": 7721,
      "hpgqfbtt": 7722,
      "##eyfj": 7723,
      "pcgy##": 7724,
      "QE": 7725,
      "jzmojoogqr": 7726,
      "##qdadtnv": 7727,
      "bmdeqfjc##": 7728,
      "PvVXc": 7729,
      "widpa": 7730,
      "##hntbudn": 7731,
      "leilon##": 7732,
      "7RJ": 7733,
      "rafu": 7734,
      "##guutep": 7735,
      "xyjjvmv##": 7736,
      "SZyYr": 7737,
      "ukv": 7738,
      "##idumi": 7739,
      "sdfselxx##": 7740,
      "It": 22617,
      "zqscsi": 7742,
      "##issfxncr": 7743,
      "helut##": 7744,
      "Ux9": 7745,
      "clwwfmb": 7746,
      "##wbnptmd": 7747,
      "ijxllxvk##": 7748,
      "pPvg7": 7749,
      "qjkjoen": 7750,
      "##ziwfwc": 7751,
      "shal##": 7752,
      "Ti": 7753,
      "veklfbsbq": 7754,
      "##mecq": 46711,
      "ovrzxoqb##": 7756,
      "8SkYb": 7757,
      "uga": 7758,
      "##elhhc": 7759,
      "nq##": 7760,
      "fi43vu": 7761,
      "qbwxbxxssa": 7762,
      "##frmko": 7763,
      "ejrwixnu##": 7764,
      "sdvn": 7765,
      "bwpy": 7766,
      "##dwysfrto": 7767,
      "ffwpzeta##": 7768,
      "k2": 7769,
      "tolywtf": 7770,
      "##fsi": 7771,
      "kwt##": 7772,
      "rZ967A": 7773,
      "unuofydj": 7774,
      "##rpvjxn": 7775,
      "Xg": 7777,
      "elelif": 7778,
      "##hj": 47879,
      "xekj##": 7780,
      "rjv": 7781,
      "zvueotprub": 7782,
      "##kcttd": 7783,
      "oecbuyp##": 7784,
      "t19fC": 7785,
      "blgyz": 7786,
      "##anp": 7787,
      "tiKo": 7789,
      "xfmja": 7790,
      "##tih": 7791,
      "etndlnv##": 7792,
      "jwXg5": 7793,
      "lvgkagkisv": 7794,
      "##xiglytu": 7795,
      "ykuwwmyw##": 7796,
      "RCN": 7797,
      "hacitjg": 7798,
      "##ustuodka": 7799,
      "uzywogec##": 7800,
      "Zzc86T": 7801,
      "fyuqcxtwz": 7802,
      "##kpm": 7803,
      "jnokmbzg##": 7804,
      "Kqi": 7805,
      "picrbckgwj": 7806,
      "##bryegn": 7807,
      "sjmytzhp##": 7808,
      "nA6L": 7809,
      "ejtpbfxxk": 7810,
      "##mkv": 7811,
      "tnvpmqcf##": 7812,
      "L4I": 7813,
      "whmqwv": 7814,
      "##bst": 7815,
      "fiulaa##": 7816,
      "Wg": 7817,
      "jsyhpnis": 7818,
      "##jurc": 7819,
      "oylrray##": 7820,
      "MA9V": 7821,
      "iyhyuugiro": 7822,
      "##khtwxrz": 7823,
      "rxhnmspg##": 7824,
      "vm0AtY": 7825,
      "spens": 7826,
      "onfde##": 7828,
      "rbiolv": 7830,
      "##diml": 7831,
      "nftsacuf##": 7832,
      "xevBb": 7833,
      "zxx": 7834,
      "##qozgggqy": 7835,
      "egvhalhi##": 7836,
      "KQYp": 7837,
      "xeuaulw": 7838,
      "##jjtjjajf": 7839,
      "yo##": 34948,
      "ZEbl": 7841,
      "vle": 7842,
      "##mvpyljn": 7843,
      "mj##": 25084,
      "leW": 7845,
      "wptvubqzgh": 7846,
      "##ncwfxoq": 7847,
      "jicpxz##": 7848,
      "Qxs": 7849,
      "dvueicq": 7850,
      "##peiroxy": 7851,
      "yvdzsqw##": 7852,
      "Pu13xG": 7853,
      "yylw": 7854,
      "##kunnjp": 7855,
      "tzpsf##": 7856,
      "HrJF": 7857,
      "rqrolvsyjk": 7858,
      "gWsvG2": 7861,
      "txw": 7862,
      "##shms": 7863,
      "ns##": 43668,
      "dU13": 7865,
      "ykrulyei": 7866,
      "fk##": 47148,
      "564YiB": 7869,
      "usoghjw": 7870,
      "##synojte": 7871,
      "dqs##": 7872,
      "qaqlR": 7873,
      "pqs": 7874,
      "##wciauhb": 7875,
      "irr##": 7876,
      "bWV": 7877,
      "kosgkdxrf": 7878,
      "##fko": 7879,
      "naew##": 7880,
      "EVFc": 7881,
      "imvfwsn": 7882,
      "##mgnz": 7883,
      "xbelnr##": 7884,
      "FQtMR": 7885,
      "abtmhfng": 7886,
      "##erk": 7887,
      "jdl##": 7888,
      "zZLmfF": 7889,
      "mwjxahgpq": 7890,
      "##kby": 7891,
      "pqdvyqf##": 7892,
      "xlk": 7893,
      "zppfjl": 7894,
      "##iobswbst": 7895,
      "zlsh##": 7896,
      "FpGtX": 7897,
      "lxd": 7898,
      "roykam##": 7900,
      "bh7": 7901,
      "ceof": 7902,
      "##guyuaknc": 7903,
      "rh##": 45788,
      "hng7": 7905,
      "iusxbetv": 7906,
      "##wipq": 7907,
      "gmmzr##": 7908,
      "cy73Q": 7909,
      "rygfxrd": 7910,
      "##ixbkiddf": 7911,
      "wvri##": 7912,
      "iR": 23997,
      "brclqlmo": 7914,
      "##qd": 36599,
      "zvihiy##": 7916,
      "SX": 7917,
      "hqf": 7918,
      "##xahbe": 7919,
      "wf##": 7920,
      "za": 23741,
      "dvgky": 7922,
      "##klm": 7923,
      "uuuyv": 7926,
      "##zjbz": 7927,
      "frzgju##": 7928,
      "Jy": 49429,
      "hthtqv": 7930,
      "##ekgaeht": 7931,
      "bd##": 39676,
      "bCmgiC": 7933,
      "foydopa": 7934,
      "##tswa": 7935,
      "wxpnvdms##": 7936,
      "Hmk": 7937,
      "voyzwxqg": 7938,
      "##uwnkrw": 7939,
      "chc##": 7940,
      "nPw": 7941,
      "hqekvxmn": 7942,
      "##mpdu": 7943,
      "baoi##": 7944,
      "UGzPEJ": 7945,
      "hbjtxrmwqq": 7946,
      "##dyow": 7947,
      "nhvhx##": 7948,
      "jl1": 7949,
      "hsssgrkt": 7950,
      "##xsvwola": 7951,
      "meceed##": 7952,
      "4ekjT": 7953,
      "mwqhn": 7954,
      "##qds": 7955,
      "qtlmfg##": 7956,
      "d8TD": 7957,
      "bypscxdk": 7958,
      "##imdsz": 7959,
      "szhts##": 7960,
      "xGjUpP": 7961,
      "onsqmuhx": 7962,
      "##axprl": 7963,
      "bmdazy##": 7964,
      "mBBoMA": 7965,
      "tkmgwv": 7966,
      "##shjjjboz": 7967,
      "cgp##": 7968,
      "a0el": 7969,
      "xlocqwlkgz": 7970,
      "##nnqhgtn": 7971,
      "giwarf##": 7972,
      "Oo": 7973,
      "ktr": 7974,
      "ouwd##": 7976,
      "JMK": 7977,
      "jzciynhpdx": 7978,
      "##iyuzqwy": 7979,
      "ts##": 7980,
      "s5aPg7": 7981,
      "worj": 7982,
      "##knitdyf": 7983,
      "xd##": 48864,
      "mM": 7985,
      "dwb": 7986,
      "##uos": 7987,
      "sztyls##": 7988,
      "A21r5": 7989,
      "kyjf": 7990,
      "##hvpxtrgj": 7991,
      "aizzfz##": 7992,
      "axfocivro": 7994,
      "##fllcmgh": 7995,
      "eebmq##": 7996,
      "Dbe": 7997,
      "drnoxyhzci": 7998,
      "##pzdcnjg": 7999,
      "rdjgxgtc##": 8000,
      "8qXMp": 8001,
      "zeiy": 8002,
      "##zywv": 8003,
      "cetgdee##": 8004,
      "qoDNai": 8005,
      "kvt": 8006,
      "##xlmajkz": 8007,
      "cmgf##": 8008,
      "jS5kip": 8009,
      "lvv": 8010,
      "##xcx": 8011,
      "tqrc##": 8012,
      "f8uuo": 8013,
      "ybqodc": 8014,
      "qae##": 8016,
      "5mUk": 8017,
      "zja": 8018,
      "##ykabkqzw": 8019,
      "ryzbuqvf##": 8020,
      "scfGS": 8021,
      "pglysm": 8022,
      "##zn": 8023,
      "kp##": 45800,
      "gw8fo": 8025,
      "lcmwxbxlj": 8026,
      "##qrbeqs": 8027,
      "hwbgjr##": 8028,
      "OY": 8029,
      "wgts": 8030,
      "##li": 24951,
      "mzvhp##": 8032,
      "9M6X": 8033,
      "iqfk": 8034,
      "##vu": 39875,
      "mlfxy##": 8036,
      "kj2Za": 8037,
      "xotbrzqtp": 8038,
      "##ysjjp": 8039,
      "ebddb##": 8040,
      "x0p00u": 8041,
      "oggg": 8042,
      "##bddvfdll": 8043,
      "jp": 43525,
      "aocsqb": 8046,
      "##tcirn": 8047,
      "jickze##": 8048,
      "A4P": 8049,
      "xgou": 8050,
      "##iogausl": 8051,
      "schmact##": 8052,
      "btogswm": 8054,
      "##dkbpq": 8055,
      "vvx##": 8056,
      "hD": 8057,
      "qornbmmz": 8058,
      "##bxzbw": 8059,
      "wocqkwf##": 8060,
      "wkY": 8061,
      "kcapebi": 8062,
      "##owsycbp": 8063,
      "fpkagnf##": 8064,
      "9Wk": 8065,
      "wku": 8066,
      "##lnowu": 8067,
      "NzU": 8069,
      "gczpafmhdw": 8070,
      "##uw": 47907,
      "pzmr##": 8072,
      "wTcSK": 8073,
      "nbqkwpiook": 8074,
      "##daobftf": 8075,
      "5wtuv": 8077,
      "ejgsl": 8078,
      "##fxq": 8079,
      "PFWrn": 8081,
      "njqoih": 8082,
      "##mgintsmb": 8083,
      "gbviynh##": 8084,
      "wq": 8085,
      "gfeq": 8086,
      "##igfsdd": 8087,
      "ufjsae": 8090,
      "##sdrbuss": 8091,
      "bkvvi##": 8092,
      "FaiG1R": 8093,
      "ijtayz": 8094,
      "##ozsk": 8095,
      "byfhck##": 8096,
      "aAAB": 8097,
      "xobohx": 8098,
      "##jkiue": 8099,
      "iue##": 8100,
      "9fhm": 8101,
      "lhjbiupw": 8102,
      "##wecybnyh": 8103,
      "gzncda##": 8104,
      "cAPLMq": 8105,
      "dnte": 8106,
      "##bcnguz": 8107,
      "ajwws##": 8108,
      "AkDSAE": 8109,
      "ltqewwm": 8110,
      "##smateky": 8111,
      "cfxmfg##": 8112,
      "32sq": 8113,
      "bomvtaaro": 8114,
      "##bti": 8115,
      "tdhbo##": 8116,
      "lYOI": 8117,
      "joubtb": 8118,
      "##vq": 40195,
      "ka##": 28524,
      "9pwSl": 8121,
      "izdl": 8122,
      "##hdo": 8123,
      "xpp##": 8124,
      "ftzcw": 8126,
      "##dji": 8127,
      "synuvtcw##": 8128,
      "xjBDu2": 8129,
      "pxwvknszo": 8130,
      "##fh": 35555,
      "ooscm##": 8132,
      "lRQ": 8133,
      "qtmpartg": 8134,
      "##bot": 8135,
      "iosowm##": 8136,
      "WAWv": 8137,
      "dztziejg": 8138,
      "##aqvgpj": 8139,
      "uuivcn##": 8140,
      "uXRoaY": 8141,
      "vradjjcxl": 8142,
      "##sjjzvl": 8143,
      "hxphx##": 8144,
      "iZII": 8145,
      "rkylrxjsu": 8146,
      "##bnhgjl": 8147,
      "dpuhzzyy##": 8148,
      "4LW": 8149,
      "lpjwxdrzo": 8150,
      "##ekc": 8151,
      "aeioz##": 8152,
      "dw": 14937,
      "yftrqz": 8154,
      "##uy": 29075,
      "bnkaizmp##": 8156,
      "nZd4": 8157,
      "xdkfrvfu": 8158,
      "##ztayih": 8159,
      "la##": 44872,
      "btIX": 8161,
      "tzmrkokvj": 8162,
      "##vxmec": 8163,
      "yvzjxkp##": 8164,
      "Qeo": 8165,
      "wnnaenoq": 8166,
      "##nsyeq": 8167,
      "krnuntx##": 8168,
      "Rxw7Dl": 8169,
      "lcqkx": 8170,
      "##zpkaad": 8171,
      "clvpzoi##": 8172,
      "zVxDy": 8173,
      "jar": 8174,
      "##ocmoouiw": 8175,
      "sjo##": 8176,
      "lkKa": 8177,
      "kgu": 8178,
      "##gcltw": 8179,
      "asn##": 8180,
      "e9": 8181,
      "gdaxrtv": 8182,
      "czbhdg##": 8184,
      "bQ": 8185,
      "qunkcnc": 8186,
      "##zjsiibhs": 8187,
      "ru##": 49120,
      "GK": 13593,
      "bzuflwcd": 8190,
      "##vol": 8191,
      "iabca##": 8192,
      "Y71J": 8193,
      "qblgalglcg": 8194,
      "##sasiydj": 8195,
      "QGpB": 8197,
      "lveuqueiux": 8198,
      "teytz##": 8200,
      "XpIoM": 8201,
      "rfrixlx": 8202,
      "##ez": 34971,
      "qcuscwhg##": 8204,
      "BGt": 8205,
      "vlkezmck": 8206,
      "##tdikzs": 8207,
      "qjfi##": 8208,
      "uMl": 8209,
      "sqgyogk": 8210,
      "##lmaywmt": 8211,
      "aqy##": 8212,
      "Qy0jK6": 8213,
      "idcgmmynn": 8214,
      "##insgyz": 8215,
      "bive##": 8216,
      "6UejWs": 8217,
      "vvcatebudw": 8218,
      "##putml": 8219,
      "nvawf##": 8220,
      "6XE": 8221,
      "ihkzzt": 8222,
      "##eghn": 8223,
      "fddjevv##": 8224,
      "f08AY": 8225,
      "touqopmxx": 8226,
      "##blmcsx": 8227,
      "tjwlihg##": 8228,
      "QXp4": 8229,
      "jqgeq": 8230,
      "##eqbe": 8231,
      "usbt##": 8232,
      "brPv": 8233,
      "gfeghvk": 8234,
      "##uuuz": 8235,
      "nuwsb##": 8236,
      "63ybn": 8237,
      "kpiiyvnnq": 8238,
      "##hvayutbf": 8239,
      "zcqu##": 8240,
      "x6gjK": 8241,
      "orvr": 8242,
      "##wkyrsz": 8243,
      "aleyrmsg##": 8244,
      "CHN": 8245,
      "ihtgk": 8246,
      "##jlntg": 8247,
      "wqpek##": 8248,
      "h0S2G4": 8249,
      "igkudhuaix": 8250,
      "##qtkb": 8251,
      "vfnfdw##": 8252,
      "iczU9q": 8253,
      "psszgdhnlv": 8254,
      "##cthyh": 8255,
      "bnpdgh##": 8256,
      "qvO": 8257,
      "uqhwfel": 8258,
      "##qgqcybrd": 8259,
      "oovytqpd##": 8260,
      "NGYiCy": 8261,
      "ikrihm": 8262,
      "##gjtzkan": 8263,
      "pqsv##": 8264,
      "XIB": 8265,
      "uitbj": 8266,
      "##igtrk": 8267,
      "qavvgn##": 8268,
      "hi": 8269,
      "yulctlgv": 8270,
      "##tclie": 8271,
      "gnfybtfw##": 8272,
      "gah": 8273,
      "fmlrdolx": 8274,
      "##bnaxty": 8275,
      "ebfz##": 8276,
      "6KSL": 8277,
      "mkpe": 8278,
      "psxh##": 8280,
      "Fe2HJm": 8281,
      "mpufvporr": 8282,
      "##rm": 39539,
      "dwldif##": 8284,
      "XDaW2i": 8285,
      "yijoggefng": 8286,
      "##yni": 8287,
      "we##": 48196,
      "V0N": 8289,
      "qaexdelhdu": 8290,
      "gyyiur##": 8292,
      "3nnXz": 8293,
      "okthkt": 8294,
      "##ctvcqekh": 8295,
      "tC": 8297,
      "wrvivbixfu": 8298,
      "##szahkqj": 8299,
      "jfmuzm##": 8300,
      "5Q": 8301,
      "hng": 8302,
      "##iwbnzddr": 8303,
      "tmx##": 8304,
      "RxhX": 8305,
      "fztblv": 8306,
      "nmgaals##": 8308,
      "bniJdj": 8309,
      "otgwonlfow": 8310,
      "##po": 43567,
      "hlgg##": 8312,
      "7xBilz": 8313,
      "npvjfjqhbq": 8314,
      "##vgoy": 8315,
      "vi##": 45860,
      "So": 8317,
      "lfyinu": 8318,
      "##dbpktzq": 8319,
      "hirerhv##": 8320,
      "dkWBw": 8321,
      "mqs": 8322,
      "##kjfw": 8323,
      "RGshk": 8325,
      "tbxu": 8326,
      "##pyawemq": 8327,
      "lflkcj##": 8328,
      "T1I8": 8329,
      "vzlvkipr": 8330,
      "##wdce": 8331,
      "kupvl##": 8332,
      "dIYi9": 8333,
      "bavyupqif": 8334,
      "##fzlrqtmb": 8335,
      "ieruau##": 8336,
      "ebZ": 8337,
      "xibwsodtw": 8338,
      "##izacx": 8339,
      "hivnlum##": 8340,
      "HmJgDd": 8341,
      "##jdrymcoc": 8343,
      "xkoxocs##": 8344,
      "yI": 8345,
      "zatqka": 8346,
      "##dkbimqre": 8347,
      "fqnyla##": 8348,
      "dMX": 8349,
      "rrelj": 8350,
      "##sbxiv": 8351,
      "lxbqchfc##": 8352,
      "Is": 8353,
      "cbktrf": 8354,
      "##jkty": 8355,
      "shs##": 8356,
      "jD2n": 8357,
      "hlbqs": 8358,
      "##qqwcex": 8359,
      "IkU": 8361,
      "zco": 8362,
      "##mmybfxl": 8363,
      "nbtrgpx##": 8364,
      "QS": 8365,
      "vsdhmcfsiy": 8366,
      "##czvb": 8367,
      "bpffxvge##": 8368,
      "Jgw": 8369,
      "ygnds": 8370,
      "##txez": 8371,
      "rfukkflc##": 8372,
      "JWl": 8373,
      "zcyzynql": 8374,
      "##yyja": 8375,
      "pof##": 8376,
      "KNv": 8377,
      "ghx": 8378,
      "utrj##": 8380,
      "uHM": 8381,
      "zeir": 8382,
      "##oatnecs": 8383,
      "ovrtd##": 8384,
      "rPM": 8385,
      "zlih": 8386,
      "##rrdtdiu": 8387,
      "oeslmt##": 8388,
      "Aec6": 8389,
      "ykz": 8390,
      "##ipaws": 8391,
      "dyfmf##": 8392,
      "oP": 8393,
      "mgxfsdkbek": 8394,
      "##smgnjgp": 8395,
      "fus##": 8396,
      "f2": 8397,
      "uqvllyxlsc": 8398,
      "##ifsczez": 8399,
      "mxs##": 8400,
      "VSiJlc": 8401,
      "gsvrkcz": 8402,
      "##gqlnlpgf": 8403,
      "zhcl##": 8404,
      "n6gp": 8405,
      "rywyvoyrw": 8406,
      "##ny": 31811,
      "cyp##": 8408,
      "5pjXQU": 8409,
      "rpnkieyi": 8410,
      "##qhulgp": 8411,
      "addrmlq##": 8412,
      "AJoBz": 8413,
      "gruudyies": 8414,
      "##caj": 8415,
      "bftakf##": 8416,
      "tYQ6": 8417,
      "quxv": 8418,
      "##uwdsxdh": 8419,
      "yocqg##": 8420,
      "iW02h": 8421,
      "sagpssiez": 8422,
      "##xzfplyv": 8423,
      "ulhri##": 8424,
      "IH": 8425,
      "mlmwb": 8426,
      "##clsbmaf": 8427,
      "jvkd##": 8428,
      "SxLk7": 8429,
      "dkojuggmgc": 8430,
      "qewx##": 8432,
      "iXfk": 8433,
      "oiocaasskd": 8434,
      "##zjkaxkpr": 8435,
      "lnexqkea##": 8436,
      "aEbh": 8437,
      "mybyr": 8438,
      "##ts": 8439,
      "gtl##": 8440,
      "RdWlv": 8441,
      "hspvagfi": 8442,
      "##dzc": 33243,
      "kaim##": 8444,
      "RukN": 8445,
      "dmxm": 8446,
      "##zx": 8447,
      "usxl##": 8448,
      "L1eH": 8449,
      "lzxa": 8450,
      "##uokjxn": 8451,
      "ebqzg##": 8452,
      "aEc6": 8453,
      "exxmm": 8454,
      "##vy": 8455,
      "eelprh##": 8456,
      "tOxGz": 8457,
      "justaryln": 8458,
      "##ykvymrx": 8459,
      "uugle##": 8460,
      "SY49d": 8461,
      "dbyd": 8462,
      "##sdqqvkwp": 8463,
      "xx##": 46400,
      "SAg": 8465,
      "zngc": 8466,
      "##txqblcig": 8467,
      "htvhvl##": 8468,
      "llt": 8469,
      "nxjq": 8470,
      "##ixvitnk": 8471,
      "mwr##": 8472,
      "A0p": 8473,
      "eblfahi": 8474,
      "##tuucohc": 8475,
      "pw##": 48892,
      "EMXD1D": 8477,
      "syemw": 8478,
      "##la": 48627,
      "ce##": 28876,
      "sMBYK": 8481,
      "ymlonmnhif": 8482,
      "##zieul": 8483,
      "toiqhftz##": 8484,
      "JFxQJ": 8485,
      "wmd": 8486,
      "##zdmnbr": 8487,
      "hbzfnlf##": 8488,
      "oujs": 8490,
      "##ql": 35263,
      "psfahxz##": 8492,
      "86hLp": 8493,
      "whim": 8494,
      "##qjr": 8495,
      "mnqw##": 8496,
      "fILuQW": 8497,
      "sswr": 8498,
      "##ruernv": 8499,
      "blaxb##": 8500,
      "ulS1": 8501,
      "qkpttqwl": 8502,
      "##cduexwe": 8503,
      "kjzls##": 8504,
      "Mg": 8505,
      "qrohvdibkn": 8506,
      "##oaf": 33859,
      "tztmghb##": 8508,
      "3Ft": 8509,
      "zsrewm": 8510,
      "##dqkkh": 8511,
      "cvgmru##": 8512,
      "09": 30665,
      "pvwyvwpnes": 8514,
      "##tjhit": 8515,
      "mxcad##": 8516,
      "NO7": 8517,
      "avmfcukpbn": 8518,
      "##fawecvi": 8519,
      "ogiknuny##": 8520,
      "qX2D": 8521,
      "wkwhu": 8522,
      "##olyjvfvm": 8523,
      "mkgjgml##": 8524,
      "LXy": 8525,
      "hygvkylyf": 8526,
      "##oneumb": 8527,
      "slpfo##": 8528,
      "uev1uf": 8529,
      "pbfekppz": 8530,
      "##xin": 8531,
      "iucv##": 8532,
      "seblf": 8533,
      "fwaohj": 8534,
      "##tyboawa": 8535,
      "bnnn##": 8536,
      "BTS6": 8537,
      "fzp": 8538,
      "##yvwf": 8539,
      "ihywag##": 8540,
      "a8Q8": 8541,
      "xqp": 8542,
      "##fryauxm": 8543,
      "ysfdi##": 8544,
      "gE": 8545,
      "nqkoa": 8546,
      "##jbi": 8547,
      "ncs##": 8548,
      "nh": 8549,
      "aiqxmseitc": 8550,
      "##wpk": 8551,
      "ihqlp##": 8552,
      "yWtXyc": 8553,
      "dojd": 8554,
      "##yt": 45631,
      "uawx##": 8556,
      "E9": 20097,
      "ljxjmcsv": 8558,
      "##obsevz": 8559,
      "iqvaoa##": 8560,
      "oxov": 8561,
      "zpci": 8562,
      "fxf##": 8564,
      "9Rkf": 8565,
      "gsfmeygbjq": 8566,
      "##jsnbhhv": 8567,
      "uggxdocf##": 8568,
      "tkcsb": 8570,
      "##dmupyi": 8571,
      "rpmaaa##": 8572,
      "xMCCr1": 8573,
      "slfxf": 8574,
      "##lay": 8575,
      "euvlv##": 8576,
      "QjgW": 8577,
      "xftui": 8578,
      "##pzdxqy": 8579,
      "ikybg##": 8580,
      "xsE6r": 8581,
      "lnibvikc": 8582,
      "##eps": 8583,
      "kvo##": 8584,
      "SlifUq": 8585,
      "pgsukx": 8586,
      "wvqp##": 8588,
      "5Tj1": 8589,
      "wjy": 8590,
      "##skzzhjm": 8591,
      "momzlaqv##": 8592,
      "Yq8Ylg": 8593,
      "riiz": 8594,
      "##xwgayplz": 8595,
      "rwcxlym##": 8596,
      "uS": 8597,
      "lsxvo": 8598,
      "##zycw": 8599,
      "SucmbX": 8601,
      "aui": 8602,
      "##wocv": 8603,
      "vin##": 8604,
      "BacHOW": 8605,
      "kjlvkg": 8606,
      "##clh": 8607,
      "pha##": 8608,
      "cghn4x": 8609,
      "ergej": 8610,
      "##cibip": 8611,
      "lxn##": 8612,
      "Rc6SR8": 8613,
      "sdph": 8614,
      "##lqrgpi": 8615,
      "umbiz##": 8616,
      "679J": 8617,
      "fdgqcki": 8618,
      "##xrpl": 8619,
      "kdue##": 8620,
      "cFGMi": 8621,
      "rirydxe": 8622,
      "##ok": 22091,
      "yxnbxv##": 8624,
      "tf": 8625,
      "cqrcfqtv": 8626,
      "##geol": 8627,
      "ktnwo##": 8628,
      "dAX8y": 8629,
      "trvbales": 8630,
      "##ttwotnz": 8631,
      "tzu##": 8632,
      "XvZSny": 8633,
      "ptfazb": 8634,
      "##cqhohbi": 8635,
      "byeqdlw##": 8636,
      "aa": 8637,
      "yybicwmia": 8638,
      "##xyv": 8639,
      "jyspuntw##": 8640,
      "KHGh2Q": 8641,
      "kbtnjuf": 8642,
      "##vxex": 8643,
      "humqdt##": 8644,
      "HHYbIz": 8645,
      "nwuqwl": 8646,
      "ysvo##": 8648,
      "M1": 48305,
      "ftioul": 8650,
      "##laz": 8651,
      "iwpk##": 8652,
      "A9D": 8653,
      "mxbvbkk": 8654,
      "##xlr": 30419,
      "uzdrrefs##": 8656,
      "ifun": 8658,
      "##xsvalo": 8659,
      "ongabi##": 8660,
      "Gi0": 8661,
      "kojma": 8662,
      "##fnt": 8663,
      "ggwgea##": 8664,
      "qIvl": 8665,
      "jddsksdgo": 8666,
      "##feowx": 8667,
      "tpcb##": 8668,
      "CXs5": 8669,
      "iihejwtv": 8670,
      "##cbqwpdb": 8671,
      "hir##": 8672,
      "qjZ1q5": 8673,
      "umhmt": 8674,
      "##qprgh": 8675,
      "ckd##": 8676,
      "lhlsfW": 8677,
      "asqq": 8678,
      "##fqatcqdt": 8679,
      "uizhe##": 8680,
      "waqv": 8681,
      "mssuywbber": 8682,
      "##ib": 36067,
      "yuawi##": 8684,
      "YQ": 36557,
      "jhn": 38970,
      "##zzan": 8687,
      "tyapds##": 8688,
      "ORDw": 8689,
      "cjvcrfuy": 8690,
      "##dgmaivvs": 8691,
      "edka##": 8692,
      "NJ5Is": 8693,
      "ccznmaag": 8694,
      "##bij": 8695,
      "sytmp##": 8696,
      "L8oLM": 8697,
      "vzqlxaf": 8698,
      "##cnqmoj": 8699,
      "c8ZTJ": 8701,
      "dym": 8702,
      "##ze": 25479,
      "tmtx##": 8704,
      "vXcf6U": 8705,
      "gkqeopnsd": 8706,
      "ugnissyb##": 8708,
      "h4yTd": 8709,
      "ilgre": 8710,
      "##amoc": 8711,
      "iuatv##": 8712,
      "rV": 31821,
      "gifvt": 8714,
      "##xsaz": 8715,
      "avmyial##": 8716,
      "mjG": 8717,
      "uvl": 8718,
      "##leniu": 8719,
      "gb##": 45060,
      "qE": 44841,
      "zcrfcpixgq": 8722,
      "##jfmlhogl": 8723,
      "uwohymh##": 8724,
      "Gt": 20777,
      "cpn": 8726,
      "##kdikuqd": 8727,
      "minlxoyp##": 8728,
      "TjOhZF": 8729,
      "jxu": 8730,
      "##tjbzmh": 8731,
      "vkxpra##": 8732,
      "j3": 16313,
      "kocb": 8734,
      "aanxdgb##": 8736,
      "Hc3B": 8737,
      "rjjhar": 8738,
      "##olxfx": 8739,
      "xbsdd##": 8740,
      "8ny2n": 8741,
      "gysva": 8742,
      "##fiy": 8743,
      "lizves##": 8744,
      "SK": 8745,
      "jdf": 8746,
      "##wlol": 8747,
      "wfr##": 8748,
      "m7Usl": 8749,
      "yonodh": 8750,
      "##lhvz": 8751,
      "svx##": 26388,
      "3Q9": 8753,
      "rmrq": 8754,
      "##gm": 24435,
      "ver##": 8756,
      "oDmh": 8757,
      "xbqczqv": 8758,
      "##iwlvs": 8759,
      "ytmoyzi##": 8760,
      "Gw69a": 8761,
      "uhmnhlajw": 8762,
      "##dmgnvpg": 8763,
      "avoudzq##": 8764,
      "zN": 41449,
      "meuwzzlia": 8766,
      "##hid": 8767,
      "mpj##": 8768,
      "Fr": 8769,
      "sjecnvm": 8770,
      "##gpgzra": 8771,
      "fxhcjsss##": 8772,
      "Vhj": 8773,
      "kkq": 8774,
      "##eix": 8775,
      "pdssqig##": 8776,
      "dXCNv": 8777,
      "duhz": 8778,
      "##qxiulv": 8779,
      "siamy##": 8780,
      "T7Y": 8781,
      "pbygh": 8782,
      "##nd": 37143,
      "zxkkeih##": 8784,
      "K0nHII": 8785,
      "ulohyj": 8786,
      "##bnbgoe": 8787,
      "cot##": 8788,
      "AXk2": 8789,
      "arsboanals": 8790,
      "##rjxzxfan": 8791,
      "nufgm##": 8792,
      "IqTdT3": 8793,
      "ukoulabzrx": 8794,
      "##qakza": 8795,
      "pcxse##": 8796,
      "PHVAw": 8797,
      "vhgcx": 8798,
      "##ef": 49859,
      "umz##": 8800,
      "sCt": 8801,
      "vgjdcl": 8802,
      "##mtqcvmj": 8803,
      "cihv##": 8804,
      "aKpVd": 8805,
      "uynxug": 8806,
      "##ofqs": 8807,
      "rxolcuu##": 8808,
      "3qj": 8809,
      "weyefsmlx": 8810,
      "##pdonxgu": 8811,
      "hzzdgpkt##": 8812,
      "ZbMqd": 8813,
      "irs": 8814,
      "##oyotj": 8815,
      "zhtmqx##": 8816,
      "8q7": 8817,
      "ibywfoqht": 8818,
      "##xm": 39095,
      "wlwcapty##": 8820,
      "AK": 8821,
      "jvjjhkdz": 8822,
      "##uskghy": 8823,
      "aat##": 19084,
      "O63tI1": 8825,
      "xulpfxfubq": 8826,
      "##skjqvf": 8827,
      "pYl2l": 8829,
      "lbl": 8830,
      "##swgiriiw": 8831,
      "vkyretw##": 8832,
      "pMR8i": 8833,
      "uetzjjwure": 8834,
      "##dpkqwiv": 8835,
      "zrzod##": 8836,
      "tM0JV": 8837,
      "ebumsbdd": 8838,
      "##cgdmknu": 8839,
      "jqhtsa##": 8840,
      "RP5": 8841,
      "ervd": 8842,
      "##kblizk": 8843,
      "qgq##": 8844,
      "efIohV": 8845,
      "gpllfpnbp": 8846,
      "##ux": 37487,
      "jjxe##": 8848,
      "TgEw": 8849,
      "wvwafo": 8850,
      "##kjaxyihy": 8851,
      "ofca##": 8852,
      "9KK": 8853,
      "yjwtjaxev": 8854,
      "##myhamxi": 8855,
      "thln##": 8856,
      "sIJYK": 8857,
      "xopjpsvd": 8858,
      "##ghey": 8859,
      "hwycyyg##": 8860,
      "vHX3": 8861,
      "jorrg": 8862,
      "##gtsa": 8863,
      "ifqiakop##": 8864,
      "sX63": 8865,
      "vsly": 8866,
      "##faji": 8867,
      "wtugjs##": 8868,
      "sSe": 8869,
      "xuhkk": 8870,
      "##zft": 8871,
      "plmv##": 8872,
      "xT": 36585,
      "rkb": 8874,
      "##ncbxho": 8875,
      "bhafkgw##": 8876,
      "9USI": 8877,
      "rtfds": 8878,
      "##njqrv": 8879,
      "2myF": 8881,
      "etjuyscs": 8882,
      "##qnz": 8883,
      "jccmb##": 8884,
      "QuP0O": 8885,
      "ttmki": 8886,
      "haj##": 8888,
      "yyCcu9": 8889,
      "slapfr": 8890,
      "##od": 8891,
      "mytzoi##": 8892,
      "2L": 8893,
      "ywpyclk": 8894,
      "##hbzb": 8895,
      "objs##": 8896,
      "0qPn": 8897,
      "jijlmxqbcm": 8898,
      "##uhc": 8899,
      "xon##": 8900,
      "Q26Y": 8901,
      "buxrgawqsr": 8902,
      "##zivlav": 8903,
      "pnkzdgs##": 8904,
      "OC": 8905,
      "xfdc": 8906,
      "##eaex": 8907,
      "vjfpncgp##": 8908,
      "JTq": 8909,
      "vfpdm": 8910,
      "##nakt": 8911,
      "llxk##": 8912,
      "SG": 15797,
      "ikgzacm": 8914,
      "##ibnex": 8915,
      "ytr##": 8916,
      "isQ74": 8917,
      "padddqn": 8918,
      "##qoa": 8919,
      "xqkcry##": 8920,
      "cerV": 8921,
      "vowosotic": 8922,
      "eqezggjk##": 8924,
      "9K9U": 8925,
      "zzkkfhlmk": 8926,
      "##tl": 10579,
      "eumm##": 8928,
      "tl1": 8929,
      "hkj": 8930,
      "##syylgusk": 8931,
      "gwabmdg##": 8932,
      "hy": 8933,
      "gusy": 8934,
      "##lqrq": 8935,
      "ocnfn##": 8936,
      "5u08Yo": 8937,
      "byxf": 8938,
      "##aew": 8939,
      "soyosy##": 8940,
      "WyuS": 8941,
      "gfufgvdwvs": 8942,
      "##zsd": 8943,
      "cwhepjjc##": 8944,
      "WRmif": 8945,
      "uejqdutg": 8946,
      "##hkem": 8947,
      "ad##": 33400,
      "C4Pzw": 8949,
      "faybqwujjw": 8950,
      "##yd": 44011,
      "qdfqyjv##": 8952,
      "ekhpmL": 8953,
      "wrewsxqt": 8954,
      "##fi": 46251,
      "wll##": 8956,
      "tkpaWj": 8957,
      "yft": 8958,
      "##qrvy": 8959,
      "pnkszsze##": 8960,
      "TSkEt": 8961,
      "exoeqr": 8962,
      "##yrfxpgh": 8963,
      "otndub##": 8964,
      "KcCYpP": 8965,
      "tne": 8966,
      "##xiliwwq": 8967,
      "mjv##": 8968,
      "jI": 8969,
      "oemrepblq": 8970,
      "##fl": 34483,
      "rrkl##": 8972,
      "SYfs": 8973,
      "nkpthnyuhy": 8974,
      "##df": 38631,
      "zs##": 40860,
      "hjnzn": 8977,
      "eaklgd": 8978,
      "##ganjarnk": 8979,
      "dpfczt##": 8980,
      "7S": 8981,
      "rtju": 8982,
      "##zil": 8983,
      "kpuj##": 8984,
      "vwoTFl": 8985,
      "vex": 8986,
      "##igczj": 8987,
      "pnvsof##": 8988,
      "edAm": 8989,
      "ulwyskcimk": 8990,
      "##fjicixuh": 8991,
      "dke##": 8992,
      "uBf7u": 8993,
      "lozxxthge": 8994,
      "##vvu": 20767,
      "gk##": 23752,
      "Jp6OcH": 8997,
      "dlep": 8998,
      "##nqusmbk": 8999,
      "jwa##": 33176,
      "TvFZoN": 9001,
      "fgboov": 9002,
      "##bxscwdg": 9003,
      "zvvdfcvn##": 9004,
      "aUH6P": 9005,
      "eipqqy": 9006,
      "##wbjxuv": 9007,
      "nuslsakf##": 9008,
      "cUX": 9009,
      "oglbhxdwf": 9010,
      "##qiva": 9011,
      "vhhgsvk##": 9012,
      "XzO": 9013,
      "pae": 9014,
      "##zgb": 9015,
      "dmvlkjb##": 9016,
      "AB": 9017,
      "yphbfxap": 9018,
      "##jdc": 9019,
      "xex##": 9020,
      "upQtwR": 9021,
      "pbrfwpaba": 9022,
      "##ysple": 9023,
      "vg##": 9816,
      "CJjrZo": 9025,
      "wzmzrwgrbf": 9026,
      "tz##": 9028,
      "4Y": 49697,
      "oqs": 9030,
      "##ug": 46107,
      "jywr##": 9032,
      "BCmT0G": 9033,
      "lahrbr": 9034,
      "##wijebrer": 9035,
      "obdu##": 9036,
      "avaqg": 9038,
      "vjzw##": 9040,
      "Ut": 9041,
      "masofrev": 9042,
      "##lpsr": 9043,
      "ear##": 9044,
      "OnTS0": 9045,
      "ulhncoe": 9046,
      "##cwb": 9047,
      "xalwcnmy##": 9048,
      "PS": 9049,
      "gcic": 9050,
      "##zdiaw": 9051,
      "ljaul##": 9052,
      "R1sI": 9053,
      "eaweh": 9054,
      "##rxcltj": 9055,
      "LiQESy": 9057,
      "fzjm": 9058,
      "##xcosj": 9059,
      "bhuebytm##": 9060,
      "zua1": 9061,
      "ahbanst": 9062,
      "##lrodfizj": 9063,
      "iivcjxo##": 9064,
      "dZyEnj": 9065,
      "invowqr": 9066,
      "##eqcb": 9067,
      "vSsK1": 9069,
      "vbrubni": 9070,
      "##zjih": 9071,
      "fnmjwnt##": 9072,
      "YAlUFg": 9073,
      "vlgoeecnyf": 9074,
      "##afxz": 9075,
      "wretv##": 9076,
      "cxd2": 9077,
      "kuq": 9078,
      "##kqfevf": 9079,
      "lvglaqo##": 9080,
      "hIh": 9081,
      "pxddcnp": 9082,
      "hqvag##": 9084,
      "Y34gT": 9085,
      "pxazkpgs": 9086,
      "##qkkwt": 9087,
      "oohlzp##": 9088,
      "iu": 17149,
      "iwu": 9090,
      "##jrqi": 9091,
      "klg##": 9092,
      "jUuOSC": 9093,
      "vci": 9094,
      "##eia": 9095,
      "vaqpspe##": 9096,
      "NhD": 9097,
      "qmedoc": 9098,
      "##vxnsylq": 9099,
      "emsqb##": 9100,
      "6d4YcX": 9101,
      "eyoopwcvnn": 9102,
      "##mivehwmh": 9103,
      "nmnrvlrz##": 9104,
      "CayVZ": 9105,
      "vpiofjyrx": 9106,
      "##kutwrk": 9107,
      "pdtntomh##": 9108,
      "UeGdH": 9109,
      "xptt": 9110,
      "##wzp": 9111,
      "uswl##": 9112,
      "W7VzQy": 9113,
      "adlojgco": 9114,
      "##ijgwz": 9115,
      "udj##": 9116,
      "ji": 47961,
      "tvw": 9118,
      "##auv": 9119,
      "qnk##": 9120,
      "kTd5": 9121,
      "snu": 9122,
      "##fjbsz": 9123,
      "kqqlyuk##": 9124,
      "YpOe": 9125,
      "ptzpft": 9126,
      "##updsn": 9127,
      "usuvn##": 9128,
      "6gUgPP": 9129,
      "ozymxft": 9130,
      "##kucxedkn": 9131,
      "hszcj##": 9132,
      "EmFV": 9133,
      "hqps": 9134,
      "xvugvq##": 9136,
      "ObkjMU": 9137,
      "jiynx": 9138,
      "##hfycoa": 9139,
      "urqicwbg##": 9140,
      "4W": 9141,
      "gwscqlhn": 9142,
      "##pmvawx": 9143,
      "ra##": 30800,
      "U9Uh": 9145,
      "trioynz": 9146,
      "##rrdmpcz": 9147,
      "gvcw##": 9148,
      "AZg3F": 9149,
      "gvugk": 9150,
      "##nyqutl": 9151,
      "nlww##": 9152,
      "apQcd": 9153,
      "jytdr": 9154,
      "##ermjnc": 9155,
      "ddjjtkk##": 9156,
      "hGHeN": 9157,
      "gczwjiyilu": 9158,
      "##xdzd": 9159,
[...]
