{
  "version": "1.0",
  "truncation": null,
  "padding": null,
  "added_tokens": [
    {
      "id": 0,
      "content": "[PAD]",
      "single_word": false,
      "lstrip": false,
      "rstrip": false,
      "normalized": false,
      "special": true
    },
    {
      "id": 1,
      "content": "[UNK]",
      "single_word": false,
      "lstrip": false,
      "rstrip": false,
      "normalized": false,
      "special": true
    },
    {
      "id": 2,
      "content": "[BOS]",
      "single_word": false,
      "lstrip": false,
      "rstrip": false,
      "normalized": false,
      "special": true
    },
    {
      "id": 3,
      "content": "[EOS]",
      "single_word": false,
      "lstrip": false,
      "rstrip": false,
      "normalized": false,
      "special": true
    },
    {
      "id": 4,
      "content": "[SEP]",
      "single_word": false,
      "lstrip": false,
      "rstrip": false,
      "normalized": false,
      "special": true
    },
    {
      "id": 5,
      "content": "[CLS]",
      "single_word": false,
      "lstrip": false,
      "rstrip": false,
      "normalized": false,
      "special": true
    },
    {
      "id": 6,
      "content": "[MASK]",
      "single_word": false,
      "lstrip": false,
      "rstrip": false,
      "normalized": false,
      "special": true
    }
  ],
  "normalizer": null,
  "pre_tokenizer": {
    "type": "Whitespace"
  },
  "post_processor": null,
  "decoder": null,
  "model": {
    "type": "BPE",
    "dropout": null,
    "unk_token": "[UNK]",
    "continuing_subword_prefix": null,
    "end_of_word_suffix": null,
    "fuse_unk": false,
    "byte_fallback": false,
    "ignore_merges": false,
    "vocab": {
      "[PAD]": 0,
      "[UNK]": 1,
      "[BOS]": 2,
      "[EOS]": 3,
      "[SEP]": 4,
      "[CLS]": 5,
      "[MASK]": 6,
      "!": 7,
      "\"": 8,
      "#": 9,
      "$": 10,
      "%": 11,
      "&": 12,
      "'": 13,
      "(": 14,
      ")": 15,
      "*": 16,
      "+": 17,
      ",": 18,
      "-": 19,
      ".": 20,
      "/": 21,
      "0": 22,
      "1": 23,
      "2": 24,
      "3": 25,
      "4": 26,
      "5": 27,
      "6": 28,
      "7": 29,
      "8": 30,
      "9": 31,
      ":": 32,
      ";": 33,
      "<": 34,
      "=": 35,
      ">": 36,
      "?": 37,
      "@": 38,
      "A": 39,
      "B": 40,
      "C": 41,
      "D": 42,
      "E": 43,
      "F": 44,
      "G": 45,
      "H": 46,
      "I": 47,
      "J": 48,
      "K": 49,
      "L": 50,
      "M": 51,
      "N": 52,
      "O": 53,
      "P": 54,
      "Q": 55,
      "R": 56,
      "S": 57,
      "T": 58,
      "U": 59,
      "V": 60,
      "W": 61,
      "X": 62,
      "Y": 63,
      "Z": 64,
      "[": 65,
      "\\": 66,
      "]": 67,
      "^": 68,
      "_": 69,
      "`": 70,
      "a": 71,
      "b": 72,
      "c": 73,
      "d": 74,
      "e": 75,
      "f": 76,
      "g": 77,
      "h": 78,
      "i": 79,
      "j": 80,
      "k": 81,
      "l": 82,
      "m": 83,
      "n": 84,
      "o": 85,
      "p": 86,
      "q": 87,
      "r": 88,
      "s": 89,
      "t": 90,
      "u": 91,
      "v": 92,
      "w": 93,
      "x": 94,
      "y": 95,
      "z": 96,
      "{": 97,
      "|": 98,
      "}": 99,
      "~": 100,
      "": 101,
      "": 102,
      "¡": 103,
      "¢": 104,
      "£": 105,
      "¤": 106,
      "¥": 107,
      "¦": 108,
      "§": 109,
      "¨": 110,
      "©": 111,
      "ª": 112,
      "«": 113,
      "¬": 114,
      "­": 115,
      "®": 116,
      "¯": 117,
      "°": 118,
      "±": 119,
      "²": 120,
      "³": 121,
      "´": 122,
      "µ": 123,
      "¶": 124,
      "·": 125,
      "¸": 126,
      "¹": 127,
      "º": 128,
      "»": 129,
      "¼": 130,
      "½": 131,
      "¾": 132,
      "¿": 133,
      "À": 134,
      "Á": 135,
      "Â": 136,
      "Ã": 137,
      "Ä": 138,
      "Å": 139,
      "Æ": 140,
      "Ç": 141,
      "È": 142,
      "É": 143,
      "Ê": 144,
      "Ë": 145,
      "Ì": 146,
      "Í": 147,
      "Î": 148,
      "Ï": 149,
      "Ð": 150,
      "Ñ": 151,
      "Ò": 152,
      "Ó": 153,
      "Ô": 154,
      "Õ": 155,
      "Ö": 156,
      "×": 157,
      "Ø": 158,
      "Ù": 159,
      "Ú": 160,
      "Û": 161,
      "Ü": 162,
      "Ý": 163,
      "Þ": 164,
      "ß": 165,
      "à": 166,
      "á": 167,
      "â": 168,
      "ã": 169,
      "ä": 170,
      "å": 171,
      "æ": 172,
      "ç": 173,
      "è": 174,
      "é": 175,
      "ê": 176,
      "ë": 177,
      "ì": 178,
      "í": 179,
      "î": 180,
      "ï": 181,
      "ð": 182,
      "ñ": 183,
      "ò": 184,
      "ó": 185,
      "ô": 186,
      "õ": 187,
      "ö": 188,
      "÷": 189,
      "ø": 190,
      "ù": 191,
      "ú": 192,
      "û": 193,
      "ü": 194,
      "ý": 195,
      "þ": 196,
      "ÿ": 197,
      "Ā": 198,
      "ā": 199,
      "Ă": 200,
      "ă": 201,
      "Ą": 202,
      "ą": 203,
      "Ć": 204,
      "ć": 205,
      "Ĉ": 206,
      "ĉ": 207,
      "Ċ": 208,
      "ċ": 209,
      "Č": 210,
      "č": 211,
      "Ď": 212,
      "ď": 213,
      "Đ": 214,
      "đ": 215,
      "Ē": 216,
      "ē": 217,
      "Ĕ": 218,
      "ĕ": 219,
      "Ė": 220,
      "ė": 221,
      "Ę": 222,
      "ę": 223,
      "Ě": 224,
      "ě": 225,
      "Ĝ": 226,
      "ĝ": 227,
      "Ğ": 228,
      "ğ": 229,
      "Ġ": 230,
      "ġ": 231,
      "Ģ": 232,
      "ģ": 233,
      "Ĥ": 234,
      "ĥ": 235,
      "Ħ": 236,
      "ħ": 237,
      "Ĩ": 238,
      "ĩ": 239,
      "Ī": 240,
      "ī": 241,
      "Ĭ": 242,
      "ĭ": 243,
      "Į": 244,
      "į": 245,
      "İ": 246,
      "ı": 247,
      "Ĳ": 248,
      "ĳ": 249,
      "Ĵ": 250,
      "ĵ": 251,
      "Ķ": 252,
      "ķ": 253,
      "Ĺ": 254,
      "ĺ": 255,
      "Ļ": 256,
      "ļ": 257,
      "Ľ": 258,
      "ľ": 259,
      "Ŀ": 260,
      "ŀ": 261,
      "Ł": 262,
      "ł": 263,
      "Ń": 264,
      "ń": 265,
      "Ņ": 266,
      "ņ": 267,
      "Ň": 268,
      "ň": 269,
      "ŉ": 270,
      "Ŋ": 271,
      "ŋ": 272,
      "Ō": 273,
      "ō": 274,
      "Ŏ": 275,
      "ŏ": 276,
      "Ő": 277,
      "ő": 278,
      "Œ": 279,
      "œ": 280,
      "Ŕ": 281,
      "ŕ": 282,
      "Ŗ": 283,
      "ŗ": 284,
      "Ř": 285,
      "ř": 286,
      "Ś": 287,
      "ś": 288,
      "Ŝ": 289,
      "ŝ": 290,
      "Ş": 291,
      "ş": 292,
      "Š": 293,
      "š": 294,
      "Ţ": 295,
      "ţ": 296,
      "Ť": 297,
      "ť": 298,
      "Ŧ": 299,
      "ŧ": 300,
      "Ũ": 301,
      "ũ": 302,
      "Ū": 303,
      "ū": 304,
      "ŭ": 305,
      "ů": 306,
      "ű": 307,
      "ų": 308,
      "ŵ": 309,
      "Ŷ": 310,
      "ŷ": 311,
      "Ÿ": 312,
      "Ź": 313,
      "ź": 314,
      "Ż": 315,
      "ż": 316,
      "Ž": 317,
      "ž": 318,
      "Ɗ": 319,
      "ƒ": 320,
      "ơ": 321,
      "ƨ": 322,
      "ƪ": 323,
      "ư": 324,
      "ƿ": 325,
      "ǀ": 326,
      "ǁ": 327,
      "ǂ": 328,
      "ǃ": 329,
      "ǎ": 330,
      "ǐ": 331,
      "ǒ": 332,
      "ǔ": 333,
      "ǖ": 334,
      "ǘ": 335,
      "ǚ": 336,
      "ǜ": 337,
      "ǝ": 338,
      "ǣ": 339,
      "ǥ": 340,
      "ǫ": 341,
      "ǵ": 342,
      "ȃ": 343,
      "Ș": 344,
      "ș": 345,
      "ț": 346,
      "Ȳ": 347,
      "ȳ": 348,
      "ɐ": 349,
      "ɑ": 350,
      "ɒ": 351,
      "ɔ": 352,
      "ɕ": 353,
      "ɖ": 354,
      "ə": 355,
      "ɛ": 356,
      "ɜ": 357,
      "ɝ": 358,
      "ɟ": 359,
      "ɡ": 360,
      "ɢ": 361,
      "ɣ": 362,
      "ɤ": 363,
      "ɥ": 364,
      "ɦ": 365,
      "ɨ": 366,
      "ɪ": 367,
      "ɫ": 368,
      "ɭ": 369,
      "ɯ": 370,
      "ɰ": 371,
      "ɲ": 372,
      "ɵ": 373,
      "ɸ": 374,
      "ɹ": 375,
      "ɻ": 376,
      "ɽ": 377,
      "ɾ": 378,
      "ɿ": 379,
      "ʀ": 380,
      "ʁ": 381,
      "ʂ": 382,
      "ʃ": 383,
      "ʇ": 384,
      "ʈ": 385,
      "ʊ": 386,
      "ʌ": 387,
      "ʎ": 388,
      "ʏ": 389,
      "ʒ": 390,
      "ʔ": 391,
      "ʕ": 392,
      "ʖ": 393,
      "ʘ": 394,
      "ʜ": 395,
      "ʝ": 396,
      "ʰ": 397,
      "ʱ": 398,
      "ʲ": 399,
      "ʳ": 400,
      "ʷ": 401,
      "ʻ": 402,
      "ʼ": 403,
      "ʾ": 404,
      "ʿ": 405,
      "ˀ": 406,
      "ˆ": 407,
      "ˇ": 408,
      "ˈ": 409,
      "ˉ": 410,
      "ˋ": 411,
      "ˌ": 412,
      "ː": 413,
      "ˑ": 414,
      "˚": 415,
      "˜": 416,
      "˝": 417,
      "ˤ": 418,
      "˥": 419,
      "˧": 420,
      "˨": 421,
      "˩": 422,
      "˭": 423,
      "̀": 424,
      "́": 425,
      "̂": 426,
      "̃": 427,
      "̄": 428,
      "̅": 429,
      "̆": 430,
      "̇": 431,
      "̈": 432,
      "̉": 433,
      "̊": 434,
      "̋": 435,
      "̌": 436,
      "̍": 437,
      "̎": 438,
      "̏": 439,
      "̐": 440,
      "̑": 441,
      "̒": 442,
      "̓": 443,
      "̔": 444,
      "̕": 445,
      "̖": 446,
      "̗": 447,
      "̘": 448,
      "̙": 449,
      "̚": 450,
      "̛": 451,
      "̜": 452,
      "̝": 453,
      "̞": 454,
      "̟": 455,
      "̠": 456,
      "̡": 457,
      "̢": 458,
      "̣": 459,
      "̤": 460,
      "̥": 461,
      "̦": 462,
      "̧": 463,
      "̨": 464,
      "̩": 465,
      "̪": 466,
      "̫": 467,
      "̬": 468,
      "̭": 469,
      "̮": 470,
      "̯": 471,
      "̰": 472,
      "̱": 473,
      "̲": 474,
      "̳": 475,
      "̴": 476,
      "̵": 477,
      "̶": 478,
      "̷": 479,
      "̸": 480,
      "̹": 481,
      "̺": 482,
      "̻": 483,
      "̼": 484,
      "̽": 485,
      "̾": 486,
      "̿": 487,
      "̀": 488,
      "́": 489,
      "͂": 490,
      "̓": 491,
      "̈́": 492,
      "ͅ": 493,
      "͆": 494,
      "͇": 495,
      "͈": 496,
      "͉": 497,
      "͊": 498,
      "͋": 499,
      "͌": 500,
      "͍": 501,
      "͎": 502,
      "͏": 503,
      "͐": 504,
      "͑": 505,
      "͒": 506,
      "͓": 507,
      "͔": 508,
      "͕": 509,
      "͖": 510,
      "͗": 511,
      "͘": 512,
      "͙": 513,
      "͚": 514,
      "͛": 515,
      "͜": 516,
      "͝": 517,
      "͞": 518,
      "͟": 519,
      "͠": 520,
      "͡": 521,
      "͢": 522,
      "ͣ": 523,
      "ͤ": 524,
      "ͥ": 525,
      "ͦ": 526,
      "ͧ": 527,
      "ͨ": 528,
      "ͩ": 529,
      "ͪ": 530,
      "ͫ": 531,
      "ͬ": 532,
      "ͭ": 533,
      "ͮ": 534,
      "ͯ": 535,
      ";": 536,
      "Ά": 537,
      "Έ": 538,
      "Ό": 539,
      "ΐ": 540,
      "Α": 541,
      "Β": 542,
      "Γ": 543,
      "Δ": 544,
      "Ε": 545,
      "Η": 546,
      "Θ": 547,
      "Ι": 548,
      "Κ": 549,
      "Λ": 550,
      "Μ": 551,
      "Ν": 552,
      "Ξ": 553,
      "Ο": 554,
      "Π": 555,
      "Ρ": 556,
      "Σ": 557,
      "Τ": 558,
      "Υ": 559,
      "Φ": 560,
      "Χ": 561,
      "Ψ": 562,
      "Ω": 563,
      "ά": 564,
      "έ": 565,
      "ή": 566,
      "ί": 567,
      "α": 568,
      "β": 569,
      "γ": 570,
      "δ": 571,
      "ε": 572,
      "ζ": 573,
      "η": 574,
      "θ": 575,
      "ι": 576,
      "κ": 577,
      "λ": 578,
      "μ": 579,
      "ν": 580,
      "ξ": 581,
      "ο": 582,
      "π": 583,
      "ρ": 584,
      "ς": 585,
      "σ": 586,
      "τ": 587,
      "υ": 588,
      "φ": 589,
      "χ": 590,
      "ψ": 591,
      "ω": 592,
      "ό": 593,
      "ύ": 594,
      "ώ": 595,
      "ϕ": 596,
      "ϲ": 597,
      "Ё": 598,
      "Ђ": 599,
      "Є": 600,
      "І": 601,
      "Ї": 602,
      "Ј": 603,
      "А": 604,
      "Б": 605,
      "В": 606,
      "Г": 607,
      "Д": 608,
      "Е": 609,
      "Ж": 610,
      "З": 611,
      "И": 612,
      "Й": 613,
      "К": 614,
      "Л": 615,
      "М": 616,
      "Н": 617,
      "О": 618,
      "П": 619,
      "Р": 620,
      "С": 621,
      "Т": 622,
      "У": 623,
      "Ф": 624,
      "Х": 625,
      "Ц": 626,
      "Ч": 627,
      "Ш": 628,
      "Щ": 629,
      "Ы": 630,
      "Ь": 631,
      "Э": 632,
      "Ю": 633,
      "Я": 634,
      "а": 635,
      "б": 636,
      "в": 637,
      "г": 638,
      "д": 639,
      "е": 640,
      "ж": 641,
      "з": 642,
      "и": 643,
      "й": 644,
      "к": 645,
      "л": 646,
      "м": 647,
      "н": 648,
      "о": 649,
      "п": 650,
      "р": 651,
      "с": 652,
      "т": 653,
      "у": 654,
      "ф": 655,
      "х": 656,
      "ц": 657,
      "ч": 658,
      "ш": 659,
      "щ": 660,
      "ъ": 661,
      "ы": 662,
      "ь": 663,
      "э": 664,
      "ю": 665,
      "я": 666,
      "ё": 667,
      "ђ": 668,
      "є": 669,
      "ѕ": 670,
      "і": 671,
      "ї": 672,
      "ј": 673,
      "њ": 674,
      "ћ": 675,
      "ќ": 676,
      "ў": 677,
      "ѣ": 678,
      "ѧ": 679,
      "ѩ": 680,
      "ѫ": 681,
      "ѭ": 682,
      "ѳ": 683,
      "ѵ": 684,
      "҉": 685,
      "Ґ": 686,
      "ґ": 687,
      "ғ": 688,
      "ҫ": 689,
      "ү": 690,
      "ҳ": 691,
      "Ҷ": 692,
      "ҷ": 693,
      "һ": 694,
      "ӓ": 695,
      "Ө": 696,
      "Ԁ": 697,
      "ԛ": 698,
      "Լ": 699,
      "Հ": 700,
      "Պ": 701,
      "ա": 702,
      "բ": 703,
      "գ": 704,
      "ի": 705,
      "կ": 706,
      "հ": 707,
      "յ": 708,
      "ն": 709,
      "ս": 710,
      "տ": 711,
      "ր": 712,
      "ց": 713,
      "օ": 714,
      "֑": 715,
      "֖": 716,
      "֗": 717,
      "֙": 718,
      "֣": 719,
      "֥": 720,
      "ְ": 721,
      "ֱ": 722,
      "ִ": 723,
      "ֵ": 724,
      "ֶ": 725,
      "ַ": 726,
      "ָ": 727,
      "ֹ": 728,
      "ּ": 729,
      "ֽ": 730,
      "ֿ": 731,
      "ׁ": 732,
      "ׂ": 733,
      "׃": 734,
      "א": 735,
      "ב": 736,
      "ג": 737,
      "ד": 738,
      "ה": 739,
      "ו": 740,
      "ז": 741,
      "ח": 742,
      "ט": 743,
      "י": 744,
      "ך": 745,
      "כ": 746,
      "ל": 747,
      "ם": 748,
      "מ": 749,
      "ן": 750,
      "נ": 751,
      "ס": 752,
      "ע": 753,
      "ף": 754,
      "פ": 755,
      "ץ": 756,
      "צ": 757,
      "ק": 758,
      "ר": 759,
      "ש": 760,
      "ת": 761,
      "ײ": 762,
      "״": 763,
      "،": 764,
      "ؒ": 765,
      "؛": 766,
      "؟": 767,
      "ء": 768,
      "آ": 769,
      "أ": 770,
      "ؤ": 771,
      "إ": 772,
      "ئ": 773,
      "ا": 774,
      "ب": 775,
      "ة": 776,
      "ت": 777,
      "ث": 778,
      "ج": 779,
      "ح": 780,
      "خ": 781,
      "د": 782,
      "ذ": 783,
      "ر": 784,
      "ز": 785,
      "س": 786,
      "ش": 787,
      "ص": 788,
      "ض": 789,
      "ط": 790,
      "ظ": 791,
      "ع": 792,
      "غ": 793,
      "ـ": 794,
      "ف": 795,
      "ق": 796,
      "ك": 797,
      "ل": 798,
      "م": 799,
      "ن": 800,
      "ه": 801,
      "و": 802,
      "ى": 803,
      "ي": 804,
      "ً": 805,
      "ٌ": 806,
      "ٍ": 807,
      "َ": 808,
      "ُ": 809,
      "ِ": 810,
      "ّ": 811,
      "ْ": 812,
      "ٔ": 813,
      "ٰ": 814,
      "ٹ": 815,
      "ټ": 816,
      "پ": 817,
      "ځ": 818,
      "څ": 819,
      "چ": 820,
      "ڈ": 821,
      "ډ": 822,
      "ڑ": 823,
      "ړ": 824,
      "ږ": 825,
      "ژ": 826,
      "ک": 827,
      "ګ": 828,
      "ڭ": 829,
      "گ": 830,
      "ں": 831,
      "ھ": 832,
      "ہ": 833,
      "ۆ": 834,
      "ۇ": 835,
      "ۈ": 836,
      "ی": 837,
      "ۍ": 838,
      "ې": 839,
      "ے": 840,
      "ۓ": 841,
      "۔": 842,
      "ە": 843,
      "ܐ": 844,
      "ܝ": 845,
      "ܢ": 846,
      "ܩ": 847,
      "ܪ": 848,
      "ܹ": 849,
      "ߋ": 850,
      "ँ": 851,
      "ं": 852,
      "ः": 853,
      "अ": 854,
      "आ": 855,
      "इ": 856,
      "ई": 857,
      "उ": 858,
      "ऊ": 859,
      "ऋ": 860,
      "ए": 861,
      "ऐ": 862,
      "ओ": 863,
      "औ": 864,
      "क": 865,
      "ख": 866,
      "ग": 867,
      "घ": 868,
      "ङ": 869,
      "च": 870,
      "छ": 871,
      "ज": 872,
      "झ": 873,
      "ञ": 874,
      "ट": 875,
      "ठ": 876,
      "ड": 877,
      "ढ": 878,
      "ण": 879,
      "त": 880,
      "थ": 881,
      "द": 882,
      "ध": 883,
      "न": 884,
      "प": 885,
      "फ": 886,
      "ब": 887,
      "भ": 888,
      "म": 889,
      "य": 890,
      "र": 891,
      "ल": 892,
      "व": 893,
      "श": 894,
      "ष": 895,
      "स": 896,
      "ह": 897,
      "़": 898,
      "ा": 899,
      "ि": 900,
      "ी": 901,
      "ु": 902,
      "ू": 903,
      "ृ": 904,
      "ॅ": 905,
      "े": 906,
      "ै": 907,
      "ॉ": 908,
      "ॊ": 909,
      "ो": 910,
      "ौ": 911,
      "्": 912,
      "ड़": 913,
      "ढ़": 914,
      "फ़": 915,
      "।": 916,
      "०": 917,
      "१": 918,
      "२": 919,
      "४": 920,
      "অ": 921,
      "আ": 922,
      "ই": 923,
      "উ": 924,
      "ক": 925,
      "খ": 926,
      "গ": 927,
      "ঘ": 928,
      "চ": 929,
      "জ": 930,
      "ট": 931,
      "ঠ": 932,
      "ড": 933,
      "ণ": 934,
      "ত": 935,
      "থ": 936,
      "দ": 937,
      "ধ": 938,
      "ন": 939,
      "প": 940,
      "ব": 941,
      "ম": 942,
      "য": 943,
      "র": 944,
      "ল": 945,
      "শ": 946,
      "ষ": 947,
      "স": 948,
      "হ": 949,
      "া": 950,
      "ি": 951,
      "ী": 952,
      "ু": 953,
      "ৃ": 954,
      "ে": 955,
      "ো": 956,
      "ৌ": 957,
      "্": 958,
      "য়": 959,
      "ৰ": 960,
      "ਂ": 961,
      "ਅ": 962,
      "ਇ": 963,
      "ਊ": 964,
      "ਕ": 965,
      "ਗ": 966,
      "ਚ": 967,
      "ਜ": 968,
      "ਝ": 969,
      "ਣ": 970,
      "ਤ": 971,
      "ਦ": 972,
      "ਨ": 973,
      "ਪ": 974,
      "ਭ": 975,
      "ਮ": 976,
      "ਰ": 977,
      "ਲ": 978,
      "ਵ": 979,
      "ਸ": 980,
      "ਹ": 981,
      "਼": 982,
      "ਾ": 983,
      "ਿ": 984,
      "ੀ": 985,
      "ੁ": 986,
      "ੇ": 987,
      "ੈ": 988,
      "ੋ": 989,
      "ੰ": 990,
      "ક": 991,
      "ટ": 992,
      "ત": 993,
      "ન": 994,
      "લ": 995,
      "ળ": 996,
      "સ": 997,
      "હ": 998,
      "ા": 999,
      "ી": 1000,
      "ે": 1001,
      "્": 1002,
      "அ": 1003,
      "ஆ": 1004,
      "இ": 1005,
      "உ": 1006,
      "எ": 1007,
      "ஐ": 1008,
      "ஒ": 1009,
      "க": 1010,
      "ங": 1011,
      "ச": 1012,
      "ஜ": 1013,
      "ட": 1014,
      "த": 1015,
      "ந": 1016,
      "ன": 1017,
      "ப": 1018,
      "ம": 1019,
      "ய": 1020,
      "ர": 1021,
      "ல": 1022,
      "ள": 1023,
      "ழ": 1024,
      "வ": 1025,
      "ஸ": 1026,
      "ஹ": 1027,
      "ா": 1028,
      "ி": 1029,
      "ு": 1030,
      "ெ": 1031,
      "ே": 1032,
      "ை": 1033,
      "ொ": 1034,
      "ோ": 1035,
      "்": 1036,
      "ం": 1037,
      "అ": 1038,
      "ఆ": 1039,
      "ఇ": 1040,
      "ఉ": 1041,
      "ఊ": 1042,
      "ఎ": 1043,
      "ఏ": 1044,
      "క": 1045,
      "గ": 1046,
      "చ": 1047,
      "ట": 1048,
      "డ": 1049,
      "త": 1050,
      "థ": 1051,
      "ద": 1052,
      "ధ": 1053,
      "న": 1054,
      "ప": 1055,
      "బ": 1056,
      "భ": 1057,
      "మ": 1058,
      "య": 1059,
      "ర": 1060,
      "ల": 1061,
      "ళ": 1062,
      "వ": 1063,
      "శ": 1064,
      "ష": 1065,
      "స": 1066,
      "హ": 1067,
      "ా": 1068,
      "ి": 1069,
      "ీ": 1070,
      "ు": 1071,
      "ూ": 1072,
      "ె": 1073,
      "ే": 1074,
      "ొ": 1075,
      "ో": 1076,
      "్": 1077,
      "౪": 1078,
      "ಂ": 1079,
      "ಕ": 1080,
      "ಚ": 1081,
      "ಜ": 1082,
      "ಞ": 1083,
      "ಟ": 1084,
      "ಠ": 1085,
      "ತ": 1086,
      "ಥ": 1087,
      "ನ": 1088,
      "ಪ": 1089,
      "ಮ": 1090,
      "ಯ": 1091,
      "ರ": 1092,
      "ಲ": 1093,
      "ವ": 1094,
      "ಶ": 1095,
      "ಸ": 1096,
      "ಹ": 1097,
      "ಾ": 1098,
      "ಿ": 1099,
      "ು": 1100,
      "ೆ": 1101,
      "್": 1102,
      "ക": 1103,
      "ട": 1104,
      "ണ": 1105,
      "പ": 1106,
      "മ": 1107,
      "ര": 1108,
      "ഴ": 1109,
      "വ": 1110,
      "ി": 1111,
      "ു": 1112,
      "െ": 1113,
      "്": 1114,
      "ඞ": 1115,
      "ก": 1116,
      "ข": 1117,
      "ค": 1118,
      "ฅ": 1119,
      "ฆ": 1120,
      "ง": 1121,
      "จ": 1122,
      "ฉ": 1123,
      "ช": 1124,
      "ซ": 1125,
      "ญ": 1126,
      "ฎ": 1127,
      "ฏ": 1128,
      "ฐ": 1129,
      "ฑ": 1130,
      "ฒ": 1131,
      "ณ": 1132,
      "ด": 1133,
      "ต": 1134,
      "ถ": 1135,
      "ท": 1136,
      "ธ": 1137,
      "น": 1138,
      "บ": 1139,
      "ป": 1140,
      "ผ": 1141,
      "ฝ": 1142,
      "พ": 1143,
      "ฟ": 1144,
      "ภ": 1145,
      "ม": 1146,
      "ย": 1147,
      "ร": 1148,
      "ฤ": 1149,
      "ล": 1150,
      "ว": 1151,
      "ศ": 1152,
      "ษ": 1153,
      "ส": 1154,
      "ห": 1155,
      "ฬ": 1156,
      "อ": 1157,
      "ฮ": 1158,
      "ฯ": 1159,
      "ะ": 1160,
      "ั": 1161,
      "า": 1162,
      "ำ": 1163,
      "ิ": 1164,
      "ี": 1165,
      "ึ": 1166,
      "ื": 1167,
      "ุ": 1168,
      "ู": 1169,
      "฿": 1170,
      "เ": 1171,
      "แ": 1172,
      "โ": 1173,
      "ใ": 1174,
      "ไ": 1175,
      "ๆ": 1176,
      "็": 1177,
      "่": 1178,
      "้": 1179,
      "๊": 1180,
      "๋": 1181,
      "์": 1182,
      "ກ": 1183,
      "ຂ": 1184,
      "ງ": 1185,
      "ຊ": 1186,
      "ຍ": 1187,
      "ດ": 1188,
      "ຕ": 1189,
      "ຖ": 1190,
      "ທ": 1191,
      "ນ": 1192,
      "ບ": 1193,
      "ປ": 1194,
      "ຜ": 1195,
      "ພ": 1196,
      "ມ": 1197,
      "ຢ": 1198,
      "ລ": 1199,
      "ວ": 1200,
      "ສ": 1201,
      "ຫ": 1202,
      "ອ": 1203,
      "ຮ": 1204,
      "ະ": 1205,
      "ັ": 1206,
      "າ": 1207,
      "ຳ": 1208,
      "ິ": 1209,
      "ີ": 1210,
      "ຶ": 1211,
      "ື": 1212,
      "ຸ": 1213,
      "ູ": 1214,
      "ົ": 1215,
      "ເ": 1216,
      "ໃ": 1217,
      "ໄ": 1218,
      "່": 1219,
      "້": 1220,
      "ໍ": 1221,
      "ໜ": 1222,
      "་": 1223,
      "ད": 1224,
      "བ": 1225,
      "ོ": 1226,
      "န": 1227,
      "သ": 1228,
      "ာ": 1229,
      "း": 1230,
      "ა": 1231,
      "ბ": 1232,
      "გ": 1233,
      "ე": 1234,
      "ი": 1235,
      "ლ": 1236,
      "მ": 1237,
      "ნ": 1238,
      "ო": 1239,
      "რ": 1240,
      "ს": 1241,
      "უ": 1242,
      "ხ": 1243,
      "ჯ": 1244,
      "ሀ": 1245,
      "ሁ": 1246,
      "ሂ": 1247,
      "ሃ": 1248,
      "ሄ": 1249,
      "ህ": 1250,
      "ሆ": 1251,
      "ለ": 1252,
      "ሉ": 1253,
      "ሊ": 1254,
      "ላ": 1255,
      "ሌ": 1256,
      "ል": 1257,
      "ሎ": 1258,
      "ሏ": 1259,
      "ሐ": 1260,
      "ሑ": 1261,
      "ሒ": 1262,
      "ሓ": 1263,
      "ሔ": 1264,
      "ሕ": 1265,
      "ሖ": 1266,
      "ሗ": 1267,
      "መ": 1268,
      "ሙ": 1269,
      "ሚ": 1270,
      "ማ": 1271,
      "ሜ": 1272,
      "ም": 1273,
      "ሞ": 1274,
      "ሟ": 1275,
      "ሠ": 1276,
      "ሡ": 1277,
      "ሢ": 1278,
      "ሣ": 1279,
      "ሤ": 1280,
      "ሥ": 1281,
      "ሦ": 1282,
      "ሧ": 1283,
      "ረ": 1284,
      "ሩ": 1285,
      "ሪ": 1286,
      "ራ": 1287,
      "ሬ": 1288,
      "ር": 1289,
      "ሮ": 1290,
      "ሯ": 1291,
      "ሰ": 1292,
      "ሱ": 1293,
      "ሲ": 1294,
      "ሳ": 1295,
      "ሴ": 1296,
      "ስ": 1297,
      "ሶ": 1298,
      "ሷ": 1299,
      "ሸ": 1300,
      "ሹ": 1301,
      "ሺ": 1302,
      "ሻ": 1303,
      "ሼ": 1304,
      "ሽ": 1305,
      "ሾ": 1306,
      "ሿ": 1307,
      "ቀ": 1308,
      "ቁ": 1309,
      "ቂ": 1310,
      "ቃ": 1311,
      "ቄ": 1312,
      "ቅ": 1313,
      "ቆ": 1314,
      "ቈ": 1315,
      "ቊ": 1316,
      "ቋ": 1317,
      "ቌ": 1318,
      "ቍ": 1319,
      "ቐ": 1320,
      "ቑ": 1321,
      "ቒ": 1322,
      "ቓ": 1323,
      "ቔ": 1324,
      "ቕ": 1325,
      "ቖ": 1326,
      "ቘ": 1327,
      "ቚ": 1328,
      "ቛ": 1329,
      "ቜ": 1330,
      "ቝ": 1331,
      "በ": 1332,
      "ቡ": 1333,
      "ቢ": 1334,
      "ባ": 1335,
      "ቤ": 1336,
      "ብ": 1337,
      "ቦ": 1338,
      "ቧ": 1339,
      "ቨ": 1340,
      "ቩ": 1341,
      "ቪ": 1342,
      "ቫ": 1343,
      "ቬ": 1344,
      "ቭ": 1345,
      "ቮ": 1346,
      "ቯ": 1347,
      "ተ": 1348,
      "ቱ": 1349,
      "ቲ": 1350,
      "ታ": 1351,
      "ቴ": 1352,
      "ት": 1353,
      "ቶ": 1354,
      "ቷ": 1355,
      "ቸ": 1356,
      "ቹ": 1357,
      "ቺ": 1358,
      "ቻ": 1359,
      "ቼ": 1360,
      "ች": 1361,
      "ቾ": 1362,
      "ቿ": 1363,
      "ኀ": 1364,
      "ኁ": 1365,
      "ኂ": 1366,
      "ኃ": 1367,
      "ኄ": 1368,
      "ኅ": 1369,
      "ኆ": 1370,
      "ኈ": 1371,
      "ኊ": 1372,
      "ኋ": 1373,
      "ኌ": 1374,
      "ኍ": 1375,
      "ነ": 1376,
      "ኑ": 1377,
      "ኒ": 1378,
      "ና": 1379,
      "ኔ": 1380,
      "ን": 1381,
      "ኖ": 1382,
      "ኗ": 1383,
      "ኘ": 1384,
      "ኙ": 1385,
      "ኚ": 1386,
      "ኛ": 1387,
      "ኜ": 1388,
      "ኝ": 1389,
      "ኞ": 1390,
      "ኟ": 1391,
      "አ": 1392,
      "ኡ": 1393,
      "ኢ": 1394,
      "ኣ": 1395,
      "ኤ": 1396,
      "እ": 1397,
      "ኦ": 1398,
      "ኧ": 1399,
      "ከ": 1400,
      "ኩ": 1401,
      "ኪ": 1402,
      "ካ": 1403,
      "ኬ": 1404,
      "ክ": 1405,
      "ኮ": 1406,
      "ኰ": 1407,
      "ኲ": 1408,
      "ኳ": 1409,
      "ኴ": 1410,
      "ኵ": 1411,
      "ኸ": 1412,
      "ኹ": 1413,
      "ኺ": 1414,
      "ኻ": 1415,
      "ኼ": 1416,
      "ኽ": 1417,
      "ኾ": 1418,
      "ወ": 1419,
      "ዉ": 1420,
      "ዊ": 1421,
      "ዋ": 1422,
      "ዌ": 1423,
      "ው": 1424,
      "ዎ": 1425,
      "ዐ": 1426,
      "ዑ": 1427,
      "ዒ": 1428,
      "ዓ": 1429,
      "ዔ": 1430,
      "ዕ": 1431,
      "ዖ": 1432,
      "ዘ": 1433,
      "ዙ": 1434,
      "ዚ": 1435,
      "ዛ": 1436,
      "ዜ": 1437,
      "ዝ": 1438,
      "ዞ": 1439,
      "ዟ": 1440,
      "ዠ": 1441,
      "ዡ": 1442,
      "ዢ": 1443,
      "ዣ": 1444,
      "ዤ": 1445,
      "ዥ": 1446,
      "ዦ": 1447,
      "የ": 1448,
      "ዩ": 1449,
      "ዪ": 1450,
      "ያ": 1451,
      "ዬ": 1452,
      "ይ": 1453,
      "ዮ": 1454,
      "ደ": 1455,
      "ዱ": 1456,
      "ዲ": 1457,
      "ዳ": 1458,
      "ዴ": 1459,
      "ድ": 1460,
      "ዶ": 1461,
      "ዷ": 1462,
      "ጀ": 1463,
      "ጁ": 1464,
      "ጂ": 1465,
      "ጃ": 1466,
      "ጄ": 1467,
      "ጅ": 1468,
      "ጆ": 1469,
      "ገ": 1470,
      "ጉ": 1471,
      "ጊ": 1472,
      "ጋ": 1473,
      "ጌ": 1474,
      "ግ": 1475,
      "ጎ": 1476,
      "ጐ": 1477,
      "ጒ": 1478,
      "ጓ": 1479,
      "ጔ": 1480,
      "ጕ": 1481,
      "ጠ": 1482,
      "ጡ": 1483,
      "ጢ": 1484,
      "ጣ": 1485,
      "ጤ": 1486,
      "ጥ": 1487,
      "ጦ": 1488,
      "ጨ": 1489,
      "ጩ": 1490,
      "ጪ": 1491,
      "ጫ": 1492,
      "ጬ": 1493,
      "ጭ": 1494,
      "ጮ": 1495,
      "ጯ": 1496,
      "ጰ": 1497,
      "ጱ": 1498,
      "ጲ": 1499,
      "ጳ": 1500,
      "ጴ": 1501,
      "ጵ": 1502,
      "ጶ": 1503,
      "ጷ": 1504,
      "ጸ": 1505,
      "ጹ": 1506,
      "ጺ": 1507,
      "ጻ": 1508,
      "ጼ": 1509,
      "ጽ": 1510,
      "ጾ": 1511,
      "ጿ": 1512,
      "ፀ": 1513,
      "ፁ": 1514,
      "ፂ": 1515,
      "ፃ": 1516,
      "ፄ": 1517,
      "ፅ": 1518,
      "ፆ": 1519,
      "ፈ": 1520,
      "ፉ": 1521,
      "ፊ": 1522,
      "ፋ": 1523,
      "ፌ": 1524,
      "ፍ": 1525,
      "ፎ": 1526,
      "ፏ": 1527,
      "ፐ": 1528,
      "ፑ": 1529,
      "ፒ": 1530,
      "ፓ": 1531,
      "ፔ": 1532,
      "ፕ": 1533,
      "ፖ": 1534,
      "ፗ": 1535,
      "።": 1536,
      "Ꭰ": 1537,
      "Ꭳ": 1538,
      "Ꭶ": 1539,
      "Ꭸ": 1540,
      "Ꭹ": 1541,
      "Ꭿ": 1542,
      "Ꮀ": 1543,
      "Ꮃ": 1544,
      "Ꮉ": 1545,
      "Ꮎ": 1546,
      "Ꮝ": 1547,
      "Ꮟ": 1548,
      "Ꮤ": 1549,
      "Ꮩ": 1550,
      "Ꮲ": 1551,
      "Ꮿ": 1552,
      "Ᏹ": 1553,
      "ᐈ": 1554,
      "ក": 1555,
      "ង": 1556,
      "ជ": 1557,
      "ណ": 1558,
      "ត": 1559,
      "ធ": 1560,
      "ប": 1561,
      "ព": 1562,
      "ម": 1563,
      "យ": 1564,
      "រ": 1565,
      "ស": 1566,
      "ា": 1567,
      "ិ": 1568,
      "ី": 1569,
      "ុ": 1570,
      "េ": 1571,
      "ះ": 1572,
      "់": 1573,
      "្": 1574,
      "ᥙ": 1575,
      "᧐": 1576,
      "ᲆ": 1577,
      "ᴗ": 1578,
      "ᴬ": 1579,
      "ᴰ": 1580,
      "ᵀ": 1581,
      "ᵉ": 1582,
      "ᵏ": 1583,
      "ᵒ": 1584,
      "ᵝ": 1585,
      "ᵢ": 1586,
      "ᵻ": 1587,
      "ᶢ": 1588,
      "Ḍ": 1589,
      "ḍ": 1590,
      "ḗ": 1591,
      "ḡ": 1592,
      "Ḥ": 1593,
      "ḥ": 1594,
      "Ḩ": 1595,
      "ḱ": 1596,
      "Ḵ": 1597,
      "ḷ": 1598,
      "ṃ": 1599,
      "ṅ": 1600,
      "ṇ": 1601,
      "ṛ": 1602,
      "Ṣ": 1603,
      "ṣ": 1604,
      "ṭ": 1605,
      "Ẓ": 1606,
      "ẓ": 1607,
      "ẕ": 1608,
      "ạ": 1609,
      "Ả": 1610,
      "ả": 1611,
      "Ấ": 1612,
      "ấ": 1613,
      "ầ": 1614,
      "Ẩ": 1615,
      "ẩ": 1616,
      "ẫ": 1617,
      "ậ": 1618,
      "ắ": 1619,
      "ằ": 1620,
      "ẳ": 1621,
      "ẵ": 1622,
      "ặ": 1623,
      "ẹ": 1624,
      "ẻ": 1625,
      "ẽ": 1626,
      "Ế": 1627,
      "ế": 1628,
      "ề": 1629,
      "ể": 1630,
      "ễ": 1631,
      "ệ": 1632,
      "ỉ": 1633,
      "ị": 1634,
      "Ọ": 1635,
      "ọ": 1636,
      "ỏ": 1637,
      "ố": 1638,
      "ồ": 1639,
      "ổ": 1640,
      "ỗ": 1641,
      "ộ": 1642,
      "ớ": 1643,
      "ờ": 1644,
      "Ở": 1645,
      "ở": 1646,
      "ỡ": 1647,
      "ợ": 1648,
      "ụ": 1649,
      "ủ": 1650,
      "ứ": 1651,
      "ừ": 1652,
      "ử": 1653,
      "ữ": 1654,
      "ự": 1655,
      "ỳ": 1656,
      "ỷ": 1657,
      "ỹ": 1658,
      "ἀ": 1659,
      "ἁ": 1660,
      "ἄ": 1661,
      "Ἀ": 1662,
      "Ἄ": 1663,
      "ἐ": 1664,
      "ἑ": 1665,
      "ἔ": 1666,
      "Ἐ": 1667,
      "Ἑ": 1668,
      "ἡ": 1669,
      "Ἥ": 1670,
      "ἰ": 1671,
      "ἱ": 1672,
      "ἴ": 1673,
      "ἵ": 1674,
      "ἶ": 1675,
      "Ἰ": 1676,
      "Ἱ": 1677,
      "ὀ": 1678,
      "ὐ": 1679,
      "ὑ": 1680,
      "ὠ": 1681,
      "ὰ": 1682,
      "ὲ": 1683,
      "ὶ": 1684,
      "ί": 1685,
      "ὸ": 1686,
      "ό": 1687,
      "ᾶ": 1688,
      "ῃ": 1689,
      "ῆ": 1690,
      "ῖ": 1691,
      "ῦ": 1692,
      "ῶ": 1693,
      "​": 1694,
      "‌": 1695,
      "‍": 1696,
      "‎": 1697,
      "‐": 1698,
      "‑": 1699,
      "‒": 1700,
      "–": 1701,
      "—": 1702,
      "―": 1703,
      "‖": 1704,
      "‘": 1705,
      "’": 1706,
      "‚": 1707,
      "“": 1708,
      "”": 1709,
      "„": 1710,
      "‟": 1711,
      "†": 1712,
      "•": 1713,
      "…": 1714,
      "‰": 1715,
      "′": 1716,
      "″": 1717,
      "‵": 1718,
      "‹": 1719,
      "›": 1720,
      "※": 1721,
      "‼": 1722,
      "‽": 1723,
      "‿": 1724,
      "⁄": 1725,
      "⁉": 1726,
      "⁊": 1727,
      "⁢": 1728,
      "⁰": 1729,
      "ⁱ": 1730,
      "⁴": 1731,
      "⁵": 1732,
      "⁶": 1733,
      "⁷": 1734,
      "⁸": 1735,
      "⁹": 1736,
      "⁺": 1737,
      "⁻": 1738,
      "⁽": 1739,
      "⁾": 1740,
      "ⁿ": 1741,
      "₀": 1742,
      "₁": 1743,
      "₂": 1744,
      "₃": 1745,
      "₄": 1746,
      "₅": 1747,
      "₆": 1748,
      "₈": 1749,
      "₊": 1750,
      "₋": 1751,
      "ₖ": 1752,
      "ₙ": 1753,
      "ₛ": 1754,
      "₤": 1755,
      "₥": 1756,
      "€": 1757,
      "₯": 1758,
      "₱": 1759,
      "₹": 1760,
      "₽": 1761,
      "⃣": 1762,
      "ℂ": 1763,
      "℃": 1764,
      "℉": 1765,
      "ℎ": 1766,
      "ℏ": 1767,
      "ℓ": 1768,
      "ℕ": 1769,
      "№": 1770,
      "ℚ": 1771,
      "ℛ": 1772,
      "ℝ": 1773,
      "℠": 1774,
      "™": 1775,
      "ℤ": 1776,
      "Ω": 1777,
      "ℬ": 1778,
      "ℵ": 1779,
      "ℹ": 1780,
      "⅓": 1781,
      "⅔": 1782,
      "⅕": 1783,
      "⅛": 1784,
      "⅜": 1785,
      "⅝": 1786,
      "Ⅱ": 1787,
      "ⅼ": 1788,
      "ⅾ": 1789,
      "←": 1790,
      "↑": 1791,
      "→": 1792,
      "↓": 1793,
      "↔": 1794,
      "↕": 1795,
      "↖": 1796,
      "↗": 1797,
      "↘": 1798,
      "↙": 1799,
      "↩": 1800,
      "↪": 1801,
      "↳": 1802,
      "⇄": 1803,
      "⇌": 1804,
      "⇑": 1805,
      "⇒": 1806,
      "⇓": 1807,
      "⇔": 1808,
      "⇪": 1809,
      "∀": 1810,
      "∂": 1811,
      "∃": 1812,
      "∅": 1813,
      "∆": 1814,
      "∇": 1815,
      "∈": 1816,
      "∉": 1817,
      "∏": 1818,
      "∑": 1819,
      "−": 1820,
      "∓": 1821,
      "∕": 1822,
      "∖": 1823,
      "∗": 1824,
      "∘": 1825,
      "∙": 1826,
      "√": 1827,
      "∛": 1828,
      "∝": 1829,
      "∞": 1830,
      "∠": 1831,
      "∧": 1832,
      "∨": 1833,
      "∩": 1834,
      "∪": 1835,
      "∫": 1836,
      "∮": 1837,
      "∴": 1838,
      "∼": 1839,
      "≃": 1840,
      "≈": 1841,
      "≖": 1842,
      "≠": 1843,
      "≡": 1844,
      "≢": 1845,
      "≤": 1846,
      "≥": 1847,
      "≦": 1848,
      "≧": 1849,
      "≷": 1850,
      "⊂": 1851,
      "⊆": 1852,
      "⊕": 1853,
      "⊖": 1854,
      "⊗": 1855,
      "⊙": 1856,
      "⊚": 1857,
      "⊛": 1858,
      "⊜": 1859,
      "⊝": 1860,
      "⊞": 1861,
      "⊟": 1862,
      "⊢": 1863,
      "⊤": 1864,
      "⊥": 1865,
      "⋅": 1866,
      "⋆": 1867,
      "⋮": 1868,
      "⋯": 1869,
      "⌈": 1870,
      "⌉": 1871,
      "⌊": 1872,
      "⌋": 1873,
      "⌖": 1874,
      "⌘": 1875,
      "⌚": 1876,
      "⌛": 1877,
      "⌨": 1878,
      "〈": 1879,
      "〉": 1880,
      "⍴": 1881,
      "⍺": 1882,
      "⎡": 1883,
      "⎣": 1884,
      "⎤": 1885,
      "⎦": 1886,
      "⏏": 1887,
      "⏩": 1888,
      "⏪": 1889,
      "⏫": 1890,
      "⏬": 1891,
      "⏭": 1892,
      "⏮": 1893,
      "⏯": 1894,
      "⏰": 1895,
      "⏱": 1896,
      "⏲": 1897,
      "⏳": 1898,
      "⏸": 1899,
      "⏹": 1900,
      "⏺": 1901,
      "①": 1902,
      "②": 1903,
      "③": 1904,
      "④": 1905,
      "⑤": 1906,
      "⑥": 1907,
      "⑦": 1908,
      "⑧": 1909,
      "⑨": 1910,
      "⑩": 1911,
      "⑪": 1912,
      "⑫": 1913,
      "⑬": 1914,
      "⑭": 1915,
      "⑮": 1916,
      "⑯": 1917,
      "⑰": 1918,
      "⑱": 1919,
      "⑲": 1920,
      "⑳": 1921,
      "⑴": 1922,
      "⑵": 1923,
      "⑶": 1924,
      "⑷": 1925,
      "⑸": 1926,
      "⑹": 1927,
      "Ⓜ": 1928,
      "Ⓡ": 1929,
      "─": 1930,
      "━": 1931,
      "│": 1932,
      "┈": 1933,
      "┊": 1934,
      "┌": 1935,
      "┐": 1936,
      "└": 1937,
      "┘": 1938,
      "├": 1939,
      "┤": 1940,
      "┬": 1941,
      "┴": 1942,
      "┻": 1943,
      "┼": 1944,
      "═": 1945,
      "║": 1946,
      "╓": 1947,
      "╔": 1948,
      "╕": 1949,
      "╖": 1950,
      "╗": 1951,
      "╘": 1952,
      "╙": 1953,
      "╚": 1954,
      "╜": 1955,
      "╝": 1956,
      "╟": 1957,
      "╠": 1958,
      "╢": 1959,
      "╣": 1960,
      "╤": 1961,
      "╥": 1962,
      "╦": 1963,
      "╧": 1964,
      "╨": 1965,
      "╩": 1966,
      "╫": 1967,
      "╬": 1968,
      "╮": 1969,
      "╯": 1970,
      "╰": 1971,
      "╱": 1972,
      "╲": 1973,
      "▀": 1974,
      "▁": 1975,
      "▂": 1976,
      "▃": 1977,
      "▄": 1978,
      "▅": 1979,
      "▆": 1980,
      "▇": 1981,
      "█": 1982,
      "▌": 1983,
      "▐": 1984,
      "░": 1985,
      "▒": 1986,
      "▓": 1987,
      "■": 1988,
      "□": 1989,
      "▪": 1990,
      "▫": 1991,
      "▲": 1992,
      "▶": 1993,
      "▷": 1994,
      "▸": 1995,
      "►": 1996,
      "▻": 1997,
      "▼": 1998,
      "▽": 1999,
      "▾": 2000,
      "◀": 2001,
      "◄": 2002,
      "◆": 2003,
      "◊": 2004,
      "○": 2005,
      "◌": 2006,
      "◎": 2007,
      "●": 2008,
      "◘": 2009,
      "◙": 2010,
      "◠": 2011,
      "◡": 2012,
      "◦": 2013,
      "◸": 2014,
      "◹": 2015,
      "◻": 2016,
      "◼": 2017,
      "◽": 2018,
      "◾": 2019,
      "☀": 2020,
      "☁": 2021,
      "☂": 2022,
      "☃": 2023,
      "☄": 2024,
      "★": 2025,
      "☆": 2026,
      "☉": 2027,
      "☎": 2028,
      "☐": 2029,
      "☑": 2030,
      "☔": 2031,
      "☕": 2032,
      "☘": 2033,
      "☝": 2034,
      "☞": 2035,
      "☠": 2036,
      "☢": 2037,
      "☣": 2038,
      "☥": 2039,
      "☦": 2040,
      "☪": 2041,
      "☮": 2042,
      "☯": 2043,
      "☰": 2044,
      "☸": 2045,
      "☹": 2046,
      "☺": 2047,
      "☻": 2048,
      "☼": 2049,
      "☽": 2050,
      "☿": 2051,
      "♀": 2052,
      "♂": 2053,
      "♃": 2054,
      "♄": 2055,
      "♅": 2056,
      "♆": 2057,
      "♇": 2058,
      "♈": 2059,
      "♉": 2060,
      "♊": 2061,
      "♋": 2062,
      "♌": 2063,
      "♍": 2064,
      "♎": 2065,
      "♏": 2066,
      "♐": 2067,
      "♑": 2068,
      "♒": 2069,
      "♓": 2070,
      "♔": 2071,
      "♕": 2072,
      "♖": 2073,
      "♗": 2074,
      "♘": 2075,
      "♙": 2076,
      "♚": 2077,
      "♛": 2078,
      "♜": 2079,
      "♝": 2080,
      "♞": 2081,
      "♟": 2082,
      "♠": 2083,
      "♡": 2084,
      "♣": 2085,
      "♥": 2086,
      "♦": 2087,
      "♨": 2088,
      "♩": 2089,
      "♪": 2090,
      "♫": 2091,
      "♬": 2092,
      "♭": 2093,
      "♯": 2094,
      "♻": 2095,
      "♾": 2096,
      "♿": 2097,
      "⚄": 2098,
      "⚒": 2099,
      "⚓": 2100,
      "⚔": 2101,
      "⚕": 2102,
      "⚖": 2103,
      "⚗": 2104,
      "⚙": 2105,
      "⚛": 2106,
      "⚜": 2107,
      "⚠": 2108,
      "⚡": 2109,
      "⚧": 2110,
      "⚪": 2111,
      "⚫": 2112,
      "⚰": 2113,
      "⚱": 2114,
      "⚽": 2115,
      "⚾": 2116,
      "⛄": 2117,
      "⛅": 2118,
      "⛈": 2119,
      "⛎": 2120,
      "⛏": 2121,
      "⛑": 2122,
      "⛓": 2123,
      "⛔": 2124,
      "⛩": 2125,
      "⛪": 2126,
      "⛰": 2127,
      "⛱": 2128,
      "⛲": 2129,
      "⛳": 2130,
      "⛴": 2131,
      "⛵": 2132,
      "⛷": 2133,
      "⛸": 2134,
      "⛹": 2135,
      "⛺": 2136,
      "⛽": 2137,
      "✂": 2138,
      "✅": 2139,
      "✈": 2140,
      "✉": 2141,
      "✊": 2142,
      "✋": 2143,
      "✌": 2144,
      "✍": 2145,
      "✏": 2146,
      "✒": 2147,
      "✓": 2148,
      "✔": 2149,
      "✕": 2150,
      "✖": 2151,
      "✗": 2152,
      "✝": 2153,
      "✡": 2154,
      "✦": 2155,
      "✧": 2156,
      "✨": 2157,
      "✭": 2158,
      "✳": 2159,
      "✴": 2160,
      "❁": 2161,
      "❄": 2162,
      "❇": 2163,
      "❌": 2164,
      "❎": 2165,
      "❏": 2166,
      "❓": 2167,
      "❔": 2168,
      "❕": 2169,
      "❗": 2170,
      "❣": 2171,
      "❤": 2172,
      "❮": 2173,
      "❯": 2174,
      "❶": 2175,
      "❷": 2176,
      "❸": 2177,
      "❹": 2178,
      "❺": 2179,
      "❻": 2180,
      "❼": 2181,
      "➀": 2182,
      "➕": 2183,
      "➖": 2184,
      "➗": 2185,
      "➝": 2186,
      "➡": 2187,
      "➢": 2188,
      "➮": 2189,
      "➰": 2190,
      "➲": 2191,
      "➶": 2192,
      "➿": 2193,
      "⟨": 2194,
      "⟩": 2195,
      "⟵": 2196,
      "⠀": 2197,
      "⠁": 2198,
      "⠂": 2199,
      "⠃": 2200,
      "⠄": 2201,
      "⠆": 2202,
      "⠇": 2203,
      "⠈": 2204,
      "⠉": 2205,
      "⠋": 2206,
      "⠎": 2207,
      "⠏": 2208,
      "⠐": 2209,
      "⠒": 2210,
      "⠓": 2211,
      "⠔": 2212,
      "⠖": 2213,
      "⠗": 2214,
      "⠘": 2215,
      "⠙": 2216,
      "⠚": 2217,
      "⠛": 2218,
      "⠝": 2219,
      "⠞": 2220,
      "⠟": 2221,
      "⠠": 2222,
      "⠢": 2223,
      "⠤": 2224,
      "⠥": 2225,
      "⠦": 2226,
      "⠨": 2227,
      "⠰": 2228,
      "⠲": 2229,
      "⠳": 2230,
      "⠴": 2231,
      "⠵": 2232,
      "⠶": 2233,
      "⠷": 2234,
      "⠸": 2235,
      "⠹": 2236,
      "⠺": 2237,
      "⠻": 2238,
      "⠽": 2239,
      "⠾": 2240,
      "⠿": 2241,
      "⡀": 2242,
      "⡁": 2243,
      "⡃": 2244,
      "⡄": 2245,
      "⡆": 2246,
      "⡇": 2247,
      "⡈": 2248,
      "⡉": 2249,
      "⡏": 2250,
      "⡓": 2251,
      "⡔": 2252,
      "⡗": 2253,
      "⡙": 2254,
      "⡛": 2255,
      "⡜": 2256,
      "⡞": 2257,
      "⡟": 2258,
      "⡠": 2259,
      "⡢": 2260,
      "⡤": 2261,
      "⡥": 2262,
      "⡦": 2263,
      "⡮": 2264,
      "⡯": 2265,
      "⡰": 2266,
      "⡲": 2267,
      "⡴": 2268,
      "⡶": 2269,
      "⡷": 2270,
      "⡸": 2271,
      "⡹": 2272,
      "⡻": 2273,
      "⡼": 2274,
      "⡽": 2275,
      "⡾": 2276,
      "⡿": 2277,
      "⢀": 2278,
      "⢁": 2279,
      "⢄": 2280,
      "⢆": 2281,
      "⢇": 2282,
      "⢈": 2283,
      "⢉": 2284,
      "⢏": 2285,
      "⢐": 2286,
      "⢔": 2287,
      "⢘": 2288,
      "⢙": 2289,
      "⢛": 2290,
      "⢠": 2291,
      "⢣": 2292,
      "⢤": 2293,
      "⢦": 2294,
      "⢧": 2295,
      "⢮": 2296,
      "⢯": 2297,
      "⢰": 2298,
      "⢲": 2299,
      "⢳": 2300,
      "⢶": 2301,
      "⢷": 2302,
      "⢸": 2303,
      "⢹": 2304,
      "⢻": 2305,
      "⢼": 2306,
      "⢽": 2307,
      "⢾": 2308,
      "⢿": 2309,
      "⣀": 2310,
      "⣁": 2311,
      "⣄": 2312,
      "⣆": 2313,
      "⣇": 2314,
      "⣈": 2315,
      "⣉": 2316,
      "⣋": 2317,
      "⣌": 2318,
      "⣍": 2319,
      "⣏": 2320,
      "⣒": 2321,
      "⣗": 2322,
      "⣘": 2323,
      "⣙": 2324,
      "⣛": 2325,
      "⣞": 2326,
      "⣠": 2327,
      "⣡": 2328,
      "⣣": 2329,
      "⣤": 2330,
      "⣥": 2331,
      "⣦": 2332,
      "⣧": 2333,
      "⣩": 2334,
      "⣭": 2335,
      "⣯": 2336,
      "⣰": 2337,
      "⣱": 2338,
      "⣳": 2339,
      "⣴": 2340,
      "⣵": 2341,
      "⣶": 2342,
      "⣷": 2343,
      "⣸": 2344,
      "⣹": 2345,
      "⣺": 2346,
      "⣻": 2347,
      "⣼": 2348,
      "⣽": 2349,
      "⣾": 2350,
      "⣿": 2351,
      "⤴": 2352,
      "⤵": 2353,
      "⦁": 2354,
      "⫴": 2355,
      "⬅": 2356,
      "⬆": 2357,
      "⬇": 2358,
      "⬛": 2359,
      "⬜": 2360,
      "⬢": 2361,
      "⭐": 2362,
      "⭕": 2363,
      "Ɐ": 2364,
      "ⱼ": 2365,
      "ⲏ": 2366,
      "ⲓ": 2367,
      "ⲙ": 2368,
      "Ⲭ": 2369,
      "ⴰ": 2370,
      "ⴱ": 2371,
      "ⵍ": 2372,
      "ⵣ": 2373,
      "⸂": 2374,
      "⸃": 2375,
      "⼈": 2376,
      "⼝": 2377,
      "⾒": 2378,
      "、": 2379,
      "。": 2380,
      "々": 2381,
      "〇": 2382,
      "〈": 2383,
      "〉": 2384,
      "《": 2385,
      "》": 2386,
      "「": 2387,
      "」": 2388,
      "『": 2389,
      "』": 2390,
      "【": 2391,
      "】": 2392,
      "〔": 2393,
      "〕": 2394,
      "〜": 2395,
      "〰": 2396,
      "〽": 2397,
      "ぁ": 2398,
      "あ": 2399,
      "い": 2400,
      "う": 2401,
      "え": 2402,
      "お": 2403,
      "か": 2404,
      "が": 2405,
      "き": 2406,
      "ぎ": 2407,
      "く": 2408,
      "ぐ": 2409,
      "け": 2410,
      "げ": 2411,
      "こ": 2412,
      "ご": 2413,
      "さ": 2414,
      "ざ": 2415,
      "し": 2416,
      "じ": 2417,
      "す": 2418,
      "ず": 2419,
      "せ": 2420,
      "ぜ": 2421,
      "そ": 2422,
      "ぞ": 2423,
      "た": 2424,
      "だ": 2425,
      "ち": 2426,
      "っ": 2427,
      "つ": 2428,
      "づ": 2429,
      "て": 2430,
      "で": 2431,
      "と": 2432,
      "ど": 2433,
      "な": 2434,
      "に": 2435,
      "ぬ": 2436,
      "ね": 2437,
      "の": 2438,
      "は": 2439,
      "ば": 2440,
      "ぱ": 2441,
      "ひ": 2442,
      "び": 2443,
      "ぴ": 2444,
      "ふ": 2445,
      "ぶ": 2446,
      "ぷ": 2447,
      "へ": 2448,
      "べ": 2449,
      "ぺ": 2450,
      "ほ": 2451,
      "ぼ": 2452,
      "ぽ": 2453,
      "ま": 2454,
      "み": 2455,
      "む": 2456,
      "め": 2457,
      "も": 2458,
      "ゃ": 2459,
      "や": 2460,
      "ゅ": 2461,
      "ゆ": 2462,
      "ょ": 2463,
      "よ": 2464,
      "ら": 2465,
      "り": 2466,
      "る": 2467,
      "れ": 2468,
      "ろ": 2469,
      "わ": 2470,
      "を": 2471,
      "ん": 2472,
      "ァ": 2473,
      "ア": 2474,
      "ィ": 2475,
      "イ": 2476,
      "ウ": 2477,
      "ェ": 2478,
      "エ": 2479,
      "ォ": 2480,
      "オ": 2481,
      "カ": 2482,
      "ガ": 2483,
      "キ": 2484,
      "ギ": 2485,
      "ク": 2486,
      "グ": 2487,
      "ケ": 2488,
      "ゲ": 2489,
      "コ": 2490,
      "ゴ": 2491,
      "サ": 2492,
      "ザ": 2493,
      "シ": 2494,
      "ジ": 2495,
      "ス": 2496,
      "ズ": 2497,
      "セ": 2498,
      "ゼ": 2499,
      "ソ": 2500,
      "ゾ": 2501,
      "タ": 2502,
      "ダ": 2503,
      "チ": 2504,
      "ヂ": 2505,
      "ッ": 2506,
      "ツ": 2507,
      "テ": 2508,
      "デ": 2509,
      "ト": 2510,
      "ド": 2511,
      "ナ": 2512,
      "ニ": 2513,
      "ヌ": 2514,
      "ネ": 2515,
      "ノ": 2516,
      "ハ": 2517,
      "バ": 2518,
      "パ": 2519,
      "ヒ": 2520,
      "ビ": 2521,
      "ピ": 2522,
      "フ": 2523,
      "ブ": 2524,
      "プ": 2525,
      "ヘ": 2526,
      "ベ": 2527,
      "ペ": 2528,
      "ホ": 2529,
      "ボ": 2530,
      "ポ": 2531,
      "マ": 2532,
      "ミ": 2533,
      "ム": 2534,
      "メ": 2535,
      "モ": 2536,
      "ャ": 2537,
      "ヤ": 2538,
      "ュ": 2539,
      "ユ": 2540,
      "ョ": 2541,
      "ヨ": 2542,
      "ラ": 2543,
      "リ": 2544,
      "ル": 2545,
      "レ": 2546,
      "ロ": 2547,
      "ワ": 2548,
      "ン": 2549,
      "ヴ": 2550,
      "ヶ": 2551,
      "・": 2552,
      "ー": 2553,
      "ヾ": 2554,
      "ㅏ": 2555,
      "ㅑ": 2556,
      "㊗": 2557,
      "㊙": 2558,
      "㎥": 2559,
      "㐅": 2560,
      "㓾": 2561,
      "㗎": 2562,
      "一": 2563,
      "丁": 2564,
      "丂": 2565,
      "七": 2566,
      "万": 2567,
      "丈": 2568,
      "三": 2569,
      "上": 2570,
      "下": 2571,
      "不": 2572,
      "与": 2573,
      "丐": 2574,
      "丑": 2575,
      "专": 2576,
      "且": 2577,
      "世": 2578,
      "丘": 2579,
      "丙": 2580,
      "业": 2581,
      "丛": 2582,
      "东": 2583,
      "丝": 2584,
      "丞": 2585,
      "両": 2586,
      "丢": 2587,
      "两": 2588,
      "严": 2589,
      "並": 2590,
      "丧": 2591,
      "个": 2592,
      "丫": 2593,
      "中": 2594,
      "丰": 2595,
      "串": 2596,
      "临": 2597,
      "丸": 2598,
      "丹": 2599,
      "为": 2600,
      "主": 2601,
      "丼": 2602,
      "丽": 2603,
      "举": 2604,
      "乃": 2605,
      "久": 2606,
      "么": 2607,
      "义": 2608,
      "之": 2609,
      "乌": 2610,
      "乍": 2611,
      "乎": 2612,
      "乏": 2613,
      "乐": 2614,
      "乒": 2615,
      "乓": 2616,
      "乔": 2617,
      "乗": 2618,
      "乘": 2619,
      "乙": 2620,
      "九": 2621,
      "乞": 2622,
      "也": 2623,
      "习": 2624,
      "乡": 2625,
      "书": 2626,
      "买": 2627,
      "乱": 2628,
      "乳": 2629,
      "乾": 2630,
      "亂": 2631,
      "了": 2632,
      "予": 2633,
      "争": 2634,
      "事": 2635,
      "二": 2636,
      "于": 2637,
      "亏": 2638,
      "云": 2639,
      "互": 2640,
      "五": 2641,
      "井": 2642,
      "亚": 2643,
      "些": 2644,
      "亜": 2645,
      "亞": 2646,
      "亡": 2647,
      "亢": 2648,
      "交": 2649,
      "亥": 2650,
      "亦": 2651,
      "产": 2652,
      "亨": 2653,
      "亩": 2654,
      "享": 2655,
      "京": 2656,
      "亭": 2657,
      "亮": 2658,
      "亲": 2659,
      "亶": 2660,
      "人": 2661,
      "亻": 2662,
      "亿": 2663,
      "什": 2664,
      "仁": 2665,
      "仄": 2666,
      "仅": 2667,
      "仆": 2668,
      "仇": 2669,
      "今": 2670,
      "介": 2671,
      "仍": 2672,
      "从": 2673,
      "仏": 2674,
      "仑": 2675,
      "仓": 2676,
      "仔": 2677,
      "仕": 2678,
      "他": 2679,
      "仗": 2680,
      "付": 2681,
      "仙": 2682,
      "代": 2683,
      "令": 2684,
      "以": 2685,
      "仪": 2686,
      "们": 2687,
      "仮": 2688,
      "仰": 2689,
      "仲": 2690,
      "件": 2691,
      "价": 2692,
      "任": 2693,
      "份": 2694,
      "仿": 2695,
      "企": 2696,
      "伊": 2697,
      "伍": 2698,
      "伎": 2699,
      "伏": 2700,
      "伐": 2701,
      "休": 2702,
      "众": 2703,
      "优": 2704,
      "伙": 2705,
      "会": 2706,
      "伝": 2707,
      "伞": 2708,
      "伟": 2709,
      "传": 2710,
      "伤": 2711,
      "伦": 2712,
      "伪": 2713,
      "伯": 2714,
      "估": 2715,
      "伴": 2716,
      "伶": 2717,
      "伸": 2718,
      "伺": 2719,
      "似": 2720,
      "伽": 2721,
      "但": 2722,
      "佇": 2723,
      "佈": 2724,
      "位": 2725,
      "低": 2726,
      "住": 2727,
      "佐": 2728,
      "佑": 2729,
      "体": 2730,
      "佔": 2731,
      "何": 2732,
      "余": 2733,
      "佛": 2734,
      "作": 2735,
      "你": 2736,
      "佢": 2737,
      "佣": 2738,
      "佩": 2739,
      "佬": 2740,
      "佳": 2741,
      "併": 2742,
      "佻": 2743,
      "佼": 2744,
      "使": 2745,
      "來": 2746,
      "例": 2747,
      "侍": 2748,
      "侏": 2749,
      "侖": 2750,
      "侗": 2751,
      "供": 2752,
      "依": 2753,
      "侠": 2754,
      "価": 2755,
      "侣": 2756,
      "侦": 2757,
      "侧": 2758,
      "侨": 2759,
      "侮": 2760,
      "侯": 2761,
      "侵": 2762,
      "侶": 2763,
      "便": 2764,
      "係": 2765,
      "促": 2766,
      "俄": 2767,
      "俊": 2768,
      "俏": 2769,
      "俐": 2770,
      "俑": 2771,
      "俗": 2772,
      "俘": 2773,
      "俚": 2774,
      "保": 2775,
      "俠": 2776,
      "信": 2777,
      "俩": 2778,
      "俭": 2779,
      "修": 2780,
      "俯": 2781,
      "俱": 2782,
      "俳": 2783,
      "倆": 2784,
      "倉": 2785,
      "個": 2786,
      "倍": 2787,
      "們": 2788,
      "倒": 2789,
      "倘": 2790,
      "候": 2791,
      "倚": 2792,
      "借": 2793,
      "倡": 2794,
      "倣": 2795,
      "値": 2796,
      "倦": 2797,
      "倫": 2798,
      "债": 2799,
      "值": 2800,
      "倾": 2801,
      "假": 2802,
      "偉": 2803,
      "偎": 2804,
      "偏": 2805,
      "做": 2806,
      "停": 2807,
      "健": 2808,
      "偲": 2809,
      "側": 2810,
      "偶": 2811,
      "偷": 2812,
      "偿": 2813,
      "傀": 2814,
      "傅": 2815,
      "傍": 2816,
      "傑": 2817,
      "傘": 2818,
      "備": 2819,
      "傢": 2820,
      "傣": 2821,
      "储": 2822,
      "催": 2823,
      "傲": 2824,
      "傳": 2825,
      "債": 2826,
      "傷": 2827,
      "傻": 2828,
      "傾": 2829,
      "僅": 2830,
      "働": 2831,
      "像": 2832,
      "僕": 2833,
      "僖": 2834,
      "僚": 2835,
      "僧": 2836,
      "僱": 2837,
      "價": 2838,
      "僻": 2839,
      "儀": 2840,
      "億": 2841,
      "儇": 2842,
      "儒": 2843,
      "儘": 2844,
      "償": 2845,
      "儡": 2846,
      "優": 2847,
      "儲": 2848,
      "儿": 2849,
      "兀": 2850,
      "允": 2851,
      "元": 2852,
      "兄": 2853,
      "充": 2854,
      "兆": 2855,
      "先": 2856,
      "光": 2857,
      "克": 2858,
      "免": 2859,
      "兎": 2860,
      "児": 2861,
      "兒": 2862,
      "兔": 2863,
      "党": 2864,
      "入": 2865,
      "內": 2866,
      "全": 2867,
      "兩": 2868,
      "八": 2869,
      "公": 2870,
      "六": 2871,
      "兮": 2872,
      "兰": 2873,
      "共": 2874,
      "关": 2875,
      "兴": 2876,
      "兵": 2877,
      "其": 2878,
      "具": 2879,
      "典": 2880,
      "兹": 2881,
      "养": 2882,
      "兼": 2883,
      "兽": 2884,
      "内": 2885,
      "円": 2886,
      "冇": 2887,
      "冈": 2888,
      "冊": 2889,
      "册": 2890,
      "再": 2891,
      "冒": 2892,
      "冗": 2893,
      "写": 2894,
      "军": 2895,
      "农": 2896,
      "冠": 2897,
      "冢": 2898,
      "冤": 2899,
      "冥": 2900,
      "冨": 2901,
      "冪": 2902,
      "冬": 2903,
      "冰": 2904,
      "冲": 2905,
      "决": 2906,
      "况": 2907,
      "冶": 2908,
      "冷": 2909,
      "冻": 2910,
      "净": 2911,
      "凄": 2912,
      "准": 2913,
      "凇": 2914,
      "凉": 2915,
      "凋": 2916,
      "凌": 2917,
      "凍": 2918,
      "减": 2919,
      "凑": 2920,
      "凛": 2921,
      "凝": 2922,
      "几": 2923,
      "凡": 2924,
      "凤": 2925,
      "処": 2926,
      "凪": 2927,
      "凭": 2928,
      "凯": 2929,
      "凰": 2930,
      "凱": 2931,
      "凳": 2932,
      "凶": 2933,
      "凸": 2934,
      "凹": 2935,
      "出": 2936,
      "击": 2937,
      "函": 2938,
      "凿": 2939,
      "刀": 2940,
      "刃": 2941,
      "分": 2942,
      "切": 2943,
      "刈": 2944,
      "刊": 2945,
      "刑": 2946,
      "划": 2947,
      "列": 2948,
      "刘": 2949,
      "则": 2950,
      "刚": 2951,
      "创": 2952,
      "初": 2953,
      "删": 2954,
      "判": 2955,
      "別": 2956,
      "利": 2957,
      "刪": 2958,
      "别": 2959,
      "到": 2960,
      "制": 2961,
      "刷": 2962,
      "券": 2963,
      "刹": 2964,
      "刺": 2965,
      "刻": 2966,
      "剁": 2967,
      "剂": 2968,
      "剃": 2969,
      "則": 2970,
      "削": 2971,
      "剌": 2972,
      "前": 2973,
      "剎": 2974,
      "剑": 2975,
      "剔": 2976,
      "剖": 2977,
      "剛": 2978,
      "剣": 2979,
      "剤": 2980,
      "剥": 2981,
      "剧": 2982,
      "剩": 2983,
      "剪": 2984,
      "副": 2985,
      "割": 2986,
      "創": 2987,
      "剽": 2988,
      "劃": 2989,
      "劄": 2990,
      "劇": 2991,
      "劉": 2992,
      "劍": 2993,
      "劑": 2994,
      "力": 2995,
      "劝": 2996,
      "办": 2997,
      "功": 2998,
      "加": 2999,
      "务": 3000,
      "劣": 3001,
      "动": 3002,
      "助": 3003,
      "努": 3004,
      "劫": 3005,
      "励": 3006,
      "劲": 3007,
      "劳": 3008,
      "労": 3009,
      "効": 3010,
      "势": 3011,
      "勁": 3012,
      "勃": 3013,
      "勇": 3014,
      "勉": 3015,
      "勋": 3016,
      "勒": 3017,
      "動": 3018,
      "勘": 3019,
      "務": 3020,
      "勝": 3021,
      "勞": 3022,
      "募": 3023,
      "勢": 3024,
      "勤": 3025,
      "勧": 3026,
      "勵": 3027,
      "勸": 3028,
      "勺": 3029,
      "勻": 3030,
      "勾": 3031,
      "勿": 3032,
      "匀": 3033,
      "匂": 3034,
      "包": 3035,
      "匆": 3036,
      "匈": 3037,
      "匕": 3038,
      "化": 3039,
      "北": 3040,
      "匙": 3041,
      "匠": 3042,
      "匡": 3043,
      "匪": 3044,
      "匮": 3045,
      "匹": 3046,
      "区": 3047,
      "医": 3048,
      "匾": 3049,
      "匿": 3050,
      "區": 3051,
      "十": 3052,
      "千": 3053,
      "卅": 3054,
      "升": 3055,
      "午": 3056,
      "卉": 3057,
      "半": 3058,
      "卌": 3059,
      "华": 3060,
      "协": 3061,
      "卑": 3062,
      "卒": 3063,
      "卓": 3064,
      "協": 3065,
      "单": 3066,
      "卖": 3067,
      "南": 3068,
      "単": 3069,
      "博": 3070,
      "卜": 3071,
      "占": 3072,
      "卡": 3073,
      "卢": 3074,
      "卤": 3075,
      "卧": 3076,
      "卫": 3077,
      "卯": 3078,
      "印": 3079,
      "危": 3080,
      "即": 3081,
      "却": 3082,
      "卵": 3083,
      "卷": 3084,
      "卸": 3085,
      "卻": 3086,
      "卿": 3087,
      "厂": 3088,
      "厄": 3089,
      "厅": 3090,
      "历": 3091,
      "厉": 3092,
      "压": 3093,
      "厌": 3094,
      "厕": 3095,
      "厘": 3096,
      "厚": 3097,
      "原": 3098,
      "厢": 3099,
      "厥": 3100,
      "厦": 3101,
      "厨": 3102,
      "厮": 3103,
      "厲": 3104,
      "厳": 3105,
      "去": 3106,
      "县": 3107,
      "参": 3108,
      "參": 3109,
      "又": 3110,
      "叉": 3111,
      "及": 3112,
      "友": 3113,
      "双": 3114,
      "反": 3115,
      "収": 3116,
      "发": 3117,
      "叔": 3118,
      "取": 3119,
      "受": 3120,
      "变": 3121,
      "叙": 3122,
      "叛": 3123,
      "叟": 3124,
      "叠": 3125,
      "口": 3126,
      "古": 3127,
      "句": 3128,
      "另": 3129,
      "叩": 3130,
      "只": 3131,
      "叫": 3132,
      "召": 3133,
      "叭": 3134,
      "叮": 3135,
      "可": 3136,
      "台": 3137,
      "史": 3138,
      "右": 3139,
      "叶": 3140,
      "号": 3141,
      "司": 3142,
      "叹": 3143,
      "叽": 3144,
      "吃": 3145,
      "各": 3146,
      "合": 3147,
      "吉": 3148,
      "吊": 3149,
      "同": 3150,
      "名": 3151,
      "后": 3152,
      "吐": 3153,
      "向": 3154,
      "吓": 3155,
      "吕": 3156,
      "吗": 3157,
      "君": 3158,
      "吝": 3159,
      "吞": 3160,
      "吟": 3161,
      "吠": 3162,
      "否": 3163,
      "吧": 3164,
      "吨": 3165,
      "含": 3166,
      "听": 3167,
      "启": 3168,
      "吳": 3169,
      "吴": 3170,
      "吵": 3171,
      "吸": 3172,
      "吹": 3173,
      "吻": 3174,
      "吾": 3175,
      "呀": 3176,
      "呂": 3177,
      "呃": 3178,
      "呆": 3179,
      "呈": 3180,
      "告": 3181,
      "呕": 3182,
      "员": 3183,
      "呢": 3184,
      "呣": 3185,
      "周": 3186,
      "呪": 3187,
      "味": 3188,
      "呵": 3189,
      "呷": 3190,
      "呼": 3191,
      "命": 3192,
      "咁": 3193,
      "咊": 3194,
      "咋": 3195,
      "和": 3196,
      "咏": 3197,
      "咒": 3198,
      "咕": 3199,
      "咖": 3200,
      "咙": 3201,
      "咨": 3202,
      "咪": 3203,
      "咬": 3204,
      "咯": 3205,
      "咱": 3206,
      "咳": 3207,
      "咸": 3208,
      "咽": 3209,
      "咿": 3210,
      "哀": 3211,
      "品": 3212,
      "哄": 3213,
      "哇": 3214,
      "哈": 3215,
      "哉": 3216,
      "哋": 3217,
      "响": 3218,
      "哎": 3219,
      "哔": 3220,
      "哗": 3221,
      "員": 3222,
      "哥": 3223,
      "哦": 3224,
      "哧": 3225,
      "哨": 3226,
      "哩": 3227,
      "哪": 3228,
      "哭": 3229,
      "哮": 3230,
      "哲": 3231,
      "哺": 3232,
      "唆": 3233,
      "唇": 3234,
      "唉": 3235,
      "唐": 3236,
      "唑": 3237,
      "唔": 3238,
      "唢": 3239,
      "唤": 3240,
      "售": 3241,
      "唯": 3242,
      "唱": 3243,
      "唾": 3244,
      "啃": 3245,
      "商": 3246,
      "啊": 3247,
      "問": 3248,
      "啟": 3249,
      "啡": 3250,
      "啤": 3251,
      "啥": 3252,
      "啦": 3253,
      "啬": 3254,
      "啮": 3255,
      "啱": 3256,
      "啲": 3257,
      "啵": 3258,
      "啸": 3259,
      "啼": 3260,
      "喂": 3261,
      "喃": 3262,
      "善": 3263,
      "喇": 3264,
      "喉": 3265,
      "喋": 3266,
      "喎": 3267,
      "喔": 3268,
      "喘": 3269,
      "喚": 3270,
      "喜": 3271,
      "喝": 3272,
      "喧": 3273,
      "喩": 3274,
      "喪": 3275,
      "喫": 3276,
      "單": 3277,
      "喰": 3278,
      "喱": 3279,
      "営": 3280,
      "喷": 3281,
      "喺": 3282,
      "喻": 3283,
      "喽": 3284,
      "嗅": 3285,
      "嗎": 3286,
      "嗓": 3287,
      "嗜": 3288,
      "嗨": 3289,
      "嗯": 3290,
      "嗽": 3291,
      "嘅": 3292,
      "嘆": 3293,
      "嘉": 3294,
      "嘎": 3295,
      "嘖": 3296,
      "嘗": 3297,
      "嘘": 3298,
      "嘚": 3299,
      "嘛": 3300,
      "嘢": 3301,
      "嘱": 3302,
      "嘲": 3303,
      "嘴": 3304,
      "嘻": 3305,
      "噌": 3306,
      "噓": 3307,
      "噗": 3308,
      "噚": 3309,
      "噛": 3310,
      "噢": 3311,
      "器": 3312,
      "噪": 3313,
      "噫": 3314,
      "噬": 3315,
      "嚐": 3316,
      "嚴": 3317,
      "嚷": 3318,
      "嚼": 3319,
      "囉": 3320,
      "囊": 3321,
      "囍": 3322,
      "囚": 3323,
      "四": 3324,
      "回": 3325,
      "因": 3326,
      "团": 3327,
      "団": 3328,
      "囤": 3329,
      "囧": 3330,
      "园": 3331,
      "困": 3332,
      "囱": 3333,
      "囲": 3334,
      "図": 3335,
      "围": 3336,
      "固": 3337,
      "国": 3338,
      "图": 3339,
      "圆": 3340,
      "圈": 3341,
      "國": 3342,
      "圍": 3343,
      "圏": 3344,
      "園": 3345,
      "圓": 3346,
      "圕": 3347,
      "圖": 3348,
      "團": 3349,
      "土": 3350,
      "圣": 3351,
      "圧": 3352,
      "在": 3353,
      "地": 3354,
      "圳": 3355,
      "场": 3356,
      "圻": 3357,
      "圾": 3358,
      "址": 3359,
      "均": 3360,
      "坊": 3361,
      "坎": 3362,
      "坏": 3363,
      "坐": 3364,
      "坑": 3365,
      "块": 3366,
      "坚": 3367,
      "坛": 3368,
      "坝": 3369,
      "坞": 3370,
      "坠": 3371,
      "坡": 3372,
      "坤": 3373,
      "坦": 3374,
      "坨": 3375,
      "坪": 3376,
      "坷": 3377,
      "垂": 3378,
      "垃": 3379,
      "型": 3380,
      "垒": 3381,
      "垠": 3382,
      "垢": 3383,
      "垦": 3384,
      "垫": 3385,
      "垮": 3386,
      "埃": 3387,
      "埋": 3388,
      "城": 3389,
      "埔": 3390,
      "埕": 3391,
      "域": 3392,
      "埠": 3393,
      "埵": 3394,
      "執": 3395,
      "培": 3396,
      "基": 3397,
      "埼": 3398,
      "堂": 3399,
      "堅": 3400,
      "堆": 3401,
      "堡": 3402,
      "堤": 3403,
      "堪": 3404,
      "堰": 3405,
      "報": 3406,
      "場": 3407,
      "堵": 3408,
      "塊": 3409,
      "塌": 3410,
      "塑": 3411,
      "塔": 3412,
      "塗": 3413,
      "塘": 3414,
      "塞": 3415,
      "塢": 3416,
      "塩": 3417,
      "填": 3418,
      "塵": 3419,
      "境": 3420,
      "墓": 3421,
      "増": 3422,
      "墙": 3423,
      "增": 3424,
      "墟": 3425,
      "墨": 3426,
      "墮": 3427,
      "墳": 3428,
      "墾": 3429,
      "壁": 3430,
      "壇": 3431,
      "壊": 3432,
      "壓": 3433,
      "壕": 3434,
      "壞": 3435,
      "壢": 3436,
      "壤": 3437,
      "士": 3438,
      "壬": 3439,
      "壮": 3440,
      "壯": 3441,
      "声": 3442,
      "売": 3443,
      "壳": 3444,
      "壶": 3445,
      "处": 3446,
      "备": 3447,
      "変": 3448,
      "复": 3449,
      "夏": 3450,
      "夔": 3451,
      "夕": 3452,
      "外": 3453,
      "多": 3454,
      "夜": 3455,
      "够": 3456,
      "夠": 3457,
      "夢": 3458,
      "夥": 3459,
      "大": 3460,
      "天": 3461,
      "太": 3462,
      "夫": 3463,
      "央": 3464,
      "夯": 3465,
      "失": 3466,
      "头": 3467,
      "夷": 3468,
      "夸": 3469,
      "夹": 3470,
      "夺": 3471,
      "夾": 3472,
      "奂": 3473,
      "奇": 3474,
      "奈": 3475,
      "奉": 3476,
      "奋": 3477,
      "奏": 3478,
      "奐": 3479,
      "契": 3480,
      "奔": 3481,
      "奖": 3482,
      "套": 3483,
      "奠": 3484,
      "奥": 3485,
      "奧": 3486,
      "奨": 3487,
      "奪": 3488,
      "奮": 3489,
      "女": 3490,
      "奴": 3491,
      "奶": 3492,
      "奸": 3493,
      "她": 3494,
      "好": 3495,
      "如": 3496,
      "妃": 3497,
      "妄": 3498,
      "妆": 3499,
      "妇": 3500,
      "妈": 3501,
      "妊": 3502,
      "妍": 3503,
      "妒": 3504,
      "妓": 3505,
      "妖": 3506,
      "妙": 3507,
      "妝": 3508,
      "妥": 3509,
      "妨": 3510,
      "妮": 3511,
      "妹": 3512,
      "妻": 3513,
      "姆": 3514,
      "姊": 3515,
      "始": 3516,
      "姐": 3517,
      "姑": 3518,
      "姓": 3519,
      "委": 3520,
      "姚": 3521,
      "姜": 3522,
      "姥": 3523,
      "姫": 3524,
      "姬": 3525,
      "姮": 3526,
      "姻": 3527,
      "姿": 3528,
      "威": 3529,
      "娃": 3530,
      "娄": 3531,
      "娅": 3532,
      "娇": 3533,
      "娘": 3534,
      "娛": 3535,
      "娜": 3536,
      "娟": 3537,
      "娥": 3538,
      "娱": 3539,
      "娴": 3540,
      "娼": 3541,
      "婆": 3542,
      "婉": 3543,
      "婊": 3544,
      "婎": 3545,
      "婚": 3546,
      "婦": 3547,
      "婪": 3548,
      "婴": 3549,
      "婷": 3550,
      "媒": 3551,
      "媚": 3552,
      "媛": 3553,
      "媠": 3554,
      "媲": 3555,
      "媳": 3556,
      "媽": 3557,
      "嫁": 3558,
      "嫉": 3559,
      "嫌": 3560,
      "嫔": 3561,
      "嫖": 3562,
      "嫡": 3563,
      "嫣": 3564,
      "嫩": 3565,
      "嬉": 3566,
      "嬰": 3567,
      "嬸": 3568,
      "孀": 3569,
      "子": 3570,
      "孔": 3571,
      "孕": 3572,
      "字": 3573,
      "存": 3574,
      "孙": 3575,
      "孜": 3576,
      "孝": 3577,
      "孟": 3578,
      "孢": 3579,
      "季": 3580,
      "孤": 3581,
      "学": 3582,
      "孩": 3583,
      "孫": 3584,
      "孰": 3585,
      "孱": 3586,
      "孵": 3587,
      "學": 3588,
      "宁": 3589,
      "它": 3590,
      "宅": 3591,
      "宇": 3592,
      "守": 3593,
      "安": 3594,
      "宋": 3595,
      "完": 3596,
      "宏": 3597,
      "宓": 3598,
      "宕": 3599,
      "宗": 3600,
      "官": 3601,
      "宙": 3602,
      "定": 3603,
      "宛": 3604,
      "宜": 3605,
      "宝": 3606,
      "实": 3607,
      "実": 3608,
      "宠": 3609,
      "审": 3610,
      "客": 3611,
      "宣": 3612,
      "室": 3613,
      "宦": 3614,
      "宪": 3615,
      "宫": 3616,
      "宮": 3617,
      "宰": 3618,
      "害": 3619,
      "宴": 3620,
      "宵": 3621,
      "家": 3622,
      "容": 3623,
      "宽": 3624,
      "宾": 3625,
      "宿": 3626,
      "寂": 3627,
      "寄": 3628,
      "寅": 3629,
      "密": 3630,
      "富": 3631,
      "寒": 3632,
      "寓": 3633,
      "寝": 3634,
      "寞": 3635,
      "察": 3636,
      "寡": 3637,
      "寢": 3638,
      "實": 3639,
      "寧": 3640,
      "寨": 3641,
      "審": 3642,
      "寫": 3643,
      "寬": 3644,
      "寰": 3645,
      "寶": 3646,
      "寸": 3647,
      "对": 3648,
      "寺": 3649,
      "寻": 3650,
      "导": 3651,
      "対": 3652,
      "寿": 3653,
      "封": 3654,
      "専": 3655,
      "射": 3656,
      "将": 3657,
      "將": 3658,
      "專": 3659,
      "尉": 3660,
      "尊": 3661,
      "尋": 3662,
      "對": 3663,
      "導": 3664,
      "小": 3665,
      "少": 3666,
      "尔": 3667,
      "尖": 3668,
      "尘": 3669,
      "尚": 3670,
      "尝": 3671,
      "尤": 3672,
      "尧": 3673,
      "尬": 3674,
      "就": 3675,
      "尴": 3676,
      "尷": 3677,
      "尺": 3678,
      "尼": 3679,
      "尽": 3680,
      "尾": 3681,
      "尿": 3682,
      "局": 3683,
      "屁": 3684,
      "层": 3685,
      "屄": 3686,
      "居": 3687,
      "屆": 3688,
      "屈": 3689,
      "屉": 3690,
      "届": 3691,
      "屋": 3692,
      "屌": 3693,
      "屎": 3694,
      "屏": 3695,
      "屑": 3696,
      "展": 3697,
      "属": 3698,
      "屠": 3699,
      "層": 3700,
      "履": 3701,
      "屦": 3702,
      "屬": 3703,
      "屯": 3704,
      "山": 3705,
      "屿": 3706,
      "岁": 3707,
      "岂": 3708,
      "岐": 3709,
      "岑": 3710,
      "岗": 3711,
      "岛": 3712,
      "岡": 3713,
      "岩": 3714,
      "岭": 3715,
      "岱": 3716,
      "岳": 3717,
      "岷": 3718,
      "岸": 3719,
      "峙": 3720,
      "峡": 3721,
      "峦": 3722,
      "峨": 3723,
      "峭": 3724,
      "峰": 3725,
      "島": 3726,
      "峻": 3727,
      "峽": 3728,
      "崇": 3729,
      "崎": 3730,
      "崔": 3731,
      "崖": 3732,
      "崗": 3733,
      "崩": 3734,
      "嵋": 3735,
      "嵌": 3736,
      "嵬": 3737,
      "嶺": 3738,
      "巅": 3739,
      "巍": 3740,
      "巒": 3741,
      "巔": 3742,
      "川": 3743,
      "州": 3744,
      "巡": 3745,
      "巢": 3746,
      "巣": 3747,
      "工": 3748,
      "左": 3749,
      "巧": 3750,
      "巨": 3751,
      "巩": 3752,
      "巫": 3753,
      "差": 3754,
      "己": 3755,
      "已": 3756,
      "巳": 3757,
      "巴": 3758,
      "巷": 3759,
      "巻": 3760,
      "巾": 3761,
      "币": 3762,
      "市": 3763,
      "布": 3764,
      "帅": 3765,
      "帆": 3766,
      "师": 3767,
      "希": 3768,
      "帐": 3769,
      "帕": 3770,
      "帖": 3771,
      "帘": 3772,
      "帜": 3773,
      "帝": 3774,
      "帥": 3775,
      "带": 3776,
      "帧": 3777,
      "師": 3778,
      "席": 3779,
      "帮": 3780,
      "帯": 3781,
      "帰": 3782,
      "帳": 3783,
      "帶": 3784,
      "常": 3785,
      "帽": 3786,
      "幂": 3787,
      "幅": 3788,
      "幌": 3789,
      "幕": 3790,
      "幡": 3791,
      "幣": 3792,
      "幫": 3793,
      "干": 3794,
      "平": 3795,
      "年": 3796,
      "并": 3797,
      "幸": 3798,
      "幹": 3799,
      "幻": 3800,
      "幼": 3801,
      "幽": 3802,
      "幾": 3803,
      "广": 3804,
      "庁": 3805,
      "広": 3806,
      "庄": 3807,
      "庆": 3808,
      "庇": 3809,
      "床": 3810,
      "序": 3811,
      "庐": 3812,
      "库": 3813,
      "应": 3814,
      "底": 3815,
      "店": 3816,
      "庙": 3817,
      "庚": 3818,
      "府": 3819,
      "庞": 3820,
      "废": 3821,
      "度": 3822,
      "座": 3823,
      "庫": 3824,
      "庭": 3825,
      "康": 3826,
      "庸": 3827,
      "庾": 3828,
      "廈": 3829,
      "廉": 3830,
      "廊": 3831,
      "廓": 3832,
      "廚": 3833,
      "廟": 3834,
      "廠": 3835,
      "廣": 3836,
      "廳": 3837,
      "延": 3838,
      "廷": 3839,
      "建": 3840,
      "廻": 3841,
      "廿": 3842,
      "开": 3843,
      "异": 3844,
      "弃": 3845,
      "弄": 3846,
      "弈": 3847,
      "弊": 3848,
      "式": 3849,
      "弓": 3850,
      "引": 3851,
      "弗": 3852,
      "弘": 3853,
      "弛": 3854,
      "弟": 3855,
      "张": 3856,
      "弥": 3857,
      "弦": 3858,
      "弩": 3859,
      "弯": 3860,
      "弱": 3861,
      "張": 3862,
      "強": 3863,
      "弹": 3864,
      "强": 3865,
      "弼": 3866,
      "弾": 3867,
      "彌": 3868,
      "彎": 3869,
      "归": 3870,
      "当": 3871,
      "录": 3872,
      "彙": 3873,
      "彝": 3874,
      "形": 3875,
      "彦": 3876,
      "彩": 3877,
      "彪": 3878,
      "彭": 3879,
      "彰": 3880,
      "影": 3881,
      "彷": 3882,
      "役": 3883,
      "彻": 3884,
      "彼": 3885,
      "往": 3886,
      "征": 3887,
      "径": 3888,
      "待": 3889,
      "很": 3890,
      "徊": 3891,
      "律": 3892,
      "後": 3893,
      "徐": 3894,
      "徑": 3895,
      "徒": 3896,
      "従": 3897,
      "得": 3898,
      "徘": 3899,
      "徙": 3900,
      "從": 3901,
      "御": 3902,
      "徨": 3903,
      "復": 3904,
      "循": 3905,
      "微": 3906,
      "徳": 3907,
      "徴": 3908,
      "徵": 3909,
      "德": 3910,
      "徹": 3911,
      "徽": 3912,
      "心": 3913,
      "必": 3914,
      "忆": 3915,
      "忌": 3916,
      "忍": 3917,
      "忒": 3918,
      "志": 3919,
      "忘": 3920,
      "忙": 3921,
      "応": 3922,
      "忠": 3923,
      "忧": 3924,
      "快": 3925,
      "忱": 3926,
      "念": 3927,
      "忽": 3928,
      "怀": 3929,
      "态": 3930,
      "怅": 3931,
      "怎": 3932,
      "怒": 3933,
      "怕": 3934,
      "怖": 3935,
      "怜": 3936,
      "思": 3937,
      "怠": 3938,
      "怡": 3939,
      "急": 3940,
      "性": 3941,
      "怨": 3942,
      "怪": 3943,
      "怯": 3944,
      "总": 3945,
      "怼": 3946,
      "恁": 3947,
      "恃": 3948,
      "恆": 3949,
      "恋": 3950,
      "恍": 3951,
      "恐": 3952,
      "恒": 3953,
      "恕": 3954,
      "恢": 3955,
      "恣": 3956,
      "恤": 3957,
      "恥": 3958,
      "恨": 3959,
      "恩": 3960,
      "恭": 3961,
      "息": 3962,
      "恰": 3963,
      "恳": 3964,
      "恵": 3965,
      "恶": 3966,
      "恼": 3967,
      "悄": 3968,
      "悅": 3969,
      "悉": 3970,
      "悍": 3971,
      "悔": 3972,
      "悚": 3973,
      "悟": 3974,
      "悠": 3975,
      "患": 3976,
      "悦": 3977,
      "悧": 3978,
      "您": 3979,
      "悩": 3980,
      "悪": 3981,
      "悬": 3982,
      "悲": 3983,
      "悸": 3984,
      "悼": 3985,
      "情": 3986,
      "惊": 3987,
      "惋": 3988,
      "惑": 3989,
      "惕": 3990,
      "惚": 3991,
      "惜": 3992,
      "惟": 3993,
      "惠": 3994,
      "惡": 3995,
      "惦": 3996,
      "惧": 3997,
      "惨": 3998,
      "惩": 3999,
      "惫": 4000,
      "惭": 4001,
      "惯": 4002,
      "惰": 4003,
      "想": 4004,
      "惶": 4005,
      "惹": 4006,
      "愁": 4007,
      "愈": 4008,
      "愉": 4009,
      "意": 4010,
      "愚": 4011,
      "愛": 4012,
      "感": 4013,
      "愤": 4014,
      "愧": 4015,
      "愿": 4016,
      "慈": 4017,
      "態": 4018,
      "慌": 4019,
      "慎": 4020,
      "慑": 4021,
      "慕": 4022,
      "慘": 4023,
      "慢": 4024,
      "慣": 4025,
      "慧": 4026,
      "慨": 4027,
      "慮": 4028,
      "慰": 4029,
      "慶": 4030,
      "憂": 4031,
      "憊": 4032,
      "憋": 4033,
      "憐": 4034,
      "憑": 4035,
      "憧": 4036,
      "憩": 4037,
      "憫": 4038,
      "憬": 4039,
      "憲": 4040,
      "憶": 4041,
      "憾": 4042,
      "懂": 4043,
      "懇": 4044,
      "懈": 4045,
      "應": 4046,
      "懒": 4047,
      "懦": 4048,
      "懶": 4049,
      "懷": 4050,
      "懸": 4051,
      "懼": 4052,
      "懿": 4053,
      "戀": 4054,
      "戈": 4055,
      "戊": 4056,
      "戌": 4057,
      "戍": 4058,
      "戏": 4059,
      "成": 4060,
      "我": 4061,
      "戒": 4062,
      "或": 4063,
      "战": 4064,
      "戚": 4065,
      "戛": 4066,
      "戟": 4067,
      "戦": 4068,
      "截": 4069,
      "戯": 4070,
      "戰": 4071,
      "戲": 4072,
      "戳": 4073,
      "戴": 4074,
      "戶": 4075,
      "户": 4076,
      "戸": 4077,
      "戻": 4078,
      "房": 4079,
      "所": 4080,
      "扁": 4081,
      "扇": 4082,
      "手": 4083,
      "才": 4084,
      "扎": 4085,
      "扑": 4086,
      "扒": 4087,
      "打": 4088,
      "扔": 4089,
      "払": 4090,
      "托": 4091,
      "扣": 4092,
      "执": 4093,
      "扩": 4094,
      "扫": 4095,
      "扬": 4096,
      "扭": 4097,
      "扮": 4098,
      "扯": 4099,
      "扰": 4100,
      "扱": 4101,
      "扶": 4102,
      "批": 4103,
      "扼": 4104,
      "找": 4105,
      "承": 4106,
      "技": 4107,
      "抄": 4108,
      "抉": 4109,
      "把": 4110,
      "抑": 4111,
      "抒": 4112,
      "抓": 4113,
      "投": 4114,
      "抖": 4115,
      "抗": 4116,
      "折": 4117,
      "抚": 4118,
      "抛": 4119,
      "抜": 4120,
      "択": 4121,
      "抢": 4122,
      "护": 4123,
      "报": 4124,
      "抨": 4125,
      "披": 4126,
      "抬": 4127,
      "抯": 4128,
      "抱": 4129,
      "抵": 4130,
      "抹": 4131,
      "押": 4132,
      "抽": 4133,
      "抿": 4134,
      "拂": 4135,
      "担": 4136,
      "拆": 4137,
      "拈": 4138,
      "拉": 4139,
      "拋": 4140,
      "拌": 4141,
      "拍": 4142,
      "拏": 4143,
      "拐": 4144,
      "拒": 4145,
      "拓": 4146,
      "拔": 4147,
      "拖": 4148,
      "拘": 4149,
      "拙": 4150,
      "招": 4151,
      "拜": 4152,
      "拝": 4153,
      "拟": 4154,
      "拡": 4155,
      "拥": 4156,
      "拦": 4157,
      "拨": 4158,
      "择": 4159,
      "括": 4160,
      "拭": 4161,
      "拮": 4162,
      "拯": 4163,
      "拱": 4164,
      "拳": 4165,
      "拶": 4166,
      "拷": 4167,
      "拼": 4168,
      "拾": 4169,
      "拿": 4170,
      "持": 4171,
      "挂": 4172,
      "指": 4173,
      "按": 4174,
      "挐": 4175,
      "挑": 4176,
      "挖": 4177,
      "挙": 4178,
      "挚": 4179,
      "挟": 4180,
      "挠": 4181,
      "挡": 4182,
      "挣": 4183,
      "挤": 4184,
      "挥": 4185,
      "挨": 4186,
      "挪": 4187,
      "挫": 4188,
      "振": 4189,
      "挺": 4190,
      "挽": 4191,
      "挿": 4192,
      "捅": 4193,
      "捆": 4194,
      "捉": 4195,
      "捍": 4196,
      "捎": 4197,
      "捏": 4198,
      "捐": 4199,
      "捕": 4200,
      "捞": 4201,
      "损": 4202,
      "换": 4203,
      "捧": 4204,
      "捨": 4205,
      "据": 4206,
      "捲": 4207,
      "捶": 4208,
      "捷": 4209,
      "掀": 4210,
      "掃": 4211,
      "授": 4212,
      "掉": 4213,
      "掌": 4214,
      "掏": 4215,
      "排": 4216,
      "掘": 4217,
      "掙": 4218,
      "掛": 4219,
      "掠": 4220,
      "採": 4221,
      "探": 4222,
      "掣": 4223,
      "接": 4224,
      "控": 4225,
      "推": 4226,
      "掩": 4227,
      "措": 4228,
      "掰": 4229,
      "掲": 4230,
      "掷": 4231,
      "掺": 4232,
      "揃": 4233,
      "揉": 4234,
      "描": 4235,
      "提": 4236,
      "插": 4237,
      "揚": 4238,
      "換": 4239,
      "握": 4240,
      "揣": 4241,
      "揪": 4242,
      "揭": 4243,
      "揮": 4244,
      "援": 4245,
      "揺": 4246,
      "揽": 4247,
      "搁": 4248,
      "搂": 4249,
      "搅": 4250,
      "損": 4251,
      "搏": 4252,
      "搐": 4253,
      "搓": 4254,
      "搔": 4255,
      "搖": 4256,
      "搜": 4257,
      "搞": 4258,
      "搡": 4259,
      "搬": 4260,
      "搭": 4261,
      "搵": 4262,
      "携": 4263,
      "摂": 4264,
      "摄": 4265,
      "摆": 4266,
      "摇": 4267,
      "摊": 4268,
      "摔": 4269,
      "摘": 4270,
      "摧": 4271,
      "摩": 4272,
      "摯": 4273,
      "摸": 4274,
      "摹": 4275,
      "摺": 4276,
      "撃": 4277,
      "撇": 4278,
      "撐": 4279,
      "撑": 4280,
      "撒": 4281,
      "撕": 4282,
      "撞": 4283,
      "撤": 4284,
      "撥": 4285,
      "撩": 4286,
      "撫": 4287,
      "播": 4288,
      "撮": 4289,
      "撰": 4290,
      "撲": 4291,
      "撷": 4292,
      "撸": 4293,
      "撼": 4294,
      "撿": 4295,
      "擀": 4296,
      "擁": 4297,
      "擅": 4298,
      "擇": 4299,
      "擊": 4300,
      "操": 4301,
      "擎": 4302,
      "擔": 4303,
      "擘": 4304,
      "據": 4305,
      "擠": 4306,
      "擦": 4307,
      "擬": 4308,
      "擴": 4309,
      "擷": 4310,
      "擺": 4311,
      "擾": 4312,
      "攀": 4313,
      "攒": 4314,
      "攜": 4315,
      "攝": 4316,
      "攤": 4317,
      "攧": 4318,
      "攪": 4319,
      "支": 4320,
      "收": 4321,
      "改": 4322,
      "攻": 4323,
      "放": 4324,
      "政": 4325,
      "故": 4326,
      "效": 4327,
      "敌": 4328,
      "敏": 4329,
      "救": 4330,
      "敗": 4331,
      "敘": 4332,
      "教": 4333,
      "敛": 4334,
      "敞": 4335,
      "敢": 4336,
      "散": 4337,
      "敦": 4338,
      "敬": 4339,
      "数": 4340,
      "敲": 4341,
      "整": 4342,
      "敵": 4343,
      "敷": 4344,
      "數": 4345,
      "文": 4346,
      "斌": 4347,
      "斐": 4348,
      "斑": 4349,
      "斓": 4350,
      "斗": 4351,
      "料": 4352,
      "斛": 4353,
      "斜": 4354,
      "斟": 4355,
      "斤": 4356,
      "斥": 4357,
      "斩": 4358,
      "斫": 4359,
      "斬": 4360,
      "断": 4361,
      "斯": 4362,
      "新": 4363,
      "斷": 4364,
      "方": 4365,
      "於": 4366,
      "施": 4367,
      "旁": 4368,
      "旅": 4369,
      "旋": 4370,
      "旌": 4371,
      "旎": 4372,
      "族": 4373,
      "旖": 4374,
      "旗": 4375,
      "无": 4376,
      "既": 4377,
      "日": 4378,
      "旦": 4379,
      "旧": 4380,
      "旨": 4381,
      "早": 4382,
      "旬": 4383,
      "旭": 4384,
      "旱": 4385,
      "时": 4386,
      "旷": 4387,
      "旺": 4388,
      "昂": 4389,
      "昆": 4390,
      "昇": 4391,
      "昊": 4392,
      "昌": 4393,
      "明": 4394,
      "昏": 4395,
      "易": 4396,
      "昔": 4397,
      "星": 4398,
      "映": 4399,
      "春": 4400,
      "昧": 4401,
      "昨": 4402,
      "昭": 4403,
      "是": 4404,
      "昼": 4405,
      "显": 4406,
      "時": 4407,
      "晃": 4408,
      "晉": 4409,
      "晋": 4410,
      "晏": 4411,
      "晒": 4412,
      "晓": 4413,
      "晔": 4414,
      "晕": 4415,
      "晖": 4416,
      "晚": 4417,
      "晝": 4418,
      "晤": 4419,
      "晦": 4420,
      "晨": 4421,
      "晩": 4422,
      "普": 4423,
      "景": 4424,
      "晰": 4425,
      "晴": 4426,
      "晶": 4427,
      "晷": 4428,
      "智": 4429,
      "暁": 4430,
      "暂": 4431,
      "暇": 4432,
      "暈": 4433,
      "暑": 4434,
      "暖": 4435,
      "暗": 4436,
      "暝": 4437,
      "暢": 4438,
      "暦": 4439,
      "暧": 4440,
      "暨": 4441,
      "暫": 4442,
      "暮": 4443,
      "暴": 4444,
      "暹": 4445,
      "曄": 4446,
      "曆": 4447,
      "曉": 4448,
      "曙": 4449,
      "曜": 4450,
      "曝": 4451,
      "曠": 4452,
      "曦": 4453,
      "曬": 4454,
      "曰": 4455,
      "曲": 4456,
      "曳": 4457,
      "更": 4458,
      "書": 4459,
      "曹": 4460,
      "曼": 4461,
      "曾": 4462,
      "替": 4463,
      "最": 4464,
      "會": 4465,
      "月": 4466,
      "有": 4467,
      "朋": 4468,
      "服": 4469,
      "朔": 4470,
      "朗": 4471,
      "望": 4472,
      "朝": 4473,
      "期": 4474,
      "朦": 4475,
      "木": 4476,
      "未": 4477,
      "末": 4478,
      "本": 4479,
      "札": 4480,
      "术": 4481,
      "朱": 4482,
      "朴": 4483,
      "朵": 4484,
      "机": 4485,
      "朽": 4486,
      "杀": 4487,
      "杂": 4488,
      "权": 4489,
      "杆": 4490,
      "杉": 4491,
      "李": 4492,
      "杏": 4493,
      "材": 4494,
      "村": 4495,
      "杜": 4496,
      "杞": 4497,
      "束": 4498,
      "杠": 4499,
      "条": 4500,
      "来": 4501,
      "杨": 4502,
      "杭": 4503,
      "杯": 4504,
      "杰": 4505,
      "東": 4506,
      "杷": 4507,
      "松": 4508,
      "板": 4509,
      "极": 4510,
      "构": 4511,
      "枇": 4512,
      "枉": 4513,
      "析": 4514,
      "枕": 4515,
      "林": 4516,
      "枚": 4517,
      "果": 4518,
      "枝": 4519,
      "枢": 4520,
      "枣": 4521,
      "枪": 4522,
      "枫": 4523,
      "枯": 4524,
      "架": 4525,
      "枸": 4526,
      "柄": 4527,
      "柏": 4528,
      "某": 4529,
      "染": 4530,
      "柔": 4531,
      "柚": 4532,
      "柜": 4533,
      "柠": 4534,
      "查": 4535,
      "柯": 4536,
      "柱": 4537,
      "柳": 4538,
      "柴": 4539,
      "柷": 4540,
      "査": 4541,
      "柿": 4542,
      "栃": 4543,
      "栄": 4544,
      "栅": 4545,
      "标": 4546,
      "栈": 4547,
      "栉": 4548,
      "栋": 4549,
      "栏": 4550,
      "树": 4551,
      "栖": 4552,
      "栗": 4553,
      "校": 4554,
      "栩": 4555,
      "株": 4556,
      "样": 4557,
      "核": 4558,
      "根": 4559,
      "格": 4560,
      "栽": 4561,
      "桂": 4562,
      "桃": 4563,
      "框": 4564,
      "案": 4565,
      "桌": 4566,
      "桐": 4567,
      "桑": 4568,
      "桓": 4569,
      "桔": 4570,
      "桜": 4571,
      "桡": 4572,
      "档": 4573,
      "桥": 4574,
      "桨": 4575,
      "桶": 4576,
      "梁": 4577,
      "梅": 4578,
      "梗": 4579,
      "條": 4580,
      "梢": 4581,
      "梦": 4582,
      "梨": 4583,
      "梭": 4584,
      "梯": 4585,
      "械": 4586,
      "梳": 4587,
      "梵": 4588,
      "梶": 4589,
      "检": 4590,
      "棄": 4591,
      "棉": 4592,
      "棋": 4593,
      "棍": 4594,
      "棒": 4595,
      "棕": 4596,
      "棘": 4597,
      "棣": 4598,
      "棧": 4599,
      "森": 4600,
      "棲": 4601,
      "棵": 4602,
      "椅": 4603,
      "植": 4604,
      "椎": 4605,
      "椒": 4606,
      "検": 4607,
      "椭": 4608,
      "椰": 4609,
      "椿": 4610,
      "楂": 4611,
      "楊": 4612,
      "楔": 4613,
      "楚": 4614,
      "業": 4615,
      "極": 4616,
      "楷": 4617,
      "楼": 4618,
      "楽": 4619,
      "概": 4620,
      "榄": 4621,
      "榔": 4622,
      "榜": 4623,
      "榨": 4624,
      "榭": 4625,
      "榮": 4626,
      "榴": 4627,
      "構": 4628,
      "槌": 4629,
      "槐": 4630,
      "様": 4631,
      "槛": 4632,
      "槟": 4633,
      "槽": 4634,
      "樂": 4635,
      "樑": 4636,
      "樓": 4637,
      "標": 4638,
      "樞": 4639,
      "模": 4640,
      "樣": 4641,
      "権": 4642,
      "横": 4643,
      "樫": 4644,
      "樱": 4645,
      "樵": 4646,
      "樹": 4647,
      "樽": 4648,
      "橄": 4649,
      "橇": 4650,
      "橋": 4651,
      "橘": 4652,
      "橙": 4653,
      "機": 4654,
      "橡": 4655,
      "橫": 4656,
      "橿": 4657,
      "檀": 4658,
      "檔": 4659,
      "檢": 4660,
      "檬": 4661,
      "檻": 4662,
      "欄": 4663,
      "權": 4664,
      "欖": 4665,
      "欠": 4666,
      "次": 4667,
      "欢": 4668,
      "欣": 4669,
      "欧": 4670,
      "欲": 4671,
      "欺": 4672,
      "欽": 4673,
      "款": 4674,
      "歇": 4675,
      "歉": 4676,
      "歌": 4677,
      "歎": 4678,
      "歐": 4679,
      "歓": 4680,
      "歡": 4681,
      "止": 4682,
      "正": 4683,
      "此": 4684,
      "步": 4685,
      "武": 4686,
      "歧": 4687,
      "歩": 4688,
      "歪": 4689,
      "歲": 4690,
      "歳": 4691,
      "歴": 4692,
      "歷": 4693,
      "歸": 4694,
      "歹": 4695,
      "歺": 4696,
      "死": 4697,
      "歼": 4698,
      "殉": 4699,
      "殊": 4700,
      "残": 4701,
      "殖": 4702,
      "殘": 4703,
      "殤": 4704,
      "段": 4705,
      "殺": 4706,
      "殼": 4707,
      "殿": 4708,
      "毁": 4709,
      "毅": 4710,
      "毋": 4711,
      "母": 4712,
      "毎": 4713,
      "每": 4714,
      "毒": 4715,
      "毓": 4716,
      "比": 4717,
      "毕": 4718,
      "毛": 4719,
      "毡": 4720,
      "毫": 4721,
      "毯": 4722,
      "毳": 4723,
      "氏": 4724,
      "民": 4725,
      "气": 4726,
      "気": 4727,
      "氛": 4728,
      "氢": 4729,
      "氣": 4730,
      "氦": 4731,
      "氧": 4732,
      "氨": 4733,
      "氪": 4734,
      "氮": 4735,
      "氯": 4736,
      "水": 4737,
      "氵": 4738,
      "氷": 4739,
      "永": 4740,
      "氾": 4741,
      "汀": 4742,
      "汁": 4743,
      "求": 4744,
      "汇": 4745,
      "汉": 4746,
      "汎": 4747,
      "汐": 4748,
      "汕": 4749,
      "汗": 4750,
      "汚": 4751,
      "汝": 4752,
      "江": 4753,
      "池": 4754,
      "污": 4755,
      "汤": 4756,
      "汨": 4757,
      "汪": 4758,
      "汰": 4759,
      "汲": 4760,
      "汶": 4761,
      "決": 4762,
      "汽": 4763,
      "沁": 4764,
      "沂": 4765,
      "沃": 4766,
      "沅": 4767,
      "沆": 4768,
      "沈": 4769,
      "沉": 4770,
      "沌": 4771,
      "沐": 4772,
      "沒": 4773,
      "沖": 4774,
      "沙": 4775,
      "沛": 4776,
      "沟": 4777,
      "没": 4778,
      "沢": 4779,
      "沥": 4780,
      "沫": 4781,
      "沮": 4782,
      "河": 4783,
      "沸": 4784,
      "油": 4785,
      "治": 4786,
      "沼": 4787,
      "沽": 4788,
      "沾": 4789,
      "沿": 4790,
      "況": 4791,
      "泄": 4792,
      "泉": 4793,
      "泊": 4794,
      "泌": 4795,
      "泓": 4796,
      "法": 4797,
      "泛": 4798,
      "泡": 4799,
      "波": 4800,
      "泣": 4801,
      "泥": 4802,
      "注": 4803,
      "泪": 4804,
      "泰": 4805,
      "泳": 4806,
      "泵": 4807,
      "泻": 4808,
      "泼": 4809,
      "泽": 4810,
      "洁": 4811,
      "洋": 4812,
      "洒": 4813,
      "洗": 4814,
      "洛": 4815,
      "洞": 4816,
      "津": 4817,
      "洩": 4818,
      "洪": 4819,
      "洮": 4820,
      "洱": 4821,
      "洲": 4822,
      "活": 4823,
      "洼": 4824,
      "洽": 4825,
      "派": 4826,
      "流": 4827,
      "浅": 4828,
      "浆": 4829,
      "浇": 4830,
      "浊": 4831,
      "测": 4832,
      "济": 4833,
      "浏": 4834,
      "浑": 4835,
      "浒": 4836,
      "浓": 4837,
      "浙": 4838,
      "浜": 4839,
      "浣": 4840,
      "浦": 4841,
      "浩": 4842,
      "浪": 4843,
      "浮": 4844,
      "浴": 4845,
      "海": 4846,
      "浸": 4847,
      "涂": 4848,
      "涅": 4849,
      "消": 4850,
      "涉": 4851,
      "涌": 4852,
      "涓": 4853,
      "涙": 4854,
      "涛": 4855,
      "涝": 4856,
      "涟": 4857,
      "涣": 4858,
      "涤": 4859,
      "润": 4860,
      "涧": 4861,
      "涨": 4862,
      "涩": 4863,
      "涮": 4864,
      "涯": 4865,
      "液": 4866,
      "涵": 4867,
      "涸": 4868,
      "涼": 4869,
      "涿": 4870,
      "淀": 4871,
      "淅": 4872,
      "淆": 4873,
      "淇": 4874,
      "淋": 4875,
      "淌": 4876,
      "淑": 4877,
      "淘": 4878,
      "淚": 4879,
      "淡": 4880,
      "淨": 4881,
      "淫": 4882,
      "淬": 4883,
      "淮": 4884,
      "深": 4885,
      "淳": 4886,
      "淵": 4887,
      "混": 4888,
      "淹": 4889,
      "添": 4890,
      "清": 4891,
      "済": 4892,
      "渉": 4893,
      "渊": 4894,
      "渋": 4895,
      "渍": 4896,
      "渐": 4897,
      "渓": 4898,
      "渔": 4899,
      "渗": 4900,
      "渚": 4901,
      "減": 4902,
      "渝": 4903,
      "渠": 4904,
      "渡": 4905,
      "渣": 4906,
      "渤": 4907,
      "温": 4908,
      "測": 4909,
      "渭": 4910,
      "港": 4911,
      "渲": 4912,
      "渴": 4913,
      "游": 4914,
      "渺": 4915,
      "湖": 4916,
      "湘": 4917,
      "湛": 4918,
      "湧": 4919,
      "湮": 4920,
      "湯": 4921,
      "湲": 4922,
      "湾": 4923,
      "湿": 4924,
      "満": 4925,
      "溃": 4926,
      "溅": 4927,
      "溉": 4928,
      "源": 4929,
      "準": 4930,
      "溜": 4931,
      "溝": 4932,
      "溢": 4933,
      "溪": 4934,
      "溫": 4935,
      "溯": 4936,
      "溶": 4937,
      "滄": 4938,
      "滅": 4939,
      "滋": 4940,
      "滑": 4941,
      "滔": 4942,
      "滕": 4943,
      "滚": 4944,
      "滞": 4945,
      "满": 4946,
      "滤": 4947,
      "滥": 4948,
      "滨": 4949,
      "滩": 4950,
      "滲": 4951,
      "滴": 4952,
      "滸": 4953,
      "滾": 4954,
      "滿": 4955,
      "漁": 4956,
      "漂": 4957,
      "漆": 4958,
      "漉": 4959,
      "漏": 4960,
      "演": 4961,
      "漠": 4962,
      "漢": 4963,
      "漪": 4964,
      "漫": 4965,
      "漱": 4966,
      "漲": 4967,
      "漳": 4968,
      "漸": 4969,
      "漼": 4970,
      "漾": 4971,
      "潇": 4972,
      "潍": 4973,
      "潔": 4974,
      "潘": 4975,
      "潛": 4976,
      "潜": 4977,
      "潢": 4978,
      "潤": 4979,
      "潭": 4980,
      "潮": 4981,
      "潰": 4982,
      "潺": 4983,
      "澀": 4984,
      "澄": 4985,
      "澈": 4986,
      "澎": 4987,
      "澗": 4988,
      "澜": 4989,
      "澡": 4990,
      "澤": 4991,
      "澳": 4992,
      "激": 4993,
      "濃": 4994,
      "濑": 4995,
      "濒": 4996,
      "濕": 4997,
      "濟": 4998,
      "濠": 4999,
      "濡": 5000,
      "濤": 5001,
      "濫": 5002,
      "濾": 5003,
      "瀍": 5004,
      "瀏": 5005,
      "瀑": 5006,
      "瀚": 5007,
      "瀝": 5008,
      "瀰": 5009,
      "灌": 5010,
      "灑": 5011,
      "灣": 5012,
      "火": 5013,
      "灭": 5014,
      "灯": 5015,
      "灰": 5016,
      "灵": 5017,
      "灸": 5018,
      "灼": 5019,
      "災": 5020,
      "灾": 5021,
      "灿": 5022,
      "炉": 5023,
      "炎": 5024,
      "炒": 5025,
      "炖": 5026,
      "炙": 5027,
      "炫": 5028,
      "炬": 5029,
      "炭": 5030,
      "炮": 5031,
      "炯": 5032,
      "炳": 5033,
      "炸": 5034,
      "点": 5035,
      "為": 5036,
      "炼": 5037,
      "炽": 5038,
      "烁": 5039,
      "烂": 5040,
      "烈": 5041,
      "烏": 5042,
      "烘": 5043,
      "烙": 5044,
      "烛": 5045,
      "烟": 5046,
      "烤": 5047,
      "烦": 5048,
      "烧": 5049,
      "烩": 5050,
      "烫": 5051,
      "烬": 5052,
      "热": 5053,
      "烹": 5054,
      "烽": 5055,
      "焉": 5056,
      "焊": 5057,
      "焔": 5058,
      "焕": 5059,
      "焖": 5060,
      "焗": 5061,
      "焙": 5062,
      "焚": 5063,
      "無": 5064,
      "焢": 5065,
      "焦": 5066,
      "焯": 5067,
      "焰": 5068,
      "然": 5069,
      "焼": 5070,
      "煉": 5071,
      "煌": 5072,
      "煎": 5073,
      "煙": 5074,
      "煞": 5075,
      "煤": 5076,
      "照": 5077,
      "煨": 5078,
      "煩": 5079,
      "煮": 5080,
      "煲": 5081,
      "煸": 5082,
      "煽": 5083,
      "熄": 5084,
      "熊": 5085,
      "熏": 5086,
      "熒": 5087,
      "熔": 5088,
      "熙": 5089,
      "熟": 5090,
      "熠": 5091,
      "熨": 5092,
      "熬": 5093,
      "熱": 5094,
      "熵": 5095,
      "燃": 5096,
      "燈": 5097,
      "燒": 5098,
      "燕": 5099,
      "燙": 5100,
      "營": 5101,
      "燥": 5102,
      "燦": 5103,
      "燮": 5104,
      "爆": 5105,
      "爍": 5106,
      "爛": 5107,
      "爪": 5108,
      "爬": 5109,
      "爭": 5110,
      "爱": 5111,
      "爲": 5112,
      "爵": 5113,
      "父": 5114,
      "爷": 5115,
      "爸": 5116,
      "爹": 5117,
      "爺": 5118,
      "爽": 5119,
      "爾": 5120,
      "牀": 5121,
      "牆": 5122,
      "片": 5123,
      "版": 5124,
      "牌": 5125,
      "牒": 5126,
      "牙": 5127,
      "牛": 5128,
      "牠": 5129,
      "牡": 5130,
      "牢": 5131,
      "牧": 5132,
      "物": 5133,
      "牲": 5134,
      "牵": 5135,
      "特": 5136,
      "牺": 5137,
      "牽": 5138,
      "犀": 5139,
      "犠": 5140,
      "犢": 5141,
      "犬": 5142,
      "犯": 5143,
      "状": 5144,
      "犷": 5145,
      "犹": 5146,
      "狀": 5147,
      "狂": 5148,
      "狄": 5149,
      "狎": 5150,
      "狐": 5151,
      "狗": 5152,
      "狙": 5153,
      "狠": 5154,
      "狡": 5155,
      "狩": 5156,
      "独": 5157,
      "狭": 5158,
      "狮": 5159,
      "狱": 5160,
      "狸": 5161,
      "狹": 5162,
      "狼": 5163,
      "猎": 5164,
      "猛": 5165,
      "猜": 5166,
      "猟": 5167,
      "猩": 5168,
      "猪": 5169,
      "猫": 5170,
      "献": 5171,
      "猱": 5172,
      "猴": 5173,
      "猶": 5174,
      "猾": 5175,
      "猿": 5176,
      "獄": 5177,
      "獅": 5178,
      "獎": 5179,
      "獣": 5180,
      "獨": 5181,
      "獲": 5182,
      "獵": 5183,
      "獻": 5184,
      "玄": 5185,
      "率": 5186,
      "玉": 5187,
      "王": 5188,
      "玛": 5189,
      "玩": 5190,
      "玫": 5191,
      "环": 5192,
      "现": 5193,
      "玲": 5194,
      "玻": 5195,
      "珊": 5196,
      "珍": 5197,
      "珑": 5198,
      "珠": 5199,
      "班": 5200,
      "珰": 5201,
      "現": 5202,
      "球": 5203,
      "理": 5204,
      "琉": 5205,
      "琐": 5206,
      "琢": 5207,
      "琰": 5208,
      "琳": 5209,
      "琴": 5210,
      "琵": 5211,
      "琶": 5212,
      "瑕": 5213,
      "瑚": 5214,
      "瑛": 5215,
      "瑜": 5216,
      "瑞": 5217,
      "瑟": 5218,
      "瑩": 5219,
      "瑰": 5220,
      "瑶": 5221,
      "瑾": 5222,
      "璃": 5223,
      "璇": 5224,
      "璋": 5225,
      "環": 5226,
      "瓜": 5227,
      "瓣": 5228,
      "瓦": 5229,
      "瓩": 5230,
      "瓯": 5231,
      "瓶": 5232,
      "瓷": 5233,
      "甄": 5234,
      "甘": 5235,
      "甙": 5236,
      "甚": 5237,
      "甜": 5238,
      "生": 5239,
      "產": 5240,
      "産": 5241,
      "甦": 5242,
      "用": 5243,
      "甫": 5244,
      "田": 5245,
      "由": 5246,
      "甲": 5247,
      "申": 5248,
      "电": 5249,
      "男": 5250,
      "甸": 5251,
      "町": 5252,
      "画": 5253,
      "甾": 5254,
      "畅": 5255,
      "界": 5256,
      "畏": 5257,
      "畔": 5258,
      "留": 5259,
      "畜": 5260,
      "畢": 5261,
      "略": 5262,
      "番": 5263,
      "畫": 5264,
      "異": 5265,
      "畴": 5266,
      "當": 5267,
      "疆": 5268,
      "疇": 5269,
      "疊": 5270,
      "疎": 5271,
      "疏": 5272,
      "疑": 5273,
      "疗": 5274,
      "疚": 5275,
      "疡": 5276,
      "疤": 5277,
      "疫": 5278,
      "疯": 5279,
      "疲": 5280,
      "疵": 5281,
      "疹": 5282,
      "疼": 5283,
      "疾": 5284,
      "病": 5285,
      "症": 5286,
      "痒": 5287,
      "痕": 5288,
      "痛": 5289,
      "痩": 5290,
      "痴": 5291,
      "瘍": 5292,
      "瘙": 5293,
      "瘟": 5294,
      "瘤": 5295,
      "瘦": 5296,
      "瘸": 5297,
      "瘾": 5298,
      "療": 5299,
      "癌": 5300,
      "癒": 5301,
      "癖": 5302,
      "癥": 5303,
      "癸": 5304,
      "発": 5305,
      "登": 5306,
      "發": 5307,
      "白": 5308,
      "百": 5309,
      "皂": 5310,
      "的": 5311,
      "皆": 5312,
      "皇": 5313,
      "皎": 5314,
      "皑": 5315,
      "皮": 5316,
      "皿": 5317,
      "盃": 5318,
      "盆": 5319,
      "盈": 5320,
      "益": 5321,
      "盎": 5322,
      "盏": 5323,
      "盐": 5324,
      "监": 5325,
      "盒": 5326,
      "盔": 5327,
      "盖": 5328,
      "盗": 5329,
      "盘": 5330,
      "盛": 5331,
      "盜": 5332,
      "盟": 5333,
      "盡": 5334,
      "監": 5335,
      "盤": 5336,
      "盧": 5337,
      "盪": 5338,
      "目": 5339,
      "盲": 5340,
      "直": 5341,
      "相": 5342,
      "盼": 5343,
      "盾": 5344,
      "省": 5345,
      "眉": 5346,
      "看": 5347,
      "県": 5348,
      "真": 5349,
      "眠": 5350,
      "眨": 5351,
      "眩": 5352,
      "眯": 5353,
      "眸": 5354,
      "眺": 5355,
      "眼": 5356,
      "眾": 5357,
      "着": 5358,
      "睁": 5359,
      "睇": 5360,
      "睐": 5361,
      "睛": 5362,
      "睡": 5363,
      "督": 5364,
      "睦": 5365,
      "睫": 5366,
      "睹": 5367,
      "睿": 5368,
      "瞄": 5369,
      "瞌": 5370,
      "瞎": 5371,
      "瞑": 5372,
      "瞒": 5373,
      "瞧": 5374,
      "瞩": 5375,
      "瞬": 5376,
      "瞭": 5377,
      "瞰": 5378,
      "瞳": 5379,
      "瞻": 5380,
      "矍": 5381,
      "矛": 5382,
      "矢": 5383,
      "矣": 5384,
      "知": 5385,
      "矩": 5386,
      "短": 5387,
      "矮": 5388,
      "石": 5389,
      "矶": 5390,
      "矽": 5391,
      "矿": 5392,
      "砀": 5393,
      "码": 5394,
      "砂": 5395,
      "砍": 5396,
      "砒": 5397,
      "研": 5398,
      "砖": 5399,
      "砝": 5400,
      "砧": 5401,
      "破": 5402,
      "砸": 5403,
      "础": 5404,
      "硅": 5405,
      "硕": 5406,
      "硝": 5407,
      "硫": 5408,
      "硬": 5409,
      "确": 5410,
      "碉": 5411,
      "碌": 5412,
      "碍": 5413,
      "碎": 5414,
      "碑": 5415,
      "碗": 5416,
      "碟": 5417,
      "碧": 5418,
      "碰": 5419,
      "碱": 5420,
      "碳": 5421,
      "確": 5422,
      "碼": 5423,
      "碾": 5424,
      "磁": 5425,
      "磅": 5426,
      "磚": 5427,
      "磨": 5428,
      "磯": 5429,
      "磷": 5430,
      "礎": 5431,
      "礙": 5432,
      "礴": 5433,
      "示": 5434,
      "礻": 5435,
      "礼": 5436,
      "社": 5437,
      "祀": 5438,
      "祂": 5439,
      "祇": 5440,
      "祈": 5441,
      "祉": 5442,
      "祐": 5443,
      "祖": 5444,
      "祛": 5445,
      "祝": 5446,
      "神": 5447,
      "祠": 5448,
      "祥": 5449,
      "票": 5450,
      "祭": 5451,
      "祯": 5452,
      "祸": 5453,
      "禁": 5454,
      "禅": 5455,
      "禍": 5456,
      "福": 5457,
      "禦": 5458,
      "禧": 5459,
      "禮": 5460,
      "禹": 5461,
      "离": 5462,
      "禽": 5463,
      "禿": 5464,
      "秀": 5465,
      "私": 5466,
      "秃": 5467,
      "秉": 5468,
      "秋": 5469,
      "种": 5470,
      "科": 5471,
      "秒": 5472,
      "秘": 5473,
      "租": 5474,
      "秣": 5475,
      "秤": 5476,
      "秦": 5477,
      "秩": 5478,
      "积": 5479,
      "称": 5480,
      "移": 5481,
      "稀": 5482,
      "稅": 5483,
      "程": 5484,
      "稍": 5485,
      "税": 5486,
      "稚": 5487,
      "稜": 5488,
      "稠": 5489,
      "稣": 5490,
      "種": 5491,
      "稱": 5492,
      "稳": 5493,
      "稻": 5494,
      "稼": 5495,
      "稽": 5496,
      "稿": 5497,
      "穆": 5498,
      "積": 5499,
      "穎": 5500,
      "穣": 5501,
      "穩": 5502,
      "穫": 5503,
      "穴": 5504,
      "究": 5505,
      "穷": 5506,
      "穹": 5507,
      "空": 5508,
      "穿": 5509,
      "突": 5510,
      "窃": 5511,
      "窄": 5512,
      "窑": 5513,
      "窒": 5514,
      "窓": 5515,
      "窖": 5516,
      "窗": 5517,
      "窝": 5518,
      "窟": 5519,
      "窮": 5520,
      "窺": 5521,
      "立": 5522,
      "竖": 5523,
      "站": 5524,
      "竜": 5525,
      "竞": 5526,
      "竟": 5527,
      "章": 5528,
      "童": 5529,
      "竭": 5530,
      "端": 5531,
      "競": 5532,
      "竹": 5533,
      "笃": 5534,
      "笋": 5535,
      "笑": 5536,
      "笔": 5537,
      "笛": 5538,
      "笠": 5539,
      "符": 5540,
      "笨": 5541,
      "第": 5542,
      "笼": 5543,
      "筆": 5544,
      "等": 5545,
      "筋": 5546,
      "筑": 5547,
      "筒": 5548,
      "答": 5549,
      "策": 5550,
      "筛": 5551,
      "筝": 5552,
      "筠": 5553,
      "筷": 5554,
      "筹": 5555,
      "签": 5556,
      "简": 5557,
      "箇": 5558,
      "箋": 5559,
      "算": 5560,
      "管": 5561,
      "箩": 5562,
      "箭": 5563,
      "箱": 5564,
      "節": 5565,
      "範": 5566,
      "篆": 5567,
      "篇": 5568,
      "築": 5569,
      "篝": 5570,
      "篡": 5571,
      "篦": 5572,
      "篩": 5573,
      "篮": 5574,
      "篷": 5575,
      "簟": 5576,
      "簡": 5577,
      "簫": 5578,
      "簽": 5579,
      "簿": 5580,
      "籃": 5581,
      "籌": 5582,
      "籍": 5583,
      "籟": 5584,
      "籠": 5585,
      "籤": 5586,
      "籲": 5587,
      "米": 5588,
      "类": 5589,
      "籼": 5590,
      "粁": 5591,
      "粉": 5592,
      "粑": 5593,
      "粒": 5594,
      "粗": 5595,
      "粘": 5596,
      "粟": 5597,
      "粤": 5598,
      "粥": 5599,
      "粮": 5600,
      "粵": 5601,
      "粹": 5602,
      "粽": 5603,
      "精": 5604,
      "糊": 5605,
      "糍": 5606,
      "糎": 5607,
      "糕": 5608,
      "糖": 5609,
      "糙": 5610,
      "糜": 5611,
      "糟": 5612,
      "糠": 5613,
      "糯": 5614,
      "糸": 5615,
      "系": 5616,
      "糾": 5617,
      "紀": 5618,
      "約": 5619,
      "紅": 5620,
      "紊": 5621,
      "納": 5622,
      "紐": 5623,
      "紓": 5624,
      "純": 5625,
      "紗": 5626,
      "紙": 5627,
      "級": 5628,
      "紛": 5629,
      "紜": 5630,
      "素": 5631,
      "索": 5632,
      "紧": 5633,
      "紨": 5634,
      "紫": 5635,
      "累": 5636,
      "細": 5637,
      "紹": 5638,
      "終": 5639,
      "組": 5640,
      "絆": 5641,
      "経": 5642,
      "結": 5643,
      "絕": 5644,
      "絡": 5645,
      "給": 5646,
      "絨": 5647,
      "絮": 5648,
      "統": 5649,
      "絲": 5650,
      "絶": 5651,
      "綁": 5652,
      "經": 5653,
      "継": 5654,
      "続": 5655,
      "綜": 5656,
      "綠": 5657,
      "綢": 5658,
      "維": 5659,
      "綱": 5660,
      "網": 5661,
      "綴": 5662,
      "綺": 5663,
      "綻": 5664,
      "綿": 5665,
      "緊": 5666,
      "総": 5667,
      "緑": 5668,
      "緒": 5669,
      "線": 5670,
      "締": 5671,
      "緣": 5672,
      "編": 5673,
      "緩": 5674,
      "練": 5675,
      "縁": 5676,
      "縄": 5677,
      "縛": 5678,
      "縣": 5679,
      "縫": 5680,
      "縮": 5681,
      "總": 5682,
      "績": 5683,
      "繁": 5684,
      "繊": 5685,
      "繋": 5686,
      "織": 5687,
      "繞": 5688,
      "繪": 5689,
      "繫": 5690,
      "繰": 5691,
      "繼": 5692,
      "纂": 5693,
      "續": 5694,
      "纠": 5695,
      "纡": 5696,
      "红": 5697,
      "纤": 5698,
      "约": 5699,
      "级": 5700,
      "纪": 5701,
      "纬": 5702,
      "纯": 5703,
      "纱": 5704,
      "纲": 5705,
      "纳": 5706,
      "纵": 5707,
      "纶": 5708,
      "纷": 5709,
      "纸": 5710,
      "纹": 5711,
      "纺": 5712,
      "纽": 5713,
      "纾": 5714,
      "线": 5715,
      "练": 5716,
      "组": 5717,
      "细": 5718,
      "织": 5719,
      "终": 5720,
      "绊": 5721,
      "绍": 5722,
      "绎": 5723,
      "经": 5724,
      "绑": 5725,
      "绒": 5726,
      "结": 5727,
      "绕": 5728,
      "绘": 5729,
      "给": 5730,
      "绚": 5731,
      "络": 5732,
      "绝": 5733,
      "绞": 5734,
      "统": 5735,
      "绣": 5736,
      "继": 5737,
      "绩": 5738,
      "绪": 5739,
      "续": 5740,
      "绮": 5741,
      "绰": 5742,
      "绳": 5743,
      "维": 5744,
      "绵": 5745,
      "绸": 5746,
      "综": 5747,
      "绽": 5748,
      "绿": 5749,
      "缀": 5750,
      "缅": 5751,
      "缆": 5752,
      "缈": 5753,
      "缎": 5754,
      "缓": 5755,
      "缔": 5756,
      "缕": 5757,
      "编": 5758,
      "缘": 5759,
      "缚": 5760,
      "缛": 5761,
      "缝": 5762,
      "缠": 5763,
      "缤": 5764,
      "缥": 5765,
      "缩": 5766,
      "缪": 5767,
      "缭": 5768,
      "缴": 5769,
      "缸": 5770,
      "缺": 5771,
      "罐": 5772,
      "网": 5773,
      "罕": 5774,
      "罗": 5775,
      "罚": 5776,
      "罢": 5777,
      "罣": 5778,
      "罩": 5779,
      "罪": 5780,
      "罫": 5781,
      "置": 5782,
      "署": 5783,
      "羁": 5784,
      "羅": 5785,
      "羊": 5786,
      "羌": 5787,
      "美": 5788,
      "羔": 5789,
      "羞": 5790,
      "羡": 5791,
      "羣": 5792,
      "群": 5793,
      "義": 5794,
      "羲": 5795,
      "羹": 5796,
      "羽": 5797,
      "翁": 5798,
      "翅": 5799,
      "翌": 5800,
      "翎": 5801,
      "習": 5802,
      "翔": 5803,
      "翘": 5804,
      "翠": 5805,
      "翩": 5806,
      "翰": 5807,
      "翱": 5808,
      "翳": 5809,
      "翻": 5810,
      "翼": 5811,
      "耀": 5812,
      "老": 5813,
      "考": 5814,
      "者": 5815,
      "而": 5816,
      "耍": 5817,
      "耐": 5818,
      "耒": 5819,
      "耕": 5820,
      "耗": 5821,
      "耳": 5822,
      "耶": 5823,
      "耻": 5824,
      "耽": 5825,
      "耿": 5826,
      "聆": 5827,
      "聊": 5828,
      "职": 5829,
      "联": 5830,
      "聖": 5831,
      "聘": 5832,
      "聚": 5833,
      "聞": 5834,
      "聪": 5835,
      "聯": 5836,
      "聰": 5837,
      "聲": 5838,
      "聳": 5839,
      "聴": 5840,
      "職": 5841,
      "聽": 5842,
      "肃": 5843,
      "肅": 5844,
      "肆": 5845,
      "肇": 5846,
      "肉": 5847,
      "肌": 5848,
      "肖": 5849,
      "肘": 5850,
      "肚": 5851,
      "肝": 5852,
      "肠": 5853,
      "股": 5854,
      "肢": 5855,
      "肤": 5856,
      "肥": 5857,
      "肩": 5858,
      "肪": 5859,
      "肯": 5860,
      "肱": 5861,
      "育": 5862,
      "肴": 5863,
      "肺": 5864,
      "肽": 5865,
      "肾": 5866,
      "肿": 5867,
      "胀": 5868,
      "胁": 5869,
      "胃": 5870,
      "胆": 5871,
      "背": 5872,
      "胎": 5873,
      "胖": 5874,
      "胜": 5875,
      "胞": 5876,
      "胡": 5877,
      "胤": 5878,
      "胥": 5879,
      "胫": 5880,
      "胰": 5881,
      "胱": 5882,
      "胶": 5883,
      "胸": 5884,
      "胺": 5885,
      "能": 5886,
      "脂": 5887,
      "脅": 5888,
      "脆": 5889,
      "脈": 5890,
      "脉": 5891,
      "脊": 5892,
      "脍": 5893,
      "脏": 5894,
      "脑": 5895,
      "脖": 5896,
      "脚": 5897,
      "脫": 5898,
      "脯": 5899,
      "脱": 5900,
      "脲": 5901,
      "脳": 5902,
      "脸": 5903,
      "脹": 5904,
      "脾": 5905,
      "腊": 5906,
      "腋": 5907,
      "腌": 5908,
      "腎": 5909,
      "腐": 5910,
      "腔": 5911,
      "腕": 5912,
      "腘": 5913,
      "腥": 5914,
      "腦": 5915,
      "腩": 5916,
      "腫": 5917,
      "腰": 5918,
      "腱": 5919,
      "腳": 5920,
      "腸": 5921,
      "腹": 5922,
      "腺": 5923,
      "腻": 5924,
      "腾": 5925,
      "腿": 5926,
      "膀": 5927,
      "膚": 5928,
      "膜": 5929,
      "膠": 5930,
      "膨": 5931,
      "膳": 5932,
      "膺": 5933,
      "臀": 5934,
      "臂": 5935,
      "臆": 5936,
      "臉": 5937,
      "臓": 5938,
      "臟": 5939,
      "臣": 5940,
      "臨": 5941,
      "自": 5942,
      "臭": 5943,
      "至": 5944,
      "致": 5945,
      "臺": 5946,
      "臼": 5947,
      "舆": 5948,
      "與": 5949,
      "興": 5950,
      "舉": 5951,
      "舊": 5952,
      "舌": 5953,
      "舍": 5954,
      "舒": 5955,
      "舗": 5956,
      "舜": 5957,
      "舞": 5958,
      "舟": 5959,
      "航": 5960,
      "般": 5961,
      "舰": 5962,
      "舱": 5963,
      "舵": 5964,
      "船": 5965,
      "艇": 5966,
      "艘": 5967,
      "艮": 5968,
      "良": 5969,
      "艰": 5970,
      "艱": 5971,
      "色": 5972,
      "艳": 5973,
      "艺": 5974,
      "艾": 5975,
      "节": 5976,
      "芋": 5977,
      "芒": 5978,
      "芙": 5979,
      "芜": 5980,
      "芝": 5981,
      "芡": 5982,
      "芥": 5983,
      "芦": 5984,
      "芩": 5985,
      "芬": 5986,
      "芯": 5987,
      "花": 5988,
      "芳": 5989,
      "芸": 5990,
      "芹": 5991,
      "芽": 5992,
      "苍": 5993,
      "苏": 5994,
      "苑": 5995,
      "苒": 5996,
      "苔": 5997,
      "苗": 5998,
      "苛": 5999,
      "苞": 6000,
      "苟": 6001,
      "若": 6002,
      "苦": 6003,
      "英": 6004,
      "苷": 6005,
      "苹": 6006,
      "茂": 6007,
      "范": 6008,
      "茄": 6009,
      "茅": 6010,
      "茉": 6011,
      "茎": 6012,
      "茏": 6013,
      "茗": 6014,
      "茨": 6015,
      "茫": 6016,
      "茲": 6017,
      "茵": 6018,
      "茶": 6019,
      "茸": 6020,
      "茹": 6021,
      "荀": 6022,
      "荆": 6023,
      "草": 6024,
      "荏": 6025,
      "荐": 6026,
      "荒": 6027,
      "荔": 6028,
      "荟": 6029,
      "荠": 6030,
      "荡": 6031,
      "荣": 6032,
      "荤": 6033,
      "荧": 6034,
      "荨": 6035,
      "荫": 6036,
      "药": 6037,
      "荷": 6038,
      "荸": 6039,
      "莆": 6040,
      "莉": 6041,
      "莊": 6042,
      "莎": 6043,
      "莓": 6044,
      "莖": 6045,
      "莘": 6046,
      "莞": 6047,
      "莫": 6048,
      "莱": 6049,
      "莲": 6050,
      "获": 6051,
      "莹": 6052,
      "莺": 6053,
      "莽": 6054,
      "莿": 6055,
      "菁": 6056,
      "菅": 6057,
      "菇": 6058,
      "菊": 6059,
      "菌": 6060,
      "菓": 6061,
      "菜": 6062,
      "菠": 6063,
      "菩": 6064,
      "華": 6065,
      "菱": 6066,
      "菲": 6067,
      "萃": 6068,
      "萄": 6069,
      "萊": 6070,
      "萌": 6071,
      "萝": 6072,
      "营": 6073,
      "萦": 6074,
      "萧": 6075,
      "萨": 6076,
      "萩": 6077,
      "萬": 6078,
      "萱": 6079,
      "落": 6080,
      "葉": 6081,
      "著": 6082,
      "葛": 6083,
      "葡": 6084,
      "董": 6085,
      "葫": 6086,
      "葬": 6087,
      "葱": 6088,
      "蒂": 6089,
      "蒋": 6090,
      "蒐": 6091,
      "蒙": 6092,
      "蒜": 6093,
      "蒲": 6094,
      "蒸": 6095,
      "蒼": 6096,
      "蓄": 6097,
      "蓉": 6098,
      "蓋": 6099,
      "蓑": 6100,
      "蓝": 6101,
      "蓟": 6102,
      "蓬": 6103,
      "蓮": 6104,
      "蔑": 6105,
      "蔓": 6106,
      "蔔": 6107,
      "蔗": 6108,
      "蔚": 6109,
      "蔡": 6110,
      "蔣": 6111,
      "蔥": 6112,
      "蔬": 6113,
      "蔴": 6114,
      "蔵": 6115,
      "蔻": 6116,
      "蔽": 6117,
      "蕃": 6118,
      "蕉": 6119,
      "蕊": 6120,
      "蕪": 6121,
      "蕴": 6122,
      "蕾": 6123,
      "薄": 6124,
      "薦": 6125,
      "薩": 6126,
      "薪": 6127,
      "薫": 6128,
      "薬": 6129,
      "薯": 6130,
      "薰": 6131,
      "藉": 6132,
      "藍": 6133,
      "藏": 6134,
      "藐": 6135,
      "藕": 6136,
      "藜": 6137,
      "藝": 6138,
      "藤": 6139,
      "藥": 6140,
      "藩": 6141,
      "藻": 6142,
      "蘇": 6143,
      "蘊": 6144,
      "蘑": 6145,
      "蘿": 6146,
      "虎": 6147,
      "虏": 6148,
      "虐": 6149,
      "虑": 6150,
      "處": 6151,
      "虚": 6152,
      "虛": 6153,
      "虜": 6154,
      "虞": 6155,
      "號": 6156,
      "虫": 6157,
      "虹": 6158,
      "虽": 6159,
      "虾": 6160,
      "蚀": 6161,
      "蚁": 6162,
      "蚊": 6163,
      "蚝": 6164,
      "蚩": 6165,
      "蚵": 6166,
      "蛀": 6167,
      "蛇": 6168,
      "蛊": 6169,
      "蛋": 6170,
      "蛍": 6171,
      "蛎": 6172,
      "蛙": 6173,
      "蛛": 6174,
      "蛮": 6175,
      "蛾": 6176,
      "蜀": 6177,
      "蜂": 6178,
      "蜇": 6179,
      "蜕": 6180,
      "蜗": 6181,
      "蜘": 6182,
      "蜜": 6183,
      "蜡": 6184,
      "蜥": 6185,
      "蜴": 6186,
      "蜷": 6187,
      "蝇": 6188,
      "蝕": 6189,
      "蝙": 6190,
      "蝠": 6191,
      "蝴": 6192,
      "蝶": 6193,
      "蝼": 6194,
      "融": 6195,
      "螭": 6196,
      "螺": 6197,
      "蟠": 6198,
      "蟲": 6199,
      "蟹": 6200,
      "蠢": 6201,
      "蠣": 6202,
      "蠻": 6203,
      "血": 6204,
      "衅": 6205,
      "衆": 6206,
      "行": 6207,
      "衍": 6208,
      "術": 6209,
      "衔": 6210,
      "街": 6211,
      "衛": 6212,
      "衝": 6213,
      "衡": 6214,
      "衣": 6215,
      "补": 6216,
      "表": 6217,
      "衫": 6218,
      "衬": 6219,
      "衰": 6220,
      "衷": 6221,
      "衾": 6222,
      "袋": 6223,
      "袍": 6224,
      "袖": 6225,
      "袤": 6226,
      "被": 6227,
      "袭": 6228,
      "裁": 6229,
      "裂": 6230,
      "装": 6231,
      "裏": 6232,
      "裔": 6233,
      "裕": 6234,
      "裘": 6235,
      "裙": 6236,
      "補": 6237,
      "裝": 6238,
      "裡": 6239,
      "裤": 6240,
      "裨": 6241,
      "裳": 6242,
      "裸": 6243,
      "裹": 6244,
      "製": 6245,
      "複": 6246,
      "褐": 6247,
      "褒": 6248,
      "褪": 6249,
      "褲": 6250,
      "襄": 6251,
      "西": 6252,
      "要": 6253,
      "覆": 6254,
      "見": 6255,
      "規": 6256,
      "視": 6257,
      "覚": 6258,
      "覧": 6259,
      "親": 6260,
      "観": 6261,
      "覺": 6262,
      "覽": 6263,
      "觀": 6264,
      "见": 6265,
      "观": 6266,
      "规": 6267,
      "视": 6268,
      "览": 6269,
      "觉": 6270,
      "觑": 6271,
      "角": 6272,
      "解": 6273,
      "触": 6274,
      "觸": 6275,
      "言": 6276,
      "訂": 6277,
      "計": 6278,
      "訊": 6279,
      "討": 6280,
      "訓": 6281,
      "記": 6282,
      "訝": 6283,
      "訣": 6284,
      "訪": 6285,
      "設": 6286,
      "許": 6287,
      "訳": 6288,
      "訴": 6289,
      "診": 6290,
      "註": 6291,
      "証": 6292,
      "詐": 6293,
      "評": 6294,
      "詞": 6295,
      "詠": 6296,
      "詢": 6297,
      "試": 6298,
      "詩": 6299,
      "詫": 6300,
      "詰": 6301,
      "話": 6302,
      "該": 6303,
      "詳": 6304,
      "詹": 6305,
      "詼": 6306,
      "誇": 6307,
      "誉": 6308,
      "誌": 6309,
      "認": 6310,
      "誓": 6311,
      "誕": 6312,
      "誘": 6313,
      "語": 6314,
      "誠": 6315,
      "誤": 6316,
      "誦": 6317,
      "說": 6318,
      "説": 6319,
      "読": 6320,
      "誰": 6321,
      "課": 6322,
      "調": 6323,
      "談": 6324,
      "請": 6325,
      "論": 6326,
      "諦": 6327,
      "諧": 6328,
      "諫": 6329,
      "諮": 6330,
      "諷": 6331,
      "諸": 6332,
      "諺": 6333,
      "諾": 6334,
      "謀": 6335,
      "謂": 6336,
      "謊": 6337,
      "謎": 6338,
      "謔": 6339,
      "謙": 6340,
      "講": 6341,
      "謝": 6342,
      "謹": 6343,
      "證": 6344,
      "識": 6345,
      "譜": 6346,
      "警": 6347,
      "譬": 6348,
      "譯": 6349,
      "議": 6350,
      "譲": 6351,
      "護": 6352,
      "譽": 6353,
      "讀": 6354,
      "變": 6355,
      "讓": 6356,
      "讚": 6357,
      "计": 6358,
      "订": 6359,
      "认": 6360,
      "讨": 6361,
      "让": 6362,
      "训": 6363,
      "议": 6364,
      "讯": 6365,
      "记": 6366,
      "讲": 6367,
      "讶": 6368,
      "讷": 6369,
      "许": 6370,
      "论": 6371,
      "讼": 6372,
      "讽": 6373,
      "设": 6374,
      "访": 6375,
      "证": 6376,
      "评": 6377,
      "识": 6378,
      "诈": 6379,
      "诉": 6380,
      "诊": 6381,
      "诋": 6382,
      "词": 6383,
      "译": 6384,
      "试": 6385,
      "诗": 6386,
      "诙": 6387,
      "诚": 6388,
      "话": 6389,
      "诞": 6390,
      "诠": 6391,
      "诡": 6392,
      "询": 6393,
      "该": 6394,
      "详": 6395,
      "诨": 6396,
      "诫": 6397,
      "诬": 6398,
      "语": 6399,
      "误": 6400,
      "诱": 6401,
      "诲": 6402,
      "说": 6403,
      "诵": 6404,
      "请": 6405,
      "诸": 6406,
      "诺": 6407,
      "读": 6408,
      "诽": 6409,
      "课": 6410,
      "谁": 6411,
      "调": 6412,
      "谅": 6413,
      "谈": 6414,
      "谊": 6415,
      "谋": 6416,
      "谍": 6417,
      "谎": 6418,
      "谐": 6419,
      "谑": 6420,
      "谒": 6421,
      "谓": 6422,
      "谙": 6423,
      "谚": 6424,
      "谛": 6425,
      "谜": 6426,
      "谟": 6427,
      "谢": 6428,
      "谣": 6429,
      "谤": 6430,
      "谦": 6431,
      "谨": 6432,
      "谬": 6433,
      "谭": 6434,
      "谱": 6435,
      "谴": 6436,
      "谷": 6437,
      "豁": 6438,
      "豆": 6439,
      "豊": 6440,
      "豌": 6441,
      "豐": 6442,
      "豔": 6443,
      "豚": 6444,
      "象": 6445,
      "豪": 6446,
      "豫": 6447,
      "豬": 6448,
      "豹": 6449,
      "貌": 6450,
      "貓": 6451,
      "貝": 6452,
      "貞": 6453,
      "負": 6454,
      "財": 6455,
      "貢": 6456,
      "貧": 6457,
      "貨": 6458,
      "販": 6459,
      "貫": 6460,
      "責": 6461,
      "貯": 6462,
      "貴": 6463,
      "貶": 6464,
      "買": 6465,
      "貸": 6466,
      "費": 6467,
      "貼": 6468,
      "貿": 6469,
      "賀": 6470,
      "賃": 6471,
      "資": 6472,
      "賊": 6473,
      "賑": 6474,
      "賛": 6475,
      "賞": 6476,
      "賠": 6477,
      "賢": 6478,
      "賣": 6479,
      "賤": 6480,
      "賦": 6481,
      "質": 6482,
      "賭": 6483,
      "賴": 6484,
      "賺": 6485,
      "購": 6486,
      "賽": 6487,
      "贅": 6488,
      "贈": 6489,
      "贊": 6490,
      "贏": 6491,
      "贝": 6492,
      "负": 6493,
      "贡": 6494,
      "财": 6495,
      "责": 6496,
      "贤": 6497,
      "败": 6498,
      "账": 6499,
      "货": 6500,
      "质": 6501,
      "贪": 6502,
      "贫": 6503,
      "贬": 6504,
      "购": 6505,
      "贯": 6506,
      "贱": 6507,
      "贴": 6508,
      "贵": 6509,
      "贷": 6510,
      "贸": 6511,
      "费": 6512,
      "贺": 6513,
      "贼": 6514,
      "贾": 6515,
      "贿": 6516,
      "赁": 6517,
      "赃": 6518,
      "资": 6519,
      "赈": 6520,
      "赋": 6521,
      "赌": 6522,
      "赏": 6523,
      "赐": 6524,
      "赓": 6525,
      "赔": 6526,
      "赖": 6527,
      "赚": 6528,
      "赛": 6529,
      "赞": 6530,
      "赠": 6531,
      "赡": 6532,
      "赢": 6533,
      "赣": 6534,
      "赤": 6535,
      "赦": 6536,
      "赫": 6537,
      "走": 6538,
      "赴": 6539,
      "赵": 6540,
      "赶": 6541,
      "起": 6542,
      "趁": 6543,
      "超": 6544,
      "越": 6545,
      "趋": 6546,
      "趕": 6547,
      "趙": 6548,
      "趟": 6549,
      "趣": 6550,
      "趨": 6551,
      "足": 6552,
      "趴": 6553,
      "趸": 6554,
      "跃": 6555,
      "跌": 6556,
      "跑": 6557,
      "距": 6558,
      "跟": 6559,
      "跡": 6560,
      "跨": 6561,
      "跪": 6562,
      "跬": 6563,
      "路": 6564,
      "跳": 6565,
      "践": 6566,
      "踊": 6567,
      "踌": 6568,
      "踏": 6569,
      "踐": 6570,
      "踝": 6571,
      "踢": 6572,
      "踩": 6573,
      "踪": 6574,
      "踵": 6575,
      "蹄": 6576,
      "蹅": 6577,
      "蹈": 6578,
      "蹤": 6579,
      "蹦": 6580,
      "蹩": 6581,
      "蹭": 6582,
      "蹲": 6583,
      "蹴": 6584,
      "躁": 6585,
      "躇": 6586,
      "身": 6587,
      "躯": 6588,
      "躲": 6589,
      "躺": 6590,
      "車": 6591,
      "軌": 6592,
      "軍": 6593,
      "軟": 6594,
      "転": 6595,
      "軸": 6596,
      "軽": 6597,
      "較": 6598,
      "載": 6599,
      "輔": 6600,
      "輕": 6601,
      "輛": 6602,
      "輝": 6603,
      "輩": 6604,
      "輪": 6605,
      "輯": 6606,
      "輸": 6607,
      "轉": 6608,
      "车": 6609,
      "轨": 6610,
      "轩": 6611,
      "转": 6612,
      "轮": 6613,
      "软": 6614,
      "轰": 6615,
      "轲": 6616,
      "轴": 6617,
      "轻": 6618,
      "轼": 6619,
      "载": 6620,
      "较": 6621,
      "辄": 6622,
      "辅": 6623,
      "辆": 6624,
      "辈": 6625,
      "辉": 6626,
      "辍": 6627,
      "辐": 6628,
      "辑": 6629,
      "输": 6630,
      "辕": 6631,
      "辖": 6632,
      "辙": 6633,
      "辛": 6634,
      "辜": 6635,
      "辞": 6636,
      "辟": 6637,
      "辣": 6638,
      "辦": 6639,
      "辨": 6640,
      "辩": 6641,
      "辭": 6642,
      "辰": 6643,
      "辱": 6644,
      "農": 6645,
      "边": 6646,
      "辺": 6647,
      "込": 6648,
      "辽": 6649,
      "达": 6650,
      "迁": 6651,
      "迄": 6652,
      "迅": 6653,
      "过": 6654,
      "迈": 6655,
      "迎": 6656,
      "运": 6657,
      "近": 6658,
      "返": 6659,
      "还": 6660,
      "这": 6661,
      "进": 6662,
      "远": 6663,
      "违": 6664,
      "连": 6665,
      "迟": 6666,
      "迢": 6667,
      "迤": 6668,
      "迥": 6669,
      "迪": 6670,
      "迫": 6671,
      "迭": 6672,
      "述": 6673,
      "迴": 6674,
      "迷": 6675,
      "迸": 6676,
      "迹": 6677,
      "追": 6678,
      "退": 6679,
      "送": 6680,
      "适": 6681,
      "逃": 6682,
      "逆": 6683,
      "选": 6684,
      "逊": 6685,
      "透": 6686,
      "逐": 6687,
      "递": 6688,
      "途": 6689,
      "逗": 6690,
      "這": 6691,
      "通": 6692,
      "逛": 6693,
      "逝": 6694,
      "速": 6695,
      "造": 6696,
      "逢": 6697,
      "連": 6698,
      "逮": 6699,
      "週": 6700,
      "進": 6701,
      "逶": 6702,
      "逸": 6703,
      "逻": 6704,
      "逼": 6705,
      "逾": 6706,
      "遁": 6707,
      "遂": 6708,
      "遇": 6709,
      "遊": 6710,
      "運": 6711,
      "遍": 6712,
      "過": 6713,
      "遏": 6714,
      "遐": 6715,
      "道": 6716,
      "達": 6717,
      "違": 6718,
      "遗": 6719,
      "遙": 6720,
      "遜": 6721,
      "遞": 6722,
      "遠": 6723,
      "遣": 6724,
      "遥": 6725,
      "遨": 6726,
      "適": 6727,
      "遭": 6728,
      "遮": 6729,
      "遲": 6730,
      "遵": 6731,
      "遷": 6732,
      "選": 6733,
      "遺": 6734,
      "避": 6735,
      "邀": 6736,
      "邁": 6737,
      "還": 6738,
      "邈": 6739,
      "邊": 6740,
      "邏": 6741,
      "邑": 6742,
      "邓": 6743,
      "那": 6744,
      "邦": 6745,
      "邨": 6746,
      "邪": 6747,
      "邮": 6748,
      "邻": 6749,
      "郁": 6750,
      "郊": 6751,
      "郎": 6752,
      "郑": 6753,
      "郡": 6754,
      "部": 6755,
      "郫": 6756,
      "郭": 6757,
      "郵": 6758,
      "郷": 6759,
      "都": 6760,
      "鄂": 6761,
      "鄉": 6762,
      "鄒": 6763,
      "鄙": 6764,
      "鄰": 6765,
      "鄴": 6766,
      "鄹": 6767,
      "酉": 6768,
      "酌": 6769,
      "配": 6770,
      "酒": 6771,
      "酔": 6772,
      "酗": 6773,
      "酚": 6774,
      "酞": 6775,
      "酢": 6776,
      "酥": 6777,
      "酪": 6778,
      "酬": 6779,
      "酮": 6780,
      "酰": 6781,
      "酱": 6782,
      "酵": 6783,
      "酶": 6784,
      "酷": 6785,
      "酸": 6786,
      "酿": 6787,
      "醇": 6788,
      "醉": 6789,
      "醋": 6790,
      "醒": 6791,
      "醛": 6792,
      "醤": 6793,
      "醫": 6794,
      "醬": 6795,
      "釁": 6796,
      "采": 6797,
      "釈": 6798,
      "释": 6799,
      "釋": 6800,
      "里": 6801,
      "重": 6802,
      "野": 6803,
      "量": 6804,
      "金": 6805,
      "釗": 6806,
      "釜": 6807,
      "針": 6808,
      "釣": 6809,
      "鈍": 6810,
      "鈕": 6811,
      "鈞": 6812,
      "鈣": 6813,
      "鈸": 6814,
      "鈺": 6815,
      "鈾": 6816,
      "鉄": 6817,
      "鉛": 6818,
      "鉴": 6819,
      "銀": 6820,
      "銅": 6821,
      "銖": 6822,
      "銘": 6823,
      "銪": 6824,
      "銷": 6825,
      "鋁": 6826,
      "鋒": 6827,
      "鋪": 6828,
      "鋸": 6829,
      "鋼": 6830,
      "錄": 6831,
      "錠": 6832,
      "錢": 6833,
      "錬": 6834,
      "錯": 6835,
      "録": 6836,
      "鍊": 6837,
      "鍋": 6838,
      "鍛": 6839,
      "鍵": 6840,
      "鍼": 6841,
      "鍾": 6842,
      "鎌": 6843,
      "鎖": 6844,
      "鎮": 6845,
      "鏈": 6846,
      "鏡": 6847,
      "鐘": 6848,
      "鐠": 6849,
      "鐵": 6850,
      "鑑": 6851,
      "鑒": 6852,
      "鑞": 6853,
      "鑭": 6854,
      "鑰": 6855,
      "钇": 6856,
      "针": 6857,
      "钉": 6858,
      "钊": 6859,
      "钓": 6860,
      "钗": 6861,
      "钙": 6862,
      "钝": 6863,
      "钟": 6864,
      "钠": 6865,
      "钢": 6866,
      "钥": 6867,
      "钦": 6868,
      "钨": 6869,
      "钩": 6870,
      "钮": 6871,
      "钱": 6872,
      "钳": 6873,
      "钻": 6874,
      "钿": 6875,
      "铁": 6876,
      "铃": 6877,
      "铄": 6878,
      "铅": 6879,
      "铛": 6880,
      "铜": 6881,
      "铝": 6882,
      "铠": 6883,
      "铭": 6884,
      "铯": 6885,
      "铱": 6886,
      "银": 6887,
      "铸": 6888,
      "铺": 6889,
      "链": 6890,
      "铿": 6891,
      "销": 6892,
      "锁": 6893,
      "锂": 6894,
      "锄": 6895,
      "锅": 6896,
      "锈": 6897,
      "锋": 6898,
      "锐": 6899,
      "错": 6900,
      "锡": 6901,
      "锤": 6902,
      "锦": 6903,
      "键": 6904,
      "锵": 6905,
      "锶": 6906,
      "锻": 6907,
      "镀": 6908,
      "镁": 6909,
      "镂": 6910,
      "镇": 6911,
      "镌": 6912,
      "镖": 6913,
      "镗": 6914,
      "镛": 6915,
      "镜": 6916,
      "镥": 6917,
      "镯": 6918,
      "長": 6919,
      "长": 6920,
      "門": 6921,
      "閃": 6922,
      "閉": 6923,
      "開": 6924,
      "閏": 6925,
      "閑": 6926,
      "閒": 6927,
      "間": 6928,
      "閡": 6929,
      "関": 6930,
      "閩": 6931,
      "閱": 6932,
      "閲": 6933,
      "闆": 6934,
      "闇": 6935,
      "闊": 6936,
      "闘": 6937,
      "關": 6938,
      "闡": 6939,
      "门": 6940,
      "闪": 6941,
      "闭": 6942,
      "问": 6943,
      "闯": 6944,
      "闰": 6945,
      "闲": 6946,
      "间": 6947,
      "闷": 6948,
      "闹": 6949,
      "闺": 6950,
      "闻": 6951,
      "闽": 6952,
      "闾": 6953,
      "阀": 6954,
      "阁": 6955,
      "阄": 6956,
      "阅": 6957,
      "阈": 6958,
      "阉": 6959,
      "阎": 6960,
      "阐": 6961,
      "阑": 6962,
      "阔": 6963,
      "阙": 6964,
      "阜": 6965,
      "队": 6966,
      "阪": 6967,
      "阱": 6968,
      "防": 6969,
      "阳": 6970,
      "阴": 6971,
      "阵": 6972,
      "阶": 6973,
      "阻": 6974,
      "阿": 6975,
      "陀": 6976,
      "附": 6977,
      "际": 6978,
      "陆": 6979,
      "陇": 6980,
      "陈": 6981,
      "陋": 6982,
      "陌": 6983,
      "降": 6984,
      "限": 6985,
      "陕": 6986,
      "陛": 6987,
      "陡": 6988,
      "院": 6989,
      "陣": 6990,
      "除": 6991,
      "陥": 6992,
      "陨": 6993,
      "险": 6994,
      "陪": 6995,
      "陰": 6996,
      "陳": 6997,
      "陵": 6998,
      "陶": 6999,
      "陷": 7000,
      "陸": 7001,
      "険": 7002,
      "陽": 7003,
      "隅": 7004,
      "隆": 7005,
      "隊": 7006,
      "隋": 7007,
      "隍": 7008,
      "階": 7009,
      "随": 7010,
      "隐": 7011,
      "隔": 7012,
      "隙": 7013,
      "際": 7014,
      "障": 7015,
      "隠": 7016,
      "隣": 7017,
      "隧": 7018,
      "隨": 7019,
      "險": 7020,
      "隱": 7021,
      "隶": 7022,
      "隸": 7023,
      "隻": 7024,
      "隼": 7025,
      "隽": 7026,
      "难": 7027,
      "雀": 7028,
      "雁": 7029,
      "雄": 7030,
      "雅": 7031,
      "集": 7032,
      "雇": 7033,
      "雉": 7034,
      "雍": 7035,
      "雏": 7036,
      "雑": 7037,
      "雕": 7038,
      "雖": 7039,
      "雙": 7040,
      "雜": 7041,
      "雞": 7042,
      "離": 7043,
      "難": 7044,
      "雨": 7045,
      "雪": 7046,
      "雯": 7047,
      "雰": 7048,
      "雲": 7049,
      "零": 7050,
      "雷": 7051,
      "雹": 7052,
      "電": 7053,
      "雾": 7054,
      "需": 7055,
      "霁": 7056,
      "霄": 7057,
      "霆": 7058,
      "震": 7059,
      "霉": 7060,
      "霊": 7061,
      "霍": 7062,
      "霓": 7063,
      "霖": 7064,
      "霜": 7065,
      "霞": 7066,
      "霧": 7067,
      "露": 7068,
      "霸": 7069,
      "霹": 7070,
      "靂": 7071,
      "靈": 7072,
      "青": 7073,
      "靖": 7074,
      "静": 7075,
      "靜": 7076,
      "非": 7077,
      "靠": 7078,
      "靡": 7079,
      "面": 7080,
      "革": 7081,
      "靴": 7082,
      "靶": 7083,
      "鞋": 7084,
      "鞍": 7085,
      "鞠": 7086,
      "鞳": 7087,
      "韌": 7088,
      "韓": 7089,
      "韦": 7090,
      "韧": 7091,
      "韩": 7092,
      "韭": 7093,
      "音": 7094,
      "韵": 7095,
      "韶": 7096,
      "韻": 7097,
      "響": 7098,
      "頁": 7099,
      "頂": 7100,
      "頃": 7101,
      "項": 7102,
      "順": 7103,
      "須": 7104,
      "預": 7105,
      "頑": 7106,
      "頒": 7107,
      "頓": 7108,
      "領": 7109,
      "頭": 7110,
      "頸": 7111,
      "頻": 7112,
      "頼": 7113,
      "顆": 7114,
      "題": 7115,
      "額": 7116,
      "顎": 7117,
      "顏": 7118,
      "顔": 7119,
      "願": 7120,
      "顛": 7121,
      "類": 7122,
      "顧": 7123,
      "顯": 7124,
      "页": 7125,
      "顶": 7126,
      "顷": 7127,
      "项": 7128,
      "顺": 7129,
      "须": 7130,
      "顽": 7131,
      "顾": 7132,
      "顿": 7133,
      "颁": 7134,
      "颂": 7135,
      "预": 7136,
      "颅": 7137,
      "领": 7138,
      "颇": 7139,
      "颈": 7140,
      "颊": 7141,
      "颌": 7142,
      "频": 7143,
      "颖": 7144,
      "颗": 7145,
      "题": 7146,
      "颜": 7147,
      "额": 7148,
      "颠": 7149,
      "颤": 7150,
      "風": 7151,
      "颶": 7152,
      "飄": 7153,
      "风": 7154,
      "飒": 7155,
      "飘": 7156,
      "飛": 7157,
      "飞": 7158,
      "食": 7159,
      "飢": 7160,
      "飯": 7161,
      "飲": 7162,
      "飼": 7163,
      "飽": 7164,
      "飾": 7165,
      "餅": 7166,
      "養": 7167,
      "餐": 7168,
      "餘": 7169,
      "餚": 7170,
      "館": 7171,
      "饉": 7172,
      "饋": 7173,
      "饒": 7174,
      "饗": 7175,
      "饞": 7176,
      "饥": 7177,
      "饨": 7178,
      "饪": 7179,
      "饭": 7180,
      "饮": 7181,
      "饰": 7182,
      "饱": 7183,
      "饲": 7184,
      "饵": 7185,
      "饶": 7186,
      "饺": 7187,
      "饼": 7188,
      "饿": 7189,
      "馄": 7190,
      "馅": 7191,
      "馆": 7192,
      "馈": 7193,
      "馋": 7194,
      "馍": 7195,
      "馏": 7196,
      "馔": 7197,
      "首": 7198,
      "香": 7199,
      "馥": 7200,
      "馨": 7201,
      "馬": 7202,
      "馳": 7203,
      "駁": 7204,
      "駅": 7205,
      "駆": 7206,
      "駐": 7207,
      "駕": 7208,
      "駛": 7209,
      "駭": 7210,
      "駿": 7211,
      "騎": 7212,
      "騒": 7213,
      "験": 7214,
      "騙": 7215,
      "騰": 7216,
      "騷": 7217,
      "驅": 7218,
      "驕": 7219,
      "驗": 7220,
      "驚": 7221,
      "驟": 7222,
      "马": 7223,
      "驭": 7224,
      "驯": 7225,
      "驰": 7226,
      "驱": 7227,
      "驳": 7228,
      "驶": 7229,
      "驻": 7230,
      "驼": 7231,
      "驾": 7232,
      "骂": 7233,
      "骄": 7234,
      "骇": 7235,
      "骊": 7236,
      "骋": 7237,
      "验": 7238,
      "骑": 7239,
      "骗": 7240,
      "骚": 7241,
      "骛": 7242,
      "骡": 7243,
      "骤": 7244,
      "骨": 7245,
      "骰": 7246,
      "骸": 7247,
      "骼": 7248,
      "髓": 7249,
      "體": 7250,
      "高": 7251,
      "髦": 7252,
      "髪": 7253,
      "髮": 7254,
      "鬆": 7255,
      "鬓": 7256,
      "鬟": 7257,
      "鬢": 7258,
      "鬥": 7259,
      "鬧": 7260,
      "鬱": 7261,
      "鬼": 7262,
      "魁": 7263,
      "魂": 7264,
      "魃": 7265,
      "魄": 7266,
      "魅": 7267,
      "魏": 7268,
      "魔": 7269,
      "魚": 7270,
      "魠": 7271,
      "魯": 7272,
      "鮑": 7273,
      "鮪": 7274,
      "鮮": 7275,
      "鯛": 7276,
      "鯨": 7277,
      "鱗": 7278,
      "鱻": 7279,
      "鱼": 7280,
      "鲁": 7281,
      "鲈": 7282,
      "鲍": 7283,
      "鲜": 7284,
      "鲤": 7285,
      "鲨": 7286,
      "鲫": 7287,
      "鲲": 7288,
      "鲷": 7289,
      "鲸": 7290,
      "鳜": 7291,
      "鳞": 7292,
      "鳥": 7293,
      "鳳": 7294,
      "鳴": 7295,
      "鴎": 7296,
      "鴛": 7297,
      "鴦": 7298,
      "鴨": 7299,
      "鴿": 7300,
      "鵝": 7301,
      "鶏": 7302,
      "鶯": 7303,
      "鸝": 7304,
      "鸞": 7305,
      "鸟": 7306,
      "鸡": 7307,
      "鸣": 7308,
      "鸥": 7309,
      "鸦": 7310,
      "鸩": 7311,
      "鸭": 7312,
      "鸯": 7313,
      "鸳": 7314,
      "鸽": 7315,
      "鸾": 7316,
      "鸿": 7317,
      "鹂": 7318,
      "鹅": 7319,
      "鹏": 7320,
      "鹖": 7321,
      "鹚": 7322,
      "鹤": 7323,
      "鹫": 7324,
      "鹭": 7325,
      "鹰": 7326,
      "鹽": 7327,
      "鹿": 7328,
      "麋": 7329,
      "麒": 7330,
      "麗": 7331,
      "麟": 7332,
      "麦": 7333,
      "麵": 7334,
      "麸": 7335,
      "麻": 7336,
      "麼": 7337,
      "麽": 7338,
      "黃": 7339,
      "黄": 7340,
      "黎": 7341,
      "黏": 7342,
      "黑": 7343,
      "黒": 7344,
      "默": 7345,
      "黛": 7346,
      "黝": 7347,
      "點": 7348,
      "黨": 7349,
      "黯": 7350,
      "鼎": 7351,
      "鼓": 7352,
      "鼙": 7353,
      "鼠": 7354,
      "鼬": 7355,
      "鼻": 7356,
      "齉": 7357,
      "齊": 7358,
      "齐": 7359,
      "齒": 7360,
      "齡": 7361,
      "齿": 7362,
      "龄": 7363,
      "龍": 7364,
      "龘": 7365,
      "龙": 7366,
      "龚": 7367,
      "龜": 7368,
      "龟": 7369,
      "龢": 7370,
      "ꀕ": 7371,
      "ꓘ": 7372,
      "ꓛ": 7373,
      "ꓭ": 7374,
      "ꓶ": 7375,
      "ꜣ": 7376,
      "가": 7377,
      "각": 7378,
      "간": 7379,
      "갈": 7380,
      "감": 7381,
      "갑": 7382,
      "값": 7383,
      "강": 7384,
      "갖": 7385,
      "같": 7386,
      "개": 7387,
      "객": 7388,
      "갠": 7389,
      "갱": 7390,
      "거": 7391,
      "걱": 7392,
      "건": 7393,
      "걸": 7394,
      "검": 7395,
      "것": 7396,
      "게": 7397,
      "겐": 7398,
      "겟": 7399,
      "겠": 7400,
      "겨": 7401,
      "격": 7402,
      "겪": 7403,
      "견": 7404,
      "결": 7405,
      "겸": 7406,
      "경": 7407,
      "계": 7408,
      "고": 7409,
      "곡": 7410,
      "골": 7411,
      "곳": 7412,
      "공": 7413,
      "과": 7414,
      "관": 7415,
      "광": 7416,
      "교": 7417,
      "구": 7418,
      "국": 7419,
      "군": 7420,
      "굴": 7421,
      "굽": 7422,
      "굿": 7423,
      "궁": 7424,
      "권": 7425,
      "궤": 7426,
      "귀": 7427,
      "규": 7428,
      "균": 7429,
      "그": 7430,
      "극": 7431,
      "근": 7432,
      "글": 7433,
      "금": 7434,
      "급": 7435,
      "기": 7436,
      "긴": 7437,
      "길": 7438,
      "김": 7439,
      "깊": 7440,
      "까": 7441,
      "깔": 7442,
      "깨": 7443,
      "꺼": 7444,
      "껍": 7445,
      "께": 7446,
      "껴": 7447,
      "꼈": 7448,
      "꼬": 7449,
      "꼭": 7450,
      "꼽": 7451,
      "꽝": 7452,
      "꾸": 7453,
      "꾼": 7454,
      "꿀": 7455,
      "꿈": 7456,
      "꿔": 7457,
      "끄": 7458,
      "끈": 7459,
      "끊": 7460,
      "끌": 7461,
      "끓": 7462,
      "끔": 7463,
      "끗": 7464,
      "끝": 7465,
      "끼": 7466,
      "낀": 7467,
      "낌": 7468,
      "나": 7469,
      "낙": 7470,
      "난": 7471,
      "날": 7472,
      "남": 7473,
      "납": 7474,
      "났": 7475,
      "낮": 7476,
      "내": 7477,
      "낸": 7478,
      "냅": 7479,
      "냈": 7480,
      "냥": 7481,
      "너": 7482,
      "넌": 7483,
      "널": 7484,
      "넓": 7485,
      "넘": 7486,
      "넛": 7487,
      "넣": 7488,
      "네": 7489,
      "넷": 7490,
      "녀": 7491,
      "녁": 7492,
      "년": 7493,
      "념": 7494,
      "녕": 7495,
      "노": 7496,
      "녹": 7497,
      "논": 7498,
      "놀": 7499,
      "농": 7500,
      "높": 7501,
      "놓": 7502,
      "놔": 7503,
      "놨": 7504,
      "뇌": 7505,
      "뇽": 7506,
      "누": 7507,
      "눈": 7508,
      "눌": 7509,
      "눕": 7510,
      "눠": 7511,
      "뉴": 7512,
      "느": 7513,
      "는": 7514,
      "늘": 7515,
      "능": 7516,
      "니": 7517,
      "닉": 7518,
      "닌": 7519,
      "닐": 7520,
      "님": 7521,
      "닙": 7522,
      "닝": 7523,
      "다": 7524,
      "닥": 7525,
      "닦": 7526,
      "단": 7527,
      "닫": 7528,
      "달": 7529,
      "담": 7530,
      "답": 7531,
      "당": 7532,
      "닿": 7533,
      "대": 7534,
      "댄": 7535,
      "댓": 7536,
      "더": 7537,
      "덕": 7538,
      "던": 7539,
      "덜": 7540,
      "덮": 7541,
      "데": 7542,
      "델": 7543,
      "도": 7544,
      "독": 7545,
      "돈": 7546,
      "돋": 7547,
      "돌": 7548,
      "돕": 7549,
      "동": 7550,
      "됐": 7551,
      "되": 7552,
      "된": 7553,
      "될": 7554,
      "됨": 7555,
      "됩": 7556,
      "두": 7557,
      "둑": 7558,
      "둘": 7559,
      "둡": 7560,
      "둬": 7561,
      "뒤": 7562,
      "듈": 7563,
      "드": 7564,
      "득": 7565,
      "든": 7566,
      "들": 7567,
      "듯": 7568,
      "등": 7569,
      "디": 7570,
      "딘": 7571,
      "딥": 7572,
      "딩": 7573,
      "따": 7574,
      "딸": 7575,
      "때": 7576,
      "땡": 7577,
      "떠": 7578,
      "떡": 7579,
      "떤": 7580,
      "떨": 7581,
      "떻": 7582,
      "떼": 7583,
      "또": 7584,
      "뚜": 7585,
      "뜰": 7586,
      "뜻": 7587,
      "띄": 7588,
      "띵": 7589,
      "라": 7590,
      "락": 7591,
      "란": 7592,
      "람": 7593,
      "랍": 7594,
      "랑": 7595,
      "랗": 7596,
      "래": 7597,
      "랙": 7598,
      "랜": 7599,
      "램": 7600,
      "랫": 7601,
      "략": 7602,
      "량": 7603,
      "러": 7604,
      "럭": 7605,
      "런": 7606,
      "럼": 7607,
      "럽": 7608,
      "렁": 7609,
      "렇": 7610,
      "레": 7611,
      "렉": 7612,
      "렌": 7613,
      "렘": 7614,
      "렙": 7615,
      "려": 7616,
      "력": 7617,
      "련": 7618,
      "렬": 7619,
      "렵": 7620,
      "렷": 7621,
      "렸": 7622,
      "령": 7623,
      "례": 7624,
      "로": 7625,
      "록": 7626,
      "론": 7627,
      "롤": 7628,
      "롭": 7629,
      "롯": 7630,
      "롱": 7631,
      "뢰": 7632,
      "료": 7633,
      "루": 7634,
      "룬": 7635,
      "룰": 7636,
      "룹": 7637,
      "룻": 7638,
      "뤄": 7639,
      "류": 7640,
      "륙": 7641,
      "륜": 7642,
      "률": 7643,
      "륨": 7644,
      "르": 7645,
      "른": 7646,
      "를": 7647,
      "름": 7648,
      "릅": 7649,
      "리": 7650,
      "릭": 7651,
      "린": 7652,
      "릴": 7653,
      "림": 7654,
      "립": 7655,
      "릿": 7656,
      "링": 7657,
      "마": 7658,
      "막": 7659,
      "만": 7660,
      "많": 7661,
      "말": 7662,
      "맛": 7663,
      "망": 7664,
      "맞": 7665,
      "맡": 7666,
      "매": 7667,
      "맥": 7668,
      "맨": 7669,
      "맷": 7670,
      "맹": 7671,
      "머": 7672,
      "먹": 7673,
      "먼": 7674,
      "멋": 7675,
      "메": 7676,
      "멜": 7677,
      "며": 7678,
      "면": 7679,
      "명": 7680,
      "몇": 7681,
      "모": 7682,
      "목": 7683,
      "몬": 7684,
      "몰": 7685,
      "몸": 7686,
      "못": 7687,
      "묘": 7688,
      "무": 7689,
      "묵": 7690,
      "문": 7691,
      "물": 7692,
      "뭐": 7693,
      "뭔": 7694,
      "뮤": 7695,
      "므": 7696,
      "미": 7697,
      "믹": 7698,
      "민": 7699,
      "믿": 7700,
      "밀": 7701,
      "밍": 7702,
      "및": 7703,
      "바": 7704,
      "박": 7705,
      "반": 7706,
      "받": 7707,
      "발": 7708,
      "밝": 7709,
      "밤": 7710,
      "밥": 7711,
      "방": 7712,
      "배": 7713,
      "백": 7714,
      "밴": 7715,
      "버": 7716,
      "번": 7717,
      "벌": 7718,
      "범": 7719,
      "법": 7720,
      "베": 7721,
      "벤": 7722,
      "벨": 7723,
      "벳": 7724,
      "벼": 7725,
      "벽": 7726,
      "변": 7727,
      "별": 7728,
      "볍": 7729,
      "병": 7730,
      "보": 7731,
      "복": 7732,
      "본": 7733,
      "볼": 7734,
      "봄": 7735,
      "봅": 7736,
      "봉": 7737,
      "봐": 7738,
      "봤": 7739,
      "부": 7740,
      "북": 7741,
      "분": 7742,
      "불": 7743,
      "붙": 7744,
      "뷰": 7745,
      "브": 7746,
      "블": 7747,
      "비": 7748,
      "빅": 7749,
      "빈": 7750,
      "빌": 7751,
      "빔": 7752,
      "빙": 7753,
      "빛": 7754,
      "빠": 7755,
      "빼": 7756,
      "뽕": 7757,
      "뿌": 7758,
      "뿐": 7759,
      "쁘": 7760,
      "쁜": 7761,
      "쁨": 7762,
      "사": 7763,
      "삭": 7764,
      "산": 7765,
      "살": 7766,
      "삶": 7767,
      "삼": 7768,
      "상": 7769,
      "새": 7770,
      "색": 7771,
      "샌": 7772,
      "샐": 7773,
      "생": 7774,
      "샤": 7775,
      "샵": 7776,
      "서": 7777,
      "석": 7778,
      "섞": 7779,
      "선": 7780,
      "설": 7781,
      "섬": 7782,
      "섯": 7783,
      "성": 7784,
      "세": 7785,
      "센": 7786,
      "셀": 7787,
      "셋": 7788,
      "셔": 7789,
      "션": 7790,
      "셜": 7791,
      "셤": 7792,
      "셨": 7793,
      "소": 7794,
      "속": 7795,
      "손": 7796,
      "솔": 7797,
      "송": 7798,
      "쇠": 7799,
      "쇼": 7800,
      "수": 7801,
      "숙": 7802,
      "순": 7803,
      "술": 7804,
      "숨": 7805,
      "숭": 7806,
      "쉬": 7807,
      "쉽": 7808,
      "슈": 7809,
      "스": 7810,
      "슬": 7811,
      "슴": 7812,
      "습": 7813,
      "슷": 7814,
      "승": 7815,
      "시": 7816,
      "식": 7817,
      "신": 7818,
      "실": 7819,
      "심": 7820,
      "십": 7821,
      "싶": 7822,
      "싸": 7823,
      "쌍": 7824,
      "써": 7825,
      "썬": 7826,
      "썼": 7827,
      "쏠": 7828,
      "쓰": 7829,
      "쓴": 7830,
      "씀": 7831,
      "씨": 7832,
      "아": 7833,
      "악": 7834,
      "안": 7835,
      "않": 7836,
      "알": 7837,
      "암": 7838,
      "압": 7839,
      "앗": 7840,
      "았": 7841,
      "앙": 7842,
      "앞": 7843,
      "애": 7844,
      "액": 7845,
      "앤": 7846,
      "앨": 7847,
      "앱": 7848,
      "야": 7849,
      "약": 7850,
      "얀": 7851,
      "양": 7852,
      "얘": 7853,
      "어": 7854,
      "억": 7855,
      "언": 7856,
      "얻": 7857,
      "얼": 7858,
      "엄": 7859,
      "업": 7860,
      "없": 7861,
      "엇": 7862,
      "었": 7863,
      "에": 7864,
      "엑": 7865,
      "엔": 7866,
      "엘": 7867,
      "엣": 7868,
      "여": 7869,
      "역": 7870,
      "연": 7871,
      "열": 7872,
      "염": 7873,
      "였": 7874,
      "영": 7875,
      "예": 7876,
      "오": 7877,
      "옥": 7878,
      "온": 7879,
      "올": 7880,
      "옳": 7881,
      "옴": 7882,
      "옵": 7883,
      "옹": 7884,
      "와": 7885,
      "완": 7886,
      "왓": 7887,
      "왔": 7888,
      "왕": 7889,
      "왜": 7890,
      "외": 7891,
      "요": 7892,
      "욕": 7893,
      "용": 7894,
      "우": 7895,
      "욱": 7896,
      "운": 7897,
      "울": 7898,
      "움": 7899,
      "웃": 7900,
      "워": 7901,
      "웍": 7902,
      "원": 7903,
      "월": 7904,
      "웨": 7905,
      "웰": 7906,
      "웹": 7907,
      "위": 7908,
      "윗": 7909,
      "유": 7910,
      "육": 7911,
      "윤": 7912,
      "율": 7913,
      "융": 7914,
      "으": 7915,
      "은": 7916,
      "을": 7917,
      "음": 7918,
      "응": 7919,
      "의": 7920,
      "이": 7921,
      "익": 7922,
      "인": 7923,
      "일": 7924,
      "읽": 7925,
      "임": 7926,
      "입": 7927,
      "있": 7928,
      "잎": 7929,
      "자": 7930,
      "작": 7931,
      "잔": 7932,
      "잖": 7933,
      "잘": 7934,
      "잠": 7935,
      "잡": 7936,
      "장": 7937,
      "재": 7938,
      "잼": 7939,
      "쟁": 7940,
      "저": 7941,
      "적": 7942,
      "전": 7943,
      "절": 7944,
      "점": 7945,
      "접": 7946,
      "정": 7947,
      "제": 7948,
      "젝": 7949,
      "젠": 7950,
      "젤": 7951,
      "져": 7952,
      "졌": 7953,
      "조": 7954,
      "족": 7955,
      "존": 7956,
      "좀": 7957,
      "종": 7958,
      "좋": 7959,
      "죄": 7960,
      "죠": 7961,
      "주": 7962,
      "죽": 7963,
      "준": 7964,
      "줄": 7965,
      "줍": 7966,
      "중": 7967,
      "줘": 7968,
      "쥐": 7969,
      "쥬": 7970,
      "즈": 7971,
      "즉": 7972,
      "즌": 7973,
      "즐": 7974,
      "증": 7975,
      "지": 7976,
      "직": 7977,
      "진": 7978,
      "질": 7979,
      "짐": 7980,
      "집": 7981,
      "짓": 7982,
      "징": 7983,
      "짜": 7984,
      "짧": 7985,
      "짬": 7986,
      "짱": 7987,
      "째": 7988,
      "쭉": 7989,
      "찌": 7990,
      "찍": 7991,
      "차": 7992,
      "착": 7993,
      "찬": 7994,
      "찰": 7995,
      "참": 7996,
      "창": 7997,
      "찾": 7998,
      "채": 7999,
      "책": 8000,
      "처": 8001,
      "척": 8002,
      "천": 8003,
      "철": 8004,
      "첨": 8005,
      "첫": 8006,
      "청": 8007,
      "체": 8008,
      "쳐": 8009,
      "쳤": 8010,
      "초": 8011,
      "촉": 8012,
      "촌": 8013,
      "총": 8014,
      "촬": 8015,
      "최": 8016,
      "추": 8017,
      "축": 8018,
      "출": 8019,
      "춤": 8020,
      "충": 8021,
      "취": 8022,
      "츠": 8023,
      "측": 8024,
      "층": 8025,
      "치": 8026,
      "칙": 8027,
      "친": 8028,
      "칠": 8029,
      "침": 8030,
      "칩": 8031,
      "카": 8032,
      "캐": 8033,
      "캘": 8034,
      "캠": 8035,
      "캣": 8036,
      "커": 8037,
      "컨": 8038,
      "컬": 8039,
      "컴": 8040,
      "컵": 8041,
      "컷": 8042,
      "컹": 8043,
      "케": 8044,
      "켄": 8045,
      "켓": 8046,
      "켜": 8047,
      "코": 8048,
      "콘": 8049,
      "콜": 8050,
      "콤": 8051,
      "콩": 8052,
      "쾌": 8053,
      "쿠": 8054,
      "쿼": 8055,
      "퀴": 8056,
      "크": 8057,
      "큰": 8058,
      "클": 8059,
      "큼": 8060,
      "큽": 8061,
      "키": 8062,
      "킨": 8063,
      "킹": 8064,
      "타": 8065,
      "탁": 8066,
      "탄": 8067,
      "탈": 8068,
      "탑": 8069,
      "탕": 8070,
      "태": 8071,
      "택": 8072,
      "탠": 8073,
      "탱": 8074,
      "터": 8075,
      "턴": 8076,
      "털": 8077,
      "테": 8078,
      "텍": 8079,
      "텐": 8080,
      "텔": 8081,
      "템": 8082,
      "토": 8083,
      "톤": 8084,
      "통": 8085,
      "투": 8086,
      "튜": 8087,
      "트": 8088,
      "특": 8089,
      "튼": 8090,
      "틀": 8091,
      "틈": 8092,
      "티": 8093,
      "틱": 8094,
      "틴": 8095,
      "틸": 8096,
      "팀": 8097,
      "팁": 8098,
      "팅": 8099,
      "파": 8100,
      "판": 8101,
      "팔": 8102,
      "패": 8103,
      "퍼": 8104,
      "페": 8105,
      "펫": 8106,
      "펴": 8107,
      "편": 8108,
      "펼": 8109,
      "평": 8110,
      "포": 8111,
      "폭": 8112,
      "폰": 8113,
      "폼": 8114,
      "표": 8115,
      "푸": 8116,
      "풀": 8117,
      "품": 8118,
      "풍": 8119,
      "퓨": 8120,
      "프": 8121,
      "플": 8122,
      "피": 8123,
      "픽": 8124,
      "핀": 8125,
      "필": 8126,
      "핑": 8127,
      "하": 8128,
      "학": 8129,
      "한": 8130,
      "할": 8131,
      "함": 8132,
      "합": 8133,
      "항": 8134,
      "해": 8135,
      "핵": 8136,
      "했": 8137,
      "행": 8138,
      "향": 8139,
      "허": 8140,
      "헌": 8141,
      "험": 8142,
      "헤": 8143,
      "헬": 8144,
      "혀": 8145,
      "혁": 8146,
      "현": 8147,
      "협": 8148,
      "혔": 8149,
      "형": 8150,
      "호": 8151,
      "혹": 8152,
      "혼": 8153,
      "홈": 8154,
      "홍": 8155,
      "화": 8156,
      "확": 8157,
      "환": 8158,
      "활": 8159,
      "황": 8160,
      "회": 8161,
      "획": 8162,
      "효": 8163,
      "후": 8164,
      "훅": 8165,
      "훈": 8166,
      "휩": 8167,
      "휴": 8168,
      "흐": 8169,
      "흔": 8170,
      "흡": 8171,
      "흥": 8172,
      "희": 8173,
      "히": 8174,
      "힌": 8175,
      "힐": 8176,
      "힘": 8177,
      "": 8178,
      "兀": 8179,
      "ﬀ": 8180,
      "ﬁ": 8181,
      "ﬂ": 8182,
      "ﬃ": 8183,
      "ﯽ": 8184,
      "ﷺ": 8185,
      "︎": 8186,
      "️": 8187,
      "︘": 8188,
      "︱": 8189,
      "︵": 8190,
      "ﺎ": 8191,
      "ﺗ": 8192,
      "ﻌ": 8193,
      "ﻟ": 8194,
      "﻿": 8195,
      "！": 8196,
      "＃": 8197,
      "％": 8198,
      "（": 8199,
      "）": 8200,
      "＊": 8201,
      "＋": 8202,
      "，": 8203,
      "－": 8204,
      "．": 8205,
      "／": 8206,
      "０": 8207,
      "１": 8208,
      "２": 8209,
      "３": 8210,
      "４": 8211,
      "５": 8212,
      "６": 8213,
      "７": 8214,
      "８": 8215,
      "９": 8216,
      "：": 8217,
      "；": 8218,
      "＜": 8219,
      "＝": 8220,
      "＞": 8221,
      "？": 8222,
      "＠": 8223,
      "Ａ": 8224,
      "Ｄ": 8225,
      "Ｈ": 8226,
      "Ｉ": 8227,
      "Ｋ": 8228,
      "Ｕ": 8229,
      "＼": 8230,
      "＾": 8231,
      "｀": 8232,
      "ａ": 8233,
      "ｂ": 8234,
      "ｃ": 8235,
      "ｅ": 8236,
      "ｒ": 8237,
      "ｙ": 8238,
      "～": 8239,
      "｡": 8240,
      "･": 8241,
      "ﾉ": 8242,
      "ﾒ": 8243,
      "ﾟ": 8244,
      "￢": 8245,
      "￣": 8246,
      "￥": 8247,
      "￮": 8248,
      "￼": 8249,
      "�": 8250,
      "𐀊": 8251,
      "𐀍": 8252,
      "𐀚": 8253,
      "𐀞": 8254,
      "𐌰": 8255,
      "𐌱": 8256,
      "𐌲": 8257,
      "𐌳": 8258,
      "𐌴": 8259,
      "𐌵": 8260,
      "𐌶": 8261,
      "𐌷": 8262,
      "𐌸": 8263,
      "𐌹": 8264,
      "𐦔": 8265,
      "𐦢": 8266,
      "𐦲": 8267,
      "𐧁": 8268,
      "𒂵": 8269,
      "𒄑": 8270,
      "𒆳": 8271,
      "𒈪": 8272,
      "𒊒": 8273,
      "𒊕": 8274,
      "𒌦": 8275,
      "𓀀": 8276,
      "𓀁": 8277,
      "𓀂": 8278,
      "𓀃": 8279,
      "𓀄": 8280,
      "𓀅": 8281,
      "𓀆": 8282,
      "𓀇": 8283,
      "𓀈": 8284,
      "𓀉": 8285,
      "𓂀": 8286,
      "𓂅": 8287,
      "𓂝": 8288,
      "𓅱": 8289,
      "𓉐": 8290,
      "𓊃": 8291,
      "𓏭": 8292,
      "𓏺": 8293,
      "𓏻": 8294,
      "𓏼": 8295,
      "𓏽": 8296,
      "𝄞": 8297,
      "𝐋": 8298,
      "𝐓": 8299,
      "𝐖": 8300,
      "𝐥": 8301,
      "𝐦": 8302,
      "𝐨": 8303,
      "𝐴": 8304,
      "𝐻": 8305,
      "𝐿": 8306,
      "𝑂": 8307,
      "𝑃": 8308,
      "𝑇": 8309,
      "𝑎": 8310,
      "𝑏": 8311,
      "𝑐": 8312,
      "𝑑": 8313,
      "𝑒": 8314,
      "𝑓": 8315,
      "𝑔": 8316,
      "𝑖": 8317,
      "𝑘": 8318,
      "𝑙": 8319,
      "𝑚": 8320,
      "𝑛": 8321,
      "𝑜": 8322,
      "𝑝": 8323,
      "𝑟": 8324,
      "𝑠": 8325,
      "𝑡": 8326,
      "𝑢": 8327,
      "𝑤": 8328,
      "𝑥": 8329,
      "𝑦": 8330,
      "𝑧": 8331,
      "𝒞": 8332,
      "𝒶": 8333,
      "𝓃": 8334,
      "𝔻": 8335,
      "𝔼": 8336,
      "𝔽": 8337,
      "𝔾": 8338,
      "𝕀": 8339,
      "𝕁": 8340,
      "𝕋": 8341,
      "𝕠": 8342,
      "𝕭": 8343,
      "𝖆": 8344,
      "𝗔": 8345,
      "𝗕": 8346,
      "𝗖": 8347,
      "𝗗": 8348,
      "𝗘": 8349,
      "𝗛": 8350,
      "𝗜": 8351,
      "𝗠": 8352,
      "𝗣": 8353,
      "𝗥": 8354,
      "𝗦": 8355,
      "𝗧": 8356,
      "𝗪": 8357,
      "𝗮": 8358,
      "𝗯": 8359,
      "𝗰": 8360,
      "𝗱": 8361,
      "𝗲": 8362,
      "𝗳": 8363,
      "𝗴": 8364,
      "𝗵": 8365,
      "𝗶": 8366,
      "𝗷": 8367,
      "𝗸": 8368,
      "𝗹": 8369,
      "𝗺": 8370,
      "𝗻": 8371,
      "𝗼": 8372,
      "𝗽": 8373,
      "𝗿": 8374,
      "𝘀": 8375,
      "𝘁": 8376,
      "𝘂": 8377,
      "𝘃": 8378,
      "𝘄": 8379,
      "𝘅": 8380,
      "𝘆": 8381,
      "𝘋": 8382,
      "𝘕": 8383,
      "𝘖": 8384,
      "𝘢": 8385,
      "𝘤": 8386,
      "𝘪": 8387,
      "𝘭": 8388,
      "𝘮": 8389,
      "𝘯": 8390,
      "𝘰": 8391,
      "𝘱": 8392,
      "𝘴": 8393,
      "𝘵": 8394,
      "𝘺": 8395,
      "𝘼": 8396,
      "𝙇": 8397,
      "𝙖": 8398,
      "𝙘": 8399,
      "𝙙": 8400,
      "𝙚": 8401,
      "𝙛": 8402,
      "𝙜": 8403,
      "𝙝": 8404,
      "𝙞": 8405,
      "𝙟": 8406,
      "𝙡": 8407,
      "𝙤": 8408,
      "𝙥": 8409,
      "𝙦": 8410,
      "𝙧": 8411,
      "𝙨": 8412,
      "𝙩": 8413,
      "𝙪": 8414,
      "𝙮": 8415,
      "𝛽": 8416,
      "𝛿": 8417,
      "𝜂": 8418,
      "𝜃": 8419,
      "𝜆": 8420,
      "𝜋": 8421,
      "𝟎": 8422,
      "𝟏": 8423,
      "𝟐": 8424,
      "𝟑": 8425,
      "𝟔": 8426,
      "𝟕": 8427,
      "𝟭": 8428,
      "𝟮": 8429,
      "𝟯": 8430,
      "𝟰": 8431,
      "𝟱": 8432,
      "🀄": 8433,
      "🃏": 8434,
      "🅰": 8435,
      "🅱": 8436,
      "🅾": 8437,
      "🅿": 8438,
      "🆎": 8439,
      "🆑": 8440,
      "🆒": 8441,
      "🆓": 8442,
      "🆔": 8443,
      "🆕": 8444,
      "🆖": 8445,
      "🆗": 8446,
      "🆘": 8447,
      "🆙": 8448,
      "🆚": 8449,
      "🇦": 8450,
      "🇧": 8451,
      "🇨": 8452,
      "🇩": 8453,
      "🇪": 8454,
      "🇫": 8455,
      "🇬": 8456,
      "🇭": 8457,
      "🇮": 8458,
      "🇯": 8459,
      "🇰": 8460,
      "🇱": 8461,
      "🇲": 8462,
      "🇳": 8463,
      "🇴": 8464,
      "🇵": 8465,
      "🇷": 8466,
      "🇸": 8467,
      "🇹": 8468,
      "🇺": 8469,
      "🇻": 8470,
      "🇽": 8471,
      "🇾": 8472,
      "🇿": 8473,
      "🈁": 8474,
      "🈂": 8475,
      "🈚": 8476,
      "🈯": 8477,
      "🈲": 8478,
      "🈳": 8479,
      "🈴": 8480,
      "🈵": 8481,
      "🈶": 8482,
      "🈷": 8483,
      "🈸": 8484,
      "🈹": 8485,
      "🈺": 8486,
      "🉐": 8487,
      "🉑": 8488,
      "🌀": 8489,
      "🌁": 8490,
      "🌂": 8491,
      "🌃": 8492,
      "🌄": 8493,
      "🌅": 8494,
      "🌆": 8495,
      "🌇": 8496,
      "🌈": 8497,
      "🌉": 8498,
      "🌊": 8499,
      "🌋": 8500,
      "🌌": 8501,
      "🌍": 8502,
      "🌎": 8503,
      "🌏": 8504,
      "🌐": 8505,
      "🌑": 8506,
      "🌒": 8507,
      "🌓": 8508,
      "🌔": 8509,
      "🌕": 8510,
      "🌖": 8511,
      "🌗": 8512,
      "🌘": 8513,
      "🌙": 8514,
      "🌚": 8515,
      "🌛": 8516,
      "🌜": 8517,
      "🌝": 8518,
      "🌞": 8519,
      "🌟": 8520,
      "🌠": 8521,
      "🌡": 8522,
      "🌤": 8523,
      "🌥": 8524,
      "🌦": 8525,
      "🌧": 8526,
      "🌨": 8527,
      "🌩": 8528,
      "🌪": 8529,
      "🌫": 8530,
      "🌬": 8531,
      "🌭": 8532,
      "🌮": 8533,
      "🌯": 8534,
      "🌰": 8535,
      "🌱": 8536,
      "🌲": 8537,
      "🌳": 8538,
      "🌴": 8539,
      "🌵": 8540,
      "🌶": 8541,
      "🌷": 8542,
      "🌸": 8543,
      "🌹": 8544,
      "🌺": 8545,
      "🌻": 8546,
      "🌼": 8547,
      "🌽": 8548,
      "🌾": 8549,
      "🌿": 8550,
      "🍀": 8551,
      "🍁": 8552,
      "🍂": 8553,
      "🍃": 8554,
      "🍄": 8555,
      "🍅": 8556,
      "🍆": 8557,
      "🍇": 8558,
      "🍈": 8559,
      "🍉": 8560,
      "🍊": 8561,
      "🍋": 8562,
      "🍌": 8563,
      "🍍": 8564,
      "🍎": 8565,
      "🍏": 8566,
      "🍐": 8567,
      "🍑": 8568,
      "🍒": 8569,
      "🍓": 8570,
      "🍔": 8571,
      "🍕": 8572,
      "🍖": 8573,
      "🍗": 8574,
      "🍘": 8575,
      "🍙": 8576,
      "🍚": 8577,
      "🍛": 8578,
      "🍜": 8579,
      "🍝": 8580,
      "🍞": 8581,
      "🍟": 8582,
      "🍠": 8583,
      "🍡": 8584,
      "🍢": 8585,
      "🍣": 8586,
      "🍤": 8587,
      "🍥": 8588,
      "🍦": 8589,
      "🍧": 8590,
      "🍨": 8591,
      "🍩": 8592,
      "🍪": 8593,
      "🍫": 8594,
      "🍬": 8595,
      "🍭": 8596,
      "🍮": 8597,
      "🍯": 8598,
      "🍰": 8599,
      "🍱": 8600,
      "🍲": 8601,
      "🍳": 8602,
      "🍴": 8603,
      "🍵": 8604,
      "🍶": 8605,
      "🍷": 8606,
      "🍸": 8607,
      "🍹": 8608,
      "🍺": 8609,
      "🍻": 8610,
      "🍼": 8611,
      "🍽": 8612,
      "🍾": 8613,
      "🍿": 8614,
      "🎀": 8615,
      "🎁": 8616,
      "🎂": 8617,
      "🎃": 8618,
      "🎄": 8619,
      "🎅": 8620,
      "🎆": 8621,
      "🎇": 8622,
      "🎈": 8623,
      "🎉": 8624,
      "🎊": 8625,
      "🎋": 8626,
      "🎍": 8627,
      "🎎": 8628,
      "🎏": 8629,
      "🎐": 8630,
      "🎑": 8631,
      "🎒": 8632,
      "🎓": 8633,
      "🎖": 8634,
      "🎗": 8635,
      "🎙": 8636,
      "🎚": 8637,
      "🎛": 8638,
      "🎞": 8639,
      "🎟": 8640,
      "🎠": 8641,
      "🎡": 8642,
      "🎢": 8643,
      "🎣": 8644,
      "🎤": 8645,
      "🎥": 8646,
      "🎦": 8647,
      "🎧": 8648,
      "🎨": 8649,
      "🎩": 8650,
      "🎪": 8651,
      "🎫": 8652,
      "🎬": 8653,
      "🎭": 8654,
      "🎮": 8655,
      "🎯": 8656,
      "🎰": 8657,
      "🎱": 8658,
      "🎲": 8659,
      "🎳": 8660,
      "🎴": 8661,
      "🎵": 8662,
      "🎶": 8663,
      "🎷": 8664,
      "🎸": 8665,
      "🎹": 8666,
      "🎺": 8667,
      "🎻": 8668,
      "🎼": 8669,
      "🎽": 8670,
      "🎾": 8671,
      "🎿": 8672,
      "🏀": 8673,
      "🏁": 8674,
      "🏂": 8675,
      "🏃": 8676,
      "🏄": 8677,
      "🏅": 8678,
      "🏆": 8679,
      "🏇": 8680,
      "🏈": 8681,
      "🏉": 8682,
      "🏊": 8683,
      "🏋": 8684,
      "🏌": 8685,
      "🏍": 8686,
      "🏎": 8687,
      "🏏": 8688,
      "🏐": 8689,
      "🏑": 8690,
      "🏒": 8691,
      "🏓": 8692,
      "🏔": 8693,
      "🏕": 8694,
      "🏖": 8695,
      "🏗": 8696,
      "🏘": 8697,
      "🏙": 8698,
      "🏚": 8699,
      "🏛": 8700,
      "🏜": 8701,
      "🏝": 8702,
      "🏞": 8703,
      "🏟": 8704,
      "🏠": 8705,
      "🏡": 8706,
      "🏢": 8707,
      "🏣": 8708,
      "🏤": 8709,
      "🏥": 8710,
      "🏦": 8711,
      "🏧": 8712,
      "🏨": 8713,
      "🏩": 8714,
      "🏪": 8715,
      "🏫": 8716,
      "🏬": 8717,
      "🏭": 8718,
      "🏮": 8719,
      "🏯": 8720,
      "🏰": 8721,
      "🏳": 8722,
      "🏵": 8723,
      "🏷": 8724,
      "🏸": 8725,
      "🏹": 8726,
      "🏺": 8727,
      "🏻": 8728,
      "🏼": 8729,
      "🏽": 8730,
      "🏾": 8731,
      "🐀": 8732,
      "🐁": 8733,
      "🐂": 8734,
      "🐃": 8735,
      "🐄": 8736,
      "🐅": 8737,
      "🐆": 8738,
      "🐇": 8739,
      "🐈": 8740,
      "🐉": 8741,
      "🐊": 8742,
      "🐋": 8743,
      "🐌": 8744,
      "🐍": 8745,
      "🐎": 8746,
      "🐏": 8747,
      "🐐": 8748,
      "🐑": 8749,
      "🐒": 8750,
      "🐓": 8751,
      "🐔": 8752,
      "🐕": 8753,
      "🐖": 8754,
      "🐗": 8755,
      "🐘": 8756,
      "🐙": 8757,
      "🐚": 8758,
      "🐛": 8759,
      "🐜": 8760,
      "🐝": 8761,
      "🐞": 8762,
      "🐟": 8763,
      "🐠": 8764,
      "🐡": 8765,
      "🐢": 8766,
      "🐣": 8767,
      "🐤": 8768,
      "🐥": 8769,
      "🐦": 8770,
      "🐧": 8771,
      "🐨": 8772,
      "🐩": 8773,
      "🐪": 8774,
      "🐫": 8775,
      "🐬": 8776,
      "🐭": 8777,
      "🐮": 8778,
      "🐯": 8779,
      "🐰": 8780,
      "🐱": 8781,
      "🐲": 8782,
      "🐳": 8783,
      "🐴": 8784,
      "🐵": 8785,
      "🐶": 8786,
      "🐷": 8787,
      "🐸": 8788,
      "🐹": 8789,
      "🐺": 8790,
      "🐻": 8791,
      "🐼": 8792,
      "🐽": 8793,
      "🐾": 8794,
      "🐿": 8795,
      "👀": 8796,
      "👁": 8797,
      "👂": 8798,
      "👃": 8799,
      "👄": 8800,
      "👅": 8801,
      "👆": 8802,
      "👇": 8803,
      "👈": 8804,
      "👉": 8805,
      "👊": 8806,
      "👋": 8807,
      "👌": 8808,
      "👍": 8809,
      "👎": 8810,
      "👏": 8811,
      "👐": 8812,
      "👑": 8813,
      "👒": 8814,
      "👓": 8815,
      "👔": 8816,
      "👕": 8817,
      "👖": 8818,
      "👗": 8819,
      "👘": 8820,
      "👙": 8821,
      "👚": 8822,
      "👛": 8823,
      "👜": 8824,
      "👝": 8825,
      "👞": 8826,
      "👟": 8827,
      "👠": 8828,
      "👡": 8829,
      "👢": 8830,
      "👣": 8831,
      "👤": 8832,
      "👥": 8833,
      "👦": 8834,
      "👧": 8835,
      "👨": 8836,
      "👩": 8837,
      "👪": 8838,
      "👫": 8839,
      "👬": 8840,
      "👭": 8841,
      "👮": 8842,
      "👯": 8843,
      "👰": 8844,
      "👱": 8845,
      "👲": 8846,
      "👳": 8847,
      "👴": 8848,
      "👵": 8849,
      "👶": 8850,
      "👷": 8851,
      "👸": 8852,
      "👹": 8853,
      "👺": 8854,
      "👻": 8855,
      "👼": 8856,
      "👽": 8857,
      "👾": 8858,
      "👿": 8859,
      "💀": 8860,
      "💁": 8861,
      "💂": 8862,
      "💃": 8863,
      "💄": 8864,
      "💅": 8865,
      "💆": 8866,
      "💇": 8867,
      "💈": 8868,
      "💉": 8869,
      "💊": 8870,
      "💋": 8871,
      "💌": 8872,
      "💍": 8873,
      "💎": 8874,
      "💏": 8875,
      "💐": 8876,
      "💑": 8877,
      "💒": 8878,
      "💓": 8879,
      "💔": 8880,
      "💕": 8881,
      "💖": 8882,
      "💗": 8883,
      "💘": 8884,
      "💙": 8885,
      "💚": 8886,
      "💛": 8887,
      "💜": 8888,
      "💝": 8889,
      "💞": 8890,
      "💟": 8891,
      "💠": 8892,
      "💡": 8893,
      "💢": 8894,
      "💣": 8895,
      "💤": 8896,
      "💥": 8897,
      "💦": 8898,
      "💧": 8899,
      "💨": 8900,
      "💩": 8901,
      "💪": 8902,
      "💫": 8903,
      "💬": 8904,
      "💭": 8905,
      "💮": 8906,
      "💯": 8907,
      "💰": 8908,
      "💱": 8909,
      "💲": 8910,
      "💳": 8911,
      "💴": 8912,
      "💵": 8913,
      "💶": 8914,
      "💷": 8915,
      "💸": 8916,
      "💹": 8917,
      "💺": 8918,
      "💻": 8919,
      "💼": 8920,
      "💽": 8921,
      "💾": 8922,
      "💿": 8923,
      "📀": 8924,
      "📁": 8925,
      "📂": 8926,
      "📃": 8927,
      "📄": 8928,
      "📅": 8929,
      "📆": 8930,
      "📇": 8931,
      "📈": 8932,
      "📉": 8933,
      "📊": 8934,
      "📋": 8935,
      "📌": 8936,
      "📍": 8937,
      "📎": 8938,
      "📏": 8939,
      "📐": 8940,
      "📑": 8941,
      "📒": 8942,
      "📓": 8943,
      "📔": 8944,
      "📕": 8945,
      "📖": 8946,
      "📗": 8947,
      "📘": 8948,
      "📙": 8949,
      "📚": 8950,
      "📛": 8951,
      "📜": 8952,
      "📝": 8953,
      "📞": 8954,
      "📟": 8955,
      "📠": 8956,
      "📡": 8957,
      "📢": 8958,
      "📣": 8959,
      "📤": 8960,
      "📥": 8961,
      "📦": 8962,
      "📧": 8963,
      "📨": 8964,
      "📩": 8965,
      "📪": 8966,
      "📫": 8967,
      "📬": 8968,
      "📭": 8969,
      "📮": 8970,
      "📯": 8971,
      "📰": 8972,
      "📱": 8973,
      "📲": 8974,
      "📳": 8975,
      "📴": 8976,
      "📵": 8977,
      "📶": 8978,
      "📷": 8979,
      "📸": 8980,
      "📹": 8981,
      "📺": 8982,
      "📻": 8983,
      "📼": 8984,
      "📽": 8985,
      "📿": 8986,
      "🔀": 8987,
      "🔁": 8988,
      "🔂": 8989,
      "🔃": 8990,
      "🔄": 8991,
      "🔅": 8992,
      "🔆": 8993,
      "🔇": 8994,
      "🔈": 8995,
      "🔉": 8996,
      "🔊": 8997,
      "🔋": 8998,
      "🔌": 8999,
      "🔍": 9000,
      "🔎": 9001,
      "🔏": 9002,
      "🔐": 9003,
      "🔑": 9004,
      "🔒": 9005,
      "🔓": 9006,
      "🔔": 9007,
      "🔕": 9008,
      "🔖": 9009,
      "🔗": 9010,
      "🔘": 9011,
      "🔙": 9012,
      "🔚": 9013,
      "🔛": 9014,
      "🔜": 9015,
      "🔝": 9016,
      "🔞": 9017,
      "🔟": 9018,
      "🔠": 9019,
      "🔡": 9020,
      "🔢": 9021,
      "🔣": 9022,
      "🔤": 9023,
      "🔥": 9024,
      "🔦": 9025,
      "🔧": 9026,
      "🔨": 9027,
      "🔩": 9028,
      "🔪": 9029,
      "🔫": 9030,
      "🔬": 9031,
      "🔭": 9032,
      "🔮": 9033,
      "🔯": 9034,
      "🔰": 9035,
      "🔱": 9036,
      "🔲": 9037,
      "🔳": 9038,
      "🔴": 9039,
      "🔵": 9040,
      "🔶": 9041,
      "🔷": 9042,
      "🔸": 9043,
      "🔹": 9044,
      "🔺": 9045,
      "🔻": 9046,
      "🔼": 9047,
      "🔽": 9048,
      "🕉": 9049,
      "🕊": 9050,
      "🕋": 9051,
      "🕌": 9052,
      "🕍": 9053,
      "🕎": 9054,
      "🕐": 9055,
      "🕑": 9056,
      "🕒": 9057,
      "🕓": 9058,
      "🕔": 9059,
      "🕕": 9060,
      "🕖": 9061,
      "🕗": 9062,
      "🕘": 9063,
      "🕙": 9064,
      "🕚": 9065,
      "🕛": 9066,
      "🕜": 9067,
      "🕝": 9068,
      "🕞": 9069,
      "🕟": 9070,
      "🕠": 9071,
      "🕡": 9072,
      "🕢": 9073,
      "🕣": 9074,
      "🕤": 9075,
      "🕥": 9076,
      "🕦": 9077,
      "🕧": 9078,
      "🕯": 9079,
      "🕰": 9080,
      "🕳": 9081,
      "🕴": 9082,
      "🕵": 9083,
      "🕶": 9084,
      "🕷": 9085,
      "🕸": 9086,
      "🕹": 9087,
      "🕺": 9088,
      "🖇": 9089,
      "🖊": 9090,
      "🖋": 9091,
      "🖌": 9092,
      "🖍": 9093,
      "🖐": 9094,
      "🖕": 9095,
      "🖖": 9096,
      "🖤": 9097,
      "🖥": 9098,
      "🖨": 9099,
      "🖱": 9100,
      "🖲": 9101,
      "🖼": 9102,
      "🗂": 9103,
      "🗃": 9104,
      "🗄": 9105,
      "🗑": 9106,
      "🗒": 9107,
      "🗓": 9108,
      "🗜": 9109,
      "🗝": 9110,
      "🗞": 9111,
      "🗡": 9112,
      "🗣": 9113,
      "🗨": 9114,
      "🗯": 9115,
      "🗳": 9116,
      "🗺": 9117,
      "🗻": 9118,
      "🗼": 9119,
      "🗽": 9120,
      "🗾": 9121,
      "🗿": 9122,
      "😀": 9123,
      "😁": 9124,
      "😂": 9125,
      "😃": 9126,
      "😄": 9127,
      "😅": 9128,
      "😆": 9129,
      "😇": 9130,
      "😈": 9131,
      "😉": 9132,
      "😊": 9133,
      "😋": 9134,
      "😌": 9135,
      "😍": 9136,
      "😎": 9137,
      "😏": 9138,
      "😐": 9139,
      "😑": 9140,
      "😒": 9141,
      "😓": 9142,
      "😔": 9143,
      "😕": 9144,
      "😖": 9145,
      "😗": 9146,
      "😘": 9147,
      "😙": 9148,
      "😚": 9149,
      "😛": 9150,
      "😜": 9151,
      "😝": 9152,
      "😞": 9153,
      "😟": 9154,
      "😠": 9155,
      "😡": 9156,
      "😢": 9157,
      "😣": 9158,
      "😤": 9159,
      "😥": 9160,
      "😦": 9161,
      "😧": 9162,
      "😨": 9163,
      "😩": 9164,
      "😪": 9165,
      "😫": 9166,
      "😬": 9167,
      "😭": 9168,
      "😮": 9169,
      "😯": 9170,
      "😰": 9171,
      "😱": 9172,
      "😲": 9173,
      "😳": 9174,
      "😴": 9175,
      "😵": 9176,
      "😶": 9177,
      "😷": 9178,
      "😸": 9179,
      "😹": 9180,
      "😺": 9181,
      "😻": 9182,
      "😼": 9183,
      "😽": 9184,
      "😾": 9185,
      "😿": 9186,
      "🙀": 9187,
      "🙁": 9188,
      "🙂": 9189,
      "🙃": 9190,
      "🙄": 9191,
      "🙅": 9192,
      "🙆": 9193,
      "🙇": 9194,
      "🙈": 9195,
      "🙉": 9196,
      "🙊": 9197,
      "🙋": 9198,
      "🙌": 9199,
      "🙍": 9200,
      "🙎": 9201,
      "🙏": 9202,
      "🚀": 9203,
      "🚁": 9204,
      "🚂": 9205,
      "🚃": 9206,
      "🚄": 9207,
      "🚅": 9208,
      "🚆": 9209,
      "🚇": 9210,
      "🚈": 9211,
      "🚉": 9212,
      "🚊": 9213,
      "🚋": 9214,
      "🚌": 9215,
      "🚍": 9216,
      "🚎": 9217,
      "🚏": 9218,
      "🚐": 9219,
      "🚑": 9220,
      "🚒": 9221,
      "🚓": 9222,
      "🚔": 9223,
      "🚕": 9224,
      "🚖": 9225,
      "🚗": 9226,
      "🚘": 9227,
      "🚙": 9228,
      "🚚": 9229,
      "🚛": 9230,
      "🚜": 9231,
      "🚝": 9232,
      "🚞": 9233,
      "🚟": 9234,
      "🚠": 9235,
      "🚡": 9236,
      "🚢": 9237,
      "🚣": 9238,
      "🚤": 9239,
      "🚥": 9240,
      "🚦": 9241,
      "🚧": 9242,
      "🚨": 9243,
      "🚩": 9244,
      "🚪": 9245,
      "🚫": 9246,
      "🚬": 9247,
      "🚭": 9248,
      "🚮": 9249,
      "🚯": 9250,
      "🚰": 9251,
      "🚱": 9252,
      "🚲": 9253,
      "🚳": 9254,
      "🚴": 9255,
      "🚵": 9256,
      "🚶": 9257,
      "🚷": 9258,
      "🚸": 9259,
      "🚹": 9260,
      "🚺": 9261,
      "🚻": 9262,
      "🚼": 9263,
      "🚽": 9264,
      "🚾": 9265,
      "🚿": 9266,
      "🛀": 9267,
      "🛁": 9268,
      "🛂": 9269,
      "🛃": 9270,
      "🛄": 9271,
      "🛅": 9272,
      "🛋": 9273,
      "🛌": 9274,
      "🛍": 9275,
      "🛎": 9276,
      "🛏": 9277,
      "🛐": 9278,
      "🛑": 9279,
      "🛒": 9280,
      "🛕": 9281,
      "🛖": 9282,
      "🛗": 9283,
      "🛝": 9284,
      "🛞": 9285,
      "🛟": 9286,
      "🛠": 9287,
      "🛡": 9288,
      "🛢": 9289,
      "🛣": 9290,
      "🛤": 9291,
      "🛥": 9292,
      "🛩": 9293,
      "🛫": 9294,
      "🛬": 9295,
      "🛰": 9296,
      "🛳": 9297,
      "🛴": 9298,
      "🛵": 9299,
      "🛶": 9300,
      "🛷": 9301,
      "🛸": 9302,
      "🛹": 9303,
      "🛺": 9304,
      "🛻": 9305,
      "🛼": 9306,
      "🜨": 9307,
      "🟠": 9308,
      "🟡": 9309,
      "🟢": 9310,
      "🟣": 9311,
      "🟤": 9312,
      "🟥": 9313,
      "🟦": 9314,
      "🟧": 9315,
      "🟨": 9316,
      "🟩": 9317,
      "🟪": 9318,
      "🟫": 9319,
      "🟰": 9320,
      "🡡": 9321,
      "🡣": 9322,
      "🡤": 9323,
      "🡥": 9324,
      "🡦": 9325,
      "🡧": 9326,
      "🤌": 9327,
      "🤍": 9328,
      "🤎": 9329,
      "🤏": 9330,
      "🤐": 9331,
      "🤑": 9332,
      "🤒": 9333,
      "🤓": 9334,
      "🤔": 9335,
      "🤕": 9336,
      "🤖": 9337,
      "🤗": 9338,
      "🤘": 9339,
      "🤙": 9340,
      "🤚": 9341,
      "🤛": 9342,
      "🤜": 9343,
      "🤝": 9344,
      "🤞": 9345,
      "🤟": 9346,
      "🤠": 9347,
      "🤡": 9348,
      "🤢": 9349,
      "🤣": 9350,
      "🤤": 9351,
      "🤥": 9352,
      "🤦": 9353,
      "🤧": 9354,
      "🤨": 9355,
      "🤩": 9356,
      "🤪": 9357,
      "🤫": 9358,
      "🤬": 9359,
      "🤭": 9360,
      "🤮": 9361,
      "🤯": 9362,
      "🤰": 9363,
      "🤱": 9364,
      "🤲": 9365,
      "🤳": 9366,
      "🤴": 9367,
      "🤵": 9368,
      "🤶": 9369,
      "🤷": 9370,
      "🤸": 9371,
      "🤹": 9372,
      "🤺": 9373,
      "🤼": 9374,
      "🤽": 9375,
      "🤾": 9376,
      "🤿": 9377,
      "🥀": 9378,
      "🥁": 9379,
      "🥂": 9380,
      "🥃": 9381,
      "🥄": 9382,
      "🥅": 9383,
      "🥇": 9384,
      "🥈": 9385,
      "🥉": 9386,
      "🥊": 9387,
      "🥋": 9388,
      "🥌": 9389,
      "🥍": 9390,
      "🥎": 9391,
      "🥏": 9392,
      "🥐": 9393,
      "🥑": 9394,
      "🥒": 9395,
      "🥓": 9396,
      "🥔": 9397,
      "🥕": 9398,
      "🥖": 9399,
      "🥗": 9400,
      "🥘": 9401,
      "🥙": 9402,
      "🥚": 9403,
      "🥛": 9404,
      "🥜": 9405,
      "🥝": 9406,
      "🥞": 9407,
      "🥟": 9408,
      "🥠": 9409,
      "🥡": 9410,
      "🥢": 9411,
      "🥣": 9412,
      "🥤": 9413,
      "🥥": 9414,
      "🥦": 9415,
      "🥧": 9416,
      "🥨": 9417,
      "🥩": 9418,
      "🥪": 9419,
      "🥫": 9420,
      "🥬": 9421,
      "🥭": 9422,
      "🥮": 9423,
      "🥯": 9424,
      "🥰": 9425,
      "🥱": 9426,
      "🥲": 9427,
      "🥳": 9428,
      "🥴": 9429,
      "🥵": 9430,
      "🥶": 9431,
      "🥷": 9432,
      "🥸": 9433,
      "🥹": 9434,
      "🥺": 9435,
      "🥻": 9436,
      "🥼": 9437,
      "🥽": 9438,
      "🥾": 9439,
      "🥿": 9440,
      "🦀": 9441,
      "🦁": 9442,
      "🦂": 9443,
      "🦃": 9444,
      "🦄": 9445,
      "🦅": 9446,
      "🦆": 9447,
      "🦇": 9448,
      "🦈": 9449,
      "🦉": 9450,
      "🦊": 9451,
      "🦋": 9452,
      "🦌": 9453,
      "🦍": 9454,
      "🦎": 9455,
      "🦏": 9456,
      "🦐": 9457,
      "🦑": 9458,
      "🦒": 9459,
      "🦓": 9460,
      "🦔": 9461,
      "🦕": 9462,
      "🦖": 9463,
      "🦗": 9464,
      "🦘": 9465,
      "🦙": 9466,
      "🦚": 9467,
      "🦛": 9468,
      "🦜": 9469,
      "🦝": 9470,
      "🦞": 9471,
      "🦟": 9472,
      "🦠": 9473,
      "🦡": 9474,
      "🦢": 9475,
      "🦣": 9476,
      "🦤": 9477,
      "🦥": 9478,
      "🦦": 9479,
      "🦧": 9480,
      "🦨": 9481,
      "🦩": 9482,
      "🦪": 9483,
      "🦫": 9484,
      "🦬": 9485,
      "🦭": 9486,
      "🦮": 9487,
      "🦯": 9488,
      "🦰": 9489,
      "🦱": 9490,
      "🦲": 9491,
      "🦳": 9492,
      "🦴": 9493,
      "🦵": 9494,
      "🦶": 9495,
      "🦷": 9496,
      "🦸": 9497,
      "🦹": 9498,
      "🦺": 9499,
      "🦻": 9500,
      "🦼": 9501,
      "🦽": 9502,
      "🦾": 9503,
      "🦿": 9504,
      "🧀": 9505,
      "🧁": 9506,
      "🧂": 9507,
      "🧃": 9508,
      "🧄": 9509,
      "🧅": 9510,
      "🧆": 9511,
      "🧇": 9512,
      "🧈": 9513,
      "🧉": 9514,
      "🧊": 9515,
      "🧋": 9516,
      "🧌": 9517,
      "🧍": 9518,
      "🧎": 9519,
      "🧏": 9520,
      "🧐": 9521,
      "🧑": 9522,
      "🧒": 9523,
      "🧓": 9524,
      "🧔": 9525,
      "🧕": 9526,
      "🧖": 9527,
      "🧗": 9528,
      "🧘": 9529,
      "🧙": 9530,
      "🧚": 9531,
      "🧛": 9532,
      "🧜": 9533,
      "🧝": 9534,
      "🧞": 9535,
      "🧟": 9536,
      "🧠": 9537,
      "🧡": 9538,
      "🧢": 9539,
      "🧣": 9540,
      "🧤": 9541,
      "🧥": 9542,
      "🧦": 9543,
      "🧧": 9544,
      "🧨": 9545,
      "🧩": 9546,
      "🧪": 9547,
      "🧫": 9548,
      "🧬": 9549,
      "🧭": 9550,
      "🧮": 9551,
      "🧯": 9552,
      "🧰": 9553,
      "🧱": 9554,
      "🧲": 9555,
      "🧳": 9556,
      "🧴": 9557,
      "🧵": 9558,
      "🧶": 9559,
      "🧷": 9560,
      "🧸": 9561,
      "🧹": 9562,
      "🧺": 9563,
      "🧻": 9564,
      "🧼": 9565,
      "🧽": 9566,
      "🧾": 9567,
      "🧿": 9568,
      "🩰": 9569,
      "🩱": 9570,
      "🩲": 9571,
      "🩳": 9572,
      "🩴": 9573,
      "🩸": 9574,
      "🩹": 9575,
      "🩺": 9576,
      "🩻": 9577,
      "🩼": 9578,
      "🪀": 9579,
      "🪁": 9580,
      "🪂": 9581,
      "🪃": 9582,
      "🪄": 9583,
      "🪅": 9584,
      "🪆": 9585,
      "🪐": 9586,
      "🪑": 9587,
      "🪒": 9588,
      "🪓": 9589,
      "🪔": 9590,
      "🪕": 9591,
      "🪖": 9592,
      "🪗": 9593,
      "🪘": 9594,
      "🪙": 9595,
      "🪚": 9596,
      "🪛": 9597,
      "🪜": 9598,
      "🪝": 9599,
      "🪞": 9600,
      "🪟": 9601,
      "🪠": 9602,
      "🪡": 9603,
      "🪢": 9604,
      "🪣": 9605,
      "🪤": 9606,
      "🪥": 9607,
      "🪦": 9608,
      "🪧": 9609,
      "🪨": 9610,
      "🪩": 9611,
      "🪪": 9612,
      "🪫": 9613,
      "🪬": 9614,
      "🪰": 9615,
      "🪱": 9616,
      "🪲": 9617,
      "🪳": 9618,
      "🪴": 9619,
      "🪵": 9620,
      "🪶": 9621,
      "🪷": 9622,
      "🪸": 9623,
      "🪹": 9624,
      "🪺": 9625,
      "🫀": 9626,
      "🫁": 9627,
      "🫂": 9628,
      "🫃": 9629,
      "🫄": 9630,
      "🫅": 9631,
      "🫐": 9632,
      "🫑": 9633,
      "🫒": 9634,
      "🫓": 9635,
      "🫔": 9636,
      "🫕": 9637,
      "🫖": 9638,
      "🫗": 9639,
      "🫘": 9640,
      "🫙": 9641,
      "🫠": 9642,
      "🫡": 9643,
      "🫢": 9644,
      "🫣": 9645,
      "🫤": 9646,
      "🫥": 9647,
      "🫦": 9648,
      "🫧": 9649,
      "🫰": 9650,
      "🫱": 9651,
      "🫲": 9652,
      "🫳": 9653,
      "🫴": 9654,
      "🫵": 9655,
      "🫶": 9656,
      "🭹": 9657,
      "🮤": 9658,
      "🮥": 9659,
      "𠔻": 9660,
      "𠮷": 9661,
      "𥙿": 9662,
      "𨳒": 9663,
      "𪚥": 9664,
      "𪜶": 9665,
      "􀀀": 9666,
      "th": 9667,
      "in": 9668,
      "an": 9669,
      "er": 9670,
      "on": 9671,
      "re": 9672,
      "the": 9673,
      "at": 9674,
      "en": 9675,
      "es": 9676,
      "or": 9677,
      "al": 9678,
      "and": 9679,
      "ing": 9680,
      "ou": 9681,
      "to": 9682,
      "st": 9683,
      "ed": 9684,
      "ti": 9685,
      "le": 9686,
      "ar": 9687,
      "ro": 9688,
      "as": 9689,
      "of": 9690,
      "is": 9691,
      "it": 9692,
      "ent": 9693,
      "ic": 9694,
      "ac": 9695,
      "el": 9696,
      "ion": 9697,
      "us": 9698,
      "om": 9699,
      "de": 9700,
      "ch": 9701,
      "for": 9702,
      "il": 9703,
      "he": 9704,
      "con": 9705,
      "ve": 9706,
      "se": 9707,
      "pro": 9708,
      "ad": 9709,
      "':": 9710,
      "ow": 9711,
      "am": 9712,
      "ation": 9713,
      ".\\": 9714,
      "tion": 9715,
      "you": 9716,
      "ol": 9717,
      "be": 9718,
      "su": 9719,
      "that": 9720,
      "si": 9721,
      "ab": 9722,
      "ce": 9723,
      "ers": 9724,
      "ith": 9725,
      "ge": 9726,
      "ir": 9727,
      "mo": 9728,
      "ri": 9729,
      "are": 9730,
      "ly": 9731,
      "un": 9732,
      "ex": 9733,
      "com": 9734,
      "with": 9735,
      "di": 9736,
      "li": 9737,
      "ec": 9738,
      "ay": 9739,
      "ver": 9740,
      "ur": 9741,
      "cont": 9742,
      "pl": 9743,
      "ate": 9744,
      "ment": 9745,
      "ul": 9746,
      "gh": 9747,
      "wh": 9748,
      "can": 9749,
      "me": 9750,
      "The": 9751,
      "ess": 9752,
      "ter": 9753,
      "res": 9754,
      "ap": 9755,
      "ts": 9756,
      "ke": 9757,
      "op": 9758,
      "ut": 9759,
      "im": 9760,
      "vi": 9761,
      "tr": 9762,
      "qu": 9763,
      "ne": 9764,
      "ant": 9765,
      "{'": 9766,
      "all": 9767,
      "ain": 9768,
      "lo": 9769,
      "'}": 9770,
      "te": 9771,
      "content": 9772,
      "ity": 9773,
      "ther": 9774,
      "sh": 9775,
      "role": 9776,
      "ld": 9777,
      "so": 9778,
      "sp": 9779,
      "uc": 9780,
      "out": 9781,
      "per": 9782,
      "ma": 9783,
      "str": 9784,
      "po": 9785,
      "oun": 9786,
      "our": 9787,
      "your": 9788,
      "wor": 9789,
      "ill": 9790,
      "Th": 9791,
      "gr": 9792,
      "we": 9793,
      "fe": 9794,
      "um": 9795,
      "cl": 9796,
      "ci": 9797,
      "rom": 9798,
      "',": 9799,
      "ff": 9800,
      "ere": 9801,
      "their": 9802,
      "co": 9803,
      "est": 9804,
      "from": 9805,
      "ha": 9806,
      "cre": 9807,
      "age": 9808,
      "ould": 9809,
      "em": 9810,
      "ure": 9811,
      "id": 9812,
      "ag": 9813,
      "ple": 9814,
      "no": 9815,
      "end": 9816,
      "if": 9817,
      "In": 9818,
      "by": 9819,
      "form": 9820,
      "ome": 9821,
      "was": 9822,
      "ach": 9823,
      "--": 9824,
      "por": 9825,
      "od": 9826,
      "able": 9827,
      "pe": 9828,
      "user": 9829,
      "more": 9830,
      "iz": 9831,
      "der": 9832,
      ":\\": 9833,
      "ting": 9834,
      "ine": 9835,
      "gn": 9836,
      "sist": 9837,
      "have": 9838,
      "ding": 9839,
      "des": 9840,
      "any": 9841,
      "ue": 9842,
      "king": 9843,
      "tions": 9844,
      "up": 9845,
      "vel": 9846,
      "et": 9847,
      "ast": 9848,
      "ght": 9849,
      "ind": 9850,
      "val": 9851,
      "hi": 9852,
      "ack": 9853,
      "ence": 9854,
      "one": 9855,
      "ance": 9856,
      "ally": 9857,
      "fo": 9858,
      "art": 9859,
      "some": 9860,
      "ta": 9861,
      "hel": 9862,
      "act": 9863,
      "assist": 9864,
      "use": 9865,
      "tic": 9866,
      "\",": 9867,
      "\\'": 9868,
      "her": 9869,
      "ect": 9870,
      "provi": 9871,
      "ies": 9872,
      "its": 9873,
      "has": 9874,
      "red": 9875,
      "ell": 9876,
      "assistant": 9877,
      "ound": 9878,
      "av": 9879,
      "enti": 9880,
      "ations": 9881,
      "This": 9882,
      "help": 9883,
      "port": 9884,
      "bo": 9885,
      "they": 9886,
      "clu": 9887,
      "ated": 9888,
      "go": 9889,
      "ase": 9890,
      "comm": 9891,
      "enc": 9892,
      "ous": 9893,
      "but": 9894,
      "ich": 9895,
      "cess": 9896,
      "also": 9897,
      "work": 9898,
      "ard": 9899,
      "this": 9900,
      "ive": 9901,
      "pre": 9902,
      "ep": 9903,
      "new": 9904,
      "au": 9905,
      "dis": 9906,
      "ust": 9907,
      "how": 9908,
      "ame": 9909,
      "pr": 9910,
      "ser": 9911,
      "ful": 9912,
      "cus": 9913,
      "ough": 9914,
      "such": 9915,
      "inclu": 9916,
      "ace": 9917,
      "ite": 9918,
      "dat": 9919,
      "will": 9920,
      "other": 9921,
      "ven": 9922,
      "als": 9923,
      "way": 9924,
      "them": 9925,
      "low": 9926,
      "do": 9927,
      "duc": 9928,
      "tive": 9929,
      "about": 9930,
      "gy": 9931,
      "fi": 9932,
      "col": 9933,
      "ents": 9934,
      "ok": 9935,
      "ty": 9936,
      "which": 9937,
      "ong": 9938,
      "ties": 9939,
      "over": 9940,
      "tom": 9941,
      "own": 9942,
      "br": 9943,
      "ice": 9944,
      "had": 9945,
      "ific": 9946,
      "not": 9947,
      "ang": 9948,
      "time": 9949,
      "par": 9950,
      "sy": 9951,
      "inter": 9952,
      "ors": 9953,
      "int": 9954,
      "ass": 9955,
      "mar": 9956,
      "ans": 9957,
      "ener": 9958,
      "eng": 9959,
      "ber": 9960,
      "ress": 9961,
      "comp": 9962,
      "00": 9963,
      "ater": 9964,
      "It": 9965,
      "ical": 9966,
      "cor": 9967,
      "ory": 9968,
      "get": 9969,
      "ist": 9970,
      "----": 9971,
      "ating": 9972,
      "ign": 9973,
      "diff": 9974,
      "add": 9975,
      ";\\": 9976,
      "ps": 9977,
      "my": 9978,
      "ear": 9979,
      ".',": 9980,
      "exam": 9981,
      "ves": 9982,
      "ments": 9983,
      "data": 9984,
      "ren": 9985,
      "fl": 9986,
      "peri": 9987,
      "provide": 9988,
      "ever": 9989,
      "spec": 9990,
      "ext": 9991,
      "``": 9992,
      "his": 9993,
      "med": 9994,
      "gre": 9995,
      "bl": 9996,
      "value": 9997,
      "man": 9998,
      "into": 9999,
      "who": 10000,
      "Can": 10001,
      "off": 10002,
      "ie": 10003,
      "pt": 10004,
      "ct": 10005,
      "n1": 10006,
      "ble": 10007,
      "cur": 10008,
      "cri": 10009,
      "ks": 10010,
      "chn": 10011,
      "ari": 10012,
      "ud": 10013,
      "ary": 10014,
      "used": 10015,
      "eff": 10016,
      "she": 10017,
      "like": 10018,
      "lear": 10019,
      "rough": 10020,
      "min": 10021,
      "ely": 10022,
      "produc": 10023,
      "struc": 10024,
      "velop": 10025,
      "using": 10026,
      "les": 10027,
      "ra": 10028,
      "tur": 10029,
      "soci": 10030,
      "could": 10031,
      "sure": 10032,
      "ot": 10033,
      "techn": 10034,
      "alth": 10035,
      "ph": 10036,
      ".\",": 10037,
      "ile": 10038,
      "ia": 10039,
      "differ": 10040,
      "make": 10041,
      "need": 10042,
      "olo": 10043,
      ")\\": 10044,
      "ces": 10045,
      "tional": 10046,
      "cul": 10047,
      "ob": 10048,
      "gg": 10049,
      "ning": 10050,
      "ures": 10051,
      "cal": 10052,
      "were": 10053,
      "kn": 10054,
      "requ": 10055,
      "ish": 10056,
      "fun": 10057,
      "ility": 10058,
      "these": 10059,
      "each": 10060,
      "tim": 10061,
      "ving": 10062,
      "ef": 10063,
      "pers": 10064,
      "tain": 10065,
      "through": 10066,
      "ten": 10067,
      "row": 10068,
      "gram": 10069,
      "stem": 10070,
      "inform": 10071,
      "high": 10072,
      "pon": 10073,
      "nA": 10074,
      "experi": 10075,
      "ased": 10076,
      "bu": 10077,
      "arch": 10078,
      "should": 10079,
      "ds": 10080,
      "would": 10081,
      "develop": 10082,
      "play": 10083,
      "ree": 10084,
      "thing": 10085,
      "ew": 10086,
      "uni": 10087,
      "ved": 10088,
      "custom": 10089,
      "back": 10090,
      "put": 10091,
      "vis": 10092,
      "ual": 10093,
      "bet": 10094,
      "nThe": 10095,
      "la": 10096,
      "ative": 10097,
      "day": 10098,
      "oy": 10099,
      "Ch": 10100,
      "imp": 10101,
      "ction": 10102,
      "coun": 10103,
      "que": 10104,
      "app": 10105,
      "ates": 10106,
      "mon": 10107,
      "num": 10108,
      "fore": 10109,
      "health": 10110,
      "?',": 10111,
      "gan": 10112,
      "may": 10113,
      "create": 10114,
      "sign": 10115,
      "cho": 10116,
      "pri": 10117,
      "fin": 10118,
      "been": 10119,
      "n2": 10120,
      "tw": 10121,
      "del": 10122,
      "system": 10123,
      "ick": 10124,
      "ide": 10125,
      "ese": 10126,
      "ily": 10127,
      "sup": 10128,
      "hum": 10129,
      "pa": 10130,
      "ial": 10131,
      "read": 10132,
      "information": 10133,
      "ak": 10134,
      "cr": 10135,
      "different": 10136,
      "ange": 10137,
      "Ad": 10138,
      "sa": 10139,
      "n3": 10140,
      "there": 10141,
      "set": 10142,
      "ular": 10143,
      "stand": 10144,
      "person": 10145,
      "elf": 10146,
      "ip": 10147,
      "under": 10148,
      "vol": 10149,
      "os": 10150,
      "ele": 10151,
      "comple": 10152,
      "##": 10153,
      "ys": 10154,
      "How": 10155,
      "ight": 10156,
      "reg": 10157,
      "sol": 10158,
      "pow": 10159,
      "ture": 10160,
      "vers": 10161,
      "vari": 10162,
      "pres": 10163,
      "20": 10164,
      "ens": 10165,
      "Wh": 10166,
      "ential": 10167,
      "rel": 10168,
      "sk": 10169,
      "well": 10170,
      "program": 10171,
      "fol": 10172,
      "cent": 10173,
      "gu": 10174,
      "impro": 10175,
      "vid": 10176,
      "ness": 10177,
      "sur": 10178,
      "ices": 10179,
      "Here": 10180,
      "ions": 10181,
      "St": 10182,
      "tail": 10183,
      "specific": 10184,
      "fr": 10185,
      "come": 10186,
      "ort": 10187,
      "design": 10188,
      "process": 10189,
      "life": 10190,
      "when": 10191,
      "n4": 10192,
      "uring": 10193,
      "sm": 10194,
      "ze": 10195,
      "just": 10196,
      "For": 10197,
      "plan": 10198,
      "Re": 10199,
      "vir": 10200,
      "ild": 10201,
      "search": 10202,
      "ples": 10203,
      "vent": 10204,
      "ca": 10205,
      "pos": 10206,
      "world": 10207,
      "ized": 10208,
      "serv": 10209,
      "what": 10210,
      "iness": 10211,
      "acti": 10212,
      "exp": 10213,
      "while": 10214,
      "respon": 10215,
      "He": 10216,
      "effec": 10217,
      "main": 10218,
      "We": 10219,
      "Con": 10220,
      "bs": 10221,
      "human": 10222,
      "tri": 10223,
      "commun": 10224,
      "including": 10225,
      "ms": 10226,
      "marke": 10227,
      "char": 10228,
      "line": 10229,
      "import": 10230,
      "social": 10231,
      "ici": 10232,
      "ability": 10233,
      "pu": 10234,
      "mem": 10235,
      "ize": 10236,
      "car": 10237,
      "ature": 10238,
      "ics": 10239,
      "tra": 10240,
      "An": 10241,
      "mer": 10242,
      "incre": 10243,
      "ople": 10244,
      "pot": 10245,
      "most": 10246,
      "ose": 10247,
      "ication": 10248,
      "En": 10249,
      "ati": 10250,
      "ise": 10251,
      "stud": 10252,
      "They": 10253,
      "ry": 10254,
      "care": 10255,
      "dition": 10256,
      "appro": 10257,
      "top": 10258,
      "try": 10259,
      "where": 10260,
      "example": 10261,
      "loc": 10262,
      "ences": 10263,
      "ted": 10264,
      "bus": 10265,
      "fer": 10266,
      "story": 10267,
      "{\\": 10268,
      "led": 10269,
      "lead": 10270,
      "than": 10271,
      "follow": 10272,
      "ques": 10273,
      "ways": 10274,
      "fir": 10275,
      "impact": 10276,
      "include": 10277,
      "You": 10278,
      "__": 10279,
      "bre": 10280,
      "anal": 10281,
      "let": 10282,
      "fy": 10283,
      "list": 10284,
      "people": 10285,
      "nS": 10286,
      "ages": 10287,
      "ire": 10288,
      "wr": 10289,
      "real": 10290,
      ".\"": 10291,
      "cer": 10292,
      "gi": 10293,
      "sul": 10294,
      "fri": 10295,
      "then": 10296,
      "nIn": 10297,
      "oc": 10298,
      "year": 10299,
      "```": 10300,
      "allow": 10301,
      "based": 10302,
      ",\\": 10303,
      "ology": 10304,
      "pol": 10305,
      "power": 10306,
      "ll": 10307,
      "--------": 10308,
      "ss": 10309,
      "made": 10310,
      "To": 10311,
      "code": 10312,
      "energy": 10313,
      "}\\": 10314,
      "mi": 10315,
      "step": 10316,
      "gener": 10317,
      "part": 10318,
      "eas": 10319,
      "mus": 10320,
      "ject": 10321,
      "expl": 10322,
      "cap": 10323,
      "self": 10324,
      "water": 10325,
      "many": 10326,
      "feel": 10327,
      "ings": 10328,
      "turn": 10329,
      "nO": 10330,
      "af": 10331,
      "Pro": 10332,
      "old": 10333,
      "adi": 10334,
      "signific": 10335,
      "chall": 10336,
      "tern": 10337,
      "detail": 10338,
      "know": 10339,
      "sum": 10340,
      "sive": 10341,
      "view": 10342,
      "hand": 10343,
      "ween": 10344,
      "great": 10345,
      "n5": 10346,
      "between": 10347,
      "ail": 10348,
      "business": 10349,
      "perform": 10350,
      "19": 10351,
      "uce": 10352,
      "text": 10353,
      "lim": 10354,
      "support": 10355,
      "ded": 10356,
      ");\\": 10357,
      "posi": 10358,
      "experience": 10359,
      "improve": 10360,
      "sim": 10361,
      "long": 10362,
      "sal": 10363,
      "bi": 10364,
      "personal": 10365,
      "suc": 10366,
      "light": 10367,
      "ili": 10368,
      "ources": 10369,
      "see": 10370,
      "indi": 10371,
      "ward": 10372,
      "These": 10373,
      "fam": 10374,
      "team": 10375,
      "found": 10376,
      "examples": 10377,
      "every": 10378,
      "ink": 10379,
      "fac": 10380,
      "first": 10381,
      "gin": 10382,
      "mental": 10383,
      ">\\": 10384,
      "ner": 10385,
      "friend": 10386,
      "fact": 10387,
      "strate": 10388,
      "10": 10389,
      "atch": 10390,
      "viron": 10391,
      "down": 10392,
      "organ": 10393,
      "qual": 10394,
      "sub": 10395,
      "lar": 10396,
      "find": 10397,
      "only": 10398,
      "land": 10399,
      "dep": 10400,
      "ensure": 10401,
      "aph": 10402,
      "She": 10403,
      "Use": 10404,
      "take": 10405,
      "cu": 10406,
      "atures": 10407,
      "ational": 10408,
      "inst": 10409,
      "ense": 10410,
      "media": 10411,
      "resul": 10412,
      "number": 10413,
      "iss": 10414,
      "even": 10415,
      "identi": 10416,
      "valu": 10417,
      "ake": 10418,
      "descri": 10419,
      "air": 10420,
      "during": 10421,
      "nec": 10422,
      "plement": 10423,
      "place": 10424,
      "ask": 10425,
      "arr": 10426,
      "pop": 10427,
      "sider": 10428,
      "As": 10429,
      "here": 10430,
      "significant": 10431,
      "being": 10432,
      "environ": 10433,
      "oth": 10434,
      "success": 10435,
      "show": 10436,
      "individ": 10437,
      "ustr": 10438,
      "understand": 10439,
      "Un": 10440,
      "less": 10441,
      "cover": 10442,
      "making": 10443,
      "angu": 10444,
      "key": 10445,
      "agement": 10446,
      "grow": 10447,
      "food": 10448,
      "ines": 10449,
      "ploy": 10450,
      "ben": 10451,
      "ore": 10452,
      "actic": 10453,
      "stor": 10454,
      "ety": 10455,
      "til": 10456,
      "before": 10457,
      "struction": 10458,
      "grou": 10459,
      "small": 10460,
      "start": 10461,
      "However": 10462,
      "two": 10463,
      "ural": 10464,
      "sto": 10465,
      "offer": 10466,
      "ho": 10467,
      "adv": 10468,
      "tal": 10469,
      "ath": 10470,
      "class": 10471,
      "function": 10472,
      "ately": 10473,
      "ited": 10474,
      "dr": 10475,
      "anc": 10476,
      "few": 10477,
      "sing": 10478,
      "sts": 10479,
      "ization": 10480,
      "challeng": 10481,
      "tem": 10482,
      "bel": 10483,
      "want": 10484,
      "langu": 10485,
      "level": 10486,
      "fil": 10487,
      "ori": 10488,
      "aging": 10489,
      "Com": 10490,
      "att": 10491,
      "pass": 10492,
      "//": 10493,
      "potential": 10494,
      "name": 10495,
      "gpt": 10496,
      "trans": 10497,
      "cam": 10498,
      "access": 10499,
      "If": 10500,
      "lab": 10501,
      "side": 10502,
      "Ex": 10503,
      "clo": 10504,
      "around": 10505,
      "unique": 10506,
      "tool": 10507,
      "input": 10508,
      "book": 10509,
      "bers": 10510,
      "focus": 10511,
      "jec": 10512,
      "iting": 10513,
      "```\\": 10514,
      "By": 10515,
      "arm": 10516,
      "present": 10517,
      "cour": 10518,
      "technology": 10519,
      "pur": 10520,
      "tre": 10521,
      "sible": 10522,
      "gies": 10523,
      "webs": 10524,
      "promo": 10525,
      "ash": 10526,
      "pec": 10527,
      "sever": 10528,
      "ution": 10529,
      "train": 10530,
      "sugg": 10531,
      "implement": 10532,
      "table": 10533,
      "og": 10534,
      "graph": 10535,
      ".'}": 10536,
      "publ": 10537,
      "research": 10538,
      "Wr": 10539,
      "ables": 10540,
      "benef": 10541,
      "ditionally": 10542,
      "both": 10543,
      "buil": 10544,
      "audi": 10545,
      "ills": 10546,
      "move": 10547,
      "him": 10548,
      "ency": 10549,
      "Al": 10550,
      "bal": 10551,
      "invol": 10552,
      "vity": 10553,
      "Sure": 10554,
      "development": 10555,
      "customer": 10556,
      "ired": 10557,
      "cis": 10558,
      "model": 10559,
      "vely": 10560,
      "ulti": 10561,
      "\\\\": 10562,
      "net": 10563,
      "thod": 10564,
      "practic": 10565,
      "###": 10566,
      "contin": 10567,
      "sty": 10568,
      "emo": 10569,
      "But": 10570,
      "dist": 10571,
      "gor": 10572,
      "learning": 10573,
      "mind": 10574,
      "chang": 10575,
      "important": 10576,
      "gar": 10577,
      "aff": 10578,
      "right": 10579,
      "learn": 10580,
      "flu": 10581,
      "gether": 10582,
      "face": 10583,
      "users": 10584,
      "sof": 10585,
      "ons": 10586,
      "ghts": 10587,
      "commend": 10588,
      "Res": 10589,
      "language": 10590,
      "techni": 10591,
      "reduce": 10592,
      "vide": 10593,
      "ption": 10594,
      "aw": 10595,
      "quality": 10596,
      "until": 10597,
      "head": 10598,
      "ev": 10599,
      "mater": 10600,
      "Additionally": 10601,
      "tradi": 10602,
      "cip": 10603,
      "itu": 10604,
      "rect": 10605,
      "return": 10606,
      "cle": 10607,
      "</": 10608,
      "consider": 10609,
      "Write": 10610,
      "ris": 10611,
      "ref": 10612,
      "kes": 10613,
      "features": 10614,
      "company": 10615,
      "corpor": 10616,
      "What": 10617,
      "keep": 10618,
      "employ": 10619,
      "multi": 10620,
      "method": 10621,
      "look": 10622,
      "ship": 10623,
      "together": 10624,
      "various": 10625,
      "word": 10626,
      "call": 10627,
      "ustry": 10628,
      "recommend": 10629,
      "ling": 10630,
      "typ": 10631,
      "oking": 10632,
      "tar": 10633,
      "sound": 10634,
      "stain": 10635,
      "prof": 10636,
      "lect": 10637,
      "best": 10638,
      "ital": 10639,
      "tran": 10640,
      "website": 10641,
      "?\",": 10642,
      "ected": 10643,
      "don": 10644,
      "ody": 10645,
      "home": 10646,
      "econ": 10647,
      "music": 10648,
      "good": 10649,
      "often": 10650,
      "),": 10651,
      "product": 10652,
      "curren": 10653,
      "nam": 10654,
      "inv": 10655,
      "arti": 10656,
      "cial": 10657,
      "file": 10658,
      "now": 10659,
      "na": 10660,
      "after": 10661,
      "Ar": 10662,
      "uals": 10663,
      "tle": 10664,
      "marketing": 10665,
      "educ": 10666,
      "rol": 10667,
      "tical": 10668,
      "plat": 10669,
      "industry": 10670,
      "ants": 10671,
      "spe": 10672,
      "range": 10673,
      "ger": 10674,
      "gen": 10675,
      "dri": 10676,
      "achie": 10677,
      "appl": 10678,
      "ually": 10679,
      "atural": 10680,
      "ather": 10681,
      "ft": 10682,
      "love": 10683,
      "following": 10684,
      "reduc": 10685,
      "test": 10686,
      "gl": 10687,
      "local": 10688,
      "sc": 10689,
      "share": 10690,
      "change": 10691,
      "rele": 10692,
      "response": 10693,
      "avor": 10694,
      "those": 10695,
      "ck": 10696,
      "mess": 10697,
      "tips": 10698,
      "joy": 10699,
      "several": 10700,
      "ications": 10701,
      "relation": 10702,
      "brand": 10703,
      "oper": 10704,
      "unities": 10705,
      "group": 10706,
      "platform": 10707,
      "tes": 10708,
      "icul": 10709,
      "analy": 10710,
      "child": 10711,
      "print": 10712,
      "effici": 10713,
      "provides": 10714,
      "ict": 10715,
      "vo": 10716,
      "challenges": 10717,
      "free": 10718,
      "ark": 10719,
      "services": 10720,
      "(\"": 10721,
      "interest": 10722,
      "years": 10723,
      "products": 10724,
      "els": 10725,
      "case": 10726,
      "family": 10727,
      "sustain": 10728,
      "count": 10729,
      "che": 10730,
      "mail": 10731,
      "iter": 10732,
      "customers": 10733,
      "performance": 10734,
      "resources": 10735,
      "There": 10736,
      "room": 10737,
      "identify": 10738,
      "ending": 10739,
      "must": 10740,
      ").": 10741,
      "ertain": 10742,
      "acter": 10743,
      "again": 10744,
      "ason": 10745,
      "city": 10746,
      "action": 10747,
      "tural": 10748,
      "urther": 10749,
      "issu": 10750,
      "mix": 10751,
      "sense": 10752,
      "color": 10753,
      "students": 10754,
      "ism": 10755,
      "natural": 10756,
      "inte": 10757,
      "very": 10758,
      "better": 10759,
      "order": 10760,
      "state": 10761,
      "econom": 10762,
      "cy": 10763,
      "ground": 10764,
      "ars": 10765,
      "mu": 10766,
      "men": 10767,
      "Yes": 10768,
      "ope": 10769,
      "complex": 10770,
      "skills": 10771,
      "known": 10772,
      "prot": 10773,
      "ave": 10774,
      "term": 10775,
      "community": 10776,
      "cup": 10777,
      "influ": 10778,
      "verall": 10779,
      "hy": 10780,
      "project": 10781,
      "ross": 10782,
      "chool": 10783,
      "Be": 10784,
      "ession": 10785,
      "give": 10786,
      "avail": 10787,
      "aste": 10788,
      "ysis": 10789,
      "De": 10790,
      "minut": 10791,
      "ensive": 10792,
      "ery": 10793,
      "details": 10794,
      "nI": 10795,
      "ini": 10796,
      "optim": 10797,
      "techniques": 10798,
      "words": 10799,
      "task": 10800,
      "ats": 10801,
      "approach": 10802,
      "Cre": 10803,
      "Co": 10804,
      "audience": 10805,
      "tric": 10806,
      "clear": 10807,
      "bin": 10808,
      "individuals": 10809,
      "always": 10810,
      "run": 10811,
      "ade": 10812,
      "cause": 10813,
      "require": 10814,
      "public": 10815,
      "clus": 10816,
      "nAs": 10817,
      "body": 10818,
      "n6": 10819,
      "ilities": 10820,
      "needs": 10821,
      "ips": 10822,
      "ush": 10823,
      "?\\": 10824,
      "systems": 10825,
      "sci": 10826,
      "control": 10827,
      "pat": 10828,
      "ped": 10829,
      "type": 10830,
      "stru": 10831,
      "options": 10832,
      "Tr": 10833,
      "ries": 10834,
      "did": 10835,
      "resh": 10836,
      "benefits": 10837,
      "rest": 10838,
      "wards": 10839,
      "market": 10840,
      "201": 10841,
      "ah": 10842,
      "Em": 10843,
      "building": 10844,
      "ought": 10845,
      "gorith": 10846,
      "appropri": 10847,
      "phys": 10848,
      "()": 10849,
      "meas": 10850,
      "ank": 10851,
      "Jo": 10852,
      "opport": 10853,
      "acy": 10854,
      "proper": 10855,
      "ord": 10856,
      "cording": 10857,
      "____": 10858,
      "ases": 10859,
      "current": 10860,
      "pain": 10861,
      "nM": 10862,
      "incorpor": 10863,
      "ann": 10864,
      "reli": 10865,
      "date": 10866,
      "without": 10867,
      "chec": 10868,
      "miss": 10869,
      "traditional": 10870,
      "environment": 10871,
      "analysis": 10872,
      "increase": 10873,
      "fiel": 10874,
      "bility": 10875,
      "algorith": 10876,
      "000": 10877,
      "ream": 10878,
      "ood": 10879,
      "online": 10880,
      "open": 10881,
      "labor": 10882,
      "effective": 10883,
      "creating": 10884,
      "dev": 10885,
      "game": 10886,
      "address": 10887,
      "pan": 10888,
      "ests": 10889,
      "ian": 10890,
      "ey": 10891,
      "popular": 10892,
      "reach": 10893,
      "still": 10894,
      "transp": 10895,
      "ouse": 10896,
      "enh": 10897,
      "Certain": 10898,
      "bes": 10899,
      "works": 10900,
      "belie": 10901,
      "came": 10902,
      "appe": 10903,
      "az": 10904,
      "structure": 10905,
      "tell": 10906,
      "oil": 10907,
      "contain": 10908,
      "equ": 10909,
      "character": 10910,
      "actions": 10911,
      "log": 10912,
      "string": 10913,
      "elt": 10914,
      "job": 10915,
      "ances": 10916,
      "paign": 10917,
      "Certainly": 10918,
      "ones": 10919,
      "ials": 10920,
      "others": 10921,
      "def": 10922,
      "tools": 10923,
      "management": 10924,
      "times": 10925,
      "cell": 10926,
      "comes": 10927,
      "Pl": 10928,
      "ns": 10929,
      "service": 10930,
      "ping": 10931,
      "ican": 10932,
      "dish": 10933,
      "leg": 10934,
      "large": 10935,
      "pare": 10936,
      "minutes": 10937,
      "err": 10938,
      "veget": 10939,
      "much": 10940,
      "happ": 10941,
      "flow": 10942,
      "uses": 10943,
      "style": 10944,
      "\":": 10945,
      "given": 10946,
      "event": 10947,
      "target": 10948,
      "uture": 10949,
      "areas": 10950,
      "vities": 10951,
      "tware": 10952,
      "email": 10953,
      "training": 10954,
      "vern": 10955,
      "On": 10956,
      "xi": 10957,
      "With": 10958,
      "easy": 10959,
      "Add": 10960,
      "secur": 10961,
      "ditional": 10962,
      "feed": 10963,
      "thor": 10964,
      "mat": 10965,
      "aking": 10966,
      "positive": 10967,
      "]\\": 10968,
      "growth": 10969,
      "ribut": 10970,
      "invest": 10971,
      "nF": 10972,
      "----------------": 10973,
      "anim": 10974,
      "jects": 10975,
      "AI": 10976,
      "please": 10977,
      "request": 10978,
      "sym": 10979,
      "cultural": 10980,
      "effecti": 10981,
      "possible": 10982,
      "ster": 10983,
      "bon": 10984,
      "something": 10985,
      "ton": 10986,
      "campaign": 10987,
      "strong": 10988,
      "working": 10989,
      "da": 10990,
      "member": 10991,
      "history": 10992,
      "available": 10993,
      "govern": 10994,
      "employe": 10995,
      "lic": 10996,
      "bro": 10997,
      "within": 10998,
      "No": 10999,
      "ically": 11000,
      "ins": 11001,
      "cost": 11002,
      "dients": 11003,
      "jour": 11004,
      "security": 11005,
      "Des": 11006,
      "offers": 11007,
      "events": 11008,
      "cogn": 11009,
      "goals": 11010,
      "future": 11011,
      "study": 11012,
      "activities": 11013,
      "steps": 11014,
      "When": 11015,
      "types": 11016,
      "item": 11017,
      "practices": 11018,
      "successful": 11019,
      "sent": 11020,
      "does": 11021,
      "software": 11022,
      "cli": 11023,
      "track": 11024,
      "asing": 11025,
      "ched": 11026,
      "colle": 11027,
      "ours": 11028,
      "never": 11029,
      "essential": 11030,
      "proble": 11031,
      "point": 11032,
      "become": 11033,
      "elec": 11034,
      "ource": 11035,
      "size": 11036,
      "den": 11037,
      "mil": 11038,
      "And": 11039,
      "area": 11040,
      "ression": 11041,
      "additional": 11042,
      "\"\\": 11043,
      "felt": 11044,
      "further": 11045,
      "stay": 11046,
      "helps": 11047,
      "cook": 11048,
      "school": 11049,
      "rece": 11050,
      "havi": 11051,
      "suggest": 11052,
      "partic": 11053,
      "Gr": 11054,
      "ney": 11055,
      "communication": 11056,
      "decis": 11057,
      "ost": 11058,
      "fic": 11059,
      "heat": 11060,
      "fill": 11061,
      "past": 11062,
      "maintain": 11063,
      "prefer": 11064,
      "itor": 11065,
      "changes": 11066,
      "parti": 11067,
      "same": 11068,
      "strategies": 11069,
      "dig": 11070,
      "ator": 11071,
      "pattern": 11072,
      "businesses": 11073,
      "50": 11074,
      "mom": 11075,
      "wee": 11076,
      "hol": 11077,
      "deep": 11078,
      "space": 11079,
      "ub": 11080,
      "providing": 11081,
      "active": 11082,
      "ier": 11083,
      "ato": 11084,
      "olog": 11085,
      "spir": 11086,
      "last": 11087,
      "post": 11088,
      "exer": 11089,
      "ming": 11090,
      "non": 11091,
      "wal": 11092,
      "tiv": 11093,
      "ced": 11094,
      "heart": 11095,
      "includes": 11096,
      "ont": 11097,
      "Do": 11098,
      "nOverall": 11099,
      "Col": 11100,
      "ount": 11101,
      "anced": 11102,
      "ead": 11103,
      "knew": 11104,
      "profession": 11105,
      "Your": 11106,
      "preh": 11107,
      "igh": 11108,
      "Amer": 11109,
      "mal": 11110,
      "ships": 11111,
      "behavi": 11112,
      "achieve": 11113,
      "factors": 11114,
      "direct": 11115,
      "physical": 11116,
      "compe": 11117,
      "really": 11118,
      "So": 11119,
      "break": 11120,
      "too": 11121,
      "fit": 11122,
      "particular": 11123,
      "array": 11124,
      "compan": 11125,
      "stat": 11126,
      "Some": 11127,
      "continu": 11128,
      "tow": 11129,
      "Mar": 11130,
      "path": 11131,
      "cise": 11132,
      "encour": 11133,
      "emp": 11134,
      "safe": 11135,
      "result": 11136,
      "necess": 11137,
      "integr": 11138,
      "three": 11139,
      "12": 11140,
      "allows": 11141,
      "tt": 11142,
      "materials": 11143,
      "anti": 11144,
      "met": 11145,
      "ently": 11146,
      "initi": 11147,
      "hope": 11148,
      "30": 11149,
      "next": 11150,
      "udi": 11151,
      "ering": 11152,
      "sat": 11153,
      "compreh": 11154,
      "elements": 11155,
      "ingre": 11156,
      "verse": 11157,
      "oid": 11158,
      "ished": 11159,
      "values": 11160,
      "mic": 11161,
      "calcul": 11162,
      "course": 11163,
      "ames": 11164,
      "mach": 11165,
      "18": 11166,
      "issues": 11167,
      "overall": 11168,
      "Create": 11169,
      "transport": 11170,
      "ken": 11171,
      "special": 11172,
      "|\\": 11173,
      "aged": 11174,
      "regular": 11175,
      "aim": 11176,
      "pi": 11177,
      "enjoy": 11178,
      "taking": 11179,
      "sustainable": 11180,
      "shap": 11181,
      "nTo": 11182,
      "sw": 11183,
      "That": 11184,
      "nov": 11185,
      "programs": 11186,
      "quick": 11187,
      "wind": 11188,
      "stress": 11189,
      "ince": 11190,
      "Joh": 11191,
      "New": 11192,
      "clusion": 11193,
      "mean": 11194,
      "instruction": 11195,
      "func": 11196,
      "pred": 11197,
      "const": 11198,
      "pap": 11199,
      "actice": 11200,
      "feedback": 11201,
      "raw": 11202,
      "conn": 11203,
      "itation": 11204,
      "lock": 11205,
      "pep": 11206,
      "polic": 11207,
      "check": 11208,
      "rid": 11209,
      "perf": 11210,
      "ints": 11211,
      "clean": 11212,
      "Is": 11213,
      "difficul": 11214,
      "multiple": 11215,
      "connec": 11216,
      "ards": 11217,
      "travel": 11218,
      "pack": 11219,
      "aring": 11220,
      "pati": 11221,
      "sec": 11222,
      "understanding": 11223,
      "accur": 11224,
      "secon": 11225,
      "another": 11226,
      "message": 11227,
      "fig": 11228,
      "education": 11229,
      "Go": 11230,
      "depend": 11231,
      "prevent": 11232,
      ".\"}": 11233,
      "think": 11234,
      "build": 11235,
      "experiences": 11236,
      "n7": 11237,
      "display": 11238,
      "cript": 11239,
      "going": 11240,
      "ene": 11241,
      "200": 11242,
      "reng": 11243,
      "levels": 11244,
      "coming": 11245,
      "pay": 11246,
      "hard": 11247,
      "might": 11248,
      "position": 11249,
      "fresh": 11250,
      "strugg": 11251,
      "writing": 11252,
      "effor": 11253,
      "necessary": 11254,
      "healthy": 11255,
      "renew": 11256,
      "Pr": 11257,
      "ancial": 11258,
      "ug": 11259,
      "said": 11260,
      "vant": 11261,
      "neg": 11262,
      "towards": 11263,
      "ury": 11264,
      "pose": 11265,
      "promote": 11266,
      "Bel": 11267,
      "reci": 11268,
      "flavor": 11269,
      "tics": 11270,
      "Ac": 11271,
      "auce": 11272,
      "sun": 11273,
      "fied": 11274,
      "across": 11275,
      "gate": 11276,
      "clim": 11277,
      "remain": 11278,
      "friendly": 11279,
      "feature": 11280,
      "culture": 11281,
      "won": 11282,
      "ket": 11283,
      "store": 11284,
      "nC": 11285,
      "fast": 11286,
      "Lo": 11287,
      "izing": 11288,
      "economic": 11289,
      "sources": 11290,
      "moder": 11291,
      "against": 11292,
      "bas": 11293,
      "modi": 11294,
      "hip": 11295,
      "sle": 11296,
      "ply": 11297,
      "though": 11298,
      "contribut": 11299,
      ",\"": 11300,
      "designed": 11301,
      "aut": 11302,
      "begin": 11303,
      "variety": 11304,
      "members": 11305,
      "bar": 11306,
      "Wor": 11307,
      "nut": 11308,
      "ideas": 11309,
      "page": 11310,
      "weet": 11311,
      "aves": 11312,
      "medi": 11313,
      "=\"": 11314,
      "Respon": 11315,
      "itch": 11316,
      "prom": 11317,
      "ulation": 11318,
      "mag": 11319,
      "mary": 11320,
      "abilities": 11321,
      "collabor": 11322,
      "certain": 11323,
      "15": 11324,
      "prog": 11325,
      "recipe": 11326,
      "children": 11327,
      "smo": 11328,
      "comprehensive": 11329,
      "ners": 11330,
      "streng": 11331,
      "One": 11332,
      "abl": 11333,
      "ledge": 11334,
      "tili": 11335,
      "bol": 11336,
[...]
