{
  "<pad>": 0,
  "<s>": 1,
  "</s>": 2,
  "<unk>": 3,
  "<bos>": 4,
  "<eos>": 5,
  "<|system|>": 6,
  "<|user|>": 7,
  "<|assistant|>": 8,
  "<audio>": 9,
  "<image>": 10,
  "<video>": 11,
  "<tool_call>": 12,
  "<tool_result>": 13,
  "<thought>": 14,
  "</thought>": 15,
  "<code>": 16,
  "</code>": 17,
  "\u0964": 18,
  "\u0965": 19,
  "\u0950": 20,
  "!": 21,
  "\"": 22,
  "#": 23,
  "$": 24,
  "%": 25,
  "&": 26,
  "'": 27,
  "(": 28,
  ")": 29,
  "*": 30,
  "+": 31,
  ",": 32,
  "-": 33,
  ".": 34,
  "/": 35,
  "0": 36,
  "1": 37,
  "2": 38,
  "3": 39,
  "4": 40,
  "5": 41,
  "6": 42,
  "7": 43,
  "8": 44,
  "9": 45,
  ":": 46,
  ";": 47,
  "<": 48,
  "=": 49,
  ">": 50,
  "?": 51,
  "@": 52,
  "A": 53,
  "B": 54,
  "C": 55,
  "D": 56,
  "E": 57,
  "F": 58,
  "G": 59,
  "H": 60,
  "I": 61,
  "J": 62,
  "K": 63,
  "L": 64,
  "M": 65,
  "N": 66,
  "O": 67,
  "P": 68,
  "Q": 69,
  "R": 70,
  "S": 71,
  "T": 72,
  "U": 73,
  "V": 74,
  "W": 75,
  "X": 76,
  "Y": 77,
  "Z": 78,
  "[": 79,
  "\\": 80,
  "]": 81,
  "^": 82,
  "_": 83,
  "`": 84,
  "a": 85,
  "b": 86,
  "c": 87,
  "d": 88,
  "e": 89,
  "f": 90,
  "g": 91,
  "h": 92,
  "i": 93,
  "j": 94,
  "k": 95,
  "l": 96,
  "m": 97,
  "n": 98,
  "o": 99,
  "p": 100,
  "q": 101,
  "r": 102,
  "s": 103,
  "t": 104,
  "u": 105,
  "v": 106,
  "w": 107,
  "x": 108,
  "y": 109,
  "z": 110,
  "{": 111,
  "|": 112,
  "}": 113,
  "~": 114,
  "\u00a1": 115,
  "\u00a2": 116,
  "\u00a3": 117,
  "\u00a4": 118,
  "\u00a5": 119,
  "\u00a6": 120,
  "\u00a7": 121,
  "\u00a8": 122,
  "\u00a9": 123,
  "\u00aa": 124,
  "\u00ab": 125,
  "\u00ac": 126,
  "\u00ae": 127,
  "\u00af": 128,
  "\u00b0": 129,
  "\u00b1": 130,
  "\u00b2": 131,
  "\u00b3": 132,
  "\u00b4": 133,
  "\u00b5": 134,
  "\u00b6": 135,
  "\u00b7": 136,
  "\u00b8": 137,
  "\u00b9": 138,
  "\u00ba": 139,
  "\u00bb": 140,
  "\u00bc": 141,
  "\u00bd": 142,
  "\u00be": 143,
  "\u00bf": 144,
  "\u00c0": 145,
  "\u00c1": 146,
  "\u00c2": 147,
  "\u00c3": 148,
  "\u00c4": 149,
  "\u00c5": 150,
  "\u00c6": 151,
  "\u00c7": 152,
  "\u00c8": 153,
  "\u00c9": 154,
  "\u00ca": 155,
  "\u00cb": 156,
  "\u00cc": 157,
  "\u00cd": 158,
  "\u00ce": 159,
  "\u00cf": 160,
  "\u00d0": 161,
  "\u00d1": 162,
  "\u00d2": 163,
  "\u00d3": 164,
  "\u00d4": 165,
  "\u00d5": 166,
  "\u00d6": 167,
  "\u00d7": 168,
  "\u00d8": 169,
  "\u00d9": 170,
  "\u00da": 171,
  "\u00db": 172,
  "\u00dc": 173,
  "\u00dd": 174,
  "\u00de": 175,
  "\u00df": 176,
  "\u00e0": 177,
  "\u00e1": 178,
  "\u00e2": 179,
  "\u00e3": 180,
  "\u00e4": 181,
  "\u00e5": 182,
  "\u00e6": 183,
  "\u00e7": 184,
  "\u00e8": 185,
  "\u00e9": 186,
  "\u00ea": 187,
  "\u00eb": 188,
  "\u00ec": 189,
  "\u00ed": 190,
  "\u00ee": 191,
  "\u00ef": 192,
  "\u00f0": 193,
  "\u00f1": 194,
  "\u00f2": 195,
  "\u00f3": 196,
  "\u00f4": 197,
  "\u00f5": 198,
  "\u00f6": 199,
  "\u00f7": 200,
  "\u00f8": 201,
  "\u00f9": 202,
  "\u00fa": 203,
  "\u00fb": 204,
  "\u00fc": 205,
  "\u00fd": 206,
  "\u00fe": 207,
  "\u00ff": 208,
  "\u0100": 209,
  "\u0101": 210,
  "\u0102": 211,
  "\u0103": 212,
  "\u0104": 213,
  "\u0105": 214,
  "\u0106": 215,
  "\u0107": 216,
  "\u0108": 217,
  "\u0109": 218,
  "\u010a": 219,
  "\u010b": 220,
  "\u010c": 221,
  "\u010d": 222,
  "\u010e": 223,
  "\u010f": 224,
  "\u0110": 225,
  "\u0111": 226,
  "\u0112": 227,
  "\u0113": 228,
  "\u0114": 229,
  "\u0115": 230,
  "\u0116": 231,
  "\u0117": 232,
  "\u0118": 233,
  "\u0119": 234,
  "\u011a": 235,
  "\u011b": 236,
  "\u011c": 237,
  "\u011d": 238,
  "\u011e": 239,
  "\u011f": 240,
  "\u0120": 241,
  "\u0121": 242,
  "\u0122": 243,
  "\u0123": 244,
  "\u0124": 245,
  "\u0125": 246,
  "\u0126": 247,
  "\u0127": 248,
  "\u0128": 249,
  "\u0129": 250,
  "\u012a": 251,
  "\u012b": 252,
  "\u012c": 253,
  "\u012d": 254,
  "\u012e": 255,
  "\u012f": 256,
  "\u0130": 257,
  "\u0131": 258,
  "\u0132": 259,
  "\u0133": 260,
  "\u0134": 261,
  "\u0135": 262,
  "\u0136": 263,
  "\u0137": 264,
  "\u0138": 265,
  "\u0139": 266,
  "\u013a": 267,
  "\u013b": 268,
  "\u013c": 269,
  "\u013d": 270,
  "\u013e": 271,
  "\u013f": 272,
  "\u0140": 273,
  "\u0141": 274,
  "\u0142": 275,
  "\u0143": 276,
  "\u00e0\u00a4": 277,
  "\u0120\u00e0\u00a4": 278,
  "\u00e0\u00a5": 279,
  "\u00e0\u00a4\u00be": 280,
  "\u00e0\u00a5\u0129": 281,
  "\u00e0\u00a4\u00b0": 282,
  "\u00e0\u00a5\u012f": 283,
  "\u00e0\u00a4\u00bf": 284,
  "\u0120\u00e0\u00a4\u0137": 285,
  "\u00e0\u00a5\u012f\u00e0\u00a4": 286,
  "\u00e0\u00a4\u00be\u00e0\u00a4": 287,
  "\u00e0\u00a4\u00bf\u00e0\u00a4": 288,
  "\u00e0\u00a4\u0124": 289,
  "\u00e0\u00a5\u0122": 290,
  "\u00e0\u00a5\u012d": 291,
  "\u00e0\u00a4\u00a8": 292,
  "\u00e0\u00a4\u0137": 293,
  "\u0120\u00e0\u00a4\u00b8": 294,
  "\u00e0\u00a4\u00a4": 295,
  "\u0120\u00e0\u00a4\u00b9": 296,
  "\u010d\u010a": 297,
  "\u00e0\u00a5\u012a": 298,
  "\u0120\u00e0\u00a4\u00ae": 299,
  "\u0120\u00e0\u00a4\u00aa": 300,
  "\u00e0\u00a4\u00b8": 301,
  "\u00e0\u00a5\u012f\u00e0\u00a4\u00b0": 302,
  "\u00e0\u00a4\u00b2": 303,
  "\u0120\u00e0\u00a4\u0137\u00e0\u00a5\u0129": 304,
  "\u0120\u00e0\u00a4\u00b9\u00e0\u00a5\u012a": 305,
  "\u00e0\u00a5\u0129\u00e0\u00a4\u0124": 306,
  "\u00e0\u00a5\u0123": 307,
  "\u00e0\u00a4\u00ae": 308,
  "\u00e0\u00a4\u00b9": 309,
  "\u00e0\u00a5\u00a4": 310,
  "\u00e0\u00a4\u00aa": 311,
  "\u00e0\u00a4\u00be\u00e0\u00a4\u00b0": 312,
  "\u0120\u00e0\u00a4\u013e": 313,
  "\u0120\u00e0\u00a4\u00b5": 314,
  "\u00e0\u00a4\u0139": 315,
  "\u00e0\u00a5\u012f\u00e0\u00a4\u00af": 316,
  "\u0120\u00e0\u00a4\u00ac": 317,
  "\u0120\u00e0\u00a4\u00ae\u00e0\u00a5\u0129\u00e0\u00a4\u0124": 318,
  "\u0120\u00e0\u00a4\u0127": 319,
  "\u00e0\u00a5\u0124": 320,
  "\u00e0\u00a5\u012d\u00e0\u00a4\u0124": 321,
  "\u0120\u00e0\u00a4\u00b2": 322,
  "\u00e0\u00a4\u00b5": 323,
  "\u00e0\u00a4\u00be\u00e0\u00a4\u00a8": 324,
  "\u00e0\u00a4\u00a6": 325,
  "\u00e0\u00a4\u00b0\u00e0\u00a5\u012f\u00e0\u00a4": 326,
  "\u0120\u00e0\u00a4\u00a8": 327,
  "\u00e0\u00a4\u00af": 328,
  "\u0120\u00e0\u00a4\u00a6": 329,
  "\u00e0\u00a4\u00bf\u00e0\u00a4\u0137": 330,
  "\u0120\u00e0\u00a4\u012b": 331,
  "\u0120\u00e0\u00a4\u0131": 332,
  "\u0120\u00e0\u00a4\u0136": 333,
  "\u00e0\u00a4\u00bf\u00e0\u00a4\u00af": 334,
  "\u0120\u00e0\u00a4\u0136\u00e0\u00a4\u00b0": 335,
  "\u0120\u00e0\u00a4\u0137\u00e0\u00a4\u00b0": 336,
  "\u00e0\u00a5\u0129\u00e0\u00a4": 337,
  "\u0120\u00e0\u00a4\u00b0": 338,
  "\u0120\u00e0\u00a4\u0137\u00e0\u00a5\u012d": 339,
  "\u0120\u00e0\u00a4\u0128": 340,
  "\u00e0\u00a4\u00a8\u00e0\u00a5\u0129": 341,
  "\u0120\u00e0\u00a4\u0137\u00e0\u00a5\u0122": 342,
  "\u0120\u00e0\u00a4\u00aa\u00e0\u00a5\u012f\u00e0\u00a4\u00b0": 343,
  "\u0120\u00e0\u00a4\u00b8\u00e0\u00a5\u0129": 344,
  "\u00e0\u00a4\u00ac": 345,
  "\u00e0\u00a4\u00bf\u00e0\u00a4\u00a4": 346,
  "\u00e0\u00a4\u00a1": 347,
  "\u00e0\u00a5\u012f\u00e0\u00a4\u00a4": 348,
  "\u00e0\u00a4\u0141": 349,
  "\u0120\u00e0\u00a4\u00a4": 350,
  "\u0120\u00e0\u00a4\u0139": 351,
  "\u0120\u00e0\u00a4\u0137\u00e0\u00a4\u00be": 352,
  "\u0120\u00e0\u00a4\u0131\u00e0\u00a4\u0137": 353,
  "\u00e0\u00a4\u00bc": 354,
  "\u0120\u00e0\u00a4\u00af": 355,
  "\u00e0\u00a4\u00a4\u00e0\u00a4\u00be": 356,
  "\u0120\u00e0\u00a4\u00b9\u00e0\u00a5\u012a\u00e0\u00a4\u0124": 357,
  "\u00e0\u00a4\u013e": 358,
  "\u00e0\u00a4\u013c": 359,
  "\u0120\u00e0\u00a4\u0129": 360,
  "\u00e0\u00a4\u00bf\u00e0\u00a4\u0131": 361,
  "\u00e0\u00a4\u00be\u00e0\u00a4\u00b2": 362,
  "\u0120\u0120": 363,
  "\u00e0\u00a4\u00a3": 364,
  "\u00e0\u00a4\u00a7": 365,
  "\u0120\u00e0\u00a4\u0143": 366,
  "\u00e0\u00a4\u00be\u00e0\u00a4\u00a4": 367,
  "\u00e0\u00a5\u0123\u00e0\u00a4": 368,
  "\u0120\u00e0\u00a4\u00b6": 369,
  "an": 370,
  "\u0120\u00e0\u00a4\u00aa\u00e0\u00a4\u00b0": 371,
  "\u00e0\u00a5\u012f\u00e0\u00a4\u00b5": 372,
  "\u0120\u00e0\u00a4\u00b9\u00e0\u00a5\u012d": 373,
  "\u00e0\u00a5\u012f\u00e0\u00a4\u0141": 374,
  "er": 375,
  "\u0120\u00e0\u00a4\u00b8\u00e0\u00a4\u0124": 376,
  "\u0120t": 377,
  "\u00e0\u00a4\u00be\u00e0\u00a4\u00ae": 378,
  "\u0120\u00e0\u00a4\u00b5\u00e0\u00a4\u00bf\u00e0\u00a4": 379,
  "\u0120\u00e0\u00a4\u013c": 380,
  "\u00e0\u00a4\u00b6": 381,
  "\u0120\u00e0\u00a4\u00b2\u00e0\u00a4\u00bf\u00e0\u00a4\u0131": 382,
  "\u00e0\u00a4\u00bf\u00e0\u00a4\u00af\u00e0\u00a4\u00be": 383,
  "\u00e0\u00a4\u00a4\u00e0\u00a5\u0129": 384,
  "<|": 385,
  "|>": 386,
  "\u00e0\u00a4\u00bf\u00e0\u00a4\u00b2": 387,
  "\u00e0\u00a4\u00a8\u00e0\u00a4\u00be": 388,
  "\u00e0\u00a5\u012f\u00e0\u00a4\u00b7": 389,
  "\u00e0\u00a4\u0143": 390,
  "\u00e0\u00a5\u012d\u00e0\u00a4\u0139": 391,
  "st": 392,
  "\u0120\u00e0\u00a4\u0129\u00e0\u00a4\u00b8": 393,
  "in": 394,
  "\u00e0\u00a4\u00bf\u00e0\u00a4\u00b8": 395,
  "\u0120\u00e0\u00a4\u00b8\u00e0\u00a4\u00ae": 396,
  "\u00e0\u00a4\u00be\u00e0\u00a4\u00af": 397,
  "\u00e0\u00a4\u00bf\u00e0\u00a4\u00a8": 398,
  "\u00e0\u00a4\u00be\u00e0\u00a4\u00b8": 399,
  "\u0120\u00e0\u00a4\u00a5": 400,
  "\u00e0\u00a4\u00be\u00e0\u00a4\u0124": 401,
  "\u00e0\u00a5\u012b": 402,
  "\u0120\u00e0\u00a4\u00b8\u00e0\u00a4\u0137": 403,
  "\u0120\u00e0\u00a4\u00ab": 404,
  "\u00e0\u00a4\u00be\u00e0\u00a4\u00a6": 405,
  "\u00e0\u00a4\u00a1\u00e0\u00a4\u00bc": 406,
  "\u00e0\u00a4\u00be\u00e0\u00a4\u00b5": 407,
  "as": 408,
  "\u00e0\u00a4\u0131": 409,
  "\u00e0\u00a4\u0137\u00e0\u00a5\u0129": 410,
  "\u00e0\u00a4\u00a8\u00e0\u00a5\u012f\u00e0\u00a4": 411,
  "\u00e0\u00a4\u00be\u00e0\u00a4\u00b9": 412,
  "\u00e0\u00a4\u00b8\u00e0\u00a5\u0129": 413,
  "\u00e0\u00a4\u00be\u00e0\u00a4\u0129": 414,
  "\u0120\u00e0\u00a4\u0137\u00e0\u00a4\u00bf": 415,
  "\u00e0\u00a5\u0125": 416,
  "\u00e0\u00a4\u00b0\u00e0\u00a5\u0122": 417,
  "\u00e0\u00a5\u012e": 418,
  "\u00e0\u00a4\u00a4\u00e0\u00a5\u0122": 419,
  "\u00e0\u00a5\u012f\u00e0\u00a4\u00a5": 420,
  "\u0120\u00e0\u00a4\u013e\u00e0\u00a5\u012d": 421,
  "\u0120th": 422,
  "at": 423,
  "si": 424,
  "\u0120\u00e0\u00a4\u0138": 425,
  "\u0120\u00e0\u00a4\u012b\u00e0\u00a4\u00aa": 426,
  "us": 427,
  "\u0120\u00e0\u00a4\u00a1": 428,
  "\u0120\u00e0\u00a4\u00af\u00e0\u00a4\u00b9": 429,
  "on": 430,
  "\u00e0\u00a4\u00b9\u00e0\u00a5\u0122": 431,
  "\u0120\u00e0\u00a4\u0137\u00e0\u00a4\u00b0\u00e0\u00a4\u00a8\u00e0\u00a5\u0129": 432,
  "\u00e0\u00a5\u012f\u00e0\u00a4\u00b8": 433,
  "\u0120\u00e0\u00a4\u0127\u00e0\u00a4\u00aa": 434,
  "\u00e0\u00a4\u00be\u00e0\u00a4\u013e": 435,
  "\u00e0\u00a5\u0129\u00e0\u00a4\u00b6": 436,
  "\u00e0\u00a4\u0137\u00e0\u00a5\u012f\u00e0\u00a4\u00b7": 437,
  "\u00e0\u00a4\u012a": 438,
  "\u0120\u00e0\u00a4\u0128\u00e0\u00a4\u00aa": 439,
  "\u00e0\u00a5\u012f\u00e0\u00a4\u00aa": 440,
  "\u00e0\u00a5\u012f\u00e0\u00a4\u0137": 441,
  "\u0120\u00e0\u00a4\u00a8\u00e0\u00a5\u0129": 442,
  "\u00e0\u00a4\u00a8\u00e0\u00a5\u0122": 443,
  "\u00e0\u00a5\u012f\u00e0\u00a4\u00ae": 444,
  "\u00e0\u00a5\u012f\u00e0\u00a4\u00b2": 445,
  "re": 446,
  "ant": 447,
  "\u0120\u00e0\u00a4\u0127\u00e0\u00a4\u00a8": 448,
  "\u00e0\u00a4\u0138": 449,
  "\u0120\u00e0\u00a4\u0143\u00e0\u00a5\u0122": 450,
  "\u0120\u00e0\u00a4\u0137\u00e0\u00a4\u00bf\u00e0\u00a4\u00af\u00e0\u00a4\u00be": 451,
  "\u00e0\u00a4\u00bf\u00e0\u00a4\u0124": 452,
  "en": 453,
  "user": 454,
  "\u0120\u00e0\u00a4\u0141": 455,
  "assi": 456,
  "\u00e0\u00a5\u0129\u00e0\u00a4\u0141": 457,
  "stant": 458,
  "assistant": 459,
  "\u00e0\u00a4\u00ab": 460,
  "\u0120\u00e0\u00a4\u00b8\u00e0\u00a4\u00be\u00e0\u00a4": 461,
  "\u00e0\u00a5\u0124\u00e0\u00a4\u00aa": 462,
  "\u00e0\u00a5\u0123\u00e0\u00a4\u00b0": 463,
  "\u00e0\u00a4\u00af\u00e0\u00a5\u012d\u00e0\u00a4\u0139": 464,
  "\u00e0\u00a4\u0137\u00e0\u00a4\u00be\u00e0\u00a4\u00b0": 465,
  "\u0120\u0120\u0120\u0120": 466,
  "\u00e0\u00a4\u00a4\u00e0\u00a5\u012f\u00e0\u00a4\u00b0": 467,
  "or": 468,
  "\u0120\u00e0\u00a4\u013e\u00e0\u00a4\u00be\u00e0\u00a4\u00a4": 469,
  "\u00e0\u00a4\u00be\u00e0\u00a4\u00aa": 470,
  "\u0120a": 471,
  "\u00e0\u00a4\u0125": 472,
  "\u0120c": 473,
  "\u0120the": 474,
  "\u00e0\u00a5\u012f\u00e0\u00a4\u00af\u00e0\u00a4\u00be": 475,
  "\u00e0\u00a4\u00af\u00e0\u00a4\u00be": 476,
  "\u0120\u00e0\u00a4\u012b\u00e0\u00a4\u00a4": 477,
  "\u00e0\u00a4\u00b9\u00e0\u00a5\u0122\u00e0\u00a4\u0124": 478,
  "\u0120\u00e0\u00a4\u0127\u00e0\u00a4\u00a7": 479,
  "\u00e0\u00a4\u00b0\u00e0\u00a4\u00a3": 480,
  "\u00e0\u00a5\u0129\u00e0\u00a4\u0137": 481,
  "\u00e0\u00a4\u00bf\u00e0\u00a4\u00ae": 482,
  "\u00e0\u00a5\u012f\u00e0\u00a4\u00a8": 483,
  "\u00e0\u00a4\u00be\u00e0\u00a4\u0137": 484,
  "\u0120\u010d\u010a": 485,
  "\u0120\u00e0\u00a4\u00b0\u00e0\u00a5\u0124\u00e0\u00a4\u00aa": 486,
  "\u0120\u00e0\u00a4\u00a8\u00e0\u00a4\u00b9\u00e0\u00a5\u0122\u00e0\u00a4\u0124": 487,
  "\u00e0\u00a4\u00bf\u00e0\u00a4\u00af\u00e0\u00a5\u012d\u00e0\u00a4\u0124": 488,
  "\u0120\u00e0\u00a4\u00a5\u00e0\u00a4\u00be": 489,
  "\u00e0\u00a4\u00be\u00e0\u00a4\u0123": 490,
  "\u0135\u00e0\u00a4\u0124": 491,
  "\u0120\u00e0\u00a4\u00b8\u00e0\u00a4\u00be\u00e0\u00a4\u00a5": 492,
  "\u0120\u00e0\u00a4\u0137\u00e0\u00a4\u00be\u00e0\u00a4\u00b0": 493,
  "\u0120\u00e0\u00a4\u00b9\u00e0\u00a5\u0123\u00e0\u00a4": 494,
  "\u0120\u00e0\u00a4\u012b\u00e0\u00a4\u00aa\u00e0\u00a4\u00af\u00e0\u00a5\u012d\u00e0\u00a4\u0139": 495,
  "\u0120\u00e0\u00a4\u00aa\u00e0\u00a4\u00b9": 496,
  "\u00e0\u00a4\u00be\u00e0\u00a4\u00a8\u00e0\u00a5\u0129": 497,
  "\u00e0\u00a5\u0129\u00e0\u00a4\u00b2": 498,
  "\u00e0\u00a4\u00be\u00e0\u00a4\u0131": 499,
  "\u0120\u00e0\u00a4\u00ac\u00e0\u00a4\u00be\u00e0\u00a4\u00b0": 500,
  "\u00e0\u00a4\u00bf\u00e0\u00a4\u00b0": 501,
  "\u0120\u00e0\u00a4\u00af\u00e0\u00a4\u00be": 502,
  "\u00e0\u00a4\u00b2\u00e0\u00a5\u0129": 503,
  "\u00e0\u00a4\u00a5": 504,
  "al": 505,
  "\u00e0\u00a4\u0137\u00e0\u00a5\u012f\u00e0\u00a4\u00a4": 506,
  "\u0120\u00e0\u00a4\u00b0\u00e0\u00a4\u00b9": 507,
  "\u00e0\u00a4\u00bf\u00e0\u00a4\u00b5": 508,
  "\u00e0\u00a4\u00be\u00e0\u00a4\u0135\u00e0\u00a4\u0124": 509,
  "\u00e0\u00a4\u00be\u00e0\u00a4\u012a": 510,
  "\u00e0\u00a5\u0129\u00e0\u00a4\u0138": 511,
  "\u00e0\u00a4\u0124\u00e0\u00a4\u0139": 512,
  "\u0120s": 513,
  "\u0120\u00e0\u00a4\u012b\u00e0\u00a4\u00a8": 514,
  "\u0120\u00e0\u00a4\u0139\u00e0\u00a4\u00af\u00e0\u00a4\u00be": 515,
  "\u00e0\u00a4\u00bf\u00e0\u00a4\u00b6": 516,
  "\u0120\u00e0\u00a4\u00b5\u00e0\u00a4\u00be\u00e0\u00a4\u00b2": 517,
  "it": 518,
  "\u00e0\u00a5\u012f\u00e0\u00a4\u00b0\u00e0\u00a5\u0122": 519,
  "es": 520,
  "\u0120\u00e0\u00a4\u00b8\u00e0\u00a5\u012f\u00e0\u00a4\u00a5": 521,
  "\u00e0\u00a4\u0137\u00e0\u00a5\u0122": 522,
  "\u0120an": 523,
  "ing": 524,
  "\u0120\u00e0\u00a4\u00b8\u00e0\u00a4\u0137\u00e0\u00a4\u00a4\u00e0\u00a5\u0129": 525,
  "\u00e0\u00a5\u012f\u00e0\u00a4\u00a4\u00e0\u00a4\u00b0": 526,
  "\u00e0\u00a4\u00a8\u00e0\u00a5\u012f\u00e0\u00a4\u00b9": 527,
  "\u00e0\u00a5\u012f\u00e0\u00a4\u00a7": 528,
  "\u0120\u00e0\u00a4\u0127\u00e0\u00a4\u00a7\u00e0\u00a4\u00bf\u00e0\u00a4\u0137": 529,
  "\u00e0\u00a4\u00be\u00e0\u00a4\u0139": 530,
  "\u00e0\u00a4\u00bf\u00e0\u00a4\u0138": 531,
  "\u00b7\u00e0\u00a5\u012f\u00e0\u00a4\u0141": 532,
  "\u00e0\u00a5\u012f\u00e0\u00a4\u013c": 533,
  "\u0120\u00e0\u00a4\u00b5\u00e0\u00a4\u00bf\u00e0\u00a4\u00b6": 534,
  "\u0120p": 535,
  "\u0120\u00e0\u00a4\u00b9\u00e0\u00a4\u00ae": 536,
  "\u00e0\u00a5\u0123\u00e0\u00a4\u00b2": 537,
  "\u00e0\u00a5\u0125\u00e0\u00a4\u00a4": 538,
  "\u00e0\u00a4\u00bf\u00e0\u00a4\u0124\u00e0\u00a4\u0139": 539,
  "\u0120\u00e0\u00a4\u00ac\u00e0\u00a4\u00a8": 540,
  "\u00e0\u00a4\u0124\u00e0\u00a4\u00a6": 541,
  "\u00e0\u00a4\u0124\u00e0\u00a4\u00a1": 542,
  "\u00e0\u00a4\u0137\u00e0\u00a4\u00be": 543,
  "\u0120\u00e0\u00a4\u013e\u00e0\u00a4\u00be\u00e0\u00a4\u00a4\u00e0\u00a4\u00be": 544,
  "\u0120o": 545,
  "\u00e0\u00a5\u012f\u00e0\u00a4\u00a1": 546,
  "\u0120\u00e0\u00a4\u00b5\u00e0\u00a5\u012f\u00e0\u00a4\u00af": 547,
  "is": 548,
  "\u0120\u00e0\u00a4\u013e\u00e0\u00a4\u00bf\u00e0\u00a4\u00b8": 549,
  "\u0120to": 550,
  "\u00e0\u00a5\u0124\u00e0\u00a4\u00b0\u00e0\u00a5\u012f\u00e0\u00a4": 551,
  "\u0120\u00e0\u00a4\u00aa\u00e0\u00a5\u012f\u00e0\u00a4\u00b0\u00e0\u00a4\u00a4": 552,
  "--": 553,
  "\u00e0\u00a4\u00b2\u00e0\u00a5\u0122": 554,
  "\u0120f": 555,
  "le": 556,
  "\u0120\u00e0\u00a4\u013d": 557,
  "\u0120\u00e0\u00a4\u0127\u00e0\u00a4\u00aa\u00e0\u00a4\u00a8\u00e0\u00a5\u0129": 558,
  "ar": 559,
  "\u0120\u00e0\u00a4\u00a7": 560,
  "\u00e0\u00a5\u0122\u00e0\u00a4\u00a8": 561,
  "20": 562,
  "\u00e0\u00a4\u00be\u00e0\u00a4\u00b0\u00e0\u00a4\u00be": 563,
  "\u0120\u00e0\u00a4\u00ae\u00e0\u00a4\u00b9": 564,
  "\u00e0\u00a4\u00b8\u00e0\u00a5\u0122": 565,
  "\u00e0\u00a4\u00b8\u00e0\u00a5\u012f\u00e0\u00a4\u00a4": 566,
  "\u00e0\u00a4\u0129": 567,
  "\u00e0\u00a5\u0123\u00e0\u00a4\u00a8": 568,
  "\u00e0\u00a4\u00a2": 569,
  "\u0120\u00e0\u00a4\u013a": 570,
  "\u0120\u00e0\u00a4\u00a6\u00e0\u00a5\u0129": 571,
  "\u00e0\u00a4\u0124\u00e0\u00a4\u00a4": 572,
  "\u0120\u00e0\u00a4\u00a4\u00e0\u00a4\u0137": 573,
  "\u0120\u00e0\u00a4\u00a6\u00e0\u00a5\u012f\u00e0\u00a4\u00b5": 574,
  "19": 575,
  "\u0120\u00e0\u00a4\u00ac\u00e0\u00a4\u00be\u00e0\u00a4\u00b0\u00e0\u00a5\u0129": 576,
  "\u0120w": 577,
  "\u00e0\u00a4\u00b0\u00e0\u00a5\u012f\u00e0\u00a4\u00ae": 578,
  "\u00e0\u00a5\u012f\u00e0\u00a4\u00a6": 579,
  "\u00e0\u00a5\u0129\u00e0\u00a4\u00b0": 580,
  "\u00e0\u00a5\u012d\u00e0\u00a4\u013e": 581,
  "\u0120\u00e0\u00a4\u0137\u00e0\u00a4\u00b9": 582,
  "\u0120\u00e0\u00a4\u0137\u00e0\u00a4\u00b0\u00e0\u00a5\u0129\u00e0\u00a4\u0124": 583,
  "\u0120\u00e0\u00a4\u012b\u00e0\u00a4\u00b8": 584,
  "\u00e0\u00a5\u0123\u00e0\u00a4\u00a6": 585,
  "\u0120and": 586,
  "\u0120\u00e0\u00a4\u00b0\u00e0\u00a4\u00be\u00e0\u00a4\u013e": 587,
  "\u00e0\u00a5\u0124\u00e0\u00a4\u00b0": 588,
  "\u00e0\u00a4\u0124\u00e0\u00a4\u00a7": 589,
  "\u0120\u00e0\u00a4\u00b5\u00e0\u00a4\u00b0\u00e0\u00a5\u012f\u00e0\u00a4": 590,
  "\u0120\u00e0\u00a4\u012b\u00e0\u00a4\u00a8\u00e0\u00a5\u012f\u00e0\u00a4\u00b9": 591,
  "\u0120\u00e0\u00a4\u0137\u00e0\u00a4\u00ae": 592,
  "\u0120\u00e0\u00a4\u00b8\u00e0\u00a4\u0137\u00e0\u00a4\u00a4\u00e0\u00a4\u00be": 593,
  "\u00e0\u00a4\u00be\u00e0\u00a4\u00b0\u00e0\u00a5\u0122": 594,
  "\u00e0\u00a4\u00be\u00e0\u00a4\u00a7": 595,
  "\u00e0\u00a4\u0127": 596,
  "\u00e0\u00a4\u0128": 597,
  "\u00e0\u00a5\u0124\u00e0\u00a4\u00b2": 598,
  "\u00e0\u00a4\u00be\u00e0\u00a4\u00a8\u00e0\u00a5\u0122": 599,
  "\u00e0\u00a4\u00a2\u00e0\u00a4\u00bc": 600,
  "\u00e0\u00a4\u00be\u00e0\u00a4\u00ac": 601,
  "\u00e0\u00a4\u0143\u00e0\u00a5\u0122": 602,
  "\u0120in": 603,
  "\u00e0\u00a4\u0137\u00e0\u00a5\u012d": 604,
  "ed": 605,
  "ion": 606,
  "ou": 607,
  "\u0120\u00e0\u00a4\u00aa\u00e0\u00a5\u012f\u00e0\u00a4\u00b0\u00e0\u00a4\u00a6": 608,
  "\u00e0\u00a5\u012a\u00e0\u00a4\u00b8\u00e0\u00a5\u0129": 609,
  "\u0120\u00e0\u00a4\u0137\u00e0\u00a4\u00b0\u00e0\u00a4\u00a4\u00e0\u00a5\u0129": 610,
  "\u0120\u00e0\u00a4\u00b2\u00e0\u00a4\u0139": 611,
  "\u0120d": 612,
  "\u00e0\u00a5\u0129\u00e0\u00a4\u013e": 613,
  "\u0120\u00e0\u00a4\u00b8\u00e0\u00a5\u012f\u00e0\u00a4\u00b5": 614,
  "\u0120\u00e0\u00a4\u00b8\u00e0\u00a5\u0122": 615,
  "\u0120\u00e0\u00a4\u0127\u00e0\u00a4\u00a8\u00e0\u00a5\u0123": 616,
  "\u0120\u00e0\u00a4\u013e\u00e0\u00a4\u00be\u00e0\u00a4\u00a8": 617,
  "\u0120\u00e0\u00a4\u00a6\u00e0\u00a5\u012d": 618,
  "\u0120\u00e0\u00a4\u00a4\u00e0\u00a5\u012d": 619,
  "\u00e0\u00a5\u012d\u00e0\u00a4\u0141": 620,
  "\u00e0\u00a5\u0123\u00e0\u00a4\u00a4": 621,
  "\u0120b": 622,
  "ic": 623,
  "\u0120\u00e0\u00a4\u0137\u00e0\u00a5\u0123\u00e0\u00a4": 624,
  "\u00e0\u00a4\u00ae\u00e0\u00a5\u0129\u00e0\u00a4\u0124": 625,
  "\u0120m": 626,
  "\u0120\u00e0\u00a4\u00a6\u00e0\u00a5\u012f\u00e0\u00a4\u00b5\u00e0\u00a4\u00be\u00e0\u00a4\u00b0\u00e0\u00a4\u00be": 627,
  "\u0120\u00e0\u00a4\u00b5\u00e0\u00a4\u00b9": 628,
  "\u0120\u00e0\u00a4\u00ac\u00e0\u00a5\u0122": 629,
  "\u00e0\u00a5\u0122\u00e0\u00a4\u00b5": 630,
  "\u0120of": 631,
  "\u0120\u00e0\u00a4\u0137\u00e0\u00a4\u00b0\u00e0\u00a4\u00a4\u00e0\u00a4\u00be": 632,
  "\u00e0\u00a5\u012a\u00e0\u00a4\u0124": 633,
  "ent": 634,
  "\u00e0\u00a4\u0139\u00e0\u00a4\u00be": 635,
  "\u00e0\u00a4\u0137\u00e0\u00a5\u012f\u00e0\u00a4\u00b0": 636,
  "\u0120\u00e0\u00a4\u0137\u00e0\u00a5\u012f\u00e0\u00a4\u00b7": 637,
  "\u0120\u00e0\u00a4\u00a8\u00e0\u00a4\u00bf": 638,
  "\u0120\u00e0\u00a4\u00b9\u00e0\u00a5\u0122": 639,
  "\u00e0\u00a5\u0129\u00e0\u00a4\u00b7": 640,
  "\u0120\u00e0\u00a4\u0137\u00e0\u00a5\u0123\u00e0\u00a4\u013d": 641,
  "\u0120\u00e0\u00a4\u00b9\u00e0\u00a5\u012d\u00e0\u00a4\u00a4\u00e0\u00a4\u00be": 642,
  "\u00e0\u00a5\u012f\u00e0\u00a4\u0140": 643,
  "\u00e0\u00a4\u00b2\u00e0\u00a4\u00be": 644,
  "\u00e0\u00a5\u0129\u00e0\u00a4\u00b8": 645,
  "\u0120\u00e0\u00a4\u00ac\u00e0\u00a4\u00a4": 646,
  "\u00e0\u00a4\u00b7": 647,
  "\u0120\u00e0\u00a4\u013c\u00e0\u00a4\u00be\u00e0\u00a4\u00b9": 648,
  "\u00e0\u00a4\u00bf\u00e0\u00a4\u00aa": 649,
  "\u00e0\u00a4\u0123": 650,
  "\u0120\u00e0\u00a4\u00b8\u00e0\u00a4\u00b9": 651,
  "\u00e0\u00a4\u00be\u00e0\u00a4\u00af\u00e0\u00a4\u00be": 652,
  "\u0120\u0120\u0120": 653,
  "\u0120\u00e0\u00a4\u00b2\u00e0\u00a5\u012d\u00e0\u00a4\u0139": 654,
  "\u00e0\u00a5\u012d\u00e0\u00a4\u00b2": 655,
  "\u00e0\u00a4\u0137\u00e0\u00a4\u00bf": 656,
  "\u0120\u00e0\u00a4\u00a6\u00e0\u00a5\u0129\u00e0\u00a4\u0138": 657,
  "\u0120\u00e0\u00a4\u012b\u00e0\u00a4\u00a4\u00e0\u00a5\u012f\u00e0\u00a4\u00a4\u00e0\u00a4\u00b0": 658,
  "\u0120\u00e0\u00a4\u00b8\u00e0\u00a4\u00ac": 659,
  "\u00e0\u00a5\u012f\u00e0\u00a4\u00af\u00e0\u00a5\u0124": 660,
  "\u0120\u00e0\u00a4\u0137\u00e0\u00a4\u00b0\u00e0\u00a4\u00a8\u00e0\u00a4\u00be": 661,
  "\u0120\u00e0\u00a4\u0127\u00e0\u00a4\u00b2": 662,
  "\u0120\u00e0\u00a4\u00b9\u00e0\u00a5\u0123\u00e0\u00a4\u0131": 663,
  "\u0120\u00e0\u00a4\u00b5\u00e0\u00a5\u0129": 664,
  "\u00e0\u00a4\u0142": 665,
  "\u0120\u00e0\u00a4\u00ac\u00e0\u00a4\u00be\u00e0\u00a4\u00a6": 666,
  "\u0120\u00e0\u00a4\u00ac\u00e0\u00a4\u00b9": 667,
  "\u0120\u00e0\u00a4\u00a5\u00e0\u00a5\u0129": 668,
  "\u00e0\u00a4\u00aa\u00e0\u00a5\u012f\u00e0\u00a4\u00b0": 669,
  "\u0120\u00e0\u00a4\u00b2\u00e0\u00a5\u0129\u00e0\u00a4\u0137": 670,
  "\u00e0\u00a4\u00bf\u00e0\u00a4\u013e": 671,
  "ro": 672,
  "\u0120\u00e0\u00a4\u00b5\u00e0\u00a4\u00bf\u00e0\u00a4\u0137": 673,
  "\u00e0\u00a5\u0129\u00e0\u00a4\u00a8": 674,
  "ct": 675,
  "\u00e0\u00a5\u012d\u00e0\u00a4\u00b0": 676,
  "\u0120\u00e0\u00a4\u013e\u00e0\u00a4\u00ac": 677,
  "\u00e0\u00a5\u012f\u00e0\u00a4\u00af\u00e0\u00a5\u012d\u00e0\u00a4\u0124": 678,
  "\u00e0\u00a4\u00bf\u00e0\u00a4\u0141": 679,
  "\u0120\u00e0\u00a4\u00b5\u00e0\u00a4\u00be\u00e0\u00a4\u00b2\u00e0\u00a5\u0129": 680,
  "\u0120\u00e0\u00a4\u00a5\u00e0\u00a5\u0122": 681,
  "\u00e0\u00a4\u00b0\u00e0\u00a5\u012f\u00e0\u00a4\u00a4": 682,
  "\u00e0\u00a5\u0123\u00e0\u00a4\u0138": 683,
  "\u0120\u00e0\u00a4\u00b8\u00e0\u00a4\u00be\u00e0\u00a4\u00ae": 684,
  "00": 685,
  "\u0120\u00e0\u00a4\u0137\u00e0\u00a5\u012f\u00e0\u00a4\u00af\u00e0\u00a4\u00be": 686,
  "\u00e0\u00a4\u0143\u00e0\u00a4\u00be\u00e0\u00a4\u00b5": 687,
  "\u00e0\u00a4\u012b": 688,
  "\u0120\u00e0\u00a4\u0128\u00e0\u00a4\u00b5": 689,
  "\u00e0\u00a4\u00a4\u00e0\u00a4\u00bf": 690,
  "\u00e0\u00a5\u012e\u00e0\u00a4\u00b0": 691,
  "\u00e0\u00a4\u00b8\u00e0\u00a5\u012f\u00e0\u00a4\u00a5": 692,
  "\u0120\u00e0\u00a4\u00b8\u00e0\u00a4\u00ae\u00e0\u00a4\u00af": 693,
  "\u0120h": 694,
  "\u0120\u00e0\u00a4\u013e\u00e0\u00a4\u00be": 695,
  "\u00e0\u00a4\u0137\u00e0\u00a5\u012d\u00e0\u00a4\u0124": 696,
  "ate": 697,
  "\u0120\u00e0\u00a4\u00ae\u00e0\u00a4\u00be\u00e0\u00a4\u00a8": 698,
  "\u00e0\u00a4\u00bf\u00e0\u00a4\u00a6": 699,
  "\u00e0\u00a4\u00a8\u00e0\u00a5\u012d\u00e0\u00a4\u0124": 700,
  "\u00e0\u00a4\u00be\u00e0\u00a4\u00b6": 701,
  "\u0120\u00e0\u00a4\u0128\u00e0\u00a4\u00a7": 702,
  "\u00e0\u00a5\u0129\u00e0\u00a4\u00a4\u00e0\u00a5\u012f\u00e0\u00a4\u00b0": 703,
  "\u0120\u00e0\u00a4\u0127\u00e0\u00a4\u0124\u00e0\u00a4\u00a4": 704,
  "\u0120\u00e0\u00a4\u0143\u00e0\u00a4\u00be\u00e0\u00a4\u00b0": 705,
  "\u00e0\u00a4\u00be\u00e0\u00a4\u00a3": 706,
  "\u0120\u00e0\u00a4\u0137\u00e0\u00a4\u00bf\u00e0\u00a4\u00b8": 707,
  "\u0120\u00e0\u00a4\u00a6\u00e0\u00a4\u00bf\u00e0\u00a4\u00af\u00e0\u00a4\u00be": 708,
  "\u00e0\u00a5\u0122\u00e0\u00a4\u00af": 709,
  "\u0120\u00e0\u00a4\u012b\u00e0\u00a4\u00a6": 710,
  "\u0120\u00e0\u00a4\u00b0\u00e0\u00a4\u0138": 711,
  "\u0120\u00e0\u00a4\u0139\u00e0\u00a4\u0131": 712,
  "\u00e0\u00a4\u00a3\u00e0\u00a5\u012f\u00e0\u00a4\u00a1": 713,
  "\u00e0\u00a5\u0129\u00e0\u00a4\u00a1": 714,
  "\u0120\u00e0\u00a4\u00ae\u00e0\u00a4\u00bf\u00e0\u00a4\u00b2": 715,
  "\u00e0\u00a4\u013c\u00e0\u00a5\u012f\u00e0\u00a4\u013c": 716,
  "\u0120\u00e0\u00a4\u00b2\u00e0\u00a5\u0129\u00e0\u00a4\u0137\u00e0\u00a4\u00bf\u00e0\u00a4\u00a8": 717,
  "\u0120\u00e0\u00a4\u0133": 718,
  "\u00e0\u00a4\u00be\u00e0\u00a4\u0138": 719,
  "\u0120e": 720,
  "\u0120\u00e0\u00a4\u00b6\u00e0\u00a4\u00be\u00e0\u00a4\u00ae": 721,
  "\u00e0\u00a4\u00b8\u00e0\u00a4\u00b0": 722,
  "\u00e0\u00a4\u00bf\u00e0\u00a4\u0137\u00e0\u00a4\u00be": 723,
  "\u0120\u00e0\u00a4\u0137\u00e0\u00a5\u012f\u00e0\u00a4\u00b7\u00e0\u00a5\u0129\u00e0\u00a4\u00a4\u00e0\u00a5\u012f\u00e0\u00a4\u00b0": 724,
  "\u00e0\u00a4\u00b6\u00e0\u00a5\u012f\u00e0\u00a4\u00af": 725,
  "th": 726,
  "\u0120\u00e0\u00a4\u00aa\u00e0\u00a4\u00b9\u00e0\u00a4\u00b2\u00e0\u00a5\u0129": 727,
  "\u0120\u00e0\u00a4\u012b\u00e0\u00a4\u00a4\u00e0\u00a5\u012f\u00e0\u00a4\u00aa": 728,
  "\u00e2\u0122": 729,
  "\u0120\u00e0\u00a4\u0129\u00e0\u00a4\u00a8": 730,
  "\u0120\u00e0\u00a4\u00b8\u00e0\u00a4\u00ac\u00e0\u00a4\u00b8\u00e0\u00a5\u0129": 731,
  "\u00e0\u00a4\u00b9\u00e0\u00a4\u00b0": 732,
  "\u00e0\u00a4\u00ae\u00e0\u00a4\u00be\u00e0\u00a4\u00a8": 733,
  "\u00e0\u00a4\u0124\u00e0\u00a4\u00ac": 734,
  "\u00e0\u00a4\u00b8\u00e0\u00a5\u012f\u00e0\u00a4\u0137": 735,
  "\u0120\u00e0\u00a4\u0137\u00e0\u00a4\u00be\u00e0\u00a4\u00b0\u00e0\u00a5\u012f\u00e0\u00a4\u00af": 736,
  "\u00e0\u00a4\u00be\u00e0\u00a4\u00a4\u00e0\u00a5\u012f\u00e0\u00a4\u00b0": 737,
  "\u00e0\u00a4\u0124\u00e0\u00a4\u00a4\u00e0\u00a5\u012f\u00e0\u00a4\u00b0": 738,
  "om": 739,
  "\u00e0\u00a4\u0124\u00e0\u00a4\u0141": 740,
  "\u00e0\u00a5\u0124\u00e0\u00a4\u00b0\u00e0\u00a5\u012f\u00e0\u00a4\u00a3": 741,
  "\u0120\u00e0\u00a4\u00b6\u00e0\u00a4\u00be\u00e0\u00a4\u00ae\u00e0\u00a4\u00bf\u00e0\u00a4\u00b2": 742,
  "\u0120\u00e0\u00a4\u00a4\u00e0\u00a4\u00b0": 743,
  "\u0120\u00e0\u00a4\u00a8\u00e0\u00a4\u00be\u00e0\u00a4\u00ae": 744,
  "\u00e0\u00a4\u0139\u00e0\u00a5\u0122": 745,
  "\u00e0\u00a4\u00ac\u00e0\u00a4\u0124\u00e0\u00a4\u00a7": 746,
  "\u0120\u00e0\u00a4\u0127\u00e0\u00a4\u00aa\u00e0\u00a4\u00a8\u00e0\u00a5\u0122": 747,
  "\u00e0\u00a5\u012f\u00e0\u00a4\u00ac": 748,
  "\u0120\u00e0\u00a4\u0135": 749,
  "\u00e0\u00a5\u012d\u00e0\u00a4\u0124\u00e0\u00a4\u00a8\u00e0\u00a5\u0129": 750,
  "\u0120re": 751,
  "\u0120n": 752,
  "\u0120\u00e0\u00a4\u00b8\u00e0\u00a4\u00b0": 753,
  "\u0120\u00e0\u00a4\u00b9\u00e0\u00a5\u012d\u00e0\u00a4\u00a4\u00e0\u00a5\u0122": 754,
  "\u0120\u00e0\u00a4\u00b8\u00e0\u00a5\u0124": 755,
  "\u0120A": 756,
  "\u0120\u00e0\u00a4\u0127\u00e0\u00a4\u00a8\u00e0\u00a5\u012f\u00e0\u00a4\u00af": 757,
  "\u00e0\u00a4\u00a4\u00e0\u00a5\u012f\u00e0\u00a4\u00b5": 758,
  "\u0120\u00e0\u00a4\u0132": 759,
  "\u00e0\u00a4\u00b0\u00e0\u00a5\u012f\u00e0\u00a4\u00b6": 760,
  "\u00e0\u00a4\u00b0\u00e0\u00a5\u012f\u00e0\u00a4\u0143": 761,
  "ve": 762,
  "\u00e0\u00a4\u00b8\u00e0\u00a5\u012f\u00e0\u00a4\u0141": 763,
  "\u00e0\u00a4\u00aa\u00e0\u00a4\u00b0": 764,
  "\u0120\u00e0\u00a4\u00b8\u00e0\u00a5\u0123": 765,
  "\u00e0\u00a4\u00b0\u00e0\u00a5\u012f\u00e0\u00a4\u00a5": 766,
  "\u0120\u00e0\u00a4\u012b\u00e0\u00a4\u00a8\u00e0\u00a5\u012f\u00e0\u00a4\u00b9\u00e0\u00a5\u0129\u00e0\u00a4\u0124": 767,
  "\u00e0\u00a4\u0137\u00e0\u00a4\u00b0": 768,
  "\u0120\u00e0\u00a4\u0139\u00e0\u00a5\u012f\u00e0\u00a4\u00b0": 769,
  "\u00e0\u00a5\u012a\u00e0\u00a4\u00a8": 770,
  "\u0120\u00e0\u00a4\u013c\u00e0\u00a4\u00be\u00e0\u00a4\u00b9\u00e0\u00a4\u00bf\u00e0\u00a4\u0131": 771,
  "\u0120\u00e0\u00a4\u00b5\u00e0\u00a4\u00bf\u00e0\u00a4\u0143": 772,
  "et": 773,
  "\u0120\u00e0\u00a4\u00ac\u00e0\u00a4\u00b9\u00e0\u00a5\u0123\u00e0\u00a4\u00a4": 774,
  "\u0120\u00e0\u00a4\u00b8\u00e0\u00a5\u012f\u00e0\u00a4\u0141": 775,
  "\u0120\u00e0\u00a4\u00b9\u00e0\u00a5\u012d\u00e0\u00a4\u00a8\u00e0\u00a5\u0129": 776,
  "\u00e0\u00a4\u00be\u00e0\u00a4\u00aa\u00e0\u00a5\u012f\u00e0\u00a4\u00a4": 777,
  "\u0120\u00e0\u00a4\u00aa\u00e0\u00a5\u0122": 778,
  "\u00e0\u00a5\u012f\u00e0\u00a4\u013d": 779,
  "\u00e0\u00a5\u00a7": 780,
  "\u0120\u00e0\u00a4\u00b2\u00e0\u00a5\u0129": 781,
  "\u0120\u00e0\u00a4\u0129\u00e0\u00a4\u00b8\u00e0\u00a4\u0137\u00e0\u00a5\u0129": 782,
  "ch": 783,
  "\u00e0\u00a5\u012f\u00e0\u00a4\u0140\u00e0\u00a4\u00be\u00e0\u00a4\u00a8": 784,
  "\u00e0\u00a4\u00be\u00e0\u00a4\u00b7\u00e0\u00a5\u012f\u00e0\u00a4\u0141": 785,
  "\u0120\u00e0\u00a4\u012b\u00e0\u00a4\u00a8\u00e0\u00a4\u0137\u00e0\u00a5\u0129": 786,
  "\u0120l": 787,
  "\u00e0\u00a4\u0139\u00e0\u00a5\u0129": 788,
  "\u00e0\u00a4\u00b0\u00e0\u00a5\u012f\u00e0\u00a4\u013e": 789,
  "\u0120\u00e0\u00a4\u013e\u00e0\u00a5\u012a\u00e0\u00a4\u00b8\u00e0\u00a5\u0129": 790,
  "\u00e0\u00a5\u012a\u00e0\u00a4\u0137": 791,
  "\u0120\u00e0\u00a4\u0137\u00e0\u00a4\u00b9\u00e0\u00a4\u00be": 792,
  "\u00e0\u00a5\u0122\u00e0\u00a4\u0137": 793,
  "\u0120\u00e0\u00a4\u0127\u00e0\u00a4\u00ae": 794,
  "\u00e0\u00a4\u00bf\u00e0\u00a4\u00b7": 795,
  "\u00e0\u00a4\u00bf\u00e0\u00a4\u00b9": 796,
  "\u0120\u00e0\u00a4\u0137\u00e0\u00a5\u012d\u00e0\u00a4\u00a1": 797,
  "\u00e0\u00a5\u012b\u00e0\u00a4\u00b2": 798,
  "am": 799,
  "\u00e0\u00a5\u012d\u00e0\u00a4\u0137": 800,
  "\u00e0\u00a4\u00be\u00e0\u00a4\u00b7": 801,
  "\u00e0\u00a5\u0123\u00e0\u00a4\u0137": 802,
  "\u00e0\u00a4\u00bf\u00e0\u00a4\u00a7": 803,
  "\u00e0\u00a4\u0137\u00e0\u00a4\u00be\u00e0\u00a4\u00b0\u00e0\u00a5\u0122": 804,
  "\u00e0\u00a4\u00b0\u00e0\u00a5\u012f\u00e0\u00a4\u0141": 805,
  "\u00e0\u00a4\u00a6\u00e0\u00a4\u00bf": 806,
  "\u00e0\u00a4\u00b0\u00e0\u00a5\u012f\u00e0\u00a4\u0137": 807,
  "\u0120\u00e0\u00a4\u013e\u00e0\u00a5\u0122\u00e0\u00a4\u00b5": 808,
  "\u00e0\u00a4\u00b6\u00e0\u00a5\u012f\u00e0\u00a4\u00af\u00e0\u00a4\u0137": 809,
  "\u0120\u00e0\u00a4\u0137\u00e0\u00a5\u012f\u00e0\u00a4\u00b0": 810,
  "\u0120\u00e0\u00a4\u0139\u00e0\u00a4\u012a": 811,
  "\u00e0\u00a5\u0129\u00e0\u00a4\u00ac": 812,
  "im": 813,
  "\u00e0\u00a4\u00b8\u00e0\u00a4\u00ae": 814,
  "\u00e0\u00a4\u00bf\u00e0\u00a4\u0137\u00e0\u00a5\u012f\u00e0\u00a4\u00b7": 815,
  "\u00e0\u00a4\u013c\u00e0\u00a5\u012f\u00e0\u00a4\u013d": 816,
  "\u00e0\u00a4\u00be\u00e0\u00a4\u00af\u00e0\u00a4\u0137": 817,
  "\u00e0\u00a4\u0139\u00e0\u00a5\u012f\u00e0\u00a4\u00b0": 818,
  "\u0120\u00e0\u00a4\u00b2\u00e0\u00a4\u00bf\u00e0\u00a4\u0138": 819,
  "\u0120\u00e0\u00a4\u0137\u00e0\u00a4\u012a": 820,
  "il": 821,
  "\u00e0\u00a4\u00b8\u00e0\u00a4\u00be": 822,
  "\u00e0\u00a4\u00bf\u00e0\u00a4\u00ae\u00e0\u00a5\u012f\u00e0\u00a4\u00a8": 823,
  "\u00e0\u00a5\u012d\u00e0\u00a4\u00a7": 824,
  "\u0120\u00e0\u00a4\u00ac\u00e0\u00a4\u00a2\u00e0\u00a4\u00bc": 825,
  "\u0120\u00e0\u00a4\u0128\u00e0\u00a4\u00b5\u00e0\u00a4\u00b6\u00e0\u00a5\u012f\u00e0\u00a4\u00af\u00e0\u00a4\u0137": 826,
  "\u0120\u00e0\u00a4\u00b0\u00e0\u00a4\u00b9\u00e0\u00a5\u0129": 827,
  "\u0120\u00e0\u00a4\u0137\u00e0\u00a4\u00be\u00e0\u00a4\u00ae": 828,
  "\u0120\u00e0\u00a4\u0137\u00e0\u00a4\u00bf\u00e0\u00a4\u00b8\u00e0\u00a5\u0122": 829,
  "\u00e0\u00a4\u00be\u00e0\u00a4\u00b2\u00e0\u00a4\u00af": 830,
  "\u00e0\u00a4\u00be\u00e0\u00a4\u00a1": 831,
  "\u0120\u00e0\u00a4\u012c": 832,
  "\u00e0\u00a4\u013e\u00e0\u00a4\u00a8": 833,
  "\u00e0\u00a4\u00be\u00e0\u00a4\u00a4\u00e0\u00a4\u00be": 834,
  "\u00e0\u00a4\u00bf\u00e0\u00a4\u0139": 835,
  "----": 836,
  "\u00e0\u00a4\u00be\u00e0\u00a4\u0129\u00e0\u00a4\u0131": 837,
  "\u0120\u00e0\u00a4\u0127\u00e0\u00a4\u00b5": 838,
  "\u00e0\u00a4\u00a4\u00e0\u00a4\u00b0": 839,
  "\u0120\u00e0\u00a4\u00a8\u00e0\u00a4\u00bf\u00e0\u00a4\u00b0\u00e0\u00a5\u012f\u00e0\u00a4": 840,
  "\u00e0\u00a5\u00a6": 841,
  "\u0120\u00e0\u00a4\u00b8\u00e0\u00a4\u0143\u00e0\u00a5\u0122": 842,
  "em": 843,
  "\u0120\u00e0\u00a4\u00b9\u00e0\u00a5\u012d\u00e0\u00a4\u00a4\u00e0\u00a5\u0129": 844,
  "\u0120\u00e0\u00a4\u00ac\u00e0\u00a4\u00a4\u00e0\u00a4\u00be\u00e0\u00a4\u0129\u00e0\u00a4\u0131": 845,
  "\u00e0\u00a4\u00b5\u00e0\u00a4\u00be": 846,
  "ol": 847,
  "\u00e0\u00a4\u00be\u00e0\u00a4\u00a8\u00e0\u00a4\u00be": 848,
  "\u00e0\u00a4\u0129\u00e0\u00a4\u00b8": 849,
  "\u0120\u00e0\u00a4\u00b0\u00e0\u00a4\u00be\u00e0\u00a4\u013e\u00e0\u00a5\u012f\u00e0\u00a4\u00af": 850,
  "\u00e0\u00a4\u00be\u00e0\u00a4\u0131\u00e0\u00a4\u0124": 851,
  "\u0120\u00e0\u00a4\u00a4\u00e0\u00a4\u00b0\u00e0\u00a4\u00b9": 852,
  "ation": 853,
  "\u00e0\u00a4\u00bf\u00e0\u00a4\u00af\u00e0\u00a4\u00be\u00e0\u00a4\u0123": 854,
  "\u0120\u00e0\u00a4\u00b9\u00e0\u00a5\u0123\u00e0\u00a4\u0128": 855,
  "di": 856,
  "\u0120H": 857,
  "\u0120\u00e0\u00a4\u00aa\u00e0\u00a5\u012f\u00e0\u00a4\u00b0\u00e0\u00a4\u0143\u00e0\u00a4\u00be\u00e0\u00a4\u00b5": 858,
  "\u00e0\u00a4\u00be\u00e0\u00a4\u0129\u00e0\u00a4\u0141": 859,
  "\u00e0\u00a5\u0122\u00e0\u00a4\u00b2": 860,
  "\u00e0\u00a4\u00a1\u00e0\u00a4\u00bc\u00e0\u00a5\u0129": 861,
  "\u00e0\u00a5\u0123\u00e0\u00a4\u0141": 862,
  "\u0120\u00e0\u00a4\u0128\u00e0\u00a4\u00aa\u00e0\u00a4\u0137\u00e0\u00a5\u012d": 863,
  "\u00e0\u00a5\u012d\u00e0\u00a4\u00a8": 864,
  "\u00e0\u00a4\u0124\u00e0\u00a4\u00aa": 865,
  "\u00e0\u00a4\u00be\u00e0\u00a4\u00a4\u00e0\u00a5\u012f\u00e0\u00a4\u00ae": 866,
  "\u0120\u00e0\u00a4\u00b5\u00e0\u00a5\u012f\u00e0\u00a4\u00af\u00e0\u00a4\u0137\u00e0\u00a5\u012f\u00e0\u00a4\u00a4": 867,
  "\u0120\u00e0\u00a4\u00b8\u00e0\u00a5\u012f\u00e0\u00a4\u00a5\u00e0\u00a4\u00bf\u00e0\u00a4\u00a4": 868,
  "\u0120\u00e0\u00a4\u00a1\u00e0\u00a5\u0129\u00e0\u00a4\u0141": 869,
  "\u0120\u00e0\u00a4\u00b6\u00e0\u00a5\u0123\u00e0\u00a4\u00b0": 870,
  "\u0120\u00e0\u00a4\u00a6\u00e0\u00a5\u0124": 871,
  "\u00e0\u00a4\u00bf\u00e0\u00a4\u00a3": 872,
  "\u00e0\u00a4\u013f": 873,
  "el": 874,
  "\u00e0\u00a4\u00b0\u00e0\u00a5\u012f\u00e0\u00a4\u00b7": 875,
  "\u0120\u00e0\u00a4\u00b5\u00e0\u00a4\u00bf\u00e0\u00a4\u00b6\u00e0\u00a5\u0129\u00e0\u00a4\u00b7": 876,
  "\u00e0\u00a4\u00bf\u00e0\u00a4\u0138\u00e0\u00a4\u00bf\u00e0\u00a4\u00a4": 877,
  "\u0120\u00e0\u00a4\u00b0\u00e0\u00a4\u00b9\u00e0\u00a4\u00be": 878,
  "\u0120\u00e0\u00a4\u00b8\u00e0\u00a5\u012f\u00e0\u00a4\u0137": 879,
  "\u0120\u0120\u0120\u0120\u0120\u0120\u0120\u0120": 880,
  "\u0120\u00e0\u00a4\u00aa\u00e0\u00a5\u012f\u00e0\u00a4\u00b0\u00e0\u00a4\u00b6": 881,
  "\u00e0\u00a5\u0129\u00e0\u00a4\u00a6": 882,
  "\u00e0\u00a4\u0137\u00e0\u00a5\u012f\u00e0\u00a4\u00b7\u00e0\u00a4\u00be": 883,
  "\u0120\u00e0\u00a4\u0143\u00e0\u00a4\u00be\u00e0\u00a4\u00b0\u00e0\u00a4\u00a4": 884,
  "\u00e0\u00a4\u00b2\u00e0\u00a4\u00bf\u00e0\u00a4\u0138\u00e0\u00a4\u00bf\u00e0\u00a4\u00a4": 885,
  "\u00e0\u00a5\u0124\u00e0\u00a4\u00b0\u00e0\u00a5\u012f\u00e0\u00a4\u00b5": 886,
  "\u0120S": 887,
  "\u0120P": 888,
  "\u00e0\u00a4\u00b7\u00e0\u00a5\u012f\u00e0\u00a4\u0141": 889,
  "\u00e0\u00a4\u0124\u00e0\u00a4\u013c": 890,
  "\u00e0\u00a4\u00bf\u00e0\u00a4\u00ae\u00e0\u00a5\u012f\u00e0\u00a4\u00a8\u00e0\u00a4\u00b2\u00e0\u00a4\u00bf\u00e0\u00a4\u0138\u00e0\u00a4\u00bf\u00e0\u00a4\u00a4": 891,
  "\u0120\u00e0\u00a4\u012b\u00e0\u00a4\u00a8\u00e0\u00a5\u012f\u00e0\u00a4\u00b9\u00e0\u00a5\u012d\u00e0\u00a4\u0124\u00e0\u00a4\u00a8\u00e0\u00a5\u0129": 892,
  "\u0120\u00e0\u00a4\u00ae\u00e0\u00a4\u00be\u00e0\u00a4\u00b0": 893,
  "\u00e0\u00a4\u00b8\u00e0\u00a5\u012f\u00e0\u00a4\u00af\u00e0\u00a4\u00be": 894,
  "\u00e0\u00a4\u00be\u00e0\u00a4\u012b": 895,
  "\u0120\u00e0\u00a4\u00b2\u00e0\u00a5\u012d\u00e0\u00a4\u0139\u00e0\u00a5\u012d\u00e0\u00a4\u0124": 896,
  "\u00e0\u00a4\u00be\u00e0\u00a4\u0141": 897,
  "\u00e0\u00a5\u0123\u00e0\u00a4\u00a6\u00e0\u00a5\u012f\u00e0\u00a4\u00a7": 898,
  "\u00e0\u00a5\u012d\u00e0\u00a4\u00ae": 899,
  "\u00e0\u00a4\u00a8\u00e0\u00a5\u012f\u00e0\u00a4\u00a6": 900,
  "\u00e0\u00a4\u00be\u00e0\u00a4\u00b8\u00e0\u00a5\u012f\u00e0\u00a4\u00a4": 901,
  "\u0120\u00e0\u00a4\u0129\u00e0\u00a4\u00b8\u00e0\u00a5\u0129": 902,
  "\u00e0\u00a4\u013e\u00e0\u00a4\u00bc": 903,
  "ce": 904,
  "\u00e0\u00a5\u0123\u00e0\u00a4\u00ae": 905,
  "\u0120\u00e0\u00a4\u00b8\u00e0\u00a4\u0124\u00e0\u00a4\u00ac\u00e0\u00a4\u0124\u00e0\u00a4\u00a7": 906,
  "\u00e0\u00a4\u00be\u00e0\u00a4\u0129\u00e0\u00a4\u00a8": 907,
  "\u00e0\u00a4\u00be\u00e0\u00a4\u00a4\u00e0\u00a5\u012f\u00e0\u00a4\u00ae\u00e0\u00a4\u0137": 908,
  "\u0120\u00e0\u00a4\u0137\u00e0\u00a4\u00be\u00e0\u00a4\u00b0\u00e0\u00a4\u00a3": 909,
  "\u0120\u00e0\u00a4\u012a": 910,
  "\u0120\u00e0\u00a4\u00ab\u00e0\u00a4\u00bc": 911,
  "\u00e0\u00a5\u0129\u00e0\u00a4\u00ae": 912,
  "\u0120\u00e0\u00a4\u0137\u00e0\u00a5\u012d\u00e0\u00a4\u012a": 913,
  "\u0120\u00e0\u00a4\u0137\u00e0\u00a5\u012a": 914,
  "\u0120\u00e0\u00a4\u00ae\u00e0\u00a4\u00a6": 915,
  "\u00e0\u00a4\u00a1\u00e0\u00a4\u00bc\u00e0\u00a4\u00be": 916,
  "\u00e0\u00a4\u013c\u00e0\u00a5\u0122": 917,
  "ur": 918,
  "ut": 919,
  "\u00e0\u00a4\u00a4\u00e0\u00a5\u012f\u00e0\u00a4\u00a4": 920,
  "\u0120C": 921,
  "\u00e0\u00a4\u00aa\u00e0\u00a5\u0124\u00e0\u00a4\u00b0\u00e0\u00a5\u012f\u00e0\u00a4\u00a3": 922,
  "\u0120\u00e0\u00a4\u00b5\u00e0\u00a4\u00b0\u00e0\u00a5\u012f\u00e0\u00a4\u00b7": 923,
  "\u0120\u00e0\u00a4\u00ac\u00e0\u00a5\u012f\u00e0\u00a4\u00b0": 924,
  "\u00e0\u00a4\u00ac\u00e0\u00a5\u012f\u00e0\u00a4\u00a6": 925,
  "ran": 926,
  "10": 927,
  "\u0120\u00e0\u00a4\u00ae\u00e0\u00a5\u012a\u00e0\u00a4\u0124": 928,
  "\u00e0\u00a4\u00bf\u00e0\u00a4\u00b2\u00e0\u00a5\u012f\u00e0\u00a4\u00ae": 929,
  "\u00e0\u00a5\u0123\u00e0\u00a4\u0137\u00e0\u00a5\u012f\u00e0\u00a4\u00a4": 930,
  "\u00e0\u00a4\u00be\u00e0\u00a4\u00ab": 931,
  "\u00e0\u00a4\u00a1\u00e0\u00a4\u00bc\u00e0\u00a5\u0122": 932,
  "\u00e0\u00a4\u013d": 933,
  "\u00e0\u00a4\u00be\u00e0\u00a4\u00b2\u00e0\u00a5\u0122": 934,
  "\u00e0\u00a4\u0139\u00e0\u00a4\u00b0": 935,
  "\u0120\u00e0\u00a4\u00ae\u00e0\u00a5\u0124\u00e0\u00a4\u00b2": 936,
  "\u0120\u00e0\u00a4\u00aa\u00e0\u00a5\u012f\u00e0\u00a4\u00b0\u00e0\u00a4\u00a6\u00e0\u00a4\u00be\u00e0\u00a4\u00a8": 937,
  "\u00e0\u00a4\u0131\u00e0\u00a4\u0137": 938,
  "\u00e0\u00a5\u0124\u00e0\u00a4\u00ae": 939,
  "\u0120\u00e0\u00a4\u00b9\u00e0\u00a5\u012d\u00e0\u00a4\u0139\u00e0\u00a4\u00be": 940,
  "\u00e0\u00a5\u0124\u00e0\u00a4\u00a8": 941,
  "\u0120\u00e0\u00a4\u013e\u00e0\u00a4\u00bf\u00e0\u00a4\u00a8": 942,
  "\u00e0\u00a4\u00b2\u00e0\u00a5\u012f\u00e0\u00a4\u00aa": 943,
  "\u00e0\u00a4\u013a": 944,
  "\u0120\u00e0\u00a4\u00b5\u00e0\u00a4\u00bf\u00e0\u00a4\u00b6\u00e0\u00a5\u012f\u00e0\u00a4\u00b5": 945,
  "\u00e0\u00a4\u0141\u00e0\u00a4\u00b0": 946,
  "\u0120\u00e0\u00a4\u00aa\u00e0\u00a4\u00b0\u00e0\u00a4\u00bf\u00e0\u00a4\u00b5": 947,
  "\u00e0\u00a5\u012f\u00e0\u00a4\u00b0\u00e0\u00a5\u0122\u00e0\u00a4\u00af": 948,
  "Th": 949,
  "\u00e0\u00a5\u012d\u00e0\u00a4\u00aa": 950,
  "\u0120\u00e0\u00a4\u00aa\u00e0\u00a4\u00be\u00e0\u00a4\u00b0": 951,
  "\u0120\u00e0\u00a4\u0137\u00e0\u00a4\u00b0\u00e0\u00a4\u0137\u00e0\u00a5\u0129": 952,
  "\u0120\u00e0\u00a4\u012b\u00e0\u00a4\u00a4\u00e0\u00a5\u012f\u00e0\u00a4\u00aa\u00e0\u00a4\u00be\u00e0\u00a4\u00a6": 953,
  "\u00e0\u00a4\u00be\u00e0\u00a4\u0131\u00e0\u00a4\u0123": 954,
  "\u0120\u00e0\u00a4\u00b8\u00e0\u00a5\u012f\u00e0\u00a4\u00a5\u00e0\u00a4\u00be\u00e0\u00a4\u00a8": 955,
  "\u00e0\u00a4\u00b0\u00e0\u00a5\u012f\u00e0\u00a4\u00a8": 956,
  "\u00e0\u00a4\u00b0\u00e0\u00a5\u012f\u00e0\u00a4\u00a1": 957,
  "\u0120\u00e0\u00a4\u00ae\u00e0\u00a4\u00a6\u00e0\u00a4\u00a6": 958,
  "\u0120\u00e0\u00a4\u0128\u00e0\u00a4\u00b0": 959,
  "\u00e0\u00a5\u0122\u00e0\u00a4\u00b0": 960,
  "\u00e0\u00a4\u00be\u00e0\u00a4\u013c": 961,
  "\u00e0\u00a4\u00b8\u00e0\u00a4\u00be\u00e0\u00a4\u00b0": 962,
  "..": 963,
  "\u0120\u00e0\u00a4\u00aa\u00e0\u00a5\u0123\u00e0\u00a4\u00b0": 964,
  "\u0120\u00e0\u00a4\u00ae\u00e0\u00a4\u00b9\u00e0\u00a4\u00a4\u00e0\u00a5\u012f\u00e0\u00a4\u00b5": 965,
  "\u00e0\u00a4\u0137\u00e0\u00a5\u012f\u00e0\u00a4\u00b7\u00e0\u00a4\u00a3": 966,
  "\u00e0\u00a4\u00bf\u00e0\u00a4\u00a8\u00e0\u00a5\u012f\u00e0\u00a4\u00a8": 967,
  "\u0120\u00e0\u00a4\u00ac\u00e0\u00a5\u0122\u00e0\u00a4\u013c": 968,
  "\u00e0\u00a4\u00be\u00e0\u00a4\u00a5": 969,
  "\u00e0\u00a4\u00b0\u00e0\u00a5\u012f\u00e0\u00a4\u00b5": 970,
  "\u0120\u00e0\u00a4\u0127\u00e0\u00a4\u0143": 971,
  "\u0120g": 972,
  "id": 973,
  "\u0120\u00e0\u00a4\u00b6\u00e0\u00a4\u00ac\u00e0\u00a5\u012f\u00e0\u00a4\u00a6": 974,
  "\u00e0\u00a4\u0124\u00e0\u00a4\u013e": 975,
  "\u00e0\u00a4\u00a5\u00e0\u00a4\u00be": 976,
  "\u0120\u00e0\u00a4\u0139\u00e0\u00a5\u0123": 977,
  "\u00e0\u00a4\u00a6\u00e0\u00a5\u0122": 978,
  "\u00e0\u00a4\u00a8\u00e0\u00a5\u012f\u00e0\u00a4\u00a8": 979,
  "\u00e0\u00a4\u00af\u00e0\u00a4\u00a8": 980,
  "\u0120for": 981,
  "\u0120st": 982,
  "\u0120\u00e0\u00a4\u0137\u00e0\u00a5\u012f\u00e0\u00a4\u00af\u00e0\u00a5\u012d\u00e0\u00a4\u0124": 983,
  "\u0120\u00e0\u00a4\u0141\u00e0\u00a5\u0122": 984,
  "ra": 985,
  "\u0120\u00e0\u00a4\u00aa\u00e0\u00a4\u00be\u00e0\u00a4\u00b8": 986,
  "\u00e0\u00a4\u0137\u00e0\u00a5\u012f\u00e0\u00a4\u00b0\u00e0\u00a4\u00ae": 987,
  "um": 988,
  "\u0120is": 989,
  "\u00e0\u00a4\u00be\u00e0\u00a4\u00b0\u00e0\u00a5\u012d\u00e0\u00a4\u0124": 990,
  "\u00e0\u00a4\u00bf\u00e0\u00a4\u00af\u00e0\u00a4\u00ae": 991,
  "\u00e0\u00a4\u00be\u00e0\u00a4\u00b5\u00e0\u00a4\u00be": 992,
  "\u0120\u00e0\u00a4\u0131\u00e0\u00a4\u00b8": 993,
  "ul": 994,
  "\u00e0\u00a5\u0123\u00e0\u00a4\u013f": 995,
  "\u00e0\u00a4\u0137\u00e0\u00a5\u012f\u00e0\u00a4\u00b8": 996,
  "\u00e0\u00a4\u00bf\u00e0\u00a4\u0137\u00e0\u00a5\u0122": 997,
  "\u0120\u00e0\u00a4\u00b8\u00e0\u00a4\u00ae\u00e0\u00a4\u013f": 998,
  "\u00e0\u00a4\u00be\u00e0\u00a4\u0138\u00e0\u00a4\u00a3\u00e0\u00a5\u012f\u00e0\u00a4\u00a1": 999,
  "\u0120\u00e0\u00a4\u00aa\u00e0\u00a5\u012a": 1000,
  "200": 1001,
  "\u0120this": 1002,
  "\u0120\u00e0\u00a4\u013e\u00e0\u00a4\u00be\u00e0\u00a4\u00a8\u00e0\u00a5\u0129": 1003,
  "\u0120\u00e0\u00a4\u0143\u00e0\u00a4\u00be\u00e0\u00a4\u00b7": 1004,
  "\u0120\u00e0\u00a4\u00b8\u00e0\u00a4\u00b0\u00e0\u00a4\u0137\u00e0\u00a4\u00be\u00e0\u00a4\u00b0": 1005,
  "\u0120\u00e0\u00a4\u013e\u00e0\u00a4\u00be\u00e0\u00a4\u00a8\u00e0\u00a4\u0137\u00e0\u00a4\u00be\u00e0\u00a4\u00b0\u00e0\u00a5\u0122": 1006,
  "\u0120\u00e0\u00a4\u00a1\u00e0\u00a5\u0129\u00e0\u00a4\u0141\u00e0\u00a4\u00be": 1007,
  "\u0120\u00e0\u00a4\u0128\u00e0\u00a4\u00a7\u00e0\u00a4\u00be\u00e0\u00a4\u00b0": 1008,
  "\u00e0\u00a5\u00a7\u00e0\u00a5": 1009,
  "\u0120\u00e0\u00a4\u0127\u00e0\u00a4\u00ae\u00e0\u00a5\u0129\u00e0\u00a4\u00b0": 1010,
  "\u0120I": 1011,
  "\u0120\u00e0\u00a4\u0131\u00e0\u00a4\u00b2": 1012,
  "\u0120\u00e0\u00a4\u013e\u00e0\u00a4\u00bf\u00e0\u00a4\u00b8\u00e0\u00a4\u00ae\u00e0\u00a5\u0129\u00e0\u00a4\u0124": 1013,
  "\u00e0\u00a5\u012f\u00e0\u00a4\u0142": 1014,
  "18": 1015,
  "\u0120\u00e0\u00a4\u00a8\u00e0\u00a4\u00bf\u00e0\u00a4\u0137": 1016,
  "\u0120\u00e0\u00a4\u00b8\u00e0\u00a4\u00b9\u00e0\u00a4\u00be\u00e0\u00a4\u00af\u00e0\u00a4\u0137": 1017,
  "\u0120\u00e0\u00a4\u013e\u00e0\u00a4\u00b2": 1018,
  "\u00e0\u00a4\u00b5\u00e0\u00a4\u00b2": 1019,
  "\u0120\u00e0\u00a4\u00ab\u00e0\u00a4\u00bf\u00e0\u00a4\u00b0": 1020,
  "\u0120\u00e0\u00a4\u00aa\u00e0\u00a5\u012f\u00e0\u00a4\u00b0\u00e0\u00a4\u00be\u00e0\u00a4\u00aa\u00e0\u00a5\u012f\u00e0\u00a4\u00a4": 1021,
  "\u0120\u00e0\u00a4\u00aa\u00e0\u00a5\u012f\u00e0\u00a4\u00b0\u00e0\u00a4\u0137\u00e0\u00a4\u00be\u00e0\u00a4\u00b0": 1022,
  "\u0120\u00e0\u00a4\u00a8\u00e0\u00a5\u0122": 1023,
  "\u0120\u00e0\u00a4\u00b8\u00e0\u00a4\u0124\u00e0\u00a4\u0138": 1024,
  "\u0120\u00e0\u00a4\u00b8\u00e0\u00a5\u012f\u00e0\u00a4\u00aa": 1025,
  "\u0120\u00e0\u00a4\u00b0\u00e0\u00a4\u00be\u00e0\u00a4\u00b7\u00e0\u00a5\u012f\u00e0\u00a4\u0141": 1026,
  "\u00e0\u00a4\u00b5\u00e0\u00a5\u0122": 1027,
  "ow": 1028,
  "\u0120\u00e0\u00a4\u012b\u00e0\u00a4\u00b8\u00e0\u00a5\u0129": 1029,
  "\u00e0\u00a4\u00a8\u00e0\u00a5\u012f\u00e0\u00a4\u00ae": 1030,
  "\u0120\u00e0\u00a4\u00b5\u00e0\u00a4\u00be\u00e0\u00a4\u00b2\u00e0\u00a5\u0122": 1031,
  "\u00e0\u00a4\u00a6\u00e0\u00a5\u012f\u00e0\u00a4\u00a7": 1032,
  "if": 1033,
  "\u0120\u00e0\u00a4\u013e\u00e0\u00a4\u00a8": 1034,
  "\u00e0\u00a5\u0125\u00e0\u00a4\u00b7": 1035,
  "\u00e0\u00a4\u00b0\u00e0\u00a5\u012f\u00e0\u00a4\u00b8": 1036,
  "\u00e0\u00a5\u0129\u00e0\u00a4\u00b6\u00e0\u00a4\u00a8": 1037,
  "ge": 1038,
  "\u00e0\u00a5\u012f\u00e0\u00a4\u00af\u00e0\u00a4\u00ae": 1039,
  "\u00e0\u00a4\u0124\u00e0\u00a4\u0137": 1040,
  "\u0120\u00e0\u00a4\u00b5\u00e0\u00a4\u00bf\u00e0\u00a4\u013e": 1041,
  "\u0120\u00e0\u00a4\u00b8\u00e0\u00a4\u0137\u00e0\u00a4\u00a4\u00e0\u00a5\u0122": 1042,
  "\u0120\u00e0\u00a4\u00ac\u00e0\u00a4\u00be\u00e0\u00a4\u00a4": 1043,
  "\u00e0\u00a4\u00b5\u00e0\u00a4\u0124": 1044,
  "\",": 1045,
  "\u00e0\u00a4\u00bf\u00e0\u00a4\u00b2\u00e0\u00a4\u00be": 1046,
  "\u0120\u00e0\u00a4\u00ac\u00e0\u00a4\u013c\u00e0\u00a5\u012f\u00e0\u00a4\u013c": 1047,
  "\u0120\u00e0\u00a4\u0137\u00e0\u00a4\u00b0\u00e0\u00a4\u00a4\u00e0\u00a5\u0122": 1048,
  "\u0120\u00e0\u00a4\u00b5\u00e0\u00a4\u00bf\u00e0\u00a4\u00b8": 1049,
  "\u0120\u00e0\u00a4\u00ae\u00e0\u00a5\u0123\u00e0\u00a4\u0138": 1050,
  "\u00e0\u00a4\u00b5\u00e0\u00a4\u00b0": 1051,
  "\u00e0\u00a4\u00be\u00e0\u00a4\u00b9\u00e0\u00a4\u00b0\u00e0\u00a4\u00a3": 1052,
  "\u0120\u00e0\u00a4\u00aa\u00e0\u00a5\u0124\u00e0\u00a4\u00b0\u00e0\u00a5\u012f\u00e0\u00a4\u00b5": 1053,
  "\u0120\u00e0\u00a4\u0127\u00e0\u00a4\u013c\u00e0\u00a5\u012f\u00e0\u00a4\u013d": 1054,
  "\u0120\u00e0\u00a4\u0127\u00e0\u00a4\u00a7\u00e0\u00a5\u012f\u00e0\u00a4\u00af": 1055,
  "un": 1056,
  "\u00e0\u00a5\u012f\u00e0\u00a4\u00af\u00e0\u00a4\u00be\u00e0\u00a4\u00a8": 1057,
  "\u0120\u00e0\u00a4\u00a6\u00e0\u00a4\u00bf\u00e0\u00a4\u00a8": 1058,
  "\u0120\u00e0\u00a4\u00a6\u00e0\u00a5\u012e\u00e0\u00a4\u00b0": 1059,
  "\u0120\u00e0\u00a4\u00ae\u00e0\u00a5\u012e": 1060,
  "\u0120\u00e0\u00a4\u012b\u00e0\u00a4\u00a8\u00e0\u00a4\u0137\u00e0\u00a5\u0122": 1061,
  "\u00e0\u00a4\u00be\u00e0\u00a4\u00b0\u00e0\u00a5\u0129": 1062,
  "\u00e0\u00a5\u012a\u00e0\u00a4\u0124\u00e0\u00a4\u00a1": 1063,
  "\u0120\u00e0\u00a4\u00a6\u00e0\u00a5\u0129\u00e0\u00a4\u00b6": 1064,
  "\u0120\u00e0\u00a4\u00b6\u00e0\u00a5\u012f\u00e0\u00a4\u00b0": 1065,
  "\u00e0\u00a4\u00bf\u00e0\u00a4\u00b2\u00e0\u00a5\u0129": 1066,
  "\u00e0\u00a4\u00b0\u00e0\u00a5\u012f\u00e0\u00a4\u0139": 1067,
  "\u0120\u00e0\u00a4\u013c\u00e0\u00a4\u00b2": 1068,
  "\u0120\u00e0\u00a4\u00ae\u00e0\u00a4\u00b9\u00e0\u00a4\u00a4\u00e0\u00a5\u012f\u00e0\u00a4\u00b5\u00e0\u00a4\u00aa\u00e0\u00a5\u0124\u00e0\u00a4\u00b0\u00e0\u00a5\u012f\u00e0\u00a4\u00a3": 1069,
  "\u0120\u00e0\u00a4\u013e\u00e0\u00a5\u0122": 1070,
  "201": 1071,
  "\u0120\u00e0\u00a4\u00a4\u00e0\u00a4\u00b9": 1072,
  "\u0120\u00e0\u00a4\u00b9\u00e0\u00a4\u00be\u00e0\u00a4\u00b2": 1073,
  "\u0120\u00e0\u00a4\u0128\u00e0\u00a4\u00af": 1074,
  "\u00e0\u00a4\u00bf\u00e0\u00a4\u00a4\u00e0\u00a5\u012f\u00e0\u00a4\u00b0": 1075,
  "\u0120\u00e0\u00a4\u0141\u00e0\u00a5\u012f\u00e0\u00a4\u00b0": 1076,
  "\u00e0\u00a5\u0129\u00e0\u00a4\u0124\u00e0\u00a4\u0141": 1077,
  "\u0120\u00e0\u00a4\u00a6\u00e0\u00a5\u0122": 1078,
  "\u00e0\u00a4\u00be\u00e0\u00a4\u00a6\u00e0\u00a5\u0122": 1079,
  "\u0120\u00e0\u00a4\u0137\u00e0\u00a4\u00bf\u00e0\u00a4\u0131": 1080,
  "\u0120\u00e0\u00a4\u00ac\u00e0\u00a4\u00a6": 1081,
  "\u0120\u00e0\u00a4\u00b9\u00e0\u00a4\u00b0": 1082,
  "\u0120\u00e0\u00a4\u00b8\u00e0\u00a5\u012d": 1083,
  "\u0120\u00e0\u00a4\u0137\u00e0\u00a5\u012a\u00e0\u00a4\u00b8\u00e0\u00a5\u0129": 1084,
  "\u0120\u00e0\u00a4\u00b5\u00e0\u00a4\u00bf\u00e0\u00a4\u00b5": 1085,
  "ers": 1086,
  "\u0120\u00e0\u00a4\u013e\u00e0\u00a4\u00be\u00e0\u00a4\u00a4\u00e0\u00a5\u0122": 1087,
  "\u00e0\u00a4\u00bf\u00e0\u00a4\u00a4\u00e0\u00a4\u00be": 1088,
  "\u0120\u00e0\u00a4\u013e\u00e0\u00a5\u0122\u00e0\u00a4\u00b5\u00e0\u00a4\u00a8": 1089,
  "rans": 1090,
  "\u0120be": 1091,
  "\u00e0\u00a5\u012f\u00e0\u00a4\u00b9": 1092,
  "\u0120\u00e0\u00a4\u00ae\u00e0\u00a5\u012a": 1093,
  "\u00e0\u00a4\u013c\u00e0\u00a4\u00be\u00e0\u00a4\u00b0": 1094,
  "\u0120\u00e0\u00a4\u0137\u00e0\u00a4\u0124\u00e0\u00a4\u00aa": 1095,
  "\u00e0\u00a4\u0137\u00e0\u00a4\u00b0\u00e0\u00a5\u012f\u00e0\u00a4\u00a4": 1096,
  "\u0120y": 1097,
  "\u0120\u00e0\u00a4\u012b\u00e0\u00a4\u00a4\u00e0\u00a5\u012f\u00e0\u00a4\u00a4\u00e0\u00a4\u00b0\u00e0\u00a4\u00be\u00e0\u00a4\u0138\u00e0\u00a4\u00a3\u00e0\u00a5\u012f\u00e0\u00a4\u00a1": 1098,
  "\u00e0\u00a4\u00b8\u00e0\u00a5\u012f\u00e0\u00a4\u00af": 1099,
  "\u00e0\u00a5\u012f\u00e0\u00a4\u0141\u00e0\u00a4\u00b0": 1100,
  "\u00e0\u00a5\u012d\u00e0\u00a4\u0139\u00e0\u00a5\u012f\u00e0\u00a4\u00b0": 1101,
  "\u00e0\u00a4\u00be\u00e0\u00a4\u00a1\u00e0\u00a4\u00bc": 1102,
  "od": 1103,
  "\u00e0\u00a4\u00b2\u00e0\u00a4\u00ac": 1104,
  "\u0120\u00e0\u00a4\u00aa\u00e0\u00a5\u012f\u00e0\u00a4\u00b0\u00e0\u00a4\u0137": 1105,
  "ri": 1106,
  "\u00e0\u00a5\u00a8": 1107,
  "\u0120\u00e0\u00a4\u00b6\u00e0\u00a5\u0123\u00e0\u00a4\u00b0\u00e0\u00a5\u0124": 1108,
  "\u00e0\u00a5\u0129\u00e0\u00a4\u00b9": 1109,
  "\u00e0\u00a4\u00be\u00e0\u00a4\u0124\u00e0\u00a4\u00a4": 1110,
  "\u00e0\u00a5\u012f\u00e0\u00a4\u013e": 1111,
  "\u0120\u00e0\u00a4\u013e\u00e0\u00a4\u00b9": 1112,
  "\u0120\u00e0\u00a4\u0127\u00e0\u00a4\u00b2\u00e0\u00a4\u0139": 1113,
  "\u0120\u00e0\u00a4\u00b5\u00e0\u00a4\u00bf\u00e0\u00a4\u0143\u00e0\u00a4\u00bf\u00e0\u00a4\u00a8\u00e0\u00a5\u012f\u00e0\u00a4\u00a8": 1114,
  "\u0120\u00e0\u00a4\u00af\u00e0\u00a4\u00a6\u00e0\u00a4\u00bf": 1115,
  "\u00e0\u00a4\u00a4\u00e0\u00a5\u0122\u00e0\u00a4\u00af": 1116,
  "\u00e0\u00a4\u00bf\u00e0\u00a4\u0137\u00e0\u00a4\u00be\u00e0\u00a4\u00b0": 1117,
  "),": 1118,
  "\u00e0\u00a5\u012a\u00e0\u00a4\u00b2": 1119,
  "\u00e0\u00a5\u012f\u00e0\u00a4\u0139": 1120,
  "\u0120\u00e0\u00a4\u0129\u00e0\u00a4\u00a4": 1121,
  "\u00e0\u00a5\u012f\u00e0\u00a4\u00b6": 1122,
  "\u0120\u00e0\u00a4\u00b6\u00e0\u00a4\u00bf\u00e0\u00a4\u0137\u00e0\u00a5\u012f\u00e0\u00a4\u00b7": 1123,
  "\u00e0\u00a4\u00bf\u00e0\u00a4\u00a1": 1124,
  "\u00c2\u0142": 1125,
  "\u0120\u00e0\u00a4\u00a1\u00e0\u00a5\u0122": 1126,
  "\u00e0\u00a4\u00be\u00e0\u00a4\u00a4\u00e0\u00a5\u0129": 1127,
  "\u0120\u00e0\u00a4\u0127\u00e0\u00a4\u00b8": 1128,
  "\u0120\u00e0\u00a4\u013d\u00e0\u00a5\u012d\u00e0\u00a4\u0141": 1129,
  "\u00e0\u00a5\u012d\u00e0\u00a4\u013e\u00e0\u00a4\u00a8": 1130,
  "\u0120\u00e0\u00a4\u0137\u00e0\u00a5\u012f\u00e0\u00a4\u00af\u00e0\u00a5\u012d\u00e0\u00a4\u0124\u00e0\u00a4\u0137\u00e0\u00a4\u00bf": 1131,
  "\u0120\u00e0\u00a4\u0128\u00e0\u00a4\u00aa\u00e0\u00a4\u0137\u00e0\u00a5\u0129": 1132,
  "``": 1133,
  "\u0120\u00e0\u00a4\u00b9\u00e0\u00a5\u0123\u00e0\u00a4\u012a": 1134,
  "ab": 1135,
  "ot": 1136,
  "\u0120\u00e0\u00a4\u013e\u00e0\u00a4\u00be\u00e0\u00a4\u0131": 1137,
  "\u00e0\u00a5\u0124\u00e0\u00a4\u00b9": 1138,
  "\u00e0\u00a5\u0129\u00e0\u00a4\u00af": 1139,
  "\u0120pro": 1140,
  "\u0120\u00e0\u00a4\u012b\u00e0\u00a4\u00a6\u00e0\u00a4\u00be\u00e0\u00a4\u00b9\u00e0\u00a4\u00b0\u00e0\u00a4\u00a3": 1141,
  "\u00e0\u00a5\u012b\u00e0\u00a4\u00a8": 1142,
  "\u0120\u00e0\u00a4\u00aa\u00e0\u00a5\u012f\u00e0\u00a4\u00b0\u00e0\u00a4\u00ae": 1143,
  "\u0120\u00e0\u00a4\u0138\u00e0\u00a5\u0129\u00e0\u00a4\u00b2": 1144,
  "ith": 1145,
  "\u0120\u00e0\u00a4\u00aa\u00e0\u00a5\u012d": 1146,
  "\u0120\u00e0\u00a4\u0137\u00e0\u00a5\u0129\u00e0\u00a4\u00b5\u00e0\u00a4\u00b2": 1147,
  "\u00e0\u00a4\u00be\u00e0\u00a4\u0124\u00e0\u00a4\u00b6": 1148,
  "\u0120\u00e0\u00a4\u00aa\u00e0\u00a5\u0124": 1149,
  "\u0120\u00e0\u00a4\u0127\u00e0\u00a4\u0124\u00e0\u00a4\u00a4\u00e0\u00a4\u00b0": 1150,
  "\u0120\u00e0\u00a4\u00b2\u00e0\u00a5\u0129\u00e0\u00a4\u0138": 1151,
  "\u00e0\u00a4\u00be\u00e0\u00a4\u0124\u00e0\u00a4\u013c": 1152,
  "\u00e0\u00a4\u0128\u00e0\u00a4\u00aa": 1153,
  "\u0120\u00e0\u00a4\u00a4\u00e0\u00a4\u00a5\u00e0\u00a4\u00be": 1154,
  "\u0120\u00e0\u00a4\u00ac\u00e0\u00a4\u00a8\u00e0\u00a4\u00be\u00e0\u00a4\u00a8\u00e0\u00a5\u0129": 1155,
  "\u00e0\u00a4\u00bf\u00e0\u00a4\u00b9\u00e0\u00a4\u00be\u00e0\u00a4\u00b8": 1156,
  "ir": 1157,
  "\u0120\u00e0\u00a4\u012b\u00e0\u00a4\u00b8\u00e0\u00a4\u0137\u00e0\u00a5\u0129": 1158,
  "Trans": 1159,
  "\u00e0\u00a4\u0143\u00e0\u00a4\u0139": 1160,
  "ad": 1161,
  "\u0120\u00e0\u00a4\u0143\u00e0\u00a4\u00be\u00e0\u00a4\u0139": 1162,
  "\u00e0\u00a4\u00be\u00e0\u00a4\u00a7\u00e0\u00a4\u00be\u00e0\u00a4\u00a8": 1163,
  "\u0120\u00e0\u00a4\u00b8\u00e0\u00a4\u00ae\u00e0\u00a4\u00b8\u00e0\u00a5\u012f\u00e0\u00a4\u00af\u00e0\u00a4\u00be": 1164,
  "\u0120\u00e0\u00a4\u00a8\u00e0\u00a4\u00bf\u00e0\u00a4\u00b0\u00e0\u00a5\u012f\u00e0\u00a4\u00ae": 1165,
  "\u0120\u00e0\u00a4\u00ab\u00e0\u00a4\u00bf\u00e0\u00a4\u00b2\u00e0\u00a5\u012f\u00e0\u00a4\u00ae": 1166,
  "\u00e0\u00a4\u0141\u00e0\u00a4\u00a8": 1167,
  "\u00e0\u00a4\u00b5\u00e0\u00a4\u00be\u00e0\u00a4\u00b2": 1168,
  "\u00e0\u00a5\u0122\u00e0\u00a4\u00a1": 1169,
  "\u0120\u00e0\u00a4\u00b8\u00e0\u00a4\u00be\u00e0\u00a4\u00b2": 1170,
  "\u0120\u00e0\u00a4\u0128\u00e0\u00a4\u00b5\u00e0\u00a4\u00b6\u00e0\u00a5\u012f\u00e0\u00a4\u00af\u00e0\u00a4\u0137\u00e0\u00a4\u00a4\u00e0\u00a4\u00be": 1171,
  "\u0120\u00e0\u00a4\u013c\u00e0\u00a5\u0123\u00e0\u00a4\u00a8": 1172,
  "\u0120\u00e0\u00a4\u00b9\u00e0\u00a5\u0124": 1173,
  "\u00e0\u00a4\u00af\u00e0\u00a4\u00b9": 1174,
  "Transl": 1175,
  "\u00e0\u00a5\u012d\u00e0\u00a4\u00a4": 1176,
  "\u0120\u00e0\u00a4\u0128\u00e0\u00a4\u00ae": 1177,
  "indi": 1178,
  "\u0120\u00e0\u00a4\u00b8\u00e0\u00a4\u0124\u00e0\u00a4\u00a6": 1179,
  "\u0120\u00e0\u00a4\u00ae\u00e0\u00a5\u0123\u00e0\u00a4\u0138\u00e0\u00a5\u012f\u00e0\u00a4\u00af": 1180,
  "\u0120\u00e0\u00a4\u00b5\u00e0\u00a5\u012f\u00e0\u00a4\u00af\u00e0\u00a4\u00b5": 1181,
  "\u00e0\u00a4\u0124\u00e0\u00a4\u0138": 1182,
  "\u00e0\u00a4\u0124\u00e0\u00a4\u00a6\u00e0\u00a5\u012f\u00e0\u00a4\u00b0": 1183,
  "\u0120\u00e0\u00a4\u0129\u00e0\u00a4\u00b8\u00e0\u00a4\u0137\u00e0\u00a4\u00be": 1184,
  "\u0120Hindi": 1185,
  "\u0120\u00e0\u00a4\u013a\u00e0\u00a4\u00b0": 1186,
  "\u00e0\u00a4\u00ae\u00e0\u00a4\u00be": 1187,
  "\u0120\u00e0\u00a4\u00b8\u00e0\u00a5\u0123\u00e0\u00a4\u00b0": 1188,
  "\u0120\u00e0\u00a4\u0127\u00e0\u00a4\u00ac": 1189,
  "\u00e0\u00a4\u00b2\u00e0\u00a4\u00bf\u00e0\u00a4\u0131": 1190,
  "\u00e0\u00a4\u00bf\u00e0\u00a4\u00b8\u00e0\u00a5\u012f\u00e0\u00a4\u0141": 1191,
  "\u0120\u00e0\u00a4\u00b5\u00e0\u00a4\u00bf\u00e0\u00a4\u00b8\u00e0\u00a5\u012f\u00e0\u00a4\u00a4": 1192,
  "\u00e0\u00a4\u00bf\u00e0\u00a4\u00af\u00e0\u00a4\u00a8": 1193,
  "ist": 1194,
  "\u0120that": 1195,
  "\u0120\u00e0\u00a4\u0131\u00e0\u00a4\u00b5\u00e0\u00a4\u0124": 1196,
  "\u00e0\u00a4\u00a6\u00e0\u00a4\u00be\u00e0\u00a4\u00b0": 1197,
  "The": 1198,
  "\u00e0\u00a4\u00bf\u00e0\u00a4\u00a5": 1199,
  "-\u00e0\u00a4\u00aa": 1200,
  "\u0120\u00e0\u00a4\u00b5\u00e0\u00a5\u012a": 1201,
  "Translate": 1202,
  "\u0120\u00e0\u00a4\u00b5\u00e0\u00a4\u00be\u00e0\u00a4\u0137": 1203,
  "\u0120\u00e0\u00a4\u00b5\u00e0\u00a4\u00bf\u00e0\u00a4\u00a7": 1204,
  "ver": 1205,
  "\u00e0\u00a4\u00b5\u00e0\u00a4\u00bf\u00e0\u00a4\u0137": 1206,
  "\u0120\u00e0\u00a4\u00aa\u00e0\u00a5\u012f\u00e0\u00a4\u00b0\u00e0\u00a4\u00a6\u00e0\u00a5\u0129\u00e0\u00a4\u00b6": 1207,
  "\u0120\u00e0\u00a4\u00b8\u00e0\u00a4\u0124\u00e0\u00a4\u0138\u00e0\u00a5\u012f\u00e0\u00a4\u00af\u00e0\u00a4\u00be": 1208,
  "\u0120M": 1209,
  "\u00e0\u00a4\u00ae\u00e0\u00a5\u0122": 1210,
  "\u0120\u00e0\u00a4\u00b8\u00e0\u00a4\u00ae\u00e0\u00a4\u00be\u00e0\u00a4\u00a7\u00e0\u00a4\u00be\u00e0\u00a4\u00a8": 1211,
  "qu": 1212,
  "\u0120\u00e0\u00a4\u00a6\u00e0\u00a5\u012e\u00e0\u00a4\u00b0\u00e0\u00a4\u00be\u00e0\u00a4\u00a8": 1213,
  "ly": 1214,
  "\u0120\u00e0\u00a4\u00b2\u00e0\u00a4\u0139\u00e0\u00a4\u0143\u00e0\u00a4\u0139": 1215,
  "\u0120\u00e0\u00a4\u013e\u00e0\u00a5\u012a": 1216,
  "\u00e0\u00a5\u012d\u00e0\u00a4\u0139\u00e0\u00a5\u012f\u00e0\u00a4\u00b0\u00e0\u00a4\u00be\u00e0\u00a4\u00ae": 1217,
  "\u0120\u00e0\u00a4\u00b5\u00e0\u00a4\u00bf\u00e0\u00a4\u0137\u00e0\u00a4\u00be\u00e0\u00a4\u00b8": 1218,
  "\u00e0\u00a4\u00a7\u00e0\u00a4\u00be\u00e0\u00a4\u00b0": 1219,
  "\u0120on": 1220,
  "\u00e0\u00a4\u00ac\u00e0\u00a5\u0122": 1221,
  "\u0120\u00e0\u00a4\u00aa\u00e0\u00a4\u00a4\u00e0\u00a4\u00be": 1222,
  "\u0120\u00e0\u00a4\u00aa\u00e0\u00a5\u0123": 1223,
  "\u0120\u00e0\u00a4\u00ae\u00e0\u00a4\u00a8": 1224,
  "\u0120\u00e0\u00a4\u00aa\u00e0\u00a5\u012f\u00e0\u00a4\u00b0\u00e0\u00a4\u00a4\u00e0\u00a5\u012f\u00e0\u00a4\u00af": 1225,
  "\u00e0\u00a4\u0124\u00e0\u00a4\u00ac\u00e0\u00a4\u00b0": 1226,
  "\u00e0\u00a4\u00b0\u00e0\u00a5\u012f\u00e0\u00a4\u00a6": 1227,
  "\u0120\u00e0\u00a4\u00a4\u00e0\u00a4\u00b0\u00e0\u00a5\u0122": 1228,
  "-\u00e0\u00a4\u00b8": 1229,
  "\u00e0\u00a4\u00b9\u00e0\u00a4\u00be\u00e0\u00a4\u00b0": 1230,
  "\u0120\u00e0\u00a4\u00b6\u00e0\u00a4\u00b9\u00e0\u00a4\u00b0": 1231,
  "\u00e0\u00a4\u00be\u00e0\u00a4\u0129\u00e0\u00a4\u00b2": 1232,
  "\u0120\u00e0\u00a4\u0128\u00e0\u00a4\u012a": 1233,
  "\u0120\u00e0\u00a4\u00aa\u00e0\u00a5\u0124\u00e0\u00a4\u00b0": 1234,
  "\u00e0\u00a4\u00a6\u00e0\u00a4\u00be": 1235,
  "\u0120\u00e0\u00a4\u00a6\u00e0\u00a5\u012d\u00e0\u00a4\u00a8\u00e0\u00a5\u012d\u00e0\u00a4\u0124": 1236,
  "\u0120\u00e0\u00a4\u0127\u00e0\u00a4\u00a4": 1237,
  "\u0120\u00e0\u00a4\u00b5\u00e0\u00a4\u00bf\u00e0\u00a4\u00a6": 1238,
  "\u0120\u00e0\u00a4\u00a6\u00e0\u00a4\u00bf\u00e0\u00a4\u0138": 1239,
  "\u00e0\u00a4\u00af\u00e0\u00a5\u0123\u00e0\u00a4\u0137\u00e0\u00a5\u012f\u00e0\u00a4\u00a4": 1240,
  "\u0120\u00e0\u00a4\u00a8\u00e0\u00a4\u00bf\u00e0\u00a4\u00ae\u00e0\u00a5\u012f\u00e0\u00a4\u00a8\u00e0\u00a4\u00b2\u00e0\u00a4\u00bf\u00e0\u00a4\u0138\u00e0\u00a4\u00bf\u00e0\u00a4\u00a4": 1241,
  "\u0120\u00e0\u00a4\u00b5\u00e0\u00a4\u00bf\u00e0\u00a4\u00a8": 1242,
  "\u0120\u00e0\u00a4\u00b8\u00e0\u00a4\u0124\u00e0\u00a4\u0143": 1243,
  "\u0120\u00e0\u00a4\u00b8\u00e0\u00a5\u0124\u00e0\u00a4\u013c\u00e0\u00a5\u0122": 1244,
  "\u0120\u00e0\u00a4\u0127\u00e0\u00a4\u00a8\u00e0\u00a5\u0123\u00e0\u00a4\u00b8\u00e0\u00a4\u00be\u00e0\u00a4\u00b0": 1245,
  "\u00e0\u00a4\u00b0\u00e0\u00a5\u012f\u00e0\u00a4\u013c": 1246,
  "ay": 1247,
  "\u0120\u00e0\u00a4\u00aa\u00e0\u00a4\u00b0\u00e0\u00a5\u012f\u00e0\u00a4\u00af": 1248,
  "\u00e0\u00a5\u012b\u00e0\u00a4\u0137": 1249,
  "\u00e0\u00a5\u012d\u00e0\u00a4\u00b8": 1250,
  "\u0120\u00e0\u00a4\u0135\u00e0\u00a4\u00b0": 1251,
  "\u0120\u00e0\u00a4\u00a7\u00e0\u00a5\u012f\u00e0\u00a4\u00af\u00e0\u00a4\u00be\u00e0\u00a4\u00a8": 1252,
  "\u0120\u00e0\u00a4\u00b0\u00e0\u00a4\u00b9\u00e0\u00a5\u0122": 1253,
  "\u00e0\u00a4\u00bf\u00e0\u00a4\u00ac": 1254,
  "\u0120\u00e0\u00a4\u0143\u00e0\u00a4\u00be\u00e0\u00a4\u00b7\u00e0\u00a4\u00be": 1255,
  "\u00e0\u00a5\u0123\u00e0\u00a4\u0128": 1256,
  "ig": 1257,
  "\u0120\u00e0\u00a4\u00b5\u00e0\u00a4\u00be\u00e0\u00a4\u00b8\u00e0\u00a5\u012f\u00e0\u00a4\u00a4": 1258,
  "\u00e0\u00a4\u00be\u00e0\u00a4\u0124\u00e0\u00a4\u0139": 1259,
  "\u0120\u00e0\u00a4\u00a6\u00e0\u00a5\u0124\u00e0\u00a4\u00b8\u00e0\u00a4\u00b0": 1260,
  "\u0120can": 1261,
  "\u0120\u00e0\u00a4\u00a4\u00e0\u00a5\u0122\u00e0\u00a4\u00a8": 1262,
  "\u00e0\u00a4\u00be\u00e0\u00a4\u00b9\u00e0\u00a4\u00b0\u00e0\u00a5\u0122": 1263,
  "\u00e0\u00a5\u012f\u00e0\u00a4\u0141\u00e0\u00a5\u0122": 1264,
  "\u0120\u00e0\u00a4\u013e\u00e0\u00a4\u00be\u00e0\u00a4\u00a8\u00e0\u00a4\u00be": 1265,
  "\u0120\u00e0\u00a4\u00b2\u00e0\u00a4\u00bf\u00e0\u00a4\u0138\u00e0\u00a5\u0129\u00e0\u00a4\u0124": 1266,
  "\u0120\u00e0\u00a4\u00b5\u00e0\u00a5\u012f\u00e0\u00a4\u00af\u00e0\u00a4\u0137\u00e0\u00a5\u012f\u00e0\u00a4\u00a4\u00e0\u00a4\u00bf": 1267,
  "\u0120\u00e0\u00a4\u00ac\u00e0\u00a4\u00a6\u00e0\u00a4\u00b2": 1268,
  "\u00e0\u00a4\u00bf\u00e0\u00a4\u0143": 1269,
  "\u0120\u00e0\u00a4\u013e\u00e0\u00a4\u00be\u00e0\u00a4\u00a4\u00e0\u00a5\u0129": 1270,
  "\u00e0\u00a4\u00be\u00e0\u00a4\u0124\u00e0\u00a4\u00b8": 1271,
  "\u00e0\u00a4\u00ae\u00e0\u00a5\u012f\u00e0\u00a4\u00b0": 1272,
  "\u00e0\u00a4\u00a4\u00e0\u00a4\u00be\u00e0\u00a4\u0135\u00e0\u00a4\u0124": 1273,
  "\u00e0\u00a5\u012d\u00e0\u00a4\u00a1": 1274,
  "\u0120\u00e0\u00a4\u00b5\u00e0\u00a4\u00bf\u00e0\u00a4\u013c": 1275,
  "\u00e0\u00a5\u012f\u00e0\u00a4\u00a6\u00e0\u00a5\u0122": 1276,
  "-\u00e0\u00a4\u0127": 1277,
  "\u0120v": 1278,
  "\u0120\u00e0\u00a4\u00a4\u00e0\u00a5\u012a": 1279,
  "\u00e0\u00a4\u00be\u00e0\u00a4\u00a4\u00e0\u00a5\u012f\u00e0\u00a4\u00b0\u00e0\u00a4\u00be": 1280,
  "\u0120\u00e0\u00a4\u00b8\u00e0\u00a4\u0124\u00e0\u00a4\u00b0": 1281,
  "\u0120\u00e0\u00a4\u00aa\u00e0\u00a5\u012f\u00e0\u00a4\u00b0\u00e0\u00a5\u012d\u00e0\u00a4\u0139\u00e0\u00a5\u012f\u00e0\u00a4\u00b0\u00e0\u00a4\u00be\u00e0\u00a4\u00ae": 1282,
  "\u0120you": 1283,
  "\u0120\u00e0\u00a4\u00ae\u00e0\u00a4\u00be\u00e0\u00a4\u00a7": 1284,
  "\u00e0\u00a4\u00b8\u00e0\u00a5\u0122\u00e0\u00a4\u00b2": 1285,
  "\u0120\u0120\u0120\u0120\u0120\u0120\u0120": 1286,
  "\u00e0\u00a5\u0123\u00e0\u00a4\u00b6": 1287,
  "\u0120\u00e0\u00a4\u00aa\u00e0\u00a5\u012f\u00e0\u00a4\u00b0\u00e0\u00a4\u00b6\u00e0\u00a5\u012f\u00e0\u00a4\u00a8": 1288,
  "\u00e0\u00a4\u013c\u00e0\u00a5\u0129": 1289,
  "\u00e0\u00a4\u00bf\u00e0\u00a4\u00a6\u00e0\u00a5\u012f\u00e0\u00a4\u00a7": 1290,
  "\u00e0\u00a5\u012f\u00e0\u00a4\u00b8\u00e0\u00a4\u00be": 1291,
  "se": 1292,
  "\u00e0\u00a5\u0123\u00e0\u00a4\u013f\u00e0\u00a5\u0129": 1293,
  "\u00e0\u00a4\u00bf\u00e0\u00a4\u013c": 1294,
  "\u00e0\u00a4\u00bf\u00e0\u00a4\u00b7\u00e0\u00a5\u012f\u00e0\u00a4\u0141": 1295,
  "\u00e0\u00a5\u0123\u00e0\u00a4\u00b7": 1296,
  "\u0120\u00e0\u00a4\u00a6\u00e0\u00a5\u0125": 1297,
  "\u0120\u00e0\u00a4\u0142": 1298,
  "\u0120\u00e0\u00a4\u00a4\u00e0\u00a4\u00b9\u00e0\u00a4\u00b8\u00e0\u00a5\u0122\u00e0\u00a4\u00b2": 1299,
  "\u0120con": 1300,
  "\u0120\u00e0\u00a4\u0128\u00e0\u00a4\u00b8": 1301,
  "\u0120\u00e0\u00a4\u0137\u00e0\u00a5\u012f\u00e0\u00a4\u00b2": 1302,
  "\u0120\u00e0\u00a4\u00a6\u00e0\u00a5\u0129\u00e0\u00a4\u00a8\u00e0\u00a5\u0129": 1303,
  "\u00e0\u00a4\u00bf\u00e0\u00a4\u00af\u00e0\u00a5\u012d": 1304,
  "\u00e0\u00a5\u0123\u00e0\u00a4\u0143": 1305,
  "\u00e0\u00a4\u00bf\u00e0\u00a4\u00af\u00e0\u00a4\u00b0": 1306,
  "\u0120\u00e0\u00a4\u0131\u00e0\u00a4\u00ae": 1307,
  "\u0120\u00e0\u00a4\u0129\u00e0\u00a4\u00b8\u00e0\u00a4\u00b2\u00e0\u00a4\u00bf\u00e0\u00a4\u0131": 1308,
  "\u0120\u00e0\u00a4\u013e\u00e0\u00a4\u00bf\u00e0\u00a4\u00b8\u00e0\u00a5\u0129": 1309,
  "\u00e0\u00a4\u0137\u00e0\u00a4\u00b0\u00e0\u00a4\u00a3": 1310,
  "\u0120\u00e0\u00a4\u00b5\u00e0\u00a4\u00be\u00e0\u00a4\u0137\u00e0\u00a5\u012f\u00e0\u00a4\u00af": 1311,
  "\u0120\u00e0\u00a4\u0138\u00e0\u00a4\u00bf\u00e0\u00a4\u00b2": 1312,
  "\u00e0\u00a4\u00b2\u00e0\u00a5\u012d\u00e0\u00a4\u0124": 1313,
  "\u0120\u00e0\u00a4\u0139\u00e0\u00a4\u00a3": 1314,
  "\u0120\u00e0\u00a4\u0137\u00e0\u00a5\u012e": 1315,
  "\u00e0\u00a5\u00a4\"": 1316,
  "\u00e0\u00a5\u0129\u00e0\u00a4\u00b7\u00e0\u00a4\u00a3": 1317,
  "yst": 1318,
  "\u00e0\u00a4\u00bf\u00e0\u00a4\u00b6\u00e0\u00a5\u012f\u00e0\u00a4\u013c": 1319,
  "\u0120\u00e0\u00a4\u00b8\u00e0\u00a4\u00ae\u00e0\u00a5\u0123\u00e0\u00a4\u00a6": 1320,
  "\u00e0\u00a4\u00b6\u00e0\u00a5\u012f\u00e0\u00a4\u013c": 1321,
  "\u0120\u00e0\u00a4\u00b5\u00e0\u00a5\u0129\u00e0\u00a4\u00ac": 1322,
  "\u0120\u00e0\u00a4\u013f": 1323,
  "\u0120\u00e0\u00a4\u00b8\u00e0\u00a4\u00ae\u00e0\u00a5\u0124\u00e0\u00a4\u00b9": 1324,
  "\u0120\u00e0\u00a4\u00b8\u00e0\u00a4\u00ab": 1325,
  "\u00e0\u00a4\u00b5\u00e0\u00a4\u00be\u00e0\u00a4\u00a6": 1326,
  "\u0120\u00e0\u00a4\u0138\u00e0\u00a5\u012d\u00e0\u00a4\u013e": 1327,
  "\u0120\u00e0\u00a4\u00af\u00e0\u00a5\u0129": 1328,
  "\u00e0\u00a5\u012f\u00e0\u00a4\u00b5\u00e0\u00a5\u0122": 1329,
  "\u00e0\u00a4\u00be\u00e0\u00a4\u0143": 1330,
  "\u0120al": 1331,
  "\u00e0\u00a4\u012b\u00e0\u00a4\u00a4": 1332,
  "\u0120\u00e0\u00a4\u00ae\u00e0\u00a4\u00be\u00e0\u00a4\u00a7\u00e0\u00a5\u012f\u00e0\u00a4\u00af\u00e0\u00a4\u00ae": 1333,
  "\u00e0\u00a5\u012f\u00e0\u00a4\u00af\u00e0\u00a4\u00be\u00e0\u00a4\u00b2\u00e0\u00a4\u00af": 1334,
  "\u00e0\u00a5\u012d\u00e0\u00a4\u00a1\u00e0\u00a4\u00bc": 1335,
  "\u00e0\u00a4\u00be\u00e0\u00a4\u0142": 1336,
  "\u0120\u00e0\u00a4\u00ac\u00e0\u00a4\u013c": 1337,
  "\u0120\u00e0\u00a4\u00b8\u00e0\u00a4\u00a6": 1338,
  "\u0120\u00e0\u00a4\u0127\u00e0\u00a4\u00b2\u00e0\u00a4\u00be\u00e0\u00a4\u00b5\u00e0\u00a4\u00be": 1339,
  "\u0120\u00e0\u00a4\u00a2": 1340,
  "\u00e0\u00a4\u00be\u00e0\u00a4\u00a8\u00e0\u00a5\u012f\u00e0\u00a4\u00af": 1341,
  "\u0120us": 1342,
  "\u0120\u00e0\u00a4\u00aa\u00e0\u00a5\u012f\u00e0\u00a4\u00b0\u00e0\u00a4\u00ae\u00e0\u00a5\u0123\u00e0\u00a4\u0138": 1343,
  "ystem": 1344,
  "\u0120\u00e0\u00a4\u00b5\u00e0\u00a4\u00bf\u00e0\u00a4\u00b7": 1345,
  "\u0120\u00e0\u00a4\u00a6\u00e0\u00a5\u0129\u00e0\u00a4\u0138\u00e0\u00a5\u0129\u00e0\u00a4\u0124": 1346,
  "\u0120\u00e0\u00a4\u00a6\u00e0\u00a4\u0137\u00e0\u00a5\u012f\u00e0\u00a4\u00b7": 1347,
  "\u00e0\u00a4\u00bf\u00e0\u00a4\u00a3\u00e0\u00a4\u00be\u00e0\u00a4\u00ae": 1348,
  "\u0120\u00e0\u00a4\u00b9\u00e0\u00a4\u00bf\u00e0\u00a4\u00b8": 1349,
  "\u00e0\u00a4\u00a8\u00e0\u00a5\u012f\u00e0\u00a4\u00a6\u00e0\u00a4\u00b0\u00e0\u00a5\u012f\u00e0\u00a4\u0143": 1350,
  "\u00e0\u00a4\u00aa\u00e0\u00a5\u0123\u00e0\u00a4\u00b0": 1351,
  "ter": 1352,
  "\u0120\u00e0\u00a4\u00aa\u00e0\u00a5\u012f\u00e0\u00a4\u00b0\u00e0\u00a4\u00a6\u00e0\u00a4\u00b0\u00e0\u00a5\u012f\u00e0\u00a4\u00b6": 1353,
  "\u00e0\u00a4\u00bf\u00e0\u00a4\u00b6\u00e0\u00a5\u012f\u00e0\u00a4\u013c\u00e0\u00a4\u00bf\u00e0\u00a4\u00a4": 1354,
  "\u00e0\u00a4\u00be\u00e0\u00a4\u00b8\u00e0\u00a5\u012f\u00e0\u00a4\u00a5": 1355,
  "\u0120\u00e0\u00a4\u013e\u00e0\u00a4\u00bf\u00e0\u00a4\u00b2\u00e0\u00a5\u0129": 1356,
  "\u00e0\u00a4\u00a1\u00e0\u00a5\u0122": 1357,
  "res": 1358,
  "\u0120\u00e0\u00a4\u0143\u00e0\u00a5\u0124\u00e0\u00a4\u00ae": 1359,
  "\u00e0\u00a4\u00ac\u00e0\u00a4\u00b0": 1360,
  "\u0120\u00e0\u00a4\u00aa\u00e0\u00a5\u012f\u00e0\u00a4\u00b0\u00e0\u00a4\u0137\u00e0\u00a4\u00be\u00e0\u00a4\u00b6": 1361,
  "\u0120\u00e0\u00a4\u00a4\u00e0\u00a4\u00be\u00e0\u00a4\u0137": 1362,
  "\u00e0\u00a5\u012f\u00e0\u00a4\u00b6\u00e0\u00a4\u00a8": 1363,
  "\u0120\u00e0\u00a4\u00ae\u00e0\u00a4\u00a7": 1364,
  "\u00e0\u00a4\u00bf\u00e0\u00a4\u00ab": 1365,
  "\u0120\u00e0\u00a4\u00af\u00e0\u00a5\u012d\u00e0\u00a4\u0139": 1366,
  "yth": 1367,
  "\u0120\u00e0\u00a4\u00b8\u00e0\u00a4\u0124\u00e0\u00a4\u00ac\u00e0\u00a4\u0124\u00e0\u00a4\u00a7\u00e0\u00a4\u00bf\u00e0\u00a4\u00a4": 1368,
  "ect": 1369,
  "\u0120\u00e0\u00a4\u00b8\u00e0\u00a5\u0123\u00e0\u00a4\u00a8": 1370,
  "\u0120\u00e0\u00a4\u0127\u00e0\u00a4\u00b0\u00e0\u00a5\u012f\u00e0\u00a4\u00a5": 1371,
  "\u0120\u00e0\u00a4\u012b\u00e0\u00a4\u013c\u00e0\u00a5\u012f\u00e0\u00a4\u013c": 1372,
  "\u00e0\u00a4\u00b5\u00e0\u00a4\u00be\u00e0\u00a4\u00ac": 1373,
  "\u0120\u00e0\u00a4\u0128\u00e0\u00a4\u00a6": 1374,
  "\u0120\u00e0\u00a4\u00a4\u00e0\u00a5\u012a\u00e0\u00a4\u00af": 1375,
  "\u0120\u00e0\u00a4\u00a6\u00e0\u00a5\u0129\u00e0\u00a4\u0124": 1376,
  "\u00e0\u00a4\u00b8\u00e0\u00a4\u00a8\u00e0\u00a5\u012f\u00e0\u00a4\u00a6\u00e0\u00a4\u00b0\u00e0\u00a5\u012f\u00e0\u00a4\u0143": 1377,
  "\u0120\u00e0\u00a4\u00a6\u00e0\u00a5\u0129\u00e0\u00a4\u00a4\u00e0\u00a4\u00be": 1378,
  "\u00e0\u00a5\u012f\u00e0\u00a4\u00af\u00e0\u00a5\u012d\u00e0\u00a4\u0139": 1379,
  "\u0120it": 1380,
  "\u0120\u00e0\u00a4\u0143\u00e0\u00a4\u00b0": 1381,
  "\u00e0\u00a4\u00a4\u00e0\u00a4\u00bf\u00e0\u00a4\u0137": 1382,
  "ord": 1383,
  "ess": 1384,
  "-\u00e0\u00a4\u013e": 1385,
  "lo": 1386,
  "\u0120\u00e0\u00a4\u00a8\u00e0\u00a4\u00bf\u00e0\u00a4\u00af": 1387,
  "\u00e0\u00a4\u00be\u00e0\u00a4\u00b8\u00e0\u00a5\u012f\u00e0\u00a4\u00a5\u00e0\u00a5\u012f\u00e0\u00a4\u00af": 1388,
  "\u0120as": 1389,
  "\u0120\u00e0\u00a4\u00aa\u00e0\u00a5\u012f\u00e0\u00a4\u00b0\u00e0\u00a4\u00a4\u00e0\u00a5\u012f\u00e0\u00a4\u00af\u00e0\u00a5\u0129\u00e0\u00a4\u0137": 1390,
  "\u0120de": 1391,
  "\u0120\u00e0\u00a4\u0131\u00e0\u00a4\u00a8": 1392,
  "\u0120\u00e0\u00a4\u00ab\u00e0\u00a5\u012f\u00e0\u00a4\u00b0": 1393,
  "\u00e0\u00a4\u00aa\u00e0\u00a5\u0122": 1394,
  "ython": 1395,
  "\u0120\u00e0\u00a4\u00a4\u00e0\u00a5\u0123\u00e0\u00a4\u00b2": 1396,
  "\u00e2\u0122\u012f": 1397,
  "\u00e0\u00a4\u00b0\u00e0\u00a4\u00bf\u00e0\u00a4\u0137": 1398,
  "\u0120\u00e0\u00a4\u0127\u00e0\u00a4\u00a7\u00e0\u00a5\u012f\u00e0\u00a4\u00af\u00e0\u00a4\u00af\u00e0\u00a4\u00a8": 1399,
  "\u00e0\u00a5\u012d\u00e0\u00a4\u013e\u00e0\u00a4\u00a8\u00e0\u00a4\u00be": 1400,
  "\u00e0\u00a4\u013c\u00e0\u00a4\u00a8\u00e0\u00a4\u00be": 1401,
  "\u0120\u00e0\u00a4\u00a6\u00e0\u00a4\u00bf\u00e0\u00a4\u0131": 1402,
  "\u00e0\u00a4\u00ae\u00e0\u00a5\u012f\u00e0\u00a4\u00ae": 1403,
  "\u0120\u00e0\u00a4\u00ac\u00e0\u00a4\u00a8\u00e0\u00a4\u00be": 1404,
  "\u0120\u00e0\u00a4\u013e\u00e0\u00a4\u00bc": 1405,
  "\u00e0\u00a4\u0143\u00e0\u00a4\u00be": 1406,
  "\u0120with": 1407,
  "\u0120\u00e0\u00a4\u00ae\u00e0\u00a5\u0123": 1408,
  "15": 1409,
  "ment": 1410,
  "\u00e0\u00a4\u00b5\u00e0\u00a4\u00bf\u00e0\u00a4\u00a6": 1411,
  "\u0120\u00e0\u00a4\u00b8\u00e0\u00a4\u0124\u00e0\u00a4\u0143\u00e0\u00a4\u00b5": 1412,
  "\u00e0\u00a4\u00ab\u00e0\u00a4\u00bc": 1413,
  "\u0120\u00e0\u00a4\u00af\u00e0\u00a5\u0124": 1414,
  "\u00e0\u00a4\u00b2\u00e0\u00a5\u012f\u00e0\u00a4\u00b2": 1415,
  "\u0120\u00e0\u00a4\u00aa\u00e0\u00a4\u00b0\u00e0\u00a4\u00bf\u00e0\u00a4\u00a3\u00e0\u00a4\u00be\u00e0\u00a4\u00ae": 1416,
  "\u00e0\u00a4\u00be\u00e0\u00a4\u0124\u00e0\u00a4\u0137": 1417,
  "\u0120\u00e0\u00a4\u013d\u00e0\u00a4\u00be\u00e0\u00a4\u00a4\u00e0\u00a5\u012f\u00e0\u00a4\u00b0": 1418,
  "ort": 1419,
  "\u00e0\u00a4\u00b5\u00e0\u00a4\u00be\u00e0\u00a4\u00b0": 1420,
  "\u00e0\u00a4\u00ac\u00e0\u00a4\u00be\u00e0\u00a4\u00b9\u00e0\u00a4\u00b0\u00e0\u00a5\u0122": 1421,
  "\u0120\u00e0\u00a4\u00b5\u00e0\u00a4\u00bf\u00e0\u00a4\u00b6\u00e0\u00a5\u012f\u00e0\u00a4\u00b2": 1422,
  "ak": 1423,
  "\u00e0\u00a5\u012d\u00e0\u00a4\u00b9": 1424,
  "\u0120R": 1425,
  "\u0120\u00e0\u00a4\u013c\u00e0\u00a4\u00be\u00e0\u00a4\u00b0": 1426,
  "\u0120com": 1427,
  "\u00e0\u00a4\u0124\u00e0\u00a4\u00b8": 1428,
  "\u0120\u00e0\u00a4\u00ac\u00e0\u00a5\u012a": 1429,
  "\u00e0\u00a4\u00ae\u00e0\u00a4\u00be\u00e0\u00a4\u00b0": 1430,
  "\u0120\u00e0\u00a4\u0143\u00e0\u00a4\u00be\u00e0\u00a4\u00b0\u00e0\u00a4\u00a4\u00e0\u00a5\u0122\u00e0\u00a4\u00af": 1431,
  "\u0120\u00e0\u00a4\u00a4\u00e0\u00a4\u0137\u00e0\u00a4\u00a8\u00e0\u00a5\u0122": 1432,
  "\u0120\u00e0\u00a4\u013c\u00e0\u00a5\u0122": 1433,
  "\u0120\u00e0\u00a4\u00b8\u00e0\u00a4\u00b0\u00e0\u00a5\u012f\u00e0\u00a4\u00b5": 1434,
  "\u0120B": 1435,
  "\u0120\u00e0\u00a4\u0127\u00e0\u00a4\u0139": 1436,
  "\u0120\u00e0\u00a4\u00ae\u00e0\u00a5\u0123\u00e0\u00a4\u013f\u00e0\u00a5\u0129": 1437,
  "\u0120\u00e0\u00a4\u00a8\u00e0\u00a4\u0131": 1438,
  "\u00e0\u00a4\u00b2\u00e0\u00a4\u00ac\u00e0\u00a5\u012f\u00e0\u00a4\u00a7": 1439,
  "\u00e0\u00a4\u012b\u00e0\u00a4\u00a4\u00e0\u00a5\u012f\u00e0\u00a4\u00a4\u00e0\u00a4\u00b0": 1440,
  "12": 1441,
  "\u00e0\u00a4\u00be\u00e0\u00a4\u0129\u00e0\u00a4\u00a1": 1442,
  "\u0120\u00e0\u00a4\u00b8\u00e0\u00a5\u012f\u00e0\u00a4\u00b5\u00e0\u00a4\u00be\u00e0\u00a4\u00b8\u00e0\u00a5\u012f\u00e0\u00a4\u00a5\u00e0\u00a5\u012f\u00e0\u00a4\u00af": 1443,
  "199": 1444,
  "\u00e0\u00a4\u00be\u00e0\u00a4\u0123\u00e0\u00a4\u00b5": 1445,
  "\u0120\u00e0\u00a4\u00ae\u00e0\u00a5\u0124\u00e0\u00a4\u00b2\u00e0\u00a5\u012f\u00e0\u00a4\u00af": 1446,
  "\u00e0\u00a5\u0123\u00e0\u00a4\u00a8\u00e0\u00a4\u00bf\u00e0\u00a4\u00af\u00e0\u00a4\u00be": 1447,
  "\u0120\u00e0\u00a4\u00b5\u00e0\u00a4\u00be\u00e0\u00a4\u00b2\u00e0\u00a4\u00be": 1448,
  "\u00e0\u00a4\u00a1\u00e0\u00a4\u00bc\u00e0\u00a4\u00bf\u00e0\u00a4\u00af\u00e0\u00a4\u00be\u00e0\u00a4\u0123": 1449,
  "\u0120\u00e0\u00a4\u00b2\u00e0\u00a4\u00bf\u00e0\u00a4\u00af\u00e0\u00a4\u00be": 1450,
  "\u0120ne": 1451,
  "\u0120\u00e0\u00a4\u00b9\u00e0\u00a5\u012d\u00e0\u00a4\u0124": 1452,
  "\u00e0\u00a4\u00b8\u00e0\u00a5\u012f\u00e0\u00a4\u00b5": 1453,
  "\u00e0\u00a4\u00a3\u00e0\u00a5\u012f\u00e0\u00a4\u00a1\u00e0\u00a4\u00b2": 1454,
  "\u0120\u00e0\u00a4\u00aa\u00e0\u00a4\u00be\u00e0\u00a4\u00a8\u00e0\u00a5\u0122": 1455,
  "\u0120\u00e0\u00a4\u0137\u00e0\u00a4\u00b2": 1456,
  "\u00e0\u00a4\u00bf\u00e0\u00a4\u0137\u00e0\u00a4\u00be\u00e0\u00a4\u00b0\u00e0\u00a4\u00bf\u00e0\u00a4\u0137": 1457,
  "pp": 1458,
  "\u00e0\u00a5\u012b\u00e0\u00a4\u00a1": 1459,
  "\u0120\u00e0\u00a4\u00b8\u00e0\u00a5\u012f\u00e0\u00a4\u00a4\u00e0\u00a4\u00b0": 1460,
  "\u0120\u00e0\u00a4\u00b5\u00e0\u00a4\u00bf\u00e0\u00a4\u013e\u00e0\u00a5\u012f\u00e0\u00a4\u0140\u00e0\u00a4\u00be\u00e0\u00a4\u00a8": 1461,
  "\u0120AI": 1462,
  "\u0120\u00e0\u00a4\u00b6\u00e0\u00a5\u0122": 1463,
  "\u00e0\u00a4\u00b5\u00e0\u00a5\u012f\u00e0\u00a4\u00af": 1464,
  "\u00e0\u00a4\u00be\u00e0\u00a4\u00b9\u00e0\u00a4\u00bf\u00e0\u00a4\u00a4": 1465,
  "\u0120\u00e0\u00a4\u012b\u00e0\u00a4\u00aa\u00e0\u00a4\u00b2\u00e0\u00a4\u00ac\u00e0\u00a5\u012f\u00e0\u00a4\u00a7": 1466,
  "\u0120\u00e0\u00a4\u00b5\u00e0\u00a4\u00b0\u00e0\u00a5\u012f\u00e0\u00a4\u0139": 1467,
  "\u00e0\u00a4\u00be\u00e0\u00a4\u0125": 1468,
  "\u00e0\u00a4\u00b0\u00e0\u00a5\u012f\u00e0\u00a4\u013e\u00e0\u00a4\u00be": 1469,
  "\u0120\u00e0\u00a4\u00aa\u00e0\u00a5\u012f\u00e0\u00a4\u00b0\u00e0\u00a4\u00b5": 1470,
  "\u0120\u00e0\u00a4\u013e\u00e0\u00a4\u00a8\u00e0\u00a5\u012f\u00e0\u00a4\u00ae": 1471,
  "\u0120\u00e0\u00a4\u0128\u00e0\u00a4\u00a7\u00e0\u00a4\u00bf\u00e0\u00a4\u0137\u00e0\u00a4\u00be\u00e0\u00a4\u00b0\u00e0\u00a4\u00bf\u00e0\u00a4\u0137": 1472,
  "\u0120\u00e0\u00a4\u00ac\u00e0\u00a5\u0123\u00e0\u00a4\u00a6\u00e0\u00a5\u012f\u00e0\u00a4\u00a7": 1473,
  "\u0120\u00e0\u00a4\u00b0\u00e0\u00a4\u0124\u00e0\u00a4\u0139": 1474,
  "\u00e0\u00a4\u00be\u00e0\u00a4\u00af\u00e0\u00a4\u00b0": 1475,
  ");": 1476,
  "\u0120\u00e0\u00a4\u00b8\u00e0\u00a4\u0124\u00e0\u00a4\u0143\u00e0\u00a4\u00be\u00e0\u00a4\u00b5": 1477,
  "\u00e0\u00a4\u00a8\u00e0\u00a5\u012f\u00e0\u00a4\u00b9\u00e0\u00a5\u0129\u00e0\u00a4\u0124": 1478,
  "\u0120\u00e0\u00a4\u00a6\u00e0\u00a4\u0137\u00e0\u00a5\u012f\u00e0\u00a4\u00b7\u00e0\u00a4\u00bf\u00e0\u00a4\u00a3": 1479,
  "ata": 1480,
  "\u00e0\u00a5\u0125\u00e0\u00a4\u00a4\u00e0\u00a4\u00bf\u00e0\u00a4\u0137": 1481,
  "\u00e0\u00a4\u00aa\u00e0\u00a5\u0123\u00e0\u00a4\u0141": 1482,
  "\u0120wh": 1483,
  "oun": 1484,
  "\u0120\u00e0\u00a4\u00b2\u00e0\u00a4\u0124\u00e0\u00a4\u00ac": 1485,
  "--------": 1486,
  "\u0120ex": 1487,
  "\u0120\u00e0\u00a4\u00a6\u00e0\u00a4\u00bf\u00e0\u00a4\u00b2": 1488,
  "\u00e0\u00a5\u0125\u00e0\u00a4\u00a4\u00e0\u00a4\u00bf": 1489,
  "\u0120\u00e0\u00a4\u00b5\u00e0\u00a4\u00bf\u00e0\u00a4\u00b6\u00e0\u00a5\u012f\u00e0\u00a4\u00b2\u00e0\u00a5\u0129\u00e0\u00a4\u00b7\u00e0\u00a4\u00a3": 1490,
  "\u0120\u00e0\u00a4\u00aa\u00e0\u00a5\u012f\u00e0\u00a4\u00b0\u00e0\u00a4\u00a3": 1491,
  "\u0120\u00e0\u00a4\u00b8\u00e0\u00a4\u00ae\u00e0\u00a4\u00be\u00e0\u00a4\u00a8": 1492,
  "\u00e0\u00a4\u00a4\u00e0\u00a4\u00ae": 1493,
  "\u00e0\u00a5\u012d\u00e0\u00a4\u00ac": 1494,
  "\u00e0\u00a4\u00be\u00e0\u00a4\u00b2\u00e0\u00a4\u00be": 1495,
  "\u00e0\u00a4\u013e\u00e0\u00a5\u012f\u00e0\u00a4\u0140\u00e0\u00a4\u00be\u00e0\u00a4\u00a8": 1496,
  "\u0120\u00e0\u00a4\u00ac\u00e0\u00a4\u013e": 1497,
  "\u00e0\u00a4\u00aa\u00e0\u00a5\u012f\u00e0\u00a4\u00a4": 1498,
  "\u0120\u00e0\u00a4\u00b9\u00e0\u00a4\u00ae\u00e0\u00a5\u0129\u00e0\u00a4\u0124": 1499,
  "\u0120\u00e0\u00a4\u0139\u00e0\u00a5\u012a": 1500,
  "\u0120\u00e0\u00a4\u00ae\u00e0\u00a4\u00a3\u00e0\u00a5\u012f\u00e0\u00a4\u00a1\u00e0\u00a4\u00b2": 1501,
  "\u0120\u00e0\u00a4\u00a8\u00e0\u00a4\u00bf\u00e0\u00a4\u00b0\u00e0\u00a5\u012f\u00e0\u00a4\u00ae\u00e0\u00a4\u00be\u00e0\u00a4\u00a3": 1502,
  "\u0120\u00e0\u00a4\u00b8\u00e0\u00a4\u00bf\u00e0\u00a4\u0124": 1503,
  "\u0120\u00e0\u00a4\u00aa\u00e0\u00a5\u012f\u00e0\u00a4\u00b0\u00e0\u00a4\u0137\u00e0\u00a5\u012f\u00e0\u00a4\u00b0": 1504,
  "\u0120\u00e0\u00a4\u00b8\u00e0\u00a5\u012f\u00e0\u00a4\u00a5\u00e0\u00a4\u00bf\u00e0\u00a4\u00a4\u00e0\u00a4\u00bf": 1505,
  "\u0120\u00e0\u00a4\u0137\u00e0\u00a5\u012d\u00e0\u00a4\u00b6": 1506,
  "\u0120\u00e0\u00a4\u00a4\u00e0\u00a4\u00be\u00e0\u00a4\u0137\u00e0\u00a4\u00bf": 1507,
  "\u00e0\u00a4\u00a6\u00e0\u00a4\u00be\u00e0\u00a4\u00a8": 1508,
  "\u0120\u00e0\u00a4\u00b8\u00e0\u00a4\u00be\u00e0\u00a4\u00b0": 1509,
  "\u0120\u00e0\u00a4\u00b8\u00e0\u00a4\u0124\u00e0\u00a4\u00aa": 1510,
  "\u00e0\u00a4\u00b8\u00e0\u00a4\u00be\u00e0\u00a4\u0129\u00e0\u00a4\u0141": 1511,
  "\u0120\u00e0\u00a4\u0132\u00e0\u00a4\u00b8\u00e0\u00a4\u00be": 1512,
  "\u00e0\u00a4\u00a8\u00e0\u00a4\u00bf\u00e0\u00a4\u00ae\u00e0\u00a5\u012f\u00e0\u00a4\u00a8\u00e0\u00a4\u00b2\u00e0\u00a4\u00bf\u00e0\u00a4\u0138\u00e0\u00a4\u00bf\u00e0\u00a4\u00a4": 1513,
  "\u0120Python": 1514,
  "\u0120\u00e0\u00a4\u00b9\u00e0\u00a5\u012d\u00e0\u00a4\u00a8\u00e0\u00a4\u00be": 1515,
  "\u0120\u00e0\u00a4\u00a8\u00e0\u00a5\u012f\u00e0\u00a4\u00af\u00e0\u00a5\u0124": 1516,
  "-\u00e0\u00a4\u0137": 1517,
  "\u00a7\u00e0\u00a4\u00be\u00e0\u00a4\u00b0": 1518,
  "\u0120\u00e0\u00a4\u0137\u00e0\u00a5\u0129\u00e0\u00a4\u0124\u00e0\u00a4\u00a6\u00e0\u00a5\u012f\u00e0\u00a4\u00b0": 1519,
  "\u00e0\u00a5\u0129\u00e0\u00a4\u00a4": 1520,
  "\u00e0\u00a4\u013e\u00e0\u00a5\u0122": 1521,
  "\u0120\u00e0\u00a4\u00a6\u00e0\u00a5\u0123\u00e0\u00a4\u00a8\u00e0\u00a4\u00bf\u00e0\u00a4\u00af\u00e0\u00a4\u00be": 1522,
  "\u0120\u00e0\u00a4\u00b0\u00e0\u00a4\u00be\u00e0\u00a4\u00b7\u00e0\u00a5\u012f\u00e0\u00a4\u0141\u00e0\u00a5\u012f\u00e0\u00a4\u00b0\u00e0\u00a5\u0122\u00e0\u00a4\u00af": 1523,
  "\u0120D": 1524,
  "\u0120\u00e0\u00a4\u0137\u00e0\u00a5\u012b": 1525,
  "\u0120\u00e0\u00a4\u0127\u00e0\u00a4\u0124\u00e0\u00a4\u0139": 1526,
  "\u00e0\u00a5\u0124\u00e0\u00a4\u00a4": 1527,
  "\u0120\u00e0\u00a4\u00aa\u00e0\u00a4\u00b0\u00e0\u00a5\u0122": 1528,
  "\u0120\u00e0\u00a4\u00b8\u00e0\u00a5\u012f\u00e0\u00a4\u00a5\u00e0\u00a4\u00be\u00e0\u00a4\u00aa": 1529,
  "ht": 1530,
  "\u0120\u00e0\u00a4\u00a4\u00e0\u00a5\u012a\u00e0\u00a4\u00af\u00e0\u00a4\u00be\u00e0\u00a4\u00b0": 1531,
  "\u0120\u00e0\u00a4\u00a6\u00e0\u00a4\u00b0\u00e0\u00a5\u012f\u00e0\u00a4\u00b6": 1532,
  "\u00e0\u00a5\u0129\u00e0\u00a4\u0139\u00e0\u00a4\u00be": 1533,
  "\u0120\u00e0\u00a4\u00a1\u00e0\u00a4\u00bf\u00e0\u00a4\u013e": 1534,
  "\u0120\u00e0\u00a4\u013e\u00e0\u00a5\u0123": 1535,
  "\u0120\u00e0\u00a4\u00a4\u00e0\u00a5\u0123\u00e0\u00a4\u00b2\u00e0\u00a4\u00a8\u00e0\u00a4\u00be": 1536,
  "iv": 1537,
  "\u0120\u00e0\u00a4\u0141\u00e0\u00a5\u0122\u00e0\u00a4\u00ae": 1538,
  "\u00e0\u00a4\u0139\u00e0\u00a5\u012f\u00e0\u00a4\u00b0\u00e0\u00a4\u00b9": 1539,
  "\u0120\u00e0\u00a4\u00ae\u00e0\u00a4\u00be\u00e0\u00a4\u00ae": 1540,
  "\u00e0\u00a4\u0137\u00e0\u00a5\u012f\u00e0\u00a4\u00b7\u00e0\u00a4\u00bf\u00e0\u00a4\u00a4": 1541,
  "\u0120\u00e0\u00a4\u013c\u00e0\u00a4\u00bf\u00e0\u00a4\u0137": 1542,
  "\u0120\u00e0\u00a4\u00af\u00e0\u00a4\u00b9\u00e0\u00a4\u00be\u00e0\u00a4\u0123": 1543,
  "int": 1544,
  "\u00e0\u00a4\u00b8\u00e0\u00a4\u00be\u00e0\u00a4\u00af": 1545,
  "\u0120\u00e0\u00a4\u013e\u00e0\u00a4\u00ac\u00e0\u00a4\u0137\u00e0\u00a4\u00bf": 1546,
  "\u00e0\u00a4\u0124\u00e0\u00a4\u0143": 1547,
  "\u0120\u00e0\u00a4\u013e\u00e0\u00a5\u012d\u00e0\u00a4\u00a1\u00e0\u00a4\u00bc": 1548,
  "\u0120\u00e0\u00a4\u00aa\u00e0\u00a5\u012f\u00e0\u00a4\u00b0\u00e0\u00a5\u012d\u00e0\u00a4\u0139\u00e0\u00a5\u012f\u00e0\u00a4\u00b0\u00e0\u00a4\u00be\u00e0\u00a4\u00ae\u00e0\u00a4\u00bf\u00e0\u00a4\u0124\u00e0\u00a4\u0139": 1549,
  "\u0120\u00e0\u00a4\u00b2\u00e0\u00a4\u00be\u00e0\u00a4\u0139": 1550,
  "\u00e0\u00a4\u013c\u00e0\u00a4\u00be\u00e0\u00a4\u00a8": 1551,
  "ity": 1552,
  "\u00e0\u00a4\u0137\u00e0\u00a5\u012f\u00e0\u00a4\u00a4\u00e0\u00a4\u00bf": 1553,
  "\u00e0\u00a4\u00bf\u00e0\u00a4\u00b8\u00e0\u00a5\u012f\u00e0\u00a4\u00a4": 1554,
  "\u0120\u00e0\u00a4\u0139\u00e0\u00a4\u00be\u00e0\u00a4\u0123\u00e0\u00a4\u00b5": 1555,
  "ld": 1556,
  "\u00e0\u00a5\u0123\u00e0\u00a4\u0139": 1557,
  "\u0120\u00e0\u00a4\u0137\u00e0\u00a4\u00a1\u00e0\u00a4\u00bc\u00e0\u00a4\u00bf\u00e0\u00a4\u00af\u00e0\u00a4\u00be\u00e0\u00a4\u0123": 1558,
  "\u00e0\u00a4\u0137\u00e0\u00a4\u00b0\u00e0\u00a5\u012f\u00e0\u00a4\u00a4\u00e0\u00a4\u00be": 1559,
  "\u0120\u00e0\u00a4\u00b5\u00e0\u00a5\u012f\u00e0\u00a4\u00af\u00e0\u00a4\u00be\u00e0\u00a4\u00aa": 1560,
  "\u0120su": 1561,
  "\u0120\u00e0\u00a4\u0127\u00e0\u00a4\u00ae\u00e0\u00a5\u0129\u00e0\u00a4\u00b0\u00e0\u00a4\u00bf\u00e0\u00a4\u0137\u00e0\u00a4\u00be": 1562,
  "\u00e0\u00a4\u00bf\u00e0\u00a4\u00b7\u00e0\u00a5\u012f\u00e0\u00a4\u0137": 1563,
  "\u0120\u00e0\u00a4\u00ac\u00e0\u00a4\u00a1\u00e0\u00a4\u00bc\u00e0\u00a5\u0129": 1564,
  "\u0120\u00e0\u00a4\u00b8\u00e0\u00a4\u0124\u00e0\u00a4\u013a": 1565,
  "\u00e0\u00a4\u00be\u00e0\u00a4\u00b5\u00e0\u00a4\u00b0\u00e0\u00a4\u00a3": 1566,
  "\u00e0\u00a4\u0137\u00e0\u00a4\u00be\u00e0\u00a4\u00b2": 1567,
  "\u00e0\u00a4\u0131\u00e0\u00a4\u00b8": 1568,
  "\u0120N": 1569,
  "\u0120\u00e0\u00a4\u00b8\u00e0\u00a5\u012f\u00e0\u00a4\u0137\u00e0\u00a5\u0124\u00e0\u00a4\u00b2": 1570,
  "\u0120\u00e0\u00a4\u00b8\u00e0\u00a4\u00be\u00e0\u00a4\u00ae\u00e0\u00a4\u00be\u00e0\u00a4\u00a8\u00e0\u00a5\u012f\u00e0\u00a4\u00af": 1571,
  "\u0120\u00e0\u00a4\u00b8\u00e0\u00a4\u0124\u00e0\u00a4\u00b8\u00e0\u00a5\u012f\u00e0\u00a4\u0137": 1572,
  "\u00e0\u00a5\u0129\u00e0\u00a4\u00af\u00e0\u00a4\u00b0": 1573,
  "ive": 1574,
  "\u00e0\u00a4\u00bf\u00e0\u00a4\u00a8\u00e0\u00a4\u00be": 1575,
  "\u00e0\u00a4\u00b7\u00e0\u00a4\u00a3": 1576,
  "\u00e0\u00a5\u012f\u00e0\u00a4\u00ab": 1577,
  "\u00e0\u00a4\u00be\u00e0\u00a4\u00a4\u00e0\u00a5\u0122": 1578,
  "000": 1579,
  "\u00e0\u00a4\u0141\u00e0\u00a5\u0122": 1580,
  "\u0120\u00e0\u00a4\u00aa\u00e0\u00a5\u012f\u00e0\u00a4\u00b2": 1581,
  "\u0120\u00e0\u00a4\u00b2\u00e0\u00a4\u00a1\u00e0\u00a4\u00bc": 1582,
  "ci": 1583,
  "\u0120\u00e0\u00a4\u00b8\u00e0\u00a4\u0124\u00e0\u00a4\u0139": 1584,
  "\u0120\u00e0\u00a4\u0129\u00e0\u00a4\u00a4\u00e0\u00a4\u00bf\u00e0\u00a4\u00b9\u00e0\u00a4\u00be\u00e0\u00a4\u00b8": 1585,
  "\u00e0\u00a5\u0123\u00e0\u00a4\u0135\u00e0\u00a4\u0124": 1586,
  "\u0120\u00e0\u00a4\u00b5\u00e0\u00a4\u00bf\u00e0\u00a4\u013c\u00e0\u00a4\u00be\u00e0\u00a4\u00b0": 1587,
  "\u00e0\u00a5\u0129\u00e0\u00a4\u00b0\u00e0\u00a5\u0122": 1588,
  "\u0120\u00e0\u00a4\u013e\u00e0\u00a4\u00bf\u00e0\u00a4\u00b8\u00e0\u00a4\u00b8\u00e0\u00a5\u0129": 1589,
  "\u0120\u00e0\u00a4\u0129\u00e0\u00a4\u00b8\u00e0\u00a4\u00ae\u00e0\u00a5\u0129\u00e0\u00a4\u0124": 1590,
  "\u0120\u00e0\u00a4\u00b0\u00e0\u00a5\u012d\u00e0\u00a4\u0139": 1591,
  "\u0120\u00e0\u00a4\u00aa\u00e0\u00a4\u00be\u00e0\u00a4\u0142": 1592,
  "\u0120\u00e0\u00a4\u00a6\u00e0\u00a4\u00b0": 1593,
  "\u00e0\u00a5\u0129\u00e0\u00a4\u013e\u00e0\u00a5\u0122": 1594,
  "\u0120\u00e0\u00a4\u0137\u00e0\u00a4\u0143\u00e0\u00a5\u0122": 1595,
  "\u0120\u00e0\u00a4\u00ac\u00e0\u00a5\u0129\u00e0\u00a4\u00b9": 1596,
  "\u0120\u00e0\u00a4\u0127\u00e0\u00a4\u00a8\u00e0\u00a5\u0123\u00e0\u00a4\u0143": 1597,
  "\u0120W": 1598,
  "\u00e0\u00a4\u00bf\u00e0\u00a4\u00ae\u00e0\u00a4\u00be\u00e0\u00a4\u00a8": 1599,
  "\u0120\u00e0\u00a4\u012c\u00e0\u00a4\u00b0\u00e0\u00a5\u012f\u00e0\u00a4\u013e\u00e0\u00a4\u00be": 1600,
  "\u0120F": 1601,
  "age": 1602,
  "\u0120\u00e0\u00a4\u012b\u00e0\u00a4\u00a4\u00e0\u00a5\u012f\u00e0\u00a4\u00aa\u00e0\u00a4\u00a8\u00e0\u00a5\u012f\u00e0\u00a4\u00a8": 1603,
  "\u00e0\u00a4\u00a4\u00e0\u00a4\u0125": 1604,
  "\u0120\u00e0\u00a4\u00b2\u00e0\u00a5\u012d\u00e0\u00a4\u0137": 1605,
  "\u0120\u00e0\u00a4\u0127\u00e0\u00a4\u00aa\u00e0\u00a4\u00a8\u00e0\u00a4\u00be": 1606,
  "\u0120ch": 1607,
  "\u0120\u00e0\u00a4\u013c\u00e0\u00a5\u0123": 1608,
  "pt": 1609,
  "\u0120\u00e0\u00a4\u0129\u00e0\u00a4\u00b2": 1610,
  "\u00e0\u00a5\u0129\u00e0\u00a4\u00b8\u00e0\u00a5\u012f\u00e0\u00a4\u0141": 1611,
  "\u0120\u00e0\u00a4\u00aa\u00e0\u00a4\u00a2\u00e0\u00a4\u00bc": 1612,
  "\u00e0\u00a4\u00be\u00e0\u00a4\u00b9\u00e0\u00a4\u00b0": 1613,
  "\u0120\u00e0\u00a4\u00ac\u00e0\u00a4\u00b2": 1614,
  "\u0120\u00e0\u00a4\u00aa\u00e0\u00a4\u00b9\u00e0\u00a5\u0123": 1615,
  "\u00e0\u00a5\u0124\u00e0\u00a4\u00a6": 1616,
  "system": 1617,
  "\u0120G": 1618,
  "\u00e0\u00a5\u0122\u00e0\u00a4\u0137\u00e0\u00a4\u00b0\u00e0\u00a4\u00a3": 1619,
  "\u0120\u00e0\u00a4\u00b5\u00e0\u00a5\u0129\u00e0\u00a4\u00ac\u00e0\u00a4\u00b8\u00e0\u00a4\u00be\u00e0\u00a4\u0129\u00e0\u00a4\u0141": 1620,
  "\u00e0\u00a5\u0124\u00e0\u00a4\u00b8": 1621,
  "\u0120\u00e0\u00a4\u013e\u00e0\u00a4\u00bf\u00e0\u00a4\u00a8\u00e0\u00a5\u012f\u00e0\u00a4\u00b9": 1622,
  "\u0120or": 1623,
  "ine": 1624,
  "\u0120\u00e0\u00a4\u00aa\u00e0\u00a4\u00b9\u00e0\u00a5\u0123\u00e0\u00a4\u0124\u00e0\u00a4\u013c": 1625,
  "\u0120\u00e0\u00a4\u012b\u00e0\u00a4\u00aa\u00e0\u00a4\u0137\u00e0\u00a4\u00b0\u00e0\u00a4\u00a3": 1626,
  "\u00e0\u00a4\u0124\u00e0\u00a4\u00a6\u00e0\u00a4\u00b0": 1627,
  "\u0120\u00e0\u00a4\u00aa\u00e0\u00a4\u00b0\u00e0\u00a4\u00bf\u00e0\u00a4\u00b5\u00e0\u00a4\u00b0\u00e0\u00a5\u012f\u00e0\u00a4\u00a4": 1628,
  "\u0120\u00e0\u00a4\u00b5\u00e0\u00a4\u00bf\u00e0\u00a4\u00b8\u00e0\u00a5\u012f\u00e0\u00a4\u00a4\u00e0\u00a5\u0125\u00e0\u00a4\u00a4": 1629,
  "end": 1630,
  "\u00e0\u00a4\u013e\u00e0\u00a4\u00ac": 1631,
  "\u0120\u00e0\u00a4\u00b8\u00e0\u00a4\u00b9\u00e0\u00a5\u0122": 1632,
  "\u0120\u00e0\u00a4\u00b5\u00e0\u00a4\u00b0\u00e0\u00a5\u012f\u00e0\u00a4\u00a3": 1633,
  "\u0120\u00e0\u00a4\u00b5\u00e0\u00a4\u00bf\u00e0\u00a4\u0137\u00e0\u00a4\u00b2\u00e0\u00a5\u012f\u00e0\u00a4\u00aa": 1634,
  "\u0120\u00e0\u00a4\u0128\u00e0\u00a4\u013e": 1635,
  "ore": 1636,
  "\u0120\u00e0\u00a4\u00b9\u00e0\u00a5\u012d\u00e0\u00a4\u0139\u00e0\u00a5\u0122": 1637,
  "\u00e0\u00a4\u00b2\u00e0\u00a4\u0139": 1638,
  "\u00e0\u00a5\u0129\u00e0\u00a4\u00aa": 1639,
  "\u00e0\u00a4\u00be\u00e0\u00a4\u00ae\u00e0\u00a5\u0122": 1640,
  "\u00e0\u00a4\u00be\u00e0\u00a4\u00a1\u00e0\u00a4\u00bc\u00e0\u00a5\u0122": 1641,
  "\u0120\u00e0\u00a4\u00b5\u00e0\u00a4\u00bf\u00e0\u00a4\u00b7\u00e0\u00a4\u00af": 1642,
  "\u00e0\u00a4\u00b8\u00e0\u00a4\u0124\u00e0\u00a4\u00a6": 1643,
  "\u00e0\u00a4\u0143\u00e0\u00a4\u00be\u00e0\u00a4\u00b0": 1644,
  "\u0120\u00e0\u00a4\u0129\u00e0\u00a4\u00b8\u00e0\u00a4\u00b8\u00e0\u00a5\u0129": 1645,
  "\u0120\u00e0\u00a4\u00a8\u00e0\u00a4\u00bf\u00e0\u00a4\u00b0\u00e0\u00a5\u012f\u00e0\u00a4\u00a6": 1646,
  "\u0120\u00e0\u00a4\u0128\u00e0\u00a4\u0137": 1647,
  "\u0120\u00e0\u00a4\u00ae\u00e0\u00a4\u00be\u00e0\u00a4\u00a8\u00e0\u00a4\u00b5": 1648,
  "17": 1649,
  "\u00e0\u00a5\u0129\u00e0\u00a4\u00b5": 1650,
  "\u00e0\u00a4\u00b8\u00e0\u00a4\u00bf\u00e0\u00a4\u00a4": 1651,
  "\u0120\u00e0\u00a4\u00aa\u00e0\u00a5\u012f\u00e0\u00a4\u00b0\u00e0\u00a4\u00af\u00e0\u00a5\u012d\u00e0\u00a4\u0139": 1652,
  "\u00e0\u00a5\u0129\u00e0\u00a4\u0137\u00e0\u00a5\u012f\u00e0\u00a4\u00b8": 1653,
  "\u00e0\u00a5\u0129\u00e0\u00a4\u0137\u00e0\u00a5\u012f\u00e0\u00a4\u0141": 1654,
  "\u00e0\u00a4\u013e\u00e0\u00a5\u012f\u00e0\u00a4\u0140\u00e0\u00a4\u00be\u00e0\u00a4\u00a8\u00e0\u00a4\u00bf\u00e0\u00a4\u0137": 1655,
  "\u0120\u00e0\u00a4\u0139\u00e0\u00a5\u0123\u00e0\u00a4\u00a3": 1656,
  "\u00e0\u00a4\u00be\u00e0\u00a4\u00a8\u00e0\u00a5\u012d\u00e0\u00a4\u0124": 1657,
  "\u00e0\u00a4\u0137\u00e0\u00a5\u012d\u00e0\u00a4\u00a1": 1658,
  "\u00e0\u00a5\u0125\u00e0\u00a4\u00a4\u00e0\u00a5\u012f\u00e0\u00a4\u00af": 1659,
  "\u0120\u00e0\u00a4\u00aa\u00e0\u00a5\u012f\u00e0\u00a4\u00b0\u00e0\u00a4\u00b8": 1660,
  "ex": 1661,
  "ple": 1662,
  "\u00e0\u00a4\u00b6\u00e0\u00a5\u012f\u00e0\u00a4\u013c\u00e0\u00a4\u00bf\u00e0\u00a4\u00ae": 1663,
  "\u0120\u00e0\u00a4\u00ae\u00e0\u00a5\u012b\u00e0\u00a4\u00a1": 1664,
  "ac": 1665,
  "\u0120\u00e0\u00a4\u0137\u00e0\u00a4\u00aa": 1666,
  "\u00e0\u00a4\u013c\u00e0\u00a4\u00bf\u00e0\u00a4\u00a4": 1667,
  "\u0120\u00e0\u00a4\u00aa\u00e0\u00a5\u0123\u00e0\u00a4\u00b8\u00e0\u00a5\u012f\u00e0\u00a4\u00a4": 1668,
  "\u0120\u00e0\u00a4\u00ac\u00e0\u00a4\u013c\u00e0\u00a5\u012f\u00e0\u00a4\u013c\u00e0\u00a5\u012d\u00e0\u00a4\u0124": 1669,
  "\u0120\u00e0\u00a4\u00b9\u00e0\u00a4\u00ae\u00e0\u00a4\u00be\u00e0\u00a4\u00b0\u00e0\u00a5\u0129": 1670,
  "\u0120\u00e0\u00a4\u00a4\u00e0\u00a4\u00ac": 1671,
  "\u00e0\u00a4\u013e\u00e0\u00a4\u00b0": 1672,
  "ame": 1673,
  "\u0120\u00e0\u00a4\u013c\u00e0\u00a4\u00bf\u00e0\u00a4\u0137\u00e0\u00a4\u00bf\u00e0\u00a4\u00a4": 1674,
  "\u0120\u00e0\u00a4\u0137\u00e0\u00a4\u00be\u00e0\u00a4\u00b0\u00e0\u00a5\u012f\u00e0\u00a4\u00af\u00e0\u00a4\u0137\u00e0\u00a5\u012f\u00e0\u00a4\u00b0\u00e0\u00a4\u00ae": 1675,
  "\u00e0\u00a5\u0125\u00e0\u00a4\u00b7\u00e0\u00a5\u012f\u00e0\u00a4\u0142": 1676,
  "\u0120\u00e0\u00a4\u00a8\u00e0\u00a5\u0122\u00e0\u00a4\u013c\u00e0\u00a5\u0129": 1677,
  "\u00e0\u00a4\u00be\u00e0\u00a4\u0124\u00e0\u00a4\u0137\u00e0\u00a4\u00bf": 1678,
  "\u00e0\u00a4\u00b8\u00e0\u00a5\u012f\u00e0\u00a4\u00a5\u00e0\u00a4\u00be": 1679,
  "\u00e0\u00a4\u00be\u00e0\u00a4\u00b8\u00e0\u00a4\u00a8": 1680,
  "\u00e0\u00a4\u0139\u00e0\u00a5\u012f\u00e0\u00a4\u00b0\u00e0\u00a5\u0122": 1681,
  "</": 1682,
  "\u00e0\u00a4\u00b5\u00e0\u00a4\u00bf\u00e0\u00a4\u00a6\u00e0\u00a5\u012f\u00e0\u00a4\u00af\u00e0\u00a4\u00be\u00e0\u00a4\u00b2\u00e0\u00a4\u00af": 1683,
  "\u0120\u00e0\u00a4\u00b0\u00e0\u00a4\u00be\u00e0\u00a4\u00b7\u00e0\u00a5\u012f\u00e0\u00a4\u0141\u00e0\u00a5\u012f\u00e0\u00a4\u00b0": 1684,
  "\u0120T": 1685,
  "30": 1686,
  "\u0120\u00e0\u00a4\u00b8\u00e0\u00a4\u00ae\u00e0\u00a5\u012f\u00e0\u00a4\u00ae": 1687,
  "50": 1688,
  "and": 1689,
  "\u0120\u00e0\u00a4\u012b\u00e0\u00a4\u00a8\u00e0\u00a4\u0137\u00e0\u00a4\u00be": 1690,
  "\u00e0\u00a4\u013e\u00e0\u00a5\u012f\u00e0\u00a4\u0140": 1691,
  "ence": 1692,
  "\u00af\u00e0\u00a5": 1693,
  "\u0120\u00e0\u00a4\u00a6\u00e0\u00a5\u0124\u00e0\u00a4\u00b8\u00e0\u00a4\u00b0\u00e0\u00a5\u0129": 1694,
  "\u0120\u00e0\u00a4\u00ae\u00e0\u00a4\u00a4": 1695,
  "\u00e0\u00a4\u00be\u00e0\u00a4\u00b2\u00e0\u00a4\u00a8": 1696,
  "\u00e0\u00a5\u012d\u00e0\u00a4\u00b0\u00e0\u00a5\u012f\u00e0\u00a4\u0141": 1697,
  "\u00e0\u00a4\u0128\u00e0\u00a4\u00b0": 1698,
  "\u0120\u00e0\u00a4\u0137\u00e0\u00a5\u0123\u00e0\u00a4\u00b2": 1699,
  "\u00e0\u00a5\u0124\u00e0\u00a4\u0141": 1700,
  "\u00e0\u00a4\u00bf\u00e0\u00a4\u00af\u00e0\u00a4\u00be\u00e0\u00a4\u0124": 1701,
  "pe": 1702,
  "\u00e0\u00a4\u00b0\u00e0\u00a4\u00be\u00e0\u00a4\u00ac": 1703,
  "\u00e0\u00a4\u00b5\u00e0\u00a4\u00bf\u00e0\u00a4\u00a7": 1704,
  "\u0120\u00e0\u00a4\u0139\u00e0\u00a4\u00a4": 1705,
  "\u0120\u00e0\u00a4\u00b2\u00e0\u00a5\u0122": 1706,
  "\u0120\u00e0\u00a4\u00b5\u00e0\u00a4\u00bf\u00e0\u00a4\u0137\u00e0\u00a4\u00b8\u00e0\u00a4\u00bf\u00e0\u00a4\u00a4": 1707,
  "\u0120\u00e0\u00a4\u00ac\u00e0\u00a5\u0123\u00e0\u00a4\u00a6\u00e0\u00a5\u012f\u00e0\u00a4\u00a7\u00e0\u00a4\u00bf\u00e0\u00a4\u00ae\u00e0\u00a4\u00be\u00e0\u00a4\u00a8": 1708,
  "\u0120\u00e0\u00a4\u00b5\u00e0\u00a4\u00b8\u00e0\u00a5\u012f\u00e0\u00a4\u00a4": 1709,
  "\u00e0\u00a4\u00be\u00e0\u00a4\u0124\u00e0\u00a4\u00a1": 1710,
  "\u0120\u00e0\u00a4\u00a8\u00e0\u00a4\u00b5": 1711,
  "\u0120\u00e0\u00a4\u0137\u00e0\u00a4\u00be\u00e0\u00a4\u00b2": 1712,
  "\u0120\u00e0\u00a4\u0133\u00e0\u00a4\u00ab": 1713,
  "\u0120\u00e0\u00a4\u00b5\u00e0\u00a4\u00bf\u00e0\u00a4\u00b5\u00e0\u00a4\u00b0\u00e0\u00a4\u00a3": 1714,
  "\u0120sh": 1715,
  "\u0120\u00e0\u00a4\u00b6\u00e0\u00a4\u00bf\u00e0\u00a4\u0137\u00e0\u00a5\u012f\u00e0\u00a4\u00b7\u00e0\u00a4\u00be": 1716,
  "\u00e0\u00a4\u00b5\u00e0\u00a4\u00b0\u00e0\u00a5\u0122": 1717,
  "\u0120\u00e0\u00a4\u00a6\u00e0\u00a5\u0124\u00e0\u00a4\u00b0": 1718,
  "16": 1719,
  "\u0120\u00e0\u00a4\u00b8\u00e0\u00a4\u0124\u00e0\u00a4\u00af\u00e0\u00a5\u0123\u00e0\u00a4\u0137\u00e0\u00a5\u012f\u00e0\u00a4\u00a4": 1720,
  "',": 1721,
  "\u0120\u00e0\u00a4\u00b8\u00e0\u00a4\u0124\u00e0\u00a4\u00a6\u00e0\u00a4\u00b0\u00e0\u00a5\u012f\u00e0\u00a4\u0143": 1722,
  "\u0120\u00e0\u00a4\u00a8\u00e0\u00a4\u00bf\u00e0\u00a4\u00b5": 1723,
  "\u00e0\u00a5\u012f\u00e0\u00a4\u00b2\u00e0\u00a5\u0122": 1724,
  "\u0120\u00e0\u00a4\u00b5\u00e0\u00a4\u00bf\u00e0\u00a4\u00b6\u00e0\u00a5\u012f\u00e0\u00a4\u00b5\u00e0\u00a4\u00b5\u00e0\u00a4\u00bf\u00e0\u00a4\u00a6\u00e0\u00a5\u012f\u00e0\u00a4\u00af\u00e0\u00a4\u00be\u00e0\u00a4\u00b2\u00e0\u00a4\u00af": 1725,
  "\u0120\u00e0\u00a4\u00af\u00e0\u00a5\u0123\u00e0\u00a4\u00a6\u00e0\u00a5\u012f\u00e0\u00a4\u00a7": 1726,
  "\u00e0\u00a4\u0128\u00e0\u00a4\u012a": 1727,
  "\u0120\u00e0\u00a4\u00aa\u00e0\u00a5\u012f\u00e0\u00a4\u00b0\u00e0\u00a4\u00a4\u00e0\u00a4\u00bf": 1728,
  "\u00e0\u00a4\u00b8\u00e0\u00a4\u00ae\u00e0\u00a4\u00b8\u00e0\u00a5\u012f\u00e0\u00a4\u00af\u00e0\u00a4\u00be": 1729,
  "\u0120\u00e0\u00a4\u00ac\u00e0\u00a4\u00be\u00e0\u00a4\u00b9\u00e0\u00a4\u00b0": 1730,
  "ure": 1731,
  "\u0120\u00e0\u00a4\u00b8\u00e0\u00a4\u0124\u00e0\u00a4\u00b8": 1732,
  "\u0120\u00e0\u00a4\u00aa\u00e0\u00a5\u012f\u00e0\u00a4\u00b0\u00e0\u00a4\u00a4\u00e0\u00a4\u00bf\u00e0\u00a4\u00b6": 1733,
  "\u00e0\u00a4\u00bf\u00e0\u00a4\u00af\u00e0\u00a5\u0129": 1734,
  "\u0120\u00e0\u00a4\u00b6\u00e0\u00a5\u012d\u00e0\u00a4\u00a7": 1735,
  "\u0120\u00e0\u00a4\u00b5\u00e0\u00a4\u00b0\u00e0\u00a5\u012f\u00e0\u00a4\u00a4": 1736,
  "\u0120\u00e0\u00a4\u00aa\u00e0\u00a4\u00b9\u00e0\u00a4\u013c\u00e0\u00a4\u00be\u00e0\u00a4\u00a8": 1737,
  "\u0120\u00e0\u00a4\u00aa\u00e0\u00a5\u0123\u00e0\u00a4\u00b2": 1738,
  "ag": 1739,
  "\u0120\u00e0\u00a4\u00b8\u00e0\u00a4\u00a4": 1740,
  "\u0120\u00e0\u00a4\u00b5\u00e0\u00a4\u00bf\u00e0\u00a4\u00a8\u00e0\u00a4\u00ae\u00e0\u00a5\u012f\u00e0\u00a4\u00b0": 1741,
  "\u00e0\u00a4\u00a8\u00e0\u00a5\u012f\u00e0\u00a4\u00af": 1742,
  "ill": 1743,
  "\u0120\u00e0\u00a4\u00a8\u00e0\u00a4\u00bf\u00e0\u00a4\u00b0\u00e0\u00a5\u012f\u00e0\u00a4\u00a7\u00e0\u00a4\u00be\u00e0\u00a4\u00b0": 1744,
  ")\u00e0\u00a5\u00a4": 1745,
  "\u0120\u00e0\u00a4\u00aa\u00e0\u00a5\u012f\u00e0\u00a4\u00b0\u00e0\u00a4\u00b8\u00e0\u00a5\u012f\u00e0\u00a4\u00a4": 1746,
  "\u00e0\u00a4\u00bf\u00e0\u00a4\u0124\u00e0\u00a4\u00a6": 1747,
  "\u0120\u00e0\u00a4\u013d\u00e0\u00a5\u012d\u00e0\u00a4\u0141\u00e0\u00a5\u0129": 1748,
  "\u0120\u00e0\u00a4\u0131\u00e0\u00a4\u0137\u00e0\u00a5\u012f\u00e0\u00a4\u00b8": 1749,
  "\u0120\u00e0\u00a4\u0137\u00e0\u00a5\u0123\u00e0\u00a4\u00ae": 1750,
  "act": 1751,
  "\u00e0\u00a5\u0122\u00e0\u00a4\u00a6": 1752,
  "\u0120\u00e0\u00a4\u00aa\u00e0\u00a5\u012f\u00e0\u00a4\u00b0\u00e0\u00a4\u00a4\u00e0\u00a4\u00bf\u00e0\u00a4\u00b6\u00e0\u00a4\u00a4": 1753,
  "\u0120\u00e0\u00a4\u013e\u00e0\u00a4\u00b5\u00e0\u00a4\u00be\u00e0\u00a4\u00ac": 1754,
  "\u0120\u00e0\u00a4\u00b6\u00e0\u00a5\u0123\u00e0\u00a4\u00b0\u00e0\u00a5\u0123\u00e0\u00a4\u0128": 1755,
  "\u0120\u00e0\u00a4\u0128\u00e0\u00a4\u00a6\u00e0\u00a4\u00bf": 1756,
  "\u0120\u00e0\u00a4\u0143\u00e0\u00a4\u00b5": 1757,
  "\u0120are": 1758,
  "\u0120\u00e0\u00a4\u00aa\u00e0\u00a5\u012f\u00e0\u00a4\u00b0\u00e0\u00a4\u0137\u00e0\u00a5\u012f\u00e0\u00a4\u00b0\u00e0\u00a4\u00bf\u00e0\u00a4\u00af\u00e0\u00a4\u00be": 1759,
  "\u0120\u00e0\u00a4\u00b9\u00e0\u00a5\u0124\u00e0\u00a4\u0124": 1760,
  "\u0120\u00e0\u00a4\u00b8\u00e0\u00a5\u012f\u00e0\u00a4\u00aa\u00e0\u00a4\u00b7\u00e0\u00a5\u012f\u00e0\u00a4\u0141": 1761,
  "\u0120E": 1762,
  "\u00e0\u00a4\u0129\u00e0\u00a4\u00a8\u00e0\u00a5\u012f\u00e0\u00a4\u00b9\u00e0\u00a5\u0129\u00e0\u00a4\u0124": 1763,
  "ain": 1764,
  "\u0120\u00e0\u00a4\u00aa\u00e0\u00a5\u0124\u00e0\u00a4\u00b0\u00e0\u00a4\u00be": 1765,
  "\u0120\u00e0\u00a4\u00aa\u00e0\u00a4\u00a4\u00e0\u00a5\u012f\u00e0\u00a4\u00b0": 1766,
  "\u0120\u00e0\u00a4\u00b2\u00e0\u00a4\u00be\u00e0\u00a4\u0143": 1767,
  "\u0120\u00e0\u00a4\u00aa\u00e0\u00a4\u00b0\u00e0\u00a4\u00bf\u00e0\u00a4\u00b5\u00e0\u00a4\u00be\u00e0\u00a4\u00b0": 1768,
  "\u00e0\u00a4\u00b8\u00e0\u00a5\u012f\u00e0\u00a4\u00aa": 1769,
  "\u00e0\u00a4\u0139\u00e0\u00a5\u0122\u00e0\u00a4\u00a4": 1770,
  "```": 1771,
  "\u00e0\u00a4\u00bf\u00e0\u00a4\u013d": 1772,
  "\u0120\u00e0\u00a4\u00b8\u00e0\u00a5\u0129\u00e0\u00a4\u00b5\u00e0\u00a4\u00be": 1773,
  "\u0120\u00e0\u00a4\u00aa\u00e0\u00a5\u0124\u00e0\u00a4\u00b0\u00e0\u00a5\u0122": 1774,
  "\u00e0\u00a4\u00b0\u00e0\u00a5\u012d\u00e0\u00a4\u0124": 1775,
  "\u0120\u00e0\u00a4\u0137\u00e0\u00a4\u0124\u00e0\u00a4\u00aa\u00e0\u00a4\u00a8\u00e0\u00a5\u0122": 1776,
  "\u0120\u00e0\u00a4\u0137\u00e0\u00a5\u012b\u00e0\u00a4\u00b2": 1777,
  "\u0120\u00e0\u00a4\u00b8\u00e0\u00a4\u00ab\u00e0\u00a4\u00b2": 1778,
  "\u0120\u00e0\u00a4\u0143\u00e0\u00a4\u00be\u00e0\u00a4\u00b5": 1779,
  "\u00e0\u00a5\u0125\u00e0\u00a4\u00a6\u00e0\u00a5\u012f\u00e0\u00a4\u00a7": 1780,
  "\u0120im": 1781,
  "\u0120\u00e0\u00a4\u0127\u00e0\u00a4\u00a8\u00e0\u00a5\u0123\u00e0\u00a4\u0143\u00e0\u00a4\u00b5": 1782,
  "\u0120L": 1783,
  "\u00e0\u00a4\u00be\u00e0\u00a4\u0137\u00e0\u00a4\u00b0": 1784,
  "\u0120\u00e0\u00a4\u0137\u00e0\u00a5\u012e\u00e0\u00a4\u00a8": 1785,
  "\u0120\u00e0\u00a4\u00b6\u00e0\u00a5\u0122\u00e0\u00a4\u00b0\u00e0\u00a5\u012f\u00e0\u00a4\u00b7": 1786,
  "\u0120\u00e0\u00a4\u0127\u00e0\u00a4\u00ae\u00e0\u00a5\u0129\u00e0\u00a4\u00b0\u00e0\u00a4\u00bf\u00e0\u00a4\u0137\u00e0\u00a5\u0122": 1787,
  "ies": 1788,
  "\u00e0\u00a4\u00bf\u00e0\u00a4\u00a4\u00e0\u00a5\u012f\u00e0\u00a4\u00b5": 1789,
  "//": 1790,
  "\u0120\u00e0\u00a4\u0129\u00e0\u00a4\u00b8\u00e0\u00a4\u0137\u00e0\u00a5\u0122": 1791,
  "\u0120le": 1792,
  "\u0120\u00e0\u00a4\u00a8\u00e0\u00a4\u00bf\u00e0\u00a4\u00af\u00e0\u00a4\u00ae": 1793,
  "\u0120\u00e0\u00a4\u00a8\u00e0\u00a4\u0139\u00e0\u00a4\u00b0": 1794,
  "\u0120\u00e0\u00a4\u013a\u00e0\u00a4\u0141": 1795,
  "\u0120\u00e0\u00a4\u00aa\u00e0\u00a5\u012f\u00e0\u00a4\u00b0\u00e0\u00a4\u00af": 1796,
  "\u0120\u00e0\u00a4\u00b8\u00e0\u00a5\u0123\u00e0\u00a4\u00b0\u00e0\u00a4\u0137\u00e0\u00a5\u012f\u00e0\u00a4\u00b7\u00e0\u00a4\u00be": 1797,
  "198": 1798,
  "\u0120\u00e0\u00a4\u00ae\u00e0\u00a5\u0129\u00e0\u00a4\u00b0": 1799,
  "\u00e0\u00a4\u00a8\u00e0\u00a5\u012f\u00e0\u00a4\u00b8": 1800,
  "\u00e0\u00a5\u012d\u00e0\u00a4\u00b5": 1801,
  "\u00e0\u00a4\u00b0\u00e0\u00a5\u0129": 1802,
  "est": 1803,
  "11": 1804,
  "\u0120\u00e0\u00a4\u0127\u00e0\u00a4\u013c\u00e0\u00a5\u012f\u00e0\u00a4\u013d\u00e0\u00a4\u00be": 1805,
  "\u0120\u00e0\u00a4\u00b5\u00e0\u00a4\u00bf\u00e0\u00a4\u00a4": 1806,
  "\u00e0\u00a5\u0129\u00e0\u00a4\u013e\u00e0\u00a4\u00bc": 1807,
  "\u0120\u00e0\u00a4\u00b9\u00e0\u00a4\u00b2": 1808,
  "\u0120\u00e0\u00a4\u013e\u00e0\u00a4\u0139": 1809,
  "\u0120\u00e0\u00a4\u012b\u00e0\u00a4\u00b8\u00e0\u00a4\u0137\u00e0\u00a5\u0122": 1810,
  "\u0120\u00e0\u00a4\u00aa\u00e0\u00a5\u012f\u00e0\u00a4\u00b0\u00e0\u00a4\u00a3\u00e0\u00a4\u00be\u00e0\u00a4\u00b2\u00e0\u00a5\u0122": 1811,
  "\u0120\u00e0\u00a4\u0137\u00e0\u00a5\u0125\u00e0\u00a4\u00b7": 1812,
  "\u00e0\u00a4\u00bf\u00e0\u00a4\u0137\u00e0\u00a5\u012f\u00e0\u00a4\u00b0": 1813,
  "\u0120\u00e0\u00a4\u00aa\u00e0\u00a5\u012e": 1814,
  "\u0120\u00e0\u00a4\u0139\u00e0\u00a4\u00bf\u00e0\u00a4\u00b0": 1815,
  "\u00e0\u00a4\u00ae\u00e0\u00a5\u012f\u00e0\u00a4\u00ac": 1816,
  "(\u00e0\u00a4\u013e": 1817,
  "\u0120\u00e0\u00a4\u00b6\u00e0\u00a5\u012a": 1818,
  "\u0120\u00e0\u00a4\u00b9\u00e0\u00a4\u00be\u00e0\u00a4\u00b2\u00e0\u00a4\u00be\u00e0\u00a4\u0124\u00e0\u00a4\u0137\u00e0\u00a4\u00bf": 1819,
  "\u0120\u00e0\u00a4\u00b8\u00e0\u00a4\u00be\u00e0\u00a4\u00ae\u00e0\u00a4\u0139\u00e0\u00a5\u012f\u00e0\u00a4\u00b0\u00e0\u00a5\u0122": 1820,
  "\u00e0\u00a4\u00ae\u00e0\u00a4\u00bf\u00e0\u00a4\u0137": 1821,
  "ud": 1822,
  "\u00e0\u00a4\u013e\u00e0\u00a4\u00be\u00e0\u00a4\u00a4": 1823,
  "\u0120\u00e0\u00a4\u00b8\u00e0\u00a4\u0124\u00e0\u00a4\u0139\u00e0\u00a5\u0122\u00e0\u00a4\u00a4": 1824,
  "\u00e0\u00a4\u00be\u00e0\u00a4\u00b7\u00e0\u00a5\u012f\u00e0\u00a4\u0141\u00e0\u00a5\u012f\u00e0\u00a4\u00b0\u00e0\u00a5\u0122\u00e0\u00a4\u00af": 1825,
  "\u00e0\u00a4\u00aa\u00e0\u00a5\u012f\u00e0\u00a4\u00b0\u00e0\u00a4\u00b6": 1826,
  "\u0120\u00e0\u00a4\u00aa\u00e0\u00a4\u00b9\u00e0\u00a4\u00b2\u00e0\u00a5\u0122": 1827,
  "\u0120\u00e0\u00a4\u00ac\u00e0\u00a4\u00a1\u00e0\u00a4\u00bc\u00e0\u00a5\u0122": 1828,
  "\u0120\u00e0\u00a4\u00b5\u00e0\u00a4\u00b0\u00e0\u00a5\u012f\u00e0\u00a4\u00a4\u00e0\u00a4\u00ae\u00e0\u00a4\u00be\u00e0\u00a4\u00a8": 1829,
  "\u0120\u00e0\u00a4\u0137\u00e0\u00a5\u012f\u00e0\u00a4\u00b7\u00e0\u00a4\u00ae": 1830,
  "\u0120\u00e0\u00a4\u00b8\u00e0\u00a5\u0129\u00e0\u00a4\u00b5": 1831,
  "\u00e0\u00a4\u00a4\u00e0\u00a5\u012d\u00e0\u00a4\u0124": 1832,
  "\u0120\u00e0\u00a4\u00a7\u00e0\u00a4\u00be\u00e0\u00a4\u00b0": 1833,
  "\u0120\u00e0\u00a4\u00b8\u00e0\u00a4\u00ae\u00e0\u00a4\u00b0\u00e0\u00a5\u012f\u00e0\u00a4\u00a5": 1834,
  "\u00e0\u00a4\u00be\u00e0\u00a4\u00af\u00e0\u00a5\u0123": 1835,
  "pl": 1836,
  "\u00e0\u00a4\u00b9\u00e0\u00a4\u00ae": 1837,
  "\u0120\u00e0\u00a4\u013c\u00e0\u00a5\u012e": 1838,
  "\u0120\u00e0\u00a4\u00a6\u00e0\u00a5\u0125\u00e0\u00a4\u00b7\u00e0\u00a5\u012f\u00e0\u00a4\u0141": 1839,
  "\u0120\u00e0\u00a4\u00aa\u00e0\u00a5\u0123\u00e0\u00a4\u00a8": 1840,
  "\u0120\u00e0\u00a4\u00a8\u00e0\u00a4\u00bf\u00e0\u00a4\u00af\u00e0\u00a4\u0124\u00e0\u00a4\u00a4\u00e0\u00a5\u012f\u00e0\u00a4\u00b0": 1841,
  "\u0120\u00e0\u00a4\u00a6\u00e0\u00a5\u0129\u00e0\u00a4\u00a4\u00e0\u00a5\u0129": 1842,
  "\u00e0\u00a4\u00a4\u00e0\u00a4\u00a8": 1843,
  "\u0120\u00e0\u00a4\u0128\u00e0\u00a4\u0139\u00e0\u00a5\u0129": 1844,
  "\u00e0\u00a5\u00a8\u00e0\u00a5\u00a6": 1845,
  "\u0120\u00e0\u00a4\u0127\u00e0\u00a4\u00a6": 1846,
  "\u0120\u00e0\u00a4\u0137\u00e0\u00a5\u012f\u00e0\u00a4\u00b7\u00e0\u00a5\u0129\u00e0\u00a4\u00a4\u00e0\u00a5\u012f\u00e0\u00a4\u00b0\u00e0\u00a5\u012d\u00e0\u00a4\u0124": 1847,
  "\u00e0\u00a4\u00ac\u00e0\u00a5\u012f\u00e0\u00a4\u00b2": 1848,
  "\u00e0\u00a5\u012f\u00e0\u00a4\u00af\u00e0\u00a4\u00be\u00e0\u00a4\u00a6": 1849,
  "\u0120\u00e0\u00a4\u0137\u00e0\u00a4\u00be\u00e0\u00a4\u00a8": 1850,
  "\u00e0\u00a4\u00be\u00e0\u00a4\u013e\u00e0\u00a4\u00bf\u00e0\u00a4\u0137": 1851,
  "\u00e0\u00a4\u0129\u00e0\u00a4\u00a8": 1852,
  "\u0120\u00e0\u00a4\u00ac\u00e0\u00a5\u012f\u00e0\u00a4\u00b2": 1853,
  "\u00e0\u00a4\u00b8\u00e0\u00a5\u012f\u00e0\u00a4\u00a5\u00e0\u00a4\u00be\u00e0\u00a4\u00a8": 1854,
  "\u00e0\u00a4\u00be\u00e0\u00a4\u00ab\u00e0\u00a5\u0122": 1855,
  "\u0120\u00e0\u00a4\u00a8\u00e0\u00a5\u012e": 1856,
  "ach": 1857,
  "\u00e0\u00a4\u00b0\u00e0\u00a5\u012f\u00e0\u00a4\u00ab": 1858,
  "\u00e0\u00a4\u0131\u00e0\u00a4\u00b2": 1859,
  "\u00e0\u00a4\u00b0\u00e0\u00a5\u0122\u00e0\u00a4\u00b0": 1860,
  "\u0120\u00e0\u00a4\u013e\u00e0\u00a4\u00b9\u00e0\u00a4\u00be\u00e0\u00a4\u0123": 1861,
  "\u0120\u00e0\u00a4\u00b8\u00e0\u00a5\u0123\u00e0\u00a4\u00a7\u00e0\u00a4\u00be\u00e0\u00a4\u00b0": 1862,
  "\u0120\u00e0\u00a4\u00ae\u00e0\u00a4\u00a7\u00e0\u00a5\u012f\u00e0\u00a4\u00af": 1863,
  "\u0120\u00e0\u00a4\u00aa\u00e0\u00a4\u00a1\u00e0\u00a4\u00bc": 1864,
  "\u00e0\u00a5\u0123\u00e0\u00a4\u00aa": 1865,
  "\u0120\u00e0\u00a4\u00aa\u00e0\u00a5\u0123\u00e0\u00a4\u00b0\u00e0\u00a4\u00b8\u00e0\u00a5\u012f\u00e0\u00a4\u0137": 1866,
  "\u0120\u00e0\u00a4\u013c\u00e0\u00a4\u00b0\u00e0\u00a4\u00a3": 1867,
  "\u00e0\u00a4\u0137\u00e0\u00a5\u012f\u00e0\u00a4\u00b8\u00e0\u00a4\u00b0": 1868,
  "\u0120\u00e0\u00a4\u00ac\u00e0\u00a4\u00bf\u00e0\u00a4\u00a8\u00e0\u00a4\u00be": 1869,
  "\u00e0\u00a4\u0124\u00e0\u00a4\u0141\u00e0\u00a4\u00b0": 1870,
  "\u00e0\u00a4\u00bf\u00e0\u00a4\u0137\u00e0\u00a5\u012d": 1871,
  "\u0120\u00e0\u00a4\u013e\u00e0\u00a4\u00be\u00e0\u00a4\u00b0\u00e0\u00a5\u0122": 1872,
  "(\"": 1873,
  "\u00e0\u00a5\u0125\u00e0\u00a4\u00aa": 1874,
  "\u0120\u00e0\u00a4\u00ac\u00e0\u00a4\u013c\u00e0\u00a5\u012f\u00e0\u00a4\u013c\u00e0\u00a5\u0129": 1875,
  "\u00e0\u00a4\u00a4\u00e0\u00a4\u0124\u00e0\u00a4\u00a4\u00e0\u00a5\u012f\u00e0\u00a4\u00b0": 1876,
  "14": 1877,
  "\u0120\u00e0\u00a4\u00aa\u00e0\u00a4\u00a6": 1878,
  "\u0120\u00e0\u00a4\u00b9\u00e0\u00a5\u012a\u00e0\u00a4\u0125": 1879,
  "\u0120\u00e0\u00a4\u0127\u00e0\u00a4\u0137": 1880,
  "\u0120\u00e0\u00a4\u00ae\u00e0\u00a5\u012b\u00e0\u00a4\u00a1\u00e0\u00a4\u00b2": 1881,
  "rom": 1882,
  "\u0120\u00e0\u00a4\u00b0\u00e0\u00a4\u0138\u00e0\u00a4\u00a8\u00e0\u00a5\u0129": 1883,
  "\u0120\u00e0\u00a4\u00b5\u00e0\u00a4\u00bf\u00e0\u00a4\u00b0": 1884,
  "\u0120\u00e0\u00a4\u00a4\u00e0\u00a4\u00be\u00e0\u00a4\u00b2": 1885,
  "art": 1886,
  "\u0120\u00e0\u00a4\u00b5\u00e0\u00a4\u00bf\u00e0\u00a4\u00b6\u00e0\u00a4\u00bf\u00e0\u00a4\u00b7\u00e0\u00a5\u012f\u00e0\u00a4\u0141": 1887,
  "\u0120\u00e0\u00a4\u0137\u00e0\u00a4\u00bf\u00e0\u00a4\u00a4": 1888,
  "\u00e0\u00a5\u0129\u00e0\u00a4\u0124\u00e0\u00a4\u00b8": 1889,
  "og": 1890,
  "\u0120\u00e0\u00a4\u0128\u00e0\u00a4\u00aa\u00e0\u00a4\u0137\u00e0\u00a5\u0122": 1891,
  "\u0120\u00e0\u00a4\u00b5\u00e0\u00a4\u00bf\u00e0\u00a4\u0143\u00e0\u00a4\u00be\u00e0\u00a4\u0139": 1892,
  "\u00e0\u00a4\u00be\u00e0\u00a4\u012c": 1893,
  "\u0120\u00e0\u00a4\u00b2\u00e0\u00a5\u0129\u00e0\u00a4\u00a8\u00e0\u00a5\u0129": 1894,
  "\u0120\u00e0\u00a4\u00ac\u00e0\u00a4\u00a8\u00e0\u00a4\u00be\u00e0\u00a4\u00af\u00e0\u00a4\u00be": 1895,
  "\u00e0\u00a5\u012b\u00e0\u00a4\u0141": 1896,
  "iz": 1897,
  "\u0120\u00e0\u00a4\u00aa\u00e0\u00a5\u0123\u00e0\u00a4\u00b8\u00e0\u00a5\u012f\u00e0\u00a4\u00a4\u00e0\u00a4\u0137": 1898,
  "\u0120\u00e0\u00a4\u0127\u00e0\u00a4\u0143\u00e0\u00a5\u0122": 1899,
  "\u0120\u00e0\u00a4\u00b8\u00e0\u00a4\u0124\u00e0\u00a4\u0139\u00e0\u00a4\u0142": 1900,
  "\u00e0\u00a4\u00b8\u00e0\u00a5\u012f\u00e0\u00a4\u0141\u00e0\u00a5\u012f\u00e0\u00a4\u00b0": 1901,
  "\u0120\u00e0\u00a4\u013e\u00e0\u00a4\u00be\u00e0\u00a4\u0124\u00e0\u00a4\u013c": 1902,
  "\u0120\u00e0\u00a4\u0139\u00e0\u00a5\u012f\u00e0\u00a4\u00b0\u00e0\u00a4\u00be\u00e0\u00a4\u00b9": 1903,
  "\u0120\u00e0\u00a4\u013d\u00e0\u00a5\u012d\u00e0\u00a4\u00a1\u00e0\u00a4\u00bc": 1904,
  "-\u00e0\u00a4\u00ac": 1905,
  "\u0120\u00e0\u00a4\u0128\u00e0\u00a4\u0137\u00e0\u00a4\u00be\u00e0\u00a4\u00b0": 1906,
  "\u0120we": 1907,
  "\u0120\u00e0\u00a4\u00b8\u00e0\u00a4\u00bf\u00e0\u00a4\u0124\u00e0\u00a4\u00b9": 1908,
  "-\u00e0\u00a4\u00ae": 1909,
  "\u0120\u00e0\u00a4\u00a8\u00e0\u00a4\u012a": 1910,
  "able": 1911,
  "\u0120\u00e0\u00a4\u00aa\u00e0\u00a5\u012f\u00e0\u00a4\u00b0\u00e0\u00a4\u00a6\u00e0\u00a4\u00b0\u00e0\u00a5\u012f\u00e0\u00a4\u00b6\u00e0\u00a4\u00a8": 1912,
  "ould": 1913,
  "\u00e0\u00a4\u00b5\u00e0\u00a5\u0122\u00e0\u00a4\u0124": 1914,
  "\u0120\u00e0\u00a4\u00aa\u00e0\u00a4\u00b0\u00e0\u00a5\u0122\u00e0\u00a4\u0137\u00e0\u00a5\u012f\u00e0\u00a4\u00b7\u00e0\u00a4\u00a3": 1915,
  "ust": 1916,
  "\u00e0\u00a5\u0129\u00e0\u00a4\u00a3": 1917,
  "\u0120\u00e0\u00a4\u00b8\u00e0\u00a4\u00ae\u00e0\u00a5\u0122": 1918,
  "\u0120\u00e0\u00a4\u00a8\u00e0\u00a5\u012f\u00e0\u00a4\u00af": 1919,
  "\u00e0\u00a4\u00bf\u00e0\u00a4\u00b8\u00e0\u00a5\u012f\u00e0\u00a4\u00a4\u00e0\u00a4\u00be\u00e0\u00a4\u00a8": 1920,
  "\u0120\u00e0\u00a4\u00af\u00e0\u00a5\u012d\u00e0\u00a4\u013e\u00e0\u00a4\u00a8\u00e0\u00a4\u00be": 1921,
  "\u0120\u00e0\u00a4\u0127\u00e0\u00a4\u013c\u00e0\u00a5\u012f\u00e0\u00a4\u013d\u00e0\u00a5\u0122": 1922,
  "\u00e0\u00a4\u00b0\u00e0\u00a4\u00be": 1923,
  "\u0120\u00e0\u00a4\u00ab\u00e0\u00a5\u012a": 1924,
  "\u0120\u00e0\u00a4\u00ac\u00e0\u00a4\u00a1\u00e0\u00a4\u00bc\u00e0\u00a4\u00be": 1925,
  "\u0120\u00e0\u00a4\u0127\u00e0\u00a4\u00a7\u00e0\u00a4\u00bf\u00e0\u00a4\u0137\u00e0\u00a4\u00be\u00e0\u00a4\u0124\u00e0\u00a4\u00b6": 1926,
  "\u0120\u00e0\u00a4\u0127\u00e0\u00a4\u0137\u00e0\u00a5\u012f\u00e0\u00a4\u00b8\u00e0\u00a4\u00b0": 1927,
  "\u0120In": 1928,
  "\u0120\u00e0\u00a4\u013e\u00e0\u00a4\u00bf\u00e0\u00a4\u00b8\u00e0\u00a4\u0137\u00e0\u00a4\u00be": 1929,
  "\u00e0\u00a4\u00b0\u00e0\u00a5\u012f\u00e0\u00a4\u0139\u00e0\u00a4\u00a4": 1930,
  "\u0120\u00e0\u00a4\u013c\u00e0\u00a4\u00be\u00e0\u00a4\u00b9\u00e0\u00a4\u00a4\u00e0\u00a5\u0129": 1931,
  "\u00e0\u00a4\u013c\u00e0\u00a4\u00a8": 1932,
  "\u00e0\u00a4\u0135": 1933,
  "\u0120\u00e0\u00a4\u00af\u00e0\u00a4\u00be\u00e0\u00a4\u00a6": 1934,
  "\u0120\u00e0\u00a4\u00a7\u00e0\u00a4\u00b0\u00e0\u00a5\u012f\u00e0\u00a4\u00ae": 1935,
  "-\u00e0\u00a4\u00b5": 1936,
  "\u0120\u00e0\u00a4\u00ac\u00e0\u00a5\u0129\u00e0\u00a4\u00b9\u00e0\u00a4\u00a4\u00e0\u00a4\u00b0": 1937,
  "\u00e0\u00a4\u0124\u00e0\u00a4\u00a4\u00e0\u00a5\u012f\u00e0\u00a4\u00b0\u00e0\u00a5\u0122": 1938,
  "\u0120\u00e0\u00a4\u00b6\u00e0\u00a4\u00b0\u00e0\u00a5\u0122\u00e0\u00a4\u00b0": 1939,
  "\u00e0\u00a4\u00ae\u00e0\u00a5\u012f\u00e0\u00a4\u00aa": 1940,
  "\u00e0\u00a4\u012b\u00e0\u00a4\u0141": 1941,
  "\u0120\u00e0\u00a4\u00aa\u00e0\u00a5\u012f\u00e0\u00a4\u00b0\u00e0\u00a4\u00af\u00e0\u00a4\u00be\u00e0\u00a4\u00b8": 1942,
  "\u00e0\u00a4\u00b0\u00e0\u00a4\u00b2": 1943,
  "ring": 1944,
  "\u00e0\u00a4\u00be\u00e0\u00a4\u00af\u00e0\u00a4\u00a6": 1945,
  "\u0120\u00e0\u00a4\u00aa\u00e0\u00a5\u012f\u00e0\u00a4\u00b0\u00e0\u00a4\u00be\u00e0\u00a4\u00b0": 1946,
  "\u0120\u00e0\u00a4\u00b8\u00e0\u00a4\u0124\u00e0\u00a4\u0139\u00e0\u00a5\u012f\u00e0\u00a4\u00b0\u00e0\u00a4\u00b9": 1947,
  "\u00e0\u00a4\u00aa\u00e0\u00a5\u012f\u00e0\u00a4\u00b0\u00e0\u00a4\u00b6\u00e0\u00a5\u012f\u00e0\u00a4\u00a8": 1948,
  "\u00e0\u00a4\u00b8\u00e0\u00a5\u012f\u00e0\u00a4\u00a5\u00e0\u00a4\u00bf\u00e0\u00a4\u00a4": 1949,
  "\u0120\u00e0\u00a4\u012b\u00e0\u00a4\u00a4\u00e0\u00a5\u012f\u00e0\u00a4\u00aa\u00e0\u00a4\u00be\u00e0\u00a4\u00a6\u00e0\u00a4\u00a8": 1950,
  "\u0120\u00e0\u00a4\u00aa\u00e0\u00a5\u012f\u00e0\u00a4\u00b0\u00e0\u00a4\u0143\u00e0\u00a4\u00be\u00e0\u00a4\u00b5\u00e0\u00a4\u00bf\u00e0\u00a4\u00a4": 1951,
  "\u0120\u00e0\u00a4\u00a6\u00e0\u00a4\u00b6": 1952,
  "ction": 1953,
  "\u0120\u00e0\u00a4\u00b2\u00e0\u00a5\u0129\u00e0\u00a4\u0137\u00e0\u00a4\u00b0": 1954,
  "\u0120\u00e0\u00a4\u00ae\u00e0\u00a4\u00b9\u00e0\u00a4\u00bf\u00e0\u00a4\u00b2\u00e0\u00a4\u00be": 1955,
  "\u0120en": 1956,
  "\u00e0\u00a4\u00bf\u00e0\u00a4\u00b5\u00e0\u00a4\u00bf\u00e0\u00a4\u00a7": 1957,
  "\u0120\u00e0\u00a4\u00b5\u00e0\u00a4\u00be\u00e0\u00a4\u00b8\u00e0\u00a5\u012f\u00e0\u00a4\u00a4\u00e0\u00a4\u00b5": 1958,
  "\u0120\u00e0\u00a4\u0127\u00e0\u00a4\u00b0": 1959,
  "\u00e0\u00a4\u00a8\u00e0\u00a5\u0122\u00e0\u00a4\u00af": 1960,
  "\u0120\u00e0\u00a4\u00aa\u00e0\u00a4\u00bf\u00e0\u00a4\u013d": 1961,
  "\u0120\u00e0\u00a4\u00a4\u00e0\u00a4\u00b0\u00e0\u00a5\u0122\u00e0\u00a4\u0137\u00e0\u00a5\u0129": 1962,
  "()": 1963,
  "\u00e0\u00a4\u00a8\u00e0\u00a4\u00b2": 1964,
  "ere": 1965,
  "\u0120\u00e0\u00a4\u00b8\u00e0\u00a4\u00bf\u00e0\u00a4\u00a6\u00e0\u00a5\u012f\u00e0\u00a4\u00a7": 1966,
  "\u00e0\u00a4\u00bf\u00e0\u00a4\u0137\u00e0\u00a5\u012f\u00e0\u00a4\u00a4": 1967,
  "25": 1968,
  "\u0120\u00e0\u00a4\u00b5\u00e0\u00a5\u012a\u00e0\u00a4\u013e\u00e0\u00a5\u012f\u00e0\u00a4\u0140\u00e0\u00a4\u00be\u00e0\u00a4\u00a8\u00e0\u00a4\u00bf\u00e0\u00a4\u0137": 1969,
  "\u0120\u00e0\u00a4\u00b8\u00e0\u00a4\u00be\u00e0\u00a4\u0124": 1970,
  "\u00e0\u00a4\u00be\u00e0\u00a4\u0137\u00e0\u00a5\u0125\u00e0\u00a4\u00a4\u00e0\u00a4\u00bf\u00e0\u00a4\u0137": 1971,
  "\u0120\u00e0\u00a4\u0143\u00e0\u00a5\u012d\u00e0\u00a4\u013e\u00e0\u00a4\u00a8": 1972,
  "\u00e0\u00a4\u0124\u00e0\u00a4\u00b6": 1973,
  "\u00e0\u00a4\u0137\u00e0\u00a4\u00b0\u00e0\u00a5\u012f\u00e0\u00a4\u00a4\u00e0\u00a4\u00be\u00e0\u00a4\u0135\u00e0\u00a4\u0124": 1974,
  "\u0120\u00e0\u00a4\u00ae\u00e0\u00a5\u0122": 1975,
  "\u00e0\u00a5\u012f\u00e0\u00a4\u00b0\u00e0\u00a5\u012d\u00e0\u00a4\u00a4": 1976,
  "\u0120\u00e0\u00a4\u00aa\u00e0\u00a5\u0123\u00e0\u00a4\u00b2\u00e0\u00a4\u00bf\u00e0\u00a4\u00b8": 1977,
  "\u00e0\u00a4\u00b8\u00e0\u00a4\u00a8": 1978,
  "\u00e0\u00a4\u00a6\u00e0\u00a5\u012f\u00e0\u00a4\u00af\u00e0\u00a5\u012d\u00e0\u00a4\u0139": 1979,
  "\u0120\u00e0\u00a4\u00a8\u00e0\u00a4\u00bf\u00e0\u00a4\u0137\u00e0\u00a4\u00be\u00e0\u00a4\u00b2": 1980,
  "-\u00e0\u00a4\u0127\u00e0\u00a4\u00b2\u00e0\u00a4\u0139": 1981,
  "\u0120\u00e0\u00a4\u00b5\u00e0\u00a4\u00be\u00e0\u00a4\u00aa": 1982,
  "\u00e0\u00a5\u0125\u00e0\u00a4\u00a4\u00e0\u00a5\u012f\u00e0\u00a4\u00a4": 1983,
  "\u0120\u00e0\u00a4\u00b6\u00e0\u00a5\u012f\u00e0\u00a4\u00b0\u00e0\u00a5\u0122": 1984,
  "\u0120\u00e0\u00a4\u0137\u00e0\u00a4\u00b0\u00e0\u00a5\u0129\u00e0\u00a4\u0124\u00e0\u00a4\u0139\u00e0\u00a5\u0129": 1985,
  "\u00e0\u00a5\u0125\u00e0\u00a4\u00aa\u00e0\u00a4\u00af\u00e0\u00a4\u00be": 1986,
  "13": 1987,
  "\u0120J": 1988,
  "\u0120\u00e0\u00a4\u013e\u00e0\u00a4\u00be\u00e0\u00a4\u0131\u00e0\u00a4\u0139\u00e0\u00a4\u00be": 1989,
  "\u0120\u00e0\u00a4\u0137\u00e0\u00a4\u00b9\u00e0\u00a4\u00a4\u00e0\u00a5\u0129": 1990,
  "\u0120\u00e0\u00a4\u00a8\u00e0\u00a4\u00bf\u00e0\u00a4\u00b0\u00e0\u00a5\u012f\u00e0\u00a4\u00a7\u00e0\u00a4\u00be\u00e0\u00a4\u00b0\u00e0\u00a4\u00bf\u00e0\u00a4\u00a4": 1991,
  "\u0120\u00e0\u00a4\u0127\u00e0\u00a4\u0124\u00e0\u00a4\u00a4\u00e0\u00a4\u00bf\u00e0\u00a4\u00ae": 1992,
  "\u0120\u00e0\u00a4\u00aa\u00e0\u00a5\u012f\u00e0\u00a4\u00b0\u00e0\u00a4\u00ac\u00e0\u00a4\u0124\u00e0\u00a4\u00a7": 1993,
  "\u0120\u00e0\u00a4\u0139\u00e0\u00a4\u00b0\u00e0\u00a5\u012f\u00e0\u00a4\u00ae": 1994,
  "\u0120The": 1995,
  "\u0120\u00e0\u00a4\u00a1\u00e0\u00a4\u00be\u00e0\u00a4\u00b2": 1996,
  "\u0120\u00e0\u00a4\u0132\u00e0\u00a4\u00b8\u00e0\u00a5\u0129": 1997,
  "\u0120\u00e0\u00a4\u00b8\u00e0\u00a4\u0137\u00e0\u00a5\u0129": 1998,
  "\u0120\u00e0\u00a4\u00aa\u00e0\u00a4\u00b8\u00e0\u00a4\u0124\u00e0\u00a4\u00a6": 1999,
  "\u0120\u00e0\u00a4\u0139\u00e0\u00a4\u00a4\u00e0\u00a4\u00bf\u00e0\u00a4\u00b5\u00e0\u00a4\u00bf\u00e0\u00a4\u00a7": 2000,
  "\u00e0\u00a5\u012a\u00e0\u00a4\u0124\u00e0\u00a4\u0137": 2001,
  "cl": 2002,
  "\u0120\u00e0\u00a4\u00ae\u00e0\u00a5\u0123\u00e0\u00a4\u00a6": 2003,
  "\u00e0\u00a4\u00ac\u00e0\u00a5\u012f\u00e0\u00a4\u00b0": 2004,
  "\u0120\u00e0\u00a4\u00b9\u00e0\u00a5\u0124\u00e0\u00a4\u0123": 2005,
  "\u0120\u00e0\u00a4\u00a6\u00e0\u00a5\u0123": 2006,
  "\u00e0\u00a5\u012f\u00e0\u00a4\u00a3": 2007,
  "\u00e0\u00a4\u00be\u00e0\u00a4\u00b9\u00e0\u00a4\u00bf\u00e0\u00a4\u00a4\u00e0\u00a5\u012f\u00e0\u00a4\u00af": 2008,
  "\u0120\u00e0\u00a4\u00ae\u00e0\u00a4\u00bf\u00e0\u00a4\u00b6": 2009,
  "\u0120\u00e0\u00a4\u00ac\u00e0\u00a5\u012d": 2010,
  "\u00e0\u00a5\u00a7\u00e0\u00a5\u00af\u00e0\u00a5": 2011,
  "197": 2012,
  "\u00e0\u00a4\u013e\u00e0\u00a5\u0124\u00e0\u00a4\u00a6": 2013,
  "\u00e0\u00a4\u00b0\u00e0\u00a5\u012d": 2014,
  "\u0120\u00e0\u00a4\u012b\u00e0\u00a4\u00a4\u00e0\u00a5\u012f\u00e0\u00a4\u00a4": 2015,
  "\u0120\u00e0\u00a4\u00a4\u00e0\u00a4\u00a4\u00e0\u00a5\u012f\u00e0\u00a4\u00b5": 2016,
  "\u0120\u00e0\u00a4\u00b0\u00e0\u00a4\u00bf\u00e0\u00a4\u00aa": 2017,
  "\u0120se": 2018,
  "\u0120\u00e0\u00a4\u00aa\u00e0\u00a5\u0129\u00e0\u00a4\u00b6": 2019,
  "\u0120\u00e0\u00a4\u0138\u00e0\u00a4\u00b0\u00e0\u00a5\u0122": 2020,
  "\u0120\u00e0\u00a4\u00aa\u00e0\u00a4\u00b6\u00e0\u00a5\u012f\u00e0\u00a4\u013c\u00e0\u00a4\u00bf\u00e0\u00a4\u00ae": 2021,
  "\u00e0\u00a4\u0131\u00e0\u00a4\u00ae": 2022,
  "\u0120\u00e0\u00a4\u0127\u00e0\u00a4\u00a8\u00e0\u00a5\u0123\u00e0\u00a4\u00b8": 2023,
  "\u0120\u00e0\u00a4\u00b8\u00e0\u00a4\u00be\u00e0\u00a4\u00ae\u00e0\u00a4\u00be\u00e0\u00a4\u013e\u00e0\u00a4\u00bf\u00e0\u00a4\u0137": 2024,
  "\u0120\u00e0\u00a4\u00b8\u00e0\u00a4\u00a6\u00e0\u00a4\u00b8\u00e0\u00a5\u012f\u00e0\u00a4\u00af": 2025,
  "'s": 2026,
  "for": 2027,
  "\u0120by": 2028,
  "\u0120\u00e0\u00a4\u00b8\u00e0\u00a5\u0123\u00e0\u00a4\u00a8\u00e0\u00a4\u00bf\u00e0\u00a4\u00b6\u00e0\u00a5\u012f\u00e0\u00a4\u013c\u00e0\u00a4\u00bf\u00e0\u00a4\u00a4": 2029,
  "\u00e0\u00a4\u00b5\u00e0\u00a4\u00be\u00e0\u00a4\u012a": 2030,
  "\u00e0\u00a4\u00bf\u00e0\u00a4\u0137\u00e0\u00a5\u012f\u00e0\u00a4\u00b8": 2031,
  "\u0120\u00e0\u00a4\u0131\u00e0\u00a4\u00ab": 2032,
  "\u0120\u00e0\u00a4\u00af\u00e0\u00a4\u00be\u00e0\u00a4\u00a4\u00e0\u00a5\u012f\u00e0\u00a4\u00b0\u00e0\u00a4\u00be": 2033,
  "\u00e0\u00a5\u0125\u00e0\u00a4\u00a4\u00e0\u00a5\u012f\u00e0\u00a4\u00af\u00e0\u00a5\u0123": 2034,
  "\u0120\u00e0\u00a4\u00b8\u00e0\u00a5\u0122\u00e0\u00a4\u0138": 2035,
  "\u0120\u00e0\u00a4\u00a4\u00e0\u00a5\u012e\u00e0\u00a4\u00b0": 2036,
  "\u0120\u00e0\u00a4\u013e\u00e0\u00a4\u00b0": 2037,
  "-\u00e0\u00a4\u00a6": 2038,
  "\u00e0\u00a4\u00b0\u00e0\u00a4\u00be\u00e0\u00a4\u013e": 2039,
  "\u0120\u00e0\u00a4\u00b6\u00e0\u00a5\u0123\u00e0\u00a4\u00b0\u00e0\u00a5\u0123\u00e0\u00a4\u0128\u00e0\u00a4\u00a4": 2040,
  "\u00e0\u00a4\u00b6\u00e0\u00a4\u00b2": 2041,
  "\u0120U": 2042,
  "\u0120\u00e0\u00a4\u00b2\u00e0\u00a4\u0137\u00e0\u00a5\u012f\u00e0\u00a4\u00b7": 2043,
  "\u0120\u00e0\u00a4\u00ac\u00e0\u00a4\u00bf\u00e0\u00a4\u00b2": 2044,
  "\u0120\u00e0\u00a4\u0137\u00e0\u00a4\u00b0\u00e0\u00a5\u0129\u00e0\u00a4\u0139\u00e0\u00a4\u00be": 2045,
  "\u00e0\u00a5\u0122\u00e0\u00a4\u00b8": 2046,
  "\u0120\u00e0\u00a4\u00aa\u00e0\u00a5\u012d\u00e0\u00a4\u00b0\u00e0\u00a5\u012f\u00e0\u00a4\u0141": 2047,
  "\u0120data": 2048,
  "\u0120\u00e0\u00a4\u00aa\u00e0\u00a5\u0124\u00e0\u00a4\u00b0\u00e0\u00a5\u012f\u00e0\u00a4\u00a3": 2049,
  "\u0120\u00e0\u00a4\u013c\u00e0\u00a4\u00b0\u00e0\u00a5\u012f\u00e0\u00a4\u013c": 2050,
  "\u00e0\u00a4\u00a8\u00e0\u00a4\u00be\u00e0\u00a4\u00ae": 2051,
  "\u00e0\u00a4\u00be\u00e0\u00a4\u0124\u00e0\u00a4\u0137\u00e0\u00a4\u00a8": 2052,
  "\u0120\u00e0\u00a4\u00b5\u00e0\u00a4\u00bf\u00e0\u00a4\u00b2": 2053,
  "\u00e0\u00a4\u00b6\u00e0\u00a5\u012f\u00e0\u00a4\u00b5": 2054,
  "ult": 2055,
  "\u00e0\u00a4\u00bf\u00e0\u00a4\u0139\u00e0\u00a4\u00a4": 2056,
  "\u0120\u00e0\u00a4\u00aa\u00e0\u00a4\u00a4": 2057,
  "\u0120\u00e0\u00a4\u00af\u00e0\u00a4\u00b9\u00e0\u00a4\u00be\u00e0\u00a4\u0124": 2058,
  "\u0120\u00e0\u00a4\u00a8\u00e0\u00a4\u00a6\u00e0\u00a5\u0122": 2059,
  "\u0120\u00e0\u00a4\u00aa\u00e0\u00a4\u00b0\u00e0\u00a4\u00bf\u00e0\u00a4\u00b5\u00e0\u00a4\u00b0\u00e0\u00a5\u012f\u00e0\u00a4\u00a4\u00e0\u00a4\u00a8": 2060,
  "\u00e0\u00a5\u00a9": 2061,
  "\u0120\u00e0\u00a4\u0138\u00e0\u00a5\u0123\u00e0\u00a4\u00a6": 2062,
  "\u0120\u00e0\u00a4\u0127\u00e0\u00a4\u0124\u00e0\u00a4\u0139\u00e0\u00a5\u012f\u00e0\u00a4\u00b0": 2063,
  "\u0120\u00e0\u00a4\u00b6\u00e0\u00a4\u00ac\u00e0\u00a5\u012f\u00e0\u00a4\u00a6\u00e0\u00a5\u012d\u00e0\u00a4\u0124": 2064,
  "\u0120\u00e0\u00a4\u012c\u00e0\u00a4\u00aa\u00e0\u00a4\u00b0": 2065,
  "\u00e0\u00a4\u00a4\u00e0\u00a5\u012f\u00e0\u00a4\u00a4\u00e0\u00a4\u00be": 2066,
  "\u00e0\u00a4\u00ae\u00e0\u00a5\u012f\u00e0\u00a4\u00ae\u00e0\u00a5\u0122\u00e0\u00a4\u00a6": 2067,
  "\u00e0\u00a5\u012b\u00e0\u00a4\u00b0\u00e0\u00a5\u012f\u00e0\u00a4\u00a1": 2068,
  "\u0120\u00e0\u00a4\u00b8\u00e0\u00a5\u012d\u00e0\u00a4\u013c": 2069,
  "\u0120\u00e0\u00a4\u013c\u00e0\u00a4\u00bf\u00e0\u00a4\u0137\u00e0\u00a4\u00bf\u00e0\u00a4\u00a4\u00e0\u00a5\u012f\u00e0\u00a4\u00b8\u00e0\u00a4\u00be": 2070,
  "\u0120\u00e0\u00a4\u012b\u00e0\u00a4\u0142": 2071,
  "\u0120\u00e0\u00a4\u00a8\u00e0\u00a4\u00bf\u00e0\u00a4\u00b0\u00e0\u00a5\u012f\u00e0\u00a4\u00a6\u00e0\u00a5\u0129\u00e0\u00a4\u00b6": 2072,
  "per": 2073,
  "\u0120\u00e0\u00a4\u013c\u00e0\u00a4\u00bf\u00e0\u00a4\u00a4\u00e0\u00a5\u012f\u00e0\u00a4\u00b0": 2074,
  "\u00e0\u00a5\u0125\u00e0\u00a4\u0124\u00e0\u00a4\u0138": 2075,
  "\u0120\u00e0\u00a4\u00b8\u00e0\u00a5\u012f\u00e0\u00a4\u00ae": 2076,
  "\u0120\u00e0\u00a4\u0127\u00e0\u00a4\u0139\u00e0\u00a4\u00b0": 2077,
  "ue": 2078,
  "\u0120\u00e0\u00a4\u0127\u00e0\u00a4\u00a8\u00e0\u00a5\u012f\u00e0\u00a4\u00a4": 2079,
  "\u0120\u00e0\u00a4\u00b9\u00e0\u00a4\u00bf\u00e0\u00a4\u00a8": 2080,
  "\u0120\u00e0\u00a4\u00a6\u00e0\u00a5\u0129\u00e0\u00a4\u0138\u00e0\u00a4\u00a4\u00e0\u00a5\u0129": 2081,
  "\u0120\u00e0\u00a4\u00aa\u00e0\u00a5\u0123\u00e0\u00a4\u00b0\u00e0\u00a4\u00b8\u00e0\u00a5\u012f\u00e0\u00a4\u0137\u00e0\u00a4\u00be\u00e0\u00a4\u00b0": 2082,
  "\u00e0\u00a4\u00bf\u00e0\u00a4\u00a4\u00e0\u00a5\u0122\u00e0\u00a4\u00af": 2083,
  "\u00e0\u00a4\u00af\u00e0\u00a5\u0129": 2084,
  "\u00e0\u00a4\u00bf\u00e0\u00a4\u00b0\u00e0\u00a4\u00bf\u00e0\u00a4\u0137\u00e0\u00a5\u012f\u00e0\u00a4\u00a4": 2085,
  "\u0120\u00e0\u00a4\u00ac\u00e0\u00a4\u00a8\u00e0\u00a4\u00be\u00e0\u00a4\u0131": 2086,
  "\u0120\u00e0\u00a4\u00aa\u00e0\u00a4\u0137": 2087,
  "\u0120\u00e0\u00a4\u00a4\u00e0\u00a5\u012f\u00e0\u00a4\u00b0": 2088,
  "\u0120\u00e0\u00a4\u00b8\u00e0\u00a4\u0124\u00e0\u00a4\u013c": 2089,
  "\u0120\u00e0\u00a4\u0137\u00e0\u00a5\u012f\u00e0\u00a4\u00b7\u00e0\u00a4\u00ae\u00e0\u00a4\u00a4\u00e0\u00a4\u00be": 2090,
  "\u00e0\u00a4\u00b5\u00e0\u00a4\u00be\u00e0\u00a4\u00a8": 2091,
  "\u0120\u00e0\u00a4\u013e\u00e0\u00a4\u00b9\u00e0\u00a4\u00be\u00e0\u00a4\u0124": 2092,
  "\u0120\u00e0\u00a4\u00b5\u00e0\u00a4\u00b0\u00e0\u00a5\u012f\u00e0\u00a4\u00b7\u00e0\u00a5\u012d\u00e0\u00a4\u0124": 2093,
  "\u00e0\u00a4\u00bf\u00e0\u00a4\u00b7\u00e0\u00a5\u012f\u00e0\u00a4\u00af": 2094,
  "\u00e0\u00a4\u0124\u00e0\u00a4\u0139\u00e0\u00a4\u00b2": 2095,
  "\u0120\u00e0\u00a4\u00aa\u00e0\u00a4\u0137\u00e0\u00a5\u012f\u00e0\u00a4\u00b7": 2096,
  "\u0120\u00e0\u00a4\u00ae\u00e0\u00a4\u00be\u00e0\u00a4\u00a8\u00e0\u00a4\u00be": 2097,
  "\u00e0\u00a4\u00be\u00e0\u00a4\u0129\u00e0\u00a4\u0137": 2098,
  "\u0120\u00e0\u00a4\u0128\u00e0\u00a4\u00a4": 2099,
  "\u0120\u00e0\u00a4\u00b0\u00e0\u00a5\u012d\u00e0\u00a4\u0137": 2100,
  "\":": 2101,
  "so": 2102,
  "\u0120\u00e0\u00a4\u00b8\u00e0\u00a5\u012f\u00e0\u00a4\u00a4": 2103,
  "\u00e0\u00a5\u012f\u00e0\u00a4\u00a6\u00e0\u00a5\u0129\u00e0\u00a4\u00b6": 2104,
  "\u0120\u00e0\u00a4\u00b8\u00e0\u00a4\u00b2": 2105,
  "\u0120\u00e0\u00a4\u0127\u00e0\u00a4\u00a7\u00e0\u00a4\u00bf\u00e0\u00a4\u0137\u00e0\u00a4\u00be\u00e0\u00a4\u00b0": 2106,
  "\u00e0\u00a4\u00be\u00e0\u00a4\u00a6\u00e0\u00a5\u012f\u00e0\u00a4\u00af": 2107,
  "\u0120\u00e0\u00a4\u00b8\u00e0\u00a5\u012f\u00e0\u00a4\u00b0\u00e0\u00a5\u012d\u00e0\u00a4\u00a4": 2108,
  "\u0120\u00e0\u00a4\u00aa\u00e0\u00a5\u012f\u00e0\u00a4\u00b0\u00e0\u00a4\u00be\u00e0\u00a4\u0137\u00e0\u00a5\u0125\u00e0\u00a4\u00a4\u00e0\u00a4\u00bf\u00e0\u00a4\u0137": 2109,
  "\u0120\u00e0\u00a4\u00ae\u00e0\u00a4\u00be\u00e0\u00a4\u00b0\u00e0\u00a5\u012f\u00e0\u00a4\u0139": 2110,
  "\u00e0\u00a4\u00bf\u00e0\u00a4\u0141\u00e0\u00a5\u0122": 2111,
  "\u00e0\u00a4\u00b5\u00e0\u00a5\u0129": 2112,
  "\u0120\u00e0\u00a4\u013e\u00e0\u00a4\u00bf\u00e0\u00a4\u00b8\u00e0\u00a4\u0137\u00e0\u00a5\u0129": 2113,
  "out": 2114,
  "\u0120\u00e0\u00a4\u00af\u00e0\u00a5\u0123": 2115,
  "\u0120\u00e0\u00a4\u00b0\u00e0\u00a4\u0138\u00e0\u00a4\u00be": 2116,
  "\u0120\u00e0\u00a4\u00b8\u00e0\u00a4\u0124\u00e0\u00a4\u00b8\u00e0\u00a4\u00be\u00e0\u00a4\u00a7": 2117,
  "\u0120\u00e0\u00a4\u00aa\u00e0\u00a4\u00a6\u00e0\u00a4\u00be\u00e0\u00a4\u00b0": 2118,
  "ind": 2119,
  "\u0120\u00e0\u00a4\u0127\u00e0\u00a4\u00a4\u00e0\u00a4\u00bf\u00e0\u00a4\u00b0\u00e0\u00a4\u00bf\u00e0\u00a4\u0137\u00e0\u00a5\u012f\u00e0\u00a4\u00a4": 2120,
  "\u00e0\u00a4\u00a7\u00e0\u00a4\u00be\u00e0\u00a4\u00a8": 2121,
  "port": 2122,
  "\u00e0\u00a4\u00ae\u00e0\u00a4\u00a4\u00e0\u00a4\u00bf": 2123,
  "\u0120\u00e0\u00a4\u0143\u00e0\u00a5\u0124": 2124,
  "\u00e0\u00a4\u0124\u00e0\u00a4\u0141\u00e0\u00a5\u0122": 2125,
  "\u0120\u00e0\u00a4\u00b9\u00e0\u00a4\u00be\u00e0\u00a4\u00a5": 2126,
  "\u0120\u00e0\u00a4\u00aa\u00e0\u00a5\u012f\u00e0\u00a4\u00b0\u00e0\u00a4\u00a4\u00e0\u00a4\u00bf\u00e0\u00a4\u0137\u00e0\u00a5\u012f\u00e0\u00a4\u00b0": 2127,
  "\u0120\u00e0\u00a4\u0137\u00e0\u00a4\u00b9\u00e0\u00a4\u00be\u00e0\u00a4\u00a8\u00e0\u00a5\u0122": 2128,
  "\u0120\u00e0\u00a4\u00af\u00e0\u00a5\u0124\u00e0\u00a4\u00b0": 2129,
  "\u0120\u00e0\u00a4\u00aa\u00e0\u00a4\u00b0\u00e0\u00a5\u012f\u00e0\u00a4\u00af\u00e0\u00a4\u00be\u00e0\u00a4\u00b5\u00e0\u00a4\u00b0\u00e0\u00a4\u00a3": 2130,
  "\u0120\u00e0\u00a4\u00a1\u00e0\u00a5\u012f\u00e0\u00a4\u00b0": 2131,
  "\u0120\u00e0\u00a4\u0131\u00e0\u00a4\u013c": 2132,
  "\u0120\u00e0\u00a4\u013e\u00e0\u00a4\u0139\u00e0\u00a4\u00b9": 2133,
  "\u00e0\u00a4\u00a1\u00e0\u00a4\u00bc\u00e0\u00a5\u012d\u00e0\u00a4\u0124": 2134,
  "\u0120\u00e0\u00a4\u00b0\u00e0\u00a4\u00b9\u00e0\u00a4\u00a8\u00e0\u00a5\u0129": 2135,
  "196": 2136,
  "sion": 2137,
  "\u0120\u00e0\u00a4\u00b8\u00e0\u00a4\u0124\u00e0\u00a4\u0137\u00e0\u00a5\u0129": 2138,
  "\u00e0\u00a5\u0129\u00e0\u00a4\u00ab": 2139,
  "\u00e0\u00a4\u00a4\u00e0\u00a5\u012e\u00e0\u00a4\u00b0": 2140,
  "\u00e0\u00a4\u00be\u00e0\u00a4\u013c\u00e0\u00a4\u00be\u00e0\u00a4\u00b0": 2141,
  "\u00e0\u00a4\u00be\u00e0\u00a4\u0129\u00e0\u00a4\u00ae": 2142,
  "\u00e0\u00a5\u0125\u00e0\u00a4\u00a6\u00e0\u00a5\u012f\u00e0\u00a4\u00a7\u00e0\u00a4\u00bf": 2143,
  "\u0120\u00e0\u00a4\u0129\u00e0\u00a4\u0124\u00e0\u00a4\u0141\u00e0\u00a4\u00b0": 2144,
  "\u0120\u00e0\u00a4\u00b0\u00e0\u00a4\u00be\u00e0\u00a4\u013e\u00e0\u00a4\u00a8\u00e0\u00a5\u0122": 2145,
  "\u0120\u00e0\u00a4\u00b6\u00e0\u00a5\u012f\u00e0\u00a4\u00b0\u00e0\u00a5\u0129\u00e0\u00a4\u00a3": 2146,
  "ff": 2147,
  "\u0120\u00e0\u00a4\u00aa\u00e0\u00a4\u00a6\u00e0\u00a4\u00be\u00e0\u00a4\u00b0\u00e0\u00a5\u012f\u00e0\u00a4\u00a5": 2148,
  "\u0120un": 2149,
  "\u0120\u00e0\u00a4\u0138\u00e0\u00a4\u00a4\u00e0\u00a4\u00b0": 2150,
  "\u0120k": 2151,
  "\u00e0\u00a4\u00be\u00e0\u00a4\u00a8\u00e0\u00a5\u0122\u00e0\u00a4\u00af": 2152,
  "\u00e0\u00a5\u012f\u00e0\u00a4\u00b0\u00e0\u00a4\u00bf\u00e0\u00a4\u00af": 2153,
  "\u0120int": 2154,
  "\u0120\u00e0\u00a4\u0127\u00e0\u00a4\u00a8\u00e0\u00a5\u0123\u00e0\u00a4\u00ae\u00e0\u00a4\u00be\u00e0\u00a4\u00a8": 2155,
  "are": 2156,
  "oc": 2157,
  "\u0120\u00e0\u00a4\u00b8\u00e0\u00a4\u00ae\u00e0\u00a4\u00be\u00e0\u00a4\u013e": 2158,
  "\u0120\u00e0\u00a4\u012b\u00e0\u00a4\u00b2\u00e0\u00a5\u012f\u00e0\u00a4\u00b2": 2159,
  "\u0120\u00e0\u00a4\u012b\u00e0\u00a4\u00a6\u00e0\u00a5\u012f\u00e0\u00a4\u00a6\u00e0\u00a5\u0129\u00e0\u00a4\u00b6": 2160,
  "\u0120\u00e0\u00a4\u0127\u00e0\u00a4\u0143\u00e0\u00a4\u00bf\u00e0\u00a4\u00a8": 2161,
  "\u00e0\u00a4\u00be\u00e0\u00a4\u00b8\u00e0\u00a5\u0122": 2162,
  "\u0120\u00e0\u00a4\u00ae\u00e0\u00a4\u00be\u00e0\u00a4\u00a4\u00e0\u00a5\u012f\u00e0\u00a4\u00b0\u00e0\u00a4\u00be": 2163,
  "\u0120\u00e0\u00a4\u00ae\u00e0\u00a4\u00b9\u00e0\u00a4\u00bf\u00e0\u00a4\u00b2": 2164,
  "\u00e0\u00a5\u0125\u00e0\u00a4\u00a5": 2165,
  "\u0120\u00e0\u00a4\u00ac\u00e0\u00a4\u00a4\u00e0\u00a4\u00be\u00e0\u00a4\u00af\u00e0\u00a4\u00be": 2166,
  "\u00e0\u00a4\u0124\u00e0\u00a4\u0137\u00e0\u00a5\u012f\u00e0\u00a4\u00b6\u00e0\u00a4\u00a8": 2167,
  "\u0120\u00e0\u00a4\u00ac\u00e0\u00a4\u0124\u00e0\u00a4\u00a6": 2168,
  "\u00e0\u00a4\u00b9\u00e0\u00a4\u00a8": 2169,
  "\u0120\u00e0\u00a4\u012b\u00e0\u00a4\u00b8\u00e0\u00a4\u00a8\u00e0\u00a5\u0129": 2170,
  "\u0120\u00e0\u00a4\u013d\u00e0\u00a4\u00be\u00e0\u00a4\u00a4\u00e0\u00a5\u012f\u00e0\u00a4\u00b0\u00e0\u00a5\u012d\u00e0\u00a4\u0124": 2171,
  "\u0120ha": 2172,
  "\u0120\u00e0\u00a4\u00b2\u00e0\u00a4\u00be\u00e0\u00a4\u0139\u00e0\u00a5\u0124": 2173,
  "\u00e0\u00a4\u00a4\u00e0\u00a4\u00bf\u00e0\u00a4\u00b9\u00e0\u00a4\u00be\u00e0\u00a4\u00b8": 2174,
  "\u00e0\u00a5\u013e": 2175,
  "\u0120\u00e0\u00a4\u0127\u00e0\u00a4\u0137\u00e0\u00a5\u012f\u00e0\u00a4\u00b7": 2176,
  "\u0120\u00e0\u00a4\u00ae\u00e0\u00a4\u0124\u00e0\u00a4\u00a6": 2177,
  "put": 2178,
  "\u0120\u00e0\u00a4\u012b\u00e0\u00a4\u00ae\u00e0\u00a5\u012f\u00e0\u00a4\u00ae\u00e0\u00a5\u0122\u00e0\u00a4\u00a6": 2179,
  "\u00e0\u00a5\u012d\u00e0\u00a4\u00ab": 2180,
  "\u0120\u00e0\u00a4\u012b\u00e0\u00a4\u00a4\u00e0\u00a5\u012f\u00e0\u00a4\u00b8": 2181,
  "\u0120\u00e0\u00a4\u013c\u00e0\u00a5\u0123\u00e0\u00a4\u00a8\u00e0\u00a4\u00be\u00e0\u00a4\u00b5": 2182,
  "\"\u00e0\u00a4\u00ae": 2183,
  "\u0120\u00e0\u00a4\u00a8\u00e0\u00a4\u00bf\u00e0\u00a4\u00b0": 2184,
  "\u0120\u00e0\u00a4\u0137\u00e0\u00a5\u0125\u00e0\u00a4\u00b7\u00e0\u00a4\u00bf": 2185,
  "\u00e0\u00a4\u00aa\u00e0\u00a5\u012f\u00e0\u00a4\u00b0\u00e0\u00a4\u00b6\u00e0\u00a5\u012f\u00e0\u00a4\u00a8\u00e0\u00a4\u0125": 2186,
  "\u0120\u00e0\u00a4\u00a4\u00e0\u00a4\u00be\u00e0\u00a4\u00aa": 2187,
  "du": 2188,
  "\u00e0\u00a5\u0129\u00e0\u00a4\u0124\u00e0\u00a4\u00a1": 2189,
  "\u0120\u00e0\u00a4\u00ae\u00e0\u00a4\u013e\u00e0\u00a4\u00ac": 2190,
  "\u00e0\u00a4\u00b6\u00e0\u00a5\u0122\u00e0\u00a4\u00b2": 2191,
  "\"\"": 2192,
  "\u0120\u00e0\u00a4\u0137\u00e0\u00a5\u012a\u00e0\u00a4\u00b2": 2193,
  "\u00e0\u00a5\u0125\u00e0\u00a4\u0124\u00e0\u00a4\u0138\u00e0\u00a4\u00b2\u00e0\u00a4\u00be": 2194,
  "\u0120\u00e0\u00a4\u00b8\u00e0\u00a5\u012f\u00e0\u00a4\u00a5\u00e0\u00a4\u00be\u00e0\u00a4\u00aa\u00e0\u00a4\u00bf\u00e0\u00a4\u00a4": 2195,
  "\u00e0\u00a5\u0129\u00e0\u00a4\u00a1\u00e0\u00a4\u00bc": 2196,
  "\u00e0\u00a4\u00be\u00e0\u00a4\u0137\u00e0\u00a4\u00be\u00e0\u00a4\u00b0": 2197,
  "\u00e0\u00a4\u00b8\u00e0\u00a4\u0124": 2198,
  "\u00e0\u00a5\u0129\u00e0\u00a4\u0124\u00e0\u00a4\u0139\u00e0\u00a5\u0129": 2199,
  "\u0120\u00e0\u00a4\u00b8\u00e0\u00a5\u012a\u00e0\u00a4\u00a8": 2200,
  "\u0120\u00e0\u00a4\u00a8\u00e0\u00a5\u012a": 2201,
  "\u0120\u00e0\u00a4\u00b8\u00e0\u00a4\u00b9\u00e0\u00a4\u00be\u00e0\u00a4\u00af": 2202,
  "\u0120\u00e0\u00a4\u012b\u00e0\u00a4\u00aa\u00e0\u00a4\u00af\u00e0\u00a5\u012d\u00e0\u00a4\u0139\u00e0\u00a4\u0137\u00e0\u00a4\u00b0\u00e0\u00a5\u012f\u00e0\u00a4\u00a4\u00e0\u00a4\u00be": 2203,
  "\u0120\u00e0\u00a4\u00b8\u00e0\u00a4\u00ae\u00e0\u00a4\u00b0\u00e0\u00a5\u012f\u00e0\u00a4\u00a5\u00e0\u00a4\u00a8": 2204,
  "\u0120\u00e0\u00a4\u00a6\u00e0\u00a5\u0129\u00e0\u00a4\u0138\u00e0\u00a4\u00be": 2205,
  "ew": 2206,
  "\u0120\u00e0\u00a4\u0137\u00e0\u00a4\u00be\u00e0\u00a4\u00ab\u00e0\u00a5\u0122": 2207,
  "\u00e0\u00a5\u0122\u00e0\u00a4\u00aa": 2208,
  "\u0120\u00e0\u00a4\u013e\u00e0\u00a4\u00be\u00e0\u00a4\u00a8\u00e0\u00a4\u00b5\u00e0\u00a4\u00b0": 2209,
  "\u0120\u00e0\u00a4\u00b8\u00e0\u00a4\u0124\u00e0\u00a4\u00a4": 2210,
  "low": 2211,
  "\u0120\u00e0\u00a4\u00ab\u00e0\u00a4\u00bc\u00e0\u00a4\u00bf\u00e0\u00a4\u00b2\u00e0\u00a5\u012f\u00e0\u00a4\u00ae": 2212,
  "\u00e0\u00a4\u00be\u00e0\u00a4\u00b0\u00e0\u00a5\u012f\u00e0\u00a4\u00a1": 2213,
  "\u0120po": 2214,
  "\u0120\u00e0\u00a4\u00b5\u00e0\u00a5\u0122": 2215,
  "rit": 2216,
  "\u0120\u00e0\u00a4\u0138\u00e0\u00a4\u00bf\u00e0\u00a4\u00b2\u00e0\u00a4\u00be\u00e0\u00a4\u00ab": 2217,
  "\u00e0\u00a5\u012f\u00e0\u00a4\u00af\u00e0\u00a5\u0124\u00e0\u00a4\u0141\u00e0\u00a4\u00b0": 2218,
  "\u0120\u00e0\u00a4\u00b8\u00e0\u00a4\u0137\u00e0\u00a5\u012f\u00e0\u00a4\u00b7": 2219,
  "\u0120\u00e0\u00a4\u00b8\u00e0\u00a5\u0129\u00e0\u00a4\u0141": 2220,
  "\u00e0\u00a4\u00a8\u00e0\u00a4\u00bf\u00e0\u00a4\u0137": 2221,
  "\u00e0\u00a4\u00a7\u00e0\u00a4\u00bf": 2222,
  "\u0120\u00e0\u00a4\u00b8\u00e0\u00a4\u0137\u00e0\u00a5\u012f\u00e0\u00a4\u00b7\u00e0\u00a4\u00ae": 2223,
  "\u0120ar": 2224,
  "\u0120\u00e0\u00a4\u00b8\u00e0\u00a4\u00be\u00e0\u00a4\u00b9\u00e0\u00a4\u00bf\u00e0\u00a4\u00a4\u00e0\u00a5\u012f\u00e0\u00a4\u00af": 2225,
  "\u0120\u00e0\u00a4\u0143\u00e0\u00a4\u00b5\u00e0\u00a4\u00bf\u00e0\u00a4\u00b7\u00e0\u00a5\u012f\u00e0\u00a4\u00af": 2226,
  "\u0120\u00e0\u00a4\u00b2\u00e0\u00a4\u0139\u00e0\u00a4\u00a4\u00e0\u00a4\u00be": 2227,
  "reate": 2228,
  "\u0120from": 2229,
  "....": 2230,
  "cc": 2231,
  "\u00e0\u00a5\u00ab": 2232,
  "\u0120ad": 2233,
  "\u0120\u00e0\u00a4\u0128\u00e0\u00a4\u00a8\u00e0\u00a5\u0129": 2234,
  "\u00e0\u00a5\u0123\u00e0\u00a4\u0123": 2235,
  "\u00e0\u00a4\u00b6\u00e0\u00a4\u00a8": 2236,
  "sit": 2237,
  "umb": 2238,
  "\u0120\u00e0\u00a4\u00b5\u00e0\u00a4\u00be\u00e0\u00a4\u00aa\u00e0\u00a4\u00b8": 2239,
  "ical": 2240,
  "\u0120\u00e0\u00a4\u00aa\u00e0\u00a5\u012e\u00e0\u00a4\u00a7": 2241,
  "\u0120\u00e0\u00a4\u00b8\u00e0\u00a5\u012f\u00e0\u00a4\u00a5\u00e0\u00a4\u00be\u00e0\u00a4\u00a8\u00e0\u00a5\u0122\u00e0\u00a4\u00af": 2242,
  "\u0120\u00e0\u00a4\u00ac\u00e0\u00a5\u012f\u00e0\u00a4\u00b0\u00e0\u00a4\u00bf\u00e0\u00a4\u0141": 2243,
  "\u0120\u00e0\u00a4\u0139\u00e0\u00a5\u012d": 2244,
  "\u00e0\u00a5\u0124\u00e0\u00a4\u00b0\u00e0\u00a5\u012f\u00e0\u00a4\u00a4": 2245,
  "\u0120\u00e0\u00a4\u0137\u00e0\u00a4\u00b5": 2246,
  "\u0120\u00e0\u00a4\u013a\u00e0\u00a5\u012d": 2247,
  "\u00e0\u00a5\u012a\u00e0\u00a4\u0141": 2248,
  "our": 2249,
  "\u00e0\u00a4\u00a8\u00e0\u00a5\u012f\u00e0\u00a4\u00a7": 2250,
  "\u0120\u00e0\u00a4\u00b8\u00e0\u00a4\u00ae\u00e0\u00a4\u00b8\u00e0\u00a5\u012f\u00e0\u00a4\u00af": 2251,
  "ile": 2252,
  "\u00e0\u00a5\u0122\u00e0\u00a4\u00a1\u00e0\u00a4\u00bf\u00e0\u00a4\u00af\u00e0\u00a4\u00be": 2253,
  "\u00e0\u00a4\u0141\u00e0\u00a4\u00be": 2254,
  "\u00e0\u00a5\u0129\u00e0\u00a4\u00b2\u00e0\u00a5\u0122": 2255,
  "\u0120\u00e0\u00a4\u00ae\u00e0\u00a4\u00b6": 2256,
  "\u0120\u00e0\u00a4\u00b9\u00e0\u00a4\u00bf\u00e0\u00a4\u00b8\u00e0\u00a5\u012f\u00e0\u00a4\u00b8\u00e0\u00a4\u00be": 2257,
  ".)": 2258,
  ".-": 2259,
  "all": 2260,
  "\u0120\u00e0\u00a4\u0137\u00e0\u00a5\u0123": 2261,
  "\u0120\u00e0\u00a4\u0127\u00e0\u00a4\u00ab": 2262,
  "\u0120\u00e0\u00a4\u00b0\u00e0\u00a4\u00bf\u00e0\u00a4\u00aa\u00e0\u00a5\u012d\u00e0\u00a4\u00b0\u00e0\u00a5\u012f\u00e0\u00a4\u0141": 2263,
  "\u0120\u00e0\u00a4\u00b8\u00e0\u00a4\u0124\u00e0\u00a4\u00b6": 2264,
  "\u0120\u00e0\u00a4\u00a5\u00e0\u00a5\u0122\u00e0\u00a4\u0124": 2265,
  "\u00e0\u00a4\u0137\u00e0\u00a5\u012f\u00e0\u00a4\u00af\u00e0\u00a4\u00be": 2266,
  "\u0120\u0120\u0120\u0120\u0120\u0120\u0120\u0120\u0120\u0120\u0120": 2267,
  "\u0120\u00e0\u00a4\u0128\u00e0\u00a4\u00ae\u00e0\u00a4\u00a4\u00e0\u00a5\u012e\u00e0\u00a4\u00b0": 2268,
  "\u00e0\u00a5\u0129\u00e0\u00a4\u0139": 2269,
  "\u0120\u00e0\u00a4\u0127\u00e0\u00a4\u00aa\u00e0\u00a5\u012f\u00e0\u00a4\u00b0": 2270,
  "\u0120\u00e0\u00a4\u0142\u00e0\u00a5\u0122\u00e0\u00a4\u0137": 2271,
  "\u00e0\u00a5\u0122\u00e0\u00a4\u00a4": 2272,
  "\u00e0\u00a4\u00be\u00e0\u00a4\u013e\u00e0\u00a4\u00bc": 2273,
  "\u0120\u00e0\u00a4\u0129\u00e0\u00a4\u0137": 2274,
  "\u00e0\u00a4\u00be\u00e0\u00a4\u00af\u00e0\u00a4\u00b2": 2275,
  "\u0120\u00e0\u00a4\u00b8\u00e0\u00a5\u0122\u00e0\u00a4\u00ae": 2276,
  "ount": 2277,
  "\u0120\u00e0\u00a4\u00ae\u00e0\u00a4\u00b9\u00e0\u00a5\u0122": 2278,
  "\u0120\u00e0\u00a4\u0138\u00e0\u00a4\u00b0\u00e0\u00a5\u0122\u00e0\u00a4\u00a6": 2279,
  "\u0120\u00e0\u00a4\u00b8\u00e0\u00a4\u00b9\u00e0\u00a4\u00be\u00e0\u00a4\u00af\u00e0\u00a4\u00a4\u00e0\u00a4\u00be": 2280,
  "\u0120\u00e0\u00a4\u00ae\u00e0\u00a4\u00be\u00e0\u00a4\u00aa": 2281,
  "\u0120\u00e0\u00a4\u00b0\u00e0\u00a4\u00bf\u00e0\u00a4\u0137": 2282,
  "\u00e0\u00a4\u0141\u00e0\u00a5\u012f\u00e0\u00a4\u0141": 2283,
  "\u00e0\u00a5\u012b\u00e0\u00a4\u00aa": 2284,
  "ime": 2285,
  "\u0120\u00e0\u00a4\u013e\u00e0\u00a5\u012f\u00e0\u00a4\u00af\u00e0\u00a4\u00be\u00e0\u00a4\u00a6": 2286,
  "\u0120\u00e0\u00a4\u00b5\u00e0\u00a4\u00bf\u00e0\u00a4\u00b8\u00e0\u00a5\u012f\u00e0\u00a4\u00a4\u00e0\u00a4\u00be\u00e0\u00a4\u00b0": 2287,
  "\u0120\u00e0\u00a4\u0127\u00e0\u00a4\u00a8\u00e0\u00a5\u012f\u00e0\u00a4\u00a4\u00e0\u00a4\u00b0\u00e0\u00a5\u012f\u00e0\u00a4\u0139\u00e0\u00a4\u00a4": 2288,
  "\u00e0\u00a4\u012b\u00e0\u00a4\u00a4\u00e0\u00a5\u012f\u00e0\u00a4\u00a4\u00e0\u00a4\u00b0\u00e0\u00a4\u0125": 2289,
  "\u0120\u00e0\u00a4\u00b8\u00e0\u00a5\u012f\u00e0\u00a4\u00a8": 2290,
  "100": 2291,
  "\u0120\u00e0\u00a4\u00aa\u00e0\u00a4\u00b9\u00e0\u00a4\u00b2\u00e0\u00a4\u00be": 2292,
  "\u0120\u00e0\u00a4\u00ac\u00e0\u00a4\u00be\u00e0\u00a4\u00b2": 2293,
  "\u00e0\u00a4\u013e\u00e0\u00a5\u0122\u00e0\u00a4\u00b5": 2294,
  "\u0120\u00e0\u00a4\u00b9\u00e0\u00a4\u00bf\u00e0\u00a4\u00b8\u00e0\u00a5\u012f\u00e0\u00a4\u00b8": 2295,
  "\u0120\u00e0\u00a4\u00a1\u00e0\u00a4\u00bf\u00e0\u00a4\u013e\u00e0\u00a4\u00be\u00e0\u00a4\u0129\u00e0\u00a4\u00a8": 2296,
  "ext": 2297,
  "ast": 2298,
  "\u00e0\u00a4\u00b0\u00e0\u00a5\u0124\u00e0\u00a4\u00aa": 2299,
  "\u0120\u00e0\u00a4\u00a8\u00e0\u00a4\u00ae": 2300,
  "\u0120\u00e0\u00a4\u00ab\u00e0\u00a5\u012f\u00e0\u00a4\u00b2": 2301,
  "\u00e0\u00a4\u00bf\u00e0\u00a4\u00af\u00e0\u00a4\u00be\u00e0\u00a4\u012a": 2302,
  "\u00e0\u00a5\u0129\u00e0\u00a4\u00ac\u00e0\u00a4\u00b2": 2303,
  "\u0120\u00e0\u00a4\u00aa\u00e0\u00a5\u0122\u00e0\u00a4\u013d": 2304,
  "\u0120\u00e0\u00a4\u00b8\u00e0\u00a5\u0123\u00e0\u00a4\u00b5\u00e0\u00a4\u00bf\u00e0\u00a4\u00a7": 2305,
  "\u0120\u00e0\u00a4\u00b8\u00e0\u00a5\u012f\u00e0\u00a4\u00b5\u00e0\u00a4\u00a4\u00e0\u00a4\u0124\u00e0\u00a4\u00a4\u00e0\u00a5\u012f\u00e0\u00a4\u00b0": 2306,
  "\u00e0\u00a4\u00be\u00e0\u00a4\u0123\u00e0\u00a4\u013c": 2307,
  "\u0120\u00e0\u00a4\u00aa\u00e0\u00a5\u0123\u00e0\u00a4\u00b0\u00e0\u00a5\u0123\u00e0\u00a4\u00b7": 2308,
  "\u0120\u00e0\u00a4\u00aa\u00e0\u00a4\u00bf\u00e0\u00a4\u013d\u00e0\u00a4\u00b2\u00e0\u00a5\u0129": 2309,
  "\u0120\u00e0\u00a4\u0128\u00e0\u00a4\u0124\u00e0\u00a4\u00a7": 2310,
  "\u0120\u00e0\u00a4\u00af\u00e0\u00a5\u0124\u00e0\u00a4\u00a8": 2311,
  "av": 2312,
  "\u0120\u00e0\u00a4\u00aa\u00e0\u00a5\u0125\u00e0\u00a4\u00a5": 2313,
  "\u0120\u00e0\u00a4\u013c\u00e0\u00a4\u00af\u00e0\u00a4\u00a8": 2314,
  "\u0120\u00e0\u00a4\u00b5\u00e0\u00a5\u012f\u00e0\u00a4\u00af\u00e0\u00a4\u00be\u00e0\u00a4\u00aa\u00e0\u00a4\u0137": 2315,
  "\u0120\u00e0\u00a4\u00b8\u00e0\u00a4\u0124\u00e0\u00a4\u00b5": 2316,
  "\u0120\u00e0\u00a4\u00b5\u00e0\u00a5\u0125\u00e0\u00a4\u00a6\u00e0\u00a5\u012f\u00e0\u00a4\u00a7\u00e0\u00a4\u00bf": 2317,
  "\u0120\u00e0\u00a4\u013c\u00e0\u00a4\u00b0": 2318,
  "\u0120\u00e0\u00a4\u0137\u00e0\u00a4\u00ae\u00e0\u00a5\u0122": 2319,
  "\u00e0\u00a4\u00ae\u00e0\u00a5\u0129\u00e0\u00a4\u0124\u00e0\u00a4\u0141": 2320,
  "\u00e0\u00a5\u0129\u00e0\u00a4\u00b6\u00e0\u00a4\u00be": 2321,
  "\u00e0\u00a4\u00a8\u00e0\u00a4\u00bf": 2322,
  "\u0120\u00e0\u00a4\u0137\u00e0\u00a4\u00b0\u00e0\u00a5\u012f\u00e0\u00a4\u00ae": 2323,
  "\u00e0\u00a5\u0129\u00e0\u00a4\u0124\u00e0\u00a4\u00a6": 2324,
  "\u0120\u00e0\u00a4\u00a4\u00e0\u00a4\u00b2": 2325,
  "ang": 2326,
  "ph": 2327,
  "\u00e0\u00a4\u00bf\u00e0\u00a4\u0137\u00e0\u00a5\u012d\u00e0\u00a4\u00a3": 2328,
  "\u0120\u00e0\u00a4\u0143\u00e0\u00a5\u0124\u00e0\u00a4\u00ae\u00e0\u00a4\u00bf\u00e0\u00a4\u0137\u00e0\u00a4\u00be": 2329,
  "\u0120\u00e0\u00a4\u0128\u00e0\u00a4\u00a8": 2330,
  "\u0120\u00e0\u00a4\u00a6\u00e0\u00a5\u0129\u00e0\u00a4\u00b6\u00e0\u00a5\u012d\u00e0\u00a4\u0124": 2331,
  "\u00e0\u00a4\u00a4\u00e0\u00a4\u00bf\u00e0\u00a4\u00af\u00e0\u00a5\u012d\u00e0\u00a4\u0124": 2332,
  "\u0120\u00e0\u00a4\u00aa\u00e0\u00a4\u00b0\u00e0\u00a4\u00bf\u00e0\u00a4\u00af": 2333,
  "com": 2334,
  "\u0120\u00e0\u00a4\u00aa\u00e0\u00a5\u012f\u00e0\u00a4\u00b0\u00e0\u00a4\u00b8\u00e0\u00a4\u00bf\u00e0\u00a4\u00a6\u00e0\u00a5\u012f\u00e0\u00a4\u00a7": 2335,
  "\u00e0\u00a4\u00b0\u00e0\u00a5\u012f\u00e0\u00a4\u00a7": 2336,
  "\u00e0\u00a5\u012b\u00e0\u00a4\u0139": 2337,
  "\u00e0\u00a4\u00bf\u00e0\u00a4\u00b5\u00e0\u00a4\u00be\u00e0\u00a4\u00b0": 2338,
  "\u0120\u00e0\u00a4\u00a4\u00e0\u00a4\u0137\u00e0\u00a4\u00a8\u00e0\u00a5\u0122\u00e0\u00a4\u0137": 2339,
  "\u0120\u00e0\u00a4\u0127\u00e0\u00a4\u00a8\u00e0\u00a5\u0123\u00e0\u00a4\u00ae\u00e0\u00a4\u00a4\u00e0\u00a4\u00bf": 2340,
  "\u0120he": 2341,
  "(\u00e0\u00a4\u0127": 2342,
  "\u0120\u00e0\u00a4\u0138\u00e0\u00a4\u00be\u00e0\u00a4\u00a6\u00e0\u00a5\u012f\u00e0\u00a4\u00af": 2343,
  "ations": 2344,
  "\u0120\u00e0\u00a4\u0128\u00e0\u00a4\u0124\u00e0\u00a4\u00a7\u00e0\u00a5\u012f\u00e0\u00a4\u00b0": 2345,
  "\u0120\u00e0\u00a4\u0131\u00e0\u00a4\u0124\u00e0\u00a4\u00a1": 2346,
  "\u00e0\u00a4\u00aa\u00e0\u00a4\u00a4\u00e0\u00a4\u00bf": 2347,
  "\u0120\u00e0\u00a4\u00ac\u00e0\u00a5\u012a\u00e0\u00a4\u0142": 2348,
  "\u00e0\u00a4\u0131\u00e0\u00a4\u00a8": 2349,
  "\u0120\u0120\u0120\u0120\u0120": 2350,
  "\u0120\u00e0\u00a4\u00b8\u00e0\u00a5\u012f\u00e0\u00a4\u0141\u00e0\u00a5\u012f\u00e0\u00a4\u00b0": 2351,
  "ial": 2352,
  "\u0120\u00e0\u00a4\u0128\u00e0\u00a4\u00b0\u00e0\u00a5\u012f\u00e0\u00a4\u00a5": 2353,
  "\u0120\u00e0\u00a4\u00b8\u00e0\u00a5\u012b": 2354,
  "\u00e0\u00a5\u012d\u00e0\u00a4\u00b0\u00e0\u00a5\u0122": 2355,
  "\u0120\u00e0\u00a4\u00b8\u00e0\u00a5\u0123\u00e0\u00a4\u013f": 2356,
  "\u0120\u00e0\u00a4\u0131\u00e0\u00a4\u00a1": 2357,
  "\u00e0\u00a4\u00ae\u00e0\u00a4\u00a4": 2358,
  "\u00e0\u00a4\u00b8\u00e0\u00a4\u00be\u00e0\u00a4\u00a8": 2359,
  "\u0120\u00e0\u00a4\u00ac\u00e0\u00a5\u012b": 2360,
  "\u0120\u00e0\u00a4\u00b6\u00e0\u00a4\u00a4": 2361,
  "\u0120\u00e0\u00a4\u00ae\u00e0\u00a5\u0125\u00e0\u00a4\u00a4\u00e0\u00a5\u012f\u00e0\u00a4\u00af\u00e0\u00a5\u0123": 2362,
  "\u00e0\u00a4\u00a4\u00e0\u00a4\u00be\u00e0\u00a4\u00b2": 2363,
  "\u0120\u00e0\u00a4\u00b5\u00e0\u00a4\u00be\u00e0\u00a4\u00b8\u00e0\u00a5\u012f\u00e0\u00a4\u00a4\u00e0\u00a4\u00b5\u00e0\u00a4\u00bf\u00e0\u00a4\u0137": 2364,
  "\u0120\u00e0\u00a4\u0137\u00e0\u00a5\u012d\u00e0\u00a4\u00b6\u00e0\u00a4\u00bf\u00e0\u00a4\u00b6": 2365,
  "ps": 2366,
  "\u0120\u00e0\u00a4\u00a6\u00e0\u00a5\u012d\u00e0\u00a4\u00b8\u00e0\u00a5\u012f\u00e0\u00a4\u00a4": 2367,
  "\u0120\u00e0\u00a4\u00b8\u00e0\u00a4\u00ae\u00e0\u00a5\u0123\u00e0\u00a4\u00a6\u00e0\u00a4\u00be\u00e0\u00a4\u00af": 2368,
  "\u00e2\u0122\u0135": 2369,
  "\u0120\u00e0\u00a4\u0137\u00e0\u00a4\u0142": 2370,
  "\u0120\u00e0\u00a4\u00b8\u00e0\u00a4\u00bf\u00e0\u00a4\u00b8\u00e0\u00a5\u012f\u00e0\u00a4\u0141": 2371,
  "ode": 2372,
  "ice": 2373,
  "\u0120r": 2374,
  "\u0120\u00e0\u00a4\u0137\u00e0\u00a5\u012f\u00e0\u00a4\u00b5": 2375,
  "\u0120\u00e0\u00a4\u00ac\u00e0\u00a5\u0129\u00e0\u00a4\u0141": 2376,
  "\u0120\u00e0\u00a4\u013e\u00e0\u00a5\u012a\u00e0\u00a4\u00b8\u00e0\u00a5\u0122": 2377,
  "40": 2378,
  "\u0120\u00e0\u00a4\u00b5\u00e0\u00a5\u012f\u00e0\u00a4\u00af\u00e0\u00a4\u00b5\u00e0\u00a4\u00b9\u00e0\u00a4\u00be\u00e0\u00a4\u00b0": 2379,
  "ble": 2380,
  "\u00e0\u00a5\u012b\u00e0\u00a4\u00b0\u00e0\u00a5\u012f\u00e0\u00a4\u00ae": 2381,
  "\u0120\u00e0\u00a4\u00b6\u00e0\u00a5\u012f\u00e0\u00a4\u00b0\u00e0\u00a5\u0125\u00e0\u00a4\u0124\u00e0\u00a4\u0138\u00e0\u00a4\u00b2\u00e0\u00a4\u00be": 2382,
  "\u00e0\u00a4\u00ac\u00e0\u00a4\u00b2": 2383,
  "\u00e0\u00a5\u0129\u00e0\u00a4\u013c": 2384,
  "\u0120O": 2385,
  "\u0120\u00e0\u00a4\u00ae\u00e0\u00a4\u0124\u00e0\u00a4\u00a6\u00e0\u00a4\u00bf\u00e0\u00a4\u00b0": 2386,
  "\u00e0\u00a4\u00be\u00e0\u00a4\u0139\u00e0\u00a4\u00b0": 2387,
  "\u0120\u00e0\u00a4\u0137\u00e0\u00a5\u012a\u00e0\u00a4\u0124": 2388,
  "\u0120\u00e0\u00a4\u00b9\u00e0\u00a4\u00ae\u00e0\u00a5\u0129\u00e0\u00a4\u00b6\u00e0\u00a4\u00be": 2389,
  "\u00e0\u00a5\u00aa": 2390,
  "\u0120\u00e0\u00a4\u00aa\u00e0\u00a5\u012d\u00e0\u00a4\u00b0\u00e0\u00a5\u012f\u00e0\u00a4\u0141\u00e0\u00a4\u00b2": 2391,
  "\u00e0\u00a5\u012f\u00e0\u00a4\u00b5\u00e0\u00a4\u00b0": 2392,
  "ase": 2393,
  "form": 2394,
  "\u00e0\u00a5\u012f\u00e0\u00a4\u0143": 2395,
  "\u0120\u00e0\u00a4\u0137\u00e0\u00a5\u0125\u00e0\u00a4\u00aa\u00e0\u00a4\u00af\u00e0\u00a4\u00be": 2396,
  "\u0120\u00e0\u00a4\u013e\u00e0\u00a4\u00bf\u00e0\u00a4\u00a8\u00e0\u00a5\u012f\u00e0\u00a4\u00b9\u00e0\u00a5\u0129\u00e0\u00a4\u0124": 2397,
  "\u0120\u00e0\u00a4\u00b0\u00e0\u00a4\u0137\u00e0\u00a5\u012f\u00e0\u00a4\u00a4": 2398,
  "\u0120\u00e0\u00a4\u0132\u00e0\u00a4\u00b8\u00e0\u00a5\u0122": 2399,
  "\u00e0\u00a4\u00bf\u00e0\u00a4\u00a8\u00e0\u00a4\u00bf\u00e0\u00a4\u00a7": 2400,
  "oo": 2401,
  "\u00e0\u00a4\u00b5\u00e0\u00a4\u00b0\u00e0\u00a5\u012f\u00e0\u00a4\u0137": 2402,
  "\u00e0\u00a5\u0122\u00e0\u00a4\u0137\u00e0\u00a5\u0125\u00e0\u00a4\u00a4": 2403,
  "\u00e0\u00a5\u012a\u00e0\u00a4\u0137\u00e0\u00a5\u012f\u00e0\u00a4\u00b8": 2404,
  "\u0120\u00e0\u00a4\u00ae\u00e0\u00a5\u012a\u00e0\u00a4\u0124\u00e0\u00a4\u00a8\u00e0\u00a5\u0129": 2405,
  "\u0120\u00e0\u00a4\u00b5\u00e0\u00a4\u00b0\u00e0\u00a5\u012f\u00e0\u00a4\u00a3\u00e0\u00a4\u00a8": 2406,
  "\u0120at": 2407,
  "21": 2408,
  "\u0120\u00e0\u00a4\u012b\u00e0\u00a4\u00b8\u00e0\u00a4\u0137\u00e0\u00a4\u00be": 2409,
  "\u0120\u00e0\u00a4\u00af\u00e0\u00a5\u0124\u00e0\u00a4\u00b0\u00e0\u00a5\u012d\u00e0\u00a4\u00aa": 2410,
  "\u0120\u00e0\u00a4\u0128\u00e0\u00a4\u00aa\u00e0\u00a4\u0137\u00e0\u00a4\u00be": 2411,
  "\u0120\u00e0\u00a4\u00aa\u00e0\u00a4\u00be\u00e0\u00a4\u00b0\u00e0\u00a5\u012f\u00e0\u00a4\u0141\u00e0\u00a5\u0122": 2412,
  "\u0120\u00e0\u00a4\u00b0\u00e0\u00a4\u0138\u00e0\u00a4\u00a4\u00e0\u00a5\u0129": 2413,
  "\u0120\u00e0\u00a4\u013a\u00e0\u00a4\u0124\u00e0\u00a4\u0141": 2414,
  "\u0120\u00e0\u00a4\u00b2\u00e0\u00a4\u0139\u00e0\u00a4\u00be": 2415,
  "\u0120\u00e0\u00a4\u0137\u00e0\u00a4\u00be\u00e0\u00a4\u0124": 2416,
  "\u0120\u00e0\u00a4\u00b8\u00e0\u00a5\u0122\u00e0\u00a4\u00ae\u00e0\u00a4\u00be": 2417,
  "\u0120\u00e0\u00a4\u00b5\u00e0\u00a4\u00be\u00e0\u00a4\u00b0": 2418,
  "\u00e0\u00a4\u00be\u00e0\u00a4\u00aa\u00e0\u00a4\u00a8": 2419,
  "\u0120\u00e0\u00a4\u00ac\u00e0\u00a4\u00b8": 2420,
  "\u00e0\u00a4\u0133": 2421,
  "\u0120\u00e0\u00a4\u00b5\u00e0\u00a5\u012f\u00e0\u00a4\u00af\u00e0\u00a4\u0137\u00e0\u00a5\u012f\u00e0\u00a4\u00a4\u00e0\u00a4\u00bf\u00e0\u00a4\u0139\u00e0\u00a4\u00a4": 2422,
  "\u0120\u00e0\u00a4\u00b8\u00e0\u00a5\u0123\u00e0\u00a4\u00b0\u00e0\u00a4\u0137\u00e0\u00a5\u012f\u00e0\u00a4\u00b7\u00e0\u00a4\u00bf\u00e0\u00a4\u00a4": 2423,
  "\u00e0\u00a4\u00be\u00e0\u00a4\u0123\u00e0\u00a4\u0137\u00e0\u00a4\u00bf": 2424,
  "ary": 2425,
  "ther": 2426,
  "\u0120pl": 2427,
  "\u0120\u00e0\u00a4\u0128\u00e0\u00a4\u00ac": 2428,
  "\u00e0\u00a5\u0123\u00e0\u00a4\u00b2\u00e0\u00a4\u00be\u00e0\u00a4\u012a": 2429,
  "\u0120\u00e0\u00a4\u0129\u00e0\u00a4\u00b8\u00e0\u00a5\u012f\u00e0\u00a4\u00a4": 2430,
  "\u00e0\u00a5\u0124\u00e0\u00a4\u0124": 2431,
  "\u00e0\u00a5\u012f\u00e0\u00a4\u0139\u00e0\u00a5\u012d\u00e0\u00a4\u00b0": 2432,
  "\u00e0\u00a4\u00bf\u00e0\u00a4\u00af\u00e0\u00a4\u00b2": 2433,
  "\u00e0\u00a4\u00bf\u00e0\u00a4\u0137\u00e0\u00a5\u0129\u00e0\u00a4\u0141": 2434,
  "\u0120\u00e0\u00a4\u00b9\u00e0\u00a5\u012d\u00e0\u00a4\u0124\u00e0\u00a4\u0139\u00e0\u00a5\u0129": 2435,
  "\u0120\u00e0\u00a4\u00aa\u00e0\u00a4\u00bf\u00e0\u00a4\u00a4\u00e0\u00a4\u00be": 2436,
  "\u00e0\u00a4\u00be\u00e0\u00a4\u00af\u00e0\u00a5\u0122": 2437,
  "\u00e0\u00a4\u0124\u00e0\u00a4\u00aa\u00e0\u00a4\u00b0": 2438,
  "\u00e0\u00a5\u012e\u00e0\u00a4\u00a6\u00e0\u00a5\u012f\u00e0\u00a4\u00af\u00e0\u00a5\u012d\u00e0\u00a4\u0139": 2439,
  "\u0120\u00e0\u00a4\u00b8\u00e0\u00a4\u00ae\u00e0\u00a5\u0122\u00e0\u00a4\u0137\u00e0\u00a5\u012f\u00e0\u00a4\u00b7\u00e0\u00a4\u00be": 2440,
  "\u0120\u00e0\u00a4\u00ae\u00e0\u00a4\u00be\u00e0\u00a4\u00ae\u00e0\u00a4\u00b2\u00e0\u00a5\u0129": 2441,
  "\u0120\u00e0\u00a4\u00b8\u00e0\u00a5\u012e": 2442,
  "\u0120\u00e0\u00a4\u00b8\u00e0\u00a4\u00ae\u00e0\u00a5\u012f\u00e0\u00a4\u00ae\u00e0\u00a4\u00be\u00e0\u00a4\u00a8": 2443,
  "In": 2444,
  "\u0120\u00e0\u00a4\u00b8\u00e0\u00a5\u0124\u00e0\u00a4\u00b0": 2445,
  "\u0120\u00e0\u00a4\u012b\u00e0\u00a4\u00ae\u00e0\u00a5\u012f\u00e0\u00a4\u00b0": 2446,
  "\u0120\u00e0\u00a4\u00b8\u00e0\u00a4\u0124\u00e0\u00a4\u0143\u00e0\u00a4\u00be\u00e0\u00a4\u00b5\u00e0\u00a4\u00a8\u00e0\u00a4\u00be": 2447,
  "\u00e0\u00a4\u0124\u00e0\u00a4\u013e\u00e0\u00a4\u00a8": 2448,
  "\u00e0\u00a5\u0129\u00e0\u00a4\u00a6\u00e0\u00a4\u00a8": 2449,
  "rint": 2450,
  "ub": 2451,
  "\u0120\u00e0\u00a4\u00b8\u00e0\u00a4\u00be\u00e0\u00a4\u00b0\u00e0\u00a5\u012f\u00e0\u00a4\u00b5": 2452,
  "\u00e0\u00a4\u0141\u00e0\u00a5\u012f\u00e0\u00a4\u00b0": 2453,
  "\u00e0\u00a4\u00a5\u00e0\u00a4\u00ae": 2454,
  "\u0120\u00e0\u00a4\u00aa\u00e0\u00a5\u0124\u00e0\u00a4\u00b0\u00e0\u00a5\u0129": 2455,
  "\u0120\u00e0\u00a4\u00b2\u00e0\u00a4\u00be\u00e0\u00a4\u00b2": 2456,
  "\u00e0\u00a5\u012d\u00e0\u00a4\u00a7\u00e0\u00a4\u00bf\u00e0\u00a4\u00a4": 2457,
  "\u0120\u00e0\u00a4\u00aa\u00e0\u00a5\u012f\u00e0\u00a4\u00b0\u00e0\u00a4\u00a4\u00e0\u00a4\u00bf\u00e0\u00a4\u00a8\u00e0\u00a4\u00bf\u00e0\u00a4\u00a7": 2458,
  "\u0120\u00e0\u00a4\u012b\u00e0\u00a4\u00a6\u00e0\u00a5\u012f\u00e0\u00a4\u00af\u00e0\u00a5\u012d\u00e0\u00a4\u0139": 2459,
  "\u0120\u00e0\u00a4\u013e\u00e0\u00a4\u00be\u00e0\u00a4\u00b2": 2460,
  "\u00e0\u00a4\u00b0\u00e0\u00a5\u012f\u00e0\u00a4\u00aa": 2461,
  "\u0120\u00e0\u00a4\u0139\u00e0\u00a4\u00a4\u00e0\u00a4\u00bf": 2462,
  "\u0120\u00e0\u00a4\u00ae\u00e0\u00a5\u0129\u00e0\u00a4\u00b0\u00e0\u00a5\u0129": 2463,
  "\u0120\u00e0\u00a4\u00b5\u00e0\u00a4\u00bf\u00e0\u00a4\u0143\u00e0\u00a4\u00be\u00e0\u00a4\u013e": 2464,
  "\u0120\u00e0\u00a4\u00a8\u00e0\u00a5\u0129\u00e0\u00a4\u0141": 2465,
  "\u0120\u00e0\u00a4\u00b8\u00e0\u00a4\u0137\u00e0\u00a4\u00be\u00e0\u00a4\u00b0": 2466,
  "\u0120\u00e0\u00a4\u0128\u00e0\u00a4\u00a7\u00e0\u00a4\u00be\u00e0\u00a4\u00b0\u00e0\u00a4\u00bf\u00e0\u00a4\u00a4": 2467,
  "\u0120\u00e0\u00a4\u00b8\u00e0\u00a4\u00bf\u00e0\u00a4\u00b8\u00e0\u00a5\u012f\u00e0\u00a4\u0141\u00e0\u00a4\u00ae": 2468,
  "\u0120\u00e0\u00a4\u00a6\u00e0\u00a4\u00b6\u00e0\u00a4\u0137": 2469,
  "\u00e0\u00a5\u012f\u00e0\u00a4\u00af\u00e0\u00a4\u00be\u00e0\u00a4\u00b8": 2470,
  "\u00e0\u00a4\u00ae\u00e0\u00a4\u00a8": 2471,
  "\u00e0\u00a5\u012d\u00e0\u00a4\u013e\u00e0\u00a4\u00bf\u00e0\u00a4\u00a4": 2472,
  "\u0120\u00e0\u00a4\u00b5\u00e0\u00a4\u00bf\u00e0\u00a4\u00a7\u00e0\u00a4\u00be\u00e0\u00a4\u00a8": 2473,
  "\u0120\u00e0\u00a4\u00b8\u00e0\u00a4\u0137\u00e0\u00a4\u00be\u00e0\u00a4\u00b0\u00e0\u00a4\u00be\u00e0\u00a4\u00a4\u00e0\u00a5\u012f\u00e0\u00a4\u00ae\u00e0\u00a4\u0137": 2474,
  "\u0120\u00e0\u00a4\u00ae\u00e0\u00a4\u00bf\u00e0\u00a4\u00a8": 2475,
  "\u0120\u00e0\u00a4\u00aa\u00e0\u00a4\u00be\u00e0\u00a4\u00af\u00e0\u00a4\u00be": 2476,
  "\u00e0\u00a4\u0137\u00e0\u00a5\u012f\u00e0\u00a4\u00b0\u00e0\u00a4\u00ae\u00e0\u00a4\u00a3": 2477,
  "ous": 2478,
  "\u0120\u00e0\u00a4\u00a4\u00e0\u00a4\u00a5": 2479,
  "\u00e0\u00a4\u00b8\u00e0\u00a4\u0124\u00e0\u00a4\u0138": 2480,
  "\u00e0\u00a4\u0141\u00e0\u00a4\u00bf\u00e0\u00a4\u00b2": 2481,
  "\u0120\u00e0\u00a4\u00a8\u00e0\u00a5\u012f\u00e0\u00a4\u00af\u00e0\u00a4\u00be\u00e0\u00a4\u00af": 2482,
  "\u0120\u00e0\u00a4\u00b8\u00e0\u00a4\u00b9\u00e0\u00a4\u00af\u00e0\u00a5\u012d\u00e0\u00a4\u0139": 2483,
  "der": 2484,
  "\u0120\u00e0\u00a4\u0128\u00e0\u00a4\u0137\u00e0\u00a4\u00b0\u00e0\u00a5\u012f\u00e0\u00a4\u00b7": 2485,
  "\u00e0\u00a4\u00be\u00e0\u00a4\u00b9\u00e0\u00a5\u0122": 2486,
  "\u0120\u00e0\u00a4\u00b8\u00e0\u00a4\u00bf\u00e0\u00a4\u00a6\u00e0\u00a5\u012f\u00e0\u00a4\u00a7\u00e0\u00a4\u00be\u00e0\u00a4\u0124\u00e0\u00a4\u00a4": 2487,
  "\")": 2488,
  "\u0120\u00e0\u00a4\u0143\u00e0\u00a5\u012e": 2489,
  "\u00e0\u00a4\u0141\u00e0\u00a4\u00b2": 2490,
  "\u0120their": 2491,
  "\u00e0\u00a4\u00a6\u00e0\u00a4\u00ae": 2492,
  "\u00e0\u00a4\u0139\u00e0\u00a4\u00a2\u00e0\u00a4\u00bc": 2493,
  "\u0120\u00e0\u00a4\u0139\u00e0\u00a4\u00a3\u00e0\u00a4\u00a8\u00e0\u00a4\u00be": 2494,
  "\u0120\u00e0\u00a4\u00a4\u00e0\u00a4\u00be\u00e0\u00a4\u00aa\u00e0\u00a4\u00ae\u00e0\u00a4\u00be\u00e0\u00a4\u00a8": 2495,
  "\u0120\u00e0\u00a4\u00b8\u00e0\u00a4\u0124\u00e0\u00a4\u0137\u00e0\u00a5\u0129\u00e0\u00a4\u00a4": 2496,
  "\u0120\u00e0\u00a4\u00b8\u00e0\u00a4\u00ae\u00e0\u00a4\u00be\u00e0\u00a4\u00aa\u00e0\u00a5\u012f\u00e0\u00a4\u00a4": 2497,
  "\u0120\u00e0\u00a4\u00aa\u00e0\u00a5\u012f\u00e0\u00a4\u00b0\u00e0\u00a4\u00a4\u00e0\u00a4\u00bf\u00e0\u00a4\u0137\u00e0\u00a5\u012f\u00e0\u00a4\u00b0\u00e0\u00a4\u00bf\u00e0\u00a4\u00af\u00e0\u00a4\u00be": 2498,
  "\u0120\u00e0\u00a4\u0139\u00e0\u00a4\u00b2": 2499,
  "\u0120\u00e0\u00a4\u00a4\u00e0\u00a4\u0141": 2500,
  "24": 2501,
  "\u0120\u00e0\u00a4\u0129\u00e0\u00a4\u00b8\u00e0\u00a5\u0122": 2502,
  "\u0120\u00e0\u00a4\u0143\u00e0\u00a5\u0129\u00e0\u00a4\u013e": 2503,
  "\u0120\u00e0\u00a4\u013e\u00e0\u00a4\u00bf\u00e0\u00a4\u00b2\u00e0\u00a4\u00be": 2504,
  "\u0120\u00e0\u00a4\u00aa\u00e0\u00a5\u012f\u00e0\u00a4\u00b0\u00e0\u00a4\u00b8\u00e0\u00a5\u012f\u00e0\u00a4\u00a4\u00e0\u00a5\u0123\u00e0\u00a4\u00a4": 2505,
  "\u00e0\u00a4\u013e\u00e0\u00a4\u00be": 2506,
  "\u0120\u00e0\u00a4\u013e\u00e0\u00a5\u012f\u00e0\u00a4\u0140\u00e0\u00a4\u00be\u00e0\u00a4\u00a8": 2507,
  "\u0120\u00e0\u00a4\u00b6\u00e0\u00a4\u00a4\u00e0\u00a4\u00be\u00e0\u00a4\u00ac": 2508,
  "\u0120\u00e0\u00a4\u00b8\u00e0\u00a4\u00b5\u00e0\u00a4\u00be\u00e0\u00a4\u00b2": 2509,
  "\u0120\u00e0\u00a4\u0128\u00e0\u00a4\u0139": 2510,
  "\u0120\u00e0\u00a4\u00b0\u00e0\u00a5\u012d": 2511,
  "\u0120\u00e0\u00a4\u00aa\u00e0\u00a5\u0125\u00e0\u00a4\u00a5\u00e0\u00a5\u012f\u00e0\u00a4\u00b5\u00e0\u00a5\u0122": 2512,
  "\u0120\u00e0\u00a4\u00b5\u00e0\u00a4\u00bf\u00e0\u00a4\u00aa": 2513,
  "\u0120\u00e0\u00a4\u00aa\u00e0\u00a5\u0125\u00e0\u00a4\u00b7\u00e0\u00a5\u012f\u00e0\u00a4\u0142": 2514,
  "\u00e0\u00a4\u0136": 2515,
  "ide": 2516,
  "\u0120\u00e0\u00a4\u0137\u00e0\u00a4\u0124\u00e0\u00a4\u00aa\u00e0\u00a5\u012f\u00e0\u00a4\u00af\u00e0\u00a5\u0124\u00e0\u00a4\u0141\u00e0\u00a4\u00b0": 2517,
  "\u0120x": 2518,
  "\u0120\u00e0\u00a4\u0139\u00e0\u00a4\u00be\u00e0\u00a4\u0124": 2519,
  "\u0120\u00e0\u00a4\u00aa\u00e0\u00a4\u00b9\u00e0\u00a5\u0123\u00e0\u00a4\u0123": 2520,
  "\u0120\u00e0\u00a4\u00b9\u00e0\u00a4\u00be\u00e0\u00a4\u00b2\u00e0\u00a4\u00be\u00e0\u00a4\u0123\u00e0\u00a4\u0137\u00e0\u00a4\u00bf": 2521,
  "\u0120\u00e0\u00a4\u00b8\u00e0\u00a4\u0124\u00e0\u00a4\u0143\u00e0\u00a4\u00be\u00e0\u00a4\u00b5\u00e0\u00a4\u00bf\u00e0\u00a4\u00a4": 2522,
  "\u00e0\u00a4\u00b6\u00e0\u00a5\u0122": 2523,
  "ry": 2524,
  "\u0120j": 2525,
  "\u0120\u00e0\u00a4\u00b8\u00e0\u00a4\u0124\u00e0\u00a4\u00aa\u00e0\u00a4\u00b0\u00e0\u00a5\u012f\u00e0\u00a4\u0137": 2526,
  "\u00e0\u00a4\u00ac\u00e0\u00a5\u012f\u00e0\u00a4\u00b2\u00e0\u00a5\u012f\u00e0\u00a4\u00af\u00e0\u00a5\u0124": 2527,
  "\u0120\u00e0\u00a4\u00b0\u00e0\u00a4\u00be\u00e0\u00a4\u00a4": 2528,
  "\u0120\u00e0\u00a4\u00a8\u00e0\u00a5\u0123\u00e0\u00a4\u0137": 2529,
  "\u0120\u00e0\u00a4\u00ac\u00e0\u00a4\u00be\u00e0\u00a4\u013e": 2530,
  "\u0120\u00e0\u00a4\u00aa\u00e0\u00a5\u012f\u00e0\u00a4\u00b0\u00e0\u00a5\u012e\u00e0\u00a4\u00a6\u00e0\u00a5\u012f\u00e0\u00a4\u00af\u00e0\u00a5\u012d\u00e0\u00a4\u0139": 2531,
  "ake": 2532,
  "\u0120\u00e0\u00a4\u00a6\u00e0\u00a5\u0125\u00e0\u00a4\u00b7\u00e0\u00a5\u012f\u00e0\u00a4\u0141\u00e0\u00a4\u00bf\u00e0\u00a4\u0137\u00e0\u00a5\u012d\u00e0\u00a4\u00a3": 2533,
  "\u0120\u00e0\u00a4\u013c\u00e0\u00a5\u0122\u00e0\u00a4\u013e": 2534,
  "\u0120have": 2535,
  "\u00e0\u00a4\u00af\u00e0\u00a4\u00b0": 2536,
  "\u00e0\u00a4\u00bf\u00e0\u00a4\u0143\u00e0\u00a4\u00be\u00e0\u00a4\u00b7": 2537,
  "\u0120\u00e0\u00a4\u00a8\u00e0\u00a4\u00bf\u00e0\u00a4\u00b0\u00e0\u00a5\u012f\u00e0\u00a4\u00a3": 2538,
  "\u00e0\u00a4\u00be\u00e0\u00a4\u012c\u00e0\u00a4\u0123": 2539,
  "\u0120res": 2540,
  "ight": 2541,
  "\u00e0\u00a4\u00b5\u00e0\u00a4\u00bf\u00e0\u00a4\u0137\u00e0\u00a4\u00b2\u00e0\u00a5\u012f\u00e0\u00a4\u00aa": 2542,
  "\u0120\u00e0\u00a4\u0128\u00e0\u00a4\u00b0\u00e0\u00a5\u012f\u00e0\u00a4\u00a5\u00e0\u00a4\u00bf\u00e0\u00a4\u0137": 2543,
  "\u0120\u00e0\u00a4\u012b\u00e0\u00a4\u00a6\u00e0\u00a5\u012f\u00e0\u00a4\u00a6\u00e0\u00a5\u0129\u00e0\u00a4\u00b6\u00e0\u00a5\u012f\u00e0\u00a4\u00af": 2544,
  "\u0120\u00e0\u00a4\u0127\u00e0\u00a4\u00a4\u00e0\u00a5\u012f\u00e0\u00a4\u00af": 2545,
  "\u00e0\u00a5\u012f\u00e0\u00a4\u00af\u00e0\u00a4\u00a4\u00e0\u00a4\u00be": 2546,
  "\u00e0\u00a4\u0139\u00e0\u00a4\u00b2": 2547,
  "\u0120\u00e0\u00a4\u00b0\u00e0\u00a5\u012d\u00e0\u00a4\u00ae": 2548,
  "\u0120\u00e0\u00a4\u00a6\u00e0\u00a5\u012f\u00e0\u00a4\u00b5\u00e0\u00a5\u0122\u00e0\u00a4\u00aa": 2549,
  "\u00e0\u00a4\u0124\u00e0\u00a4\u00a1\u00e0\u00a4\u00b2": 2550,
  "\u0120\u00e0\u00a4\u00aa\u00e0\u00a5\u012f\u00e0\u00a4\u00b0\u00e0\u00a4\u013e\u00e0\u00a4\u00be\u00e0\u00a4\u00a4": 2551,
  "\u0120\u00e0\u00a4\u00a4\u00e0\u00a4\u00be\u00e0\u00a4\u00b2\u00e0\u00a4\u00bf\u00e0\u00a4\u0137\u00e0\u00a4\u00be": 2552,
  "\u0120\u00e0\u00a4\u0129\u00e0\u00a4\u0124\u00e0\u00a4\u00a1": 2553,
  "\u00e0\u00a4\u00b8\u00e0\u00a4\u00b0\u00e0\u00a5\u0122": 2554,
  "\u0120\u00e0\u00a4\u00a6\u00e0\u00a5\u0129\u00e0\u00a4\u00a4\u00e0\u00a5\u0122": 2555,
  "\u0120\u00e0\u00a4\u0137\u00e0\u00a4\u00a5": 2556,
  "\u0120\u00e0\u00a4\u00aa\u00e0\u00a4\u00be\u00e0\u00a4\u00b2\u00e0\u00a4\u00a8": 2557,
  "\u0120\u00e0\u00a4\u00b0\u00e0\u00a5\u0124": 2558,
  "\u00e0\u00a4\u013c\u00e0\u00a4\u00be": 2559,
  "(\u00e0\u00a4\u0137": 2560,
  "\u0120\u00e0\u00a4\u00a6\u00e0\u00a5\u0129\u00e0\u00a4\u0138\u00e0\u00a4\u00a8\u00e0\u00a5\u0129": 2561,
  "\u0120\u00e0\u00a4\u00a4\u00e0\u00a4\u00bf\u00e0\u00a4\u00a5": 2562,
  "\u00e0\u00a5\u012b\u00e0\u00a4\u00b2\u00e0\u00a4\u00b0": 2563,
  "\u0120\u00e0\u00a4\u013c\u00e0\u00a5\u0123\u00e0\u00a4\u00a8\u00e0\u00a5\u012e": 2564,
  "\u00e0\u00a4\u00aa\u00e0\u00a5\u012f\u00e0\u00a4\u00b0\u00e0\u00a4\u00bf\u00e0\u00a4\u00af": 2565,
  "\u0120\u00e0\u00a4\u00ae\u00e0\u00a5\u012e\u00e0\u00a4\u00b8\u00e0\u00a4\u00ae": 2566,
  "\u0120\u00e0\u00a4\u0137\u00e0\u00a4\u00b2\u00e0\u00a4\u00be": 2567,
  "\u00e0\u00a4\u013e\u00e0\u00a4\u00a8\u00e0\u00a4\u00bf\u00e0\u00a4\u0137": 2568,
  "\u00e0\u00a4\u00a8\u00e0\u00a5\u0129\u00e0\u00a4\u0137": 2569,
  "\u0120your": 2570,
  "\u0120\u00e0\u00a4\u00aa\u00e0\u00a5\u012f\u00e0\u00a4\u00b0\u00e0\u00a4\u0137\u00e0\u00a4\u00be\u00e0\u00a4\u00b6\u00e0\u00a4\u00bf\u00e0\u00a4\u00a4": 2571,
  "\u0120\u00e0\u00a4\u00a8\u00e0\u00a4\u00bf\u00e0\u00a4\u00b6\u00e0\u00a5\u012f\u00e0\u00a4\u013c\u00e0\u00a4\u00bf\u00e0\u00a4\u00a4": 2572,
  "\u00e0\u00a5\u0129\u00e0\u00a4\u00a6\u00e0\u00a4\u00be\u00e0\u00a4\u00b0": 2573,
  "ard": 2574,
  "\u0120\u00e0\u00a4\u00a6\u00e0\u00a4\u00bf\u00e0\u00a4\u0138\u00e0\u00a4\u00be\u00e0\u00a4\u012a": 2575,
  "\u0120\u00e0\u00a4\u0137\u00e0\u00a5\u0123\u00e0\u00a4\u00ae\u00e0\u00a4\u00be\u00e0\u00a4\u012c\u00e0\u00a4\u0123": 2576,
  "\u00e0\u00a5\u0129\u00e0\u00a4\u0137\u00e0\u00a5\u012f\u00e0\u00a4\u0141\u00e0\u00a5\u012f\u00e0\u00a4\u00b0": 2577,
  "\u0120\u00e0\u00a4\u0137\u00e0\u00a4\u00be\u00e0\u00a4\u00b0\u00e0\u00a5\u012f\u00e0\u00a4\u00ac": 2578,
  "\u00e0\u00a5\u0123\u00e0\u00a4\u00a8\u00e0\u00a4\u00bf\u00e0\u00a4\u0137": 2579,
  "22": 2580,
  "\u0120\u00e0\u00a4\u00b5\u00e0\u00a4\u00bf\u00e0\u00a4\u00a4\u00e0\u00a5\u012f\u00e0\u00a4\u00a4": 2581,
  "\u0120\u00e0\u00a4\u00a8\u00e0\u00a4\u00be\u00e0\u00a4\u0139": 2582,
  "ance": 2583,
  "\u0120\u00e0\u00a4\u0128\u00e0\u00a4\u00ac\u00e0\u00a4\u00be\u00e0\u00a4\u00a6\u00e0\u00a5\u0122": 2584,
  "\u0120\u00e0\u00a4\u012b\u00e0\u00a4\u00aa\u00e0\u00a4\u013c\u00e0\u00a4\u00be\u00e0\u00a4\u00b0": 2585,
  "\u0120\u00e0\u00a4\u00b0\u00e0\u00a4\u00bf\u00e0\u00a4\u0137\u00e0\u00a5\u012b\u00e0\u00a4\u00b0\u00e0\u00a5\u012f\u00e0\u00a4\u00a1": 2586,
  "\u0120\u00e0\u00a4\u00a8\u00e0\u00a4\u00be\u00e0\u00a4\u00ae\u00e0\u00a4\u0137": 2587,
  "\u00e0\u00a4\u00a8\u00e0\u00a5\u012f\u00e0\u00a4\u00a6\u00e0\u00a5\u012f\u00e0\u00a4\u00b0": 2588,
  "\u00e0\u00a5\u0129\u00e0\u00a4\u00a4\u00e0\u00a4\u00be": 2589,
  "\u0120\u00e0\u00a4\u00b8\u00e0\u00a4\u0124\u00e0\u00a4\u0139\u00e0\u00a4\u0142\u00e0\u00a4\u00a8": 2590,
  "\u0120me": 2591,
  "\u00e0\u00a4\u00af\u00e0\u00a4\u0124": 2592,
  "\u0120\u00e0\u00a4\u0139\u00e0\u00a5\u012d\u00e0\u00a4\u00b2": 2593,
  "con": 2594,
  "\u0120\u00e0\u00a4\u00ae\u00e0\u00a4\u00b6\u00e0\u00a5\u0122\u00e0\u00a4\u00a8": 2595,
  "\u00e0\u00a4\u00b8\u00e0\u00a4\u00b2": 2596,
  "\u0120\u00e0\u00a4\u0143\u00e0\u00a5\u0122\u00e0\u00a4\u00a4\u00e0\u00a4\u00b0": 2597,
  "\u0120\u00e0\u00a4\u00a4\u00e0\u00a4\u00b0\u00e0\u00a5\u012f\u00e0\u00a4\u0137": 2598,
  "\u00e0\u00a4\u00be\u00e0\u00a4\u00b8\u00e0\u00a5\u012f\u00e0\u00a4\u0137": 2599,
  "\u0120\u00e0\u00a4\u00ae\u00e0\u00a4\u00be\u00e0\u00a4\u00b2": 2600,
  "fer": 2601,
  "\u0120\u00e0\u00a4\u013d\u00e0\u00a5\u012d\u00e0\u00a4\u0141\u00e0\u00a5\u0122": 2602,
  "\u00e0\u00a4\u00be\u00e0\u00a4\u00b0\u00e0\u00a5\u012f\u00e0\u00a4\u0141": 2603,
  "\u0120\u00e0\u00a4\u00b8\u00e0\u00a4\u00ae\u00e0\u00a5\u0123\u00e0\u00a4\u00a6\u00e0\u00a5\u012f\u00e0\u00a4\u00b0": 2604,
  "\u00e0\u00a4\u0124\u00e0\u00a4\u00a7\u00e0\u00a4\u00be\u00e0\u00a4\u00a8": 2605,
  "\u00e0\u00a4\u00be\u00e0\u00a4\u013c\u00e0\u00a5\u0122\u00e0\u00a4\u00a8": 2606,
  "ath": 2607,
  "\u0120if": 2608,
  "\u00e0\u00a4\u00a4\u00e0\u00a5\u012f\u00e0\u00a4\u00a4\u00e0\u00a4\u00bf": 2609,
  "\u0120\u00e0\u00a4\u00b8\u00e0\u00a4\u00a8": 2610,
  "\u0120\u00e0\u00a4\u00b0\u00e0\u00a4\u00b9\u00e0\u00a4\u00a4\u00e0\u00a5\u0129": 2611,
  "\u0120\u00e0\u00a4\u0128\u00e0\u00a4\u00a4\u00e0\u00a5\u012f\u00e0\u00a4\u00ae": 2612,
  "\u00e0\u00a5\u0124\u00e0\u00a4\u00ac\u00e0\u00a4\u00b0": 2613,
  "\u00e0\u00a4\u0137\u00e0\u00a4\u00be\u00e0\u00a4\u00b0\u00e0\u00a4\u00be\u00e0\u00a4\u00a4\u00e0\u00a5\u012f\u00e0\u00a4\u00ae\u00e0\u00a4\u0137": 2614,
  "\u0120\u00e0\u00a4\u013e\u00e0\u00a5\u0124\u00e0\u00a4\u00a8": 2615,
  "\u0120\u00e0\u00a4\u00b6\u00e0\u00a4\u0137\u00e0\u00a5\u012f\u00e0\u00a4\u00a4\u00e0\u00a4\u00bf": 2616,
  "\u00e0\u00a4\u00b8\u00e0\u00a4\u00a4": 2617,
  "\u00e0\u00a4\u00b5\u00e0\u00a4\u00be\u00e0\u00a4\u00af\u00e0\u00a5\u0123": 2618,
  "\u00e0\u00a4\u00bf\u00e0\u00a4\u00b9\u00e0\u00a4\u00be\u00e0\u00a4\u00b0": 2619,
  "\u0120\u00e0\u00a4\u00b6\u00e0\u00a4\u00a4\u00e0\u00a4\u00be\u00e0\u00a4\u00ac\u00e0\u00a5\u012f\u00e0\u00a4\u00a6\u00e0\u00a5\u0122": 2620,
  "\u00e0\u00a4\u00bf\u00e0\u00a4\u0137\u00e0\u00a4\u00be\u00e0\u00a4\u0135\u00e0\u00a4\u0124": 2621,
  "\u00e0\u00a4\u00bf\u00e0\u00a4\u0137\u00e0\u00a4\u00b2": 2622,
  "...": 2623,
  "\u0120\u00e0\u00a4\u00ae\u00e0\u00a4\u00b9\u00e0\u00a4\u00bf\u00e0\u00a4\u00b2\u00e0\u00a4\u00be\u00e0\u00a4\u0135\u00e0\u00a4\u0124": 2624,
  "\u00e0\u00a4\u00b6\u00e0\u00a5\u012f\u00e0\u00a4\u00b0": 2625,
  "gr": 2626,
  "\u0120\u00e0\u00a4\u00b5\u00e0\u00a5\u012f\u00e0\u00a4\u00af\u00e0\u00a4\u00b5\u00e0\u00a4\u00b8\u00e0\u00a4\u00be\u00e0\u00a4\u00af": 2627,
  "\u00e0\u00a4\u00ae\u00e0\u00a4\u00b0": 2628,
  "\u00e0\u00a4\u00b0\u00e0\u00a5\u012f\u00e0\u00a4\u00a3": 2629,
  "\u0120\u00e0\u00a4\u0139\u00e0\u00a5\u012a\u00e0\u00a4\u00b0": 2630,
  "\u0120\u00e0\u00a4\u00b0\u00e0\u00a5\u0129\u00e0\u00a4\u0138": 2631,
  "\u0120\u00e0\u00a4\u013e\u00e0\u00a4\u0141\u00e0\u00a4\u00bf\u00e0\u00a4\u00b2": 2632,
  "ions": 2633,
  "\u0120Th": 2634,
  "\u00e0\u00a5\u00ae": 2635,
  "\u0120\u00e0\u00a4\u00b8\u00e0\u00a4\u00be\u00e0\u00a4\u00ae\u00e0\u00a4\u00a8\u00e0\u00a5\u0129": 2636,
  "\u0120\u00e0\u00a4\u0127\u00e0\u00a4\u00a8\u00e0\u00a5\u0123\u00e0\u00a4\u0137": 2637,
  "\u0120\u00e0\u00a4\u00a8\u00e0\u00a4\u00af\u00e0\u00a4\u00be": 2638,
  "\u0120\u00e0\u00a4\u00a8\u00e0\u00a5\u0123\u00e0\u00a4\u0137\u00e0\u00a4\u00b8\u00e0\u00a4\u00be\u00e0\u00a4\u00a8": 2639,
  "\u00e0\u00a5\u012f\u00e0\u00a4\u00af\u00e0\u00a4\u00be\u00e0\u00a4\u00b0": 2640,
  "\u0120\u00e0\u00a4\u0143\u00e0\u00a5\u0124\u00e0\u00a4\u00ae\u00e0\u00a4\u00bf": 2641,
  "ap": 2642,
  "\u0120\u00e0\u00a4\u00aa\u00e0\u00a5\u0122\u00e0\u00a4\u013d\u00e0\u00a5\u0129": 2643,
  "\u0120\u00e0\u00a4\u013e\u00e0\u00a4\u00bf\u00e0\u00a4\u00a8\u00e0\u00a4\u00ae\u00e0\u00a5\u0129\u00e0\u00a4\u0124": 2644,
  "\u0120\u00e0\u00a4\u00a8\u00e0\u00a4\u00bf\u00e0\u00a4\u00b0\u00e0\u00a5\u012f\u00e0\u00a4\u00a3\u00e0\u00a4\u00af": 2645,
  "\u00e0\u00a4\u00bf\u00e0\u00a4\u00b7\u00e0\u00a5\u012f\u00e0\u00a4\u0142": 2646,
  "\u0120\u00e0\u00a4\u00b8\u00e0\u00a4\u00aa\u00e0\u00a5\u012f\u00e0\u00a4\u00a4": 2647,
  "\u0120\u00e0\u00a4\u0137\u00e0\u00a4\u00bf\u00e0\u00a4\u00a8": 2648,
  "\u0120\u00e0\u00a4\u00b5\u00e0\u00a4\u00a8": 2649,
  "\u0120\u00e0\u00a4\u00b2\u00e0\u00a4\u0139\u00e0\u00a4\u00be\u00e0\u00a4\u00a8\u00e0\u00a5\u0129": 2650,
  "\u0120\u00e0\u00a4\u00b2\u00e0\u00a4\u00be\u00e0\u00a4\u0129": 2651,
  "\u00e0\u00a4\u0124\u00e0\u00a4\u0139\u00e0\u00a4\u00be": 2652,
  "\u0120\u00e0\u00a4\u00b8\u00e0\u00a4\u00be\u00e0\u00a4\u00b0\u00e0\u00a5\u012f\u00e0\u00a4\u00b5\u00e0\u00a4\u013e\u00e0\u00a4\u00a8\u00e0\u00a4\u00bf\u00e0\u00a4\u0137": 2653,
  "\u0120\u00e0\u00a4\u013e\u00e0\u00a4\u00bf\u00e0\u00a4\u00ae": 2654,
  "\u0120\u00e0\u00a4\u012b\u00e0\u00a4\u00a4\u00e0\u00a5\u012f\u00e0\u00a4\u00a4\u00e0\u00a4\u00b0\u00e0\u00a5\u0122": 2655,
  "\u0120\u00e0\u00a4\u00b2\u00e0\u00a4\u0137\u00e0\u00a5\u012f\u00e0\u00a4\u00b7\u00e0\u00a5\u012f\u00e0\u00a4\u00af": 2656,
  "\u0120\u00e0\u00a4\u00b8\u00e0\u00a4\u0124\u00e0\u00a4\u013c\u00e0\u00a4\u00be\u00e0\u00a4\u00b0": 2657,
  "\u0120\u00e0\u00a4\u0137\u00e0\u00a5\u012f\u00e0\u00a4\u00b0\u00e0\u00a4\u00ae": 2658,
  "\u0120\u00e0\u00a4\u00ae\u00e0\u00a5\u0124\u00e0\u00a4\u00b2\u00e0\u00a5\u012f\u00e0\u00a4\u00af\u00e0\u00a4\u00be\u00e0\u00a4\u0124\u00e0\u00a4\u0137\u00e0\u00a4\u00a8": 2659,
  "\u0120\u00e0\u00a4\u0127\u00e0\u00a4\u00a8\u00e0\u00a5\u0123\u00e0\u00a4\u00b8\u00e0\u00a4\u0124\u00e0\u00a4\u00a7\u00e0\u00a4\u00be\u00e0\u00a4\u00a8": 2660,
  "\u0120\u00e0\u00a4\u00ae\u00e0\u00a5\u0122\u00e0\u00a4\u00a1\u00e0\u00a4\u00bf\u00e0\u00a4\u00af\u00e0\u00a4\u00be": 2661,
  "\u0120\u00e0\u00a4\u0131\u00e0\u00a4\u00b2\u00e0\u00a5\u012f\u00e0\u00a4\u0139\u00e0\u00a5\u012d\u00e0\u00a4\u00b0": 2662,
  "\u0120new": 2663,
  "\u00e0\u00a4\u0143\u00e0\u00a4\u00be\u00e0\u00a4\u00b0\u00e0\u00a4\u00a4": 2664,
  "\u0120\u00e0\u00a4\u00b6\u00e0\u00a5\u0122\u00e0\u00a4\u00b0\u00e0\u00a5\u012f\u00e0\u00a4\u00b7\u00e0\u00a4\u0137": 2665,
  "\u0120\u00e0\u00a4\u00aa\u00e0\u00a5\u012f\u00e0\u00a4\u00b0\u00e0\u00a4\u00b6\u00e0\u00a4\u00bf\u00e0\u00a4\u0137\u00e0\u00a5\u012f\u00e0\u00a4\u00b7": 2666,
  "\u0120use": 2667,
  "\u0120\u00e0\u00a4\u00b2\u00e0\u00a4\u00bf\u00e0\u00a4\u00af\u00e0\u00a5\u0129": 2668,
  "\u00e0\u00a4\u00a8\u00e0\u00a4\u00b2\u00e0\u00a4\u00be\u00e0\u00a4\u0129\u00e0\u00a4\u00a8": 2669,
  "\u0120\u00e0\u00a4\u00ab\u00e0\u00a5\u0123\u00e0\u00a4\u0141": 2670,
  "\u0120\u00e0\u00a4\u0128\u00e0\u00a4\u0129": 2671,
  "\u00e0\u00a5\u012f\u00e0\u00a4\u0137\u00e0\u00a4\u00bf": 2672,
  "\u0120\u00e0\u00a4\u00b8\u00e0\u00a4\u00bf\u00e0\u00a4\u00a4": 2673,
  "\u0120\u00e0\u00a4\u00b8\u00e0\u00a4\u0124\u00e0\u00a4\u0138\u00e0\u00a5\u012f\u00e0\u00a4\u00af": 2674,
  "\u00e0\u00a4\u0139\u00e0\u00a5\u012d\u00e0\u00a4\u00b2": 2675,
  "\u0120\u00e0\u00a4\u00a6\u00e0\u00a5\u0124\u00e0\u00a4\u00b8\u00e0\u00a4\u00b0\u00e0\u00a5\u0122": 2676,
  "\u0120\u00e0\u00a4\u00a8\u00e0\u00a4\u00bf\u00e0\u00a4\u00af\u00e0\u00a4\u0124\u00e0\u00a4\u00a4\u00e0\u00a5\u012f\u00e0\u00a4\u00b0\u00e0\u00a4\u00a3": 2677,
  "-\u00e0\u00a4\u00b8\u00e0\u00a4\u00be\u00e0\u00a4\u00a5": 2678,
  "ass": 2679,
  "\u00e0\u00a5\u012f\u00e0\u00a4\u0141\u00e0\u00a5\u0124\u00e0\u00a4\u00ac\u00e0\u00a4\u00b0": 2680,
  "\u00e0\u00a5\u0129\u00e0\u00a4\u00ae\u00e0\u00a4\u00be\u00e0\u00a4\u00b2": 2681,
  "\u00e0\u00a4\u0138\u00e0\u00a4\u00bf\u00e0\u00a4\u00ae": 2682,
  "\u0120\u00e0\u00a4\u00aa\u00e0\u00a5\u012f\u00e0\u00a4\u00b0\u00e0\u00a5\u012d\u00e0\u00a4\u0141": 2683,
  "\u00e0\u00a4\u00a4\u00e0\u00a4\u00bf\u00e0\u00a4\u00b9\u00e0\u00a4\u00be\u00e0\u00a4\u00b8\u00e0\u00a4\u00bf\u00e0\u00a4\u0137": 2684,
  "\u0120\u00e0\u00a4\u013e\u00e0\u00a5\u012b\u00e0\u00a4\u00a8": 2685,
  "\u0120\u00e0\u00a4\u00b0\u00e0\u00a4\u00be\u00e0\u00a4\u00ae": 2686,
  "\u0120\u00e0\u00a4\u00b8\u00e0\u00a4\u00b9\u00e0\u00a4\u00bf\u00e0\u00a4\u00a4": 2687,
  "\u00e0\u00a4\u00be\u00e0\u00a4\u00b8\u00e0\u00a5\u012f\u00e0\u00a4\u0141": 2688,
  "urn": 2689,
  "\u0120\u00e0\u00a4\u00ae\u00e0\u00a4\u00b0": 2690,
  "ated": 2691,
  "\u0120\u00e0\u00a4\u00b8\u00e0\u00a4\u0124\u00e0\u00a4\u00a6\u00e0\u00a5\u0129\u00e0\u00a4\u00b6": 2692,
  "\u00e0\u00a4\u00b0\u00e0\u00a5\u012f\u00e0\u00a4\u00b2": 2693,
  "\u0120\u00e0\u00a4\u012b\u00e0\u00a4\u00b2\u00e0\u00a5\u012f\u00e0\u00a4\u00b2\u00e0\u00a5\u0129\u00e0\u00a4\u0138": 2694,
  "\u00e0\u00a5\u00ac": 2695,
  "\u00e0\u00a4\u00be\u00e0\u00a4\u0137\u00e0\u00a4\u00bf\u00e0\u00a4\u00b8\u00e0\u00a5\u012f\u00e0\u00a4\u00a4\u00e0\u00a4\u00be\u00e0\u00a4\u00a8": 2696,
  "\u0120\u00e0\u00a4\u00b2\u00e0\u00a4\u00be\u00e0\u00a4\u0138": 2697,
  "\u0120\u00e0\u00a4\u0127\u00e0\u00a4\u00a8\u00e0\u00a5\u0123\u00e0\u00a4\u0137\u00e0\u00a5\u0124\u00e0\u00a4\u00b2": 2698,
  "\u0120\u00e0\u00a4\u00aa\u00e0\u00a4\u00be\u00e0\u00a4\u0124\u00e0\u00a4\u013c": 2699,
  "\u0120\u00e0\u00a4\u00b8\u00e0\u00a5\u0129\u00e0\u00a4\u00a8\u00e0\u00a4\u00be": 2700,
  "\u0120\u00e0\u00a4\u0129\u00e0\u00a4\u00b8\u00e0\u00a5\u012f\u00e0\u00a4\u00a4\u00e0\u00a5\u0129\u00e0\u00a4\u00ae\u00e0\u00a4\u00be\u00e0\u00a4\u00b2": 2701,
  "\u00e0\u00a4\u00ac\u00e0\u00a4\u00a6\u00e0\u00a5\u012f\u00e0\u00a4\u00a7": 2702,
  "\u00e0\u00a4\u00aa\u00e0\u00a4\u00be\u00e0\u00a4\u00b2": 2703,
  "\u0120\u00e0\u00a4\u00aa\u00e0\u00a5\u012a\u00e0\u00a4\u00b0": 2704,
  "\u0120\u00e0\u00a4\u0129\u00e0\u00a4\u0124\u00e0\u00a4\u013e": 2705,
  "\u00e0\u00a4\u0124\u00e0\u00a4\u00a5": 2706,
  "\u0120\u00e0\u00a4\u00ae\u00e0\u00a4\u00b9\u00e0\u00a4\u00b8": 2707,
  "\u0120\u00e0\u00a4\u013c\u00e0\u00a4\u00b2\u00e0\u00a4\u00a4\u00e0\u00a4\u00be": 2708,
  "\u0120\u00e0\u00a4\u00aa\u00e0\u00a5\u0124\u00e0\u00a4\u013d": 2709,
  "\u0120\u00e0\u00a4\u00aa\u00e0\u00a5\u012f\u00e0\u00a4\u00b0\u00e0\u00a4\u00a4\u00e0\u00a5\u0122": 2710,
  "\u0120\u00e0\u00a4\u00b8\u00e0\u00a4\u0124\u00e0\u00a4\u00b8\u00e0\u00a5\u012f\u00e0\u00a4\u00a5\u00e0\u00a4\u00be\u00e0\u00a4\u00a8": 2711,
  "ces": 2712,
  "\u00e0\u00a5\u0122\u00e0\u00a4\u00b0\u00e0\u00a5\u0129": 2713,
  "\u0120\u00e0\u00a4\u00a6\u00e0\u00a4\u00bf\u00e0\u00a4\u00b2\u00e0\u00a5\u012f\u00e0\u00a4\u00b2\u00e0\u00a5\u0122": 2714,
  "\u0120\u00e0\u00a4\u00a4\u00e0\u00a4\u0124\u00e0\u00a4\u00a4\u00e0\u00a5\u012f\u00e0\u00a4\u00b0": 2715,
  "ost": 2716,
  "\u0120\u00e0\u00a4\u00b0\u00e0\u00a4\u00a3": 2717,
  "\u0120\u00e0\u00a4\u00ae\u00e0\u00a4\u00b9\u00e0\u00a4\u00b8\u00e0\u00a5\u0124\u00e0\u00a4\u00b8": 2718,
  "\u0120\u00e0\u00a4\u00b8\u00e0\u00a5\u0123\u00e0\u00a4\u013f\u00e0\u00a4\u00be\u00e0\u00a4\u00b5": 2719,
  "\u0120\u00e0\u00a4\u00b0\u00e0\u00a4\u00be\u00e0\u00a4\u013e\u00e0\u00a4\u00be": 2720,
  "\u0120\u00e0\u00a4\u0137\u00e0\u00a5\u012b\u00e0\u00a4\u00b2\u00e0\u00a5\u0129\u00e0\u00a4\u013e": 2721,
  "\u0120\u00e0\u00a4\u00aa\u00e0\u00a4\u00b0\u00e0\u00a4\u00bf\u00e0\u00a4\u0143\u00e0\u00a4\u00be\u00e0\u00a4\u00b7": 2722,
  "\u0120\u00e0\u00a4\u00a8\u00e0\u00a4\u00bf\u00e0\u00a4\u0137\u00e0\u00a4\u00b2": 2723,
  "\u0120\u00e0\u00a4\u0137\u00e0\u00a5\u012a\u00e0\u00a4\u0124\u00e0\u00a4\u00b8\u00e0\u00a4\u00b0": 2724,
  "\u0120i": 2725,
  "\u0120\u00e0\u00a4\u013a\u00e0\u00a4\u0141\u00e0\u00a4\u00a8": 2726,
  "\u0120\u00e0\u00a4\u0137\u00e0\u00a5\u012f\u00e0\u00a4\u00b0\u00e0\u00a4\u00bf\u00e0\u00a4\u0137\u00e0\u00a5\u0129\u00e0\u00a4\u0141": 2727,
  "\u00e0\u00a4\u00bf\u00e0\u00a4\u00af\u00e0\u00a4\u00be\u00e0\u00a4\u00a8": 2728,
  "\u0120\u00e0\u00a4\u00aa\u00e0\u00a5\u012a\u00e0\u00a4\u00a6\u00e0\u00a4\u00be": 2729,
  "\u0120\u00e0\u00a4\u0139\u00e0\u00a4\u00a2\u00e0\u00a4\u00bc": 2730,
  "\u0120\u00e0\u00a4\u00ac\u00e0\u00a4\u00b2\u00e0\u00a5\u012f\u00e0\u00a4\u0137\u00e0\u00a4\u00bf": 2731,
  "\u0120\u00e0\u00a4\u00b6\u00e0\u00a4\u00be\u00e0\u00a4\u00af\u00e0\u00a4\u00a6": 2732,
  "\u00e0\u00a5\u0123\u00e0\u00a4\u00a1": 2733,
  "\u00e0\u00a4\u00b5\u00e0\u00a4\u00bf": 2734,
  "\u0120\u00e0\u00a4\u0137\u00e0\u00a4\u0141": 2735,
  "\u00e0\u00a4\u00a7\u00e0\u00a4\u00bf\u00e0\u00a4\u0137": 2736,
  "\u00e0\u00a4\u00bf\u00e0\u00a4\u00b8\u00e0\u00a5\u012f\u00e0\u00a4\u00a5": 2737,
  "\u0120\u00e0\u00a4\u013c\u00e0\u00a4\u00bf\u00e0\u00a4\u0124": 2738,
  "\u0120\u00e0\u00a4\u0137\u00e0\u00a4\u00bf\u00e0\u00a4\u00b2": 2739,
  "\u00e0\u00a4\u00ac\u00e0\u00a5\u012b\u00e0\u00a4\u00b2": 2740,
  "\u00e0\u00a4\u00b5\u00e0\u00a5\u0129\u00e0\u00a4\u00af\u00e0\u00a4\u00b0": 2741,
  "\u0120\u00e0\u00a4\u00aa\u00e0\u00a5\u012f\u00e0\u00a4\u00b0\u00e0\u00a4\u00ac\u00e0\u00a4\u0124\u00e0\u00a4\u00a7\u00e0\u00a4\u00a8": 2742,
  "\u0120\u00e0\u00a4\u0139\u00e0\u00a5\u012f\u00e0\u00a4\u00b0\u00e0\u00a4\u00be\u00e0\u00a4\u00b9\u00e0\u00a4\u0137": 2743,
  "\u0120\u00e0\u00a4\u0139\u00e0\u00a4\u0124": 2744,
  "\u0120\u00e0\u00a4\u0139\u00e0\u00a5\u012f\u00e0\u00a4\u00b0\u00e0\u00a4\u00b9": 2745,
  "\u00e0\u00a4\u012b\u00e0\u00a4\u0141\u00e0\u00a4\u00aa\u00e0\u00a5\u0123\u00e0\u00a4\u0141": 2746,
  "li": 2747,
  "\u00e0\u00a5\u012f\u00e0\u00a4\u00b0\u00e0\u00a4\u00be": 2748,
  "\u0120\u00e0\u00a4\u0127\u00e0\u00a4\u00b5\u00e0\u00a4\u00a7\u00e0\u00a4\u00bf": 2749,
  "\u0120\u00e0\u00a4\u013e\u00e0\u00a5\u012d\u00e0\u00a4\u0138\u00e0\u00a4\u00bf\u00e0\u00a4\u00ae": 2750,
  "23": 2751,
  "\u0120K": 2752,
  "\u0120\u00e0\u00a4\u00b2\u00e0\u00a5\u012d\u00e0\u00a4\u0137\u00e0\u00a4\u00aa\u00e0\u00a5\u012f\u00e0\u00a4\u00b0\u00e0\u00a4\u00bf\u00e0\u00a4\u00af": 2753,
  "\u00e0\u00a4\u0143\u00e0\u00a5\u0122\u00e0\u00a4\u00b0": 2754,
  "\u0120\u00e0\u00a4\u00b6\u00e0\u00a5\u012f\u00e0\u00a4\u00b0\u00e0\u00a5\u0129\u00e0\u00a4\u00a3\u00e0\u00a5\u0122": 2755,
  "\u0120was": 2756,
  "\u0120\u00e0\u00a4\u00b8\u00e0\u00a4\u0124\u00e0\u00a4\u0137": 2757,
  "\u00e0\u00a5\u0143": 2758,
  "\u0120\u00e0\u00a4\u00b8\u00e0\u00a4\u00bf\u00e0\u00a4\u00b0": 2759,
  "\u00e0\u00a4\u00b8\u00e0\u00a4\u0143\u00e0\u00a4\u00be": 2760,
  "\u0120\u00e0\u00a4\u0127\u00e0\u00a4\u00aa\u00e0\u00a4\u00b0": 2761,
  "\u0120te": 2762,
  "\u0120\u00e0\u00a4\u00ac\u00e0\u00a4\u00a8\u00e0\u00a5\u0122": 2763,
  "\u00e0\u00a4\u00ab\u00e0\u00a4\u00b2": 2764,
  "ks": 2765,
  "\u0120will": 2766,
  "\u0120\u00e0\u00a4\u0139\u00e0\u00a5\u0123\u00e0\u00a4\u00b0": 2767,
  "\u00e0\u00a4\u00af\u00e0\u00a5\u0122": 2768,
  "\u0120\u00e0\u00a4\u00a1\u00e0\u00a5\u012b": 2769,
  "\u00e0\u00a4\u00bf\u00e0\u00a4\u00ac\u00e0\u00a4\u0124\u00e0\u00a4\u00a7": 2770,
  "\u00e0\u00a4\u013c\u00e0\u00a4\u00b0": 2771,
  "\u00e0\u00a4\u0139\u00e0\u00a5\u012f\u00e0\u00a4\u00b0\u00e0\u00a5\u0129\u00e0\u00a4\u00b8": 2772,
  "ef": 2773,
  "\u0120\u00e0\u00a4\u00b8\u00e0\u00a4\u00ae\u00e0\u00a4\u013f\u00e0\u00a4\u00a8\u00e0\u00a5\u0129": 2774,
  "\u0120\u00e0\u00a4\u013e\u00e0\u00a5\u012a\u00e0\u00a4\u00b8\u00e0\u00a4\u00be": 2775,
  "\u0120\u00e0\u00a4\u00ac\u00e0\u00a4\u00be\u00e0\u00a4\u00a4\u00e0\u00a4\u013c\u00e0\u00a5\u0122": 2776,
  "\u00e0\u00a5\u0124\u00e0\u00a4\u0137": 2777,
  "(\u00e0\u00a4\u00b8": 2778,
  "\u0120\u00e0\u00a4\u0127\u00e0\u00a4\u0124\u00e0\u00a4\u0139\u00e0\u00a5\u012f\u00e0\u00a4\u00b0\u00e0\u00a5\u0129\u00e0\u00a4\u013e\u00e0\u00a5\u0122": 2779,
  "ell": 2780,
  "\u0120\u00e0\u00a4\u00a8\u00e0\u00a5\u0129\u00e0\u00a4\u0141\u00e0\u00a4\u00b5\u00e0\u00a4\u00b0\u00e0\u00a5\u012f\u00e0\u00a4\u0137": 2781,
  "195": 2782,
  "ep": 2783,
  "\u00e0\u00a4\u00be\u00e0\u00a4\u00b0\u00e0\u00a5\u012f\u00e0\u00a4\u0137": 2784,
  "\u0120\u00e0\u00a4\u0129\u00e0\u00a4\u0124\u00e0\u00a4\u0139": 2785,
  "os": 2786,
  "\u0120\u00e0\u00a4\u00b9\u00e0\u00a5\u012a\u00e0\u00a4\u0124\u00e0\u00a4\u0125": 2787,
  "-\u00e0\u00a4\u00b0": 2788,
  "\u0120\u00e0\u00a4\u00b8\u00e0\u00a4\u0124\u00e0\u00a4\u00b0\u00e0\u00a4\u013c\u00e0\u00a4\u00a8\u00e0\u00a4\u00be": 2789,
  "\u0120\u00e0\u00a4\u00ae\u00e0\u00a5\u012e\u00e0\u00a4\u013e\u00e0\u00a5\u0124\u00e0\u00a4\u00a6": 2790,
  "\u0120\u00e0\u00a4\u00a4\u00e0\u00a5\u0129\u00e0\u00a4\u00b2": 2791,
  "\u0120\u00e0\u00a4\u00ae\u00e0\u00a4\u00b9\u00e0\u00a4\u00be\u00e0\u00a4\u00a8": 2792,
  "\u00e2\u0122\u013b": 2793,
  "\u0120\u00e0\u00a4\u013c\u00e0\u00a4\u00b2\u00e0\u00a4\u00be": 2794,
  "\u0120\u00e0\u00a4\u00ac\u00e0\u00a5\u012d\u00e0\u00a4\u00b2": 2795,
  "\u0120\u00e0\u00a4\u00ae\u00e0\u00a5\u0123\u00e0\u00a4\u00a6\u00e0\u00a5\u012f\u00e0\u00a4\u00a6": 2796,
  "\u00e0\u00a4\u00be\u00e0\u00a4\u00a8\u00e0\u00a5\u012f\u00e0\u00a4\u00a4": 2797,
  "\u0120\u00e0\u00a4\u00b8\u00e0\u00a4\u00aa\u00e0\u00a5\u012f\u00e0\u00a4\u00a4\u00e0\u00a4\u00be\u00e0\u00a4\u00b9": 2798,
  "ru": 2799,
  "\u0120\u00e0\u00a4\u00ae\u00e0\u00a4\u00be\u00e0\u00a4\u00a4\u00e0\u00a4\u00be": 2800,
  "\u0120\u00e0\u00a4\u0138\u00e0\u00a5\u012d": 2801,
  "\u0120\u00e0\u00a4\u00b2\u00e0\u00a5\u012e": 2802,
  "\u00e0\u00a4\u0137\u00e0\u00a5\u012f\u00e0\u00a4\u00b7\u00e0\u00a5\u0129\u00e0\u00a4\u00aa": 2803,
  "\u0120\u00e0\u00a4\u00b8\u00e0\u00a4\u00ae\u00e0\u00a4\u00b8\u00e0\u00a5\u012f\u00e0\u00a4\u00af\u00e0\u00a4\u00be\u00e0\u00a4\u0135\u00e0\u00a4\u0124": 2804,
  "\u0120\u00e0\u00a4\u00ae\u00e0\u00a4\u00be\u00e0\u00a4\u00b0\u00e0\u00a5\u012f\u00e0\u00a4\u0137": 2805,
  "\u0120\u00e0\u00a4\u00b0\u00e0\u00a4\u00be\u00e0\u00a4\u00b7\u00e0\u00a5\u012f\u00e0\u00a4\u0141\u00e0\u00a5\u012f\u00e0\u00a4\u00b0\u00e0\u00a4\u00aa\u00e0\u00a4\u00a4\u00e0\u00a4\u00bf": 2806,
  "\u0120so": 2807,
  "\u0120\u00e0\u00a4\u00aa\u00e0\u00a5\u012f\u00e0\u00a4\u00b0\u00e0\u00a5\u012e\u00e0\u00a4\u00a6\u00e0\u00a5\u012f\u00e0\u00a4\u00af\u00e0\u00a5\u012d\u00e0\u00a4\u0139\u00e0\u00a4\u00bf\u00e0\u00a4\u0137\u00e0\u00a5\u0122": 2808,
  "clud": 2809,
  "\u00e0\u00a4\u0136\u00e0\u00a4\u00b0": 2810,
  "\u0120\u00e0\u00a4\u00a8\u00e0\u00a4\u0137\u00e0\u00a4\u00be\u00e0\u00a4\u00b0\u00e0\u00a4\u00be\u00e0\u00a4\u00a4\u00e0\u00a5\u012f\u00e0\u00a4\u00ae\u00e0\u00a4\u0137": 2811,
  "\u0120\u00e0\u00a4\u00a8\u00e0\u00a4\u00bf\u00e0\u00a4\u00b7\u00e0\u00a5\u012f\u00e0\u00a4\u0137": 2812,
  "\u00e0\u00a4\u00be\u00e0\u00a4\u00ac\u00e0\u00a4\u00be\u00e0\u00a4\u00a6": 2813,
  "\u0120\u00e0\u00a4\u00b0\u00e0\u00a5\u0129\u00e0\u00a4\u00b2": 2814,
  "\u0120\u00e0\u00a4\u00b9\u00e0\u00a4\u00be\u00e0\u00a4\u00b8": 2815,
  "\u0120\u00e0\u00a4\u00b0\u00e0\u00a4\u0138\u00e0\u00a5\u0129\u00e0\u00a4\u0124": 2816,
  "\u0120\u00e0\u00a4\u00ae\u00e0\u00a4\u013e\u00e0\u00a4\u00ac\u00e0\u00a5\u0124\u00e0\u00a4\u00a4": 2817,
  "\u0120\u00e0\u00a4\u00a4\u00e0\u00a5\u0122": 2818,
  "\u0120\u00e0\u00a4\u00ae\u00e0\u00a5\u012d\u00e0\u00a4\u0141": 2819,
  "\u0120\u00e0\u00a4\u00aa\u00e0\u00a5\u012f\u00e0\u00a4\u00b0\u00e0\u00a4\u00b5\u00e0\u00a5\u0129\u00e0\u00a4\u00b6": 2820,
  "\u00e0\u00a4\u00b5\u00e0\u00a4\u00be\u00e0\u00a4\u00a6\u00e0\u00a5\u0122": 2821,
  "\u0120\u00e0\u00a4\u0139\u00e0\u00a4\u0124\u00e0\u00a4\u0143\u00e0\u00a5\u0122\u00e0\u00a4\u00b0": 2822,
  "\u0120\u00e0\u00a4\u00b8\u00e0\u00a4\u0124\u00e0\u00a4\u00af": 2823,
  "\u00e0\u00a4\u00ab\u00e0\u00a5\u012f\u00e0\u00a4\u0141": 2824,
  "\u0120\u00e0\u00a4\u00b2\u00e0\u00a5\u012b": 2825,
  "\u0120\u00e0\u00a4\u00b2\u00e0\u00a4\u0124\u00e0\u00a4\u00ac\u00e0\u00a5\u0129": 2826,
  "\u00e0\u00a5\u012a\u00e0\u00a4\u0137\u00e0\u00a5\u012f\u00e0\u00a4\u0141": 2827,
  "\u00e0\u00a4\u0137\u00e0\u00a5\u012f\u00e0\u00a4\u0137": 2828,
  "=\"": 2829,
  "\u0120\u00e0\u00a4\u00b2\u00e0\u00a5\u0129\u00e0\u00a4\u0138\u00e0\u00a4\u0137": 2830,
  "\u00e0\u00a4\u0124\u00e0\u00a4\u0143\u00e0\u00a4\u00bf\u00e0\u00a4\u0137": 2831,
  "\u00e0\u00a4\u00be\u00e0\u00a4\u00a3\u00e0\u00a4\u00bf\u00e0\u00a4\u0137": 2832,
  "\u0120\u00e0\u00a4\u00a1\u00e0\u00a5\u012b\u00e0\u00a4\u0137": 2833,
  "\u00e0\u00a4\u0124\u00e0\u00a4\u00a4\u00e0\u00a4\u00b0": 2834,
  "\u0120\u00e0\u00a4\u00b8\u00e0\u00a4\u00be\u00e0\u00a4\u00ae\u00e0\u00a4\u00a8\u00e0\u00a4\u00be": 2835,
  "\u0120\u00e0\u00a4\u00ae\u00e0\u00a5\u0129\u00e0\u00a4\u00b2": 2836,
  "\u0120\u00e0\u00a4\u00aa\u00e0\u00a4\u00b0\u00e0\u00a4\u00bf\u00e0\u00a4\u00af\u00e0\u00a5\u012d\u00e0\u00a4\u013e\u00e0\u00a4\u00a8\u00e0\u00a4\u00be": 2837,
  "\u0120\u00e0\u00a4\u00a1\u00e0\u00a5\u012b\u00e0\u00a4\u00b2\u00e0\u00a4\u00b0": 2838,
  "\u00e0\u00a4\u00be\u00e0\u00a4\u012b\u00e0\u00a4\u0124\u00e0\u00a4\u00a1": 2839,
  "\u0120\u00e0\u00a4\u00b8\u00e0\u00a5\u012f\u00e0\u00a4\u00a5\u00e0\u00a4\u00be\u00e0\u00a4\u00aa\u00e0\u00a4\u00a8\u00e0\u00a4\u00be": 2840,
  "\u0120\u00e0\u00a4\u00a6\u00e0\u00a4\u00bf\u00e0\u00a4\u00a8\u00e0\u00a5\u012d\u00e0\u00a4\u0124": 2841,
  "\u0120\u00e0\u00a4\u013e\u00e0\u00a5\u0122\u00e0\u00a4\u00a4": 2842,
  "\u0120\u00e0\u00a4\u00a6\u00e0\u00a4\u00bf\u00e0\u00a4\u00b6": 2843,
  "\u0120\u00e0\u00a4\u00a8\u00e0\u00a4\u00bf\u00e0\u00a4\u00b0\u00e0\u00a5\u012f\u00e0\u00a4\u00b5": 2844,
  "\u0120\u00e0\u00a4\u00ae\u00e0\u00a4\u00a4\u00e0\u00a4\u00b2\u00e0\u00a4\u00ac": 2845,
  "\u0120\u00e0\u00a4\u00ae\u00e0\u00a5\u0129": 2846,
  "\u00e0\u00a4\u00ac\u00e0\u00a4\u00b9": 2847,
  "\u0120si": 2848,
  "\u0120\u00e0\u00a4\u00aa\u00e0\u00a5\u012f\u00e0\u00a4\u00b0\u00e0\u00a4\u00be\u00e0\u00a4\u013c\u00e0\u00a5\u0122\u00e0\u00a4\u00a8": 2849,
  "\u0120\u00e0\u00a4\u00b8\u00e0\u00a4\u0143\u00e0\u00a4\u00be": 2850,
  "\u0120\u00e0\u00a4\u00a6\u00e0\u00a4\u00b2": 2851,
  "\u00e0\u00a4\u00be\u00e0\u00a4\u00a7\u00e0\u00a4\u00bf\u00e0\u00a4\u0137": 2852,
  "\u0120\u00e0\u00a4\u00b8\u00e0\u00a4\u00a1\u00e0\u00a4\u00bc": 2853,
  "\u0120\u00e0\u00a4\u00a4\u00e0\u00a4\u00b9\u00e0\u00a4\u00a4": 2854,
  "\u00e0\u00a4\u013e\u00e0\u00a4\u00bc\u00e0\u00a4\u00b0": 2855,
  "\u0120\u00e0\u00a4\u0138\u00e0\u00a5\u0123\u00e0\u00a4\u00b6": 2856,
  "-\u00e0\u00a4\u00aa\u00e0\u00a5\u012f\u00e0\u00a4\u00b0": 2857,
  "\u0120\u00e0\u00a4\u00b9\u00e0\u00a4\u00bf\u00e0\u00a4\u00a8\u00e0\u00a5\u012f\u00e0\u00a4\u00a6\u00e0\u00a5\u0122": 2858,
  "\u0120\u00e0\u00a4\u013e\u00e0\u00a5\u012f\u00e0\u00a4\u00af\u00e0\u00a4\u00be\u00e0\u00a4\u00a6\u00e0\u00a4\u00be": 2859,
  "\u0120\u00e0\u00a4\u0137\u00e0\u00a5\u012d\u00e0\u00a4\u00b2": 2860,
  "\u0120\u00e0\u00a4\u00ac\u00e0\u00a4\u00bf\u00e0\u00a4\u013e": 2861,
  "\u00e0\u00a4\u00a6\u00e0\u00a4\u00af": 2862,
  "\u0120has": 2863,
  "\u0120\u00e0\u00a4\u00a4\u00e0\u00a4\u00b0\u00e0\u00a5\u0122\u00e0\u00a4\u0137\u00e0\u00a4\u00be": 2864,
  "\u00e0\u00a4\u00be\u00e0\u00a4\u00a5\u00e0\u00a4\u00ae\u00e0\u00a4\u00bf\u00e0\u00a4\u0137": 2865,
  "\u0120qu": 2866,
  "\u0120\u00e0\u00a4\u013e\u00e0\u00a4\u00b2\u00e0\u00a4\u00b5\u00e0\u00a4\u00be\u00e0\u00a4\u00af\u00e0\u00a5\u0123": 2867,
  "\u0120\u00e0\u00a4\u00a6\u00e0\u00a5\u0129\u00e0\u00a4\u00a8\u00e0\u00a4\u00be": 2868,
  "\u0120app": 2869,
  "\u00e0\u00a5\u0124\u00e0\u00a4\u00b0\u00e0\u00a5\u0122": 2870,
  "\u0120\u00e0\u00a4\u00a6\u00e0\u00a4\u00b0\u00e0\u00a5\u012f\u00e0\u00a4\u013e": 2871,
  "\u0120\u00e0\u00a4\u00b2\u00e0\u00a4\u0137\u00e0\u00a5\u012f\u00e0\u00a4\u00b7\u00e0\u00a4\u00a3": 2872,
  "\u0120\u00e0\u00a4\u00aa\u00e0\u00a4\u00b9\u00e0\u00a4\u00b2": 2873,
  "\u0120\u00e0\u00a4\u00ae\u00e0\u00a4\u00be\u00e0\u00a4\u00b0\u00e0\u00a5\u012f\u00e0\u00a4\u013c": 2874,
  "\u0120\u00e0\u00a4\u012b\u00e0\u00a4\u00b8\u00e0\u00a4\u00b8\u00e0\u00a5\u0129": 2875,
  "\u0120\u00e0\u00a4\u0131\u00e0\u00a4\u013e": 2876,
  "\u00e0\u00a4\u00a7\u00e0\u00a4\u00be\u00e0\u00a4\u00a8\u00e0\u00a5\u0122": 2877,
  "194": 2878,
  "60": 2879,
  "\u00e0\u00a5\u012f\u00e0\u00a4\u00b0\u00e0\u00a4\u00be\u00e0\u00a4\u00b7\u00e0\u00a5\u012f\u00e0\u00a4\u0141\u00e0\u00a5\u012f\u00e0\u00a4\u00b0\u00e0\u00a5\u0122\u00e0\u00a4\u00af": 2880,
  "\u0120\u00e0\u00a4\u013e\u00e0\u00a4\u00bf\u00e0\u00a4\u00a8\u00e0\u00a5\u012f\u00e0\u00a4\u00b9\u00e0\u00a5\u012d\u00e0\u00a4\u0124\u00e0\u00a4\u00a8\u00e0\u00a5\u0129": 2881,
  "\u00e0\u00a4\u0124\u00e0\u00a4\u0139\u00e0\u00a5\u0129": 2882,
  "\u00c2\u0142\u00c2\u0142": 2883,
  "\u0120\u00e0\u00a4\u00aa\u00e0\u00a5\u012f\u00e0\u00a4\u00b0\u00e0\u00a4\u00a5\u00e0\u00a4\u00ae": 2884,
  "\u0120\u00e0\u00a4\u00ae\u00e0\u00a5\u012d": 2885,
  "\u0120\u00e0\u00a4\u00b8\u00e0\u00a5\u012f\u00e0\u00a4\u00b5\u00e0\u00a4\u00af\u00e0\u00a4\u0124": 2886,
  "\u00e0\u00a4\u00a6\u00e0\u00a4\u00b0\u00e0\u00a5\u012f\u00e0\u00a4\u00b6": 2887,
  "\u0120\u00e0\u00a4\u0139\u00e0\u00a5\u012f\u00e0\u00a4\u00b2": 2888,
  "\u00e0\u00a4\u00be\u00e0\u00a4\u00b2\u00e0\u00a4\u00bf\u00e0\u00a4\u00a4": 2889,
  "\u00e0\u00a5\u012a\u00e0\u00a4\u00aa": 2890,
  "\u0120\u00e0\u00a4\u00ac\u00e0\u00a4\u00bf\u00e0\u00a4\u0124\u00e0\u00a4\u00a6": 2891,
  "\u0120\u00e0\u00a4\u00ab\u00e0\u00a4\u00b2": 2892,
  "\u0120\u00e0\u00a4\u0127\u00e0\u00a4\u00ab\u00e0\u00a5\u012f\u00e0\u00a4\u00b0\u00e0\u00a5\u0122": 2893,
  "-\u00e0\u00a4\u0128": 2894,
  "\u0120\u00e0\u00a4\u00b9\u00e0\u00a4\u00ae\u00e0\u00a4\u00be\u00e0\u00a4\u00b0\u00e0\u00a5\u0122": 2895,
  "\u00e0\u00a5\u0123\u00e0\u00a4\u00b7\u00e0\u00a5\u012f\u00e0\u00a4\u0141": 2896,
  "\u0120\u00e0\u00a4\u0137\u00e0\u00a4\u00b0\u00e0\u00a5\u0122": 2897,
  "\u0120cont": 2898,
  "\u0120\u00e0\u00a4\u00b5\u00e0\u00a4\u00bf\u00e0\u00a4\u00b0\u00e0\u00a5\u012d\u00e0\u00a4\u00a7": 2899,
  "\u0120\u00e0\u00a4\u00b5\u00e0\u00a4\u00b9\u00e0\u00a4\u00be\u00e0\u00a4\u0123": 2900,
  "\u0120\u00e0\u00a4\u00a6\u00e0\u00a4\u00bf\u00e0\u00a4\u00b5": 2901,
  "\u0120\u00e0\u00a4\u00b5\u00e0\u00a4\u00be\u00e0\u00a4\u00b9": 2902,
  "\u0120\u00e0\u00a4\u0133\u00e0\u00a4\u00a8\u00e0\u00a4\u00b2\u00e0\u00a4\u00be\u00e0\u00a4\u0129\u00e0\u00a4\u00a8": 2903,
  "ject": 2904,
  "\u00e0\u00a5\u012a\u00e0\u00a4\u00b0": 2905,
  "\u0120\u00e0\u00a4\u0139\u00e0\u00a5\u012a\u00e0\u00a4\u00b8": 2906,
  "-\u00e0\u00a4\u013e\u00e0\u00a4\u00a8\u00e0\u00a5\u012f\u00e0\u00a4\u00ae": 2907,
  "\u00e0\u00a4\u0127\u00e0\u00a4\u00aa": 2908,
  "\u0120\u00e0\u00a4\u00b8\u00e0\u00a4\u0137\u00e0\u00a5\u012f\u00e0\u00a4\u00b0\u00e0\u00a4\u00bf\u00e0\u00a4\u00af": 2909,
  "\u0120\u00e0\u00a4\u00aa\u00e0\u00a5\u012f\u00e0\u00a4\u00b0\u00e0\u00a4\u00a6\u00e0\u00a4\u00b0\u00e0\u00a5\u012f\u00e0\u00a4\u00b6\u00e0\u00a4\u00bf\u00e0\u00a4\u00a4": 2910,
  "\u0120cl": 2911,
  "\u00e0\u00a5\u012d\u00e0\u00a4\u00a4\u00e0\u00a5\u012f\u00e0\u00a4\u00b8": 2912,
  "\u00e0\u00a4\u00be\u00e0\u00a4\u0124\u00e0\u00a4\u00a4\u00e0\u00a4\u00bf": 2913,
  "\u00e0\u00a4\u00aa\u00e0\u00a4\u00be\u00e0\u00a4\u00b8": 2914,
  "\u00e0\u00a4\u00be\u00e0\u00a4\u00a3\u00e0\u00a5\u0123": 2915,
  "\u00e0\u00a4\u00bf\u00e0\u00a4\u00b2\u00e0\u00a5\u0122": 2916,
  "\u0120\u00e0\u00a4\u012d": 2917,
  "ory": 2918,
  "\u0120\u00e0\u00a4\u012b\u00e0\u00a4\u00a4\u00e0\u00a5\u012f\u00e0\u00a4\u00aa\u00e0\u00a4\u00be\u00e0\u00a4\u00a6\u00e0\u00a5\u012d\u00e0\u00a4\u0124": 2919,
  "\u00e0\u00a5\u0123\u00e0\u00a4\u00b8": 2920,
  "\u0120\u00e0\u00a4\u00b5\u00e0\u00a4\u00bf\u00e0\u00a4\u00b6\u00e0\u00a5\u0129\u00e0\u00a4\u00b7\u00e0\u00a4\u013e\u00e0\u00a5\u012f\u00e0\u00a4\u0140": 2921,
  "\u0120\u00e0\u00a4\u0137\u00e0\u00a4\u00ac": 2922,
  "\u0120\u00e0\u00a4\u00b5\u00e0\u00a4\u013e\u00e0\u00a4\u00a8": 2923,
  "\u0120\u00e0\u00a4\u00ae\u00e0\u00a4\u00be\u00e0\u00a4\u0124\u00e0\u00a4\u0139": 2924,
  "\u0120ab": 2925,
  "\u0120\u00e0\u00a4\u00b2\u00e0\u00a4\u00bf\u00e0\u00a4\u0138\u00e0\u00a4\u00be": 2926,
  "\u0120\u00e0\u00a4\u0138\u00e0\u00a4\u00bf\u00e0\u00a4\u00b2\u00e0\u00a4\u00be\u00e0\u00a4\u00a1\u00e0\u00a4\u00bc\u00e0\u00a5\u0122": 2927,
  "\u0120\u00e0\u00a4\u00aa\u00e0\u00a4\u00b9\u00e0\u00a5\u0123\u00e0\u00a4\u0123\u00e0\u00a4\u013c": 2928,
  "\u0120\u00e0\u00a4\u00b8\u00e0\u00a5\u0122\u00e0\u00a4\u00a7": 2929,
  "\u0120\u00e0\u00a4\u0139\u00e0\u00a5\u0123\u00e0\u00a4\u00a3\u00e0\u00a4\u00b5": 2930,
  "\u0120\u00e0\u00a4\u012b\u00e0\u00a4\u013c\u00e0\u00a4\u00bf\u00e0\u00a4\u00a4": 2931,
  "\u0120\u00e0\u00a4\u00a4\u00e0\u00a5\u0129\u00e0\u00a4\u013e\u00e0\u00a5\u0122": 2932,
  "\u0120\u00e0\u00a4\u0131\u00e0\u00a4\u00b2\u00e0\u00a5\u012f\u00e0\u00a4\u0139\u00e0\u00a5\u012d\u00e0\u00a4\u00b0\u00e0\u00a4\u00bf\u00e0\u00a4\u00a5": 2933,
  "\u00e0\u00a4\u00be\u00e0\u00a4\u012b\u00e0\u00a4\u00a8": 2934,
  "ack": 2935,
  "\u0120\u00e0\u00a4\u00ac\u00e0\u00a5\u0123": 2936,
  "\u0120\u00e0\u00a4\u013e\u00e0\u00a4\u00be\u00e0\u00a4\u00a8\u00e0\u00a4\u00a4\u00e0\u00a5\u0129": 2937,
  "ound": 2938,
  "\u00e0\u00a4\u00b6\u00e0\u00a5\u0123": 2939,
  "\u0120\u00e0\u00a4\u00a5\u00e0\u00a5\u012d": 2940,
  "\u00e0\u00a4\u00aa\u00e0\u00a4\u00a8": 2941,
  "\u0120\u00e0\u00a4\u0139\u00e0\u00a4\u00a3\u00e0\u00a4\u00bf\u00e0\u00a4\u00a4": 2942,
  "\u0120wor": 2943,
  "\u0120\u00e0\u00a4\u0127\u00e0\u00a4\u00b8\u00e0\u00a5\u012f\u00e0\u00a4\u00aa": 2944,
  "\u0120\u00e0\u00a4\u0128\u00e0\u00a4\u00a4\u00e0\u00a4\u00be": 2945,
  "\u0120numb": 2946,
  "\u0120\u00e0\u00a4\u00b8\u00e0\u00a5\u0129\u00e0\u00a4\u00b2": 2947,
  "up": 2948,
  "\u0120\u00e0\u00a4\u00b8\u00e0\u00a4\u0137\u00e0\u00a5\u0129\u00e0\u00a4\u0124": 2949,
  "\u0120\u00e0\u00a4\u00ac\u00e0\u00a4\u013e\u00e0\u00a4\u00be\u00e0\u00a4\u00af": 2950,
  "\u0120\u00e0\u00a4\u00ac\u00e0\u00a4\u00be\u00e0\u00a4\u00af": 2951,
  "\u0120ret": 2952,
  "\u0120\u00e0\u00a4\u0136\u00e0\u00a4\u00b8\u00e0\u00a4\u00a4": 2953,
  "\u0120\u00e0\u00a4\u0132\u00e0\u00a4\u00a4\u00e0\u00a4\u00bf\u00e0\u00a4\u00b9\u00e0\u00a4\u00be\u00e0\u00a4\u00b8\u00e0\u00a4\u00bf\u00e0\u00a4\u0137": 2954,
  "\u0120\u00e0\u00a4\u0137\u00e0\u00a4\u00b9\u00e0\u00a4\u00a8\u00e0\u00a4\u00be": 2955,
  "\u0120\u00e0\u00a4\u0137\u00e0\u00a4\u00a8": 2956,
  "\u00e0\u00a4\u00be\u00e0\u00a4\u00b0\u00e0\u00a4\u00a3": 2957,
  "\u00e0\u00a4\u00a8\u00e0\u00a5\u012f\u00e0\u00a4\u00b9\u00e0\u00a5\u012d\u00e0\u00a4\u0124\u00e0\u00a4\u00a8\u00e0\u00a5\u0129": 2958,
  "we": 2959,
  "\u0120\u00e0\u00a4\u00a8\u00e0\u00a4\u0124\u00e0\u00a4\u00ac\u00e0\u00a4\u00b0": 2960,
  "\u00e0\u00a4\u00a1\u00e0\u00a5\u012f\u00e0\u00a4\u00a1": 2961,
  "\"\u00e0\u00a4\u00b8": 2962,
  "\u0120\u00e0\u00a4\u00b5\u00e0\u00a5\u012f\u00e0\u00a4\u00af\u00e0\u00a4\u00be\u00e0\u00a4\u00aa\u00e0\u00a4\u00be\u00e0\u00a4\u00b0": 2963,
  "\u0120\u00e0\u00a4\u0128\u00e0\u00a4\u00af\u00e0\u00a4\u00be": 2964,
  "\u0120\u00e0\u00a4\u0139\u00e0\u00a5\u012f\u00e0\u00a4\u00b0\u00e0\u00a5\u0122": 2965,
  "\u0120\u00e0\u00a4\u0128\u00e0\u00a4\u00a7\u00e0\u00a5\u0123\u00e0\u00a4\u00a8\u00e0\u00a4\u00bf\u00e0\u00a4\u0137": 2966,
  "\u00e0\u00a4\u00a6\u00e0\u00a5\u0129\u00e0\u00a4\u00b6": 2967,
  "ren": 2968,
  "ich": 2969,
  "\u0120\u00e0\u00a4\u013a\u00e0\u00a4\u0124\u00e0\u00a4\u0141\u00e0\u00a5\u0129": 2970,
  "\u0120\u00e0\u00a4\u0137\u00e0\u00a4\u00be\u00e0\u00a4\u012b": 2971,
  "\u0120\u00e0\u00a4\u0127\u00e0\u00a4\u0124\u00e0\u00a4\u00a4\u00e0\u00a4\u00b0\u00e0\u00a4\u00bf\u00e0\u00a4\u0137\u00e0\u00a5\u012f\u00e0\u00a4\u00b7": 2972,
  "\u0120\u00e0\u00a4\u00b8\u00e0\u00a4\u00b0\u00e0\u00a4\u0137\u00e0\u00a4\u00be\u00e0\u00a4\u00b0\u00e0\u00a5\u0122": 2973,
  "\u0120\u00e0\u00a4\u00b0\u00e0\u00a4\u00be\u00e0\u00a4\u013e\u00e0\u00a4\u00a8\u00e0\u00a5\u0122\u00e0\u00a4\u00a4\u00e0\u00a4\u00bf\u00e0\u00a4\u0137": 2974,
  "\u0120\u00e0\u00a4\u00b9\u00e0\u00a4\u00be\u00e0\u00a4\u0123": 2975,
  "----------------": 2976,
  "\u0120\u00e0\u00a4\u0139\u00e0\u00a4\u00a2\u00e0\u00a4\u00bc\u00e0\u00a4\u00b5\u00e0\u00a4\u00be\u00e0\u00a4\u00b2": 2977,
  "\u0120\u00e0\u00a4\u00ae\u00e0\u00a4\u00b9\u00e0\u00a5\u0122\u00e0\u00a4\u00a8\u00e0\u00a5\u0129": 2978,
  "\u00e0\u00a4\u00b0\u00e0\u00a5\u012f\u00e0\u00a4\u00a4\u00e0\u00a5\u0122": 2979,
  "\u0120\u00e0\u00a4\u00ae\u00e0\u00a4\u00bf\u00e0\u00a4\u00b2\u00e0\u00a4\u00a4\u00e0\u00a4\u00be": 2980,
  "\u0120\u00e0\u00a4\u00b8\u00e0\u00a5\u012f\u00e0\u00a4\u00b5\u00e0\u00a4\u00b8\u00e0\u00a5\u012f\u00e0\u00a4\u00a5": 2981,
  "\u0120not": 2982,
  "\u00e0\u00a4\u00b8\u00e0\u00a5\u012f\u00e0\u00a4\u0141\u00e0\u00a5\u012f\u00e0\u00a4\u00b0\u00e0\u00a5\u0129\u00e0\u00a4\u00b2": 2983,
  "\u00e2\u0122\u013a": 2984,
  "\u0120\u00e0\u00a4\u00b9\u00e0\u00a4\u00b8\u00e0\u00a5\u012f\u00e0\u00a4\u00a4": 2985,
  "\u0120\u00e0\u00a4\u0128\u00e0\u00a4\u00b2": 2986,
  "\u0120\u00e0\u00a4\u0128\u00e0\u00a4\u0131": 2987,
  "\u0120\u00e0\u00a4\u00b8\u00e0\u00a4\u00be\u00e0\u00a4\u013f": 2988,
  "\u0120\u00e0\u00a4\u0143\u00e0\u00a4\u0139": 2989,
  "\u00e0\u00a4\u00be\u00e0\u00a4\u0129\u00e0\u00a4\u00aa": 2990,
  "\u0120\u00e0\u00a4\u00b6\u00e0\u00a5\u012a\u00e0\u00a4\u00b2\u00e0\u00a5\u0122": 2991,
  "\u0120\u00e0\u00a4\u00aa\u00e0\u00a5\u012f\u00e0\u00a4\u00b0\u00e0\u00a4\u00be\u00e0\u00a4\u00a5\u00e0\u00a4\u00ae\u00e0\u00a4\u00bf\u00e0\u00a4\u0137": 2992,
  "\u0120\u00e0\u00a4\u0127\u00e0\u00a4\u0124\u00e0\u00a4\u00a6\u00e0\u00a4\u00b0": 2993,
  "\u0120\u00e0\u00a4\u00a6\u00e0\u00a5\u0129\u00e0\u00a4\u00b5": 2994,
  "\u00e0\u00a5\u0129\u00e0\u00a4\u0141\u00e0\u00a4\u00b0": 2995,
  "\u0120\u00e0\u00a4\u00b0\u00e0\u00a5\u012b": 2996,
  "28": 2997,
  "\u00e0\u00a4\u0143\u00e0\u00a4\u00be\u00e0\u00a4\u00b2": 2998,
  "\u0120\u00e0\u00a4\u013e\u00e0\u00a4\u00b0\u00e0\u00a5\u0124\u00e0\u00a4\u00b0": 2999,
  "\u0120St": 3000,
  "\u0120\u00e0\u00a4\u00b8\u00e0\u00a4\u00b0\u00e0\u00a4\u00b2": 3001,
  "\u00e0\u00a5\u012a\u00e0\u00a4\u0139": 3002,
  "\u0120\u00e0\u00a4\u00b8\u00e0\u00a4\u0124\u00e0\u00a4\u00b0\u00e0\u00a4\u0137\u00e0\u00a5\u012f\u00e0\u00a4\u00b7\u00e0\u00a4\u00a3": 3003,
  "\u00e0\u00a4\u00aa\u00e0\u00a5\u0125\u00e0\u00a4\u00b7\u00e0\u00a5\u012f\u00e0\u00a4\u0142": 3004,
  "\u00e0\u00a4\u00bf\u00e0\u00a4\u00aa\u00e0\u00a5\u012f\u00e0\u00a4\u00a4": 3005,
  "\u0120\u00e0\u00a4\u00b8\u00e0\u00a4\u00be": 3006,
  "\u0120\u00e0\u00a4\u013e\u00e0\u00a4\u00ae": 3007,
  "\u0120\u00e0\u00a4\u00a6\u00e0\u00a5\u0125\u00e0\u00a4\u00b6\u00e0\u00a5\u012f\u00e0\u00a4\u00af": 3008,
  "\u00e0\u00a4\u00af\u00e0\u00a4\u00be\u00e0\u00a4\u00a8": 3009,
  "\u0120\u00e0\u00a4\u0131\u00e0\u00a4\u00b6": 3010,
  "\u00e0\u00a5\u0123\u00e0\u00a4\u0131": 3011,
  "\u0120\u00e0\u00a4\u0127\u00e0\u00a4\u00b5\u00e0\u00a4\u00b8\u00e0\u00a4\u00b0": 3012,
  "ML": 3013,
  "\u0120\u00e0\u00a4\u00aa\u00e0\u00a5\u012f\u00e0\u00a4\u00b0\u00e0\u00a4\u0143\u00e0\u00a4\u00be\u00e0\u00a4\u00b5\u00e0\u00a5\u0122": 3014,
  "\u00e0\u00a5\u0129\u00e0\u00a4\u0139\u00e0\u00a5\u0122": 3015,
  "\u00e0\u00a4\u00b8\u00e0\u00a4\u0124\u00e0\u00a4\u0138\u00e0\u00a5\u012f\u00e0\u00a4\u00af\u00e0\u00a4\u00be": 3016,
  "\u0120\u00e0\u00a4\u00a6\u00e0\u00a4\u00ac": 3017,
  "\u0120\u00e0\u00a4\u00ab\u00e0\u00a4\u00bc\u00e0\u00a4\u00be\u00e0\u00a4\u0129\u00e0\u00a4\u00b2": 3018,
  "\u0120such": 3019,
  "\u0120\u00e0\u00a4\u0127\u00e0\u00a4\u0124\u00e0\u00a4\u0137": 3020,
  "\u00e0\u00a4\u00be\u00e0\u00a4\u00b0\u00e0\u00a5\u0122\u00e0\u00a4\u00b0\u00e0\u00a4\u00bf\u00e0\u00a4\u0137": 3021,
  "ents": 3022,
  "\u00e0\u00a5\u00a6\u00e0\u00a5\u00a6": 3023,
  "\u0120\u00e0\u00a4\u013e\u00e0\u00a4\u00b0\u00e0\u00a5\u012f\u00e0\u00a4\u00ae": 3024,
  "\u0120\u00e0\u00a4\u0128\u00e0\u00a4\u00b8\u00e0\u00a4\u00be\u00e0\u00a4\u00a8": 3025,
  "\u0120V": 3026,
  "\u0120\u00e0\u00a4\u00b9\u00e0\u00a4\u00b5\u00e0\u00a4\u00be": 3027,
  "\u0120\u00e0\u00a4\u00b8\u00e0\u00a4\u013c": 3028,
  "\u0120\u00e0\u00a4\u00b8\u00e0\u00a4\u0141": 3029,
  "\u00e0\u00a5\u012b\u00e0\u00a4\u00b0\u00e0\u00a5\u012f\u00e0\u00a4\u0137": 3030,
  "\u00e0\u00a4\u00ae\u00e0\u00a5\u012a\u00e0\u00a4\u0124": 3031,
  "\u00e0\u00a5\u0122\u00e0\u00a4\u00a8\u00e0\u00a4\u00bf\u00e0\u00a4\u00af\u00e0\u00a4\u00b0": 3032,
  "\u00e0\u00a4\u00be\u00e0\u00a4\u0124\u00e0\u00a4\u00a4\u00e0\u00a4\u00b0": 3033,
  "\u0120\u00e0\u00a4\u0127\u00e0\u00a4\u0139\u00e0\u00a4\u00b2\u00e0\u00a5\u0129": 3034,
  "\u00e0\u00a5\u0124\u00e0\u00a4\u00b0\u00e0\u00a5\u012f\u00e0\u00a4\u00a4\u00e0\u00a4\u00bf": 3035,
  "\u0120\u00e0\u00a4\u00b6\u00e0\u00a4\u00bf\u00e0\u00a4\u00b5": 3036,
  "\u0120\u00e0\u00a4\u013c\u00e0\u00a4\u00b0\u00e0\u00a5\u012f\u00e0\u00a4\u013c\u00e0\u00a4\u00be": 3037,
  "\u0120\u0120\u0120\u0120\u0120\u0120\u0120\u0120\u0120\u0120\u0120\u0120\u0120\u0120\u0120\u0120": 3038,
  "\u0120\u00e0\u00a4\u00b8\u00e0\u00a4\u0124\u00e0\u00a4\u00b8\u00e0\u00a5\u012f\u00e0\u00a4\u0137\u00e0\u00a4\u00b0\u00e0\u00a4\u00a3": 3039,
  "ace": 3040,
  "\u00e0\u00a4\u0143\u00e0\u00a4\u00be\u00e0\u00a4\u00b0\u00e0\u00a4\u00a4\u00e0\u00a5\u0122\u00e0\u00a4\u00af": 3041,
  "27": 3042,
  "\u0120\u00e0\u00a4\u00a1\u00e0\u00a4\u00ac\u00e0\u00a5\u012f\u00e0\u00a4\u00b2\u00e0\u00a5\u012f\u00e0\u00a4\u00af\u00e0\u00a5\u0124": 3043,
  "\u0120\u00e0\u00a4\u00b5\u00e0\u00a5\u0122\u00e0\u00a4\u00a1": 3044,
  "\u0120\u00e0\u00a4\u00b0\u00e0\u00a4\u00b9\u00e0\u00a4\u00a4\u00e0\u00a4\u00be": 3045,
  "\u0120\u00e0\u00a4\u00a4\u00e0\u00a4\u00bf\u00e0\u00a4\u00a5\u00e0\u00a4\u00bf": 3046,
  "\u0120\u00e0\u00a4\u00a6\u00e0\u00a5\u0124\u00e0\u00a4\u00b0\u00e0\u00a5\u0122": 3047,
  "\u0120\u00e0\u00a4\u00b0\u00e0\u00a5\u0129\u00e0\u00a4\u00a1": 3048,
  "\u00e0\u00a5\u0123\u00e0\u00a4\u00a4\u00e0\u00a5\u012f\u00e0\u00a4\u00a4": 3049,
  "\u0120\u00e0\u00a4\u00ab\u00e0\u00a5\u0122": 3050,
  "\u0120\u00e0\u00a4\u00b0\u00e0\u00a4\u00a3\u00e0\u00a4\u00a8\u00e0\u00a5\u0122": 3051,
  "\u0120\u00e0\u00a4\u00b2\u00e0\u00a4\u00be\u00e0\u00a4\u0139\u00e0\u00a4\u00a4": 3052,
  "ail": 3053,
  "\u0120\u00e0\u00a4\u00b8\u00e0\u00a5\u012f\u00e0\u00a4\u00a5\u00e0\u00a4\u00b2": 3054,
  "ong": 3055,
  "\u0120word": 3056,
  "\u0120list": 3057,
  "\u0120\u00e0\u00a4\u00b6\u00e0\u00a4\u00bf\u00e0\u00a4\u0137\u00e0\u00a5\u012f\u00e0\u00a4\u00b7\u00e0\u00a4\u0137": 3058,
  "\u0120\u00e0\u00a4\u00b8\u00e0\u00a4\u00b2\u00e0\u00a4\u00be\u00e0\u00a4\u00b9": 3059,
  "\u0120\u00e0\u00a4\u0131\u00e0\u00a4\u00aa": 3060,
  "\u00e0\u00a4\u012c": 3061,
  "\u0120also": 3062,
  "\u0120\u00e0\u00a4\u00ae\u00e0\u00a4\u00bf\u00e0\u00a4\u00b8": 3063,
  "\u0120\u00e0\u00a4\u0143\u00e0\u00a4\u00be\u00e0\u00a4\u00b5\u00e0\u00a4\u00a8": 3064,
  "\u0120\u00e0\u00a4\u0137\u00e0\u00a4\u00be\u00e0\u00a4\u0124\u00e0\u00a4\u0139\u00e0\u00a5\u012f\u00e0\u00a4\u00b0\u00e0\u00a5\u0129\u00e0\u00a4\u00b8": 3065,
  "\u0120\u00e0\u00a4\u00ae\u00e0\u00a4\u00be\u00e0\u00a4\u0123": 3066,
  "\u00e0\u00a4\u00be\u00e0\u00a4\u00b0\u00e0\u00a5\u012f\u00e0\u00a4\u00a5": 3067,
  "\u0120\u00e0\u00a4\u012b\u00e0\u00a4\u00a1\u00e0\u00a4\u00bc": 3068,
  "\u0120\u00e0\u00a4\u0139\u00e0\u00a5\u0123\u00e0\u00a4\u013e\u00e0\u00a4\u00b0": 3069,
  "\u00e0\u00a4\u00b8\u00e0\u00a4\u00b0\u00e0\u00a5\u0129": 3070,
  "\u0120\u00e0\u00a4\u00b9\u00e0\u00a4\u00be\u00e0\u00a4\u00b0": 3071,
  "\u00e0\u00a5\u012d\u00e0\u00a4\u00b0\u00e0\u00a5\u012f\u00e0\u00a4\u00a1": 3072,
  "\u0120comp": 3073,
  "aly": 3074,
  "\u0120\u00e0\u00a4\u00ae\u00e0\u00a4\u00b2": 3075,
  "\u0120\u00e0\u00a4\u012b\u00e0\u00a4\u00a8\u00e0\u00a5\u012f\u00e0\u00a4\u00a8": 3076,
  "\u00e0\u00a4\u0137\u00e0\u00a4\u00be\u00e0\u00a4\u00b2\u00e0\u00a5\u0122\u00e0\u00a4\u00a8": 3077,
  "\u00e0\u00a5\u00b0": 3078,
  "\u0120sent": 3079,
  "\u0120\u00e0\u00a4\u00ab\u00e0\u00a5\u012a\u00e0\u00a4\u00b8": 3080,
  "\u0120\u00e0\u00a4\u00a8\u00e0\u00a4\u00bf\u00e0\u00a4\u0139": 3081,
  "\u0120\u00e0\u00a4\u00a1\u00e0\u00a5\u012b\u00e0\u00a4\u0137\u00e0\u00a5\u012f\u00e0\u00a4\u0141\u00e0\u00a4\u00b0": 3082,
  "\u00e0\u00a4\u00a4\u00e0\u00a5\u0123": 3083,
  "\u0120\u00e0\u00a4\u00ae\u00e0\u00a4\u00bf\u00e0\u00a4\u00a8\u00e0\u00a4\u0141": 3084,
  "\u0120\u00e0\u00a4\u00ac\u00e0\u00a4\u00a8\u00e0\u00a5\u0129": 3085,
  "\u0120\u00e0\u00a4\u00ae\u00e0\u00a4\u00bf\u00e0\u00a4\u00b2\u00e0\u00a4\u00be": 3086,
  "\u00e0\u00a4\u00b5\u00e0\u00a4\u00bf\u00e0\u00a4\u0137\u00e0\u00a4\u00b2\u00e0\u00a5\u012f\u00e0\u00a4\u00aa\u00e0\u00a4\u0125": 3087,
  "\u0120\u00e0\u00a4\u00ac\u00e0\u00a4\u00be\u00e0\u00a4\u013e\u00e0\u00a4\u00be\u00e0\u00a4\u00b0": 3088,
  "\u0120\u00e0\u00a4\u0139\u00e0\u00a5\u0123\u00e0\u00a4\u00a3\u00e0\u00a4\u00b5\u00e0\u00a4\u00a4\u00e0\u00a5\u012f\u00e0\u00a4\u00a4\u00e0\u00a4\u00be": 3089,
  "\u00e0\u00a5\u012d\u00e0\u00a4\u00b2\u00e0\u00a5\u0122": 3090,
  "\u0120using": 3091,
  "ish": 3092,
  "\u00e0\u00a4\u00be\u00e0\u00a4\u0124\u00e0\u00a4\u0141": 3093,
  "\u00e0\u00a4\u00b5\u00e0\u00a5\u012f\u00e0\u00a4\u00af\u00e0\u00a4\u00b5": 3094,
  "\u00e0\u00a4\u00be\u00e0\u00a4\u013e\u00e0\u00a5\u0122": 3095,
  "cri": 3096,
  "\u0120\u00e0\u00a4\u00aa\u00e0\u00a4\u00b0\u00e0\u00a4\u00ae": 3097,
  "\u0120\u00e0\u00a4\u00a1\u00e0\u00a4\u00bf\u00e0\u00a4\u0139": 3098,
  "\u0120\u00e0\u00a4\u00ae\u00e0\u00a5\u0122\u00e0\u00a4\u0141\u00e0\u00a4\u00b0": 3099,
  "\u0120\u00e0\u00a4\u0137\u00e0\u00a4\u00a6\u00e0\u00a4\u00ae": 3100,
  "\u0120\u00e0\u00a4\u00ac\u00e0\u00a4\u00a8\u00e0\u00a4\u00be\u00e0\u00a4\u0131\u00e0\u00a4\u0124": 3101,
  "\u00e0\u00a4\u00b8\u00e0\u00a4\u00bf\u00e0\u00a4\u0137": 3102,
  "\u0120\u00e0\u00a4\u00af\u00e0\u00a5\u012d\u00e0\u00a4\u0139\u00e0\u00a5\u012f\u00e0\u00a4\u00af": 3103,
  "\u0120\u00e0\u00a4\u013e\u00e0\u00a4\u00a8\u00e0\u00a4\u00b5\u00e0\u00a4\u00b0\u00e0\u00a5\u0122": 3104,
  "\u0120\u00e0\u00a4\u0128\u00e0\u00a4\u00af\u00e0\u00a5\u0123": 3105,
  "\u0120\u00e0\u00a4\u00a8\u00e0\u00a4\u00bf\u00e0\u00a4\u00a6": 3106,
  "\u00e0\u00a4\u00a8\u00e0\u00a5\u0129\u00e0\u00a4\u0141": 3107,
  "\u0120\u00e0\u00a4\u00aa\u00e0\u00a5\u012d\u00e0\u00a4\u00b8\u00e0\u00a5\u012f\u00e0\u00a4\u0141": 3108,
  "\u0120\u00e0\u00a4\u00a7\u00e0\u00a5\u012f\u00e0\u00a4\u00b5": 3109,
  "ik": 3110,
  "\u00e0\u00a4\u0137\u00e0\u00a5\u012f\u00e0\u00a4\u00b7\u00e0\u00a4\u00bf\u00e0\u00a4\u00aa\u00e0\u00a5\u012f\u00e0\u00a4\u00a4": 3111,
  "\u0120\u00e0\u00a4\u00b5\u00e0\u00a4\u00bf\u00e0\u00a4\u00a6\u00e0\u00a5\u012f\u00e0\u00a4\u00af": 3112,
  "\u0120\u00e0\u00a4\u0137\u00e0\u00a4\u00be\u00e0\u00a4\u00a8\u00e0\u00a5\u0124\u00e0\u00a4\u00a8": 3113,
[...]
