{
  "<pad>": 0,
  "<s>": 1,
  "</s>": 2,
  "<unk>": 3,
  "<|im_start|>": 4,
  "<|im_end|>": 5,
  "<|system|>": 6,
  "<|user|>": 7,
  "<|assistant|>": 8,
  "<|thought|>": 9,
  "</|thought|>": 10,
  "<|call:tool|>": 11,
  "<|tool_output|>": 12,
  "```python": 13,
  "```json": 14,
  "```cpp": 15,
  "```rust": 16,
  "```sql": 17,
  "def __init__": 18,
  "import torch": 19,
  "async def": 20,
  "fn main()": 21,
  "User:": 22,
  "Assistant:": 23,
  "System:": 24,
  "!": 25,
  "\"": 26,
  "#": 27,
  "$": 28,
  "%": 29,
  "&": 30,
  "'": 31,
  "(": 32,
  ")": 33,
  "*": 34,
  "+": 35,
  ",": 36,
  "-": 37,
  ".": 38,
  "/": 39,
  "0": 40,
  "1": 41,
  "2": 42,
  "3": 43,
  "4": 44,
  "5": 45,
  "6": 46,
  "7": 47,
  "8": 48,
  "9": 49,
  ":": 50,
  ";": 51,
  "<": 52,
  "=": 53,
  ">": 54,
  "?": 55,
  "@": 56,
  "A": 57,
  "B": 58,
  "C": 59,
  "D": 60,
  "E": 61,
  "F": 62,
  "G": 63,
  "H": 64,
  "I": 65,
  "J": 66,
  "K": 67,
  "L": 68,
  "M": 69,
  "N": 70,
  "O": 71,
  "P": 72,
  "Q": 73,
  "R": 74,
  "S": 75,
  "T": 76,
  "U": 77,
  "V": 78,
  "W": 79,
  "X": 80,
  "Y": 81,
  "Z": 82,
  "[": 83,
  "\\": 84,
  "]": 85,
  "^": 86,
  "_": 87,
  "`": 88,
  "a": 89,
  "b": 90,
  "c": 91,
  "d": 92,
  "e": 93,
  "f": 94,
  "g": 95,
  "h": 96,
  "i": 97,
  "j": 98,
  "k": 99,
  "l": 100,
  "m": 101,
  "n": 102,
  "o": 103,
  "p": 104,
  "q": 105,
  "r": 106,
  "s": 107,
  "t": 108,
  "u": 109,
  "v": 110,
  "w": 111,
  "x": 112,
  "y": 113,
  "z": 114,
  "{": 115,
  "|": 116,
  "}": 117,
  "~": 118,
  "\u00a1": 119,
  "\u00a2": 120,
  "\u00a3": 121,
  "\u00a4": 122,
  "\u00a5": 123,
  "\u00a6": 124,
  "\u00a7": 125,
  "\u00a8": 126,
  "\u00a9": 127,
  "\u00aa": 128,
  "\u00ab": 129,
  "\u00ac": 130,
  "\u00ae": 131,
  "\u00af": 132,
  "\u00b0": 133,
  "\u00b1": 134,
  "\u00b2": 135,
  "\u00b3": 136,
  "\u00b4": 137,
  "\u00b5": 138,
  "\u00b6": 139,
  "\u00b7": 140,
  "\u00b8": 141,
  "\u00b9": 142,
  "\u00ba": 143,
  "\u00bb": 144,
  "\u00bc": 145,
  "\u00bd": 146,
  "\u00be": 147,
  "\u00bf": 148,
  "\u00c0": 149,
  "\u00c1": 150,
  "\u00c2": 151,
  "\u00c3": 152,
  "\u00c4": 153,
  "\u00c5": 154,
  "\u00c6": 155,
  "\u00c7": 156,
  "\u00c8": 157,
  "\u00c9": 158,
  "\u00ca": 159,
  "\u00cb": 160,
  "\u00cc": 161,
  "\u00cd": 162,
  "\u00ce": 163,
  "\u00cf": 164,
  "\u00d0": 165,
  "\u00d1": 166,
  "\u00d2": 167,
  "\u00d3": 168,
  "\u00d4": 169,
  "\u00d5": 170,
  "\u00d6": 171,
  "\u00d7": 172,
  "\u00d8": 173,
  "\u00d9": 174,
  "\u00da": 175,
  "\u00db": 176,
  "\u00dc": 177,
  "\u00dd": 178,
  "\u00de": 179,
  "\u00df": 180,
  "\u00e0": 181,
  "\u00e1": 182,
  "\u00e2": 183,
  "\u00e3": 184,
  "\u00e4": 185,
  "\u00e5": 186,
  "\u00e6": 187,
  "\u00e7": 188,
  "\u00e8": 189,
  "\u00e9": 190,
  "\u00ea": 191,
  "\u00eb": 192,
  "\u00ec": 193,
  "\u00ed": 194,
  "\u00ee": 195,
  "\u00ef": 196,
  "\u00f0": 197,
  "\u00f1": 198,
  "\u00f2": 199,
  "\u00f3": 200,
  "\u00f4": 201,
  "\u00f5": 202,
  "\u00f6": 203,
  "\u00f7": 204,
  "\u00f8": 205,
  "\u00f9": 206,
  "\u00fa": 207,
  "\u00fb": 208,
  "\u00fc": 209,
  "\u00fd": 210,
  "\u00fe": 211,
  "\u00ff": 212,
  "\u0100": 213,
  "\u0101": 214,
  "\u0102": 215,
  "\u0103": 216,
  "\u0104": 217,
  "\u0105": 218,
  "\u0106": 219,
  "\u0107": 220,
  "\u0108": 221,
  "\u0109": 222,
  "\u010a": 223,
  "\u010b": 224,
  "\u010c": 225,
  "\u010d": 226,
  "\u010e": 227,
  "\u010f": 228,
  "\u0110": 229,
  "\u0111": 230,
  "\u0112": 231,
  "\u0113": 232,
  "\u0114": 233,
  "\u0115": 234,
  "\u0116": 235,
  "\u0117": 236,
  "\u0118": 237,
  "\u0119": 238,
  "\u011a": 239,
  "\u011b": 240,
  "\u011c": 241,
  "\u011d": 242,
  "\u011e": 243,
  "\u011f": 244,
  "\u0120": 245,
  "\u0121": 246,
  "\u0122": 247,
  "\u0123": 248,
  "\u0124": 249,
  "\u0125": 250,
  "\u0126": 251,
  "\u0127": 252,
  "\u0128": 253,
  "\u0129": 254,
  "\u012a": 255,
  "\u012b": 256,
  "\u012c": 257,
  "\u012d": 258,
  "\u012e": 259,
  "\u012f": 260,
  "\u0130": 261,
  "\u0131": 262,
  "\u0132": 263,
  "\u0133": 264,
  "\u0134": 265,
  "\u0135": 266,
  "\u0136": 267,
  "\u0137": 268,
  "\u0138": 269,
  "\u0139": 270,
  "\u013a": 271,
  "\u013b": 272,
  "\u013c": 273,
  "\u013d": 274,
  "\u013e": 275,
  "\u013f": 276,
  "\u0140": 277,
  "\u0141": 278,
  "\u0142": 279,
  "\u0143": 280,
  "\u0120a": 281,
  "\u0120t": 282,
  "in": 283,
  "he": 284,
  "re": 285,
  "at": 286,
  "on": 287,
  "er": 288,
  "\u0120c": 289,
  "st": 290,
  "an": 291,
  "\u0120the": 292,
  "or": 293,
  "\u0120\"": 294,
  "\u0120an": 295,
  "ou": 296,
  "le": 297,
  "ing": 298,
  "\u0120s": 299,
  "en": 300,
  "\u0120w": 301,
  "it": 302,
  "\u0120f": 303,
  "al": 304,
  "\u0120b": 305,
  "\u0120p": 306,
  "\u0120o": 307,
  "ar": 308,
  "ed": 309,
  "is": 310,
  "\u0120and": 311,
  "\u0120A": 312,
  "es": 313,
  "ion": 314,
  "\u0120in": 315,
  "\u0120to": 316,
  "\u0120m": 317,
  "\u0120d": 318,
  "\":": 319,
  "as": 320,
  "\u0120of": 321,
  "ct": 322,
  "\u0120T": 323,
  "ly": 324,
  "ro": 325,
  "ant": 326,
  "ic": 327,
  "\",": 328,
  "us": 329,
  "ent": 330,
  "ra": 331,
  "\u0120n": 332,
  "\u0120e": 333,
  "ist": 334,
  "\u0120th": 335,
  "ate": 336,
  "\u0120re": 337,
  "et": 338,
  "\u0120y": 339,
  "\u0120h": 340,
  "om": 341,
  "ll": 342,
  "``": 343,
  "de": 344,
  "\u0120you": 345,
  "sist": 346,
  "im": 347,
  "ve": 348,
  "ow": 349,
  "\u0120l": 350,
  "\u0120as": 351,
  "\u0120is": 352,
  "sistant": 353,
  "ur": 354,
  "em": 355,
  "\u0120AI": 356,
  "ch": 357,
  "\u0120are": 358,
  "\u0120I": 359,
  "ation": 360,
  "\u0120g": 361,
  ".\",": 362,
  "ul": 363,
  "\u0120st": 364,
  "\u0120S": 365,
  "\u0120C": 366,
  "\u0120for": 367,
  "\u0120by": 368,
  "un": 369,
  "am": 370,
  "ut": 371,
  "\u0120pro": 372,
  "ce": 373,
  "ith": 374,
  "\u01201": 375,
  "ol": 376,
  "\\\"": 377,
  "ig": 378,
  "um": 379,
  "\u0120he": 380,
  "\u0120cre": 381,
  "ory": 382,
  "ver": 383,
  "You": 384,
  "\u0120that": 385,
  "\u0120B": 386,
  "ction": 387,
  "\u0120us": 388,
  "ple": 389,
  "ot": 390,
  "yst": 391,
  "\u0120con": 392,
  "\u0120be": 393,
  "ay": 394,
  "ated": 395,
  "ystem": 396,
  "\u0120ex": 397,
  "\u0120The": 398,
  "if": 399,
  "tu": 400,
  "ode": 401,
  "\u0120on": 402,
  "il": 403,
  "\u0120=": 404,
  "```": 405,
  "\u0120with": 406,
  "ir": 407,
  "th": 408,
  "se": 409,
  "ge": 410,
  "\u0120W": 411,
  "\u0120```": 412,
  "\u0120de": 413,
  "'s": 414,
  "\u0120(": 415,
  "id": 416,
  "ateg": 417,
  "\u0120v": 418,
  "ad": 419,
  "\u010d\u010a": 420,
  "\u0120com": 421,
  "lya": 422,
  "tulya": 423,
  "\u0120Atulya": 424,
  "user": 425,
  "\u0120P": 426,
  "system": 427,
  "ategory": 428,
  "\u0120it": 429,
  "assistant": 430,
  "{\"": 431,
  "\"}": 432,
  "category": 433,
  "\u0120we": 434,
  "ri": 435,
  "ment": 436,
  "ter": 437,
  "\u0120`": 438,
  "\u01202": 439,
  "\u0120H": 440,
  "\u0120created": 441,
  "\u0120can": 442,
  "\\\\": 443,
  "antra": 444,
  "\u0120Tantra": 445,
  "\u0120assistant": 446,
  "pp": 447,
  "\u0120E": 448,
  "and": 449,
  "ab": 450,
  "ers": 451,
  "qu": 452,
  "\u0120M": 453,
  "\u0120-": 454,
  "ain": 455,
  "\u0120ne": 456,
  "\u0120R": 457,
  "res": 458,
  "\u0120or": 459,
  "od": 460,
  "ke": 461,
  "\u0120al": 462,
  "\u0120#": 463,
  "nt": 464,
  "out": 465,
  "\u0120se": 466,
  "\u0120D": 467,
  "\u0120F": 468,
  "\u0120wh": 469,
  "ck": 470,
  "lo": 471,
  "ort": 472,
  "ess": 473,
  "\u0120cle": 474,
  "ru": 475,
  "pt": 476,
  "pe": 477,
  "\u0120your": 478,
  "\u0120hel": 479,
  "ful": 480,
  "her": 481,
  "ata": 482,
  "\u0120N": 483,
  "\u0120In": 484,
  "\u0120le": 485,
  "\u0120help": 486,
  "cc": 487,
  "ld": 488,
  "\u0120im": 489,
  "\u0120L": 490,
  "ive": 491,
  "ite": 492,
  "ore": 493,
  "iz": 494,
  "ere": 495,
  "\u0120su": 496,
  "pl": 497,
  "iv": 498,
  "\u0120$": 499,
  "igh": 500,
  "ity": 501,
  "\u0120fun": 502,
  "\u0120\\\"": 503,
  "rom": 504,
  "ies": 505,
  "\u0120r": 506,
  "yth": 507,
  "\u0120this": 508,
  "ect": 509,
  "per": 510,
  "ine": 511,
  "\u0120Th": 512,
  "\u0120int": 513,
  "all": 514,
  "\u01203": 515,
  "ns": 516,
  "oc": 517,
  "llow": 518,
  "el": 519,
  "\u0120G": 520,
  "00": 521,
  "ile": 522,
  "ial": 523,
  "\u0120function": 524,
  "\u0120from": 525,
  "\u0120O": 526,
  "art": 527,
  "\u0120code": 528,
  "end": 529,
  "\u0120ma": 530,
  "int": 531,
  "arly": 532,
  "age": 533,
  "ython": 534,
  "ill": 535,
  "av": 536,
  "\u0120data": 537,
  "\u0120te": 538,
  "ram": 539,
  "\u0120J": 540,
  "\u0120ch": 541,
  "able": 542,
  "\u0120acc": 543,
  "nd": 544,
  "ure": 545,
  "\u0120Be": 546,
  "\u0120was": 547,
  "\u0120ar": 548,
  "\u0120me": 549,
  "\u0120at": 550,
  "ue": 551,
  "ural": 552,
  "arm": 553,
  "\u0120app": 554,
  "\u0120ha": 555,
  "ag": 556,
  "ight": 557,
  "\u0120comp": 558,
  "\u0120nat": 559,
  "\u0120clearly": 560,
  "os": 561,
  "umb": 562,
  "\u0120ab": 563,
  "\u0120helpful": 564,
  "ample": 565,
  "ame": 566,
  "our": 567,
  "\u0120un": 568,
  "act": 569,
  "\u0120Ex": 570,
  "ations": 571,
  "\u0120natural": 572,
  "ach": 573,
  "rect": 574,
  "\u0120U": 575,
  "ass": 576,
  "ork": 577,
  "ust": 578,
  "up": 579,
  "\u0120This": 580,
  "\u0120warm": 581,
  "ult": 582,
  "orm": 583,
  "ep": 584,
  "wer": 585,
  "\u0120fo": 586,
  "rite": 587,
  "\u0120en": 588,
  "\u0120ad": 589,
  "ime": 590,
  "\u0120sh": 591,
  "\u0120whe": 592,
  "ason": 593,
  "are": 594,
  "ie": 595,
  "ide": 596,
  "gram": 597,
  "ard": 598,
  "cl": 599,
  "ise": 600,
  "ich": 601,
  "ary": 602,
  "ib": 603,
  "\u0120cl": 604,
  "ould": 605,
  "der": 606,
  "ack": 607,
  "\u0120have": 608,
  "\u0120example": 609,
  "oo": 610,
  "ome": 611,
  "\u0120using": 612,
  "\u0120use": 613,
  "xt": 614,
  "ap": 615,
  "\u0120program": 616,
  "ately": 617,
  "\u0120pl": 618,
  "\u0120numb": 619,
  "ind": 620,
  "\u0120\\\\": 621,
  "\u0120imp": 622,
  "ject": 623,
  "\u0120ret": 624,
  "ip": 625,
  "\u0120def": 626,
  "\u01204": 627,
  "\u0120follow": 628,
  "ang": 629,
  "ff": 630,
  "\u0120##": 631,
  "\u0120has": 632,
  "\u0120res": 633,
  "\u0120cor": 634,
  "form": 635,
  "\u0120Ans": 636,
  "?\",": 637,
  "ally": 638,
  "asoning": 639,
  "\u0120k": 640,
  "\u0120up": 641,
  "\u0120accur": 642,
  "\u0120Answer": 643,
  "\u0120'": 644,
  "\u0120cont": 645,
  "\u0120pr": 646,
  "ph": 647,
  "\u0120It": 648,
  "ak": 649,
  "est": 650,
  "\u01205": 651,
  "\u0120Write": 652,
  "ud": 653,
  "lic": 654,
  "\u0120which": 655,
  "ost": 656,
  "\u0120accurately": 657,
  "code": 658,
  "ac": 659,
  "so": 660,
  "ance": 661,
  "du": 662,
  "ans": 663,
  "ord": 664,
  "\u0120new": 665,
  "\u0120retur": 666,
  "ition": 667,
  "\u0120about": 668,
  "erc": 669,
  "gh": 670,
  "ari": 671,
  "\u0120comm": 672,
  "rou": 673,
  "\u0120do": 674,
  "\u0120man": 675,
  "\u0120set": 676,
  "\u012019": 677,
  "()": 678,
  "ast": 679,
  "ount": 680,
  "ents": 681,
  "\u0120if": 682,
  "\u0120their": 683,
  "ell": 684,
  "ther": 685,
  "\u0120val": 686,
  "ign": 687,
  "fere": 688,
  "\u0120sc": 689,
  "ks": 690,
  "\u0120go": 691,
  "ous": 692,
  "\u0120j": 693,
  "stru": 694,
  "\u0120{": 695,
  "og": 696,
  "led": 697,
  "ating": 698,
  "\u0120need": 699,
  "\u0120correct": 700,
  "\u0120+": 701,
  "cess": 702,
  "reasoning": 703,
  "\u0120<": 704,
  "\u0120clean": 705,
  "ice": 706,
  "les": 707,
  "sion": 708,
  "\u0120po": 709,
  "ithm": 710,
  "\u0120following": 711,
  "\u0120will": 712,
  "\u0120per": 713,
  "\u0120not": 714,
  "\u0120To": 715,
  "python": 716,
  "ry": 717,
  "ercise": 718,
  "\u0120more": 719,
  "\u0120fe": 720,
  "ub": 721,
  "\u0120return": 722,
  "ution": 723,
  "\u0120time": 724,
  "ize": 725,
  "ase": 726,
  "ong": 727,
  "ace": 728,
  "irst": 729,
  "ces": 730,
  "etw": 731,
  "ors": 732,
  "chat": 733,
  "gor": 734,
  "plain": 735,
  "\u0120used": 736,
  "\u0120Re": 737,
  "hat": 738,
  "gorithm": 739,
  "\u0120its": 740,
  "\u0120spe": 741,
  "\u0120Exercise": 742,
  "ence": 743,
  "\u0120inst": 744,
  "ring": 745,
  "\u0120St": 746,
  "!\",": 747,
  "pres": 748,
  "ical": 749,
  "\u0120ele": 750,
  "\u0120algorithm": 751,
  "wo": 752,
  "\u01200": 753,
  "\u0120out": 754,
  "ound": 755,
  "struction": 756,
  "ike": 757,
  "ning": 758,
  "\u0120sp": 759,
  "\u0120into": 760,
  "\u0120qu": 761,
  "ne": 762,
  "mer": 763,
  "ray": 764,
  "eth": 765,
  "\u0120ro": 766,
  "\u0120work": 767,
  "ble": 768,
  "\u0120also": 769,
  "\u0120add": 770,
  "\u0120cal": 771,
  "\u0120K": 772,
  "\u0120number": 773,
  "\u0120vari": 774,
  "\u0120each": 775,
  "\u0120well": 776,
  "\u0120import": 777,
  "red": 778,
  "plement": 779,
  "\u0120You": 780,
  "ree": 781,
  "cri": 782,
  "\u0120but": 783,
  "\u0120class": 784,
  "ates": 785,
  "\u0120*": 786,
  "ays": 787,
  "\u0120}": 788,
  "\u0120create": 789,
  "\u0120how": 790,
  "\u0120ty": 791,
  "ific": 792,
  "\u0120other": 793,
  "):": 794,
  "\u0120two": 795,
  "\u0120step": 796,
  "\u0120incl": 797,
  "ia": 798,
  "\u0120Python": 799,
  "te": 800,
  "\u0120dif": 801,
  "tern": 802,
  "\u0120all": 803,
  "\u0120than": 804,
  "ove": 805,
  "own": 806,
  "put": 807,
  "\u0120V": 808,
  "\u0120prov": 809,
  "ments": 810,
  "\u0120ev": 811,
  "\u0120one": 812,
  "raph": 813,
  "\u0120ser": 814,
  "\u0120such": 815,
  "ava": 816,
  "ont": 817,
  "\u0120file": 818,
  "\u0120col": 819,
  "'m": 820,
  "\u0120so": 821,
  "\u0120sim": 822,
  "\u0120mat": 823,
  "\u0120like": 824,
  "ft": 825,
  "velo": 826,
  "\u0120di": 827,
  "\u0120they": 828,
  "\u0120spec": 829,
  "pic": 830,
  "one": 831,
  "ear": 832,
  "\u0120x": 833,
  "\u0120when": 834,
  "\u0120des": 835,
  "\u0120first": 836,
  "\u0120tra": 837,
  "ument": 838,
  "\u0120bas": 839,
  "rit": 840,
  "\u0120kn": 841,
  "\u0120differe": 842,
  "vers": 843,
  "ative": 844,
  "ng": 845,
  "ient": 846,
  "\u0120For": 847,
  "velop": 848,
  "\u0120list": 849,
  "pert": 850,
  "ual": 851,
  "--": 852,
  "ond": 853,
  "eg": 854,
  "),": 855,
  ");": 856,
  "\u0120implement": 857,
  "\u0120part": 858,
  "\u01206": 859,
  "ath": 860,
  "\u0120Ch": 861,
  "ures": 862,
  "\u0120dis": 863,
  "cript": 864,
  "\u0120ob": 865,
  "Ex": 866,
  "olution": 867,
  "ues": 868,
  "\u0120would": 869,
  "\u0120bu": 870,
  "els": 871,
  "\u0120Cre": 872,
  "\u0120Here": 873,
  "ild": 874,
  "\u0120ke": 875,
  "\u0120stru": 876,
  "\u0120co": 877,
  "erm": 878,
  "\u0120process": 879,
  "get": 880,
  "\u0120some": 881,
  "\u0120print": 882,
  "\u0120pre": 883,
  "ail": 884,
  "'t": 885,
  "stand": 886,
  "king": 887,
  "\u0120his": 888,
  "blem": 889,
  "een": 890,
  "ec": 891,
  "\u0120system": 892,
  "ys": 893,
  "ethod": 894,
  "\u0120develop": 895,
  "ish": 896,
  "\u0120there": 897,
  "\u0120i": 898,
  "\u0120them": 899,
  "ps": 900,
  "\u0120under": 901,
  "\u0120struct": 902,
  "\u0120allow": 903,
  "\u0120inter": 904,
  ").": 905,
  "arch": 906,
  "Explain": 907,
  "ake": 908,
  "\u0120rec": 909,
  "\u0120eff": 910,
  "ions": 911,
  "ert": 912,
  "\u0120array": 913,
  "ings": 914,
  "\u0120[": 915,
  "ices": 916,
  "\u0120where": 917,
  "\u0120/": 918,
  "\u0120let": 919,
  "ss": 920,
  "\u0120day": 921,
  "\u0120project": 922,
  "\u0120find": 923,
  "\u0120my": 924,
  "etween": 925,
  "\u0120pe": 926,
  "\u0120Java": 927,
  "\u0120text": 928,
  "ons": 929,
  "\u0120method": 930,
  "\u0120these": 931,
  "\u012020": 932,
  "\u0120applic": 933,
  "read": 934,
  "\u0120oper": 935,
  "\u0120comput": 936,
  "\u0120over": 937,
  "\u0120problem": 938,
  "very": 939,
  "\u0120What": 940,
  "pen": 941,
  "\u0120different": 942,
  "\u0120start": 943,
  "ocument": 944,
  "\u0120topic": 945,
  "\u0120off": 946,
  "odel": 947,
  "\u0120gen": 948,
  "ange": 949,
  "\u0120run": 950,
  "\u0120comple": 951,
  "\u0120value": 952,
  "\u0120repres": 953,
  "\u0120between": 954,
  "\u0120perform": 955,
  "cy": 956,
  "ni": 957,
  "rough": 958,
  "cul": 959,
  "ark": 960,
  "\u0120mem": 961,
  "\u0120make": 962,
  "ian": 963,
  "cept": 964,
  "\u0120How": 965,
  "\u0120tr": 966,
  "ater": 967,
  "\u0120who": 968,
  "\u0120200": 969,
  "The": 970,
  "lf": 971,
  "ude": 972,
  "\u0120|": 973,
  "ics": 974,
  "\u0120ed": 975,
  "\u012010": 976,
  "ming": 977,
  "\u0120He": 978,
  "ople": 979,
  "row": 980,
  "\u0120any": 981,
  "\u0120mult": 982,
  "io": 983,
  "\u0120variable": 984,
  "\u00e0\u00a4": 985,
  "ify": 986,
  "\u0120web": 987,
  "ting": 988,
  "\u0120her": 989,
  "\u0120giv": 990,
  "\u0120sub": 991,
  "'re": 992,
  "ber": 993,
  "\u0120result": 994,
  "\u0120pos": 995,
  "its": 996,
  "\u0120bec": 997,
  "ire": 998,
  "\u0120gre": 999,
  "ens": 1000,
  "ility": 1001,
  "ook": 1002,
  "\u0120sum": 1003,
  "orld": 1004,
  "ick": 1005,
  "\u0120An": 1006,
  "ular": 1007,
  "\u0120while": 1008,
  "\u0120get": 1009,
  "\u0120\"#": 1010,
  "ough": 1011,
  "oth": 1012,
  "\u0120been": 1013,
  "\u0120functions": 1014,
  "\u0120dep": 1015,
  "ization": 1016,
  "\u0120install": 1017,
  "owels": 1018,
  "\u0120had": 1019,
  "ew": 1020,
  "\u0120through": 1021,
  "instruction": 1022,
  "\u0120equ": 1023,
  "\u0120form": 1024,
  "\u0120const": 1025,
  "\u0120produ": 1026,
  "\u0120Create": 1027,
  "\u01208": 1028,
  "\u0120dist": 1029,
  "\u0120am": 1030,
  "\u0120includ": 1031,
  "\u0120good": 1032,
  "fore": 1033,
  "\u0120were": 1034,
  "\u0120people": 1035,
  "\u0120sm": 1036,
  "\u0120We": 1037,
  "\u0120provid": 1038,
  "ational": 1039,
  "'ll": 1040,
  "\u01207": 1041,
  "nce": 1042,
  "\u0120object": 1043,
  "\u0120appro": 1044,
  "\u0120numbers": 1045,
  "ves": 1046,
  "fter": 1047,
  "\u0120tech": 1048,
  "\u0120know": 1049,
  "\u0120rem": 1050,
  "ink": 1051,
  "\u0120count": 1052,
  "ibr": 1053,
  "\u0120par": 1054,
  "ress": 1055,
  "\u0120hand": 1056,
  "\u0120sec": 1057,
  "\u0120may": 1058,
  "\u0120opt": 1059,
  "\u0120then": 1060,
  "iple": 1061,
  "\u0120here": 1062,
  "\u0120sort": 1063,
  "inal": 1064,
  "lect": 1065,
  "\u0120she": 1066,
  "\u0120tak": 1067,
  "\u0120model": 1068,
  "\u0120ver": 1069,
  "\u0120lear": 1070,
  "ctions": 1071,
  "\u0120rel": 1072,
  "ced": 1073,
  "\u0120what": 1074,
  "aus": 1075,
  "\u0120main": 1076,
  "\u0120ra": 1077,
  "\u0120requ": 1078,
  "\u0120graph": 1079,
  "old": 1080,
  "\u0120key": 1081,
  "\u0120em": 1082,
  "ities": 1083,
  "ages": 1084,
  "\u0120see": 1085,
  "\u0120called": 1086,
  "\u0120ag": 1087,
  "hed": 1088,
  "\u0120cons": 1089,
  "ob": 1090,
  "ract": 1091,
  "\u0120string": 1092,
  "\u0120command": 1093,
  "dition": 1094,
  "\u0120programming": 1095,
  "ower": 1096,
  "ways": 1097,
  "cho": 1098,
  "urre": 1099,
  "ital": 1100,
  "`,": 1101,
  "iron": 1102,
  "\u0120name": 1103,
  "\u0120state": 1104,
  "\u0120loc": 1105,
  "ving": 1106,
  "\u0120Com": 1107,
  "pect": 1108,
  "\u0120expert": 1109,
  "\u0120inc": 1110,
  "ible": 1111,
  "ax": 1112,
  "hes": 1113,
  "\u0120trans": 1114,
  "\u0120anal": 1115,
  "rib": 1116,
  "\u0120direct": 1117,
  "op": 1118,
  "ix": 1119,
  "\u0120stand": 1120,
  "\u0120point": 1121,
  "\\\",": 1122,
  "uring": 1123,
  "day": 1124,
  "\u0120fl": 1125,
  "\u0120specific": 1126,
  "\u0120development": 1127,
  "viron": 1128,
  "yn": 1129,
  "Tell": 1130,
  "\u0120play": 1131,
  "\u0120our": 1132,
  "\u0120libr": 1133,
  "\u0120ass": 1134,
  "ser": 1135,
  "\u0120integ": 1136,
  "\u0120mod": 1137,
  "\u0120values": 1138,
  "(\\\"": 1139,
  "ience": 1140,
  "ider": 1141,
  "\u0120exp": 1142,
  "`.": 1143,
  "\u0120dec": 1144,
  "\u0120line": 1145,
  "alle": 1146,
  "erson": 1147,
  "document": 1148,
  "\u0120given": 1149,
  "ose": 1150,
  "\u0120calcul": 1151,
  "\u0120inv": 1152,
  "\u0120fact": 1153,
  "\u0120reg": 1154,
  "\u0120programmer": 1155,
  "als": 1156,
  "vel": 1157,
  "\u0120att": 1158,
  "ved": 1159,
  "ential": 1160,
  "standing": 1161,
  "\u0120represent": 1162,
  "\u0120many": 1163,
  "\u0120###": 1164,
  "tal": 1165,
  "documented": 1166,
  "\u0120act": 1167,
  "\u0120They": 1168,
  "pes": 1169,
  "ash": 1170,
  "vironment": 1171,
  "\u0120sa": 1172,
  "fra": 1173,
  "\u0120min": 1174,
  "\u0120year": 1175,
  "\u0120ind": 1176,
  "\u0120bet": 1177,
  "ten": 1178,
  "\u0120just": 1179,
  "\u0120det": 1180,
  "\u0120elements": 1181,
  "wn": 1182,
  "ited": 1183,
  "\u0120back": 1184,
  "\u0120gener": 1185,
  "('": 1186,
  "inue": 1187,
  "\u0120total": 1188,
  "iew": 1189,
  "etwork": 1190,
  "\u01209": 1191,
  "ug": 1192,
  "\u0120better": 1193,
  "\u0120most": 1194,
  "\u0120vowels": 1195,
  "tt": 1196,
  "\u0120De": 1197,
  "..": 1198,
  "\u0120Ad": 1199,
  "ute": 1200,
  "port": 1201,
  "\u0120structure": 1202,
  "\u0120environment": 1203,
  "\u0120right": 1204,
  "\u0120complex": 1205,
  "\u0120dat": 1206,
  "pro": 1207,
  "ines": 1208,
  "}{": 1209,
  "structions": 1210,
  "\u0120simple": 1211,
  "Cont": 1212,
  "\u0120pub": 1213,
  "\u0120exec": 1214,
  "\u0120char": 1215,
  "ident": 1216,
  "\u0120should": 1217,
  "\u0120type": 1218,
  "\u0120If": 1219,
  "\u0120way": 1220,
  "\u0120vis": 1221,
  "lock": 1222,
  "olog": 1223,
  "angu": 1224,
  "\u0120Now": 1225,
  "',": 1226,
  "\u0120could": 1227,
  "air": 1228,
  "\u0120ins": 1229,
  "icient": 1230,
  "\u0120design": 1231,
  "\u0120sol": 1232,
  "\u0120Solution": 1233,
  "\u0120allows": 1234,
  "ood": 1235,
  "\u0120term": 1236,
  "hip": 1237,
  "ince": 1238,
  "\u0120cap": 1239,
  "ols": 1240,
  "ords": 1241,
  "frac": 1242,
  "\u0120stud": 1243,
  "\u0120div": 1244,
  "\u0120test": 1245,
  "mat": 1246,
  "\u0120end": 1247,
  "other": 1248,
  "\u0120only": 1249,
  "\u0120element": 1250,
  "\u0120access": 1251,
  "ious": 1252,
  "err": 1253,
  "\u0120types": 1254,
  "sing": 1255,
  "ased": 1256,
  "self": 1257,
  "\u0120sign": 1258,
  "\u0120search": 1259,
  "\u0120grou": 1260,
  "inc": 1261,
  "\u0120Al": 1262,
  "ency": 1263,
  "riend": 1264,
  "Script": 1265,
  "\u0120input": 1266,
  "\u0120memory": 1267,
  "ator": 1268,
  "formation": 1269,
  "\u0120feat": 1270,
  "ause": 1271,
  "ield": 1272,
  "com": 1273,
  "ask": 1274,
  "\u0120standard": 1275,
  "nces": 1276,
  "\u0120Pro": 1277,
  "gan": 1278,
  "\u0120feel": 1279,
  "nder": 1280,
  "\u0120supp": 1281,
  "\u0120lar": 1282,
  "\u0120always": 1283,
  "\u0120Im": 1284,
  "ward": 1285,
  "pr": 1286,
  "hen": 1287,
  "app": 1288,
  "ier": 1289,
  "imes": 1290,
  "10": 1291,
  "\u0120che": 1292,
  "\u0120both": 1293,
  "\u0120include": 1294,
  "\u0120Se": 1295,
  "\u0120even": 1296,
  "\u0120build": 1297,
  "ern": 1298,
  "\u0120no": 1299,
  "land": 1300,
  "\u0120want": 1301,
  "ton": 1302,
  "\u0120There": 1303,
  "\u0120common": 1304,
  "\u0120fil": 1305,
  "\u0120Y": 1306,
  "Continue": 1307,
  "urrent": 1308,
  "\u0120writ": 1309,
  "\u0120after": 1310,
  "niqu": 1311,
  "\u0120invol": 1312,
  "val": 1313,
  "\u0120depend": 1314,
  "ctor": 1315,
  "\u0120bus": 1316,
  "\u0120application": 1317,
  "\u0120takes": 1318,
  "ized": 1319,
  "ric": 1320,
  "\u0120langu": 1321,
  "\u0120optim": 1322,
  "ined": 1323,
  "ision": 1324,
  "\u0120based": 1325,
  "js": 1326,
  "\u0120aut": 1327,
  "\u0120Un": 1328,
  "\u0120computer": 1329,
  "\u0120doing": 1330,
  "\\\\_": 1331,
  "\u0120network": 1332,
  "\u0120techniqu": 1333,
  "\u0120sy": 1334,
  "\u0120ent": 1335,
  "\u0120including": 1336,
  "\u0120Con": 1337,
  "\u0120contain": 1338,
  "ied": 1339,
  "\u0120compon": 1340,
  "++": 1341,
  "ets": 1342,
  "\u0120pat": 1343,
  "\u0120convers": 1344,
  "uc": 1345,
  "ife": 1346,
  "\u0120down": 1347,
  "\u0120As": 1348,
  "\u0120resp": 1349,
  "\u0120high": 1350,
  "\u0120disc": 1351,
  "ily": 1352,
  "\u0120These": 1353,
  "\u0120user": 1354,
  "gest": 1355,
  "20": 1356,
  "\u0120same": 1357,
  "ars": 1358,
  "\u0120three": 1359,
  ".\\\"": 1360,
  "\u0120read": 1361,
  "\u0120small": 1362,
  "\u0120open": 1363,
  "')": 1364,
  "\u012018": 1365,
  "::": 1366,
  "\u0120inde": 1367,
  "\u0120provides": 1368,
  "000": 1369,
  "way": 1370,
  "\u0120el": 1371,
  "ral": 1372,
  "\u0120commun": 1373,
  "\u0120ref": 1374,
  "ello": 1375,
  "rol": 1376,
  "ement": 1377,
  "\u0120space": 1378,
  "\u0120approach": 1379,
  "\u0120pop": 1380,
  "\u0120concept": 1381,
  "\u0120hash": 1382,
  "name": 1383,
  "\u0120information": 1384,
  "to": 1385,
  "ustom": 1386,
  "\u0120learning": 1387,
  "\u0120199": 1388,
  "ins": 1389,
  "\u0120Ar": 1390,
  "\u0120every": 1391,
  "ale": 1392,
  "\u0120friend": 1393,
  "cial": 1394,
  "\u0120important": 1395,
  "\u0120expres": 1396,
  "\u0120ph": 1397,
  "\u0120manag": 1398,
  "ames": 1399,
  "\u0120str": 1400,
  "\u0120world": 1401,
  "ext": 1402,
  "chool": 1403,
  "ever": 1404,
  "\u0120ac": 1405,
  "\u0120Let": 1406,
  "'\",": 1407,
  "\u0120Instructions": 1408,
  "ability": 1409,
  "\u0120Inst": 1410,
  "\u0120power": 1411,
  "\u0120algorithms": 1412,
  "italize": 1413,
  "\u0120public": 1414,
  "\u0120//": 1415,
  "ex": 1416,
  "\u0120bo": 1417,
  "\u0120&": 1418,
  "my": 1419,
  "aw": 1420,
  "nect": 1421,
  "\u0120$\\\\": 1422,
  "\u0120loo": 1423,
  "\u0120Under": 1424,
  "\u0120pass": 1425,
  "ling": 1426,
  "\u0120library": 1427,
  "rix": 1428,
  "\u0120Sc": 1429,
  "data": 1430,
  "Can": 1431,
  "\u0120won": 1432,
  "\u0120eas": 1433,
  "\u0120arg": 1434,
  "uch": 1435,
  "\u0120JavaScript": 1436,
  "ron": 1437,
  "\u0120efficient": 1438,
  "\u0120works": 1439,
  "\u0120call": 1440,
  "ngth": 1441,
  "vice": 1442,
  "\u0120X": 1443,
  "ran": 1444,
  "\u0120So": 1445,
  "\u0120sing": 1446,
  "\u0120impro": 1447,
  "$.": 1448,
  "cd": 1449,
  "ner": 1450,
  "\u0120applications": 1451,
  "\u0120condition": 1452,
  "\u0120game": 1453,
  "\u0120today": 1454,
  "\u0120New": 1455,
  "\u0120charact": 1456,
  "\u0120found": 1457,
  "\u0120long": 1458,
  "\u0120now": 1459,
  "\u0120real": 1460,
  "\u0120being": 1461,
  "$,": 1462,
  "\u0120err": 1463,
  "----": 1464,
  "\u0120performance": 1465,
  "any": 1466,
  "\u0120bre": 1467,
  "\u0120ve": 1468,
  "\u0120happ": 1469,
  "\u0120conf": 1470,
  "\u0120product": 1471,
  "__": 1472,
  "\u0120person": 1473,
  "\u0120mean": 1474,
  "\u0120provide": 1475,
  "meric": 1476,
  ":\",": 1477,
  "ery": 1478,
  "\u0120block": 1479,
  "py": 1480,
  "\u0120table": 1481,
  "\u0120ext": 1482,
  "))": 1483,
  "\u0120store": 1484,
  "alk": 1485,
  "\u0120language": 1486,
  "\u0120made": 1487,
  "\u012012": 1488,
  "\u0120second": 1489,
  "verse": 1490,
  "\u0120:": 1491,
  "veral": 1492,
  "\u0120mess": 1493,
  "ysis": 1494,
  "ining": 1495,
  "ually": 1496,
  "ulation": 1497,
  "\u0120ident": 1498,
  "ross": 1499,
  "time": 1500,
  "\u0120variables": 1501,
  "\u0120write": 1502,
  "\u0120support": 1503,
  "ts": 1504,
  "**": 1505,
  "\u0120Explain": 1506,
  "\u0120own": 1507,
  "ware": 1508,
  "ferences": 1509,
  "\u0120conversation": 1510,
  "\u0120lead": 1511,
  "ock": 1512,
  "\u0120ens": 1513,
  "\u0120creating": 1514,
  "ared": 1515,
  "\u0120ans": 1516,
  "\u0120several": 1517,
  "\u0120propert": 1518,
  "()`": 1519,
  "\u0120Understanding": 1520,
  "ember": 1521,
  "ness": 1522,
  "\u0120cost": 1523,
  "rue": 1524,
  "lis": 1525,
  "\u0120conc": 1526,
  "oy": 1527,
  "oint": 1528,
  "oh": 1529,
  "\u0120sur": 1530,
  "con": 1531,
  "\u0120som": 1532,
  "\u0120partic": 1533,
  "izing": 1534,
  "\u0120because": 1535,
  "\u0120pack": 1536,
  "vent": 1537,
  "ases": 1538,
  "\u0120orig": 1539,
  "ven": 1540,
  "ication": 1541,
  "\u0120Americ": 1542,
  "itive": 1543,
  "\u0120enc": 1544,
  "\u0120before": 1545,
  "ired": 1546,
  "\u0120201": 1547,
  "\u0120methods": 1548,
  "\u0120various": 1549,
  "\u0120est": 1550,
  "\u0120analysis": 1551,
  "\u0120range": 1552,
  "\u0120tre": 1553,
  "itial": 1554,
  "ertain": 1555,
  "\u0120custom": 1556,
  "\u0120med": 1557,
  "\u0120basic": 1558,
  "\u0120again": 1559,
  "\u0120operations": 1560,
  "\u0120take": 1561,
  "\u0120multiple": 1562,
  "ict": 1563,
  "\u0120Q": 1564,
  "line": 1565,
  "\u0120gu": 1566,
  "St": 1567,
  "\u0120pres": 1568,
  "derful": 1569,
  "\u0120does": 1570,
  "\u0120solution": 1571,
  "\u0120show": 1572,
  "\u0120implementation": 1573,
  "aries": 1574,
  "^{": 1575,
  "\u0120understand": 1576,
  "\u0120things": 1577,
  "atic": 1578,
  "\u0120Data": 1579,
  "load": 1580,
  "\\\")": 1581,
  "\u0120By": 1582,
  "Hello": 1583,
  "\u0120cent": 1584,
  "ene": 1585,
  "\u0120node": 1586,
  "\u0120years": 1587,
  "\u0120altern": 1588,
  "sions": 1589,
  "ality": 1590,
  "\u0120princ": 1591,
  "\u0120z": 1592,
  "\u0120left": 1593,
  "tle": 1594,
  "\u0120quest": 1595,
  "\u0120HT": 1596,
  "low": 1597,
  "\u0120effect": 1598,
  "be": 1599,
  "\u0120current": 1600,
  "\u0120reasoning": 1601,
  "inary": 1602,
  "orn": 1603,
  "\u0120log": 1604,
  "ything": 1605,
  "\u0120too": 1606,
  "\u0120num": 1607,
  "oid": 1608,
  "\u0120control": 1609,
  "\u0120great": 1610,
  "\u0120$$": 1611,
  "urs": 1612,
  "\u0120av": 1613,
  "\u0120structures": 1614,
  "\u0120exper": 1615,
  ".,": 1616,
  "ull": 1617,
  "\u0120care": 1618,
  "orth": 1619,
  "50": 1620,
  "\u0120redu": 1621,
  "ters": 1622,
  "\u0120squ": 1623,
  "\u0120arr": 1624,
  "\u0120%": 1625,
  "\u0120colle": 1626,
  "ges": 1627,
  "amed": 1628,
  "odes": 1629,
  "\u0120though": 1630,
  "oun": 1631,
  "ists": 1632,
  "\u0120car": 1633,
  "\u0120.": 1634,
  "\u0120Sh": 1635,
  "tain": 1636,
  "\u0120within": 1637,
  "\u0120connect": 1638,
  "cessary": 1639,
  "\u0120another": 1640,
  "ilt": 1641,
  "asks": 1642,
  "\u0120She": 1643,
  "utes": 1644,
  "\u0120When": 1645,
  "ML": 1646,
  "az": 1647,
  "\u0120beh": 1648,
  "\u0120making": 1649,
  "\u0120chang": 1650,
  "iment": 1651,
  "\u0120mon": 1652,
  "\u0120consider": 1653,
  "par": 1654,
  "ology": 1655,
  "\u0120And": 1656,
  "\u0120incre": 1657,
  "rid": 1658,
  "\u0120toget": 1659,
  "\u0120together": 1660,
  "\u0120don": 1661,
  "\u0120webs": 1662,
  "ave": 1663,
  "\u0120mo": 1664,
  "\u0120comb": 1665,
  "\u0120However": 1666,
  "ives": 1667,
  "\u0120path": 1668,
  "\u0120clo": 1669,
  "\u0120without": 1670,
  "\u0120answer": 1671,
  "\u0120principle": 1672,
  "\u0120poss": 1673,
  "\u0120prom": 1674,
  "\u0120alternative": 1675,
  "by": 1676,
  "\u0120gl": 1677,
  "\u0120datab": 1678,
  "ior": 1679,
  "que": 1680,
  "til": 1681,
  "\u0120life": 1682,
  "iting": 1683,
  "kes": 1684,
  "\u0120known": 1685,
  "\u0120pri": 1686,
  "\u0120Int": 1687,
  "\u0120art": 1688,
  "\u0120means": 1689,
  "\u0120single": 1690,
  "\u0120check": 1691,
  "arget": 1692,
  "we": 1693,
  "\u0120techniques": 1694,
  "\u0120educ": 1695,
  "//": 1696,
  "ething": 1697,
  "What": 1698,
  "oci": 1699,
  "ody": 1700,
  "\u0120large": 1701,
  "'ve": 1702,
  "vices": 1703,
  "ae": 1704,
  "\u0120going": 1705,
  "\u0120sk": 1706,
  "oad": 1707,
  "\u0120think": 1708,
  "\u0120One": 1709,
  "\u0120define": 1710,
  "\u0120during": 1711,
  "ging": 1712,
  "\u0120explo": 1713,
  "\u0120Set": 1714,
  "`:": 1715,
  "\u0120tasks": 1716,
  "\u0120manip": 1717,
  "alth": 1718,
  "aving": 1719,
  "\u0120him": 1720,
  "\u0120organ": 1721,
  "loy": 1722,
  "\u0120thread": 1723,
  "text": 1724,
  "://": 1725,
  "\u0120group": 1726,
  ")\",": 1727,
  "\u0120directory": 1728,
  "rypt": 1729,
  "\u0120met": 1730,
  "\u0120sequ": 1731,
  "\u0120science": 1732,
  "\u0120addition": 1733,
  "ather": 1734,
  "arr": 1735,
  "\u0120fin": 1736,
  "\u0120rele": 1737,
  "\u0120tree": 1738,
  "\u012030": 1739,
  "ank": 1740,
  "\u0120```\",": 1741,
  "\u0120features": 1742,
  "sh": 1743,
  "\u0120word": 1744,
  "log": 1745,
  "\u0120fam": 1746,
  "ternal": 1747,
  "\u0120around": 1748,
  "\u0120case": 1749,
  "\u0120order": 1750,
  "irc": 1751,
  "PI": 1752,
  "\u0120ess": 1753,
  "\u0120much": 1754,
  "\u0120sug": 1755,
  "\u0120systems": 1756,
  "\u0120uses": 1757,
  "\u0120>": 1758,
  "ccess": 1759,
  "\u0120**": 1760,
  "\u0120size": 1761,
  "\u0120colum": 1762,
  "\u0120necessary": 1763,
  "amp": 1764,
  "\u0120Pl": 1765,
  "\u0120198": 1766,
  "sc": 1767,
  "\\\".": 1768,
  "\u0120References": 1769,
  "face": 1770,
  "\u0120really": 1771,
  "ism": 1772,
  "\u0120<<": 1773,
  "\u0120hour": 1774,
  "\u0120Use": 1775,
  "rodu": 1776,
  "\u0120constant": 1777,
  "\u0120website": 1778,
  "\u0120ru": 1779,
  "\u0120bl": 1780,
  "\u0120returns": 1781,
  "xim": 1782,
  "\u0120eng": 1783,
  "outh": 1784,
  "\u0120something": 1785,
  "ats": 1786,
  "\u0120try": 1787,
  "\u0120sorted": 1788,
  "\u0120\"```": 1789,
  "\u0120Cl": 1790,
  "\u0120initial": 1791,
  "yz": 1792,
  "\u0120team": 1793,
  "uments": 1794,
  "orning": 1795,
  "\u0120Install": 1796,
  "\u0120mus": 1797,
  "ote": 1798,
  "\u0120remain": 1799,
  "\u0120say": 1800,
  "\u0120area": 1801,
  "ource": 1802,
  "lish": 1803,
  "\u012015": 1804,
  "ger": 1805,
  "ted": 1806,
  "bo": 1807,
  "\u0120pract": 1808,
  "ah": 1809,
  "ots": 1810,
  "\u0120calculate": 1811,
  "\u0120server": 1812,
  "\u0120points": 1813,
  "\u0120select": 1814,
  "\u0120section": 1815,
  "less": 1816,
  "gin": 1817,
  "\u0120stre": 1818,
  "\u0120steps": 1819,
  "ouse": 1820,
  "ead": 1821,
  "\u0120occ": 1822,
  "\u0120improve": 1823,
  "enc": 1824,
  "\u0120scri": 1825,
  "\u0120involves": 1826,
  "\u0120Can": 1827,
  "right": 1828,
  "\u0120script": 1829,
  "ivid": 1830,
  "\u0120message": 1831,
  "rame": 1832,
  "\u0120writing": 1833,
  "\u0120objects": 1834,
  "hemat": 1835,
  "\u0120output": 1836,
  "ml": 1837,
  "aut": 1838,
  "oring": 1839,
  "ources": 1840,
  "\u0120principles": 1841,
  "\u0120tri": 1842,
  "fact": 1843,
  "\u0120break": 1844,
  "\u0120American": 1845,
  "\u0120target": 1846,
  "the": 1847,
  "\u0120adv": 1848,
  "\u0120next": 1849,
  "ek": 1850,
  "uted": 1851,
  "icial": 1852,
  "\u0120until": 1853,
  "ane": 1854,
  "play": 1855,
  "\u0120series": 1856,
  "view": 1857,
  "\u0120ide": 1858,
  "],": 1859,
  "\u0120matrix": 1860,
  "ey": 1861,
  "\u0120consist": 1862,
  "avas": 1863,
  "ird": 1864,
  "\u0120field": 1865,
  "\u0120mis": 1866,
  "\u0120tem": 1867,
  "\u0120amount": 1868,
  "iness": 1869,
  "\u0120gra": 1870,
  "ope": 1871,
  "avascript": 1872,
  "\u0120did": 1873,
  "\u0120uni": 1874,
  "\u0120inf": 1875,
  "\u0120request": 1876,
  "\u0120else": 1877,
  "man": 1878,
  "\u0120Cons": 1879,
  "\u0120Is": 1880,
  "\u0120often": 1881,
  "aces": 1882,
  "ren": 1883,
  "ule": 1884,
  "12": 1885,
  "ense": 1886,
  "\u0120Once": 1887,
  "\u0120100": 1888,
  "\u0120Sp": 1889,
  "set": 1890,
  "amb": 1891,
  "\u0120determ": 1892,
  "\u0120suggest": 1893,
  "\u0120Fl": 1894,
  "\u0120certain": 1895,
  "onest": 1896,
  "\u0120role": 1897,
  "\u0120pot": 1898,
  "inks": 1899,
  "\u0120tools": 1900,
  "\u0120United": 1901,
  "alled": 1902,
  "math": 1903,
  "\u0120deb": 1904,
  "oin": 1905,
  "\u0120Col": 1906,
  "\u0120best": 1907,
  "Th": 1908,
  "\u0120distrib": 1909,
  "sole": 1910,
  "\u0120mach": 1911,
  "\u0120built": 1912,
  "ails": 1913,
  "\u0120rece": 1914,
  "gy": 1915,
  "erest": 1916,
  "\u0120essential": 1917,
  "ively": 1918,
  "ered": 1919,
  "\u0120solve": 1920,
  "\u0120components": 1921,
  "ohn": 1922,
  "\u00e0\u00a5": 1923,
  "\u0120database": 1924,
  "\u0120named": 1925,
  "\u0120Comm": 1926,
  "ament": 1927,
  "\u0120event": 1928,
  "\u0120Eng": 1929,
  "\u0120self": 1930,
  "ann": 1931,
  "dio": 1932,
  "ints": 1933,
  "\u0120Open": 1934,
  "\u0120offer": 1935,
  "search": 1936,
  "ety": 1937,
  "Here": 1938,
  "=\\\"": 1939,
  "\u0120morning": 1940,
  "\u0120popular": 1941,
  "lying": 1942,
  "\u0120\u00e0\u00a4": 1943,
  "add": 1944,
  "\u0120index": 1945,
  "pos": 1946,
  "au": 1947,
  "\u0120mark": 1948,
  "\u0120love": 1949,
  "\u0120times": 1950,
  "\u0120those": 1951,
  "word": 1952,
  "\u0120makes": 1953,
  "ocus": 1954,
  "istory": 1955,
  "\u0120mar": 1956,
  "\u0120problems": 1957,
  "\u0120original": 1958,
  "ici": 1959,
  "ty": 1960,
  "\u0120film": 1961,
  "\u0120talk": 1962,
  "19": 1963,
  "\u0120relations": 1964,
  "ade": 1965,
  "over": 1966,
  "entiment": 1967,
  "\u0120represents": 1968,
  "\u0120local": 1969,
  "ified": 1970,
  "li": 1971,
  "\u0120head": 1972,
  "di": 1973,
  "In": 1974,
  "\u0120running": 1975,
  "\u0120multi": 1976,
  "\u0120prot": 1977,
  "\u0120pol": 1978,
  "asure": 1979,
  "\u0120child": 1980,
  "cing": 1981,
  "}$": 1982,
  "\u0120Z": 1983,
  "\u0120Node": 1984,
  "\u0120prof": 1985,
  "\u0120React": 1986,
  "\u0120soft": 1987,
  "\u0120water": 1988,
  "\u0120flow": 1989,
  "ape": 1990,
  "\u0120wonderful": 1991,
  "let": 1992,
  "\u0120never": 1993,
  "\u0120lim": 1994,
  "\u0120building": 1995,
  "\u0120API": 1996,
  "\u0120age": 1997,
  "\u0120working": 1998,
  "\u0120Wh": 1999,
  "plit": 2000,
  "\u0120nodes": 2001,
  "\u012025": 2002,
  "\u0120binary": 2003,
  "\u0120np": 2004,
  "\u0120factors": 2005,
  "\u0120happy": 2006,
  "\u0120properties": 2007,
  "\u0120thanks": 2008,
  "\u0120iss": 2009,
  "\u0120explore": 2010,
  "\u0120files": 2011,
  "rict": 2012,
  "\u0120Le": 2013,
  "QL": 2014,
  "inu": 2015,
  "\u0120197": 2016,
  "\u0120character": 2017,
  "\u0120synt": 2018,
  "ators": 2019,
  "_{": 2020,
  "\u012016": 2021,
  "\u0120individ": 2022,
  "\u0120since": 2023,
  "\u0120gcd": 2024,
  "\u0120version": 2025,
  "\u0120feeling": 2026,
  "igure": 2027,
  "\u0120That": 2028,
  "\u0120row": 2029,
  "\u0120complexity": 2030,
  "htt": 2031,
  "\u0120Implement": 2032,
  "\u0120cho": 2033,
  "\u0120installed": 2034,
  "javascript": 2035,
  "ences": 2036,
  "\u0120possible": 2037,
  "\u0120datas": 2038,
  "\u0120wide": 2039,
  "atch": 2040,
  "\u0120short": 2041,
  "\u0120Creating": 2042,
  "\u0120factor": 2043,
  "\u0120Cal": 2044,
  "itor": 2045,
  "ems": 2046,
  "\u0120capitalize": 2047,
  "\u0120focus": 2048,
  "\u0120==": 2049,
  "urn": 2050,
  "\u0120Using": 2051,
  "\u0120non": 2052,
  "\u0120techn": 2053,
  "itle": 2054,
  "ants": 2055,
  "\u0120chat": 2056,
  "\u0120signific": 2057,
  "How": 2058,
  "\u0120HTML": 2059,
  "\u0120busy": 2060,
  "ball": 2061,
  "\u0120boo": 2062,
  "\u0120fund": 2063,
  "\u0120lit": 2064,
  "\u0120relationship": 2065,
  "\u0120learn": 2066,
  "gle": 2067,
  "ature": 2068,
  "\u0120change": 2069,
  "\u0120four": 2070,
  "\u0120interest": 2071,
  "\u0120pair": 2072,
  "\u0120ever": 2073,
  "\u0120My": 2074,
  "\u0120wa": 2075,
  "bum": 2076,
  "ional": 2077,
  "\u0120But": 2078,
  "\u0120mathemat": 2079,
  "\u0120lay": 2080,
  "\u0120estab": 2081,
  "verage": 2082,
  "\u0120might": 2083,
  "head": 2084,
  "ides": 2085,
  "\u0120usage": 2086,
  "\u0120position": 2087,
  "\u0120Some": 2088,
  "IO": 2089,
  "\u0120individual": 2090,
  "sed": 2091,
  "ym": 2092,
  "\u0120level": 2093,
  "\u0120paralle": 2094,
  "\u0120useful": 2095,
  "rie": 2096,
  "\u0120linear": 2097,
  "cture": 2098,
  "anced": 2099,
  "\u0120dra": 2100,
  "rand": 2101,
  "ograph": 2102,
  "lished": 2103,
  "\u0120must": 2104,
  "\u0120constra": 2105,
  "\u0120mid": 2106,
  "ently": 2107,
  "ches": 2108,
  "alse": 2109,
  "eting": 2110,
  "\u0120cru": 2111,
  "ynam": 2112,
  "\u0120On": 2113,
  "sentiment": 2114,
  "\u0120less": 2115,
  "\u0120understanding": 2116,
  "\u0120move": 2117,
  "\u0120CS": 2118,
  "\u0120Out": 2119,
  "andas": 2120,
  "ww": 2121,
  "\u0120adj": 2122,
  "To": 2123,
  "back": 2124,
  "\u0120classes": 2125,
  "\u0120prob": 2126,
  "\u0120syntax": 2127,
  "\u0120En": 2128,
  "\u0120grow": 2129,
  "por": 2130,
  "\u0120sw": 2131,
  "\u0120Consider": 2132,
  "\u0120console": 2133,
  "\u0120content": 2134,
  "\u0120document": 2135,
  "\u0120links": 2136,
  "\u0120length": 2137,
  "\u0120analyz": 2138,
  "\u0120honest": 2139,
  "string": 2140,
  "\u0120Gre": 2141,
  "for": 2142,
  "\u0120libraries": 2143,
  "gs": 2144,
  "\u0120Ind": 2145,
  "\u0120visual": 2146,
  "\u0120educational": 2147,
  "\u0120story": 2148,
  "ocial": 2149,
  "versity": 2150,
  "\u0120error": 2151,
  "unction": 2152,
  "\u0120pur": 2153,
  "\u0120reverse": 2154,
  "\u0120results": 2155,
  "PU": 2156,
  "\u0120designed": 2157,
  "\u0120said": 2158,
  "indow": 2159,
  "gre": 2160,
  "ilar": 2161,
  "round": 2162,
  "\u0120glad": 2163,
  "\u0120success": 2164,
  "onse": 2165,
  "\u0120still": 2166,
  "\u0120ensure": 2167,
  "\u0120machine": 2168,
  "\u0120handle": 2169,
  "\u0120powerful": 2170,
  "\u0120equation": 2171,
  "\u0120health": 2172,
  "vious": 2173,
  "ering": 2174,
  "\u0120conver": 2175,
  "\u0120upd": 2176,
  "\u0120keep": 2177,
  "amet": 2178,
  "\u0120top": 2179,
  "\u0120potential": 2180,
  "\u0120World": 2181,
  "\u0120school": 2182,
  "ived": 2183,
  "\u0120sequence": 2184,
  "\u0120along": 2185,
  "\u0120Count": 2186,
  "ture": 2187,
  "ration": 2188,
  "\u0120bro": 2189,
  "ights": 2190,
  "\u0120States": 2191,
  "\u0120Add": 2192,
  "aring": 2193,
  "\u0120got": 2194,
  "\u0120software": 2195,
  "\u0120sound": 2196,
  "\u0120hum": 2197,
  "\u0120tell": 2198,
  "\u0120identify": 2199,
  "\u0120ear": 2200,
  "\u0120view": 2201,
  "\u0120days": 2202,
  "\u0120component": 2203,
  "\u0120--": 2204,
  "\u0120students": 2205,
  "tml": 2206,
  "hor": 2207,
  "pend": 2208,
  "\u0120processing": 2209,
  "\u0120square": 2210,
  "':": 2211,
  "words": 2212,
  "ero": 2213,
  "ury": 2214,
  "\u0120respons": 2215,
  "me": 2216,
  "\u0120official": 2217,
  "lie": 2218,
  "\u0120Ser": 2219,
  "point": 2220,
  "\u0120Stu": 2221,
  "\u0120First": 2222,
  "not": 2223,
  "avig": 2224,
  "arent": 2225,
  "ploy": 2226,
  "\u0120rest": 2227,
  "\u0120ple": 2228,
  "}\\\\": 2229,
  "\u0120At": 2230,
  "\u0120helps": 2231,
  "\u0120sym": 2232,
  "</": 2233,
  "\u0120management": 2234,
  "\u0120lot": 2235,
  "\u0120After": 2236,
  "ener": 2237,
  "\u0120side": 2238,
  "\u0120depending": 2239,
  "\u0120Read": 2240,
  "\u0120dem": 2241,
  "ories": 2242,
  "\u0120package": 2243,
  "\u0120company": 2244,
  "\u0120place": 2245,
  "\u0120arch": 2246,
  "\u0120App": 2247,
  "\u0120true": 2248,
  "oose": 2249,
  "\u0120bene": 2250,
  "ov": 2251,
  "chie": 2252,
  "iate": 2253,
  "\u0120image": 2254,
  "ention": 2255,
  "\u0120Since": 2256,
  "\u0120album": 2257,
  "\u012011": 2258,
  "\u0120distance": 2259,
  "ilities": 2260,
  "\u0120behav": 2261,
  "anks": 2262,
  "())": 2263,
  "\u0120Uni": 2264,
  "llo": 2265,
  "\u0120statement": 2266,
  "\u0120business": 2267,
  "\u0120last": 2268,
  "\u0120significant": 2269,
  "\u0120positive": 2270,
  "\u0120Pr": 2271,
  "\u0120cour": 2272,
  "AE": 2273,
  "\u0120iter": 2274,
  "ivity": 2275,
  "\u0120address": 2276,
  "\u0120tool": 2277,
  "\u0120lab": 2278,
  "ush": 2279,
  "\u0120home": 2280,
  "\u0120plan": 2281,
  "\u0120hig": 2282,
  "\u0120crucial": 2283,
  "\u0120look": 2284,
  "sq": 2285,
  "part": 2286,
  "\u0120Des": 2287,
  "\u0120hold": 2288,
  "ouble": 2289,
  "\u0120color": 2290,
  "requ": 2291,
  "cap": 2292,
  "yle": 2293,
  "encies": 2294,
  ")$": 2295,
  "clude": 2296,
  "ination": 2297,
  "\u0120hours": 2298,
  "\u0120constraints": 2299,
  "numb": 2300,
  "\u0120decl": 2301,
  "\u0120minim": 2302,
  "new": 2303,
  "\u0120School": 2304,
  "\u0120station": 2305,
  "\u0120avail": 2306,
  "\u012014": 2307,
  "\u0120similar": 2308,
  "\u0120maintain": 2309,
  "ynamic": 2310,
  "\u0120196": 2311,
  "tra": 2312,
  "\u0120integers": 2313,
  "\u0120letter": 2314,
  "\u0120impact": 2315,
  "\u0120assist": 2316,
  "DE": 2317,
  "\u0120Your": 2318,
  "Just": 2319,
  "cel": 2320,
  "\u0120With": 2321,
  "\u0120pattern": 2322,
  "\u0120later": 2323,
  "\u0120assign": 2324,
  "min": 2325,
  "'d": 2326,
  "ken": 2327,
  "\u0120special": 2328,
  "\u0120family": 2329,
  "\u0120Car": 2330,
  "ma": 2331,
  "ta": 2332,
  "\u0120mind": 2333,
  "\u0120terms": 2334,
  "\u0120very": 2335,
  "plic": 2336,
  "\u0120den": 2337,
  "iou": 2338,
  "inally": 2339,
  "\u0120equal": 2340,
  "of": 2341,
  "uss": 2342,
  "file": 2343,
  "\u0120words": 2344,
  "\u0120External": 2345,
  "\u0120interface": 2346,
  "\u0120changes": 2347,
  "\u0120brow": 2348,
  "\u0120benef": 2349,
  "bers": 2350,
  "ries": 2351,
  "\u0120cur": 2352,
  "lex": 2353,
  "\u0120flo": 2354,
  "\u0120require": 2355,
  "\u0120give": 2356,
  "ulate": 2357,
  "\u0120\\\\(": 2358,
  "ream": 2359,
  "\u0120Man": 2360,
  "])": 2361,
  "\u0120question": 2362,
  "\u0120root": 2363,
  "\u0120aw": 2364,
  "\u0120descri": 2365,
  "aeiou": 2366,
  "\u0120unique": 2367,
  "\u0120achie": 2368,
  "\u0120rout": 2369,
  "\u0120arguments": 2370,
  "bal": 2371,
  "\u0120challe": 2372,
  "vowels": 2373,
  "\u0120put": 2374,
  "\u0120Te": 2375,
  "based": 2376,
  "angle": 2377,
  "IOU": 2378,
  "\u0120std": 2379,
  "iving": 2380,
  "AEIOU": 2381,
  "aeiouAEIOU": 2382,
  "ression": 2383,
  "\u0120cr": 2384,
  "\u0120previous": 2385,
  "iss": 2386,
  "\u0120dig": 2387,
  "ances": 2388,
  "side": 2389,
  "left": 2390,
  "\u0120includes": 2391,
  "ither": 2392,
  "\u0120Rem": 2393,
  "wards": 2394,
  ">>": 2395,
  "\u0120hard": 2396,
  "ls": 2397,
  "25": 2398,
  "ends": 2399,
  "That": 2400,
  "...": 2401,
  "\u0120optimization": 2402,
  "\u0120->": 2403,
  "ynch": 2404,
  "co": 2405,
  "\u012050": 2406,
  "come": 2407,
  "str": 2408,
  "\u0120vert": 2409,
  "inter": 2410,
  "omet": 2411,
  "ik": 2412,
  "ording": 2413,
  "\u0120begin": 2414,
  "oot": 2415,
  "ference": 2416,
  "\u0120minutes": 2417,
  "\u0120light": 2418,
  "\u0120having": 2419,
  "\u0120Setting": 2420,
  "\u0120track": 2421,
  "\u0120collection": 2422,
  "\u0120Each": 2423,
  "\u0120sl": 2424,
  "\u0120Then": 2425,
  "oney": 2426,
  "\u0120Before": 2427,
  "\u0120dri": 2428,
  "ending": 2429,
  ",\\\"": 2430,
  "\u0120circ": 2431,
  "\u0120smaller": 2432,
  "\u0120loop": 2433,
  "();": 2434,
  "ledge": 2435,
  "\u0120exist": 2436,
  "\u0120few": 2437,
  "\u0120expression": 2438,
  "alf": 2439,
  "da": 2440,
  "\u0120Or": 2441,
  "\u0120due": 2442,
  "\u0120above": 2443,
  "oss": 2444,
  "\u0120present": 2445,
  "\u0120needed": 2446,
  "\u0120ener": 2447,
  "\u0120deal": 2448,
  "iles": 2449,
  "!\\\"": 2450,
  "\u0120Take": 2451,
  "ularly": 2452,
  "\u0120complete": 2453,
  "\u0120week": 2454,
  "ynchron": 2455,
  "Let": 2456,
  "org": 2457,
  "\u0120meaning": 2458,
  "\u0120Aust": 2459,
  "vest": 2460,
  "\u0120thought": 2461,
  "AT": 2462,
  "\u0120song": 2463,
  "\u0120anim": 2464,
  "\u0120module": 2465,
  "\u0120response": 2466,
  "ium": 2467,
  "\u0120sit": 2468,
  "\u0120sent": 2469,
  "dle": 2470,
  "\u0120started": 2471,
  "join": 2472,
  "\u0120social": 2473,
  "atform": 2474,
  "rec": 2475,
  "\u0120feature": 2476,
  "\u0120execution": 2477,
  "Hey": 2478,
  "\u0120models": 2479,
  "\u0120available": 2480,
  "\u0120dataset": 2481,
  "\u0120aff": 2482,
  "\u0120fore": 2483,
  "\u012013": 2484,
  "(\\\\": 2485,
  "plot": 2486,
  "\u0120mom": 2487,
  "\u0120red": 2488,
  "\u0120Ph": 2489,
  "cs": 2490,
  "\u0120research": 2491,
  "rt": 2492,
  "\u0120arrays": 2493,
  "upp": 2494,
  "\u0120city": 2495,
  "\u0120column": 2496,
  "\u0120maxim": 2497,
  "\u012040": 2498,
  "\u0120old": 2499,
  "med": 2500,
  "\u0120resources": 2501,
  "apt": 2502,
  "\u0120experience": 2503,
  "\u0120across": 2504,
  "key": 2505,
  "\u012017": 2506,
  "\u0120contains": 2507,
  "\u0120needs": 2508,
  "\u0120energy": 2509,
  "\u0120County": 2510,
  "ret": 2511,
  "\u0120parallel": 2512,
  "\u0120Output": 2513,
  "terns": 2514,
  "\u0120pie": 2515,
  "\u0120pred": 2516,
  "\u0120archite": 2517,
  "pping": 2518,
  "\u0120easier": 2519,
  "ards": 2520,
  "\u0120Comp": 2521,
  "oding": 2522,
  "\u0120debug": 2523,
  "\u0120stack": 2524,
  "\u0120navig": 2525,
  "Frame": 2526,
  "\u0120except": 2527,
  "\u0120paramet": 2528,
  "\u0120interact": 2529,
  "value": 2530,
  "sp": 2531,
  "fe": 2532,
  "\u0120autom": 2533,
  "ault": 2534,
  "\u0120York": 2535,
  "\u0120integer": 2536,
  "isp": 2537,
  "\u0120music": 2538,
  "\u0120strateg": 2539,
  "array": 2540,
  "\u0120University": 2541,
  "\u0120speed": 2542,
  "urity": 2543,
  "cal": 2544,
  "\u0120low": 2545,
  "40": 2546,
  "html": 2547,
  "\u0120errors": 2548,
  "\u0120box": 2549,
  "here": 2550,
  "mathb": 2551,
  "ided": 2552,
  "ango": 2553,
  "15": 2554,
  "\u0120fundament": 2555,
  "ills": 2556,
  "istic": 2557,
  "ised": 2558,
  "\u0120Rec": 2559,
  "https": 2560,
  "icro": 2561,
  "\u0120vector": 2562,
  "\u0120Brit": 2563,
  "\u0120concepts": 2564,
  "ged": 2565,
  "\u0120others": 2566,
  "\u0120separ": 2567,
  "\u0120priv": 2568,
  "\u0120Def": 2569,
  "ighb": 2570,
  "\u0120average": 2571,
  "uro": 2572,
  "\u0120manage": 2573,
  "\u0120elect": 2574,
  "\u0120Ge": 2575,
  "\u0120defined": 2576,
  "oon": 2577,
  "\u0120patterns": 2578,
  "**:": 2579,
  "\u0120bring": 2580,
  "\u0120Cont": 2581,
  "ables": 2582,
  "\u0120introdu": 2583,
  "\u0120terminal": 2584,
  "\u0120lists": 2585,
  "\u0120tru": 2586,
  "\u0120post": 2587,
  "avor": 2588,
  "andom": 2589,
  "ramew": 2590,
  "ramework": 2591,
  "uine": 2592,
  "\u0120month": 2593,
  "\u0120mag": 2594,
  "\u0120pip": 2595,
  "java": 2596,
  "\u0120exact": 2597,
  "\u0120examples": 2598,
  "aster": 2599,
  "\u0120coll": 2600,
  "{\\\\": 2601,
  "eep": 2602,
  "\u0120air": 2603,
  "200": 2604,
  "\u0120opp": 2605,
  "\u0120Bu": 2606,
  "\u0120List": 2607,
  "ply": 2608,
  "oud": 2609,
  "\u0120conditions": 2610,
  "\u0120characters": 2611,
  "\u0120handling": 2612,
  "print": 2613,
  "\u0120Tra": 2614,
  "def": 2615,
  "alu": 2616,
  "iver": 2617,
  "\u0120waiting": 2618,
  "\u0120South": 2619,
  "\u0120vs": 2620,
  "\u0120John": 2621,
  "\u0120behavior": 2622,
  "\u0120Rub": 2623,
  "\u0120</": 2624,
  "aps": 2625,
  "ips": 2626,
  "\u0120sure": 2627,
  "split": 2628,
  "oing": 2629,
  "resp": 2630,
  "etic": 2631,
  "\u0120gover": 2632,
  "fer": 2633,
  "\u0120body": 2634,
  "\u0120Mat": 2635,
  "\u0120big": 2636,
  "\u0120page": 2637,
  "\u0120stat": 2638,
  "sol": 2639,
  "order": 2640,
  "urther": 2641,
  "lev": 2642,
  "30": 2643,
  "\u0120Co": 2644,
  "\u0120goal": 2645,
  "\u0120High": 2646,
  "\u0120der": 2647,
  "\u0120knowledge": 2648,
  "\u0120greater": 2649,
  "\u0120defin": 2650,
  "che": 2651,
  "\u0120load": 2652,
  "cpp": 2653,
  "\u0120sets": 2654,
  "ley": 2655,
  "\u0120task": 2656,
  "\u0120Bl": 2657,
  "cle": 2658,
  "\u0120continu": 2659,
  "\u0120technique": 2660,
  "\u0120See": 2661,
  "\u0120Austral": 2662,
  "\u0120genuine": 2663,
  "ee": 2664,
  "\u0120'.": 2665,
  "\u0120numer": 2666,
  "\u0120Ass": 2667,
  "ype": 2668,
  "\u0120respect": 2669,
  "\u0120users": 2670,
  "yl": 2671,
  "80": 2672,
  "\u0120edges": 2673,
  "\u0120Next": 2674,
  "bed": 2675,
  "rans": 2676,
  "\u0120games": 2677,
  "\u0120events": 2678,
  "11": 2679,
  "\u0120display": 2680,
  "include": 2681,
  "\u0120ways": 2682,
  "\u0120super": 2683,
  "anging": 2684,
  "$$": 2685,
  "ST": 2686,
  "\u0120appear": 2687,
  "irtu": 2688,
  "\u0120vertices": 2689,
  "\u0120cross": 2690,
  "\u0120fix": 2691,
  "\u0120sense": 2692,
  "\u0120Res": 2693,
  "\u0120dynamic": 2694,
  "\u0120engine": 2695,
  "bit": 2696,
  "\u0120service": 2697,
  "ache": 2698,
  "\u0120Go": 2699,
  "\u0120weight": 2700,
  "\u0120Em": 2701,
  "\u0120Vis": 2702,
  "TP": 2703,
  "ott": 2704,
  "roll": 2705,
  "\u0120blocks": 2706,
  "\u0120members": 2707,
  "jango": 2708,
  "\u0120provided": 2709,
  "roid": 2710,
  "\u0120expect": 2711,
  "\u0120West": 2712,
  "\u0120base": 2713,
  "\u0120sto": 2714,
  "col": 2715,
  "\u0120quant": 2716,
  "\\\":": 2717,
  "ift": 2718,
  "\u0120genuinely": 2719,
  "\u0120employ": 2720,
  "OM": 2721,
  "\u0120phys": 2722,
  "\u0120Mar": 2723,
  "\u0120match": 2724,
  "aking": 2725,
  "und": 2726,
  "ires": 2727,
  "nment": 2728,
  "factual": 2729,
  "\u0120land": 2730,
  "\u0120services": 2731,
  "\u0120pay": 2732,
  "\u0120port": 2733,
  "\u0120conne": 2734,
  "\u0120isn": 2735,
  "ET": 2736,
  "\u0120mer": 2737,
  "eff": 2738,
  "ster": 2739,
  "\u0120evalu": 2740,
  "\u0120everything": 2741,
  "\u0120alloc": 2742,
  "\u0120National": 2743,
  "\u0120=>": 2744,
  "ina": 2745,
  "\u0120Ne": 2746,
  "14": 2747,
  "\u0120issues": 2748,
  "\u0120summ": 2749,
  "\u0120late": 2750,
  "rate": 2751,
  "\u0120away": 2752,
  "\u0120communication": 2753,
  "\u0120Ruby": 2754,
  "\u0120Example": 2755,
  "\u0120become": 2756,
  "iful": 2757,
  "ibility": 2758,
  "ney": 2759,
  "\u0120es": 2760,
  "\u0120platform": 2761,
  "\u0120cover": 2762,
  "\u0120missing": 2763,
  "list": 2764,
  "erial": 2765,
  "bash": 2766,
  "\u0120Par": 2767,
  "\u0120located": 2768,
  "\u0120Implementing": 2769,
  "sum": 2770,
  "lection": 2771,
  "\u0120associ": 2772,
  "ambda": 2773,
  "\u0120bra": 2774,
  "\u0120plot": 2775,
  "\u0120sorting": 2776,
  "csv": 2777,
  "\u0120account": 2778,
  "jor": 2779,
  "\u0120challeng": 2780,
  "ln": 2781,
  "\u0120personal": 2782,
  "\u0120questions": 2783,
  "\u0120parent": 2784,
  "\u0120context": 2785,
  "\u0120computing": 2786,
  "ok": 2787,
  "\u0120higher": 2788,
  "\u0120North": 2789,
  "autiful": 2790,
  "\u0120technology": 2791,
  "dd": 2792,
  "--------": 2793,
  "\u0120Over": 2794,
  "\u0120either": 2795,
  "\u0120attrib": 2796,
  "\u0120Per": 2797,
  "ideo": 2798,
  "\u0120free": 2799,
  "60": 2800,
  "\u0120bal": 2801,
  "\u0120instead": 2802,
  "aves": 2803,
  "conom": 2804,
  "\u0120ge": 2805,
  "\u0120Flask": 2806,
  "ala": 2807,
  "\u0120book": 2808,
  "\u0120operation": 2809,
  "lice": 2810,
  "\u0120easy": 2811,
  "\u0120reduce": 2812,
  "\u0120Ready": 2813,
  "\u0120Therefore": 2814,
  "pple": 2815,
  "\u0120yourself": 2816,
  "\u0120compil": 2817,
  "pri": 2818,
  "\u0120System": 2819,
  "\u0120link": 2820,
  "\u0120fundamental": 2821,
  "\u0120human": 2822,
  "\u0120random": 2823,
  "imen": 2824,
  "\u0120hear": 2825,
  "\u0120Am": 2826,
  "\u0120Cent": 2827,
  "alls": 2828,
  "\u0120food": 2829,
  "\u0120particularly": 2830,
  "\u0120come": 2831,
  "\u0120,": 2832,
  "\u0120half": 2833,
  "\u0120argument": 2834,
  "lu": 2835,
  "\u0120trees": 2836,
  "\u0120Rep": 2837,
  "\u0120third": 2838,
  "\u0120format": 2839,
  "\u0120travel": 2840,
  "idth": 2841,
  "\u0120once": 2842,
  "ically": 2843,
  "\u0120tw": 2844,
  "\u0120Sim": 2845,
  "\u0120frequ": 2846,
  "ula": 2847,
  "\u0120intern": 2848,
  "\u0120follows": 2849,
  "\u0120difference": 2850,
  "omm": 2851,
  "\u0120factorial": 2852,
  "capitalize": 2853,
  "aced": 2854,
  "esome": 2855,
  "\u0120architecture": 2856,
  "\u0120Py": 2857,
  "ounter": 2858,
  "\u0120against": 2859,
  "\u0120repl": 2860,
  "\u0120invest": 2861,
  "\u0120foot": 2862,
  "\u0120programs": 2863,
  "\u0120void": 2864,
  "\u0120adjac": 2865,
  "100": 2866,
  "sqrt": 2867,
  "It": 2868,
  "\u0120transform": 2869,
  "ended": 2870,
  "\u0120prim": 2871,
  "\u0120finding": 2872,
  "CT": 2873,
  "book": 2874,
  "\u0120band": 2875,
  "\u0120constru": 2876,
  "\u0120testing": 2877,
  "\u0120benefits": 2878,
  "\u0120items": 2879,
  "wise": 2880,
  "\u0120areas": 2881,
  "itch": 2882,
  "\u0120full": 2883,
  "\u0120belie": 2884,
  "\u0120Ob": 2885,
  "\u0120entire": 2886,
  "\u0120importance": 2887,
  "\u0120early": 2888,
  "\u0120neg": 2889,
  "\u0120editor": 2890,
  "ync": 2891,
  "\u0120explain": 2892,
  "\u0120final": 2893,
  "ana": 2894,
  "pically": 2895,
  "lobal": 2896,
  "\u0120Lisp": 2897,
  "\u0120gives": 2898,
  "irtual": 2899,
  "\u0120became": 2900,
  "\u0120pa": 2901,
  "\u0120download": 2902,
  "\u0120players": 2903,
  "\u012024": 2904,
  "stra": 2905,
  "\u0120Reg": 2906,
  "dent": 2907,
  "izes": 2908,
  "\u0120Canad": 2909,
  "\u0120allowing": 2910,
  "\u0120analyze": 2911,
  "\u0120Red": 2912,
  "\u0120additional": 2913,
  "ison": 2914,
  "\u0120idea": 2915,
  "\u0120que": 2916,
  "\u0120job": 2917,
  "\u0120particular": 2918,
  "enn": 2919,
  "ises": 2920,
  "omen": 2921,
  "\u0120crit": 2922,
  "uck": 2923,
  "\u0120least": 2924,
  "\u0120framework": 2925,
  "\u0120source": 2926,
  "rist": 2927,
  "\u0120record": 2928,
  "down": 2929,
  "\u0120Di": 2930,
  "iled": 2931,
  "\u0120whether": 2932,
  "\u0120awesome": 2933,
  "\u0120deep": 2934,
  "\u0120US": 2935,
  "process": 2936,
  "uture": 2937,
  "cent": 2938,
  "\u0120neighb": 2939,
  "ogn": 2940,
  "\u0120Dist": 2941,
  "\u0120pd": 2942,
  "\u0120El": 2943,
  "\u0120sat": 2944,
  "ones": 2945,
  "\u0120regular": 2946,
  "pped": 2947,
  "\u0120Fe": 2948,
  "\u0120reach": 2949,
  "ume": 2950,
  "\u0120Web": 2951,
  "tex": 2952,
  "fully": 2953,
  "imate": 2954,
  "\u0120guide": 2955,
  "\u0120British": 2956,
  "ox": 2957,
  "\u0120mathematical": 2958,
  "\u0120instance": 2959,
  "omes": 2960,
  "\u0120distribution": 2961,
  "ising": 2962,
  "AB": 2963,
  "\u0120indust": 2964,
  "\u0120Just": 2965,
  "\u0120recurs": 2966,
  "\u0120share": 2967,
  "\u0120quick": 2968,
  "rop": 2969,
  "\u0120released": 2970,
  "respond": 2971,
  "\u0120strong": 2972,
  "\u0120community": 2973,
  "hern": 2974,
  "\u0120zero": 2975,
  "\u0120May": 2976,
  "\u0120dependencies": 2977,
  "test": 2978,
  "\u0120property": 2979,
  "\u0120executed": 2980,
  "like": 2981,
  "agine": 2982,
  "\u0120CSS": 2983,
  "\u0120python": 2984,
  "\u0120written": 2985,
  "\u0120State": 2986,
  "\u0120config": 2987,
  "sel": 2988,
  "\u0120little": 2989,
  "\u0120money": 2990,
  "dex": 2991,
  "\u0120independ": 2992,
  "\u0120hy": 2993,
  "\u0120typically": 2994,
  "\u0120reason": 2995,
  "ares": 2996,
  "imal": 2997,
  "ography": 2998,
  "\u0120followed": 2999,
  "\u0120Studio": 3000,
  "\u0120player": 3001,
  "\u0120All": 3002,
  "];": 3003,
  "\u0120thing": 3004,
  "\u0120study": 3005,
  "An": 3006,
  "\u0120correspond": 3007,
  "\u0120statements": 3008,
  "\u0120solutions": 3009,
  "Ch": 3010,
  "\u0120City": 3011,
  "\u0120sal": 3012,
  "\u0120activ": 3013,
  "ification": 3014,
  "\u0120represented": 3015,
  "\u0120private": 3016,
  "sequ": 3017,
  "duct": 3018,
  "\u0120Che": 3019,
  "iven": 3020,
  "\u0120children": 3021,
  "\u0120basics": 3022,
  "\u0120calculates": 3023,
  "cast": 3024,
  "pi": 3025,
  "\u0120rate": 3026,
  "\u0120friends": 3027,
  "\u0120close": 3028,
  "\u0120expl": 3029,
  "otal": 3030,
  "otes": 3031,
  "\u0120aud": 3032,
  "\u0120insert": 3033,
  "\u0120maximum": 3034,
  "\u0120Do": 3035,
  "\u0120rows": 3036,
  "\u0120Don": 3037,
  "RE": 3038,
  "ror": 3039,
  "\u0120double": 3040,
  "iciency": 3041,
  "bra": 3042,
  "\u0120adding": 3043,
  "\u0120someone": 3044,
  "\u0120among": 3045,
  "\u0120course": 3046,
  "\u0120encrypt": 3047,
  "\u0120able": 3048,
  "\u0120bound": 3049,
  ")^": 3050,
  "\u0120groups": 3051,
  "\u0120instructions": 3052,
  "\u0120generate": 3053,
  "\u0120manipulation": 3054,
  "\u0120expressions": 3055,
  "\u0120threads": 3056,
  "Doing": 3057,
  "iding": 3058,
  "\u0120determine": 3059,
  "\u0120tradition": 3060,
  "usion": 3061,
  "ils": 3062,
  "\u0120near": 3063,
  "\u0120bit": 3064,
  "\u0120taking": 3065,
  "\u0120media": 3066,
  "\u0120norm": 3067,
  "As": 3068,
  "\u0120height": 3069,
  "\u0120population": 3070,
  "\u0120price": 3071,
  "\u0120execute": 3072,
  "pose": 3073,
  "\u0120valid": 3074,
  "af": 3075,
  "ifying": 3076,
  "\u0120Spe": 3077,
  "My": 3078,
  "\u0120law": 3079,
  "une": 3080,
  "ront": 3081,
  "\u0120measure": 3082,
  "roup": 3083,
  "ister": 3084,
  "ready": 3085,
  "\u0120Hey": 3086,
  "\u0120season": 3087,
  "\u0120author": 3088,
  "\u0120anything": 3089,
  "\u0120mill": 3090,
  "\u0120creates": 3091,
  "\u0120diff": 3092,
  "mit": 3093,
  "\u0120leg": 3094,
  "\u0120DataFrame": 3095,
  "\u0120history": 3096,
  "atter": 3097,
  "\u0120apply": 3098,
  "\u01202006": 3099,
  "ynchronous": 3100,
  "\u0120columns": 3101,
  "\u0120probability": 3102,
  "']": 3103,
  "ele": 3104,
  "\u0120further": 3105,
  "\u0120refer": 3106,
  "\u0120apprec": 3107,
  "\u0120Cho": 3108,
  "16": 3109,
  "asing": 3110,
  "\u0120del": 3111,
  "\u0120choice": 3112,
  "\u0120CPU": 3113,
  "\u0120History": 3114,
  "use": 3115,
  "\u012060": 3116,
  "([": 3117,
  "\u0120material": 3118,
  "levision": 3119,
  "\u0120former": 3120,
  "acc": 3121,
  "\u0120prior": 3122,
  "\u0120mot": 3123,
  "\u0120divide": 3124,
  "\u0120Visual": 3125,
  "\u0120econom": 3126,
  "\u0120coding": 3127,
  "\u0120five": 3128,
  "class": 3129,
  "\u0120scal": 3130,
  "\u0120SQL": 3131,
  "oogle": 3132,
  "gress": 3133,
  "\u0120clear": 3134,
  "\u0120thank": 3135,
  "\u0120Run": 3136,
  "met": 3137,
  "ctors": 3138,
  "\u0120obser": 3139,
  "iod": 3140,
  "\u0120rules": 3141,
  "\u0120books": 3142,
  "wh": 3143,
  "\u0120prime": 3144,
  "\u0120No": 3145,
  "\u0120prevent": 3146,
  "orpor": 3147,
  "\u0120pandas": 3148,
  "\u0120indic": 3149,
  "uth": 3150,
  "ler": 3151,
  "ground": 3152,
  "\u0120simpl": 3153,
  "\u0120pers": 3154,
  "ille": 3155,
  "\u0120played": 3156,
  "numbers": 3157,
  "\u0120done": 3158,
  "\u0120processes": 3159,
  "\u0120security": 3160,
  "\u0120prints": 3161,
  "augh": 3162,
  "\u0120multip": 3163,
  "akes": 3164,
  "\u0120house": 3165,
  "isf": 3166,
  "abor": 3167,
  "\u0120limit": 3168,
  "\u0120symb": 3169,
  "\u0120prompt": 3170,
  "\u0120$(": 3171,
  "\u0120Dec": 3172,
  "\u0120solving": 3173,
  "ission": 3174,
  "\u0120War": 3175,
  "\u0120poly": 3176,
  "\u0120cell": 3177,
  "istor": 3178,
  "raight": 3179,
  "\u0120retrie": 3180,
  "txt": 3181,
  "na": 3182,
  "culate": 3183,
  "\u0120decision": 3184,
  "\u0120report": 3185,
  "\u0120ability": 3186,
  "reate": 3187,
  "\u0120inside": 3188,
  "\u0120filter": 3189,
  "go": 3190,
  "isions": 3191,
  "\u0120cases": 3192,
  "\u0120195": 3193,
  "sort": 3194,
  "\u0120cannot": 3195,
  "\u0120kind": 3196,
  "\u0120bar": 3197,
  "\u0120nice": 3198,
  "\u0120Good": 3199,
  "Every": 3200,
  "istics": 3201,
  "\u0120already": 3202,
  "first": 3203,
  "div": 3204,
  "\u0120options": 3205,
  "izations": 3206,
  "\u0120English": 3207,
  "\u0120Django": 3208,
  "ales": 3209,
  "\u0120blue": 3210,
  "hent": 3211,
  "\u0120itself": 3212,
  "pre": 3213,
  "\u0120major": 3214,
  "uff": 3215,
  "\u0120scen": 3216,
  "\u0120remo": 3217,
  "\u0120established": 3218,
  "=\\\\": 3219,
  "\u0120vol": 3220,
  "\u0120attack": 3221,
  "DA": 3222,
  "\u0120training": 3223,
  "\u0120Min": 3224,
  "aging": 3225,
  "irth": 3226,
  "\u0120sold": 3227,
  "\u0120setting": 3228,
  "\u0120why": 3229,
  "\u0120relationships": 3230,
  "\u0120Finally": 3231,
  "lib": 3232,
  "oura": 3233,
  "node": 3234,
  "\u0120connected": 3235,
  "off": 3236,
  "\u0120appl": 3237,
  "ncy": 3238,
  "\u0120government": 3239,
  "\u0120Num": 3240,
  "\u0120functional": 3241,
  "ura": 3242,
  "If": 3243,
  "},": 3244,
  "\u0120button": 3245,
  "\u0120Remember": 3246,
  "\u0120window": 3247,
  "\u0120required": 3248,
  "\u0120Sec": 3249,
  "\u0120draw": 3250,
  "\u0120<-": 3251,
  "\u0120collect": 3252,
  "ai": 3253,
  "atever": 3254,
  "aches": 3255,
  "ili": 3256,
  "\u0120operating": 3257,
  "\u0120parts": 3258,
  "13": 3259,
  "\u0120exc": 3260,
  "\u0120manipulate": 3261,
  "\u0120satisf": 3262,
  "num": 3263,
  "\u0120situ": 3264,
  "\u0120general": 3265,
  "\u0120Qu": 3266,
  "arn": 3267,
  "loc": 3268,
  "\u0120cand": 3269,
  "aun": 3270,
  "isk": 3271,
  "ese": 3272,
  "\u0120discuss": 3273,
  "ption": 3274,
  "\u0120overall": 3275,
  "Well": 3276,
  "\u0120unit": 3277,
  "ched": 3278,
  "\u0120repe": 3279,
  "ored": 3280,
  "\u0120pain": 3281,
  "Keep": 3282,
  "\u0120keyword": 3283,
  "\u0120comes": 3284,
  "\u0120actually": 3285,
  "ublic": 3286,
  "\u0120ri": 3287,
  "\u0120Ed": 3288,
  "cont": 3289,
  "Py": 3290,
  "ients": 3291,
  "\u0120names": 3292,
  "pty": 3293,
  "List": 3294,
  "\\\");": 3295,
  "\u0120efficiency": 3296,
  "\u0120hanging": 3297,
  "\u0120`<": 3298,
  "\u0120future": 3299,
  "orts": 3300,
  "\u0120moment": 3301,
  "\u0120men": 3302,
  "\u0120video": 3303,
  "\u0120experi": 3304,
  "\u0120products": 3305,
  "bles": 3306,
  "omain": 3307,
  "ites": 3308,
  "\u0120began": 3309,
  "\u0120Dis": 3310,
  "\\\">": 3311,
  "ridge": 3312,
  "\u0120camp": 3313,
  "\u0120fac": 3314,
  "\u0120Med": 3315,
  "ony": 3316,
  "\u0120face": 3317,
  "\u0120whatever": 3318,
  "\u0120virtual": 3319,
  "\u0120Code": 3320,
  "\u0120equations": 3321,
  "\u0120avoid": 3322,
  "body": 3323,
  "\u0120navigate": 3324,
  "vant": 3325,
  "\u0120strings": 3326,
  "cket": 3327,
  "\u0120caus": 3328,
  "onderful": 3329,
  "[]": 3330,
  "\u0120graphs": 3331,
  "oms": 3332,
  "\u0120;": 3333,
  "\u0120heap": 3334,
  "ban": 3335,
  "\u0120HTTP": 3336,
  "\u0120queue": 3337,
  "\u0120theory": 3338,
  "\u0120choose": 3339,
  "18": 3340,
  "\u0120commonly": 3341,
  "ection": 3342,
  "\u0120gr": 3343,
  "ursion": 3344,
  "\u0120Post": 3345,
  "\u0120templ": 3346,
  "\u0120fine": 3347,
  "\u0120exactly": 3348,
  "\u0120establish": 3349,
  "\u0120debugging": 3350,
  "ump": 3351,
  "cdot": 3352,
  "ees": 3353,
  "ilit": 3354,
  "\u0120compet": 3355,
  "\u0120sides": 3356,
  "\u0120press": 3357,
  "\u0120mix": 3358,
  "\u0120River": 3359,
  "\u0120browser": 3360,
  "osp": 3361,
  "omin": 3362,
  "\u0120Sub": 3363,
  "\u0120representation": 3364,
  "\u0120diction": 3365,
  "\u0120Act": 3366,
  "inking": 3367,
  "icult": 3368,
  "\u0120young": 3369,
  "\u0120Park": 3370,
  "\u0120meas": 3371,
  "hood": 3372,
  "\u0120miles": 3373,
  "erv": 3374,
  "\u0120customer": 3375,
  "\u0120profess": 3376,
  "\u0120fru": 3377,
  "\u0120far": 3378,
  "\u0120past": 3379,
  "\u0120action": 3380,
  "\u0120turn": 3381,
  "urch": 3382,
  "\u0120behind": 3383,
  "\u0120cy": 3384,
  "\u0120Ab": 3385,
  "\u0120lines": 3386,
  "\u0120advant": 3387,
  "\u0120shared": 3388,
  "icle": 3389,
  "lent": 3390,
  "\u0120Dep": 3391,
  "ercent": 3392,
  "\u0120win": 3393,
  "\u0120query": 3394,
  "String": 3395,
  "gra": 3396,
  "\u0120map": 3397,
  "\u0120Android": 3398,
  "son": 3399,
  "\u0120title": 3400,
  "\u0120negative": 3401,
  "This": 3402,
  "\u0120appreciate": 3403,
  "\u0120fra": 3404,
  "chan": 3405,
  "now": 3406,
  "ening": 3407,
  "\u0120IDE": 3408,
  "\u0120@": 3409,
  "\u0120bi": 3410,
  "ortun": 3411,
  "User": 3412,
  "\u0120Sw": 3413,
  "igns": 3414,
  "dered": 3415,
  "\u0120fit": 3416,
  "\u0120Addition": 3417,
  "\u0120Trans": 3418,
  "utable": 3419,
  "\u0120asking": 3420,
  "anc": 3421,
  "\u0120period": 3422,
  "resh": 3423,
  "\u0120location": 3424,
  "\u0120networks": 3425,
  "\u0120fields": 3426,
  "\u0120static": 3427,
  "\u0120Inter": 3428,
  "ho": 3429,
  "anger": 3430,
  "SQL": 3431,
  "Name": 3432,
  "\u0120edge": 3433,
  "equ": 3434,
  "\u0120appropri": 3435,
  "Bus": 3436,
  "aur": 3437,
  "jure": 3438,
  "\u0120favor": 3439,
  "ourn": 3440,
  "www": 3441,
  "action": 3442,
  "selves": 3443,
  "\u0120imm": 3444,
  "oman": 3445,
  "\u0120rather": 3446,
  "\u0120Char": 3447,
  "\u0120providing": 3448,
  "uration": 3449,
  "pack": 3450,
  "\u0120Me": 3451,
  "att": 3452,
  "ached": 3453,
  "spe": 3454,
  "\u0120definition": 3455,
  "\u0120prec": 3456,
  "imension": 3457,
  "itude": 3458,
  "\u0120increase": 3459,
  "\u0120($": 3460,
  "\u0120regression": 3461,
  "alking": 3462,
  "\u0120installation": 3463,
  "eter": 3464,
  "\u0120occur": 3465,
  "\u0120consists": 3466,
  "\u0120protect": 3467,
  "\u0120polit": 3468,
  "stit": 3469,
  "fect": 3470,
  "\u0120vill": 3471,
  "\u0120htt": 3472,
  "gg": 3473,
  ")\\\\": 3474,
  "\u0120integr": 3475,
  "\u0120signal": 3476,
  "rel": 3477,
  "sec": 3478,
  "light": 3479,
  "\u0120contrib": 3480,
  "\u0120took": 3481,
  "\u0120flex": 3482,
  "\u0120vertex": 3483,
  "ranch": 3484,
  "world": 3485,
  "\u0120JS": 3486,
  "atio": 3487,
  "Cl": 3488,
  "\u0120difficult": 3489,
  "Data": 3490,
  "\u0120scre": 3491,
  "\u0120remaining": 3492,
  "example": 3493,
  "uting": 3494,
  "\u0120Rust": 3495,
  "\u0120town": 3496,
  "\u0120added": 3497,
  "\u0120recogn": 3498,
  "\u0120details": 3499,
  "\u0120host": 3500,
  "\u0120Pe": 3501,
  "\u0120compos": 3502,
  "\u0120multipl": 3503,
  "\u0120Mark": 3504,
  "\u0120cut": 3505,
  "\u0120style": 3506,
  "ams": 3507,
  "urrency": 3508,
  "\u0120sche": 3509,
  "\u0120Gu": 3510,
  "ancial": 3511,
  "\u0120approxim": 3512,
  "\u0120pairs": 3513,
  "\u0120requests": 3514,
  "\u0120sens": 3515,
  "\u0120secure": 3516,
  "\u0120market": 3517,
  "lling": 3518,
  "\u0120accurate": 3519,
  "FS": 3520,
  "\u0120False": 3521,
  "\u0120PH": 3522,
  "ON": 3523,
  "Busy": 3524,
  "\u0120Numb": 3525,
  "astic": 3526,
  "\u0120adjacency": 3527,
  "onent": 3528,
  "\u0120Choices": 3529,
  "\u0120Christ": 3530,
  "\u0120thoughtful": 3531,
  "\u0120birth": 3532,
  "\u0120formula": 3533,
  "\u0120creative": 3534,
  "\u0120hello": 3535,
  "rank": 3536,
  "\\\\_{": 3537,
  "aim": 3538,
  "lin": 3539,
  "\u0120parameters": 3540,
  "\u0120ann": 3541,
  "\u0120dire": 3542,
  "overed": 3543,
  "den": 3544,
  "\u0120sounds": 3545,
  "22": 3546,
  "\u0120buy": 3547,
  "\u0120perspect": 3548,
  "raft": 3549,
  "matrix": 3550,
  "size": 3551,
  "\u0120wor": 3552,
  "\u0120requires": 3553,
  "\u0120Work": 3554,
  "\u012021": 3555,
  "ought": 3556,
  "\u0120Integ": 3557,
  "');": 3558,
  "\u0120ut": 3559,
  "\u0120leading": 3560,
  "\u0120Type": 3561,
  "\u0120developers": 3562,
  "\u0120member": 3563,
  "ounc": 3564,
  "tract": 3565,
  "\u0120Always": 3566,
  "RA": 3567,
  "title": 3568,
  "\u0120modern": 3569,
  "icks": 3570,
  "ishing": 3571,
  "\u0120aim": 3572,
  "raw": 3573,
  "\u0120Colle": 3574,
  "\u0120194": 3575,
  "\u0120transl": 3576,
  "\u0120mac": 3577,
  "cially": 3578,
  "orage": 3579,
  "\u0120Introdu": 3580,
  "\u0120becomes": 3581,
  "\u0120sentence": 3582,
  "\u0120Mon": 3583,
  "\u0120starting": 3584,
  "\u0120television": 3585,
  "\u0120Er": 3586,
  "\u0120dr": 3587,
  "\u0120excel": 3588,
  "lean": 3589,
  "abilities": 3590,
  "\u0120obtain": 3591,
  "\u0120evening": 3592,
  "\u0120widely": 3593,
  "\u0120consum": 3594,
  "\u0120sun": 3595,
  "\u0120affect": 3596,
  "\u0120af": 3597,
  "\u0120directly": 3598,
  "\u0120rule": 3599,
  "\u0120demon": 3600,
  "\u0120refers": 3601,
  "\u0120developed": 3602,
  "ished": 3603,
  "\u0120clust": 3604,
  "ocol": 3605,
  "\u0120percent": 3606,
  "\u0120Another": 3607,
  "\u0120larger": 3608,
  "\u0120projects": 3609,
  "\u0120recursive": 3610,
  "\u0120country": 3611,
  "board": 3612,
  "arb": 3613,
  "\u0120managing": 3614,
  "\u0120practices": 3615,
  "\u0120efficiently": 3616,
  "\u0120progress": 3617,
  "[::": 3618,
  "ague": 3619,
  "\u0120challenges": 3620,
  "mathbb": 3621,
  "\u0120review": 3622,
  "ological": 3623,
  "\u0120client": 3624,
  "\u0120Aut": 3625,
  "\u0120Test": 3626,
  "eral": 3627,
  "OS": 3628,
  "ellig": 3629,
  "\u0120tables": 3630,
  "level": 3631,
  "\u0120Af": 3632,
  "\u0120species": 3633,
  "\u0120practice": 3634,
  "joy": 3635,
  "ses": 3636,
  "\u0120East": 3637,
  "[::-": 3638,
  "ably": 3639,
  "\u0120linked": 3640,
  "\u0120Clo": 3641,
  "\u0120micro": 3642,
  "idence": 3643,
  "\u0120devices": 3644,
  "pecially": 3645,
  "script": 3646,
  "\u0120Opt": 3647,
  "gree": 3648,
  "path": 3649,
  "\u0120visit": 3650,
  "\u0120While": 3651,
  "solute": 3652,
  "['": 3653,
  "\u0120\\\\[": 3654,
  "earch": 3655,
  "\u0120King": 3656,
  "\u0120Bro": 3657,
  "\u0120Fil": 3658,
  "ously": 3659,
  "\u0120road": 3660,
  "\u0120smo": 3661,
  "anies": 3662,
  "\u0120depth": 3663,
  "emb": 3664,
  "\u0120recomm": 3665,
  "\u0120Jan": 3666,
  "vert": 3667,
  "\u0120traditional": 3668,
  "\u0120Gener": 3669,
  "\u0120green": 3670,
  "\u0120authent": 3671,
  "ordin": 3672,
  "AR": 3673,
  "rices": 3674,
  "abel": 3675,
  "bs": 3676,
  "\u0120brings": 3677,
  "ipe": 3678,
  "\u0120Pre": 3679,
  "cher": 3680,
  "Int": 3681,
  "ifies": 3682,
  "\u0120Conf": 3683,
  "\u0120calls": 3684,
  "\u0120advanced": 3685,
  "eel": 3686,
  "ags": 3687,
  "omial": 3688,
  "\u0120especially": 3689,
  "ario": 3690,
  "iction": 3691,
  "\u0120production": 3692,
  "\u0120hope": 3693,
  "IN": 3694,
  "\u0120descript": 3695,
  "\u0120sample": 3696,
  "\u0120minimum": 3697,
  "\u0120Su": 3698,
  "times": 3699,
  "\u0120associated": 3700,
  "\u0120quality": 3701,
  "ened": 3702,
  "\u012080": 3703,
  "\u0120appropriate": 3704,
  "\u0120operator": 3705,
  "\u0120communic": 3706,
  "Keeping": 3707,
  "\u0120district": 3708,
  "System": 3709,
  "Con": 3710,
  "\u0120strength": 3711,
  "\u0120growth": 3712,
  "box": 3713,
  "\u0120diving": 3714,
  "\u0120quickly": 3715,
  "\u0120states": 3716,
  "\u0120tur": 3717,
  "\u0120Define": 3718,
  "eal": 3719,
  "\u0120Air": 3720,
  "obile": 3721,
  "\u0120Line": 3722,
  "\u0120rob": 3723,
  "\u0120Calculate": 3724,
  "reet": 3725,
  "\u0120optimize": 3726,
  "\u0120effectively": 3727,
  "\u0120ones": 3728,
  "Pro": 3729,
  "ms": 3730,
  "\u0120influ": 3731,
  "ids": 3732,
  "\u0120Intern": 3733,
  "\u0120pleasure": 3734,
  "index": 3735,
  "ules": 3736,
  "\u0120languages": 3737,
  "\u0120live": 3738,
  "\u0120['": 3739,
  "\u0120Common": 3740,
  "\u0120Additionally": 3741,
  "\u0120actions": 3742,
  "}}": 3743,
  "\u0120stop": 3744,
  "\u0120String": 3745,
  "length": 3746,
  "lym": 3747,
  "\u0120beautiful": 3748,
  "\u0120individuals": 3749,
  "\u0120global": 3750,
  "ternoon": 3751,
  "\u0120commands": 3752,
  "iation": 3753,
  "\u0120online": 3754,
  "\u0120meet": 3755,
  "\u0120II": 3756,
  "\u0120colors": 3757,
  "\u0120trying": 3758,
  "\u0120longer": 3759,
  "\u0120layout": 3760,
  "\u0120Sm": 3761,
  "\u0120keys": 3762,
  "\u0120broad": 3763,
  "\u0120click": 3764,
  "\u0120None": 3765,
  "\u0120effective": 3766,
  "zz": 3767,
  "\u0120apple": 3768,
  "\u0120figure": 3769,
  "utton": 3770,
  "\u0120Hi": 3771,
  "\u0120existing": 3772,
  "\u0120connection": 3773,
  "egin": 3774,
  "\u0120afternoon": 3775,
  "\u0120mechan": 3776,
  "older": 3777,
  "\u0120easily": 3778,
  "\u0120cook": 3779,
  "\u0120according": 3780,
  "\u0120attention": 3781,
  "21": 3782,
  "\u0120offers": 3783,
  "pper": 3784,
  "Com": 3785,
  "\u0120Part": 3786,
  "mar": 3787,
  "\u0120interesting": 3788,
  "\u0120u": 3789,
  "\u0120industry": 3790,
  "pd": 3791,
  "\u0120PHP": 3792,
  "map": 3793,
  "\u0120lo": 3794,
  "\u0120math": 3795,
  "\u0120achieve": 3796,
  "begin": 3797,
  "\u0120north": 3798,
  "\u0120Thanks": 3799,
  "\u0120war": 3800,
  "\u0120fair": 3801,
  "\u0120received": 3802,
  "most": 3803,
  "ulture": 3804,
  "len": 3805,
  "\u0120desired": 3806,
  "\u0120corresponding": 3807,
  "\u0120reflect": 3808,
  "\u0120\\\\\\\\": 3809,
  "\u0120default": 3810,
  "\u0120containing": 3811,
  "\u0120physical": 3812,
  "\u0120update": 3813,
  "run": 3814,
  "\u0120Rob": 3815,
  "\u0120nove": 3816,
  "SP": 3817,
  "\u0120Develop": 3818,
  "\u0120shap": 3819,
  "tings": 3820,
  "\u0120asynchronous": 3821,
  "ountain": 3822,
  "\u0120km": 3823,
  "\u0120feet": 3824,
  "\u0120District": 3825,
  "\u0120True": 3826,
  "cer": 3827,
  "\u0120feed": 3828,
  "\u0120emot": 3829,
  "\u0120largest": 3830,
  "\u0120enough": 3831,
  "\u0120Will": 3832,
  "\u0120Rail": 3833,
  "\u0120implementing": 3834,
  "John": 3835,
  "\u0120Introduction": 3836,
  "\u0120excellent": 3837,
  "atives": 3838,
  "CD": 3839,
  "\u0120throughout": 3840,
  "orph": 3841,
  "\u0120Fun": 3842,
  "ze": 3843,
  "actions": 3844,
  "\u0120heart": 3845,
  "\u0120Euro": 3846,
  "\u0120six": 3847,
  "\u0120plt": 3848,
  ">`": 3849,
  "}{\\\\": 3850,
  "\u0120ideas": 3851,
  "reat": 3852,
  "\u0120Cor": 3853,
  "\u0120preprocess": 3854,
  "\u0120encryption": 3855,
  "iforn": 3856,
  "\u012022": 3857,
  "\u0120compiler": 3858,
  "\u0120aspect": 3859,
  "though": 3860,
  "ifornia": 3861,
  "\u0120Mem": 3862,
  "\u0120demonstr": 3863,
  "ners": 3864,
  "\u0120stay": 3865,
  "idered": 3866,
  "eng": 3867,
  "\u0120representing": 3868,
  "tty": 3869,
  "\u0120concurrent": 3870,
  "\u0120towards": 3871,
  "ham": 3872,
  "LE": 3873,
  "eta": 3874,
  "\u0120financial": 3875,
  "\u0120max": 3876,
  "\u0120normal": 3877,
  "ka": 3878,
  "\u0120__": 3879,
  "\u0120Ag": 3880,
  "\u0120deriv": 3881,
  ").\",": 3882,
  "\u0120ep": 3883,
  "\u0120fast": 3884,
  "\u0120costs": 3885,
  "\u0120black": 3886,
  "\u0120attributes": 3887,
  "RL": 3888,
  "\u0120Bo": 3889,
  "\u0120Mc": 3890,
  "\u0120train": 3891,
  "leep": 3892,
  "\u0120skills": 3893,
  "BC": 3894,
  "\u0120Hello": 3895,
  "\u0120Google": 3896,
  "edy": 3897,
  "\u0120gain": 3898,
  "place": 3899,
  "lim": 3900,
  "\u0120loops": 3901,
  "\u0120Australia": 3902,
  "cks": 3903,
  "acy": 3904,
  "\u0120published": 3905,
  "\u0120included": 3906,
  "\u0120considered": 3907,
  "';": 3908,
  "agraph": 3909,
  "\u0120perfect": 3910,
  "\u0120expand": 3911,
  "\u0120internet": 3912,
  "\u0120images": 3913,
  "function": 3914,
  "\u0120proper": 3915,
  "\u0120Bas": 3916,
  "\u0120lower": 3917,
  "do": 3918,
  "\u0120ill": 3919,
  "\u0120related": 3920,
  "\u0120Mus": 3921,
  "24": 3922,
  "\u01202005": 3923,
  "\u0120site": 3924,
  "\u0120scient": 3925,
  "\u0120shortest": 3926,
  "\u0120device": 3927,
  "\u0120units": 3928,
  "\u0120neighbor": 3929,
  "\u0120predict": 3930,
  "\u0120Pandas": 3931,
  "\u0120py": 3932,
  "\u0120spent": 3933,
  "lease": 3934,
  "\u0120purch": 3935,
  "ounds": 3936,
  "\u0120runs": 3937,
  "mm": 3938,
  "\u0120Adv": 3939,
  "\u0120From": 3940,
  "ried": 3941,
  "\u0120distributed": 3942,
  "\u0120career": 3943,
  "\u0120California": 3944,
  "\u0120Graph": 3945,
  "\u0120favorite": 3946,
  "\u0120supports": 3947,
  "ha": 3948,
  "iling": 3949,
  "\u0120suit": 3950,
  "\u0120remember": 3951,
  "ollow": 3952,
  "\u0120messages": 3953,
  "\u0120tests": 3954,
  "\u01202000": 3955,
  "\u0120independent": 3956,
  "\u0120hey": 3957,
  "\u0120football": 3958,
  "ansk": 3959,
  "\u0120recursion": 3960,
  "\u0120whole": 3961,
  "\u0120cup": 3962,
  "\u0120goes": 3963,
  "\u0120matrices": 3964,
  "\u0120effects": 3965,
  "ino": 3966,
  "\u0120Rails": 3967,
  "count": 3968,
  "\u0120label": 3969,
  "})": 3970,
  "never": 3971,
  "\u0120paths": 3972,
  "\u0120Off": 3973,
  "\u0120central": 3974,
  "\u0120storage": 3975,
  "\u0120Design": 3976,
  "\u0120Ident": 3977,
  "\u0120chart": 3978,
  "\u0120installing": 3979,
  "\u0120doesn": 3980,
  "\u0120customers": 3981,
  "\u0120night": 3982,
  "\u0120$$\\\\": 3983,
  "\u0120separate": 3984,
  "\u0120topics": 3985,
  "\u0120shape": 3986,
  "partial": 3987,
  "ception": 3988,
  "\u0120College": 3989,
  "32": 3990,
  "project": 3991,
  "\u0120taken": 3992,
  "\u0120dev": 3993,
  "\u0120variety": 3994,
  "\u0120produce": 3995,
  "\u0120chann": 3996,
  "\u0120cat": 3997,
  "\u0120surpr": 3998,
  "ky": 3999,
  "\u0120ground": 4000,
  "\u0120Person": 4001,
  "\u0120His": 4002,
  "\u0120sources": 4003,
  "\u0120decor": 4004,
  "apan": 4005,
  "\u0120construct": 4006,
  "hens": 4007,
  "\u0120exten": 4008,
  "\u0120jo": 4009,
  "?,": 4010,
  "result": 4011,
  "\u0120student": 4012,
  "75": 4013,
  "\u0120primary": 4014,
  "\u0120responsible": 4015,
  "\u0120strategies": 4016,
  "\u0120loss": 4017,
  "inct": 4018,
  "\u0120npm": 4019,
  "uary": 4020,
  "\u0120enjoy": 4021,
  "\u00e0\u00a5\u012f": 4022,
  "\u0120Build": 4023,
  "fs": 4024,
  "}(": 4025,
  "ait": 4026,
  "atell": 4027,
  "\u0120ratio": 4028,
  "\u0120email": 4029,
  "lier": 4030,
  "\u0120rect": 4031,
  "\u0120usually": 4032,
  "chools": 4033,
  "\u0120went": 4034,
  "\u0120Network": 4035,
  "ara": 4036,
  "\u0120intellig": 4037,
  "\u0120levels": 4038,
  "'.": 4039,
  "sin": 4040,
  "mod": 4041,
  "\u0120route": 4042,
  "Sure": 4043,
  "ental": 4044,
  "\u0120Optim": 4045,
  "\u0120^": 4046,
  "\u0120modify": 4047,
  "\u0120sales": 4048,
  "\u0120Europe": 4049,
  "oted": 4050,
  "kell": 4051,
  "\u0120Array": 4052,
  "lls": 4053,
  "\u0120pieces": 4054,
  "\u0120NumPy": 4055,
  "\u0120adapt": 4056,
  "kay": 4057,
  "vector": 4058,
  "ulating": 4059,
  "\u0120Model": 4060,
  "elt": 4061,
  "\u0120seen": 4062,
  "\u0120Acc": 4063,
  "\u0120Boo": 4064,
  "\u0120companies": 4065,
  "iented": 4066,
  "\u0120opportun": 4067,
  "\u0120regard": 4068,
  "\u0120remove": 4069,
  "\u0120digital": 4070,
  "\u0120empty": 4071,
  "\u0120held": 4072,
  "\u0120mention": 4073,
  "\u0120exercise": 4074,
  "\u0120simply": 4075,
  "\u0120false": 4076,
  "\u0120region": 4077,
  "\u0120stored": 4078,
  "\u0120dele": 4079,
  "\u0120collabor": 4080,
  "\u0120ant": 4081,
  "\u0120pages": 4082,
  "year": 4083,
  "fty": 4084,
  "atically": 4085,
  "\u0120south": 4086,
  "\u0120resulting": 4087,
  "\u0120temper": 4088,
  "\u0120reducing": 4089,
  "lick": 4090,
  "dom": 4091,
  "\u0120diag": 4092,
  "\u0120optimal": 4093,
  "ville": 4094,
  "\u0120thinking": 4095,
  "\u0120degree": 4096,
  "\u0120hor": 4097,
  "tc": 4098,
  "\u0120nature": 4099,
  "\u0120purpose": 4100,
  "\u0120exam": 4101,
  "gebra": 4102,
  "\u0120transport": 4103,
  "-\\\\": 4104,
  "Wonderful": 4105,
  "\u0120Island": 4106,
  "rap": 4107,
  "\u0120Other": 4108,
  "\u012035": 4109,
  "\u0120fib": 4110,
  "askell": 4111,
  "ER": 4112,
  "\u0120village": 4113,
  "\u0120};": 4114,
  "anskrit": 4115,
  "\u0120via": 4116,
  "\u0120Mich": 4117,
  "\u0120came": 4118,
  "\u0120involve": 4119,
  "aff": 4120,
  "icy": 4121,
  "\u0120Sanskrit": 4122,
  "\u0120domain": 4123,
  "press": 4124,
  "\u0120education": 4125,
  "\u0120ey": 4126,
  "aste": 4127,
  "\u0120expected": 4128,
  "start": 4129,
  "\u0120upon": 4130,
  "main": 4131,
  "ica": 4132,
  "sub": 4133,
  "\u0120whenever": 4134,
  "\u0120Time": 4135,
  "\u0120goals": 4136,
  "\u0120Play": 4137,
  "\u0120center": 4138,
  "\u0120template": 4139,
  "ceed": 4140,
  "fit": 4141,
  "inger": 4142,
  "\u0120dest": 4143,
  "\u0120contin": 4144,
  "\u0120women": 4145,
  "\u0120Import": 4146,
  "\u0120yield": 4147,
  "ivil": 4148,
  "\u0120Anal": 4149,
  "\u0120mov": 4150,
  "\u0120Afric": 4151,
  "\u0120looking": 4152,
  "\u0120br": 4153,
  "umn": 4154,
  "thread": 4155,
  "infty": 4156,
  "\u0120DOM": 4157,
  "orial": 4158,
  "\u0120March": 4159,
  "\u0120satell": 4160,
  "\u0120pretty": 4161,
  "\u0120Ju": 4162,
  "\u0120latest": 4163,
  "ensor": 4164,
  "\u0120Japan": 4165,
  "\u0120million": 4166,
  "ros": 4167,
  "\u0120integration": 4168,
  "oriented": 4169,
  "ouncil": 4170,
  "Qu": 4171,
  "des": 4172,
  "flow": 4173,
  "appy": 4174,
  "\u0120note": 4175,
  "\u0120east": 4176,
  "\u0120straight": 4177,
  "\u0120da": 4178,
  "\u0120measures": 4179,
  "faces": 4180,
  "\u0120Ear": 4181,
  "\u0120...": 4182,
  "Assistant": 4183,
  "\u0120Bay": 4184,
  "\u0120grid": 4185,
  "\u0120chain": 4186,
  "\u0120direction": 4187,
  "osing": 4188,
  "\u0120starts": 4189,
  "\u0120absolute": 4190,
  "\u0120Class": 4191,
  "Count": 4192,
  "\u0120smooth": 4193,
  "\u0120Que": 4194,
  "():": 4195,
  "mon": 4196,
  "\u0120width": 4197,
  "\u0120brand": 4198,
  "\u0120stations": 4199,
  "\u0120paragraph": 4200,
  "artment": 4201,
  "\u0120adds": 4202,
  "ondon": 4203,
  "\u0120Well": 4204,
  "state": 4205,
  "\u0120white": 4206,
  "ailed": 4207,
  "cos": 4208,
  "born": 4209,
  "\u0120correctly": 4210,
  "ociety": 4211,
  "\u0120perspective": 4212,
  "empt": 4213,
  "\u0120ready": 4214,
  "\u0120piece": 4215,
  "\u0120visualization": 4216,
  "\u0120Indian": 4217,
  "asc": 4218,
  "\u0120Ange": 4219,
  "\u0120Aug": 4220,
  "ession": 4221,
  "\u0120implemented": 4222,
  "\u0120opened": 4223,
  "\u0120led": 4224,
  "\u0120west": 4225,
  "\u0120typ": 4226,
  "\u0120operators": 4227,
  "\u0120inher": 4228,
  "\u0120ensures": 4229,
  "So": 4230,
  "host": 4231,
  "\u0120date": 4232,
  "alent": 4233,
  "\u0120Total": 4234,
  "\u0120risk": 4235,
  "\u0120opening": 4236,
  "\u0120ball": 4237,
  "\u0120Dav": 4238,
  "\u0120phot": 4239,
  "\u0120months": 4240,
  "field": 4241,
  "rehens": 4242,
  "\u0120async": 4243,
  "ris": 4244,
  "}^{": 4245,
  "\u0120board": 4246,
  "\u0120experiences": 4247,
  "\u0120Eff": 4248,
  "uple": 4249,
  "\u0120describe": 4250,
  "\u0120divided": 4251,
  "\u0120extra": 4252,
  "aching": 4253,
  "plotlib": 4254,
  "dis": 4255,
  "\u0120rev": 4256,
  "\u0120rail": 4257,
  "\u0120dictionary": 4258,
  "\u0120visited": 4259,
  "\u0120Road": 4260,
  "\u0120forms": 4261,
  "\u0120playing": 4262,
  "\u0120summary": 4263,
  "lement": 4264,
  "\u0120produced": 4265,
  "\u0120configure": 4266,
  "\u0120Perform": 4267,
  "\u0120plant": 4268,
  "\u0120container": 4269,
  "align": 4270,
  "\u0120Jack": 4271,
  "nomial": 4272,
  "\u0120told": 4273,
  "\u0120outside": 4274,
  "\u0120force": 4275,
  "base": 4276,
  "\u0120star": 4277,
  "\u0120Gra": 4278,
  "\u0120geomet": 4279,
  "\u0120paper": 4280,
  "yles": 4281,
  "\u0120Not": 4282,
  "avy": 4283,
  "theta": 4284,
  "Ar": 4285,
  "\u0120activities": 4286,
  "unic": 4287,
  "versal": 4288,
  "\u0120Great": 4289,
  "\u0120shows": 4290,
  "\u0120Follow": 4291,
  "\u0120<=": 4292,
  "inst": 4293,
  "ford": 4294,
  "\u0120continue": 4295,
  "45": 4296,
  "\u0120Olym": 4297,
  "\u0120reli": 4298,
  "\u0120organization": 4299,
  "New": 4300,
  "\u0120tax": 4301,
  "\u0120send": 4302,
  "Good": 4303,
  "\u0120exception": 4304,
  "weight": 4305,
  "\u0120Canada": 4306,
  "arrow": 4307,
  "\u012028": 4308,
  "\u0120front": 4309,
  "\u0120catch": 4310,
  "\u0120commit": 4311,
  "\u0120Thus": 4312,
  "\u0120conversations": 4313,
  "cto": 4314,
  "\u0120seem": 4315,
  "\u0120specified": 4316,
  "roller": 4317,
  "\u0120len": 4318,
  "\u0120served": 4319,
  "\u0120remains": 4320,
  ")(": 4321,
  "ington": 4322,
  "\u0120sho": 4323,
  "choice": 4324,
  "minist": 4325,
  "\u0120Nove": 4326,
  "\u0120Print": 4327,
  "\u0120faster": 4328,
  "\u0120Apr": 4329,
  "\u0120enh": 4330,
  "17": 4331,
  "ES": 4332,
  "\u0120Po": 4333,
  "\u0120subject": 4334,
  "\u0120Pa": 4335,
  "\u0120Find": 4336,
  "acci": 4337,
  "essage": 4338,
  "\u0120merge": 4339,
  "onacci": 4340,
  "\u0120gets": 4341,
  "\u0120Step": 4342,
  "\u0120century": 4343,
  "\u0120issue": 4344,
  "\u0120London": 4345,
  "\u0120deploy": 4346,
  "\u0120reus": 4347,
  "\u012027": 4348,
  "ocuments": 4349,
  "\u0120interactive": 4350,
  "App": 4351,
  "\u0120pan": 4352,
  "rest": 4353,
  "\u0120completed": 4354,
  "\u0120\\\\]": 4355,
  "\u0120pointer": 4356,
  "ultural": 4357,
  "\u0120resource": 4358,
  "\u0120coordin": 4359,
  "\u0120CSV": 4360,
  "Er": 4361,
  "ung": 4362,
  "\u0120twice": 4363,
  "\u0120discus": 4364,
  "\u0120layer": 4365,
  "\u0120Love": 4366,
  "\u0120room": 4367,
  "\u0120item": 4368,
  "\u00e0\u00a4\u00be": 4369,
  "mathbf": 4370,
  "eries": 4371,
  "\u0120lovely": 4372,
  "dy": 4373,
  "hello": 4374,
  "\u0120Supp": 4375,
  "graph": 4376,
  "}$.": 4377,
  "\u01202007": 4378,
  "\u0120directed": 4379,
  "reme": 4380,
  "long": 4381,
  "\u0120Pol": 4382,
  "\u0120specify": 4383,
  "ux": 4384,
  "\u0120symbol": 4385,
  "work": 4386,
  "\u012023": 4387,
  "opt": 4388,
  "FT": 4389,
  "Node": 4390,
  "mic": 4391,
  "\u0120contra": 4392,
  "\u0120frequency": 4393,
  "\u0120:-": 4394,
  "\u0120changed": 4395,
  "\u0120packages": 4396,
  "allest": 4397,
  "\u0120Functions": 4398,
  "init": 4399,
  "\u0120Sing": 4400,
  "\u01202004": 4401,
  "\u0120fail": 4402,
  "ultane": 4403,
  "\u0120balance": 4404,
  "Write": 4405,
  "\u0120Bar": 4406,
  "\u0120Big": 4407,
  "\u0120Object": 4408,
  "\u0120screen": 4409,
  "((": 4410,
  "fl": 4411,
  "\u0120Her": 4412,
  "\u0120logic": 4413,
  "\u0120middle": 4414,
  "\u0120stores": 4415,
  "\u0120San": 4416,
  "\u012036": 4417,
  "\u0120comprehens": 4418,
  "\u0120background": 4419,
  "imensional": 4420,
  "\u0120lif": 4421,
  "\u0120ask": 4422,
  "reek": 4423,
  "\u0120Choose": 4424,
  "oute": 4425,
  "\u0120express": 4426,
  "\u0120park": 4427,
  "\u0120angle": 4428,
  "\u0120exists": 4429,
  "\u0120claim": 4430,
  "\u0120ful": 4431,
  "pass": 4432,
  "\u0120mass": 4433,
  "etimes": 4434,
  "\u0120Pres": 4435,
  "\u0120save": 4436,
  "\u0120cred": 4437,
  "\u012026": 4438,
  "\u0120sharing": 4439,
  "\u0120histor": 4440,
  "\u0120Sol": 4441,
  "issions": 4442,
  "urg": 4443,
  "\u0120simultane": 4444,
  "\u0120vectors": 4445,
  "\u0120applied": 4446,
  "\u0120algebra": 4447,
  "AS": 4448,
  "gment": 4449,
  "\u0120death": 4450,
  "ourage": 4451,
  "\u0120April": 4452,
  "\u0120URL": 4453,
  "\u0120August": 4454,
  "\u0120England": 4455,
  "\u0120pick": 4456,
  "\u0120assum": 4457,
  "\u0120functionality": 4458,
  "\u0120requirements": 4459,
  "->": 4460,
  "download": 4461,
  "ptember": 4462,
  "\u0120Advanced": 4463,
  "\u0120surface": 4464,
  "\u0120Sun": 4465,
  "\u0120+=": 4466,
  "\u0120January": 4467,
  "etch": 4468,
  "Thanks": 4469,
  "\u0120ten": 4470,
  "\u0120successful": 4471,
  "orem": 4472,
  "\u0120moving": 4473,
  "\u0120prote": 4474,
  "ulations": 4475,
  "\u0120var": 4476,
  "\u0120Name": 4477,
  "\u012090": 4478,
  "\u0120kil": 4479,
  "\u0120ensuring": 4480,
  "\u0120employees": 4481,
  "\u0120collections": 4482,
  "\u0120Down": 4483,
  "\u0120Tech": 4484,
  "lines": 4485,
  "\u0120respond": 4486,
  "pha": 4487,
  "rs": 4488,
  "\u0120June": 4489,
  "\u0120news": 4490,
  "ocker": 4491,
  "\u0120strategy": 4492,
  "\u0120configuration": 4493,
  "\u0120harm": 4494,
  "\u0120wel": 4495,
  "direct": 4496,
  "ama": 4497,
  "\u0120spread": 4498,
  "\u0120performed": 4499,
  "\u0120authentication": 4500,
  "fil": 4501,
  "\u0120Street": 4502,
  "58": 4503,
  "\u0120stands": 4504,
  "\u0120decisions": 4505,
  "\u0120earlier": 4506,
  "\u0120card": 4507,
  "Al": 4508,
  "orthern": 4509,
  "\u0120df": 4510,
  "\u0120increased": 4511,
  "\u0120meeting": 4512,
  "itions": 4513,
  "\u0120slow": 4514,
  "\u0120closed": 4515,
  "\u0120didn": 4516,
  "\u0120hardware": 4517,
  "\u0120advice": 4518,
  "clusion": 4519,
  "\u0120stream": 4520,
  "\u0120hi": 4521,
  "\u0120involved": 4522,
  "\u0120locally": 4523,
  "attle": 4524,
  "\u0120branch": 4525,
  "arp": 4526,
  "kn": 4527,
  "\u0120MAT": 4528,
  "\u0120films": 4529,
  "\u0120Bit": 4530,
  "acity": 4531,
  "\u0120multiplication": 4532,
  "arily": 4533,
  "\u0120believe": 4534,
  "\u0120counter": 4535,
  "ocal": 4536,
  "\u0120insight": 4537,
  "\u0120polynomial": 4538,
  "AC": 4539,
  "\u0120race": 4540,
  "\u0120quite": 4541,
  "\u0120conv": 4542,
  "\u0120Inc": 4543,
  "vis": 4544,
  "quad": 4545,
  "\u0120radi": 4546,
  "\u0120numerical": 4547,
  "\u0120https": 4548,
  "\u0120Div": 4549,
  "db": 4550,
  "\u0120Start": 4551,
  "\u0120bill": 4552,
  "\u0120perm": 4553,
  "rown": 4554,
  "\u0120pow": 4555,
  "\u0120likely": 4556,
  "\u0120Prov": 4557,
  "\u0120Olympic": 4558,
  "\u0120\\\\)": 4559,
  "\u0120Scala": 4560,
  "\u0120truly": 4561,
  "DK": 4562,
  "\u0120respectively": 4563,
  "lang": 4564,
  "ouch": 4565,
  "\u0120hot": 4566,
  "\u0120below": 4567,
  "Class": 4568,
  "\u0120adjust": 4569,
  "indows": 4570,
  "\u0120laun": 4571,
  "icians": 4572,
  "LAB": 4573,
  "iff": 4574,
  "\u0120differences": 4575,
  "atures": 4576,
  "era": 4577,
  "\u0120tips": 4578,
  "\u0120Load": 4579,
  "\u0120compared": 4580,
  "ithmetic": 4581,
  "\u0120September": 4582,
  "ampions": 4583,
  "igu": 4584,
  "http": 4585,
  "\u0120manager": 4586,
  "\u0120categ": 4587,
  "\u0120continuous": 4588,
  "\u0120fixed": 4589,
  "apple": 4590,
  "\u0120defines": 4591,
  "\u0120sometimes": 4592,
  "\u0120Australian": 4593,
  "\u0120cause": 4594,
  "\u0120swe": 4595,
  "\u0120dam": 4596,
  "inters": 4597,
  "\u0120combined": 4598,
  "\u0120frame": 4599,
  "\u0120RE": 4600,
  "\u0120extension": 4601,
  "\u0120Tod": 4602,
  "icles": 4603,
  "iam": 4604,
  "\u0120mentioned": 4605,
  "_^": 4606,
  "\u0120compute": 4607,
  "\u0120^_^": 4608,
  "ancy": 4609,
  "\u0120Mod": 4610,
  "ival": 4611,
  "\u0120increasing": 4612,
  "Query": 4613,
  "br": 4614,
  "\u0120release": 4615,
  "\u0120occurs": 4616,
  "Error": 4617,
  "90": 4618,
  "\u0120lost": 4619,
  "\u0120House": 4620,
  "\u012045": 4621,
  "\u0120Ac": 4622,
  "\u0120MATLAB": 4623,
  "\u0120circu": 4624,
  "lt": 4625,
  "\u0120circle": 4626,
  "bug": 4627,
  "\u0120applying": 4628,
  "Hi": 4629,
  "\u0120onto": 4630,
  "max": 4631,
  "wood": 4632,
  "\u0120America": 4633,
  "number": 4634,
  "));": 4635,
  "\u0120cloud": 4636,
  "\u0120July": 4637,
  "\u0120declare": 4638,
  "\u0120Fire": 4639,
  "\u0120Bob": 4640,
  "cribe": 4641,
  "atively": 4642,
  "\u0120distinct": 4643,
  "\u0120Associ": 4644,
  "\u0120recommend": 4645,
  "problem": 4646,
  "hips": 4647,
  "\u0120switch": 4648,
  "\u0120intelligence": 4649,
  "oming": 4650,
  "\u0120Germ": 4651,
  "\u0120talking": 4652,
  "json": 4653,
  "\u0120Clojure": 4654,
  "23": 4655,
  "\u0120});": 4656,
  "igen": 4657,
  "\u0120selection": 4658,
  "\u0120rock": 4659,
  "\u0120receive": 4660,
  "\u0120fire": 4661,
  "\u0120worked": 4662,
  "\u0120reference": 4663,
  "fort": 4664,
  "ufact": 4665,
  "aven": 4666,
  "\u0120allocation": 4667,
  "ixir": 4668,
  "\u0120parameter": 4669,
  "\u0120Development": 4670,
  "mber": 4671,
  "\u0120cars": 4672,
  "\u0120combination": 4673,
  "\u0120reading": 4674,
  "++)": 4675,
  "\u0120getting": 4676,
  "\u0120formed": 4677,
  "\u0120Repres": 4678,
  "rong": 4679,
  "\u0120Har": 4680,
  "\u01202008": 4681,
  "\u0120attempt": 4682,
  "clo": 4683,
  "\u00e0\u00a4\u00b0": 4684,
  "\u0120fill": 4685,
  "\u0120round": 4686,
  "\u0120extract": 4687,
  "\u0120marketing": 4688,
  "\u0120forest": 4689,
  "mid": 4690,
  "\u0120mobile": 4691,
  "\u0120detect": 4692,
  "\u0120analyzing": 4693,
  "\u0120spir": 4694,
  "\u0120computation": 4695,
  "\u01202003": 4696,
  "cific": 4697,
  "\u0120dise": 4698,
  "change": 4699,
  "<<": 4700,
  "pite": 4701,
  "\u0120professional": 4702,
  "rc": 4703,
  "\u0120International": 4704,
  "\u0120subtract": 4705,
  "\u0120Function": 4706,
  "\u0120treat": 4707,
  "\u0120India": 4708,
  "\u0120epis": 4709,
  "unk": 4710,
  "rics": 4711,
  "rew": 4712,
  "\u0120trust": 4713,
  "van": 4714,
  "\u0120coeff": 4715,
  "\u0120Sum": 4716,
  "\u0120changing": 4717,
  "\u0120:-)\",": 4718,
  "\u0120however": 4719,
  "\u0120actual": 4720,
  "\u0120moved": 4721,
  "ID": 4722,
  "orge": 4723,
  "duc": 4724,
  "PS": 4725,
  "\u0120Ma": 4726,
  "\u0120relevant": 4727,
  "\u0120bought": 4728,
  "ologies": 4729,
  "\u0120farm": 4730,
  "\u0120joy": 4731,
  "\u0120option": 4732,
  "plend": 4733,
  "ctober": 4734,
  "\u0120Miss": 4735,
  "\u0120cool": 4736,
  "\u0120TypeScript": 4737,
  "\u0120radio": 4738,
  "\u0120estim": 4739,
  "\u0120rep": 4740,
  "\u0120Mid": 4741,
  "\u0120During": 4742,
  "bu": 4743,
  "ny": 4744,
  "ratic": 4745,
  "\u0120numpy": 4746,
  "Create": 4747,
  "ffic": 4748,
  "\u0120Vi": 4749,
  "ding": 4750,
  "\u0120tour": 4751,
  "\u0120dividing": 4752,
  "}^": 4753,
  "\u0120particip": 4754,
  "\u0120q": 4755,
  "\u0120Make": 4756,
  "\u0120bott": 4757,
  "\u0120gir": 4758,
  "\u0120Lake": 4759,
  "\u0120living": 4760,
  ")+": 4761,
  "\u0120lambda": 4762,
  "\u0120national": 4763,
  "track": 4764,
  "\u0120accept": 4765,
  "plendid": 4766,
  "\u0120token": 4767,
  "\u0120hop": 4768,
  "\u0120subproblem": 4769,
  ")$,": 4770,
  "\u0120performing": 4771,
  "\u0120insp": 4772,
  "\u0120passed": 4773,
  "react": 4774,
  "\u0120crypt": 4775,
  "\u0120wonderfully": 4776,
  "\u0120incorpor": 4777,
  "\u0120Git": 4778,
  "eks": 4779,
  "\u0120Mac": 4780,
  "\u0120compar": 4781,
  "\u0120capable": 4782,
  "hest": 4783,
  "\u0120sn": 4784,
  "\u0120club": 4785,
  "\u0120identity": 4786,
  "ilitary": 4787,
  "\u0120blo": 4788,
  "\u0120Ret": 4789,
  "nes": 4790,
  "\u0120folder": 4791,
  "\u0120apples": 4792,
  "IT": 4793,
  "\u0120friendly": 4794,
  "Alice": 4795,
  "iers": 4796,
  "\u0120surround": 4797,
  "ipher": 4798,
  "\u0120suitable": 4799,
  "kens": 4800,
  "model": 4801,
  "NET": 4802,
  "\u0120^_^\",": 4803,
  "\u0120!": 4804,
  "\u0120id": 4805,
  "\u0120Thank": 4806,
  "\u0120Hand": 4807,
  "\u0120neural": 4808,
  "^{-": 4809,
  "eeling": 4810,
  "].": 4811,
  "utive": 4812,
  "DB": 4813,
  "ancing": 4814,
  "\u0120clar": 4815,
  "oyal": 4816,
  "erve": 4817,
  "venue": 4818,
  "ief": 4819,
  "\u0120James": 4820,
  "\u0120smallest": 4821,
  "\u0120searching": 4822,
  "hib": 4823,
  "\u01202002": 4824,
  "\u0120infin": 4825,
  "\u0120political": 4826,
  "\u0120stri": 4827,
  "\u0120Ham": 4828,
  "\u0120;)\",": 4829,
  "\u0120ax": 4830,
  ",\\\\": 4831,
  "west": 4832,
  "\u0120settings": 4833,
  "ole": 4834,
  "oph": 4835,
  "\u0120cele": 4836,
  "ders": 4837,
  "\u0120printf": 4838,
  "\u0120TV": 4839,
  "bru": 4840,
  "pace": 4841,
  "stain": 4842,
  "yt": 4843,
  "\u0120deli": 4844,
  "\u0120resid": 4845,
  "\u0120November": 4846,
  "\u01202010": 4847,
  "\u0120significantly": 4848,
  "\u0120December": 4849,
  "\u0120fall": 4850,
  "ruby": 4851,
  "\u0120October": 4852,
  "\u0120Pat": 4853,
  "\u0120themselves": 4854,
  "\u0120arri": 4855,
  "\u0120gradu": 4856,
  "uracy": 4857,
  ")=": 4858,
  "\u0120enable": 4859,
  "ef": 4860,
  "\u0120introduced": 4861,
  "\u0120oil": 4862,
  "\u0120wanted": 4863,
  "\u0120apart": 4864,
  "\u0120score": 4865,
  "\u0120JSON": 4866,
  "\u0120Instead": 4867,
  "\u0120welcome": 4868,
  "\u0120ou": 4869,
  "\u0120yet": 4870,
  "\u0120du": 4871,
  "\u0120java": 4872,
  "dri": 4873,
  "\u0120databases": 4874,
  "64": 4875,
  "atory": 4876,
  "\u0120walk": 4877,
  "sy": 4878,
  "\u0120Lu": 4879,
  "Feeling": 4880,
  "\u0120matches": 4881,
  "\u0120party": 4882,
  "\u0120Control": 4883,
  "\u0120materials": 4884,
  "CC": 4885,
  "\u0120knew": 4886,
  "pot": 4887,
  "\u0120ult": 4888,
  "\u0120mode": 4889,
  "\u0120limited": 4890,
  "\u0120automatically": 4891,
  "\u0120sem": 4892,
  "\u0120sustain": 4893,
  "\u0120critical": 4894,
  "\u0120fish": 4895,
  "\u0120Engine": 4896,
  "\u0120Group": 4897,
  "ooks": 4898,
  "\u0120elif": 4899,
  "gon": 4900,
  "\u0120stars": 4901,
  "\u0120align": 4902,
  "comes": 4903,
  "game": 4904,
  "\u0120pointers": 4905,
  "\u0120advantages": 4906,
  "==": 4907,
  "ael": 4908,
  "\u0120Fran": 4909,
  "enced": 4910,
  "\u00e0\u00a4\u00a4": 4911,
  "\u0120sends": 4912,
  "\u0120inj": 4913,
  "\u0120described": 4914,
  "\u0120achieved": 4915,
  "\u0120decided": 4916,
  "\u0120Bra": 4917,
  "\u0120external": 4918,
  "dimensional": 4919,
  "\u01202009": 4920,
  "net": 4921,
  "\u0120Living": 4922,
  "}.": 4923,
  "error": 4924,
  "\u0120connections": 4925,
  "36": 4926,
  "oe": 4927,
  "\u0120inform": 4928,
  "\u0120places": 4929,
  "anges": 4930,
  "\u0120Cour": 4931,
  "points": 4932,
  "\u0120meters": 4933,
  "\u0120animals": 4934,
  "\u0120APIs": 4935,
  "\u0120Earth": 4936,
  "\u0120imagine": 4937,
  "next": 4938,
  "\u0120Basic": 4939,
  "\u0120schools": 4940,
  "\u0120teams": 4941,
  "outhern": 4942,
  "rief": 4943,
  "println": 4944,
  "\u0120init": 4945,
  "imin": 4946,
  "\u0120beginning": 4947,
  "}$,": 4948,
  "\u01202001": 4949,
  "ded": 4950,
  "ensive": 4951,
  "\u0120Every": 4952,
  "\u0120temperature": 4953,
  "la": 4954,
  "\u0120Art": 4955,
  "\u0120multiply": 4956,
  "\u0120Today": 4957,
  "\u0120pict": 4958,
  "\u0120datasets": 4959,
  "\u0120Canadian": 4960,
  "alt": 4961,
  "\u0120repeated": 4962,
  "\u0120Form": 4963,
  "ube": 4964,
  "\u0120dark": 4965,
  "agement": 4966,
  "\u0120odd": 4967,
  "ership": 4968,
  "\u0120compare": 4969,
  "\u0120novel": 4970,
  "\u0120League": 4971,
  "\u0120developing": 4972,
  "\u0120Overall": 4973,
  "bruary": 4974,
  "\u0120password": 4975,
  "\u0120almost": 4976,
  "yond": 4977,
  "ouri": 4978,
  "\u0120dog": 4979,
  "\u00e0\u00a4\u0124": 4980,
  "\u0120util": 4981,
  "\u0120Tex": 4982,
  "ournal": 4983,
  "\u0120matter": 4984,
  "\u0120peace": 4985,
  "\u0120division": 4986,
  "\u0120Super": 4987,
  "\u0120manufact": 4988,
  "\u0120transfer": 4989,
  "alue": 4990,
  "='": 4991,
  "eper": 4992,
  "\u0120displ": 4993,
  "\u0120Sam": 4994,
  "squ": 4995,
  "\u0120Windows": 4996,
  "\u0120businesses": 4997,
  "\u012032": 4998,
  "\u0120Select": 4999,
  "stract": 5000,
  "\u0120mental": 5001,
  ":**": 5002,
  "\u0120retrieve": 5003,
  "acher": 5004,
  "Sim": 5005,
  "itely": 5006,
  "imately": 5007,
  "\u0120Vari": 5008,
  "\u0120divis": 5009,
  "\u0120acqu": 5010,
  "nov": 5011,
  "Net": 5012,
  "uce": 5013,
  "\u0120suff": 5014,
  "99": 5015,
  "itation": 5016,
  "std": 5017,
  "\u0120liter": 5018,
  "First": 5019,
  "ements": 5020,
  "hel": 5021,
  "OR": 5022,
  "care": 5023,
  "acing": 5024,
  "\u0120honestly": 5025,
  "\u0120Pen": 5026,
  "ighter": 5027,
  "\u0120veh": 5028,
  "gen": 5029,
  "\u0120assigned": 5030,
  "ulia": 5031,
  "\u0120audience": 5032,
  "bin": 5033,
  "\u0120simultaneously": 5034,
  "LL": 5035,
  "\u0120Sy": 5036,
  "\u0120Identify": 5037,
  "\u0120sleep": 5038,
  "ckets": 5039,
  "\u0120mechanism": 5040,
  "width": 5041,
  "df": 5042,
  "ilk": 5043,
  "\u0120notation": 5044,
  "\u0120serve": 5045,
  "0000": 5046,
  "\u0120election": 5047,
  "\u0120derivative": 5048,
  "aks": 5049,
  "cout": 5050,
  "\u0120cards": 5051,
  "oup": 5052,
  "\u0120Its": 5053,
  "\u0120practical": 5054,
  "\u0120Please": 5055,
  "\u0120runtime": 5056,
  "\u0120economic": 5057,
  "33": 5058,
  "70": 5059,
  "\u0120involving": 5060,
  "\u0120planning": 5061,
  "\u0120rot": 5062,
  "learn": 5063,
  "\u0120Gl": 5064,
  "\u0120communities": 5065,
  "\u0120currently": 5066,
  "\u0120songs": 5067,
  "\u0120mathematics": 5068,
  "\u0120selecting": 5069,
  "\u0120preprocessing": 5070,
  "char": 5071,
  "\u0120Angeles": 5072,
  "}$$": 5073,
  "atab": 5074,
  "\u0120documents": 5075,
  "\u0120mother": 5076,
  "vey": 5077,
  "\u0120Mult": 5078,
  "Id": 5079,
  "\u0120More": 5080,
  "\u0120Ste": 5081,
  "\u0120saw": 5082,
  "\u0120interp": 5083,
  "\u0120originally": 5084,
  "\u0120Ang": 5085,
  "\u0120vo": 5086,
  "ulated": 5087,
  "\u0120returned": 5088,
  "osen": 5089,
  "\u0120traffic": 5090,
  "\u0120buildings": 5091,
  "lism": 5092,
  "\u0120tuple": 5093,
  "\u0120platforms": 5094,
  "\u01201990": 5095,
  "\u0120Company": 5096,
  "\u0120Tre": 5097,
  "\u0120creation": 5098,
  "\u0120modules": 5099,
  "\u0120gave": 5100,
  "\u0120feedback": 5101,
  "\u0120highlight": 5102,
  "\u0120split": 5103,
  "Age": 5104,
  "\u0120bird": 5105,
  "ourney": 5106,
  "aj": 5107,
  "\u0120culture": 5108,
  "\u0120weeks": 5109,
  "\u0120concurrency": 5110,
  "\u0120hit": 5111,
  "\u0120IP": 5112,
  "ender": 5113,
  "\u0120Oh": 5114,
  "rete": 5115,
  "\u0120cam": 5116,
  "\u0120breath": 5117,
  "](": 5118,
  "\u0120dead": 5119,
  "\u0120expen": 5120,
  "metric": 5121,
  "\u0120RS": 5122,
  "rig": 5123,
  "\u0120secret": 5124,
  "onal": 5125,
  "table": 5126,
  "\u0120Ver": 5127,
  "\u0120interfaces": 5128,
  "\u0120leaves": 5129,
  "erry": 5130,
  "\u0120felt": 5131,
  "\u0120()": 5132,
  "po": 5133,
  "\u0120accuracy": 5134,
  "structure": 5135,
  "su": 5136,
  "\u0120breaking": 5137,
  "\u0120valu": 5138,
  "\u0120propos": 5139,
  "orphism": 5140,
  "\u0120toys": 5141,
  "\u0120sav": 5142,
  "\u0120Tom": 5143,
  "\u0120forward": 5144,
  "\u0120Pri": 5145,
  "\u0120tells": 5146,
  "\u0120engineering": 5147,
  "\u0120February": 5148,
  "\u0120Mo": 5149,
  "rames": 5150,
  "\u0120campa": 5151,
  "\u0120plants": 5152,
  "\u0120verify": 5153,
  "bon": 5154,
  "reed": 5155,
  "itory": 5156,
  "\u0120lives": 5157,
  "Oh": 5158,
  "type": 5159,
  "28": 5160,
  "\u0120Council": 5161,
  "\u0120looks": 5162,
  "aker": 5163,
  "\u0120Expl": 5164,
  "roy": 5165,
  "\u0120convert": 5166,
  "\u0120ahead": 5167,
  "iny": 5168,
  "local": 5169,
  "\u0120electric": 5170,
  "known": 5171,
  "\u0120render": 5172,
  "\u0120broadcast": 5173,
  "\u0120David": 5174,
  "\u0120Log": 5175,
  "ellow": 5176,
  "\u0120Optimizing": 5177,
  "\u0120arithmetic": 5178,
  "ificial": 5179,
  "\u0120Program": 5180,
  "ED": 5181,
  "where": 5182,
  "\u0120Are": 5183,
  "ya": 5184,
  "\u01202011": 5185,
  "\u0120Haskell": 5186,
  "ios": 5187,
  "\u0120Gover": 5188,
  "\u0120substit": 5189,
  "\u0120modular": 5190,
  "\u0120According": 5191,
  "\u0120reached": 5192,
  "\u0120countries": 5193,
  "\u0120checks": 5194,
  "\u0120indeed": 5195,
  "\u0120concise": 5196,
  "ierarch": 5197,
  "\u0120jQuery": 5198,
  "\u0120spaces": 5199,
  "\u0120Black": 5200,
  "ager": 5201,
  "\u0120Micro": 5202,
  "aged": 5203,
  "soft": 5204,
  "\u01201000": 5205,
  "\u0120jud": 5206,
  "\u0120worth": 5207,
  "\u0120stress": 5208,
  ")$.": 5209,
  "\u0120outcomes": 5210,
  "\u0120curve": 5211,
  "\u0120Church": 5212,
  "\u0120born": 5213,
  "\u0120seconds": 5214,
  "\u0120Records": 5215,
  "\u0120college": 5216,
  "\u0120upp": 5217,
  "rum": 5218,
  "\u0120####": 5219,
  "ned": 5220,
  "\u0120Happy": 5221,
  "ponent": 5222,
  "\u0120Our": 5223,
  "\u0120export": 5224,
  "eria": 5225,
  "\u0120sequences": 5226,
  "\u0120Given": 5227,
  "group": 5228,
  "\u0120bag": 5229,
  "elcome": 5230,
  "\u0120calculations": 5231,
  "ospital": 5232,
  "\u0120foundation": 5233,
  "\u0120matching": 5234,
  "\u0120Alice": 5235,
  "\u0120Main": 5236,
  "anguage": 5237,
  "bl": 5238,
  "\u0120?": 5239,
  "\u0120wrong": 5240,
  "\u0120squares": 5241,
  "\u0120albums": 5242,
  "\u0120approximately": 5243,
  "\u0120communicate": 5244,
  "\u0120Union": 5245,
  "\u0120emer": 5246,
  "version": 5247,
  "\u0120brother": 5248,
  "\u0120Configure": 5249,
  "\u0120enter": 5250,
  "\u0120daily": 5251,
  "\u0120interse": 5252,
  "xy": 5253,
  "\u0120AL": 5254,
  "istical": 5255,
  "\u0120Download": 5256,
  "embly": 5257,
  "ands": 5258,
  "idget": 5259,
  "\u0120Del": 5260,
  "\u0120rich": 5261,
  "\u0120instr": 5262,
  "\u0120surv": 5263,
  "ani": 5264,
  "\u0120Check": 5265,
  "\u0120father": 5266,
  "\u0120Docker": 5267,
  "\u0120Dem": 5268,
  "\u0120says": 5269,
  "else": 5270,
  "\u0120George": 5271,
  "\u0120Initial": 5272,
  "\u0120focused": 5273,
  "bing": 5274,
  "\u0120beyond": 5275,
  "35": 5276,
  "depend": 5277,
  "\u0120arrang": 5278,
  "\u0120Railway": 5279,
  "\u0120capacity": 5280,
  "\u0120selected": 5281,
  "\u012070": 5282,
  "\u0120People": 5283,
  "OP": 5284,
  "\u0120initialize": 5285,
  "\u0120saf": 5286,
  "lor": 5287,
  "itar": 5288,
  "\u0120combin": 5289,
  "We": 5290,
  "There": 5291,
  "\u0120flexible": 5292,
  "\u0120Back": 5293,
  "Core": 5294,
  "\u0120island": 5295,
  "\u0120)": 5296,
  "ads": 5297,
  "\u0120splendid": 5298,
  "\u0120office": 5299,
  "\u0120Year": 5300,
  "\u0120depends": 5301,
  "\u0120etc": 5302,
  "ubble": 5303,
  "\u0120fem": 5304,
  "atabase": 5305,
  "lication": 5306,
  "\u0120marbles": 5307,
  "cons": 5308,
  "\u0120Top": 5309,
  "\u0120Spring": 5310,
  "\u0120bur": 5311,
  "\u0120adult": 5312,
  "\u0120decre": 5313,
  "\u0120allowed": 5314,
  "$:": 5315,
  "\u0120optimizing": 5316,
  "\u0120everyone": 5317,
  "friend": 5318,
  "\u0120core": 5319,
  "ores": 5320,
  "MP": 5321,
  "\u0120fresh": 5322,
  "\u0120situation": 5323,
  "\u0120subproblems": 5324,
  "\u0120lies": 5325,
  "eds": 5326,
  "\u0120hous": 5327,
  "\u0120Texas": 5328,
  "\u0120civil": 5329,
  "\u0120Postgre": 5330,
  "\u0120wood": 5331,
  "\u0120plays": 5332,
  "cular": 5333,
  "\u0120ur": 5334,
  "\u0120&=": 5335,
  "wers": 5336,
  "icking": 5337,
  "\u0120trade": 5338,
  "eared": 5339,
  "\u0120Det": 5340,
  "\u0120triangle": 5341,
  "cient": 5342,
  "\u0120wind": 5343,
  "\u0120Central": 5344,
  "\u0120Linear": 5345,
  "ota": 5346,
  "\u0120Wash": 5347,
  "\u0120stranger": 5348,
  "\u0120priority": 5349,
  "\u0120satisfy": 5350,
  "\u0120cm": 5351,
  "\u0120veget": 5352,
  "lict": 5353,
  "\u0120holds": 5354,
  "\u0120contract": 5355,
  "\u0120float": 5356,
  "\u0120Imagine": 5357,
  "\u0120highest": 5358,
  "\u0120null": 5359,
  "\u0120lock": 5360,
  "\u0120Ital": 5361,
  "\u0120computers": 5362,
  "\u0120son": 5363,
  "itution": 5364,
  "\u0120Ins": 5365,
  "\u0120PostgreSQL": 5366,
  "\u0120cast": 5367,
  "\u0120tag": 5368,
  "rust": 5369,
  "NA": 5370,
  "Yes": 5371,
  "\u0120journey": 5372,
  "\u0120oppos": 5373,
  "\u0120ir": 5374,
  "input": 5375,
  "\u0120gold": 5376,
  "Hmm": 5377,
  "\u0120administ": 5378,
  "\u0120Association": 5379,
  "\u0120candid": 5380,
  "\u0120Mary": 5381,
  "ipal": 5382,
  "lay": 5383,
  "itance": 5384,
  "\u0120Best": 5385,
  "\u0120Green": 5386,
  "\u0120mist": 5387,
  "idden": 5388,
  "\u0120Two": 5389,
  "\u0120okay": 5390,
  "\u0120helped": 5391,
  "Find": 5392,
  "uzz": 5393,
  "\u0120concer": 5394,
  "Person": 5395,
  "\u0120ID": 5396,
  "\u0120defining": 5397,
  "\u0120Plot": 5398,
  "\u0120comfort": 5399,
  "\u0120Note": 5400,
  "'(": 5401,
  "ocols": 5402,
  "\u0120compile": 5403,
  "\u01201980": 5404,
  "lambda": 5405,
  "\u0120echo": 5406,
  "\u0120consistent": 5407,
  "\u0120scope": 5408,
  "Act": 5409,
  "ades": 5410,
  "eration": 5411,
  "\u0120clos": 5412,
  "\u01201999": 5413,
  "\u0120sni": 5414,
  "\u0120construction": 5415,
  "\u0120trend": 5416,
  "Car": 5417,
  "\u0120moments": 5418,
  "\u0120reaching": 5419,
  "\u0120quad": 5420,
  "\u0120cleaning": 5421,
  "\u0120insights": 5422,
  "Cap": 5423,
  "\u0120styles": 5424,
  "oop": 5425,
  "\u0120Cython": 5426,
  "\u0120male": 5427,
  "\u0120solid": 5428,
  "\u0120extends": 5429,
  "rm": 5430,
  "\u0120eh": 5431,
  "\u0120organizations": 5432,
  "\u0120ing": 5433,
  "lear": 5434,
  "\u0120GCD": 5435,
  "(-": 5436,
  "\u0120ordered": 5437,
  "\u0120scale": 5438,
  "\u0120belong": 5439,
  "\u0120whose": 5440,
  "color": 5441,
  "\u0120graphics": 5442,
  "\u0120reusable": 5443,
  "\u0120repos": 5444,
  "\u0120push": 5445,
  "\u0120Text": 5446,
  "hy": 5447,
  "\u0120brief": 5448,
  "\u0120stock": 5449,
  "create": 5450,
  "\u0120Access": 5451,
  "from": 5452,
  "\u0120article": 5453,
  "\u0120Custom": 5454,
  "uts": 5455,
  "\u0120finger": 5456,
  "\u0120executing": 5457,
  "\u0120safe": 5458,
  "\u0120Rich": 5459,
  "\u0120chosen": 5460,
  "\u0120hierarch": 5461,
  "\u0120smart": 5462,
  "Element": 5463,
  "\u0120doll": 5464,
  "\u0120activity": 5465,
  "++,": 5466,
  "ians": 5467,
  "\u0120protocols": 5468,
  "sql": 5469,
  "sequently": 5470,
  "\u0120scenario": 5471,
  "\u0120Mag": 5472,
  "\u0120ste": 5473,
  "mark": 5474,
  "het": 5475,
  "\u0120Game": 5476,
  "\u0120constructor": 5477,
  "DO": 5478,
  "\u0120watch": 5479,
  "\u0120Mor": 5480,
  "lab": 5481,
  "\u0120interval": 5482,
  "\u0120plots": 5483,
  "\u0120Ap": 5484,
  "\u0120ded": 5485,
  "iously": 5486,
  "\u0120please": 5487,
  "\u0120snipp": 5488,
  "\\\"\\\"": 5489,
  "\u0120Bre": 5490,
  "while": 5491,
  "\u0120movie": 5492,
  "\u0120checking": 5493,
  "\u0120120": 5494,
  "\u0120Met": 5495,
  "__(": 5496,
  "\u0120dealing": 5497,
  "\u0120slic": 5498,
  "VM": 5499,
  "nge": 5500,
  "abit": 5501,
  "\u0120passing": 5502,
  "cis": 5503,
  "\u0120Integr": 5504,
  "sw": 5505,
  "\u0120fruits": 5506,
  "\u0120generated": 5507,
  "\u0120summar": 5508,
  "\u0120Number": 5509,
  "\u0120Arrays": 5510,
  "append": 5511,
  "step": 5512,
  "\u0120heat": 5513,
  "\u0120cells": 5514,
  "\u0120Alex": 5515,
  "\u0120pounds": 5516,
  "\u0120anytime": 5517,
  "image": 5518,
  "ibonacci": 5519,
  "pare": 5520,
  "\u0120continues": 5521,
  "\u0120bright": 5522,
  "\u0120Law": 5523,
  "\u0120manipulating": 5524,
  "NS": 5525,
  "\u0120equiv": 5526,
  "\u0120bot": 5527,
  "\u0120hashing": 5528,
  "\u0120improving": 5529,
  "\u0120Bash": 5530,
  "\u0120receives": 5531,
  "house": 5532,
  "\u0120Educ": 5533,
  "ago": 5534,
  "\u0120wants": 5535,
  "\u0120evaluation": 5536,
  "\u0120attribute": 5537,
  "\u0120Building": 5538,
  "UDA": 5539,
  "olf": 5540,
  "\u0120exciting": 5541,
  "\\\";": 5542,
  "axis": 5543,
  "\u0120Rad": 5544,
  "27": 5545,
  "NT": 5546,
  "WS": 5547,
  "dient": 5548,
  "\u0120Vir": 5549,
  "\u0120promot": 5550,
  "\u0120Paul": 5551,
  "bar": 5552,
  "\u0120rectangle": 5553,
  ")/": 5554,
  "century": 5555,
  "\u0120Both": 5556,
  "\u0120Rock": 5557,
  "\u0120generally": 5558,
  "\u0120ter": 5559,
  "\u0120gram": 5560,
  "\u0120description": 5561,
  "\u0120filled": 5562,
  "azing": 5563,
  "\u0120reve": 5564,
  "\u0120li": 5565,
  "\u0120conditional": 5566,
  "\u0120cluster": 5567,
  "\u0120soon": 5568,
  "writ": 5569,
  "used": 5570,
  "\u0120profit": 5571,
  "\u0120boxes": 5572,
  "\u0120Working": 5573,
  "ops": 5574,
  "onds": 5575,
  "bmatrix": 5576,
  "\u0120bread": 5577,
  "rupt": 5578,
  "\u0120satellite": 5579,
  "PE": 5580,
  "oes": 5581,
  "\u0120sus": 5582,
  "aught": 5583,
  "\u0120removing": 5584,
  "Im": 5585,
  "\u0120Western": 5586,
  "\u0120movement": 5587,
  "city": 5588,
  "uest": 5589,
  "\u0120eventually": 5590,
  "\u0120schedu": 5591,
  "\u0120La": 5592,
  "\u0120exploring": 5593,
  "pat": 5594,
  "uel": 5595,
  "\u0120himself": 5596,
  "500": 5597,
  "GP": 5598,
  "\u0120shown": 5599,
  "\u0120Washington": 5600,
  "Col": 5601,
  "unc": 5602,
  "\u0120calculated": 5603,
  "\u0120happening": 5604,
  "date": 5605,
  "more": 5606,
  "\u0120wat": 5607,
  "\u0120immed": 5608,
  "\u01202012": 5609,
  "sey": 5610,
  "\u0120continued": 5611,
  "\u0120quantization": 5612,
  ")}": 5613,
  "\u0120safety": 5614,
  "\u0120vers": 5615,
  "\u0120accessed": 5616,
  "\u0120status": 5617,
  "\u0120tick": 5618,
  "\u0120dou": 5619,
  "\u012042": 5620,
  "inux": 5621,
  "iring": 5622,
  "\u0120extreme": 5623,
  "Sh": 5624,
  "\u0120Ro": 5625,
  "\u0120determined": 5626,
  "\u0120neighborhood": 5627,
  "beta": 5628,
  "\u0120apps": 5629,
  "\u0120session": 5630,
  "\u0120medical": 5631,
  "pm": 5632,
  "omb": 5633,
  "\u0120Conc": 5634,
  "\u0120spirit": 5635,
  "izz": 5636,
  "airs": 5637,
  "\u0120Hope": 5638,
  "\u0120opportunities": 5639,
  "\u0120Dask": 5640,
  "\u0120ran": 5641,
  "ga": 5642,
  "\u0120fight": 5643,
  "ij": 5644,
  "\u0120stage": 5645,
  "\u0120trig": 5646,
  "\u0120initially": 5647,
  "iter": 5648,
  "\u0120equals": 5649,
  "\u0120channel": 5650,
  "\u0120highly": 5651,
  "\u0120CD": 5652,
  "ruth": 5653,
  "\u0120dive": 5654,
  "\u0120Av": 5655,
  "ographic": 5656,
  "ql": 5657,
  "\u0120weights": 5658,
  "\u0120phone": 5659,
  "\u0120holding": 5660,
  "\u0120500": 5661,
  "\u0120Commun": 5662,
  "\u0120reliable": 5663,
  "\u0120isol": 5664,
  "Look": 5665,
  "\u0120Mal": 5666,
  "\u0120illust": 5667,
  "CA": 5668,
  "\u0120GPU": 5669,
  "\u0120labels": 5670,
  "unch": 5671,
  "\u0120Route": 5672,
  "flo": 5673,
  "person": 5674,
  "hold": 5675,
  "\u0120gas": 5676,
  "\u0120Click": 5677,
  "SL": 5678,
  "\u0120sports": 5679,
  "\u0120integral": 5680,
  "\u0120active": 5681,
  "olic": 5682,
  "\u0120cultural": 5683,
  "tures": 5684,
  "ida": 5685,
  "ki": 5686,
  "term": 5687,
  "arden": 5688,
  "+\\\\": 5689,
  "\u0120recent": 5690,
  "\u0120audio": 5691,
  "\u0120190": 5692,
  "rench": 5693,
  "\u0120maps": 5694,
  "\u01201998": 5695,
  "\u0120updates": 5696,
  "\u0120Bill": 5697,
  "\u0120remote": 5698,
  "\u0120parallelism": 5699,
  "hire": 5700,
  "ptr": 5701,
  "ports": 5702,
  "\u0120Neuro": 5703,
  "\u0120Efficient": 5704,
  "Capitalize": 5705,
  "orough": 5706,
  "\u0120abs": 5707,
  "\u0120Enter": 5708,
  "\u0120cities": 5709,
  "\u0120conclusion": 5710,
  "\u0120touch": 5711,
  "\u0120Second": 5712,
  "\u0120ren": 5713,
  "\u0120bud": 5714,
  "\u0120Music": 5715,
  "\u0120conduct": 5716,
  "\u0120climate": 5717,
  "\u0120conflict": 5718,
  "\u0120denote": 5719,
  "\u0120Elixir": 5720,
  "26": 5721,
  "Of": 5722,
  "\u0120founded": 5723,
  "vas": 5724,
  "ercial": 5725,
  "\u0120bask": 5726,
  "\u0120evidence": 5727,
  "conf": 5728,
  "\u0120Analyz": 5729,
  "irm": 5730,
  "\u0120Day": 5731,
  "ensity": 5732,
  "\u0120:)\",": 5733,
  "\u0120queries": 5734,
  "ibly": 5735,
  "bert": 5736,
  "ius": 5737,
  "\u0120appeared": 5738,
  "\u0120origin": 5739,
  "\u0120Columb": 5740,
  "\u0120Francis": 5741,
  "\u0120thus": 5742,
  "rome": 5743,
  "\u0120military": 5744,
  "position": 5745,
  "\u0120interpre": 5746,
  "bes": 5747,
  "\u0120bank": 5748,
  "\u0120statistical": 5749,
  "top": 5750,
  "\u0120grade": 5751,
  "\u0120repository": 5752,
  "\u0120synchron": 5753,
  "\u0120callback": 5754,
  "\u0120fant": 5755,
  "\u0120letters": 5756,
  "\u0120snippet": 5757,
  "izer": 5758,
  "\u0120interactions": 5759,
  "\u0120BitNet": 5760,
  "\u0120ALRA": 5761,
  "tree": 5762,
  "\u0120restaur": 5763,
  "LI": 5764,
  "\u0120sand": 5765,
  "endl": 5766,
  "\u0120placed": 5767,
  "lisp": 5768,
  "\u0120keeping": 5769,
  "column": 5770,
  "\u01202013": 5771,
  "xi": 5772,
  "rought": 5773,
  "\u0120finally": 5774,
  "\u0120cache": 5775,
  "\u0120Dr": 5776,
  ")`": 5777,
  "\u0120Hill": 5778,
  "phas": 5779,
  "\u0120subs": 5780,
  "\u0120Comput": 5781,
  "\u0120Center": 5782,
  "\u0120fully": 5783,
  "\u0120motiv": 5784,
  "tan": 5785,
  "\u0120aid": 5786,
  "\u0120deeper": 5787,
  "\u012029": 5788,
  "\u0120Spark": 5789,
  "\u0120advantage": 5790,
  "iveness": 5791,
  "\u0120Many": 5792,
  "life": 5793,
  "istan": 5794,
  "\u0120Express": 5795,
  "\u0120accom": 5796,
  "ipment": 5797,
  "\u00e0\u00a5\u0129": 5798,
  "\u0120Stand": 5799,
  "\u0120moves": 5800,
  "\u0120floating": 5801,
  "\u0120Robert": 5802,
  "\u0120300": 5803,
  "\u0120Hind": 5804,
  "\u0120textbook": 5805,
  "\u0120improved": 5806,
  "\u0120observ": 5807,
  "'],": 5808,
  "\u0120enables": 5809,
  "\u0120births": 5810,
  "\u0120storing": 5811,
  "\u0120Sen": 5812,
  "\u0120drive": 5813,
  "\u0120derived": 5814,
  "ued": 5815,
  "\u0120theorem": 5816,
  "\u0120stories": 5817,
  "\u0120specifically": 5818,
  "\u0120Also": 5819,
  "\u0120wait": 5820,
  "\u0120ultimately": 5821,
  "ipse": 5822,
  "\u0120studies": 5823,
  "\u0120choices": 5824,
  "\u0120responses": 5825,
  "amar": 5826,
  "\u0120enclo": 5827,
  "grees": 5828,
  "\u0120Leg": 5829,
  "\u0120logical": 5830,
  "\u0120subset": 5831,
  "\u0120transportation": 5832,
  "En": 5833,
  "\u01201970": 5834,
  "OT": 5835,
  "\u0120CUDA": 5836,
  "Array": 5837,
  "True": 5838,
  "heast": 5839,
  "\u0120Foot": 5840,
  "\u0120attacks": 5841,
  "\u0120General": 5842,
  "\u0120displays": 5843,
  "stud": 5844,
  "\u0120precise": 5845,
  "\u0120scientific": 5846,
  "ederal": 5847,
  "\u0120Techn": 5848,
  "\u0120generation": 5849,
  "driven": 5850,
  "ech": 5851,
  "Gener": 5852,
  "px": 5853,
  "\u0120eg": 5854,
  "\u0120coming": 5855,
  "\u0120alt": 5856,
  "phi": 5857,
  "\u0120View": 5858,
  "ertainly": 5859,
  "ounced": 5860,
  "\u0120cou": 5861,
  "\u0120lack": 5862,
  "\u0120Prom": 5863,
  "\u0120Most": 5864,
  "ondition": 5865,
  "\u0120XML": 5866,
  "\u0120discount": 5867,
  "\u0120potentially": 5868,
  "sm": 5869,
  "otlin": 5870,
  "Re": 5871,
  "\u0120scene": 5872,
  "\u0120prefer": 5873,
  "iliar": 5874,
  "\u0120recorded": 5875,
  "\u0120symbols": 5876,
  "\u0120Kingdom": 5877,
  "\u0120Michael": 5878,
  "\u0120(-": 5879,
  "orrow": 5880,
  "\u0120international": 5881,
  "\u0120tokens": 5882,
  "\u0120(`": 5883,
  "\u0120vary": 5884,
  "\u0120Applying": 5885,
  "\u0120investig": 5886,
  "\u0120inputs": 5887,
  "\u0120digit": 5888,
  "\u0120stronger": 5889,
  "][": 5890,
  "ows": 5891,
  "\u0120eat": 5892,
  "\u0120gall": 5893,
  "\u0120valuable": 5894,
  "band": 5895,
  "olk": 5896,
  "ibrary": 5897,
  "\u0120appearance": 5898,
  "Numb": 5899,
  "asy": 5900,
  "\u0120Public": 5901,
  "write": 5902,
  "\u0120ban": 5903,
  "ilarly": 5904,
  "\u0120Think": 5905,
  "\u0120river": 5906,
  "View": 5907,
  "isl": 5908,
  "\u012048": 5909,
  "\u0120promote": 5910,
  "Simply": 5911,
  "\u0120unc": 5912,
  "\u0120modeling": 5913,
  "\u0120throw": 5914,
  "\u0120ven": 5915,
  "\u0120User": 5916,
  "\u0120guitar": 5917,
  "Thread": 5918,
  "aled": 5919,
  "\u0120NeuroCore": 5920,
  "room": 5921,
  "redients": 5922,
  "\u0120boost": 5923,
  "\u0120dro": 5924,
  "\u0120`[": 5925,
  "prime": 5926,
  "heses": 5927,
  "\u0120healthy": 5928,
  "\u0120updated": 5929,
  "\u0120challenging": 5930,
  "\u0120Tw": 5931,
  "\u0120Tim": 5932,
  "\u0120records": 5933,
  "\u0120artificial": 5934,
  "\u0120animal": 5935,
  "\u0120Bel": 5936,
  "\u0120William": 5937,
  "\u0120UI": 5938,
  "\u0120woman": 5939,
  "\u0120Lou": 5940,
  "\u0120feelings": 5941,
  "\u0120showing": 5942,
  "\u0120percentage": 5943,
  "\u0120Series": 5944,
  "\u0120upper": 5945,
  "\u0120Flor": 5946,
  "\u0120covered": 5947,
  "\u0120parents": 5948,
  "\u0120degrees": 5949,
  "\u0120Los": 5950,
  "\u0120abstract": 5951,
  "\u01201996": 5952,
  "\u0120paid": 5953,
  "\u0120cipher": 5954,
  "olve": 5955,
  "\u0120giving": 5956,
  "\u0120Virgin": 5957,
  "Certainly": 5958,
  "\u0120hom": 5959,
  "rance": 5960,
  "};": 5961,
  "\u0120UK": 5962,
  "\u0120characteristics": 5963,
  "\u0120demand": 5964,
  "owns": 5965,
  "\u0120appears": 5966,
  "\u0120numerous": 5967,
  "Sc": 5968,
  "\u0120Represent": 5969,
  "\u0120Arch": 5970,
  "\u0120exceptions": 5971,
  "hesis": 5972,
  "\u0120volume": 5973,
  "\u0120macro": 5974,
  "\u0120contents": 5975,
  "\u01201997": 5976,
  "orrect": 5977,
  "\u0120tail": 5978,
  "\u0120balls": 5979,
  "quer": 5980,
  "\u0120Games": 5981,
  "\u012075": 5982,
  "inked": 5983,
  "\u0120blood": 5984,
  "hand": 5985,
  "road": 5986,
  "\u0120Republic": 5987,
  "button": 5988,
  "\u0120Champions": 5989,
  "apping": 5990,
  "downloads": 5991,
  "\u0120fiction": 5992,
  "arios": 5993,
  "\u0120magn": 5994,
  "\u0120mut": 5995,
  "\u0120mountain": 5996,
  "\u0120Carol": 5997,
  "\u0120voice": 5998,
  "DF": 5999,
  "ston": 6000,
  "\u0120detailed": 6001,
  "\u0120maintaining": 6002,
  "\u0120limitations": 6003,
  "hi": 6004,
  "\u0120Hash": 6005,
  "\u0120vi": 6006,
  "\u0120hoping": 6007,
  "double": 6008,
  "hing": 6009,
  "\u0120bul": 6010,
  "\u0120Sar": 6011,
  "\u0120tall": 6012,
  "\u0120trou": 6013,
  "\u0120Award": 6014,
  "ether": 6015,
  "\u0120segment": 6016,
  "\u0120Thom": 6017,
  "\u0120proud": 6018,
  "\u0120Party": 6019,
  "\u0120approaches": 6020,
  "\u0120Phil": 6021,
  "\u0120Exploring": 6022,
  "localhost": 6023,
  "\u0120picture": 6024,
  "rial": 6025,
  "\u0120Rs": 6026,
  "\u0120hands": 6027,
  "\u0120shell": 6028,
  "server": 6029,
  "\u0120Court": 6030,
  "MA": 6031,
  "iced": 6032,
  "\u0120Point": 6033,
  "\u0120powers": 6034,
  "{(": 6035,
  "icing": 6036,
  "\u0120explan": 6037,
  "\u0120Russ": 6038,
  "dist": 6039,
  "\u0120`.": 6040,
  "\u0120accessible": 6041,
  "\u0120managed": 6042,
  "\u0120establishments": 6043,
  "struct": 6044,
  "\u0120documentation": 6045,
  "\u0120sweet": 6046,
  "ictions": 6047,
  "\u0120bad": 6048,
  "leq": 6049,
  "\u0120Max": 6050,
  "\u0120Last": 6051,
  "\u0120generates": 6052,
  "\u0120absolutely": 6053,
  "\u0120Their": 6054,
  "\u0120ago": 6055,
  "\u0120learned": 6056,
  "urt": 6057,
  "\u0120weather": 6058,
  "\u0120introduce": 6059,
  "\u0120circuits": 6060,
  "\u0120ice": 6061,
  "\u0120convent": 6062,
  "\u0120society": 6063,
  "\u0120eight": 6064,
  "api": 6065,
  "azy": 6066,
  "dx": 6067,
  "\u0120eyes": 6068,
  "LP": 6069,
  "total": 6070,
  "aming": 6071,
  "\u0120partial": 6072,
  "\u0120trip": 6073,
  "Frank": 6074,
  "aling": 6075,
  "()`,": 6076,
  "\u0120locations": 6077,
  "values": 6078,
  "\u0120railway": 6079,
  "\u0120Fore": 6080,
  "\u0120chance": 6081,
  "\u0120versions": 6082,
  "\u0120although": 6083,
  "\u0120sections": 6084,
  "orms": 6085,
  "\u0120deeply": 6086,
  "199": 6087,
  "\u0120successfully": 6088,
  "\u0120radius": 6089,
  "\u0120Fin": 6090,
  "\u0120decrypt": 6091,
  "forward": 6092,
  "iet": 6093,
  "File": 6094,
  "\u0120tim": 6095,
  "\u0120cos": 6096,
  "\u0120relig": 6097,
  "\u0120Get": 6098,
  "\u0120denoted": 6099,
  "\u0120caused": 6100,
  "ensus": 6101,
  "Between": 6102,
  "\u0120emphas": 6103,
  "show": 6104,
  "\u0120evaluate": 6105,
  "\u0120coo": 6106,
  "\u0120Debug": 6107,
  "\u0120_": 6108,
  "itute": 6109,
  "\u0120tow": 6110,
  "allel": 6111,
  "ulner": 6112,
  "\u0120instances": 6113,
  "\u0120Research": 6114,
  "\u0120fraction": 6115,
  "\u0120Core": 6116,
  "\u0120concurrently": 6117,
  "\u0120serves": 6118,
  "\u0120configuring": 6119,
  "\u0120insertion": 6120,
  "del": 6121,
  "\u0120font": 6122,
  "\u0120leave": 6123,
  "\u0120decimal": 6124,
  "UI": 6125,
  "iost": 6126,
  "open": 6127,
  "\u0120inner": 6128,
  "\u0120Linux": 6129,
  "\u0120Even": 6130,
  "Button": 6131,
  "icients": 6132,
  "jk": 6133,
  "alpha": 6134,
  "46": 6135,
  "\u0120heard": 6136,
  "\u0120positions": 6137,
  "\u0120Erlang": 6138,
  "arest": 6139,
  "\u0120traversal": 6140,
  "\u0120travels": 6141,
  "Be": 6142,
  "\u0120Apple": 6143,
  "\u0120Lib": 6144,
  "\u0120manner": 6145,
  "\u0120microser": 6146,
  "\u0120Histor": 6147,
  "onestly": 6148,
  "\u0120boolean": 6149,
  "\u0120seems": 6150,
  "\u0120cd": 6151,
  "plicit": 6152,
  "\u0120scenarios": 6153,
  "\u0120capabilities": 6154,
  "\u0120plug": 6155,
  "AI": 6156,
  "solving": 6157,
  "\u0120Department": 6158,
  "\u0120toy": 6159,
  "\u0120bottom": 6160,
  "gence": 6161,
  "\u0120args": 6162,
  "\u0120ang": 6163,
  "\u0120{'": 6164,
  "inner": 6165,
  "\u0120eggs": 6166,
  "\u0120plane": 6167,
  "\u0120previously": 6168,
  "*}": 6169,
  "case": 6170,
  "FL": 6171,
  "\u0120reflecting": 6172,
  "onom": 6173,
  "\u0120Mach": 6174,
  "\u0120$|": 6175,
  "php": 6176,
  "alley": 6177,
  "\u0120Club": 6178,
  "istry": 6179,
  "\u0120Sl": 6180,
  "igma": 6181,
  "\u0120entry": 6182,
  "\u0120increases": 6183,
  "cessing": 6184,
  "\u0120Decl": 6185,
  "42": 6186,
  "\u0120Mr": 6187,
  "\u0120China": 6188,
  "\u0120ourselves": 6189,
  "\u0120calling": 6190,
  "\u0120Space": 6191,
  "Honestly": 6192,
  "\u0120blog": 6193,
  "mt": 6194,
  "\u0120fasc": 6195,
  "\u0120genetic": 6196,
  "\u0120hypot": 6197,
  "aughter": 6198,
  "pg": 6199,
  "antic": 6200,
  "\u0120layers": 6201,
  "Truth": 6202,
  "sive": 6203,
  "acement": 6204,
  "\u0120SE": 6205,
  "\u0120Sort": 6206,
  "SE": 6207,
  "\u0120teacher": 6208,
  "\u0120digits": 6209,
  "\u0120aspects": 6210,
  "\u0120bridge": 6211,
  "\u0120inches": 6212,
  "\u0120:=": 6213,
  "\u0120properly": 6214,
  "\u0120helping": 6215,
  "velte": 6216,
  "azine": 6217,
  "ightly": 6218,
  "\u0120(\\\\": 6219,
  "\u0120memo": 6220,
  "\u0120${": 6221,
  "Char": 6222,
  "eger": 6223,
  "All": 6224,
  "\u0120organized": 6225,
  "\u0120contact": 6226,
  "\u0120enhance": 6227,
  "iostream": 6228,
  "\u0120ancient": 6229,
  "rote": 6230,
  "\u0120replaced": 6231,
  "\u0120President": 6232,
  "\u0120episode": 6233,
  "Truthfully": 6234,
  "\u0120tab": 6235,
  "\u0120talked": 6236,
  "arbage": 6237,
  "mission": 6238,
  "cean": 6239,
  "\u0120comments": 6240,
  "\u0120French": 6241,
  "\u0120greet": 6242,
  "\u0120delete": 6243,
  "\u0120Suppose": 6244,
  "48": 6245,
  "stream": 6246,
  "\u0120inverse": 6247,
  "\u0120renew": 6248,
  "\u0120Ke": 6249,
  "\u0120Beautiful": 6250,
  "clud": 6251,
  "\u0120experiment": 6252,
  "\u0120Sch": 6253,
  "clus": 6254,
  "\u0120finite": 6255,
  "\u0120demonstrates": 6256,
  "Actually": 6257,
  "asp": 6258,
  "onym": 6259,
  "ilon": 6260,
  "\u0120butter": 6261,
  "tes": 6262,
  "with": 6263,
  "\u0120challenge": 6264,
  "\u0120Direct": 6265,
  "\u0120pipe": 6266,
  "\u0120Gr": 6267,
  "\u0120quar": 6268,
  "\u0120transformation": 6269,
  "\u0120presence": 6270,
  "defined": 6271,
  "find": 6272,
  "rem": 6273,
  "\u0120weak": 6274,
  "\u0120chem": 6275,
  "friendly": 6276,
  "\u0120Mathemat": 6277,
  "\u01201995": 6278,
  "\u0120Cr": 6279,
  "\u0120ship": 6280,
  "\u0120replace": 6281,
  "\u0120copy": 6282,
  "\u0120\"\\\"": 6283,
  "itors": 6284,
  "\u0120Sym": 6285,
  "\u0120award": 6286,
  "\u0120Mer": 6287,
  "ivot": 6288,
  "\u0120detection": 6289,
  "\u0120combine": 6290,
  "\u0120constantly": 6291,
  "banana": 6292,
  "\u0120hidden": 6293,
  "\u0120leaving": 6294,
  "\u0120strugg": 6295,
  "\u0120Project": 6296,
  "\u0120mood": 6297,
  "empl": 6298,
  "\u0120grand": 6299,
  "\u0120Gold": 6300,
  "State": 6301,
  "\u0120shapes": 6302,
  "\u0120pen": 6303,
  "\u0120Ah": 6304,
  "\u0120vulner": 6305,
  "\u0120Fibonacci": 6306,
  "\u0120corout": 6307,
  "\u0120identifying": 6308,
  "\u0120Writ": 6309,
  "\u0120advent": 6310,
  ".)": 6311,
  "\u0120]": 6312,
  "\u0120wild": 6313,
  "\u0120AWS": 6314,
  "---": 6315,
  "Pr": 6316,
  "ado": 6317,
  "\u0120Hall": 6318,
  "gr": 6319,
  "kins": 6320,
  "vised": 6321,
  "etes": 6322,
  "\u0120pressure": 6323,
  "\u0120Pop": 6324,
  "\u0120underlying": 6325,
  "dir": 6326,
  "\u0120milk": 6327,
  "\u0120meaningful": 6328,
  "sych": 6329,
  "\u0120discovered": 6330,
  "ND": 6331,
  "root": 6332,
  "\u0120Port": 6333,
  "\u0120Scott": 6334,
  "\u0120policy": 6335,
  "\u012031": 6336,
  "Frankly": 6337,
  "\u0120amazing": 6338,
  "\u0120remainder": 6339,
  "\u0120machines": 6340,
  "\u0120technologies": 6341,
  "aper": 6342,
  "\u0120brought": 6343,
  "edge": 6344,
  "\u0120heavy": 6345,
  "\u0120detail": 6346,
  "\u0120inspect": 6347,
  "\u0120police": 6348,
  "RI": 6349,
  "uge": 6350,
  "arse": 6351,
  "\u0120Creek": 6352,
  "\u0120commercial": 6353,
  "\u0120Although": 6354,
  "\u0120dependency": 6355,
  "\u0120turns": 6356,
  "leans": 6357,
  "also": 6358,
  "illa": 6359,
  "iform": 6360,
  "porary": 6361,
  "\u0120op": 6362,
  "apter": 6363,
  "\u0120classification": 6364,
  "cending": 6365,
  "\u0120removed": 6366,
  "\u0120Christian": 6367,
  "\u0120innov": 6368,
  "\u0120html": 6369,
  "\u0120iterate": 6370,
  "\u0120statistics": 6371,
  "\u0120Royal": 6372,
  "\u0120la": 6373,
  "AL": 6374,
  "\u0120assert": 6375,
  "ronic": 6376,
  "\u0120scripts": 6377,
  "\u0120Native": 6378,
  "\u01202020": 6379,
  "ylvan": 6380,
  "\u0120Specific": 6381,
  "\u01201994": 6382,
  "\u0120routes": 6383,
  "\u0120discover": 6384,
  "\u0120!=": 6385,
  "ibilities": 6386,
  "\u0120equivalent": 6387,
  "men": 6388,
  "ums": 6389,
  "\u0120Ant": 6390,
  "uristic": 6391,
  "\u0120gradient": 6392,
  "\u0120coefficients": 6393,
  "....": 6394,
  "\u0120Lovely": 6395,
  "\u0120Columbia": 6396,
  "source": 6397,
  "\u0120matplotlib": 6398,
  "\u0120Film": 6399,
  "\u0120bow": 6400,
  "\u0120Ben": 6401,
  "aint": 6402,
  "\u0120effort": 6403,
  "\u0120signals": 6404,
  "\u0120occurre": 6405,
  "\u0120European": 6406,
  "\u0120func": 6407,
  "\u0120seven": 6408,
  "\u0120finds": 6409,
  "\u0120environmental": 6410,
  "\u0120recognition": 6411,
  "\u0120Football": 6412,
  "eras": 6413,
  "ansion": 6414,
  "\u0120raised": 6415,
  "Time": 6416,
  "\u0120yellow": 6417,
  "\u0120income": 6418,
  "mult": 6419,
  "atial": 6420,
  "\u0120impl": 6421,
  "\u0120budget": 6422,
  "elly": 6423,
  "\u0120limits": 6424,
  "\u0120chatting": 6425,
  "ervation": 6426,
  "Des": 6427,
  "lands": 6428,
  "\u0120adjacent": 6429,
  "\u0120AM": 6430,
  "\u0120Apache": 6431,
  "\u0120basket": 6432,
  "ira": 6433,
  "thlet": 6434,
  "osed": 6435,
  "\u0120Mart": 6436,
  "\u0120Memory": 6437,
  "css": 6438,
  "Straight": 6439,
  "\u0120minimize": 6440,
  ")]": 6441,
  ".$": 6442,
  "\u0120150": 6443,
  "\u0120Bus": 6444,
  "oul": 6445,
  "\u0120Hy": 6446,
  "\u0120lend": 6447,
  "\u0120Lists": 6448,
  "\u0120performs": 6449,
  "\u0120navigation": 6450,
  "\u0120regarding": 6451,
  "rian": 6452,
  "\u0120plans": 6453,
  "\u0120growing": 6454,
  "\u0120bottle": 6455,
  "uk": 6456,
  "see": 6457,
  "\u0120reduced": 6458,
  "\u0120parentheses": 6459,
  "\u0120Smith": 6460,
  "\u0120cream": 6461,
  "\u0120equipment": 6462,
  "\u0120embed": 6463,
  "\u0120annot": 6464,
  "\u0120sell": 6465,
  "\u0120puzz": 6466,
  "ipped": 6467,
  "\u0120wife": 6468,
  "\u0120basis": 6469,
  "----------------": 6470,
  "ylvania": 6471,
  "\u0120inequ": 6472,
  "\u0120floor": 6473,
  "\u0120internal": 6474,
  "\u0120phr": 6475,
  "\u0120considering": 6476,
  "\u0120Rel": 6477,
  "\u0120couldn": 6478,
  "\u0120famous": 6479,
  "\u0120leads": 6480,
  "\u0120estimate": 6481,
  "\u0120Disc": 6482,
  "bre": 6483,
  "\u0120Att": 6484,
  "\u0120lic": 6485,
  "olid": 6486,
  "\u0120Connect": 6487,
  "query": 6488,
  "\u0120myst": 6489,
  "icago": 6490,
  "\u0120Roman": 6491,
  "\u0120rates": 6492,
  "\u0120kill": 6493,
  "\u0120guess": 6494,
  "\u0120completely": 6495,
  "\u0120robot": 6496,
  "Map": 6497,
  "Ser": 6498,
  "\u0120Dev": 6499,
  "\u0120carry": 6500,
  "amarin": 6501,
  "\u0120otherwise": 6502,
  "\u0120Impro": 6503,
  "\u0120simplify": 6504,
  "Tantra": 6505,
  "tracking": 6506,
  "\u0120clarity": 6507,
  "\u0120coordinates": 6508,
  "\u0120forces": 6509,
  "clipse": 6510,
  "\u0120declar": 6511,
  "\u0120historical": 6512,
  "\u0120Olympics": 6513,
  "water": 6514,
  "\u0120spend": 6515,
  "\u0120trib": 6516,
  "\u0120sen": 6517,
  "estival": 6518,
  "\u0120summer": 6519,
  "\u0120signed": 6520,
  "\u0120Overview": 6521,
  "By": 6522,
  "\u0120Sat": 6523,
  "\u0120Life": 6524,
  "\u0120||": 6525,
  "\u0120Science": 6526,
  "\u0120collaboration": 6527,
  "message": 6528,
  "agon": 6529,
  "\u0120scatter": 6530,
  "car": 6531,
  "frame": 6532,
  "\u0120Cong": 6533,
  "\u0120Mountain": 6534,
  "\u0120fruit": 6535,
  "\u0120closer": 6536,
  "/).": 6537,
  "unt": 6538,
  "\u0120modified": 6539,
  "\u0120flowers": 6540,
  "\u0120presented": 6541,
  "\u0120kern": 6542,
  "\u0120generator": 6543,
  "itiz": 6544,
  "\u0120Water": 6545,
  "\u01202014": 6546,
  "\u0120aware": 6547,
  "\u0120emotions": 6548,
  "\u0120Acade": 6549,
  "FX": 6550,
  "\u0120cycle": 6551,
  "TV": 6552,
  "cles": 6553,
  "\u0120attract": 6554,
  "\u0120forever": 6555,
  "\u0120African": 6556,
  "\u0120couple": 6557,
  "Ob": 6558,
  "\u0120infra": 6559,
  "\u0120roots": 6560,
  "\u0120Julia": 6561,
  "\u0120owned": 6562,
  "\u0120White": 6563,
  "\u0120physics": 6564,
  "active": 6565,
  "\u0120Service": 6566,
  "\u0120denomin": 6567,
  "\u0120Education": 6568,
  "crypt": 6569,
  "\u0120rain": 6570,
  "\u0120immutable": 6571,
  "\u0120Microsoft": 6572,
  "uler": 6573,
  "\u0120Thread": 6574,
  "Any": 6575,
  "\u0120sizes": 6576,
  "\u0120imag": 6577,
  "\u0120Valley": 6578,
  "\u0120elimin": 6579,
  "nsylvania": 6580,
  "\u0120church": 6581,
  "\u0120directories": 6582,
  "\u0120combinations": 6583,
  "AX": 6584,
  "\u0120Africa": 6585,
  "\u0120REST": 6586,
  "Un": 6587,
  "ifier": 6588,
  "\u0120Local": 6589,
  "\u0120referred": 6590,
  "\u0120influence": 6591,
  "\\\\)": 6592,
  "\u0120courage": 6593,
  "\u0120capture": 6594,
  "\u0120carbon": 6595,
  "onic": 6596,
  "\u0120older": 6597,
  "\u0120Jer": 6598,
  "\u0120declared": 6599,
  "\u0120mig": 6600,
  "\u0120objective": 6601,
  "UT": 6602,
  "\u0120predictions": 6603,
  "\u0120proport": 6604,
  "\u0120yields": 6605,
  "\u0120instrument": 6606,
  "tee": 6607,
  ",$": 6608,
  "gins": 6609,
  "\u0120Jim": 6610,
  "circ": 6611,
  "hr": 6612,
  "\u0120announced": 6613,
  "var": 6614,
  "atest": 6615,
  "\u0120eco": 6616,
  "\u0120notice": 6617,
  "scale": 6618,
  "\u0120>=": 6619,
  "Are": 6620,
  "hash": 6621,
  "\u0120actor": 6622,
  "\u0120proced": 6623,
  "\\\"]": 6624,
  "\u0120union": 6625,
  "\u0120coast": 6626,
  "\u0120Bur": 6627,
  "\u0120compat": 6628,
  "\u00e0\u00a4\u00a8": 6629,
  "\u0120distances": 6630,
  "\u0120concerns": 6631,
  "make": 6632,
  "\u0120invent": 6633,
  "\u0120definitely": 6634,
  "\u0120bed": 6635,
  "\u0120chick": 6636,
  "\u0120Star": 6637,
  "Res": 6638,
  "\u0120Environment": 6639,
  "\u0120applies": 6640,
  "iately": 6641,
  "tr": 6642,
  "inating": 6643,
  "\u0120increment": 6644,
  "nings": 6645,
  "\u0120expressed": 6646,
  "\u0120contrast": 6647,
  "\u0120Pennsylvania": 6648,
  "\u0120Virginia": 6649,
  "\u0120speak": 6650,
  "\u0120offic": 6651,
  "\u0120straightforward": 6652,
  "\u0120Prof": 6653,
  "\u0120Francisco": 6654,
  "AM": 6655,
  "diction": 6656,
  "\u0120nx": 6657,
  "\u0120Up": 6658,
  "ogram": 6659,
  "ffee": 6660,
  "\u0120median": 6661,
  "\u0120president": 6662,
  "\u0120\u00e0\u00a4\u00b9": 6663,
  "dict": 6664,
  "sit": 6665,
  "ilies": 6666,
  "ilder": 6667,
  "\u0120staff": 6668,
  "\u0120exhib": 6669,
  "\u0120Lua": 6670,
  "othing": 6671,
  "pected": 6672,
  "\u0120Variables": 6673,
  "stant": 6674,
  "\u0120slo": 6675,
  "igan": 6676,
  "HE": 6677,
  "style": 6678,
  "\u0120alone": 6679,
  "\u0120situations": 6680,
  "icated": 6681,
  "\u0120comment": 6682,
  "\u0120efforts": 6683,
  "velous": 6684,
  "\u0120entities": 6685,
  "\u0120protocol": 6686,
  "\u0120driving": 6687,
  "\u0120Japanese": 6688,
  "auty": 6689,
  "ico": 6690,
  "author": 6691,
  "\u0120gift": 6692,
  "\u0120dream": 6693,
  "\u0120incorrect": 6694,
  "ULL": 6695,
  "\u0120wave": 6696,
  "\u0120ble": 6697,
  "\u0120[]": 6698,
  "\u0120comparison": 6699,
  "books": 6700,
  "\u0120Pak": 6701,
  "\u0120193": 6702,
  "\u0120Comb": 6703,
  "\u0120campaign": 6704,
  "\u0120serving": 6705,
  "\u0120println": 6706,
  "\u0120computations": 6707,
  "\u0120raise": 6708,
  "\u0120reasons": 6709,
  "\u0120economy": 6710,
  "\u0120dru": 6711,
  "sign": 6712,
  "\u0120occas": 6713,
  "xml": 6714,
  "\u0120Pet": 6715,
  "\u0120treating": 6716,
  "\u0120Frank": 6717,
  "\u0120connecting": 6718,
  "\u01201960": 6719,
  "\u0120joined": 6720,
  "\u0120ingredients": 6721,
  "\u0120qual": 6722,
  "\u0120guest": 6723,
  "\u0120Cup": 6724,
  "Welcome": 6725,
  "\u0120pet": 6726,
  "this": 6727,
  "\u0120Northern": 6728,
  "\u0120kg": 6729,
  "\u0120Blue": 6730,
  "29": 6731,
  "\u0120fetch": 6732,
  "\u0120flavor": 6733,
  "\u0120answers": 6734,
  "\u0120fitness": 6735,
  "post": 6736,
  "\u0120reward": 6737,
  "\u0120nest": 6738,
  "\u0120assess": 6739,
  "\u0120Examples": 6740,
  "\u0120nearby": 6741,
  "BA": 6742,
  "oke": 6743,
  "heap": 6744,
  "mitted": 6745,
  "DD": 6746,
  "nel": 6747,
  "\u0120setup": 6748,
  "\u0120essentially": 6749,
  "\u0120frequently": 6750,
  "rical": 6751,
  "\u0120preferences": 6752,
  "\u0120wrote": 6753,
  "\u0120fig": 6754,
  "\u0120inference": 6755,
  "\u0120Come": 6756,
  "arian": 6757,
  "\u0120anyone": 6758,
  "\u0120rights": 6759,
  "\u0120puts": 6760,
  "well": 6761,
  "ockey": 6762,
  "\u0120capital": 6763,
  "\u0120Firebase": 6764,
  "je": 6765,
  "\u0120Health": 6766,
  "\u0120flu": 6767,
  "\u0120collected": 6768,
  "\u0120plain": 6769,
  "\u0120glass": 6770,
  "which": 6771,
  "\u0120sustainable": 6772,
  "tered": 6773,
  "\u0120tit": 6774,
  "\u0120Ev": 6775,
  "\u0120fourth": 6776,
  "01": 6777,
  "\u0120calculating": 6778,
  "TK": 6779,
  "area": 6780,
  "answer": 6781,
  "\u0120Prot": 6782,
  "\u0120recursively": 6783,
  "dest": 6784,
  "\u0120clim": 6785,
  "\u0120nothing": 6786,
  "\u01201993": 6787,
  "\u0120journal": 6788,
  "\u01202015": 6789,
  "\u0120featured": 6790,
  "\u0120magic": 6791,
  "\u0120consumer": 6792,
  "\u0120agent": 6793,
  "\u0120Scot": 6794,
  "\u0120engaging": 6795,
  "\u0120geometry": 6796,
  "\u0120cra": 6797,
  "\u0120gun": 6798,
  "\u01202016": 6799,
  "\u0120multiplying": 6800,
  "iors": 6801,
  "veloper": 6802,
  "\u0120finished": 6803,
  "\u0120worry": 6804,
  "ini": 6805,
  "\u0120organizing": 6806,
  "\u0120quantum": 6807,
  "\u0120Call": 6808,
  "\u0120purchase": 6809,
  "\u0120Boot": 6810,
  "\u0120dram": 6811,
  "fill": 6812,
  "\u01201992": 6813,
  "\u0120institution": 6814,
  "\u0120cheese": 6815,
  "\u0120elev": 6816,
  "Anytime": 6817,
  "\u0120Keep": 6818,
  "\u0120organize": 6819,
  "\u0120motion": 6820,
  "\u0120trends": 6821,
  "\u0120asked": 6822,
  "\u0120Florida": 6823,
  "han": 6824,
  "\u0120sparse": 6825,
  "\u0120artists": 6826,
  "\u0120indicates": 6827,
  "\u0120decorator": 6828,
  "!\\\")": 6829,
  "free": 6830,
  "\u0120Ill": 6831,
  "\u0120Exp": 6832,
  "\u0120recipe": 6833,
  "\u0120healthcare": 6834,
  "\u0120filtering": 6835,
  "push": 6836,
  "\u0120Joh": 6837,
  "\u0120dealloc": 6838,
  "\u0120prices": 6839,
  "\u0120nut": 6840,
  "related": 6841,
  "\u0120worst": 6842,
  "\u0120Upd": 6843,
  "\u0120kids": 6844,
  "ests": 6845,
  "ilver": 6846,
  "\u0120immediately": 6847,
  "\u0120prop": 6848,
  "\u0120manufacture": 6849,
  "pop": 6850,
  "\u0120Old": 6851,
  "\u0120familiar": 6852,
  "\u0120Specifically": 6853,
  "vironments": 6854,
  "\u0120sex": 6855,
  "\u0120amounts": 6856,
  "greg": 6857,
  "\u0120king": 6858,
  "queue": 6859,
  "IS": 6860,
  "\u0120Early": 6861,
  "\u0120Vol": 6862,
  "\u0120skin": 6863,
  "dig": 6864,
  "\u0120Oper": 6865,
  "\u0120Nor": 6866,
  "\u0120Kn": 6867,
  "\u0120Hen": 6868,
  "\u0120Mel": 6869,
  "\u0120Mass": 6870,
  "arg": 6871,
  "strap": 6872,
  "lam": 6873,
  "\u0120Elect": 6874,
  "\u0120God": 6875,
  "\u0120polic": 6876,
  "itz": 6877,
  "\u0120acade": 6878,
  "\u0120legal": 6879,
  "\u0120emotional": 6880,
  "pid": 6881,
  "\u0120denotes": 6882,
  "\u0120<!": 6883,
  "\u0120competition": 6884,
  "onday": 6885,
  "chers": 6886,
  "\u0120female": 6887,
  "\u0120resist": 6888,
  "\u0120hon": 6889,
  "\u0120Bi": 6890,
  "Component": 6891,
  "ourier": 6892,
  "inder": 6893,
  "ionally": 6894,
  "\u0120sea": 6895,
  "\u0120FFT": 6896,
  "\u0120Initialize": 6897,
  "CP": 6898,
  "\u0120Ho": 6899,
  "\u0120roles": 6900,
  "scala": 6901,
  "util": 6902,
  "\u0120400": 6903,
  "\u0120brown": 6904,
  "\u0120regist": 6905,
  "\u0120ends": 6906,
  "mathcal": 6907,
  "leton": 6908,
  "\u0120investment": 6909,
  "\u0120garbage": 6910,
  "\u0120reads": 6911,
  "\u0120owner": 6912,
  "\u0120turned": 6913,
  "]:": 6914,
  "vals": 6915,
  "\u0120Camp": 6916,
  "valu": 6917,
  "YPE": 6918,
  "mosp": 6919,
  "\u0120simulation": 6920,
  "400": 6921,
  "\u0120Further": 6922,
  "\u0120incred": 6923,
  "\u0120encoura": 6924,
  "\u0120logging": 6925,
  "\u0120combining": 6926,
  "\u0120responsive": 6927,
  "\u0120Ty": 6928,
  "\u0120iOS": 6929,
  "\u0120bind": 6930,
  "\u0120director": 6931,
  "\u0120doub": 6932,
  "Se": 6933,
  "ithread": 6934,
  "\u0120spot": 6935,
  "\u0120Despite": 6936,
  "\u0120launch": 6937,
  "Flow": 6938,
  "\u0120capt": 6939,
  "\u0120Mont": 6940,
  "ola": 6941,
  "\u0120join": 6942,
  "()`:": 6943,
  "\u0120Talk": 6944,
  "\u0120consistently": 6945,
  "ealand": 6946,
  "\u0120officially": 6947,
  "\u0120MySQL": 6948,
  "\u0120humans": 6949,
  "\u0120destroy": 6950,
  ".$$": 6951,
  ":\\\",": 6952,
  "\u0120causing": 6953,
  "\u0120Numba": 6954,
  "\u0120surprising": 6955,
  "filter": 6956,
  "chain": 6957,
  "\u0120Language": 6958,
  "\u0120tang": 6959,
  "connect": 6960,
  "Bob": 6961,
  "\u0120pure": 6962,
  "ector": 6963,
  "\u0120Zealand": 6964,
  "\u0120encaps": 6965,
  "\u0120views": 6966,
  "gl": 6967,
  "\u0120hospital": 6968,
  "\u0120threat": 6969,
  "\u0120treatment": 6970,
  "alloc": 6971,
  "verything": 6972,
  "\u0120identical": 6973,
  "trans": 6974,
  "\u0120rank": 6975,
  "\u0120waste": 6976,
  "\u0120},": 6977,
  "ifications": 6978,
  "\u0120Team": 6979,
  "\u0120Georg": 6980,
  "\u0120cookies": 6981,
  "\u0120dot": 6982,
  "\u012064": 6983,
  "\u0120productive": 6984,
  "\u0120gather": 6985,
  "\u0120lightweight": 6986,
  "\u0120Institute": 6987,
  "\u0120asyncio": 6988,
  "\u0120cert": 6989,
  "\u0120tex": 6990,
  "\u0120appoint": 6991,
  "\u0120describes": 6992,
  "\u0120channels": 6993,
  "zen": 6994,
  "\u0120Lear": 6995,
  "DataFrame": 6996,
  "\u0120Machine": 6997,
  "orch": 6998,
  "pression": 6999,
  "overy": 7000,
  "\u0120relative": 7001,
  "\u0120flexibility": 7002,
  "\u0120Social": 7003,
  "\u0120Sal": 7004,
  "\u0120ris": 7005,
  "\u0120outcome": 7006,
  "\u0120eth": 7007,
  "igm": 7008,
  "\u0120Book": 7009,
  "inese": 7010,
  "\u0120\u00e0\u00a4\u00ae": 7011,
  "mu": 7012,
  "ref": 7013,
  "\u0120hesit": 7014,
  "\u0120classic": 7015,
  "\u0120listed": 7016,
  "\u0120metrics": 7017,
  "\u0120categor": 7018,
  "\u0120dollars": 7019,
  "bur": 7020,
  "\u0120environments": 7021,
  "\u0120recall": 7022,
  "\u0120ol": 7023,
  "\u0120becoming": 7024,
  "\u0120geometric": 7025,
  "\u0120exchange": 7026,
  "\u01202018": 7027,
  "current": 7028,
  "anning": 7029,
  "\u0120(\\\"": 7030,
  "\u0120advert": 7031,
  "product": 7032,
  "Model": 7033,
  "\u0120exerc": 7034,
  "\u0120Key": 7035,
  "\u0120Army": 7036,
  "ircraft": 7037,
  "\u0120compilation": 7038,
  "\u0120slightly": 7039,
  "\u0120damage": 7040,
  "\u0120Victor": 7041,
  "ocolate": 7042,
  "ander": 7043,
  "\u0120Xamarin": 7044,
  "\u0120contribute": 7045,
  "\u0120Bank": 7046,
  "\u0120Hol": 7047,
  "angular": 7048,
  "\u0120expon": 7049,
  "\u0120Algorithm": 7050,
  "\u01201991": 7051,
  "\u0120tried": 7052,
  "\u0120Sk": 7053,
  "\u0120Bal": 7054,
  "\u0120Map": 7055,
  "\u0120weap": 7056,
  "\u0120rise": 7057,
  "\u0120herself": 7058,
  "\u0120finish": 7059,
  "\u0120selling": 7060,
  "Line": 7061,
  "\u0120corner": 7062,
  "\u0120http": 7063,
  "\u0120proceed": 7064,
  "\u0120pool": 7065,
  "\u0120Real": 7066,
  "78": 7067,
  "ipl": 7068,
  "inn": 7069,
  "\u0120pivot": 7070,
  "\u0120Whe": 7071,
  "\u0120infrastructure": 7072,
  "making": 7073,
  "\u0120fold": 7074,
  "\u0120bubble": 7075,
  "\u0120breakpoint": 7076,
  "\u0120consequ": 7077,
  "ormal": 7078,
  "\u0120188": 7079,
  "\u0120Democ": 7080,
  "\u0120Az": 7081,
  "\u0120integrated": 7082,
  "\u0120obtained": 7083,
  "\u0120vict": 7084,
  "\u0120Hig": 7085,
  "\u0120jump": 7086,
  "\u0120regions": 7087,
  "\u0120optimized": 7088,
  "ambigu": 7089,
  "He": 7090,
  "\u0120stick": 7091,
  "\u0120ring": 7092,
  "AP": 7093,
  "\u0120Search": 7094,
  "\u0120Pal": 7095,
  "\u0120counting": 7096,
  "nor": 7097,
  "adium": 7098,
  "\u0120JavaFX": 7099,
  "imensions": 7100,
  "urance": 7101,
  "\u0120priorit": 7102,
  "vantages": 7103,
  "label": 7104,
  "\u0120Wood": 7105,
  "\u0120recip": 7106,
  "\u0120portion": 7107,
  "your": 7108,
  "oses": 7109,
  "\u0120converting": 7110,
  "\u0120driver": 7111,
  "CTED": 7112,
  "\u0120examine": 7113,
  "\u0120danger": 7114,
  "\u0120street": 7115,
  "\u0120Color": 7116,
  "\u0120hyd": 7117,
  "Graph": 7118,
  "aten": 7119,
  "\u0120differential": 7120,
  "\u0120allocated": 7121,
  "esian": 7122,
  "utch": 7123,
  "\u0120Eclipse": 7124,
  "\u0120visualize": 7125,
  "CTYPE": 7126,
  "itoring": 7127,
  "\u0120Hum": 7128,
  "\u0120unne": 7129,
  "\u0120supply": 7130,
  ".\\\")": 7131,
  "mers": 7132,
  "\u0120Care": 7133,
  "\u0120comparing": 7134,
  "\u0120dogs": 7135,
  "\u0120German": 7136,
  "\u0120Carolina": 7137,
  "gu": 7138,
  "\u0120prem": 7139,
  "\u0120salt": 7140,
  "annel": 7141,
  "DOCTYPE": 7142,
  "\u0120Chicago": 7143,
  "float": 7144,
  "cor": 7145,
  "stdio": 7146,
  "\u0120Parallel": 7147,
  "\u0120Similarly": 7148,
  "\u0120composed": 7149,
  "output": 7150,
  "sers": 7151,
  "\u0120Louis": 7152,
  "76": 7153,
  "II": 7154,
  "vari": 7155,
  "token": 7156,
  "\u0120widget": 7157,
  "\u0120Age": 7158,
  "\u0120partition": 7159,
  "\u0120writer": 7160,
  "REDA": 7161,
  "\u0120comprehensive": 7162,
  "jkstra": 7163,
  "core": 7164,
  "\u0120Tr": 7165,
  "omic": 7166,
  "plete": 7167,
  "\u0120atmosp": 7168,
  "\u0120newsp": 7169,
  "range": 7170,
  "\u0120addressing": 7171,
  "REDACTED": 7172,
  "\u0120vib": 7173,
  "\u0120leader": 7174,
  "prints": 7175,
  "\u0120munic": 7176,
  "mediate": 7177,
  "\u0120categories": 7178,
  "orter": 7179,
  "\u0120Cath": 7180,
  "\u0120workers": 7181,
  "mean": 7182,
  "Red": 7183,
  "utral": 7184,
  "\u0120Hot": 7185,
  "comm": 7186,
  "\u0120News": 7187,
  "\u0120Found": 7188,
  "\u0120visualizations": 7189,
  "CL": 7190,
  "draw": 7191,
  "\u0120Peter": 7192,
  "ubern": 7193,
  "\u0120colon": 7194,
  "\u0120scalable": 7195,
  "\u0120horiz": 7196,
  "\u0120Cap": 7197,
  "ATE": 7198,
  "\u0120respective": 7199,
  "boxed": 7200,
  "Value": 7201,
  "duction": 7202,
  "\u0120interview": 7203,
  "square": 7204,
  "\u0120actors": 7205,
  "\u0120probably": 7206,
  "eros": 7207,
  "\u0120wra": 7208,
  "\u0120beauty": 7209,
  "\u0120mapping": 7210,
  "\u0120designing": 7211,
  "\u0120choosing": 7212,
  "({": 7213,
  "\u0120Land": 7214,
  "\u0120ideal": 7215,
  "\u0120Government": 7216,
  "\u0120wall": 7217,
  "\u0120Tensor": 7218,
  "\u0120coffee": 7219,
  "\u01202019": 7220,
  "\u0120Fact": 7221,
  "\u0120filters": 7222,
  "reg": 7223,
  "\u0120Ber": 7224,
  "\u0120hair": 7225,
  "\u0120adopt": 7226,
  "\u0120sending": 7227,
  "\u0120dictionaries": 7228,
  "\u0120NULL": 7229,
  "\u0120duplic": 7230,
  "IDE": 7231,
  "\u0120Dynamic": 7232,
  "\u0120shad": 7233,
  "\u0120certainly": 7234,
  "\u0120eigen": 7235,
  "\u0120arbit": 7236,
  "\u0120excited": 7237,
  "\u0120repeat": 7238,
  "page": 7239,
  "\u0120Society": 7240,
  "ride": 7241,
  "osh": 7242,
  "\u0120warms": 7243,
  "\u0120clients": 7244,
  "arsh": 7245,
  "\u0120189": 7246,
  "\u0120tack": 7247,
  "\u0120Seriously": 7248,
  "\u0120Debugging": 7249,
  "\u0120Linked": 7250,
  "\u0120patient": 7251,
  "\u0120sister": 7252,
  "\u0120bags": 7253,
  "\u0120animation": 7254,
  "\u0120candidate": 7255,
  "fection": 7256,
  "itan": 7257,
  "\u0120Radio": 7258,
  "\u0120File": 7259,
  "$)": 7260,
  "\u0120quadratic": 7261,
  "\u0120nearest": 7262,
  "\u0120Division": 7263,
  "ingu": 7264,
  "\u0120Tor": 7265,
  "ective": 7266,
  "\u0120reduces": 7267,
  "rd": 7268,
  "arant": 7269,
  "\u0120produces": 7270,
  "\u0120occup": 7271,
  "fru": 7272,
  "no": 7273,
  "\u0120customize": 7274,
  "\u0120Wales": 7275,
  "\u0120Library": 7276,
  "ideos": 7277,
  "\u0120pix": 7278,
  "\u0120Tri": 7279,
  "\u0120Through": 7280,
  "\u0120implements": 7281,
  "Text": 7282,
  "\u0120interpret": 7283,
  "\u0120fault": 7284,
  "\u0120permissions": 7285,
  "\u0120unnecessary": 7286,
  "\u0120citiz": 7287,
  "\u0120Kore": 7288,
  "\u0120glo": 7289,
  "unct": 7290,
  "fered": 7291,
  "\u0120poll": 7292,
  "\u0120reality": 7293,
  "\u0120debut": 7294,
  "\u0120Ire": 7295,
  "\u0120bucket": 7296,
  "eled": 7297,
  "\u0120Middle": 7298,
  "\u0120renewable": 7299,
  "atitude": 7300,
  "amma": 7301,
  "\u0120defe": 7302,
  "\u0120transition": 7303,
  "\u0120dx": 7304,
  "\u0120Mad": 7305,
  "\u0120repeatedly": 7306,
  "\u0120Val": 7307,
  "\u0120supporting": 7308,
  "\u0120synchronization": 7309,
  "itivity": 7310,
  "\u0120habit": 7311,
  "\u0120prove": 7312,
  "\u0120Nature": 7313,
  "\u0120operated": 7314,
  "item": 7315,
  "\u0120Such": 7316,
  "\u0120minor": 7317,
  "\u0120Coll": 7318,
  "ucl": 7319,
  "uling": 7320,
  "aby": 7321,
  "\u0120cop": 7322,
  "\u0120significance": 7323,
  "\u0120iteration": 7324,
  "\u0120indicate": 7325,
  "RM": 7326,
  "ano": 7327,
  "\u0120conven": 7328,
  "\u0120Navig": 7329,
  "hour": 7330,
  "\u0120dimensions": 7331,
  "utations": 7332,
  "\u0120ju": 7333,
  "\u0120greedy": 7334,
  "\u0120parad": 7335,
  "opy": 7336,
  "\u0120composition": 7337,
  "Set": 7338,
  "aked": 7339,
  "\u0120integrate": 7340,
  "ooting": 7341,
  "\u0120salary": 7342,
  "relation": 7343,
  "pire": 7344,
  "\u0120Power": 7345,
  "\u0120Show": 7346,
  "\u0120sugar": 7347,
  "\u0120updating": 7348,
  "\u0120Summer": 7349,
  "\u0120expensive": 7350,
  "AG": 7351,
  "fall": 7352,
  "\u0120Cast": 7353,
  "\u0120Fort": 7354,
  "\u0120appeal": 7355,
  "\u0120containers": 7356,
  "\u0120planet": 7357,
  "\u0120cryptography": 7358,
  "\u0120tend": 7359,
  "\u0120bits": 7360,
  "\u0120Bridge": 7361,
  "\u012034": 7362,
  "\u0120inequality": 7363,
  "tion": 7364,
  "().": 7365,
  "\u0120analyt": 7366,
  "\u0120Sur": 7367,
  "\u0120generating": 7368,
  "\u0120Broad": 7369,
  "ambiguation": 7370,
  "\\\\\\\\": 7371,
  "\u0120Thomas": 7372,
  "true": 7373,
  "vin": 7374,
  "\u0120resolution": 7375,
  "\u0120descent": 7376,
  "\u0120parties": 7377,
  "\u0120improvement": 7378,
  "\u0120category": 7379,
  "\u0120`@": 7380,
  "\u0120architect": 7381,
  "\u0120menu": 7382,
  "olation": 7383,
  "\u0120bugs": 7384,
  "\u0120USA": 7385,
  "ubernetes": 7386,
  "ona": 7387,
  "\u0120opportunity": 7388,
  "gn": 7389,
  "}_": 7390,
  "\u0120explicit": 7391,
  "\u0120reported": 7392,
  "\u0120disease": 7393,
  "\u0120Angular": 7394,
  "lete": 7395,
  "\u0120closure": 7396,
  "\u0120offered": 7397,
  "/)": 7398,
  "MS": 7399,
  "atre": 7400,
  "\u0120batter": 7401,
  "\u0120rese": 7402,
  "angles": 7403,
  "\u0120Remove": 7404,
  "=(": 7405,
  "\u0120shift": 7406,
  "utex": 7407,
  "anta": 7408,
  "\u0120revenue": 7409,
  "force": 7410,
  "\u0120elected": 7411,
  "rapy": 7412,
  "\u0120mission": 7413,
  "Love": 7414,
  "\u0120gem": 7415,
  "\u0120mur": 7416,
  "child": 7417,
  "\u0120Ri": 7418,
  "\u0120yours": 7419,
  "zero": 7420,
  "\u0120delic": 7421,
  "\u0120Ent": 7422,
  "\u0120Fourier": 7423,
  "azon": 7424,
  "\u0120assistance": 7425,
  "\u0120Standard": 7426,
  "\u0120psych": 7427,
  "ada": 7428,
  "\u0120websites": 7429,
  "build": 7430,
  "\u0120Pos": 7431,
  "\u0120Declare": 7432,
  "\u0120kernel": 7433,
  "\u0120indicating": 7434,
  "\u0120eye": 7435,
  "\u0120nuc": 7436,
  "^{\\\\": 7437,
  "\u0120southern": 7438,
  "\u0120lived": 7439,
  "\u0120heuristic": 7440,
  "\u0120('": 7441,
  "\u0120voc": 7442,
  "func": 7443,
  "\u0120vibes": 7444,
  "\u0120Method": 7445,
  "liers": 7446,
  "\u0120primarily": 7447,
  "\u0120Replace": 7448,
  "\u0120termin": 7449,
  "\u0120interested": 7450,
  "\u0120hal": 7451,
  "\u0120scaling": 7452,
  "\u0120grant": 7453,
  "LECT": 7454,
  "\u0120Ca": 7455,
  "\u0120Cy": 7456,
  "\u0120passes": 7457,
  "\u0120Cat": 7458,
  "\u0120buff": 7459,
  "liament": 7460,
  "lers": 7461,
  "icket": 7462,
  "linear": 7463,
  "\u0120180": 7464,
  "Generate": 7465,
  "\u0120tough": 7466,
  "\u0120phil": 7467,
  "ranches": 7468,
  "\u0120fascinating": 7469,
  "rain": 7470,
  "\u0120Mong": 7471,
  "\u0120musical": 7472,
  "\u0120gap": 7473,
  "\u0120garden": 7474,
  "\u0120poem": 7475,
  "\u0120accessing": 7476,
  "element": 7477,
  "Wow": 7478,
  "\u0120SGP": 7479,
  "\u01202017": 7480,
  "disambiguation": 7481,
  "atural": 7482,
  "\u0120clock": 7483,
  "\u0120Tur": 7484,
  "\u0120arrow": 7485,
  "phone": 7486,
  "\u0120Organ": 7487,
  "\u0120drawing": 7488,
  "\u0120Sarah": 7489,
  "ishes": 7490,
  "\u0120roll": 7491,
  "\u0120opposite": 7492,
  "\u0120pull": 7493,
  "\u0120died": 7494,
  "\u0120wonder": 7495,
  "\u0120vehicles": 7496,
  "\u0120intersection": 7497,
  "\u0120boy": 7498,
  "\u0120Atl": 7499,
  "\u0120initi": 7500,
  "burg": 7501,
  "stone": 7502,
  "args": 7503,
  "\u0120Save": 7504,
  "\u0120formats": 7505,
  "\u0120producer": 7506,
  "\u0120Like": 7507,
  "\u0120Kubernetes": 7508,
  "\u0120entity": 7509,
  "sharp": 7510,
  "wide": 7511,
  "\u0120operate": 7512,
  "\u0120happens": 7513,
  "\u0120dance": 7514,
  "\u0120celeb": 7515,
  ".\"}": 7516,
  "\u0120\"\",": 7517,
  "\u0120fantastic": 7518,
  "\u0120arbitr": 7519,
  "300": 7520,
  "ativity": 7521,
  "async": 7522,
  "\u0120lon": 7523,
  "iply": 7524,
  "config": 7525,
  "\u0120Cross": 7526,
  "\u0120Have": 7527,
  "\u0120scores": 7528,
  "\u0120Chinese": 7529,
  "\u0120backtracking": 7530,
  "\u0120studio": 7531,
  "\u0120186": 7532,
  "1000": 7533,
  "\u0120Gen": 7534,
  "\u0120drag": 7535,
  "\u0120swim": 7536,
  "Em": 7537,
  "arithm": 7538,
  "pling": 7539,
  "\u0120grew": 7540,
  "fin": 7541,
  "\u0120thoughts": 7542,
  "ROM": 7543,
  "\u0120Event": 7544,
  "\u0120enclosed": 7545,
  "Object": 7546,
  "Function": 7547,
  "NN": 7548,
  "oration": 7549,
  "ittle": 7550,
  "\u0120unknown": 7551,
  "neg": 7552,
  "\u0120charts": 7553,
  ")*": 7554,
  "SS": 7555,
  "\u0120pig": 7556,
  "\u0120Wonderful": 7557,
  "\u0120Of": 7558,
  "\u0120recently": 7559,
  "\u0120department": 7560,
  "\u0120narr": 7561,
  "\u0120`-": 7562,
  "\u0120compression": 7563,
  "\u0120combines": 7564,
  "web": 7565,
  "\u0120hesitate": 7566,
  "\u0120families": 7567,
  "55": 7568,
  "\u0120dress": 7569,
  "hers": 7570,
  "\u0120perfection": 7571,
  "\u0120Georgia": 7572,
  "CH": 7573,
  "\u0120Had": 7574,
  "\u0120Lim": 7575,
  "\u0120overview": 7576,
  "\u0120court": 7577,
  "atin": 7578,
  "\u0120policies": 7579,
  "Man": 7580,
  "\u0120subsequ": 7581,
  "\u0120benefit": 7582,
  "erate": 7583,
  "\u0120PM": 7584,
  "\u0120Da": 7585,
  "198": 7586,
  "efficient": 7587,
  "\u0120Non": 7588,
  "\u00e0\u00a4\u00bf": 7589,
  "\u0120earned": 7590,
  "\u0120loading": 7591,
  "\u0120extremely": 7592,
  "^\\\\": 7593,
  "}}{": 7594,
  "\u0120lazy": 7595,
  "\u01201988": 7596,
  "\u0120earth": 7597,
  "\u0120risks": 7598,
  "\u0120poor": 7599,
  "\u0120determining": 7600,
  "ikit": 7601,
  "\u0120accompl": 7602,
  "\u0120proof": 7603,
  "\u0120Wal": 7604,
  "\u0120indexing": 7605,
  "\u0120collision": 7606,
  "\u0120tensor": 7607,
  "ician": 7608,
  "\u0120Player": 7609,
  "JS": 7610,
  "\u0120pizz": 7611,
  "\u0120serial": 7612,
  "\u0120denominator": 7613,
  "mas": 7614,
  "then": 7615,
  "\u0120resear": 7616,
  "eon": 7617,
  "\u0120battle": 7618,
  "\u0120Awards": 7619,
  "vere": 7620,
  "\u0120Song": 7621,
  "plex": 7622,
  "\u0120Kotlin": 7623,
  "\u0120frameworks": 7624,
  "rab": 7625,
  "\u01201989": 7626,
  "lihood": 7627,
  "\u0120`(": 7628,
  "\u0120covers": 7629,
  "\u0120mixed": 7630,
  "\u0120surrounding": 7631,
  "\u0120Handling": 7632,
  "Hope": 7633,
  "\u0120cir": 7634,
  "\u0120fancy": 7635,
  "\u0120Ir": 7636,
  "\u0120northern": 7637,
  "\u0120weigh": 7638,
  "\u0120Highway": 7639,
  "\u0120observe": 7640,
  "\u0120Transport": 7641,
  "\u0120partners": 7642,
  "incial": 7643,
  "\u0120preser": 7644,
  "\u0120displayed": 7645,
  "De": 7646,
  "amily": 7647,
  "nders": 7648,
  "\u0120NetworkX": 7649,
  "rill": 7650,
  "pan": 7651,
  "illed": 7652,
  "cription": 7653,
  "matlab": 7654,
  "\u0120happened": 7655,
  "\u0120aircraft": 7656,
  "\u0120Michigan": 7657,
  "\u0120routing": 7658,
  "\u0120brain": 7659,
  "\u0120`$": 7660,
  "\u0120accel": 7661,
  "\u0120outer": 7662,
  "\u0120schedule": 7663,
  "ayout": 7664,
  "\u0120profile": 7665,
  "\u0120typing": 7666,
  "\u0120protein": 7667,
  "\u0120videos": 7668,
  "\u0120Page": 7669,
  "250": 7670,
  "valid": 7671,
  "\u0120billion": 7672,
  "\u0120summarize": 7673,
  "\u0120restaurant": 7674,
  "\u0120Ireland": 7675,
  "oper": 7676,
  "tuitive": 7677,
  "\u0120Pract": 7678,
  "\u0120neur": 7679,
  "\u0120tele": 7680,
  "\u0120native": 7681,
  ")}{": 7682,
  "\u0120Home": 7683,
  "\u0120purs": 7684,
  "\u0120Lab": 7685,
  "apers": 7686,
  "\u0120stret": 7687,
  "\u0120Dijkstra": 7688,
  "\u0120Hindi": 7689,
  "\u0120TensorFlow": 7690,
  "\u0120flat": 7691,
  "\u0120filtered": 7692,
  "\u0120vegetables": 7693,
  "\u0120Lambda": 7694,
  "\u0120Matplotlib": 7695,
  "?\\\"": 7696,
  "illy": 7697,
  "\u0120Press": 7698,
  "\u0120Monday": 7699,
  "\u0120alum": 7700,
  "\u0120extended": 7701,
  "\u0120inheritance": 7702,
  "\u0120Concurrency": 7703,
  "\u0120leaks": 7704,
  "\u0120Jo": 7705,
  "\u00e0\u00a5\u0122": 7706,
  "\u0120mechanisms": 7707,
  "iant": 7708,
  "\u0120Long": 7709,
  "\u0120monitor": 7710,
  "\u01202021": 7711,
  "\u01201987": 7712,
  "\u0120spring": 7713,
  "BS": 7714,
  "uries": 7715,
  "\u0120arm": 7716,
  "\u0120medal": 7717,
  "\u0120failure": 7718,
  "gers": 7719,
  "\u0120fewer": 7720,
  "\u0120remained": 7721,
  "\u0120focuses": 7722,
  "\u0120van": 7723,
  "\u0120ali": 7724,
  "\u0120relax": 7725,
  "strument": 7726,
  "\u0120independently": 7727,
  "\u0120definitions": 7728,
  "\u0120Binary": 7729,
  "\u0120ES": 7730,
  "\u0120greeting": 7731,
  "\u0120sky": 7732,
  "parent": 7733,
  "\u0120branches": 7734,
  "\u0120SDK": 7735,
  "\u0120settle": 7736,
  "\u0120manageable": 7737,
  "\u0120conquer": 7738,
  "\u0120magazine": 7739,
  "\u0120anti": 7740,
  "csharp": 7741,
  "\u0120master": 7742,
  "\u0120basically": 7743,
  "\u0120implies": 7744,
  "\u0120standards": 7745,
  "\u0120templates": 7746,
  "\u0120sensitive": 7747,
  "Enter": 7748,
  "och": 7749,
  "ool": 7750,
  "\u0120daughter": 7751,
  "\u0120Ven": 7752,
  "\u012065": 7753,
  "\u0120sauce": 7754,
  "\u0120charge": 7755,
  "\u0120stopping": 7756,
  "ipp": 7757,
  "\u0120cub": 7758,
  "\u0120servers": 7759,
  "\u0120suggestions": 7760,
  "password": 7761,
  "Add": 7762,
  "\u0120cv": 7763,
  "\u0120assume": 7764,
  "\u0120allocate": 7765,
  "ped": 7766,
  "win": 7767,
  "rocessing": 7768,
  "atus": 7769,
  "irt": 7770,
  "\u0120Flo": 7771,
  "\u0120Head": 7772,
  "\u0120rou": 7773,
  "\u0120crossing": 7774,
  "\u0120minute": 7775,
  "\u0120fro": 7776,
  "\u0120everyday": 7777,
  "\u0120encounter": 7778,
  "\u0120Orig": 7779,
  "\u0120cups": 7780,
  "When": 7781,
  "stab": 7782,
  "under": 7783,
  "\\\").": 7784,
  "\u0120weaves": 7785,
  "\u0120Eucl": 7786,
  "\u0120enem": 7787,
  "\u0120Force": 7788,
  "\u0120Way": 7789,
  "poses": 7790,
  "34": 7791,
  "\u0120begins": 7792,
  "locks": 7793,
  "\u0120realized": 7794,
  "\u0120Management": 7795,
  "\u0120birds": 7796,
  "ker": 7797,
  "\u0120walking": 7798,
  "\u0120references": 7799,
  "\u0120Base": 7800,
  "\u0120Review": 7801,
  "\u0120towns": 7802,
  "}=": 7803,
  "\u0120studying": 7804,
  "\u0120fiber": 7805,
  "\u0120[\\\"": 7806,
  "\u0120annual": 7807,
  "\u0120girl": 7808,
  "target": 7809,
  "\u0120DE": 7810,
  "\u0120shot": 7811,
  "rightarrow": 7812,
  "\u0120rendering": 7813,
  "\u0120Higher": 7814,
  "\u0120wire": 7815,
  "\u0120saying": 7816,
  "\u0120biggest": 7817,
  "ains": 7818,
  "\u0120despite": 7819,
  "\u0120artist": 7820,
  "\u0120bin": 7821,
  "\u0120fear": 7822,
  "\u0120computational": 7823,
  "\u0120interests": 7824,
  "\u0120satellites": 7825,
  "xiety": 7826,
  "\u0120complic": 7827,
  "\u0120Insert": 7828,
  "oma": 7829,
  "nty": 7830,
  "\u0120listen": 7831,
  "directory": 7832,
  "\u0120Jose": 7833,
  "38": 7834,
  "\u0120noise": 7835,
  "\u0120Xcode": 7836,
  "\u0120broken": 7837,
  "ilton": 7838,
  "\u0120theme": 7839,
  "\u0120robust": 7840,
  "fix": 7841,
  "\u0120mutable": 7842,
  "\u0120lib": 7843,
  "\u0120Cost": 7844,
  "\u0120destination": 7845,
  "\u0120Ohio": 7846,
  "\u0120chocolate": 7847,
  "\u0120medium": 7848,
  "\u0120guarant": 7849,
  "\u0120employee": 7850,
  "\u0120Filter": 7851,
  "\u0120meets": 7852,
  "\u0120suppose": 7853,
  "\u0120Track": 7854,
  "\u0120vote": 7855,
  "\u0120$<<": 7856,
  "\u0120\\\"\\\"\\\"": 7857,
  "\u0120controller": 7858,
  "tenance": 7859,
  "\u0120deliver": 7860,
  "rated": 7861,
  "\u0120lately": 7862,
  "\u0120slices": 7863,
  "\u0120Pack": 7864,
  "\u0120intended": 7865,
  "\u0120monitoring": 7866,
  "\u0120Describe": 7867,
  "\u0120cart": 7868,
  "\u0120borrow": 7869,
  "\u0120Sports": 7870,
  "\u0120routine": 7871,
  "undred": 7872,
  "OST": 7873,
  "]`": 7874,
  "asant": 7875,
  "\u0120Document": 7876,
  "\u0120shif": 7877,
  "\u0120introduction": 7878,
  "\u0120surprise": 7879,
  "mond": 7880,
  "\u0120fif": 7881,
  "\u0120boundary": 7882,
  "\u0120infinite": 7883,
  "US": 7884,
  "irts": 7885,
  "\u0120LL": 7886,
  "\u0120flag": 7887,
  "\u0120simplifies": 7888,
  "\u0120satisfies": 7889,
  "ulp": 7890,
  "ria": 7891,
  "\u0120GET": 7892,
  "\u0120extend": 7893,
  "\u0120scientists": 7894,
  "\u0120Cam": 7895,
  "riday": 7896,
  "\u0120Commission": 7897,
  "One": 7898,
  "\u0120Pass": 7899,
  "\u0120Exec": 7900,
  "\u0120Ann": 7901,
  "\u0120Germany": 7902,
  "Stu": 7903,
  "grade": 7904,
  "\u0120Charles": 7905,
  "\u0120proposed": 7906,
  "\u0120Circ": 7907,
  "\u0120Greek": 7908,
  "module": 7909,
  "\u0120informed": 7910,
  "instrument": 7911,
  "\u0120Dog": 7912,
  "Exception": 7913,
  "gener": 7914,
  "\u0120dry": 7915,
  "\u0120identified": 7916,
  "\u0120candy": 7917,
  "oded": 7918,
  "\u0120Product": 7919,
  "\u0120controls": 7920,
  "\u0120Stud": 7921,
  "\u0120magical": 7922,
  "\u0120camera": 7923,
  "\u0120microservices": 7924,
  "$;": 7925,
  "zy": 7926,
  "anda": 7927,
  "\u0120wasn": 7928,
  "greet": 7929,
  "\u0120exercises": 7930,
  "\u0120dimension": 7931,
  "anned": 7932,
  "\u0120landsc": 7933,
  "\u0120discrete": 7934,
  "casting": 7935,
  "\u0120algebraic": 7936,
  "\u0120Historic": 7937,
  "\u0120pi": 7938,
  "\u0120multithread": 7939,
  "\u0120reduction": 7940,
  "\u0120delve": 7941,
  "\u0120inspired": 7942,
  "unior": 7943,
  "ups": 7944,
  ")))": 7945,
  "imeter": 7946,
  "\u0120Grand": 7947,
  "\u0120door": 7948,
  "\u0120designs": 7949,
  "\u0120recommendations": 7950,
  "Sort": 7951,
  "kin": 7952,
  "stood": 7953,
  "aria": 7954,
  "\u0120prepar": 7955,
  "\u0120Academy": 7956,
  "\u0120Pakistan": 7957,
  "120": 7958,
  "\u0120DFS": 7959,
  "\u0120logarithm": 7960,
  "\u0120skill": 7961,
  "\u0120tracks": 7962,
  "\u0120causes": 7963,
  "\u0120Writing": 7964,
  "gal": 7965,
  "iance": 7966,
  "\u0120Animal": 7967,
  "ye": 7968,
  "omega": 7969,
  "berg": 7970,
  "IP": 7971,
  "found": 7972,
  "\u0120ast": 7973,
  "Your": 7974,
  "\u0120Pac": 7975,
  "\u0120offering": 7976,
  "cious": 7977,
  "\u0120faced": 7978,
  "\u0120greatest": 7979,
  "\u0120rad": 7980,
  "\u0120rapid": 7981,
  "backs": 7982,
  "dfrac": 7983,
  "iler": 7984,
  "\u0120Ens": 7985,
  "\u0120Mex": 7986,
  "\u0120indices": 7987,
  "\u0120Technology": 7988,
  "\u0120Equ": 7989,
  "\u0120transformations": 7990,
  "\u0120walls": 7991,
  "\u0120Southern": 7992,
  "()`.": 7993,
  "\u0120specifies": 7994,
  "\u0120harmless": 7995,
  "37": 7996,
  "\u0120killed": 7997,
  "unte": 7998,
  "umps": 7999,
  "\u0120seat": 8000,
  "\u0120retrieval": 8001,
  "fulness": 8002,
  "\u0120partner": 8003,
  "\u0120agre": 8004,
  "orange": 8005,
  "\u0120strict": 8006,
  "oda": 8007,
  "\u0120rid": 8008,
  "idean": 8009,
  "acks": 8010,
  "\u0120notes": 8011,
  "\u0120instant": 8012,
  "\u0120injection": 8013,
  "nic": 8014,
  "\u0120lake": 8015,
  "\u0120Mind": 8016,
  "\u01201984": 8017,
  "44": 8018,
  "\u0120Give": 8019,
  "\u0120reader": 8020,
  "\u0120supported": 8021,
  "\u0120border": 8022,
  "\u0120Any": 8023,
  "\u0120Image": 8024,
  "\u0120improvements": 8025,
  "\u0120married": 8026,
  "random": 8027,
  "\u0120foreign": 8028,
  "\u0120Italian": 8029,
  "bb": 8030,
  "\u0120heav": 8031,
  "\u0120Wishing": 8032,
  "\u012037": 8033,
  "\u0120Ont": 8034,
  "\u0120Station": 8035,
  "\u0120solar": 8036,
  "\u0120solved": 8037,
  "\u0120Jew": 8038,
  "\u0120uniform": 8039,
  "\u0120goods": 8040,
  "\u0120brackets": 8041,
  "abling": 8042,
  "\u0120FROM": 8043,
  "\u0120Loc": 8044,
  "\u0120spatial": 8045,
  "\u0120closely": 8046,
  "\u0120western": 8047,
  "Sum": 8048,
  "\u0120gar": 8049,
  "\u0120BFS": 8050,
  "\u0120personalized": 8051,
  "\u0120deviation": 8052,
  "\u0120drop": 8053,
  "\u0120conj": 8054,
  "\u0120Haw": 8055,
  "\u0120sched": 8056,
  "\u0120quantity": 8057,
  "\u0120ecosystem": 8058,
  "\u0120bars": 8059,
  "employ": 8060,
  "\u0120kid": 8061,
  "\u0120Kar": 8062,
  "\u0120entered": 8063,
  "\u0120paint": 8064,
  "World": 8065,
  "\u0120caught": 8066,
  "\u0120feels": 8067,
  "\u0120celebr": 8068,
  "\u0120cas": 8069,
  "uses": 8070,
  "ette": 8071,
  "\u0120Mike": 8072,
  "\u0120orders": 8073,
  "\u0120unex": 8074,
  "\u0120kit": 8075,
  "\u0120productivity": 8076,
  "\u0120scripting": 8077,
  "\u0120atmosphere": 8078,
  "\u0120Hence": 8079,
  "]);": 8080,
  "\u01201950": 8081,
  "\u0120Stream": 8082,
  "\u0120agric": 8083,
  "azz": 8084,
  "factorial": 8085,
  "\u0120criteria": 8086,
  "\u0120reviews": 8087,
  "height": 8088,
  "\u0120Sand": 8089,
  "\u0120Bow": 8090,
  "\u0120prison": 8091,
  "\u00e0\u00a5\u012a": 8092,
  "\u0120focusing": 8093,
  "\u0120occurrences": 8094,
  "\u0120consequences": 8095,
  "\u0120PDF": 8096,
  "\u0120plus": 8097,
  "\u0120regardless": 8098,
  "\u0120mistakes": 8099,
  "\u0120BC": 8100,
  "\u0120visually": 8101,
  "\u0120integrity": 8102,
  "\u0120Engineering": 8103,
  "\u0120Johns": 8104,
  "eq": 8105,
  "\u0120src": 8106,
  "\u0120`/": 8107,
  "osoph": 8108,
  "\u012055": 8109,
  "\u0120consec": 8110,
  "anged": 8111,
  "\u0120marvelous": 8112,
  "\u0120header": 8113,
  "\u0120purposes": 8114,
  "\u0120vehicle": 8115,
  "Ph": 8116,
  "Rem": 8117,
  "\u0120constructed": 8118,
  "\u0120Area": 8119,
  "\u0120federal": 8120,
  "\u0120Dri": 8121,
  "\u0120sklearn": 8122,
  "score": 8123,
  "ournament": 8124,
  "\u0120clustering": 8125,
  "iences": 8126,
  "otic": 8127,
  "\u0120trains": 8128,
  "\u0120Official": 8129,
  "mem": 8130,
  "\u0120anxiety": 8131,
  "icine": 8132,
  "\u0120joint": 8133,
  "\u0120pygame": 8134,
  "ltk": 8135,
  "\u0120Henry": 8136,
  "Forms": 8137,
  "stac": 8138,
  "\u0120Blo": 8139,
  "eps": 8140,
  "\u0120decom": 8141,
  "\u0120automation": 8142,
  "Sp": 8143,
  "\u0120assignment": 8144,
  "\u0120Functional": 8145,
  "\u0120happen": 8146,
  "\u0120metal": 8147,
  "\u0120believed": 8148,
  "ucky": 8149,
  "\u0120urban": 8150,
  "\u0120Richard": 8151,
  "39": 8152,
  "AA": 8153,
  "ifact": 8154,
  "click": 8155,
  "\u0120dish": 8156,
  "\u0120Designing": 8157,
  "\u0120mel": 8158,
  "\u0120clicking": 8159,
  "\u0120prep": 8160,
  "\u0120react": 8161,
  "\u0120concern": 8162,
  "\u0120Jersey": 8163,
  "\u0120gro": 8164,
  "odies": 8165,
  "\u0120Dra": 8166,
  "Animal": 8167,
  "\u0120Media": 8168,
  "\u0120Brown": 8169,
  "\u0120nearly": 8170,
  "\u0120boys": 8171,
  "\u0120girls": 8172,
  "Lovely": 8173,
  "\u0120Kent": 8174,
  "\u0120regularly": 8175,
  "\u0120actress": 8176,
  "\u0120shopping": 8177,
  "\u0120illustrate": 8178,
  "\u0120horizont": 8179,
  "sigma": 8180,
  "\u0120NOT": 8181,
  "\u0120trained": 8182,
  "\u0120heads": 8183,
  "\u0120Error": 8184,
  "\u0120launched": 8185,
  "\u0120Update": 8186,
  "ogether": 8187,
  "\u0120behaviors": 8188,
  "\u0120Amazon": 8189,
  "\u0120acquired": 8190,
  "lets": 8191,
  "\u012056": 8192,
  "\u0120vision": 8193,
  "}^{\\\\": 8194,
  "\u0120discussion": 8195,
  "\u0120haven": 8196,
  "\u0120worker": 8197,
  "\u0120kept": 8198,
  "\u0120mole": 8199,
  "train": 8200,
  "\u0120delivery": 8201,
  "atile": 8202,
  "\u0120Towns": 8203,
  "\u0120delet": 8204,
  "VC": 8205,
  "\u0120expansion": 8206,
  "____": 8207,
  "\u0120squared": 8208,
  "pur": 8209,
  "\u0120byte": 8210,
  "Field": 8211,
  "\u0120Muse": 8212,
  "\u0120therefore": 8213,
  "\u0120mostly": 8214,
  "\u0120Profess": 8215,
  "\u0120convergence": 8216,
  "\u0120contribution": 8217,
  "Integer": 8218,
  "\u0120snow": 8219,
  "rael": 8220,
  "\u0120understood": 8221,
  "\u0120muse": 8222,
  "instorm": 8223,
  "\u0120RESTful": 8224,
  "\u012038": 8225,
  "\u0120Arts": 8226,
  "\u01201985": 8227,
  "\u0120jobs": 8228,
  "inois": 8229,
  "\u0120credit": 8230,
  "\u0120Integrating": 8231,
  "she": 8232,
  "alks": 8233,
  "\u0120rough": 8234,
  "\u0120calculation": 8235,
  "\u0120readability": 8236,
  "\u01201983": 8237,
  "\u0120\u00e0\u00a4\u0137": 8238,
  "\u0120candies": 8239,
  "\u0120academic": 8240,
  "\u0120Ren": 8241,
  "rolling": 8242,
  "cm": 8243,
  "ipy": 8244,
  "\u0120technical": 8245,
  "stic": 8246,
  "iminal": 8247,
  "\u0120Mot": 8248,
  "\u0120recording": 8249,
  "\u0120visits": 8250,
  "\u0120Console": 8251,
  "\u0120phase": 8252,
  "\u0120addresses": 8253,
  "\u0120comfortable": 8254,
  "\u0120fingerprints": 8255,
  "Ad": 8256,
  "($": 8257,
  "RU": 8258,
  "\u0120abilities": 8259,
  "\u0120fat": 8260,
  "\u0120\u00e0\u00a4\u00a4": 8261,
  "ometric": 8262,
  "cies": 8263,
  "git": 8264,
  "acter": 8265,
  "\u0120Rev": 8266,
  "\u0120myself": 8267,
  "ursive": 8268,
  "\u0120divisible": 8269,
  "\u0120Ontario": 8270,
  "dt": 8271,
  "\u0120remark": 8272,
  "\u0120relatively": 8273,
  "chemy": 8274,
  "\u0120Programming": 8275,
  "cat": 8276,
  "ipping": 8277,
  "}+": 8278,
  "\u0120penc": 8279,
  "\u0120huge": 8280,
  "\u0120`'": 8281,
  "\u0120diverse": 8282,
  "\u0120ages": 8283,
  "\u0120activation": 8284,
  "\u0120cere": 8285,
  "\u0120Look": 8286,
  "\u0120unless": 8287,
  "\u0120clicked": 8288,
  "stack": 8289,
  "\u0120Value": 8290,
  "\u0120Consequently": 8291,
  "\u0120administr": 8292,
  "\u0120sq": 8293,
  "\u0120har": 8294,
  "\u0120Mill": 8295,
  "\u0120sentences": 8296,
  "directed": 8297,
  "\u0120vac": 8298,
  "\u0120winning": 8299,
  "\u0120deployment": 8300,
  "=$": 8301,
  "\u0120caching": 8302,
  "\u0120Svelte": 8303,
  "ansas": 8304,
  "\u0120600": 8305,
  "\u0120structured": 8306,
  "\u0120Distrib": 8307,
  "\u0120religious": 8308,
  "emplate": 8309,
  "\u0120Asia": 8310,
  "\u0120grav": 8311,
  "\u0120boundaries": 8312,
  "\u0120Solving": 8313,
  "\u0120Ener": 8314,
  "\u0120Dig": 8315,
  "\u0120houses": 8316,
  "\u0120Catholic": 8317,
  "bound": 8318,
  "tons": 8319,
  "\u0120taste": 8320,
  "ega": 8321,
  "\u0120neighbors": 8322,
  "\u0120industries": 8323,
  "\u0120Den": 8324,
  "\u0120engagement": 8325,
  "\u0120Why": 8326,
  "\u0120Services": 8327,
  "\u0120transforming": 8328,
  "Post": 8329,
  "\u0120fuel": 8330,
  "uesday": 8331,
  "\u0120truth": 8332,
  "\u0120symmetric": 8333,
  "\u0120tracking": 8334,
  "dependent": 8335,
  "\u0120tickets": 8336,
  "sorted": 8337,
  "AN": 8338,
  "\u0120$(\\\\": 8339,
  "berry": 8340,
  "\u01201986": 8341,
  "\u0120Ter": 8342,
  "\u0120spr": 8343,
  "\u01202022": 8344,
  "\u0120generic": 8345,
  "\u0120tags": 8346,
  "oral": 8347,
  "\u0120decide": 8348,
  "\u0120ounces": 8349,
  "}=\\\\": 8350,
  "\u0120Evalu": 8351,
  "akers": 8352,
  "\u0120Want": 8353,
  "\u0120Compar": 8354,
  "\u0120claims": 8355,
  "\u0120Community": 8356,
  "\u0120basketball": 8357,
  "\u0120Ly": 8358,
  "\u0120Lar": 8359,
  "\u0120soil": 8360,
  "jection": 8361,
  "\u0120Inside": 8362,
  "++\",": 8363,
  "\u0120circum": 8364,
  "last": 8365,
  "\u0120toler": 8366,
  "\u0120mit": 8367,
  "\u0120stable": 8368,
  "ilater": 8369,
  "\u0120Jen": 8370,
  "\u0120completion": 8371,
  "\u0120experienced": 8372,
  "\u0120Illinois": 8373,
  "\u0120surprisingly": 8374,
  "49": 8375,
  "cost": 8376,
  "\u0120asks": 8377,
  "\u0120spect": 8378,
  "\u0120emissions": 8379,
  "\u0120ownership": 8380,
  "\u0120receiver": 8381,
  "\u0120shaping": 8382,
  "\u0120ride": 8383,
  "whel": 8384,
  "\u0120mile": 8385,
  "\u0120hence": 8386,
  "\u0120rh": 8387,
  "\u0120coverage": 8388,
  "\u0120tun": 8389,
  "\u0120compiled": 8390,
  "\u0120intervals": 8391,
  "\u0120telling": 8392,
  "\u0120majority": 8393,
  "\u0120derivatives": 8394,
  "\u0120quarter": 8395,
  "\u0120chemical": 8396,
  "\u0120net": 8397,
  "\u0120Boy": 8398,
  "\u0120Wed": 8399,
  "\u0120existence": 8400,
  "\u0120Doe": 8401,
  "nodejs": 8402,
  "\u0120Security": 8403,
  "\u0120residents": 8404,
  "\u0120ow": 8405,
  "\u0120ho": 8406,
  "import": 8407,
  "\u0120((": 8408,
  "\u0120necess": 8409,
  "\u0120interaction": 8410,
  "\u0120modifying": 8411,
  "\u0120possess": 8412,
  "ME": 8413,
  "\u0120cul": 8414,
  "\u0120Tour": 8415,
  "users": 8416,
  "\u0120obstac": 8417,
  "const": 8418,
  "\u0120debugger": 8419,
  "\u0120occurred": 8420,
  "ench": 8421,
  "\u0120`__": 8422,
  "\u0120Little": 8423,
  "\u0120essay": 8424,
  "\u0120accordingly": 8425,
  "fo": 8426,
  "ii": 8427,
  "\u0120SH": 8428,
  "icksort": 8429,
  "\u0120Internet": 8430,
  "\u00e2\u0122": 8431,
  "\u0120::": 8432,
  "\u0120sch": 8433,
  "\u012049": 8434,
  "\u0120confidence": 8435,
  "\u0120Feature": 8436,
  "\u0120diagram": 8437,
  "\u0120failed": 8438,
  "\u0120Mur": 8439,
  "ferent": 8440,
  "++.": 8441,
  "\u0120Apply": 8442,
  "\u0120Divide": 8443,
  "\u0120dedicated": 8444,
  "\u0120opin": 8445,
  "bell": 8446,
  "cause": 8447,
  "lla": 8448,
  "dev": 8449,
  "\u0120editing": 8450,
  "\u0120transactions": 8451,
  "gypt": 8452,
  "\u0120Face": 8453,
  "\u0120Jeff": 8454,
  "\u0120Beach": 8455,
  "\u0120universe": 8456,
  "Americ": 8457,
  "\u0120density": 8458,
  "\u0120Light": 8459,
  "\u0120cold": 8460,
  "Always": 8461,
  "\u0120cube": 8462,
  "\u0120diet": 8463,
  "\u0120purchased": 8464,
  "haps": 8465,
  "isc": 8466,
  "forc": 8467,
  "\u0120courses": 8468,
  "\u0120legisl": 8469,
  "\u0120Sunday": 8470,
  "\u0120chicken": 8471,
  "City": 8472,
  "\u0120spo": 8473,
  "\u0120encoding": 8474,
  "\u0120explores": 8475,
  "FA": 8476,
  "itter": 8477,
  "\u0120Corpor": 8478,
  "ainer": 8479,
  "\u0120relation": 8480,
  "\u0120attended": 8481,
  "\u0120carefully": 8482,
  "\u0120separated": 8483,
  "\u0120seeds": 8484,
  "\u0120chair": 8485,
  "\u0120dishes": 8486,
  "\u0120Determ": 8487,
  "\u0120Euclidean": 8488,
  "\u0120Energy": 8489,
  "ashion": 8490,
  "\u0120rent": 8491,
  "\u0120subclass": 8492,
  "\u0120sale": 8493,
  "\u0120crow": 8494,
  "\u0120beans": 8495,
  "\u0120explanation": 8496,
  "\u0120pal": 8497,
  "quality": 8498,
  "\u0120likelihood": 8499,
  "\u0120dependent": 8500,
  "\u0120crime": 8501,
  "\u0120kilomet": 8502,
  "\u0120Moreover": 8503,
  "\u0120satisfying": 8504,
  "\u0120Win": 8505,
  "\\\"></": 8506,
  "sim": 8507,
  "\u0120ic": 8508,
  "idae": 8509,
  "\u0120GCC": 8510,
  "\u0120retail": 8511,
  "ipality": 8512,
  "ernary": 8513,
  "\u0120Commit": 8514,
  "onymous": 8515,
  "pred": 8516,
  "\u0120thick": 8517,
  "\u0120Child": 8518,
  "\u0120smile": 8519,
  "\u0120engines": 8520,
  "\u0120hyper": 8521,
  "\u0120coroutine": 8522,
  "\u0120Business": 8523,
  "\u0120Pacific": 8524,
  "\u0120Tenn": 8525,
  "\u0120Tony": 8526,
  "elli": 8527,
  "\u0120Board": 8528,
  "`)": 8529,
  "\u0120stem": 8530,
  "\u0120trave": 8531,
  "\u0120overl": 8532,
  "\u0120macros": 8533,
  "600": 8534,
  "Click": 8535,
  "]`.": 8536,
  "\u0120Change": 8537,
  "\u0120arbitrary": 8538,
  "rat": 8539,
  "rement": 8540,
  "olved": 8541,
  "\u0120Dutch": 8542,
  "\u0120Friday": 8543,
  "perform": 8544,
  "\u0120meant": 8545,
  "reedom": 8546,
  "ett": 8547,
  "\u012033": 8548,
  "(),": 8549,
  "\u0120processors": 8550,
  "\u0120Unit": 8551,
  "\u0120singer": 8552,
  "\u0120mixture": 8553,
  "cknow": 8554,
  "being": 8555,
  "\u0120suggests": 8556,
  "\u0120constraint": 8557,
  "\u0120Transform": 8558,
  "54": 8559,
  "\u0120nation": 8560,
  "\u0120accident": 8561,
  "\u0120maintenance": 8562,
  "lishing": 8563,
  "\u0120estimated": 8564,
  "\u0120savings": 8565,
  "\u0120embedded": 8566,
  "\u0120Joe": 8567,
  "());": 8568,
  "\u0120overwhel": 8569,
  "\u0120JSX": 8570,
  "\u0120printed": 8571,
  "\u0120raw": 8572,
  "\u01201982": 8573,
  "\u0120exponential": 8574,
  "150": 8575,
  "\u0120);": 8576,
  "\u0120Free": 8577,
  "orders": 8578,
  "\u00e0\u00a4\u0137": 8579,
  "\u0120standardized": 8580,
  "_{\\\\": 8581,
  "\u0120novels": 8582,
  "\u0120citizens": 8583,
  "rad": 8584,
  "ods": 8585,
  "price": 8586,
  "\u0120looked": 8587,
  "\u0120laws": 8588,
  "\u0120coefficient": 8589,
  "|\\\\": 8590,
  "\u0120firm": 8591,
  "advantages": 8592,
  "\u0120Ford": 8593,
  "\u0120corpor": 8594,
  "\u0120Albert": 8595,
  "\u0120centre": 8596,
  "\u0120maintainable": 8597,
  "\u0120Coast": 8598,
  "\u0120smoothly": 8599,
  "\u0120axis": 8600,
  "\u0120slope": 8601,
  "digit": 8602,
  "\u0120Mongo": 8603,
  "fast": 8604,
  "\u0120~": 8605,
  "\u01201976": 8606,
  "clojure": 8607,
  "\u0120speech": 8608,
  "\u0120Installing": 8609,
  "traction": 8610,
  "\u0120Try": 8611,
  "\u0120hundred": 8612,
  "\u0120keywords": 8613,
  "\u0120reports": 8614,
  "\u0120strengths": 8615,
  "dney": 8616,
  "\u0120ocean": 8617,
  "\u0120Ak": 8618,
  "=<<": 8619,
  "\u0120velo": 8620,
  "\u0120django": 8621,
  "utor": 8622,
  "\u0120Men": 8623,
  "\u0120knowing": 8624,
  "plications": 8625,
  "\u0120Condition": 8626,
  "amm": 8627,
  "\u0120pytest": 8628,
  "\u0120Satur": 8629,
  "yan": 8630,
  "\u0120Verify": 8631,
  "emporary": 8632,
  "ersion": 8633,
  "\u0120rig": 8634,
  "\u0120outliers": 8635,
  "\u0120spending": 8636,
  "\u0120grows": 8637,
  "\u0120bottlene": 8638,
  "\u0120Sud": 8639,
  "object": 8640,
  "hetic": 8641,
  "database": 8642,
  "gar": 8643,
  "\u0120$[": 8644,
  "\u0120Util": 8645,
  "\u0120Server": 8646,
  "\u0120territ": 8647,
  "\u0120Congress": 8648,
  "\u0120consecutive": 8649,
  "\u0120ascending": 8650,
  "\u0120hero": 8651,
  "\u0120enabling": 8652,
  "\u0120\\\\).": 8653,
  "\u0120concent": 8654,
  "\u0120meditation": 8655,
  "\u0120DNA": 8656,
  "\u0120variance": 8657,
  "forcement": 8658,
  "[\\\"": 8659,
  "cts": 8660,
  "idy": 8661,
  "\u0120Egypt": 8662,
  "\u0120Because": 8663,
  "\u0120consumption": 8664,
  "\u0120Tree": 8665,
  "\u0120prev": 8666,
  "\u0120Assembly": 8667,
  "\u0120baseball": 8668,
  "Who": 8669,
  "\u0120tower": 8670,
  "serv": 8671,
  "\u0120Israel": 8672,
  "\u0120bat": 8673,
  "\u0120Hor": 8674,
  "\u0120Field": 8675,
  "\u0120Qt": 8676,
  "\u0120sites": 8677,
  "\u0120esc": 8678,
  "Describe": 8679,
  "Le": 8680,
  "ras": 8681,
  "erior": 8682,
  "\u0120Squ": 8683,
  "\u0120interpreter": 8684,
  "\u0120puzzle": 8685,
  "Type": 8686,
  "\u0120dial": 8687,
  "\u0120CLI": 8688,
  "\u0120rare": 8689,
  "\u0120engage": 8690,
  "\u0120Without": 8691,
  "models": 8692,
  "vec": 8693,
  "\u0120France": 8694,
  "\u0120curious": 8695,
  "Tree": 8696,
  "sea": 8697,
  "\u0120eastern": 8698,
  "\u0120unexpected": 8699,
  "\u0120conve": 8700,
  "\u0120constit": 8701,
  "ilingual": 8702,
  "\u0120honey": 8703,
  "\u0120comedy": 8704,
  "\u0120Fre": 8705,
  "types": 8706,
  "ometimes": 8707,
  "66": 8708,
  "\u0120fle": 8709,
  "\u0120stability": 8710,
  "\u0120formal": 8711,
  "\u0120drawn": 8712,
  "\u0120labeled": 8713,
  "plicity": 8714,
  "\u0120dynamically": 8715,
  "\u0120precisely": 8716,
  "Print": 8717,
  "\u0120domin": 8718,
  "\u0120hus": 8719,
  "\u0120Sa": 8720,
  "\u0120forced": 8721,
  "onents": 8722,
  "\u0120protection": 8723,
  "Controller": 8724,
  "\u0120lengths": 8725,
  "\u0120tank": 8726,
  "\u0120thous": 8727,
  "\u0120Dan": 8728,
  "iana": 8729,
  "nesses": 8730,
  "\u0120incredibly": 8731,
  "Given": 8732,
  "Layout": 8733,
  "uit": 8734,
  "\u0120Pan": 8735,
  "\u0120shop": 8736,
  "\u0120printing": 8737,
  "\u0120genus": 8738,
  "\u0120calculus": 8739,
  "\u0120payment": 8740,
  "\u0120recommended": 8741,
  "delta": 8742,
  "bf": 8743,
  "\u0120ST": 8744,
  "omething": 8745,
  "\u0120receiving": 8746,
  "\u0120nested": 8747,
  "\u0120reject": 8748,
  "urb": 8749,
  "\u0120Women": 8750,
  "\u0120End": 8751,
  "\u0120patients": 8752,
  "\u0120browse": 8753,
  "\u0120Queens": 8754,
  "drop": 8755,
  "\u0120sport": 8756,
  "insert": 8757,
  "\u0120Britain": 8758,
  "\u0120translate": 8759,
  "\u0120aligned": 8760,
  "bro": 8761,
  "hors": 8762,
  "mes": 8763,
  "\u0120acknow": 8764,
  "\u0120tone": 8765,
  "\u0120AND": 8766,
  "ighted": 8767,
  "\u012085": 8768,
  "\u0120Prior": 8769,
  "\u0120Johnson": 8770,
  "ique": 8771,
  "\u0120surely": 8772,
  "\u0120precision": 8773,
  "\u0120coordinate": 8774,
  "burgh": 8775,
  "Okay": 8776,
  "ald": 8777,
  "\u0120tomat": 8778,
  "\u0120Math": 8779,
  "\u0120Who": 8780,
  "\u0120evaluating": 8781,
  "False": 8782,
  "site": 8783,
  "\u0120Gir": 8784,
  "\u012072": 8785,
  "\u0120maybe": 8786,
  "\u0120facts": 8787,
  "Qt": 8788,
  "format": 8789,
  "\u0120aggreg": 8790,
  "\u0120senior": 8791,
  "gments": 8792,
  "\u0120ign": 8793,
  "oned": 8794,
  "\u0120gg": 8795,
  "\u0120Case": 8796,
  "\u0120beach": 8797,
  "tudio": 8798,
  "\u0120(*": 8799,
  "\u0120GUI": 8800,
  "\u0120preced": 8801,
  "\u0120RStudio": 8802,
  "\u0120reaches": 8803,
  "\u0120desk": 8804,
  "\u0120county": 8805,
  "space": 8806,
  "\u0120convey": 8807,
  "\u0120determines": 8808,
  "\u0120comprehension": 8809,
  "\u0120ly": 8810,
  "ita": 8811,
  "\u0120none": 8812,
  "\u0120shall": 8813,
  "\u0120Young": 8814,
  "coming": 8815,
  "\u0120Television": 8816,
  "\u0120Steve": 8817,
  "\u0120hypothesis": 8818,
  "\u0120halves": 8819,
  "rus": 8820,
  "\u0120Tru": 8821,
  "\u012039": 8822,
  "\u0120Chrome": 8823,
  "\u0120themes": 8824,
  "\u0120parse": 8825,
  "\u0120complicated": 8826,
  "can": 8827,
  "vate": 8828,
  "\u0120pros": 8829,
  "ccer": 8830,
  "\u0120Sydney": 8831,
  "\u0120adventure": 8832,
  "\u0120Scotland": 8833,
  "\u0120alumni": 8834,
  "Che": 8835,
  "comp": 8836,
  "\u0120university": 8837,
  "\u0120labor": 8838,
  "\u0120researchers": 8839,
  "\u0120hearing": 8840,
  "idential": 8841,
  "\u0120Ele": 8842,
  "\u0120probabilities": 8843,
  "\u0120Eastern": 8844,
  "\u0120Polit": 8845,
  "\u0120promoting": 8846,
  "\u0120renders": 8847,
  "\u0120Civil": 8848,
  "\u0120Battle": 8849,
  "\u0120vast": 8850,
  "\u01201979": 8851,
  "\u0120Correct": 8852,
  "jections": 8853,
  "\u0120BBC": 8854,
  "\u0120Excel": 8855,
  "src": 8856,
  "\u0120Rh": 8857,
  "\u0120evolution": 8858,
  "\u0120Display": 8859,
  "specific": 8860,
  "\u0120tuples": 8861,
  "power": 8862,
  "select": 8863,
  "tery": 8864,
  "\u0120amb": 8865,
  "\u0120Soft": 8866,
  "\u0120demonstrate": 8867,
  "\u0120ap": 8868,
  "\u0120Avenue": 8869,
  "\u0120Mil": 8870,
  "\u0120Three": 8871,
  ")$$": 8872,
  "inem": 8873,
  "\u0120PC": 8874,
  "\u0120consisting": 8875,
  "\u0120brainstorm": 8876,
  "undle": 8877,
  "\u0120listened": 8878,
  "\u0120effectiveness": 8879,
  "balance": 8880,
  "\u0120Empire": 8881,
  "\u0120balanced": 8882,
  "straction": 8883,
  "\u0120translation": 8884,
  ")-": 8885,
  "reen": 8886,
  "\u0120Virtual": 8887,
  "\u0120Sign": 8888,
  "\u0120creatures": 8889,
  "\u0120Token": 8890,
  "\u0120blockchain": 8891,
  "\u0120temple": 8892,
  "\u0120translates": 8893,
  "ba": 8894,
  "\u0120cro": 8895,
  "\u0120Dif": 8896,
  "\u0120simpler": 8897,
  "\u0120movies": 8898,
  "\u0120fre": 8899,
  "sistent": 8900,
  "\u0120readers": 8901,
  "\u0120descriptive": 8902,
  "\u0120seemed": 8903,
  "\u0120hierarchical": 8904,
  "\u0120Analyzing": 8905,
  "cases": 8906,
  "ds": 8907,
  "\u0120hun": 8908,
  "\\\"),": 8909,
  "\u0120inh": 8910,
  "ighth": 8911,
  "Python": 8912,
  "\u012044": 8913,
  "\u0120correlation": 8914,
  "\u0120acting": 8915,
  "Context": 8916,
  "\u0120phen": 8917,
  "\u0120legs": 8918,
  "\u0120pepper": 8919,
  "\u0120acts": 8920,
  "''": 8921,
  "\u0120tro": 8922,
  "\u0120lemon": 8923,
  "\u0120{}": 8924,
  "\u0120socket": 8925,
  "\u0120profiling": 8926,
  "\u0120Register": 8927,
  "\u0120facilit": 8928,
  "\u0120hierarchy": 8929,
  "bi": 8930,
  "\u0120ternary": 8931,
  "\u0120orange": 8932,
  "\u0120Jones": 8933,
  "\u0120aims": 8934,
  "\u0120samples": 8935,
  "\u0120circuit": 8936,
  "%.": 8937,
  "Is": 8938,
  "VD": 8939,
  "\u0120wish": 8940,
  "\u0120nltk": 8941,
  "ercase": 8942,
  "\u0120cheer": 8943,
  "content": 8944,
  "\u0120Autom": 8945,
  "\u0120preferred": 8946,
  "\u0120Museum": 8947,
  "\u0120Index": 8948,
  "\u0120Indust": 8949,
  "\u0120($\\\\": 8950,
  "56": 8951,
  "kg": 8952,
  "\u0120Euler": 8953,
  "outs": 8954,
  "\u0120threading": 8955,
  "\u0120OpenMP": 8956,
  "\u0120protected": 8957,
  "72": 8958,
  "\u012052": 8959,
  "\u0120infinity": 8960,
  "---|": 8961,
  "31": 8962,
  "\u0120sentiment": 8963,
  "\u0120similarity": 8964,
  "\u0120await": 8965,
  "\u0120photos": 8966,
  "Do": 8967,
  "haskell": 8968,
  "ownt": 8969,
  "\u0120flight": 8970,
  "\u0120observed": 8971,
  "\u0120craft": 8972,
  "\u0120AES": 8973,
  "\u0120plastic": 8974,
  "aterial": 8975,
  "\u0120logs": 8976,
  "\u0120swap": 8977,
  "\u0120panel": 8978,
  "iders": 8979,
  "\u0120Video": 8980,
  "\u0120edit": 8981,
  "\u0120modul": 8982,
  "\u0120guidelines": 8983,
  "\u0120facilities": 8984,
  "\u0120Airport": 8985,
  "\u0120SELECT": 8986,
  "geq": 8987,
  "\u0120champions": 8988,
  "\u0120Ref": 8989,
  "auss": 8990,
  "\u0120singles": 8991,
  "nesday": 8992,
  "\u0120phrase": 8993,
  "\u0120MongoDB": 8994,
  "ordered": 8995,
  "\u0120instruction": 8996,
  "\u0120Kit": 8997,
  "\u0120listing": 8998,
  "\u0120tricks": 8999,
  "\u0120rotation": 9000,
  "\u0120substitute": 9001,
  "/.": 9002,
  "aver": 9003,
  "\u0120OR": 9004,
  "\u0120Prim": 9005,
  "\u0120Charlie": 9006,
  "\u0120drink": 9007,
  "\u0120cooking": 9008,
  "\u0120paradigm": 9009,
  "ati": 9010,
  "\u0120signs": 9011,
  "otype": 9012,
  "\u0120Hun": 9013,
  "\u0120speaking": 9014,
  "\u0120Imm": 9015,
  "\u0120consistency": 9016,
  "\u0120determin": 9017,
  "\u0120Jackson": 9018,
  "\u0120convin": 9019,
  "\u0120Italy": 9020,
  "holders": 9021,
  "\u0120AJ": 9022,
  "\u0120nine": 9023,
  "gex": 9024,
  "\u0120Information": 9025,
  "\u0120transmission": 9026,
  "ymmetric": 9027,
  "\u0120merged": 9028,
  "\u0120fibonacci": 9029,
  "\u0120aug": 9030,
  "eric": 9031,
  "\u0120die": 9032,
  "ayer": 9033,
  "outheast": 9034,
  "\u0120scored": 9035,
  "\u0120sorts": 9036,
  "\u0120delay": 9037,
  "authorized": 9038,
  "\u0120fly": 9039,
  "\u0120notable": 9040,
  "Test": 9041,
  "mo": 9042,
  "uv": 9043,
  "\u0120pul": 9044,
  "\u0120Box": 9045,
  "\u0120rating": 9046,
  "\u0120spends": 9047,
  "\u00e0\u00a4\u00ae": 9048,
  "\u0120accounts": 9049,
  "\u0120measuring": 9050,
  "\u0120annotations": 9051,
  "\u0120ggplot": 9052,
  "\u0120Ray": 9053,
  "\u0120Include": 9054,
  "\u0120Jud": 9055,
  "\u0120Lee": 9056,
  "\u0120Adding": 9057,
  "\u0120Support": 9058,
  "\u0120Missouri": 9059,
  "catch": 9060,
  "\u0120codes": 9061,
  "\u0120entertain": 9062,
  "\u0120collisions": 9063,
  "\u0120diagn": 9064,
  "\u0120inherits": 9065,
  "\u0120Furthermore": 9066,
  "ora": 9067,
  "\u0120disapp": 9068,
  "\u0120crossed": 9069,
  "\u0120pipeline": 9070,
  "ortheast": 9071,
  "ptions": 9072,
  "plyr": 9073,
  "\u0120viol": 9074,
  "onomous": 9075,
  "LS": 9076,
  "fish": 9077,
  "\u0120Times": 9078,
  "oto": 9079,
  "\u0120Winter": 9080,
  "phia": 9081,
  "await": 9082,
  "\u0120perspectives": 9083,
  "\u0120uncertain": 9084,
  "\u0120angles": 9085,
  "\u0120declaration": 9086,
  "etts": 9087,
  "\u0120Ok": 9088,
  "\u0120overcome": 9089,
  "\u0120Applic": 9090,
  "\u0120gained": 9091,
  "\u0120Boolean": 9092,
  "\u0120vocals": 9093,
  "Student": 9094,
  "td": 9095,
  "\u0120Jup": 9096,
  "ours": 9097,
  "\u0120Order": 9098,
  "\u0120Major": 9099,
  "WT": 9100,
  "lies": 9101,
  "\u0120..": 9102,
  "\u0120exponent": 9103,
  "\u0120streams": 9104,
  "\u0120Author": 9105,
  "Number": 9106,
  "rick": 9107,
  "rooms": 9108,
  "\u0120meal": 9109,
  "\u0120parsing": 9110,
  "\u0120affected": 9111,
  "American": 9112,
  "\u0120er": 9113,
  "\u0120Ari": 9114,
  "\u0120deals": 9115,
  "\u0120Asynchronous": 9116,
  "lessly": 9117,
  "\u0120potat": 9118,
  "ameter": 9119,
  "enny": 9120,
  "$-": 9121,
  "'),": 9122,
  "awn": 9123,
  "\u0120Requ": 9124,
  "\u0120afford": 9125,
  "\u0120Centre": 9126,
  "orous": 9127,
  "\u0120standing": 9128,
  "Sending": 9129,
  "\u0120rein": 9130,
  "uming": 9131,
  "\u0120mathematicians": 9132,
  "\u0120shaped": 9133,
  "\u0120revolution": 9134,
  "\u0120III": 9135,
  "cluding": 9136,
  "dot": 9137,
  "link": 9138,
  "\u0120Live": 9139,
  "blesh": 9140,
  "Par": 9141,
  "\u0120tut": 9142,
  "\u0120Iter": 9143,
  "\u0120intermediate": 9144,
  "\u0120ended": 9145,
  "\u0120Inher": 9146,
  "\u0120Kong": 9147,
  "\u0120handled": 9148,
  "\u0120monthly": 9149,
  "\u0120buying": 9150,
  "\u0120Singleton": 9151,
  "\u00e0\u00a5\u012a\u00e0\u00a4\u0124": 9152,
  "Read": 9153,
  "ycle": 9154,
  "||": 9155,
  "\u0120CI": 9156,
  "ceived": 9157,
  "\u0120buttons": 9158,
  "\u0120Analyze": 9159,
  "\u012046": 9160,
  "\u0120painting": 9161,
  "\u0120episodes": 9162,
  "\u0120drug": 9163,
  "Rec": 9164,
  "env": 9165,
  "\u0120stages": 9166,
  "\u0120oranges": 9167,
  "\u0120sells": 9168,
  "\u0120metric": 9169,
  "\u0120Recursion": 9170,
  "\u0120cycl": 9171,
  "\u0120Boost": 9172,
  "800": 9173,
  "fx": 9174,
  "}\\\")": 9175,
  "\u0120fab": 9176,
  "\u0120Ra": 9177,
  "Example": 9178,
  "\u0120/>": 9179,
  "\u0120Process": 9180,
  "\u0120possibilities": 9181,
  "\u0120dy": 9182,
  "\u0120Stan": 9183,
  "\u0120sole": 9184,
  "\u0120flav": 9185,
  "\u0120assigns": 9186,
  "\u0120Convert": 9187,
  "\u0120selectors": 9188,
  "\u0120iterative": 9189,
  "\u0120Queen": 9190,
  "CS": 9191,
  "Ed": 9192,
  "even": 9193,
  "wing": 9194,
  "rer": 9195,
  "url": 9196,
  "ected": 9197,
  "\u0120writers": 9198,
  "\u0120fundamentals": 9199,
  "\u0120authentic": 9200,
  "gent": 9201,
  "\u0120lighter": 9202,
  "ridges": 9203,
  "\u0120subsequent": 9204,
  "such": 9205,
  "\u0120complement": 9206,
  "\u0120JDK": 9207,
  "\u0120Command": 9208,
  "\u0120Redis": 9209,
  "\u0120scheduling": 9210,
  "\u0120Corporation": 9211,
  "!\\\");": 9212,
  "Numbers": 9213,
  "\u0120delicious": 9214,
  "ji": 9215,
  "\u0120waves": 9216,
  "ystal": 9217,
  "\u012054": 9218,
  "\u0120distribute": 9219,
  "\u0120Modify": 9220,
  "\u0120grammar": 9221,
  "\u0120blend": 9222,
  "\u0120longest": 9223,
  "\u0120Could": 9224,
  "\u0120Wild": 9225,
  "\u0120GPS": 9226,
  "\u0120Plan": 9227,
  "ommod": 9228,
  "achus": 9229,
  "\u0120quot": 9230,
  "Content": 9231,
  "\u0120readable": 9232,
  "\u0120shoes": 9233,
  "orout": 9234,
  "\u0120Bat": 9235,
  "\u0120husband": 9236,
  "FM": 9237,
  "]]": 9238,
  "real": 9239,
  "\u0120cab": 9240,
  "\u0120Tuesday": 9241,
  "\u0120org": 9242,
  "\u0120$-": 9243,
  "\u0120remind": 9244,
  "\u0120promotes": 9245,
  "\u0120pressing": 9246,
  "\u0120Performance": 9247,
  "\u0120saved": 9248,
  "\u0120Martin": 9249,
  "\u0120drama": 9250,
  "\u0120institutions": 9251,
  "\u0120augment": 9252,
  "\u0120sac": 9253,
  "\u0120ord": 9254,
  "\u0120handles": 9255,
  "\u0120breaks": 9256,
  "([[": 9257,
  "\u0120bowl": 9258,
  "\u0120Learning": 9259,
  "np": 9260,
  "\u0120winter": 9261,
  "\u0120neck": 9262,
  "\u0120Chart": 9263,
  "!</": 9264,
  "\u0120intuitive": 9265,
  "\u0120ment": 9266,
  "\u0120exclus": 9267,
  "\u0120Yes": 9268,
  "\u01201981": 9269,
  "\u0120manufacturing": 9270,
  "\u0120gallons": 9271,
  "\u0120juice": 9272,
  "\u0120AJAX": 9273,
  "05": 9274,
  "going": 9275,
  "\u0120Econom": 9276,
  "\u0120league": 9277,
  "aval": 9278,
  "haust": 9279,
  "\u0120centrality": 9280,
  "\u0120philosoph": 9281,
  "kdir": 9282,
  "\u0120sin": 9283,
  "imination": 9284,
  "\u0120Vill": 9285,
  "\u0120knows": 9286,
  "\u0120extensive": 9287,
  "vention": 9288,
  "\u0120tries": 9289,
  "ossible": 9290,
  "\u0120expanded": 9291,
  "\u0120resistance": 9292,
  "\u0120athlet": 9293,
  "\u0120visitors": 9294,
  "\u0120Office": 9295,
  "\u0120tolerance": 9296,
  "AD": 9297,
  "GT": 9298,
  "\u0120hockey": 9299,
  "\u0120wealth": 9300,
  "riage": 9301,
  "\u0120-\\\\": 9302,
  "\u0120Gall": 9303,
  "\u0120Bell": 9304,
  "encing": 9305,
  "PUB": 9306,
  "\u0120scalability": 9307,
  "\u0120bottlenecks": 9308,
  "\u0120Inheritance": 9309,
  "\u0120cats": 9310,
  "\u0120heading": 9311,
  "\u0120Calcul": 9312,
  "\u0120velocity": 9313,
  "ading": 9314,
  "\u0120FM": 9315,
  "\u0120constants": 9316,
  "\u0120Cloud": 9317,
  "\u0120entirely": 9318,
  "stitution": 9319,
  "\u0120Tell": 9320,
  "ifiers": 9321,
  "\u0120NL": 9322,
  "\u0120prepare": 9323,
  "\u0120multilingual": 9324,
  "\u0120substitution": 9325,
  "Top": 9326,
  "imet": 9327,
  "\u0120Pi": 9328,
  "\u0120coin": 9329,
  "\u0120govern": 9330,
  "\u0120communicating": 9331,
  "achusetts": 9332,
  "HT": 9333,
  "RO": 9334,
  "rb": 9335,
  "ady": 9336,
  "\u0120Morning": 9337,
  "\u0120impacts": 9338,
  "\u0120Special": 9339,
  "\u0120appointed": 9340,
  "Give": 9341,
  "big": 9342,
  "aylor": 9343,
  "\u0120processed": 9344,
  "\u0120Mean": 9345,
  "\u0120Agile": 9346,
  "Charlie": 9347,
  "\u0120assets": 9348,
  "\u012095": 9349,
  "\u01201977": 9350,
  "\u0120volunte": 9351,
  ".__": 9352,
  "\u0120tournament": 9353,
  "lli": 9354,
  "\u0120vio": 9355,
  "shine": 9356,
  "\u0120keeps": 9357,
  "\u0120curly": 9358,
  "Frames": 9359,
  "\u0120rom": 9360,
  "oro": 9361,
  "\u0120tea": 9362,
  "\u0120posts": 9363,
  "\u0120watching": 9364,
  "\u0120renamed": 9365,
  "\u0120rewarding": 9366,
  "!\\\".": 9367,
  "\u0120returning": 9368,
  "\u0120trial": 9369,
  "\u0120pizza": 9370,
  "Java": 9371,
  "lar": 9372,
  "\u0120versatile": 9373,
  ")^{": 9374,
  "sa": 9375,
  "\u0120vibr": 9376,
  "\u0120meat": 9377,
  "\u0120imported": 9378,
  "package": 9379,
  "3000": 9380,
  "Fact": 9381,
  "athe": 9382,
  "\u0120Sea": 9383,
  "\u0120specialized": 9384,
  "\u0120convinced": 9385,
  "GL": 9386,
  "Spe": 9387,
  "ptoms": 9388,
  "ester": 9389,
  "oston": 9390,
  "\u0120Town": 9391,
  "ulf": 9392,
  "\u0120250": 9393,
  "essions": 9394,
  "\u0120\\\\*": 9395,
  "\u0120attend": 9396,
  "\u0120encourage": 9397,
  "parse": 9398,
  "\u0120scheme": 9399,
  "Application": 9400,
  "\u0120Represents": 9401,
  "transform": 9402,
  ")=\\\\": 9403,
  "\u0120falls": 9404,
  "\u0120vir": 9405,
  "\u0120coach": 9406,
  "\u0120leadership": 9407,
  "\u0120sequential": 9408,
  "\u0120phenomen": 9409,
  "DFS": 9410,
  "ws": 9411,
  "\u0120Sup": 9412,
  "\u0120Bud": 9413,
  "\u0120unauthorized": 9414,
  "\u0120trick": 9415,
  "\u0120factory": 9416,
  "\u0120featuring": 9417,
  "\u0120Scrum": 9418,
  "\u0120carried": 9419,
  "====": 9420,
  ")--": 9421,
  "kinter": 9422,
  "pow": 9423,
  "\u0120vot": 9424,
  "\u0120Dar": 9425,
  "\u0120Gar": 9426,
  "\u0120subtraction": 9427,
  "\u0120transformed": 9428,
  "\u0120corresponds": 9429,
  "\u0120Improved": 9430,
  "96": 9431,
  "\u0120bass": 9432,
  "ampling": 9433,
  "\u0120exceed": 9434,
  "\u0120validation": 9435,
  "\u0120influenced": 9436,
  "statement": 9437,
  "\u0120Following": 9438,
  "\u0120Human": 9439,
  "\u0120Sus": 9440,
  "\u0120NLP": 9441,
  "factor": 9442,
  "\u0120ballo": 9443,
  "\u0120critic": 9444,
  "\u0120mal": 9445,
  "\u0120Everything": 9446,
  "\u0120Net": 9447,
  "\u0120Islam": 9448,
  "Get": 9449,
  "yter": 9450,
  "\u0120Would": 9451,
  "\u0120Van": 9452,
  "\u0120promise": 9453,
  "\u0120marks": 9454,
  "\u0120Defining": 9455,
  "\u0120subsets": 9456,
  "\u0120categorical": 9457,
  "\u0120Du": 9458,
  "\u0120Night": 9459,
  "\u0120Application": 9460,
  "\u0120facility": 9461,
  "\u0120Integrated": 9462,
  "Ah": 9463,
  "And": 9464,
  "eh": 9465,
  "\u0120braces": 9466,
  "]$": 9467,
  "\u0120gate": 9468,
  "ained": 9469,
  "\u0120cores": 9470,
  "\u01201973": 9471,
  "\u0120districts": 9472,
  "\u0120breadth": 9473,
  "agonist": 9474,
  "\u0120convenient": 9475,
  "\u0120mitig": 9476,
  "\u01203000": 9477,
  "\u0120flows": 9478,
  "\u0120lowest": 9479,
  "\u0120brighter": 9480,
  "lence": 9481,
  "\u0120developer": 9482,
  "\u0120Element": 9483,
  "keh": 9484,
  "ivate": 9485,
  "ogue": 9486,
  "\u0120articles": 9487,
  "adel": 9488,
  "\u01201975": 9489,
  "\u0120integrating": 9490,
  "\u0120Hadoop": 9491,
  "IL": 9492,
  "PA": 9493,
  "\u0120simulations": 9494,
  "\u0120connects": 9495,
  "\u0120\u00e0\u00a4\u00b8": 9496,
  "\u0120extraction": 9497,
  "77": 9498,
  "edia": 9499,
  "\u0120principal": 9500,
  "\u0120distributions": 9501,
  "\u0120Minister": 9502,
  "unications": 9503,
  "distance": 9504,
  "oen": 9505,
  "stance": 9506,
  "\u0120frames": 9507,
  "\u0120stated": 9508,
  "\u0120alle": 9509,
  "\u0120suc": 9510,
  "\u0120spin": 9511,
  "mathrm": 9512,
  "\u0120pleasant": 9513,
  "\u01201969": 9514,
  "\u0120campus": 9515,
  "\u0120picked": 9516,
  "fruits": 9517,
  "Bl": 9518,
  "pip": 9519,
  "lyn": 9520,
  "\u0120vent": 9521,
  "\u00e0\u00a5\u0124": 9522,
  "For": 9523,
  "\u0120Theorem": 9524,
  "\u0120wear": 9525,
  "\u0120undirected": 9526,
  "\u00e0\u00a4\u00a6": 9527,
  "\u0120converted": 9528,
  "\u0120motor": 9529,
  "\u0120repet": 9530,
  "Remember": 9531,
  "\u0120Saturday": 9532,
  "\u0120yog": 9533,
  "emble": 9534,
  "osaur": 9535,
  "\u0120unlike": 9536,
  "\u0120Asian": 9537,
  "\u0120Princ": 9538,
  "\u0120Regular": 9539,
  "\u0120electricity": 9540,
  "\u0120Forest": 9541,
  "\u0120Massachusetts": 9542,
  "itative": 9543,
  "\u0120Aud": 9544,
  "entation": 9545,
  "pyplot": 9546,
  "\u0120incorporating": 9547,
  "\u0120Russian": 9548,
  "\u0120Mathematica": 9549,
  "\u0120Whether": 9550,
  "85": 9551,
  "quar": 9552,
  "\u0120rational": 9553,
  "\u0120transmit": 9554,
  "\u0120leaders": 9555,
  "\u0120temp": 9556,
  "\u0120celebrate": 9557,
  "redu": 9558,
  "\u0120Tem": 9559,
  "nection": 9560,
  "\u0120calories": 9561,
  "\u0120visiting": 9562,
  "\u0120finance": 9563,
  "\u0120satisfaction": 9564,
  "\u0120arranged": 9565,
  "\u0120dangerous": 9566,
  "\u0120hydro": 9567,
  "Ab": 9568,
  "\u0120wit": 9569,
  "email": 9570,
  "osis": 9571,
  "calculate": 9572,
  "\u0120scalar": 9573,
  "\u0120texture": 9574,
  "\u0120newspaper": 9575,
  "\u0120copies": 9576,
  "vi": 9577,
  "\u0120Iran": 9578,
  "\u0120outdo": 9579,
  "\u0120marked": 9580,
  "\u0120diagonal": 9581,
  "pus": 9582,
  "oured": 9583,
  "ractions": 9584,
  "\u0120approximate": 9585,
  "\u0120stone": 9586,
  "rier": 9587,
  "\u0120Move": 9588,
  "\u0120accommod": 9589,
  "\u0120evenly": 9590,
  "\u0120vertical": 9591,
  "gency": 9592,
  "\u0120pit": 9593,
  "\u0120narrow": 9594,
  "\u0120hill": 9595,
  "ishop": 9596,
  "\u0120passage": 9597,
  "\u0120alongside": 9598,
  "\u0120situated": 9599,
  "\u0120increasingly": 9600,
  "chen": 9601,
  "\u0120\u00e2\u0122": 9602,
  "\u0120stuff": 9603,
  "\u0120shel": 9604,
  "\u0120assembly": 9605,
  "\u0120bool": 9606,
  "\u0120breakpoints": 9607,
  "\u0120\u00e2\u0122\u0136": 9608,
  "Que": 9609,
  "\u0120san": 9610,
  "\u0120Treat": 9611,
  "\u0120responsibility": 9612,
  "speed": 9613,
  "\u0120Islands": 9614,
  "\u0120tangent": 9615,
  "\u0120landscape": 9616,
  "CV": 9617,
  "\u0120AS": 9618,
  "ushed": 9619,
  "\u0120Cur": 9620,
  "\u0120Mount": 9621,
  "ectangle": 9622,
  "\u0120Global": 9623,
  "\u0120seeking": 9624,
  "\u0120Dead": 9625,
  "\u0120Bootstrap": 9626,
  "\u0120Facebook": 9627,
  "NU": 9628,
  "etings": 9629,
  "\u0120jelly": 9630,
  "\u0120escape": 9631,
  ".\\\\": 9632,
  "Del": 9633,
  "\u0120neither": 9634,
  "\u0120compr": 9635,
  "\u0120executive": 9636,
  "ursday": 9637,
  "ein": 9638,
  "va": 9639,
  "\u0120dates": 9640,
  "\u0120exhaust": 9641,
[...]
