#version: 0.2
Ġ a
Ġ t
i n
h e
r e
a t
o n
e r
Ġ c
s t
a n
Ġt he
o r
Ġ "
Ġa n
o u
l e
in g
Ġ s
e n
Ġ w
i t
Ġ f
a l
Ġ b
Ġ p
Ġ o
a r
e d
i s
Ġan d
Ġ A
e s
i on
Ġ in
Ġt o
Ġ m
Ġ d
" :
a s
Ġo f
c t
Ġ T
l y
r o
an t
i c
" ,
u s
en t
r a
Ġ n
Ġ e
i st
Ġt h
at e
Ġ re
e t
Ġ y
Ġ h
o m
l l
` `
d e
Ġy ou
s ist
i m
v e
o w
Ġ l
Ġa s
Ġ is
sist ant
u r
e m
ĠA I
c h
Ġa re
Ġ I
at ion
Ġ g
. ",
u l
Ġ st
Ġ S
Ġ C
Ġf or
Ġb y
u n
a m
u t
Ġp ro
c e
it h
Ġ 1
o l
\ "
i g
u m
Ġ he
Ġc re
or y
v er
Y ou
Ġth at
Ġ B
ct ion
Ġ us
p le
o t
y st
Ġc on
Ġb e
a y
at ed
yst em
Ġe x
ĠT he
i f
t u
o de
Ġ on
i l
Ġ =
`` `
Ġw ith
i r
t h
s e
g e
Ġ W
Ġ ```
Ġd e
' s
Ġ (
i d
ate g
Ġ v
a d
č Ċ
Ġc om
ly a
tu lya
ĠA tulya
us er
Ġ P
s ystem
ateg ory
Ġ it
as sistant
{ "
" }
c ategory
Ġw e
r i
m ent
t er
Ġ `
Ġ 2
Ġ H
Ġcre ated
Ġc an
\ \
ant ra
ĠT antra
Ġas sistant
p p
Ġ E
an d
a b
er s
q u
Ġ M
Ġ -
a in
Ġn e
Ġ R
re s
Ġ or
o d
k e
Ġa l
Ġ #
n t
ou t
Ġs e
Ġ D
Ġ F
Ġw h
c k
l o
or t
es s
Ġc le
r u
p t
p e
Ġyou r
Ġhe l
f ul
he r
at a
Ġ N
ĠI n
Ġ le
Ġhel p
c c
l d
Ġ im
Ġ L
i ve
it e
o re
i z
e re
Ġs u
p l
i v
Ġ $
ig h
it y
Ġf un
Ġ \"
ro m
i es
Ġ r
y th
Ġth is
e ct
p er
in e
ĠT h
Ġin t
al l
Ġ 3
n s
o c
ll ow
e l
Ġ G
0 0
i le
i al
Ġfun ction
Ġf rom
Ġ O
ar t
Ġc ode
en d
Ġm a
in t
ar ly
a ge
yth on
i ll
a v
Ġd ata
Ġt e
ra m
Ġ J
Ġc h
ab le
Ġa cc
n d
u re
ĠB e
Ġw as
Ġa r
Ġm e
Ġa t
u e
ur al
ar m
Ġa pp
Ġh a
a g
igh t
Ġcom p
Ġn at
Ġcle arly
o s
um b
Ġa b
Ġhelp ful
am ple
am e
ou r
Ġ un
a ct
ĠE x
ation s
Ġnat ural
a ch
re ct
Ġ U
as s
or k
u st
u p
ĠTh is
Ġw arm
ul t
or m
e p
w er
Ġf o
r ite
Ġ en
Ġa d
im e
Ġs h
Ġw he
as on
a re
i e
i de
g ram
ar d
c l
is e
ic h
ar y
i b
Ġc l
ou ld
d er
a ck
Ġha ve
Ġex ample
o o
om e
Ġus ing
Ġus e
x t
a p
Ġpro gram
ate ly
Ġp l
Ġn umb
in d
Ġ \\
Ġim p
j ect
Ġre t
i p
Ġde f
Ġ 4
Ġfo llow
an g
f f
Ġ# #
Ġh as
Ġre s
Ġc or
f orm
ĠA ns
? ",
al ly
ason ing
Ġ k
Ġ up
Ġacc ur
ĠAns wer
Ġ '
Ġcon t
Ġp r
p h
ĠI t
a k
e st
Ġ 5
ĠW rite
u d
l ic
Ġwh ich
o st
Ġaccur ately
c ode
a c
s o
an ce
d u
an s
or d
Ġne w
Ġret ur
it ion
Ġab out
er c
g h
ar i
Ġcom m
r ou
Ġd o
Ġm an
Ġs et
Ġ1 9
( )
a st
ou nt
ent s
Ġ if
Ġthe ir
e ll
t her
Ġv al
ig n
f ere
Ġs c
k s
Ġg o
ou s
Ġ j
st ru
Ġ {
o g
le d
at ing
Ġne ed
Ġcor rect
Ġ +
c ess
re asoning
Ġ <
Ġcle an
ic e
le s
s ion
Ġp o
ith m
Ġfollow ing
Ġw ill
Ġp er
Ġn ot
ĠT o
p ython
r y
erc ise
Ġm ore
Ġf e
u b
Ġretur n
ut ion
Ġt ime
iz e
as e
on g
a ce
ir st
c es
et w
or s
ch at
g or
pl ain
Ġus ed
ĠR e
h at
gor ithm
Ġit s
Ġs pe
ĠEx ercise
en ce
Ġin st
r ing
ĠS t
! ",
p res
ic al
Ġe le
Ġal gorithm
w o
Ġ 0
Ġ out
ou nd
stru ction
i ke
n ing
Ġs p
Ġint o
Ġ qu
n e
m er
ra y
et h
Ġ ro
Ġw ork
b le
Ġal so
Ġad d
Ġc al
Ġ K
Ġnumb er
Ġv ari
Ġe ach
Ġwe ll
Ġimp ort
re d
ple ment
Ġ You
re e
c ri
Ġb ut
Ġcl ass
at es
Ġ *
ay s
Ġ }
Ġcre ate
Ġh ow
Ġt y
if ic
Ġo ther
) :
Ġt wo
Ġst ep
Ġin cl
i a
ĠP ython
t e
Ġd if
ter n
Ġa ll
Ġth an
o ve
ow n
p ut
Ġ V
Ġpro v
ment s
Ġe v
Ġon e
ra ph
Ġs er
Ġsu ch
av a
on t
Ġf ile
Ġc ol
' m
Ġs o
Ġs im
Ġm at
Ġl ike
f t
ve lo
Ġd i
Ġthe y
Ġspe c
p ic
on e
e ar
Ġ x
Ġwhe n
Ġd es
Ġf irst
Ġt ra
um ent
Ġb as
r it
Ġk n
Ġdif fere
ver s
at ive
n g
i ent
ĠF or
velo p
Ġl ist
per t
u al
- -
on d
e g
) ,
) ;
Ġim plement
Ġp art
Ġ 6
at h
ĠC h
u res
Ġd is
cri pt
Ġo b
E x
ol ution
u es
Ġw ould
Ġb u
el s
ĠC re
ĠH ere
il d
Ġ ke
Ġst ru
Ġc o
er m
Ġpro cess
g et
Ġs ome
Ġpr int
Ġp re
a il
' t
st and
k ing
Ġh is
ble m
e en
e c
Ġs ystem
y s
eth od
Ġde velop
is h
Ġthe re
Ġ i
Ġthe m
p s
Ġun der
Ġstru ct
Ġa llow
Ġin ter
) .
ar ch
Ex plain
a ke
Ġre c
Ġe ff
ion s
er t
Ġar ray
ing s
Ġ [
ic es
Ġwhe re
Ġ /
Ġle t
s s
Ġd ay
Ġpro ject
Ġf ind
Ġm y
etw een
Ġp e
ĠJ ava
Ġte xt
on s
Ġm ethod
Ġthe se
Ġ2 0
Ġapp lic
re ad
Ġo per
Ġcomp ut
Ġo ver
Ġpro blem
ver y
ĠW hat
p en
Ġdiffere nt
Ġst art
oc ument
Ġto pic
Ġof f
ode l
Ġg en
an ge
Ġr un
Ġcom ple
Ġval ue
Ġre pres
Ġb etween
Ġper form
c y
n i
rou gh
c ul
ar k
Ġm em
Ġma ke
i an
ce pt
ĠH ow
Ġt r
at er
Ġwh o
Ġ2 00
T he
l f
u de
Ġ |
ic s
Ġ ed
Ġ1 0
m ing
ĠH e
o ple
ro w
Ġan y
Ġm ult
i o
Ġvari able
à ¤
if y
Ġwe b
t ing
Ġhe r
Ġg iv
Ġsu b
' re
b er
Ġres ult
Ġp os
it s
Ġbe c
i re
Ġg re
en s
il ity
oo k
Ġs um
or ld
ic k
ĠA n
ul ar
Ġwh ile
Ġg et
Ġ" #
ou gh
ot h
Ġbe en
Ġfunction s
Ġde p
iz ation
Ġinst all
ow els
Ġh ad
e w
Ġth rough
in struction
Ġe qu
Ġfor m
Ġcon st
Ġpro du
ĠCre ate
Ġ 8
Ġd ist
Ġa m
Ġincl ud
Ġgo od
f ore
Ġwe re
Ġpe ople
Ġs m
ĠW e
Ġprov id
ation al
' ll
Ġ 7
n ce
Ġob ject
Ġapp ro
Ġnumb ers
v es
f ter
Ġte ch
Ġkn ow
Ġre m
in k
Ġc ount
ib r
Ġp ar
res s
Ġh and
Ġse c
Ġm ay
Ġo pt
Ġthe n
i ple
Ġhe re
Ġs ort
in al
le ct
Ġs he
Ġt ak
Ġm odel
Ġ ver
Ġle ar
ction s
Ġre l
c ed
Ġwh at
a us
Ġm ain
Ġ ra
Ġre qu
Ġg raph
ol d
Ġke y
Ġe m
it ies
ag es
Ġse e
Ġcal led
Ġa g
he d
Ġcon s
o b
ra ct
Ġst ring
Ġcomm and
d ition
Ġprogram ming
ow er
w ays
ch o
ur re
it al
` ,
ir on
Ġn ame
Ġst ate
Ġl oc
v ing
ĠC om
pe ct
Ġex pert
Ġin c
ib le
a x
he s
Ġtr ans
Ġan al
ri b
Ġdi rect
o p
i x
Ġst and
Ġpo int
\ ",
ur ing
d ay
Ġf l
Ġspec ific
Ġdevelop ment
v iron
y n
T ell
Ġpl ay
Ġ our
Ġl ibr
Ġas s
s er
Ġint eg
Ġm od
Ġval ues
( \"
i ence
id er
Ġex p
` .
Ġde c
Ġl ine
al le
ers on
d ocument
Ġgiv en
o se
Ġcal cul
Ġin v
Ġf act
Ġre g
Ġprogram mer
al s
ve l
Ġat t
v ed
ent ial
stand ing
Ġrepres ent
Ġman y
Ġ## #
t al
document ed
Ġa ct
ĠThe y
p es
as h
viron ment
Ġs a
f ra
Ġm in
Ġy ear
Ġin d
Ġb et
t en
Ġj ust
Ġd et
Ġele ments
w n
it ed
Ġb ack
Ġgen er
( '
in ue
Ġto tal
ie w
etw ork
Ġ 9
u g
Ġbet ter
Ġm ost
Ġv owels
t t
ĠD e
. .
ĠA d
ut e
p ort
Ġstruct ure
Ġen vironment
Ġr ight
Ġcomple x
Ġd at
p ro
in es
} {
struction s
Ġsim ple
C ont
Ġp ub
Ġex ec
Ġch ar
id ent
Ġsh ould
Ġty pe
ĠI f
Ġw ay
Ġv is
lo ck
ol og
ang u
ĠN ow
' ,
Ġc ould
a ir
Ġin s
ic ient
Ġdes ign
Ġs ol
ĠS olution
Ġallow s
o od
Ġt erm
h ip
in ce
Ġc ap
ol s
ord s
fra c
Ġst ud
Ġd iv
Ġte st
m at
Ġ end
ot her
Ġon ly
Ġele ment
Ġacc ess
i ous
er r
Ġty pes
s ing
as ed
se lf
Ġs ign
Ġse arch
Ġg rou
in c
ĠA l
en cy
ri end
S cript
Ġin put
Ġmem ory
at or
form ation
Ġfe at
aus e
ie ld
c om
as k
Ġstand ard
n ces
ĠP ro
g an
Ġfe el
nd er
Ġsu pp
Ġl ar
Ġal ways
ĠI m
w ard
p r
he n
a pp
i er
im es
1 0
Ġc he
Ġb oth
Ġincl ude
ĠS e
Ġev en
Ġbu ild
er n
Ġn o
l and
Ġw ant
t on
ĠThe re
Ġcomm on
Ġf il
Ġ Y
Cont inue
urre nt
Ġw rit
Ġa fter
ni qu
Ġinv ol
v al
Ġdep end
ct or
Ġb us
Ġapplic ation
Ġtak es
iz ed
r ic
Ġl angu
Ġopt im
in ed
is ion
Ġbas ed
j s
Ġa ut
ĠU n
Ġcomput er
Ġdo ing
\\ _
Ġn etwork
Ġtech niqu
Ġs y
Ġ ent
Ġinclud ing
ĠC on
Ġcont ain
i ed
Ġcomp on
+ +
et s
Ġp at
Ġcon vers
u c
if e
Ġd own
ĠA s
Ġres p
Ġh igh
Ġdis c
i ly
ĠThe se
Ġus er
ge st
2 0
Ġs ame
ar s
Ġth ree
. \"
Ġre ad
Ġsm all
Ġo pen
' )
Ġ1 8
: :
Ġin de
Ġprovid es
00 0
w ay
Ġe l
r al
Ġcomm un
Ġre f
ell o
ro l
em ent
Ġsp ace
Ġappro ach
Ġpo p
Ġcon cept
Ġhas h
n ame
Ġin formation
t o
ust om
Ġlear ning
Ġ19 9
in s
ĠA r
Ġe very
a le
Ġf riend
c ial
Ġimport ant
Ġex pres
Ġp h
Ġman ag
am es
Ġst r
Ġw orld
e xt
cho ol
e ver
Ġa c
ĠL et
' ",
ĠIn structions
ab ility
ĠIn st
Ġp ower
Ġalgorithm s
ital ize
Ġpub lic
Ġ/ /
e x
Ġb o
Ġ &
m y
a w
n ect
Ġ$ \\
Ġl oo
ĠU nder
Ġp ass
l ing
Ġlibr ary
ri x
ĠS c
d ata
C an
Ġw on
Ġe as
Ġar g
u ch
ĠJava Script
r on
Ġeff icient
Ġwork s
Ġc all
ng th
v ice
Ġ X
r an
ĠS o
Ġs ing
Ġimp ro
$ .
c d
n er
Ġapplic ations
Ġcon dition
Ġg ame
Ġto day
ĠN ew
Ġchar act
Ġf ound
Ġl ong
Ġn ow
Ġre al
Ġbe ing
$ ,
Ġ err
-- --
Ġperform ance
an y
Ġb re
Ġ ve
Ġha pp
Ġcon f
Ġprodu ct
_ _
Ġp erson
Ġme an
Ġprov ide
mer ic
: ",
er y
Ġb lock
p y
Ġt able
Ġex t
) )
Ġst ore
al k
Ġlangu age
Ġma de
Ġ1 2
Ġsec ond
ver se
Ġ :
ver al
Ġm ess
ys is
in ing
u ally
ul ation
Ġ ident
ro ss
t ime
Ġvariable s
Ġw rite
Ġsupp ort
t s
* *
ĠEx plain
Ġo wn
w are
fere nces
Ġconvers ation
Ġle ad
o ck
Ġen s
Ġcre ating
are d
Ġan s
Ġse veral
Ġpro pert
() `
ĠUnder standing
em ber
n ess
Ġc ost
ru e
l is
Ġcon c
o y
o int
o h
Ġs ur
c on
Ġs om
Ġpart ic
iz ing
Ġbec ause
Ġp ack
v ent
as es
Ġor ig
v en
ic ation
ĠA meric
it ive
Ġen c
Ġbe fore
i red
Ġ20 1
Ġmethod s
Ġvari ous
Ġe st
Ġanal ysis
Ġr ange
Ġt re
it ial
ert ain
Ġc ustom
Ġm ed
Ġbas ic
Ġag ain
Ġoper ations
Ġt ake
Ġmult iple
i ct
Ġ Q
l ine
Ġg u
S t
Ġp res
der ful
Ġdo es
Ġs olution
Ġsh ow
Ġimplement ation
ar ies
^ {
Ġunder stand
Ġth ings
at ic
ĠD ata
lo ad
\" )
ĠB y
H ello
Ġc ent
en e
Ġn ode
Ġyear s
Ġal tern
sion s
al ity
Ġpr inc
Ġ z
Ġle ft
t le
Ġqu est
ĠH T
l ow
Ġeff ect
b e
Ġc urrent
Ġre asoning
in ary
or n
Ġl og
yth ing
Ġto o
Ġn um
o id
Ġcont rol
Ġgre at
Ġ$ $
ur s
Ġa v
Ġstruct ures
Ġex per
. ,
u ll
Ġc are
or th
5 0
Ġre du
ter s
Ġs qu
Ġar r
Ġ %
Ġcol le
g es
am ed
od es
Ġth ough
ou n
ist s
Ġc ar
Ġ .
ĠS h
t ain
Ġwith in
Ġcon nect
cess ary
Ġan other
il t
as ks
ĠS he
ut es
ĠW hen
M L
a z
Ġbe h
Ġma king
Ġch ang
im ent
Ġm on
Ġcons ider
p ar
olog y
ĠA nd
Ġinc re
r id
Ġto get
Ġtoget her
Ġd on
Ġweb s
a ve
Ġm o
Ġcom b
ĠHow ever
iv es
Ġp ath
Ġc lo
Ġwith out
Ġans wer
Ġprinc iple
Ġpos s
Ġpro m
Ġaltern ative
b y
Ġg l
Ġdat ab
i or
qu e
t il
Ġl ife
it ing
k es
Ġkn own
Ġp ri
ĠI nt
Ġar t
Ġme ans
Ġsing le
Ġche ck
ar get
w e
Ġtechniqu es
Ġed uc
/ /
eth ing
W hat
oc i
od y
Ġlar ge
' ve
v ices
a e
Ġgo ing
Ġs k
o ad
Ġth ink
ĠO ne
Ġdef ine
Ġd uring
g ing
Ġexp lo
ĠS et
` :
Ġt asks
Ġman ip
al th
av ing
Ġh im
Ġor gan
lo y
Ġth read
te xt
: //
Ġgrou p
) ",
Ġdirect ory
ry pt
Ġm et
Ġse qu
Ġsc ience
Ġadd ition
at her
ar r
Ġf in
Ġre le
Ġt ree
Ġ3 0
an k
Ġ``` ",
Ġfeat ures
s h
Ġw ord
lo g
Ġf am
tern al
Ġar ound
Ġc ase
Ġor der
ir c
P I
Ġ ess
Ġm uch
Ġsu g
Ġsystem s
Ġus es
Ġ >
cc ess
Ġ* *
Ġs ize
Ġcol um
Ġne cessary
am p
ĠP l
Ġ19 8
s c
\" .
ĠRe ferences
f ace
Ġre ally
is m
Ġ< <
Ġh our
ĠU se
ro du
Ġconst ant
Ġwebs ite
Ġ ru
Ġb l
Ġretur ns
x im
Ġen g
ou th
Ġsom ething
at s
Ġt ry
Ġsort ed
Ġ" ```
ĠC l
Ġin itial
y z
Ġte am
um ents
or ning
ĠInst all
Ġm us
ot e
Ġrem ain
Ġs ay
Ġare a
our ce
l ish
Ġ1 5
g er
t ed
b o
Ġp ract
a h
ot s
Ġcalcul ate
Ġser ver
Ġpoint s
Ġse lect
Ġse ction
les s
g in
Ġst re
Ġstep s
ou se
e ad
Ġo cc
Ġimpro ve
en c
Ġsc ri
Ġinvol ves
ĠC an
r ight
Ġscri pt
iv id
Ġmess age
ram e
Ġwrit ing
Ġobject s
he mat
Ġout put
m l
a ut
or ing
our ces
Ġprinciple s
Ġt ri
f act
Ġbre ak
ĠAmeric an
Ġt arget
t he
Ġad v
Ġne xt
e k
ut ed
ic ial
Ġun til
an e
pl ay
Ġser ies
v iew
Ġ ide
] ,
Ġmat rix
e y
Ġcon sist
av as
ir d
Ġf ield
Ġm is
Ġt em
Ġam ount
in ess
Ġg ra
o pe
avas cript
Ġd id
Ġun i
Ġin f
Ġrequ est
Ġel se
m an
ĠC ons
ĠI s
Ġof ten
ac es
re n
u le
1 2
en se
ĠO nce
Ġ1 00
ĠS p
s et
am b
Ġdet erm
Ġsug gest
ĠF l
Ġc ertain
on est
Ġro le
Ġp ot
in ks
Ġto ols
ĠUn ited
al led
m ath
Ġde b
o in
ĠC ol
Ġbe st
T h
Ġdist rib
so le
Ġma ch
Ġbu ilt
ail s
Ġre ce
g y
ere st
Ġess ential
ive ly
ere d
Ġsol ve
Ġcompon ents
oh n
à ¥
Ġdatab ase
Ġn amed
ĠCom m
am ent
Ġev ent
ĠE ng
Ġse lf
an n
d io
int s
ĠO pen
Ġoff er
se arch
et y
H ere
= \"
Ġm orning
Ġpop ular
ly ing
Ġ à¤
ad d
Ġinde x
p os
a u
Ġm ark
Ġl ove
Ġt imes
Ġth ose
w ord
Ġma kes
oc us
ist ory
Ġm ar
Ġproblem s
Ġorig inal
ic i
t y
Ġfil m
Ġt alk
1 9
Ġrel ations
a de
o ver
ent iment
Ġrepres ents
Ġloc al
if ied
l i
Ġhe ad
d i
I n
Ġrun ning
Ġmult i
Ġpro t
Ġp ol
as ure
Ġch ild
c ing
} $
Ġ Z
ĠN ode
Ġpro f
ĠRe act
Ġso ft
Ġw ater
Ġfl ow
a pe
Ġwon derful
le t
Ġne ver
Ġl im
Ġbuild ing
ĠA PI
Ġa ge
Ġwork ing
ĠW h
pl it
Ġn odes
Ġ2 5
Ġb inary
Ġn p
Ġfact ors
Ġhapp y
Ġpropert ies
Ġthan ks
Ġis s
Ġexplo re
Ġfile s
ri ct
ĠL e
Q L
in u
Ġ19 7
Ġcharact er
Ġsy nt
at ors
_ {
Ġ1 6
Ġind ivid
Ġs ince
Ġg cd
Ġver sion
Ġfeel ing
ig ure
ĠTh at
Ġro w
Ġcomplex ity
h tt
ĠIm plement
Ġch o
Ġinst alled
j avascript
en ces
Ġposs ible
Ġdat as
Ġw ide
at ch
Ġsh ort
ĠCre ating
Ġfact or
ĠC al
it or
em s
Ġcap italize
Ġf ocus
Ġ= =
ur n
ĠU sing
Ġn on
Ġtech n
it le
ant s
Ġch at
Ġsign ific
H ow
ĠHT ML
Ġbus y
b all
Ġb oo
Ġfun d
Ġl it
Ġrelations hip
Ġlear n
g le
at ure
Ġch ange
Ġf our
Ġint erest
Ġp air
Ġe ver
ĠM y
Ġw a
b um
ion al
ĠB ut
Ġmat hemat
Ġl ay
Ġest ab
ver age
Ġm ight
he ad
id es
Ġus age
Ġpos ition
ĠS ome
I O
Ġindivid ual
s ed
y m
Ġle vel
Ġpar alle
Ġuse ful
ri e
Ġline ar
ct ure
an ced
Ġd ra
r and
og raph
lis hed
Ġm ust
Ġconst ra
Ġm id
ent ly
c hes
al se
et ing
Ġc ru
yn am
ĠO n
s entiment
Ġle ss
Ġunder standing
Ġm ove
ĠC S
ĠO ut
and as
w w
Ġad j
T o
b ack
Ġclass es
Ġpro b
Ġsynt ax
ĠE n
Ġg row
p or
Ġs w
ĠCons ider
Ġcon sole
Ġcont ent
Ġd ocument
Ġl inks
Ġle ngth
Ġanal yz
Ġh onest
st ring
ĠG re
f or
Ġlibr aries
g s
ĠIn d
Ġvis ual
Ġeduc ational
Ġst ory
oc ial
vers ity
Ġerr or
un ction
Ġp ur
Ġre verse
Ġresult s
P U
Ġdesign ed
Ġsa id
ind ow
g re
il ar
rou nd
Ġgl ad
Ġsu ccess
on se
Ġst ill
Ġens ure
Ġmach ine
Ġhand le
Ġpower ful
Ġequ ation
Ġhe alth
v ious
er ing
Ġcon ver
Ġup d
Ġke ep
am et
Ġto p
Ġpot ential
ĠW orld
Ġs chool
iv ed
Ġsequ ence
Ġal ong
ĠC ount
tu re
r ation
Ġb ro
ight s
ĠSt ates
ĠAd d
ar ing
Ġg ot
Ġsoft ware
Ġs ound
Ġh um
Ġte ll
Ġident ify
Ġe ar
Ġv iew
Ġd ays
Ġcompon ent
Ġ- -
Ġstud ents
t ml
h or
p end
Ġprocess ing
Ġsqu are
' :
w ords
er o
ur y
Ġresp ons
m e
Ġoff icial
l ie
ĠS er
p oint
ĠS tu
ĠF irst
n ot
av ig
are nt
p loy
Ġre st
Ġp le
} \\
ĠA t
Ġhelp s
Ġsy m
< /
Ġmanag ement
Ġl ot
ĠA fter
en er
Ġs ide
Ġdepend ing
ĠRe ad
Ġd em
or ies
Ġpack age
Ġcomp any
Ġpl ace
Ġar ch
ĠA pp
Ġt rue
oo se
Ġb ene
o v
ch ie
i ate
Ġim age
ent ion
ĠS ince
Ġal bum
Ġ1 1
Ġdist ance
il ities
Ġbeh av
an ks
() )
ĠU ni
ll o
Ġstate ment
Ġbus iness
Ġl ast
Ġsignific ant
Ġpos itive
ĠP r
Ġc our
A E
Ġit er
iv ity
Ġadd ress
Ġto ol
Ġl ab
us h
Ġh ome
Ġpl an
Ġh ig
Ġcru cial
Ġl ook
s q
p art
ĠD es
Ġh old
ou ble
Ġcol or
re qu
c ap
y le
enc ies
) $
cl ude
in ation
Ġhour s
Ġconstra ints
n umb
Ġde cl
Ġmin im
ne w
ĠS chool
Ġst ation
Ġav ail
Ġ1 4
Ġsim ilar
Ġmain tain
ynam ic
Ġ19 6
t ra
Ġinteg ers
Ġlet ter
Ġimp act
Ġas sist
D E
ĠYou r
J ust
ce l
ĠW ith
Ġpat tern
Ġl ater
Ġass ign
m in
' d
k en
Ġspec ial
Ġfam ily
ĠC ar
m a
t a
Ġm ind
Ġterm s
Ġ very
pl ic
Ġd en
i ou
in ally
Ġequ al
o f
us s
f ile
Ġw ords
ĠEx ternal
Ġinter face
Ġchang es
Ġb row
Ġbene f
b ers
ri es
Ġc ur
le x
Ġf lo
Ġrequ ire
Ġg ive
ul ate
Ġ\\ (
re am
ĠM an
] )
Ġquest ion
Ġro ot
Ġa w
Ġdes cri
ae iou
Ġuni que
Ġa chie
Ġr out
Ġarg uments
b al
Ġch alle
v owels
Ġp ut
ĠT e
b ased
ang le
IO U
Ġst d
iv ing
AE IOU
aeiou AEIOU
res sion
Ġc r
Ġpre vious
is s
Ġd ig
an ces
s ide
le ft
Ġinclud es
it her
ĠR em
ward s
> >
Ġh ard
l s
2 5
end s
T hat
.. .
Ġoptim ization
Ġ- >
yn ch
c o
Ġ5 0
c ome
st r
Ġver t
in ter
om et
i k
ord ing
Ġbe gin
o ot
fere nce
Ġmin utes
Ġl ight
Ġh aving
ĠSet ting
Ġtra ck
Ġcolle ction
ĠE ach
Ġs l
ĠThe n
one y
ĠBe fore
Ġd ri
end ing
, \"
Ġc irc
Ġsmall er
Ġloo p
() ;
led ge
Ġex ist
Ġfe w
Ġexpres sion
al f
d a
ĠO r
Ġd ue
Ġab ove
os s
Ġpres ent
Ġneed ed
Ġen er
Ġde al
ile s
! \"
ĠT ake
ul arly
Ġcomple te
Ġwe ek
ynch ron
L et
or g
Ġmean ing
ĠA ust
ve st
Ġthough t
A T
Ġs ong
Ġan im
Ġmod ule
Ġresp onse
i um
Ġs it
Ġs ent
d le
Ġstart ed
j oin
Ġs ocial
at form
re c
Ġfeat ure
Ġexec ution
H ey
Ġmodel s
Ġavail able
Ġdatas et
Ġa ff
Ġf ore
Ġ1 3
( \\
pl ot
Ġm om
Ġre d
ĠP h
c s
Ġre search
r t
Ġarray s
u pp
Ġc ity
Ġcolum n
Ġma xim
Ġ4 0
Ġo ld
m ed
Ġres ources
a pt
Ġexper ience
Ġac ross
ke y
Ġ1 7
Ġcontain s
Ġneed s
Ġener gy
ĠCount y
re t
Ġparalle l
ĠOut put
ter ns
Ġp ie
Ġp red
Ġarch ite
pp ing
Ġeas ier
ard s
ĠCom p
od ing
Ġdeb ug
Ġst ack
Ġn avig
F rame
Ġex cept
Ġpar amet
Ġinter act
val ue
s p
f e
Ġaut om
a ult
ĠY ork
Ġinteg er
is p
Ġmus ic
Ġstr ateg
ar ray
ĠUni versity
Ġspe ed
ur ity
c al
Ġl ow
4 0
h tml
Ġerr ors
Ġbo x
he re
math b
id ed
ang o
1 5
Ġfund ament
ill s
ist ic
is ed
ĠRe c
htt ps
ic ro
Ġve ctor
ĠB rit
Ġconcept s
g ed
Ġother s
Ġse par
Ġpri v
ĠDe f
igh b
Ġa verage
u ro
Ġman age
Ġele ct
ĠG e
Ġdef ined
o on
Ġpat terns
** :
Ġb ring
ĠC ont
able s
Ġint rodu
Ġterm inal
Ġlist s
Ġt ru
Ġp ost
av or
and om
ram ew
ramew ork
u ine
Ġmon th
Ġma g
Ġp ip
j ava
Ġex act
Ġexample s
ast er
Ġco ll
{ \\
e ep
Ġa ir
2 00
Ġo pp
ĠB u
ĠL ist
p ly
ou d
Ġcondition s
Ġcharact ers
Ġhand ling
pr int
ĠT ra
de f
al u
i ver
Ġwa iting
ĠS outh
Ġv s
ĠJ ohn
Ġbehav ior
ĠR ub
Ġ< /
ap s
ip s
Ġsu re
s plit
o ing
res p
et ic
Ġgo ver
f er
Ġb ody
ĠM at
Ġb ig
Ġp age
Ġst at
s ol
or der
ur ther
le v
3 0
ĠC o
Ġgo al
ĠH igh
Ġd er
Ġknow ledge
Ġgre ater
Ġdef in
c he
Ġl oad
c pp
Ġset s
le y
Ġt ask
ĠB l
c le
Ġcont inu
Ġtechniqu e
ĠSe e
ĠAust ral
Ġgen uine
e e
Ġ' .
Ġnum er
ĠA ss
y pe
Ġres pect
Ġus ers
y l
8 0
Ġed ges
ĠN ext
b ed
r ans
Ġg ames
Ġev ents
1 1
Ġdis play
in clude
Ġw ays
Ġsu per
ang ing
$ $
S T
Ġapp ear
ir tu
Ġvert ices
Ġc ross
Ġf ix
Ġs ense
ĠR es
Ġd ynamic
Ġeng ine
b it
Ġser vice
ac he
ĠG o
Ġwe ight
ĠE m
ĠV is
T P
ot t
ro ll
Ġblock s
Ġmem bers
j ango
Ġprovid ed
ro id
Ġex pect
ĠW est
Ġb ase
Ġst o
c ol
Ġqu ant
\ ":
if t
Ġgenuine ly
Ġem ploy
O M
Ġph ys
ĠM ar
Ġmat ch
ak ing
un d
i res
n ment
fact ual
Ġl and
Ġser vices
Ġp ay
Ġp ort
Ġcon ne
Ġis n
E T
Ġm er
e ff
st er
Ġev alu
Ġever ything
Ġall oc
ĠN ational
Ġ= >
in a
ĠN e
1 4
Ġiss ues
Ġsum m
Ġl ate
r ate
Ġa way
Ġcommun ication
ĠRub y
ĠEx ample
Ġbec ome
if ul
ib ility
ne y
Ġ es
Ġpl atform
Ġco ver
Ġmis sing
l ist
er ial
b ash
ĠP ar
Ġloc ated
ĠImplement ing
s um
le ction
Ġass oci
amb da
Ġb ra
Ġpl ot
Ġsort ing
cs v
Ġacc ount
j or
Ġchalle ng
l n
Ġperson al
Ġquest ions
Ġp arent
Ġcont ext
Ġcomput ing
o k
Ġhig her
ĠN orth
aut iful
Ġtechn ology
d d
---- ----
ĠO ver
Ġe ither
Ġatt rib
ĠP er
ide o
Ġf ree
6 0
Ġb al
Ġinst ead
av es
con om
Ġg e
ĠFl ask
al a
Ġb ook
Ġoper ation
lic e
Ġeas y
Ġredu ce
ĠRead y
ĠThere fore
p ple
Ġyour self
Ġcomp il
p ri
ĠS ystem
Ġl ink
Ġfundament al
Ġhum an
Ġr andom
im en
Ġhe ar
ĠA m
ĠC ent
all s
Ġfo od
Ġpartic ularly
Ġcom e
Ġ ,
Ġh alf
Ġarg ument
l u
Ġtre es
ĠR ep
Ġth ird
Ġform at
Ġtra vel
id th
Ġon ce
ic ally
Ġt w
ĠS im
Ġf requ
ul a
Ġin tern
Ġfollow s
Ġdiffere nce
om m
Ġfactor ial
cap italize
ac ed
es ome
Ġarchite cture
ĠP y
oun ter
Ġagain st
Ġre pl
Ġin vest
Ġfo ot
Ġprogram s
Ġv oid
Ġadj ac
1 00
sq rt
I t
Ġtrans form
end ed
Ġpr im
Ġfind ing
C T
b ook
Ġb and
Ġcon stru
Ġtest ing
Ġbenef its
Ġit ems
w ise
Ġare as
it ch
Ġf ull
Ġbe lie
ĠO b
Ġent ire
Ġimport ance
Ġe arly
Ġne g
Ġed itor
yn c
Ġex plain
Ġf inal
an a
pic ally
lo bal
ĠL isp
Ġgiv es
irtu al
Ġbec ame
Ġp a
Ġdown load
Ġplay ers
Ġ2 4
st ra
ĠRe g
d ent
iz es
ĠCan ad
Ġallow ing
Ġanalyz e
ĠR ed
Ġaddition al
is on
Ġide a
Ġqu e
Ġj ob
Ġpartic ular
en n
is es
om en
Ġc rit
u ck
Ġle ast
Ġf ramework
Ġs ource
r ist
Ġrec ord
d own
ĠD i
ile d
Ġwhe ther
Ġaw esome
Ġde ep
ĠU S
pro cess
ut ure
c ent
Ġne ighb
og n
ĠD ist
Ġp d
ĠE l
Ġs at
on es
Ġreg ular
pp ed
ĠF e
Ġre ach
um e
ĠWe b
te x
ful ly
im ate
Ġgu ide
ĠBrit ish
o x
Ġmathemat ical
Ġinst ance
om es
Ġdistrib ution
is ing
A B
Ġind ust
ĠJ ust
Ġrec urs
Ġsh are
Ġqu ick
ro p
Ġrele ased
resp ond
Ġstr ong
Ġcommun ity
her n
Ġz ero
ĠM ay
Ġdepend encies
t est
Ġpropert y
Ġexec uted
l ike
ag ine
ĠCS S
Ġp ython
Ġwrit ten
ĠSt ate
Ġconf ig
se l
Ġlit tle
Ġm oney
de x
Ġinde pend
Ġh y
Ġty pically
Ġre ason
a res
im al
ograph y
Ġfollow ed
ĠStu dio
Ġplay er
ĠA ll
] ;
Ġth ing
Ġstud y
A n
Ġcor respond
Ġstate ments
Ġsolution s
C h
ĠC ity
Ġs al
Ġact iv
ific ation
Ġrepresent ed
Ġpriv ate
se qu
du ct
ĠC he
iv en
Ġchild ren
Ġbas ics
Ġcalcul ates
c ast
p i
Ġr ate
Ġfriend s
Ġclo se
Ġex pl
ot al
ot es
Ġa ud
Ġins ert
Ġmaxim um
ĠD o
Ġrow s
ĠD on
R E
r or
Ġd ouble
ici ency
b ra
Ġadd ing
Ġsome one
Ġam ong
Ġcour se
Ġenc rypt
Ġab le
Ġb ound
) ^
Ġgrou ps
Ġin structions
Ġgener ate
Ġmanip ulation
Ġexpres sions
Ġthread s
D oing
id ing
Ġdeterm ine
Ġtra dition
us ion
il s
Ġne ar
Ġb it
Ġtak ing
Ġmed ia
Ġn orm
A s
Ġhe ight
Ġpop ulation
Ġpr ice
Ġexec ute
p ose
Ġval id
a f
ify ing
ĠS pe
M y
Ġl aw
un e
r ont
Ġme asure
rou p
ist er
read y
ĠHe y
Ġse ason
Ġaut hor
Ġan ything
Ġm ill
Ġcre ates
Ġdif f
m it
Ġle g
ĠData Frame
Ġh istory
at ter
Ġapp ly
Ġ200 6
ynchron ous
Ġcolum ns
Ġprob ability
' ]
e le
Ġf urther
Ġref er
Ġapp rec
ĠCh o
1 6
as ing
Ġde l
Ġcho ice
ĠC PU
ĠH istory
us e
Ġ6 0
( [
Ġmat erial
lev ision
Ġfor mer
a cc
Ġpri or
Ġm ot
Ġdiv ide
ĠVis ual
Ġe conom
Ġc oding
Ġf ive
cl ass
Ġsc al
ĠS QL
oo gle
g ress
Ġcle ar
Ġthan k
ĠR un
m et
ct ors
Ġob ser
i od
Ġru les
Ġboo ks
w h
Ġpr ime
ĠN o
Ġpre vent
or por
Ġp andas
Ġind ic
ut h
l er
g round
Ġsim pl
Ġp ers
il le
Ġplay ed
numb ers
Ġd one
Ġprocess es
Ġsec urity
Ġprint s
au gh
Ġmult ip
ak es
Ġh ouse
is f
ab or
Ġlim it
Ġsym b
Ġprom pt
Ġ$ (
ĠD ec
Ġsol ving
is sion
ĠW ar
Ġpo ly
Ġc ell
ist or
ra ight
Ġret rie
t xt
n a
cul ate
Ġdec ision
Ġre port
Ġab ility
re ate
Ġins ide
Ġfil ter
g o
is ions
Ġc ases
Ġ19 5
s ort
Ġcan not
Ġk ind
Ġb ar
Ġn ice
ĠG ood
E very
ist ics
Ġal ready
f irst
d iv
Ġopt ions
iz ations
ĠEng lish
ĠD jango
a les
Ġbl ue
he nt
Ġit self
p re
Ġma jor
u ff
Ġsc en
Ġrem o
Ġestab lished
= \\
Ġv ol
Ġatt ack
D A
Ġtra ining
ĠM in
ag ing
ir th
Ġs old
Ġset ting
Ġwh y
Ġrelationship s
ĠF inally
l ib
ou ra
n ode
Ġconnect ed
o ff
Ġapp l
n cy
Ġgover nment
ĠN um
Ġfunction al
u ra
I f
} ,
Ġbut ton
ĠRem ember
Ġw indow
Ġrequ ired
ĠS ec
Ġdra w
Ġ< -
Ġcol lect
a i
ate ver
ac hes
il i
Ġoper ating
Ġpart s
1 3
Ġex c
Ġmanip ulate
Ġsat isf
n um
Ġsit u
Ġgener al
ĠQ u
ar n
lo c
Ġcan d
a un
is k
es e
Ġdisc uss
pt ion
Ġover all
W ell
Ġun it
c hed
Ġre pe
ore d
Ġp ain
K eep
Ġkey word
Ġcom es
Ġact ually
ub lic
Ġ ri
ĠE d
c ont
P y
i ents
Ġn ames
pt y
L ist
\" );
Ġeff iciency
Ġh anging
Ġ` <
Ġf uture
ort s
Ġmom ent
Ġm en
Ġv ideo
Ġexper i
Ġproduct s
b les
om ain
it es
Ġbe gan
ĠD is
\" >
rid ge
Ġc amp
Ġf ac
ĠM ed
on y
Ġf ace
Ġwh atever
Ġv irtual
ĠC ode
Ġequ ations
Ġav oid
b ody
Ġnavig ate
v ant
Ġstring s
ck et
Ġc aus
on derful
[ ]
Ġgraph s
om s
Ġ ;
Ġhe ap
b an
ĠHT TP
Ġque ue
Ġthe ory
Ġch oose
1 8
Ġcommon ly
e ction
Ġg r
ur sion
ĠP ost
Ġtem pl
Ġf ine
Ġexact ly
Ġestab lish
Ġdebug ging
um p
cd ot
e es
il it
Ġcomp et
Ġs ides
Ġp ress
Ġm ix
ĠR iver
Ġbrow ser
os p
om in
ĠS ub
Ġrepresent ation
Ġdi ction
ĠA ct
in king
ic ult
Ġyou ng
ĠP ark
Ġme as
h ood
Ġm iles
er v
Ġcustom er
Ġprof ess
Ġf ru
Ġf ar
Ġp ast
Ġa ction
Ġt urn
ur ch
Ġbeh ind
Ġc y
ĠA b
Ġl ines
Ġadv ant
Ġsh ared
ic le
le nt
ĠD ep
erc ent
Ġw in
Ġqu ery
St ring
g ra
Ġma p
ĠAnd roid
s on
Ġt itle
Ġneg ative
Th is
Ġapprec iate
Ġf ra
ch an
n ow
en ing
ĠI DE
Ġ @
Ġb i
ort un
U ser
ĠS w
ig ns
de red
Ġf it
ĠAd dition
ĠT rans
ut able
Ġas king
an c
Ġper iod
res h
Ġloc ation
Ġnetwork s
Ġfield s
Ġst atic
ĠIn ter
h o
ang er
S QL
N ame
Ġed ge
e qu
Ġappro pri
B us
a ur
j ure
Ġf avor
our n
ww w
a ction
sel ves
Ġim m
om an
Ġr ather
ĠCh ar
Ġprovid ing
ur ation
p ack
ĠM e
at t
ac hed
s pe
Ġdefin ition
Ġpre c
imen sion
it ude
Ġincre ase
Ġ( $
Ġreg ression
al king
Ġinstall ation
et er
Ġocc ur
Ġconsist s
Ġprot ect
Ġpol it
st it
f ect
Ġv ill
Ġh tt
g g
) \\
Ġinteg r
Ġsign al
re l
se c
l ight
Ġcont rib
Ġtoo k
Ġf lex
Ġver tex
ran ch
w orld
ĠJ S
at io
C l
Ġdiff icult
D ata
Ġsc re
Ġremain ing
ex ample
ut ing
ĠR ust
Ġto wn
Ġadd ed
Ġrec ogn
Ġdet ails
Ġh ost
ĠP e
Ġcomp os
Ġmulti pl
ĠM ark
Ġc ut
Ġst yle
am s
urre ncy
Ġsc he
ĠG u
an cial
Ġappro xim
Ġpair s
Ġrequest s
Ġs ens
Ġsec ure
Ġmark et
ll ing
Ġaccur ate
F S
ĠF alse
ĠP H
O N
Bus y
ĠN umb
ast ic
Ġadjac ency
on ent
ĠCho ices
ĠCh rist
Ġthought ful
Ġb irth
Ġform ula
Ġcre ative
Ġhe llo
ran k
\\_ {
a im
l in
Ġparamet ers
Ġan n
Ġdi re
ove red
d en
Ġsound s
2 2
Ġbu y
Ġpers pect
ra ft
mat rix
s ize
Ġw or
Ġrequ ires
ĠW ork
Ġ2 1
ough t
ĠInt eg
' );
Ġ ut
Ġlead ing
ĠT ype
Ġdevelop ers
Ġmem ber
oun c
t ract
ĠAl ways
R A
t itle
Ġmod ern
ic ks
ish ing
Ġa im
ra w
ĠCol le
Ġ19 4
Ġtrans l
Ġma c
cial ly
or age
ĠInt rodu
Ġbec omes
Ġsent ence
ĠM on
Ġstart ing
Ġte levision
ĠE r
Ġd r
Ġex cel
le an
ab ilities
Ġob tain
Ġeven ing
Ġwide ly
Ġcons um
Ġs un
Ġaff ect
Ġa f
Ġdirect ly
Ġru le
Ġdem on
Ġref ers
Ġdevelop ed
is hed
Ġcl ust
oc ol
Ġp ercent
ĠAn other
Ġlar ger
Ġproject s
Ġrecurs ive
Ġcount ry
bo ard
ar b
Ġmanag ing
Ġpract ices
Ġefficient ly
Ġpro gress
[ ::
ag ue
Ġchalleng es
mathb b
Ġre view
olog ical
Ġcl ient
ĠA ut
ĠT est
er al
O S
ell ig
Ġtable s
le vel
ĠA f
Ġspec ies
Ġpract ice
j oy
s es
ĠE ast
[:: -
ab ly
Ġlink ed
ĠC lo
Ġm icro
id ence
Ġde vices
pe cially
s cript
ĠO pt
g ree
p ath
Ġvis it
ĠWh ile
sol ute
[ '
Ġ\\ [
ear ch
ĠK ing
ĠB ro
ĠF il
ous ly
Ġro ad
Ġsm o
an ies
Ġdep th
em b
Ġrec omm
ĠJ an
ver t
Ġtradition al
ĠG ener
Ġgre en
Ġaut hent
ord in
A R
r ices
ab el
b s
Ġbring s
i pe
ĠP re
c her
I nt
if ies
ĠCon f
Ġcall s
Ġadv anced
e el
ag s
om ial
Ġes pecially
ari o
i ction
Ġprodu ction
Ġh ope
I N
Ġdes cript
Ġs ample
Ġminim um
ĠS u
t imes
Ġassoci ated
Ġqu ality
en ed
Ġ8 0
Ġappropri ate
Ġoper ator
Ġcommun ic
Keep ing
Ġdist rict
S ystem
C on
Ġstre ngth
Ġgrow th
bo x
Ġdiv ing
Ġquick ly
Ġst ates
Ġt ur
ĠDef ine
e al
ĠA ir
ob ile
ĠL ine
Ġro b
ĠCal culate
re et
Ġoptim ize
Ġeffect ively
Ġon es
P ro
m s
Ġinf lu
id s
ĠIn tern
Ġple asure
in dex
u les
Ġlangu ages
Ġl ive
Ġ[ '
ĠComm on
ĠAddition ally
Ġa ctions
} }
Ġst op
ĠSt ring
le ngth
ly m
Ġbe autiful
Ġindividual s
Ġg lobal
tern oon
Ġcommand s
i ation
Ġon line
Ġme et
ĠI I
Ġcol ors
Ġtry ing
Ġlong er
Ġlay out
ĠS m
Ġke ys
Ġbro ad
Ġcl ick
ĠN one
Ġeffect ive
z z
Ġa pple
Ġf igure
ut ton
ĠH i
Ġexist ing
Ġconne ction
eg in
Ġaf ternoon
Ġme chan
ol der
Ġeas ily
Ġc ook
Ġacc ording
Ġatt ention
2 1
Ġoff ers
pp er
C om
ĠP art
m ar
Ġinterest ing
Ġ u
Ġindust ry
p d
ĠPH P
m ap
Ġl o
Ġmat h
Ġachie ve
b egin
Ġn orth
ĠTh anks
Ġw ar
Ġf air
Ġrece ived
m ost
ul ture
le n
Ġdes ired
Ġcorrespond ing
Ġref lect
Ġ\\ \\
Ġdef ault
Ġcontain ing
Ġphys ical
Ġupd ate
r un
ĠR ob
Ġn ove
S P
ĠDe velop
Ġsh ap
t ings
Ġas ynchronous
ount ain
Ġk m
Ġfe et
ĠDist rict
ĠT rue
c er
Ġfe ed
Ġem ot
Ġlar gest
Ġen ough
ĠW ill
ĠR ail
Ġimplement ing
J ohn
ĠIntrodu ction
Ġexcel lent
at ives
C D
Ġthrough out
or ph
ĠF un
z e
a ctions
Ġhe art
ĠE uro
Ġs ix
Ġpl t
> `
}{ \\
Ġide as
re at
ĠC or
Ġpre process
Ġencrypt ion
if orn
Ġ2 2
Ġcompil er
Ġas pect
th ough
iforn ia
ĠM em
Ġdemon str
n ers
Ġst ay
ide red
en g
Ġrepresent ing
tt y
Ġconc urrent
Ġto wards
h am
L E
et a
Ġfin ancial
Ġma x
Ġnorm al
k a
Ġ __
ĠA g
Ġder iv
) .",
Ġe p
Ġf ast
Ġcost s
Ġbl ack
Ġattrib utes
R L
ĠB o
ĠM c
Ġtra in
le ep
Ġsk ills
B C
ĠH ello
ĠG oogle
ed y
Ġg ain
pl ace
l im
Ġloo ps
ĠAustral ia
ck s
ac y
Ġpub lished
Ġinclud ed
Ġcons idered
' ;
ag raph
Ġper fect
Ġexp and
Ġintern et
Ġim ages
f unction
Ġpro per
ĠB as
Ġl ower
d o
Ġ ill
Ġrel ated
ĠM us
2 4
Ġ200 5
Ġs ite
Ġsc ient
Ġshort est
Ġde vice
Ġun its
Ġneighb or
Ġpred ict
ĠP andas
Ġp y
Ġsp ent
le ase
Ġpur ch
ound s
Ġrun s
m m
ĠAd v
ĠF rom
ri ed
Ġdistrib uted
Ġcare er
ĠCal ifornia
ĠG raph
Ġfavor ite
Ġsupport s
h a
il ing
Ġsu it
Ġrem ember
o llow
Ġmess ages
Ġtest s
Ġ200 0
Ġindepend ent
Ġhe y
Ġfoot ball
ans k
Ġrec ursion
Ġwho le
Ġc up
Ġgo es
Ġmat rices
Ġeffect s
in o
ĠR ails
c ount
Ġlab el
} )
ne ver
Ġpath s
ĠO ff
Ġcent ral
Ġst orage
ĠDes ign
ĠI dent
Ġch art
Ġinstall ing
Ġdoes n
Ġcustom ers
Ġn ight
Ġ$$ \\
Ġsepar ate
Ġtopic s
Ġsh ape
part ial
cept ion
ĠColle ge
3 2
pro ject
Ġtak en
Ġde v
Ġvari ety
Ġprodu ce
Ġch ann
Ġc at
Ġsur pr
k y
Ġgrou nd
ĠP erson
ĠH is
Ġs ources
Ġdec or
ap an
Ġconstru ct
he ns
Ġex ten
Ġj o
? ,
res ult
Ġstud ent
7 5
Ġprim ary
Ġrespons ible
Ġstrateg ies
Ġl oss
in ct
Ġnp m
u ary
Ġen joy
à¥ į
ĠBu ild
f s
} (
a it
ate ll
Ġr atio
Ġem ail
l ier
Ġre ct
Ġus ually
cho ols
Ġw ent
ĠN etwork
ar a
Ġint ellig
Ġlevel s
' .
s in
m od
Ġrout e
S ure
ent al
ĠOpt im
Ġ ^
Ġmod ify
Ġsa les
ĠEuro pe
ot ed
ke ll
ĠAr ray
ll s
Ġpie ces
ĠNum Py
Ġad apt
k ay
ve ctor
ul ating
ĠM odel
el t
Ġse en
ĠA cc
ĠB oo
Ġcomp anies
ient ed
Ġopp ortun
Ġreg ard
Ġrem ove
Ġdig ital
Ġem pty
Ġhel d
Ġm ention
Ġex ercise
Ġsim ply
Ġf alse
Ġreg ion
Ġstore d
Ġde le
Ġcoll abor
Ġan t
Ġp ages
y ear
ft y
atic ally
Ġs outh
Ġresult ing
Ġtem per
Ġredu cing
lic k
d om
Ġdi ag
Ġoptim al
v ille
Ġth inking
Ġde gree
Ġh or
t c
Ġnat ure
Ġpur pose
Ġex am
ge bra
Ġtrans port
- \\
W onderful
ĠIs land
ra p
ĠO ther
Ġ3 5
Ġf ib
as kell
E R
Ġvill age
Ġ} ;
ansk rit
Ġv ia
ĠM ich
Ġc ame
Ġinvol ve
a ff
ic y
ĠS anskrit
Ġd omain
pres s
Ġeduc ation
Ġe y
ast e
Ġexpect ed
st art
Ġup on
m ain
ic a
s ub
Ġwhe never
ĠT ime
Ġgo als
ĠPl ay
Ġcent er
Ġtempl ate
ce ed
f it
ing er
Ġde st
Ġcont in
Ġw omen
ĠIm port
Ġy ield
iv il
ĠAn al
Ġmo v
ĠAf ric
Ġloo king
Ġb r
um n
th read
in fty
ĠD OM
or ial
ĠM arch
Ġs atell
Ġpre tty
ĠJ u
Ġlate st
ens or
ĠJ apan
Ġmill ion
ro s
Ġinteg ration
or iented
ounc il
Q u
d es
f low
app y
Ġnot e
Ġe ast
Ġst raight
Ġd a
Ġmeas ures
f aces
ĠE ar
Ġ ...
As sistant
ĠB ay
Ġg rid
Ġch ain
Ġdire ction
os ing
Ġstart s
Ġab solute
ĠCl ass
C ount
Ġsmo oth
ĠQ ue
() :
m on
Ġw idth
Ġb rand
Ġst ations
Ġpar agraph
art ment
Ġadd s
ond on
ĠW ell
st ate
Ġwh ite
a iled
c os
b orn
Ġcorrect ly
oci ety
Ġperspect ive
em pt
Ġread y
Ġpie ce
Ġvisual ization
ĠInd ian
as c
ĠAn ge
ĠA ug
ess ion
Ġimplement ed
Ġopen ed
Ġle d
Ġwe st
Ġty p
Ġoper ators
Ġin her
Ġens ures
S o
h ost
Ġd ate
ale nt
ĠT otal
Ġr isk
Ġopen ing
Ġb all
ĠD av
Ġph ot
Ġmonth s
f ield
re hens
Ġas ync
r is
} ^{
Ġbo ard
Ġexperi ences
ĠE ff
u ple
Ġdescri be
Ġdiv ided
Ġext ra
ach ing
plot lib
d is
Ġre v
Ġra il
Ġdiction ary
Ġvis ited
ĠR oad
Ġform s
Ġplay ing
Ġsumm ary
le ment
Ġprodu ced
Ġconf igure
ĠPer form
Ġpl ant
Ġcontain er
al ign
ĠJ ack
n omial
Ġto ld
Ġout side
Ġfor ce
b ase
Ġst ar
ĠG ra
Ġge omet
Ġpa per
y les
ĠN ot
av y
the ta
A r
Ġactiv ities
un ic
vers al
ĠGre at
Ġshow s
ĠF ollow
Ġ< =
in st
f ord
Ġcont inue
4 5
ĠO lym
Ġrel i
Ġorgan ization
N ew
Ġt ax
Ġs end
G ood
Ġexcept ion
we ight
ĠCanad a
ar row
Ġ2 8
Ġf ront
Ġc atch
Ġcomm it
ĠTh us
Ġconvers ations
ct o
Ġse em
Ġspec ified
roll er
Ġle n
Ġser ved
Ġremain s
) (
ing ton
Ġsh o
cho ice
min ist
ĠN ove
ĠPr int
Ġf aster
ĠA pr
Ġen h
1 7
E S
ĠP o
Ġsub ject
ĠP a
ĠF ind
acc i
ess age
Ġmer ge
on acci
Ġget s
ĠSt ep
Ġcent ury
Ġiss ue
ĠL ondon
Ġdep loy
Ġre us
Ġ2 7
oc uments
Ġinteract ive
A pp
Ġp an
re st
Ġcomple ted
Ġ\\ ]
Ġpo inter
ult ural
Ġres ource
Ġco ordin
ĠCS V
E r
un g
Ġtw ice
Ġdisc us
Ġlay er
ĠL ove
Ġro om
Ġit em
à¤ ¾
mathb f
er ies
Ġlove ly
d y
he llo
ĠS upp
g raph
} $.
Ġ200 7
Ġdirect ed
re me
l ong
ĠP ol
Ġspec ify
u x
Ġsymb ol
w ork
Ġ2 3
o pt
F T
N ode
m ic
Ġcont ra
Ġfrequ ency
Ġ: -
Ġchang ed
Ġpack ages
alle st
ĠFun ctions
in it
ĠS ing
Ġ200 4
Ġf ail
ult ane
Ġbal ance
W rite
ĠB ar
ĠB ig
ĠOb ject
Ġscre en
( (
f l
ĠH er
Ġlog ic
Ġmid dle
Ġsto res
ĠS an
Ġ3 6
Ġcomp rehens
Ġback ground
imension al
Ġl if
Ġas k
ree k
ĠCh oose
out e
Ġexpres s
Ġp ark
Ġan gle
Ġex ists
Ġcl aim
Ġf ul
p ass
Ġm ass
et imes
ĠP res
Ġsa ve
Ġcre d
Ġ2 6
Ġsh aring
Ġh istor
ĠS ol
is sions
ur g
Ġsim ultane
Ġve ctors
Ġappl ied
Ġal gebra
A S
g ment
Ġde ath
oura ge
ĠApr il
ĠU RL
ĠAug ust
ĠEng land
Ġp ick
Ġass um
Ġfunction ality
Ġrequire ments
- >
down load
pt ember
ĠAdv anced
Ġsur face
ĠS un
Ġ+ =
ĠJan uary
et ch
Th anks
Ġt en
Ġsuccess ful
ore m
Ġmo ving
Ġpro te
ul ations
Ġv ar
ĠN ame
Ġ9 0
Ġk il
Ġens uring
Ġemploy ees
Ġcolle ctions
ĠD own
ĠTe ch
l ines
Ġresp ond
ph a
r s
ĠJ une
Ġnew s
ock er
Ġstrateg y
Ġconfig uration
Ġh arm
Ġwe l
di rect
am a
Ġsp read
Ġperform ed
Ġauthent ication
f il
ĠSt reet
5 8
Ġstand s
Ġdec isions
Ġear lier
Ġc ard
A l
ort hern
Ġd f
Ġincre ased
Ġme eting
ition s
Ġs low
Ġclo sed
Ġdid n
Ġhard ware
Ġad vice
cl usion
Ġstre am
Ġh i
Ġinvol ved
Ġloc ally
at tle
Ġb ranch
ar p
k n
ĠM AT
Ġfilm s
ĠB it
ac ity
Ġmultipl ication
ari ly
Ġbelie ve
Ġc ounter
oc al
Ġins ight
Ġpoly nomial
A C
Ġra ce
Ġqu ite
Ġcon v
ĠIn c
v is
qu ad
Ġra di
Ġnumer ical
Ġhtt ps
ĠD iv
d b
ĠSt art
Ġb ill
Ġper m
row n
Ġp ow
Ġlike ly
ĠPro v
ĠOlym pic
Ġ\\ )
ĠSc ala
Ġtru ly
D K
Ġrespect ively
l ang
ou ch
Ġh ot
Ġbe low
Cl ass
Ġadj ust
indow s
Ġl aun
ici ans
L AB
if f
Ġdiffere nces
at ures
er a
Ġt ips
ĠL oad
Ġcomp ared
ithm etic
ĠSe ptember
amp ions
ig u
htt p
Ġmanag er
Ġc ateg
Ġcontinu ous
Ġfix ed
ap ple
Ġdef ines
Ġsom etimes
ĠAustral ian
Ġc ause
Ġs we
Ġd am
in ters
Ġcomb ined
Ġf rame
ĠR E
Ġexten sion
ĠT od
ic les
i am
Ġmention ed
_ ^
Ġcomput e
Ġ^ _^
an cy
ĠM od
iv al
Ġincre asing
Qu ery
b r
Ġrele ase
Ġocc urs
Er ror
9 0
Ġl ost
ĠH ouse
Ġ4 5
ĠA c
ĠMAT LAB
Ġcirc u
l t
Ġcirc le
b ug
Ġapp lying
H i
Ġon to
m ax
wo od
ĠAmeric a
numb er
) );
Ġcl oud
ĠJu ly
Ġdecl are
ĠF ire
ĠB ob
cri be
ative ly
Ġdist inct
ĠAss oci
Ġrecomm end
pro blem
hip s
Ġsw itch
Ġintellig ence
om ing
ĠG erm
Ġt alking
js on
ĠClo jure
2 3
Ġ} );
ig en
Ġse lection
Ġro ck
Ġrece ive
Ġf ire
Ġwork ed
Ġre ference
f ort
u fact
av en
Ġalloc ation
ix ir
Ġparamet er
ĠDevelop ment
m ber
Ġc ars
Ġcomb ination
Ġread ing
++ )
Ġget ting
Ġform ed
ĠRep res
r ong
ĠH ar
Ġ200 8
Ġatt empt
c lo
à¤ °
Ġf ill
Ġr ound
Ġext ract
Ġmark eting
Ġfore st
m id
Ġm obile
Ġdet ect
Ġanalyz ing
Ġsp ir
Ġcomput ation
Ġ200 3
c ific
Ġd ise
ch ange
< <
p ite
Ġprofess ional
r c
ĠIntern ational
Ġsub tract
ĠF unction
Ġtre at
ĠInd ia
Ġep is
un k
r ics
re w
Ġtru st
v an
Ġco eff
ĠS um
Ġchang ing
Ġ:- )",
Ġhow ever
Ġact ual
Ġmo ved
I D
or ge
du c
P S
ĠM a
Ġrele vant
Ġb ought
olog ies
Ġf arm
Ġj oy
Ġopt ion
ple nd
cto ber
ĠM iss
Ġco ol
ĠType Script
Ġra dio
Ġest im
Ġre p
ĠM id
ĠD uring
b u
n y
r atic
Ġnum py
C reate
ff ic
ĠV i
d ing
Ġt our
Ġdiv iding
} ^
Ġpartic ip
Ġ q
ĠM ake
Ġb ott
Ġg ir
ĠL ake
Ġl iving
) +
Ġl ambda
Ġn ational
tra ck
Ġac cept
plend id
Ġto ken
Ġh op
Ġsub problem
) $,
Ġperform ing
Ġins p
Ġpass ed
re act
Ġc rypt
Ġwonderful ly
Ġinc orpor
ĠG it
e ks
ĠM ac
Ġcomp ar
Ġcap able
he st
Ġs n
Ġcl ub
Ġident ity
ilit ary
Ġb lo
ĠR et
n es
Ġf older
Ġapple s
I T
Ġfriend ly
A lice
i ers
Ġsur round
ip her
Ġsuit able
k ens
m odel
N ET
Ġ^_^ ",
Ġ !
Ġ id
ĠTh ank
ĠH and
Ġne ural
^{ -
eel ing
] .
ut ive
D B
an cing
Ġcl ar
oy al
er ve
ven ue
ie f
ĠJ ames
Ġsm allest
Ġsearch ing
h ib
Ġ200 2
Ġinf in
Ġpolit ical
Ġst ri
ĠH am
Ġ; )",
Ġa x
, \\
w est
Ġset tings
o le
o ph
Ġc ele
d ers
Ġprint f
ĠT V
b ru
p ace
st ain
y t
Ġde li
Ġres id
ĠNove mber
Ġ20 10
Ġsignificant ly
ĠDec ember
Ġf all
ru by
ĠO ctober
ĠP at
Ġthem selves
Ġar ri
Ġgra du
ura cy
) =
Ġen able
e f
Ġintrodu ced
Ġo il
Ġwant ed
Ġa part
Ġsc ore
ĠJS ON
ĠInst ead
Ġwel come
Ġ ou
Ġy et
Ġd u
Ġj ava
d ri
Ġdatab ases
6 4
at ory
Ġw alk
s y
ĠL u
F eeling
Ġmat ches
Ġpart y
ĠCont rol
Ġmaterial s
C C
Ġk new
p ot
Ġ ult
Ġm ode
Ġlim ited
Ġautom atically
Ġs em
Ġsu stain
Ġcrit ical
Ġf ish
ĠEng ine
ĠG roup
oo ks
Ġel if
g on
Ġst ars
Ġal ign
com es
g ame
Ġpo inters
Ġadvant ages
= =
a el
ĠF ran
en ced
à¤ ¤
Ġs ends
Ġin j
Ġdescri bed
Ġachie ved
Ġdec ided
ĠB ra
Ġex ternal
d imensional
Ġ200 9
n et
ĠL iving
} .
err or
Ġconne ctions
3 6
o e
Ġin form
Ġpl aces
ang es
ĠC our
point s
Ġmet ers
Ġanim als
ĠAPI s
ĠEar th
Ġim agine
ne xt
ĠBas ic
Ġs chools
Ġteam s
out hern
rie f
print ln
Ġin it
im in
Ġbegin ning
} $,
Ġ200 1
d ed
ens ive
ĠE very
Ġtemper ature
l a
ĠAr t
Ġmultip ly
ĠTod ay
Ġp ict
Ġdatas ets
ĠCanad ian
al t
Ġrepe ated
ĠF orm
ub e
Ġd ark
ag ement
Ġo dd
ers hip
Ġcomp are
Ġnove l
ĠLe ague
Ġdevelop ing
ĠOver all
bru ary
Ġpass word
Ġal most
y ond
ou ri
Ġdo g
à¤ Ĥ
Ġut il
ĠT ex
ourn al
Ġmat ter
Ġpe ace
Ġdiv ision
ĠSu per
Ġman ufact
Ġtrans fer
al ue
= '
e per
Ġdis pl
ĠS am
s qu
ĠW indows
Ġbusiness es
Ġ3 2
ĠSe lect
st ract
Ġm ental
: **
Ġretrie ve
ac her
S im
ite ly
im ately
ĠV ari
Ġdiv is
Ġac qu
n ov
N et
u ce
Ġsu ff
9 9
it ation
st d
Ġlit er
F irst
em ents
he l
O R
c are
ac ing
Ġhonest ly
ĠP en
igh ter
Ġve h
g en
Ġassign ed
ul ia
Ġaud ience
b in
Ġsimultane ously
L L
ĠS y
ĠIdent ify
Ġs leep
ck ets
Ġmechan ism
w idth
d f
il k
Ġnot ation
Ġser ve
00 00
Ġele ction
Ġderiv ative
ak s
c out
Ġc ards
ou p
ĠIt s
Ġpract ical
ĠP lease
Ġrun time
Ġeconom ic
3 3
7 0
Ġinvol ving
Ġplan ning
Ġro t
le arn
ĠG l
Ġcommun ities
Ġcurrent ly
Ġsong s
Ġmathemat ics
Ġselect ing
Ġpreprocess ing
ch ar
ĠAnge les
}$ $
at ab
Ġd ocuments
Ġm other
ve y
ĠM ult
I d
ĠM ore
ĠSt e
Ġsa w
Ġinter p
Ġorig inally
ĠA ng
Ġv o
ul ated
Ġreturn ed
os en
Ġtra ffic
Ġbuild ings
lis m
Ġt uple
Ġplatform s
Ġ199 0
ĠComp any
ĠT re
Ġcre ation
Ġmod ules
Ġg ave
Ġfeed back
Ġhigh light
Ġs plit
A ge
Ġb ird
our ney
a j
Ġc ulture
Ġwe eks
Ġconc urrency
Ġh it
ĠI P
end er
ĠO h
re te
Ġc am
Ġbre ath
] (
Ġde ad
Ġex pen
met ric
ĠR S
r ig
Ġsec ret
on al
t able
ĠV er
Ġinter faces
Ġle aves
er ry
Ġf elt
Ġ( )
p o
Ġacc uracy
stru cture
s u
Ġbreak ing
Ġval u
Ġpro pos
orph ism
Ġto ys
Ġs av
ĠT om
Ġfor ward
ĠP ri
Ġtell s
Ġengine ering
ĠFe bruary
ĠM o
ram es
Ġcamp a
Ġpl ants
Ġver ify
b on
re ed
it ory
Ġl ives
O h
ty pe
2 8
ĠC ouncil
Ġloo ks
ak er
ĠEx pl
ro y
Ġconver t
Ġa head
in y
lo cal
Ġelect ric
kn own
Ġre nder
Ġbroad cast
ĠDav id
ĠL og
e llow
ĠOptim izing
Ġar ithmetic
ific ial
ĠPro gram
E D
w here
ĠA re
y a
Ġ201 1
ĠH askell
i os
ĠG over
Ġsub stit
Ġmod ular
ĠAcc ording
Ġre ached
Ġcount ries
Ġcheck s
Ġinde ed
Ġconc ise
ier arch
Ġj Query
Ġsp aces
ĠBl ack
ag er
ĠM icro
ag ed
so ft
Ġ1 000
Ġj ud
Ġw orth
Ġst ress
) $.
Ġout comes
Ġcur ve
ĠCh urch
Ġb orn
Ġsecond s
ĠRec ords
Ġcolle ge
Ġ upp
r um
Ġ### #
n ed
ĠH appy
p onent
ĠO ur
Ġexp ort
er ia
Ġsequ ences
ĠG iven
g roup
Ġb ag
el come
Ġcalcul ations
osp ital
Ġfound ation
Ġmatch ing
ĠA lice
ĠM ain
angu age
b l
Ġ ?
Ġw rong
Ġsqu ares
Ġalbum s
Ġapproxim ately
Ġcommunic ate
ĠUn ion
Ġe mer
ver sion
Ġbro ther
ĠConf igure
Ġent er
Ġda ily
Ġinter se
x y
ĠA L
ist ical
ĠDown load
emb ly
and s
id get
ĠD el
Ġr ich
Ġinst r
Ġsur v
an i
ĠChe ck
Ġf ather
ĠD ocker
ĠD em
Ġs ays
el se
ĠGe orge
ĠIn itial
Ġfocus ed
b ing
Ġbe yond
3 5
de pend
Ġarr ang
ĠRail way
Ġcap acity
Ġselect ed
Ġ7 0
ĠPe ople
O P
Ġinitial ize
Ġsa f
l or
it ar
Ġcomb in
W e
The re
Ġflex ible
ĠB ack
C ore
Ġis land
Ġ )
ad s
Ġs plendid
Ġoff ice
ĠY ear
Ġdepend s
Ġe tc
ub ble
Ġf em
atab ase
lic ation
Ġmar bles
c ons
ĠTo p
ĠSp ring
Ġb ur
Ġad ult
Ġdec re
Ġallow ed
$ :
Ġoptim izing
Ġevery one
f riend
Ġc ore
o res
M P
Ġf resh
Ġsitu ation
Ġsubproblem s
Ġl ies
ed s
Ġh ous
ĠTex as
Ġc ivil
ĠPost gre
Ġw ood
Ġpl ays
cul ar
Ġ ur
Ġ& =
w ers
ic king
Ġtra de
e ared
ĠD et
Ġtri angle
c ient
Ġw ind
ĠCent ral
ĠLine ar
ot a
ĠW ash
Ġstr anger
Ġprior ity
Ġsatisf y
Ġc m
Ġve get
l ict
Ġhold s
Ġcont ract
Ġflo at
ĠIm agine
Ġhig hest
Ġn ull
Ġl ock
ĠIt al
Ġcomput ers
Ġs on
it ution
ĠIn s
ĠPostgre SQL
Ġc ast
Ġt ag
ru st
N A
Y es
Ġj ourney
Ġopp os
Ġ ir
in put
Ġg old
H mm
Ġad minist
ĠAssoci ation
Ġcand id
ĠM ary
ip al
l ay
it ance
ĠBe st
ĠGre en
Ġm ist
id den
ĠT wo
Ġo kay
Ġhelp ed
F ind
u zz
Ġconc er
P erson
ĠI D
Ġdef ining
ĠPl ot
Ġcom fort
ĠN ote
' (
oc ols
Ġcomp ile
Ġ198 0
l ambda
Ġe cho
Ġconsist ent
Ġsc ope
A ct
ad es
er ation
Ġclo s
Ġ199 9
Ġs ni
Ġcon struction
Ġtre nd
C ar
Ġmom ents
Ġreach ing
Ġqu ad
Ġclean ing
Ġins ights
C ap
Ġst yles
oo p
ĠC ython
Ġma le
Ġsol id
Ġext ends
r m
Ġe h
Ġorgan izations
Ġ ing
le ar
ĠG CD
( -
Ġor dered
Ġsc ale
Ġbe long
Ġwho se
col or
Ġgraph ics
Ġreus able
Ġre pos
Ġp ush
ĠT ext
h y
Ġb rief
Ġst ock
c reate
ĠA ccess
f rom
Ġart icle
ĠC ustom
ut s
Ġf inger
Ġexec uting
Ġsa fe
ĠR ich
Ġch osen
Ġh ierarch
Ġsm art
E lement
Ġdo ll
Ġact ivity
++ ,
i ans
Ġprot ocols
sq l
sequ ently
Ġscen ario
ĠM ag
Ġst e
m ark
he t
ĠG ame
Ġconstru ctor
D O
Ġw atch
ĠM or
l ab
Ġinter val
Ġpl ots
ĠA p
Ġd ed
ious ly
Ġple ase
Ġsni pp
\" \"
ĠB re
wh ile
Ġmov ie
Ġcheck ing
Ġ1 20
ĠM et
__ (
Ġdeal ing
Ġs lic
V M
n ge
ab it
Ġpass ing
c is
ĠInteg r
s w
Ġfru its
Ġgener ated
Ġsumm ar
ĠNumb er
ĠArray s
app end
st ep
Ġhe at
Ġcell s
ĠA lex
Ġp ounds
Ġany time
im age
ib onacci
p are
Ġcontin ues
Ġb right
ĠL aw
Ġmanip ulating
N S
Ġequ iv
Ġb ot
Ġhash ing
Ġimpro ving
ĠB ash
Ġrece ives
h ouse
ĠE duc
ag o
Ġwant s
Ġevalu ation
Ġattrib ute
ĠBuild ing
U DA
ol f
Ġexc iting
\" ;
ax is
ĠR ad
2 7
N T
W S
d ient
ĠV ir
Ġprom ot
ĠPa ul
b ar
Ġrect angle
) /
cent ury
ĠB oth
ĠR ock
Ġgener ally
Ġt er
Ġg ram
Ġdescript ion
Ġfil led
az ing
Ġre ve
Ġl i
Ġcondition al
Ġclust er
Ġso on
w rit
us ed
Ġprof it
Ġbox es
ĠWork ing
o ps
ond s
b matrix
Ġb read
ru pt
Ġsatell ite
P E
o es
Ġs us
augh t
Ġremo ving
I m
ĠWest ern
Ġmove ment
c ity
ue st
Ġevent ually
Ġsche du
ĠL a
Ġexpl oring
p at
u el
Ġhim self
5 00
G P
Ġsh own
ĠWash ington
C ol
un c
Ġcalcul ated
Ġhapp ening
d ate
m ore
Ġw at
Ġim med
Ġ201 2
se y
Ġcontinu ed
Ġquant ization
) }
Ġsaf ety
Ġ vers
Ġaccess ed
Ġstat us
Ġt ick
Ġd ou
Ġ4 2
inu x
ir ing
Ġext reme
S h
ĠR o
Ġdeterm ined
Ġneighbor hood
b eta
Ġapp s
Ġs ession
Ġmed ical
p m
om b
ĠCon c
Ġspir it
iz z
air s
ĠH ope
Ġopportun ities
ĠD ask
Ġr an
g a
Ġf ight
i j
Ġst age
Ġtr ig
Ġinitial ly
it er
Ġequ als
Ġchann el
Ġhigh ly
ĠC D
r uth
Ġd ive
ĠA v
ograph ic
q l
Ġwe ights
Ġph one
Ġhold ing
Ġ5 00
ĠComm un
Ġreli able
Ġis ol
L ook
ĠM al
Ġill ust
C A
ĠG PU
Ġlab els
un ch
ĠR oute
f lo
p erson
h old
Ġg as
ĠC lick
S L
Ġsp orts
Ġinteg ral
Ġact ive
ol ic
Ġc ultural
tu res
id a
k i
ter m
ard en
+ \\
Ġrec ent
Ġaud io
Ġ19 0
ren ch
Ġma ps
Ġ199 8
Ġupd ates
ĠB ill
Ġrem ote
Ġparalle lism
h ire
pt r
port s
ĠNe uro
ĠEff icient
Cap italize
or ough
Ġab s
ĠEn ter
Ġc ities
Ġcon clusion
Ġt ouch
ĠSec ond
Ġre n
Ġb ud
ĠMus ic
Ġcon duct
Ġcl imate
Ġconf lict
Ġden ote
ĠEl ixir
2 6
O f
Ġfound ed
v as
erc ial
Ġbas k
Ġev idence
con f
ĠAnal yz
ir m
ĠD ay
ens ity
Ġ: )",
Ġqu eries
ib ly
b ert
i us
Ġapp eared
Ġorig in
ĠCol umb
ĠFran cis
Ġth us
rom e
Ġm ilitary
pos ition
Ġinter pre
b es
Ġb ank
Ġstat istical
t op
Ġgra de
Ġrepos itory
Ġs ynchron
Ġcall back
Ġf ant
Ġlet ters
Ġsnipp et
iz er
Ġinter actions
ĠBit Net
ĠAL RA
t ree
Ġrest aur
L I
Ġs and
end l
Ġpl aced
lis p
Ġkeep ing
col umn
Ġ201 3
x i
rough t
Ġfin ally
Ġc ache
ĠD r
) `
ĠH ill
ph as
Ġsub s
ĠCom put
ĠCent er
Ġful ly
Ġmot iv
t an
Ġa id
Ġde eper
Ġ2 9
ĠSp ark
Ġadvant age
iven ess
ĠM any
l ife
ist an
ĠEx press
Ġacc om
ip ment
à¥ ĩ
ĠSt and
Ġmo ves
Ġflo ating
ĠRob ert
Ġ3 00
ĠH ind
Ġtext book
Ġimpro ved
Ġobser v
' ],
Ġen ables
Ġbirth s
Ġst oring
ĠS en
Ġdri ve
Ġder ived
u ed
Ġthe orem
Ġst ories
Ġspecific ally
ĠAl so
Ġwa it
Ġult imately
ip se
Ġstud ies
Ġcho ices
Ġrespons es
am ar
Ġenc lo
gre es
ĠL eg
Ġlog ical
Ġsub set
Ġtransport ation
E n
Ġ197 0
O T
ĠC UDA
Ar ray
T rue
he ast
ĠF oot
Ġattack s
ĠGener al
Ġdispl ays
st ud
Ġprec ise
Ġscient ific
ed eral
ĠTech n
Ġgener ation
dri ven
e ch
G ener
p x
Ġe g
Ġcom ing
Ġal t
ph i
ĠV iew
ertain ly
oun ced
Ġc ou
Ġl ack
ĠP rom
ĠM ost
ond ition
ĠX ML
Ġdisc ount
Ġpotential ly
s m
ot lin
R e
Ġsc ene
Ġpre fer
ili ar
Ġrecord ed
Ġsymb ols
ĠKing dom
ĠMich ael
Ġ( -
or row
Ġintern ational
Ġto kens
Ġ( `
Ġv ary
ĠApp lying
Ġinvest ig
Ġinput s
Ġdig it
Ġstrong er
] [
ow s
Ġe at
Ġg all
Ġvalu able
b and
ol k
ibr ary
Ġappear ance
N umb
as y
ĠP ublic
w rite
Ġb an
il arly
ĠTh ink
Ġri ver
V iew
is l
Ġ4 8
Ġprom ote
Sim ply
Ġun c
Ġmodel ing
Ġth row
Ġv en
ĠU ser
Ġgu itar
Th read
a led
ĠNeuro Core
ro om
red ients
Ġboo st
Ġd ro
Ġ` [
pr ime
hes es
Ġhealth y
Ġupd ated
Ġchalleng ing
ĠT w
ĠT im
Ġrec ords
Ġart ificial
Ġanim al
ĠB el
ĠWill iam
ĠU I
Ġw oman
ĠL ou
Ġfeel ings
Ġshow ing
Ġpercent age
ĠSer ies
Ġupp er
ĠFl or
Ġc overed
Ġparent s
Ġde grees
ĠL os
Ġab stract
Ġ199 6
Ġpa id
Ġc ipher
ol ve
Ġgiv ing
ĠVir gin
C ertainly
Ġh om
r ance
} ;
ĠU K
Ġcharacter istics
Ġdem and
ow ns
Ġappear s
Ġnumer ous
S c
ĠRepres ent
ĠAr ch
Ġexcept ions
hes is
Ġvol ume
Ġmac ro
Ġcont ents
Ġ199 7
or rect
Ġt ail
Ġb alls
qu er
ĠG ames
Ġ7 5
ink ed
Ġblo od
h and
ro ad
ĠRep ublic
b utton
ĠCh ampions
app ing
download s
Ġf iction
ari os
Ġmag n
Ġm ut
Ġm ountain
ĠCar ol
Ġvo ice
D F
st on
Ġdet ailed
Ġmaintain ing
Ġlimit ations
h i
ĠH ash
Ġv i
Ġhop ing
d ouble
h ing
Ġb ul
ĠS ar
Ġt all
Ġt rou
ĠA ward
et her
Ġse gment
ĠTh om
Ġpr oud
ĠPart y
Ġappro aches
ĠPh il
ĠExpl oring
local host
Ġpict ure
ri al
ĠR s
Ġhand s
Ġshe ll
ser ver
ĠCour t
M A
ic ed
ĠP oint
Ġpow ers
{ (
ic ing
Ġexpl an
ĠR uss
d ist
Ġ` .
Ġaccess ible
Ġmanag ed
Ġestablish ments
stru ct
Ġdocument ation
Ġswe et
i ctions
Ġb ad
le q
ĠM ax
ĠL ast
Ġgener ates
Ġabsolute ly
ĠThe ir
Ġag o
Ġlearn ed
ur t
Ġwe ather
Ġintrodu ce
Ġcircu its
Ġ ice
Ġcon vent
Ġs ociety
Ġe ight
ap i
az y
d x
Ġey es
L P
t otal
am ing
Ġpart ial
Ġtri p
F rank
al ing
() `,
Ġloc ations
val ues
Ġrail way
ĠF ore
Ġch ance
Ġver sions
Ġal though
Ġse ctions
orm s
Ġdeep ly
19 9
Ġsuccess fully
Ġradi us
ĠF in
Ġdec rypt
for ward
i et
F ile
Ġt im
Ġc os
Ġrel ig
ĠG et
Ġden oted
Ġcaus ed
ens us
B etween
Ġem phas
sh ow
Ġevalu ate
Ġc oo
ĠDe bug
Ġ _
it ute
Ġto w
alle l
ul ner
Ġinst ances
ĠRes earch
Ġfra ction
ĠC ore
Ġconcurrent ly
Ġser ves
Ġconfig uring
Ġinsert ion
de l
Ġf ont
Ġle ave
Ġdec imal
U I
i ost
o pen
Ġin ner
ĠL inux
ĠE ven
B utton
ici ents
j k
al pha
4 6
Ġhe ard
Ġposition s
ĠEr lang
are st
Ġtra versal
Ġtravel s
B e
ĠA pple
ĠL ib
Ġman ner
Ġmicro ser
ĠH istor
onest ly
Ġboo lean
Ġse ems
Ġc d
plic it
Ġscen arios
Ġcap abilities
Ġpl ug
A I
sol ving
ĠDep artment
Ġto y
Ġbott om
g ence
Ġarg s
Ġan g
Ġ{ '
in ner
Ġeg gs
Ġpl ane
Ġprevious ly
* }
c ase
F L
Ġreflect ing
on om
ĠM ach
Ġ$ |
ph p
alle y
ĠCl ub
ist ry
ĠS l
ig ma
Ġent ry
Ġincre ases
cess ing
ĠDe cl
4 2
ĠM r
ĠCh ina
Ġour selves
Ġcall ing
ĠSp ace
H onestly
Ġb log
m t
Ġf asc
Ġgen etic
Ġhy pot
augh ter
p g
ant ic
Ġlay ers
T ruth
s ive
ac ement
ĠS E
ĠS ort
S E
Ġte acher
Ġdig its
Ġaspect s
Ġb ridge
Ġinc hes
Ġ: =
Ġproper ly
Ġhelp ing
vel te
az ine
ight ly
Ġ( \\
Ġmem o
Ġ$ {
Ch ar
eg er
A ll
Ġorgan ized
Ġcont act
Ġenh ance
iost ream
Ġan cient
ro te
Ġrepl aced
ĠPres ident
Ġepis ode
Truth fully
Ġt ab
Ġtalk ed
arb age
m ission
ce an
Ġcom ments
ĠF rench
Ġgre et
Ġdele te
ĠSupp ose
4 8
st ream
Ġin verse
Ġre new
ĠK e
ĠBe autiful
cl ud
Ġexper iment
ĠS ch
cl us
Ġfin ite
Ġdemonstr ates
Act ually
as p
on ym
il on
Ġbut ter
t es
w ith
Ġchalle nge
ĠDi rect
Ġp ipe
ĠG r
Ġqu ar
Ġtrans formation
Ġpres ence
def ined
f ind
re m
Ġwe ak
Ġche m
friend ly
ĠMat hemat
Ġ199 5
ĠC r
Ġsh ip
Ġrepl ace
Ġco py
Ġ" \"
it ors
ĠS ym
Ġa ward
ĠM er
iv ot
Ġdet ection
Ġcomb ine
Ġconstant ly
ban ana
Ġh idden
Ġle aving
Ġstru gg
ĠPro ject
Ġm ood
em pl
Ġg rand
ĠG old
St ate
Ġshap es
Ġp en
ĠA h
Ġv ulner
ĠF ibonacci
Ġcor out
Ġidentify ing
ĠW rit
Ġad vent
. )
Ġ ]
Ġw ild
ĠA WS
-- -
P r
ad o
ĠH all
g r
k ins
v ised
et es
Ġpress ure
ĠP op
Ġunder lying
d ir
Ġm ilk
Ġmeaning ful
sy ch
Ġdisc overed
N D
ro ot
ĠP ort
ĠSc ott
Ġpol icy
Ġ3 1
Frank ly
Ġam azing
Ġremain der
Ġmach ines
Ġtechn ologies
a per
Ġb rought
ed ge
Ġhe avy
Ġdet ail
Ġins pect
Ġpol ice
R I
u ge
ar se
ĠC reek
Ġcomm ercial
ĠAl though
Ġdepend ency
Ġtur ns
le ans
al so
ill a
if orm
por ary
Ġo p
ap ter
Ġclass ification
c ending
Ġremo ved
ĠChrist ian
Ġin nov
Ġh tml
Ġiter ate
Ġstat istics
ĠR oyal
Ġl a
A L
Ġass ert
ron ic
Ġscript s
ĠN ative
Ġ20 20
yl van
ĠSpe cific
Ġ199 4
Ġrout es
Ġdisc over
Ġ! =
ib ilities
Ġequiv alent
m en
um s
ĠA nt
ur istic
Ġgra dient
Ġcoeff icients
.. ..
ĠLove ly
ĠColumb ia
s ource
Ġmat plotlib
ĠFil m
Ġb ow
ĠB en
ain t
Ġeff ort
Ġsign als
Ġocc urre
ĠEurope an
Ġfun c
Ġse ven
Ġfind s
Ġenvironment al
Ġrecogn ition
ĠFoot ball
er as
ans ion
Ġra ised
T ime
Ġy ellow
Ġinc ome
m ult
at ial
Ġim pl
Ġbud get
el ly
Ġlim its
Ġchat ting
erv ation
D es
land s
Ġadjac ent
ĠA M
ĠAp ache
Ġbask et
i ra
th let
os ed
ĠM art
ĠMem ory
c ss
St raight
Ġminim ize
) ]
. $
Ġ1 50
ĠB us
ou l
ĠH y
Ġle nd
ĠL ists
Ġperform s
Ġnavig ation
Ġregard ing
ri an
Ġpl ans
Ġgrow ing
Ġbot tle
u k
se e
Ġredu ced
Ġparent heses
ĠSm ith
Ġcre am
Ġequ ipment
Ġem bed
Ġan not
Ġse ll
Ġp uzz
i pped
Ġw ife
Ġbas is
-------- --------
ylvan ia
Ġin equ
Ġflo or
Ġin ternal
Ġph r
Ġconsider ing
ĠR el
Ġcould n
Ġfam ous
Ġlead s
Ġest imate
ĠDis c
b re
ĠA tt
Ġl ic
ol id
ĠCon nect
qu ery
Ġm yst
ic ago
ĠR oman
Ġr ates
Ġk ill
Ġgu ess
Ġcomplete ly
Ġrob ot
M ap
S er
ĠDe v
Ġcar ry
amar in
Ġother wise
ĠIm pro
Ġsimpl ify
T antra
track ing
Ġclar ity
Ġcoordin ates
Ġfor ces
cl ipse
Ġdecl ar
Ġhistor ical
ĠOlympic s
w ater
Ġsp end
Ġt rib
Ġs en
est ival
Ġsum mer
Ġsign ed
ĠOver view
B y
ĠS at
ĠL ife
Ġ| |
ĠSc ience
Ġcollabor ation
m essage
ag on
Ġsc atter
c ar
f rame
ĠC ong
ĠM ountain
Ġfru it
Ġclo ser
/ ).
un t
Ġmod ified
Ġflow ers
Ġpresent ed
Ġk ern
Ġgener ator
it iz
ĠW ater
Ġ201 4
Ġa ware
Ġemot ions
ĠAc ade
F X
Ġcy cle
T V
c les
Ġatt ract
Ġfore ver
ĠAfric an
Ġcou ple
O b
Ġin fra
Ġro ots
ĠJ ulia
Ġown ed
ĠWh ite
Ġphys ics
act ive
ĠSer vice
Ġden omin
ĠEduc ation
c rypt
Ġra in
Ġimm utable
ĠMicro soft
ul er
ĠTh read
An y
Ġs izes
Ġim ag
ĠV alley
Ġel imin
ns ylvania
Ġch urch
Ġdirect ories
Ġcombin ations
A X
ĠAfric a
ĠRE ST
U n
if ier
ĠL ocal
Ġrefer red
Ġinflu ence
\\ )
Ġc ourage
Ġcap ture
Ġcar bon
on ic
Ġold er
ĠJ er
Ġdecl ared
Ġm ig
Ġobject ive
U T
Ġpred ictions
Ġpro port
Ġyield s
Ġinstr ument
te e
, $
g ins
ĠJ im
c irc
h r
Ġann ounced
v ar
ate st
Ġe co
Ġnot ice
sc ale
Ġ> =
A re
h ash
Ġact or
Ġpro ced
\" ]
Ġun ion
Ġco ast
ĠB ur
Ġcomp at
à¤ ¨
Ġdist ances
Ġconcer ns
m ake
Ġinv ent
Ġdefin itely
Ġb ed
Ġch ick
ĠSt ar
R es
ĠEn vironment
Ġappl ies
i ately
t r
in ating
Ġincre ment
ning s
Ġexpres sed
Ġcontra st
ĠPen nsylvania
ĠVirgin ia
Ġspe ak
Ġoff ic
Ġstraight forward
ĠPro f
ĠFrancis co
A M
di ction
Ġn x
ĠU p
o gram
ff ee
Ġmed ian
Ġpres ident
Ġà¤ ¹
d ict
s it
il ies
il der
Ġst aff
Ġex hib
ĠLu a
oth ing
pect ed
ĠVari ables
st ant
Ġs lo
ig an
H E
st yle
Ġal one
Ġsitu ations
ic ated
Ġcom ment
Ġeff orts
vel ous
Ġent ities
Ġprot ocol
Ġdri ving
ĠJapan ese
aut y
ic o
aut hor
Ġg ift
Ġd ream
Ġinc orrect
U LL
Ġw ave
Ġb le
Ġ[ ]
Ġcompar ison
b ooks
ĠP ak
Ġ19 3
ĠCom b
Ġcampa ign
Ġser ving
Ġprint ln
Ġcomput ations
Ġra ise
Ġreason s
Ġeconom y
Ġd ru
s ign
Ġocc as
x ml
ĠP et
Ġtre ating
ĠF rank
Ġconnect ing
Ġ196 0
Ġjo ined
Ġing redients
Ġqu al
Ġg uest
ĠC up
W elcome
Ġp et
th is
ĠN orthern
Ġk g
ĠBl ue
2 9
Ġf etch
Ġfl avor
Ġans wers
Ġfit ness
p ost
Ġre ward
Ġne st
Ġass ess
ĠExample s
Ġnear by
B A
o ke
he ap
mit ted
D D
n el
Ġset up
Ġessential ly
Ġfrequ ently
r ical
Ġpre ferences
Ġw rote
Ġf ig
Ġin ference
ĠC ome
ari an
Ġany one
Ġright s
Ġput s
w ell
oc key
Ġcap ital
ĠFire base
j e
ĠHe alth
Ġfl u
Ġcollect ed
Ġpl ain
Ġgl ass
wh ich
Ġsustain able
t ered
Ġt it
ĠE v
Ġfour th
0 1
Ġcalcul ating
T K
are a
ans wer
ĠPro t
Ġrecurs ively
de st
Ġcl im
Ġnot hing
Ġ199 3
Ġj ournal
Ġ201 5
Ġfeature d
Ġmag ic
Ġconsum er
Ġag ent
ĠSc ot
Ġeng aging
Ġgeomet ry
Ġc ra
Ġg un
Ġ201 6
Ġmultip lying
i ors
velo per
Ġfin ished
Ġwor ry
in i
Ġorgan izing
Ġquant um
ĠC all
Ġpurch ase
ĠB oot
Ġd ram
f ill
Ġ199 2
Ġinst itution
Ġche ese
Ġele v
Any time
ĠK eep
Ġorgan ize
Ġmot ion
Ġtrend s
Ġask ed
ĠFlor ida
h an
Ġsp arse
Ġart ists
Ġindic ates
Ġdecor ator
! \")
f ree
ĠI ll
ĠEx p
Ġrec ipe
Ġhealth care
Ġfilter ing
p ush
ĠJ oh
Ġdeal loc
Ġpr ices
Ġn ut
rel ated
Ġwor st
ĠU pd
Ġk ids
est s
il ver
Ġimmed iately
Ġpro p
Ġmanufact ure
p op
ĠO ld
Ġfam iliar
ĠSpecific ally
viron ments
Ġse x
Ġamount s
gre g
Ġk ing
que ue
I S
ĠE arly
ĠV ol
Ġsk in
d ig
ĠO per
ĠN or
ĠK n
ĠH en
ĠM el
ĠM ass
ar g
stra p
l am
ĠE lect
ĠG od
Ġpol ic
it z
Ġac ade
Ġleg al
Ġemot ional
p id
Ġden otes
Ġ< !
Ġcompet ition
ond ay
cher s
Ġfem ale
Ġre sist
Ġh on
ĠB i
Com ponent
ouri er
in der
ion ally
Ġse a
ĠF FT
ĠInitial ize
C P
ĠH o
Ġro les
sc ala
ut il
Ġ4 00
Ġbrow n
Ġreg ist
Ġend s
math cal
le ton
Ġinvest ment
Ġg arbage
Ġread s
Ġown er
Ġturn ed
] :
v als
ĠC amp
val u
Y PE
m osp
Ġsim ulation
4 00
ĠF urther
Ġinc red
Ġenc oura
Ġlog ging
Ġcomb ining
Ġrespons ive
ĠT y
Ġi OS
Ġb ind
Ġdirect or
Ġdou b
S e
ith read
Ġsp ot
ĠDes pite
Ġlaun ch
F low
Ġc apt
ĠM ont
ol a
Ġj oin
()` :
ĠT alk
Ġconsist ently
eal and
Ġofficial ly
ĠMy SQL
Ġhum ans
Ġdest roy
. $$
: \",
Ġcaus ing
ĠNumb a
Ġsurpr ising
fil ter
ch ain
ĠL anguage
Ġt ang
con nect
B ob
Ġp ure
ect or
ĠZ ealand
Ġenc aps
Ġview s
g l
Ġh ospital
Ġth reat
Ġtreat ment
al loc
ver ything
Ġident ical
t rans
Ġr ank
Ġw aste
Ġ} ,
ific ations
ĠTe am
ĠGe org
Ġcook ies
Ġd ot
Ġ6 4
Ġproduct ive
Ġg ather
Ġlight weight
ĠInst itute
Ġasync io
Ġc ert
Ġte x
Ġapp oint
Ġdescri bes
Ġchann els
z en
ĠL ear
Data Frame
ĠMach ine
or ch
pres sion
o very
Ġrel ative
Ġflex ibility
ĠS ocial
ĠS al
Ġr is
Ġout come
Ġe th
ig m
ĠB ook
ines e
Ġà¤ ®
m u
re f
Ġhe sit
Ġclass ic
Ġlist ed
Ġmet rics
Ġcateg or
Ġdoll ars
b ur
Ġen vironments
Ġrec all
Ġo l
Ġbec oming
Ġgeomet ric
Ġex change
Ġ201 8
c urrent
an ning
Ġ( \"
Ġad vert
pro duct
M odel
Ġex erc
ĠK ey
ĠAr my
irc raft
Ġcompil ation
Ġsl ightly
Ġdam age
ĠVi ctor
ocol ate
and er
ĠX amarin
Ġcontrib ute
ĠB ank
ĠH ol
ang ular
Ġexp on
ĠAl gorithm
Ġ199 1
Ġtri ed
ĠS k
ĠB al
ĠM ap
Ġwe ap
Ġr ise
Ġher self
Ġfin ish
Ġse lling
L ine
Ġcor ner
Ġhtt p
Ġpro ceed
Ġpo ol
ĠRe al
7 8
i pl
in n
Ġp ivot
ĠW he
Ġinfra structure
m aking
Ġf old
Ġb ubble
Ġbreak point
Ġcon sequ
orm al
Ġ18 8
ĠDem oc
ĠA z
Ġintegr ated
Ġobtain ed
Ġv ict
ĠH ig
Ġj ump
Ġreg ions
Ġoptim ized
amb igu
H e
Ġst ick
Ġr ing
A P
ĠS earch
ĠP al
Ġcount ing
n or
ad ium
ĠJava FX
imen sions
ur ance
Ġprior it
vant ages
l abel
ĠW ood
Ġrec ip
Ġport ion
y our
os es
Ġconver ting
Ġdri ver
CT ED
Ġexam ine
Ġd anger
Ġstre et
ĠCol or
Ġhy d
G raph
at en
Ġdifferent ial
Ġalloc ated
es ian
ut ch
ĠE clipse
Ġvisual ize
CT YPE
it oring
ĠH um
Ġun ne
Ġsupp ly
.\" )
m ers
ĠC are
Ġcomp aring
Ġdo gs
ĠGerm an
ĠCarol ina
g u
Ġpre m
Ġsal t
ann el
DO CTYPE
ĠCh icago
flo at
c or
st dio
ĠPar allel
ĠSim ilarly
Ġcompos ed
out put
s ers
ĠLou is
7 6
I I
v ari
to ken
Ġw idget
ĠA ge
Ġpart ition
Ġwrit er
RE DA
Ġcomprehens ive
jk stra
c ore
ĠT r
om ic
ple te
Ġat mosp
Ġnew sp
r ange
Ġaddress ing
REDA CTED
Ġv ib
Ġlead er
pr ints
Ġm unic
med iate
Ġcateg ories
or ter
ĠC ath
Ġwork ers
me an
R ed
ut ral
ĠH ot
com m
ĠNew s
ĠF ound
Ġvisual izations
C L
d raw
ĠP eter
ub ern
Ġcol on
Ġscal able
Ġhor iz
ĠC ap
AT E
Ġrespect ive
box ed
V alue
du ction
Ġinter view
squ are
Ġact ors
Ġprob ably
er os
Ġw ra
Ġbe auty
Ġma pping
Ġdesign ing
Ġcho osing
( {
ĠL and
Ġide al
ĠGover nment
Ġw all
ĠT ensor
Ġco ffee
Ġ201 9
ĠF act
Ġfil ters
re g
ĠB er
Ġha ir
Ġad opt
Ġs ending
Ġdiction aries
ĠN ULL
Ġdu plic
I DE
ĠD ynamic
Ġsh ad
Ġcertain ly
Ġe igen
Ġar bit
Ġexc ited
Ġrepe at
p age
ĠS ociety
ri de
os h
Ġwarm s
Ġcl ients
ars h
Ġ18 9
Ġt ack
ĠSer iously
ĠDebug ging
ĠL inked
Ġpat ient
Ġs ister
Ġb ags
Ġanim ation
Ġcandid ate
fe ction
it an
ĠRad io
ĠF ile
$ )
Ġquad ratic
Ġne arest
ĠDiv ision
ing u
ĠT or
ect ive
Ġredu ces
r d
ar ant
Ġprodu ces
Ġocc up
f ru
n o
Ġcustom ize
ĠW ales
ĠL ibrary
ide os
Ġp ix
ĠT ri
ĠTh rough
Ġimplement s
T ext
Ġinterp ret
Ġf ault
Ġperm issions
Ġunne cessary
Ġc itiz
ĠK ore
Ġg lo
un ct
fere d
Ġpo ll
Ġreal ity
Ġdeb ut
ĠI re
Ġbu cket
e led
ĠMid dle
Ġrenew able
at itude
am ma
Ġdef e
Ġtrans ition
Ġd x
ĠM ad
Ġrepeated ly
ĠV al
Ġsupport ing
Ġsynchron ization
it ivity
Ġh abit
Ġpro ve
ĠN ature
Ġoper ated
it em
ĠS uch
Ġmin or
ĠCo ll
u cl
ul ing
ab y
Ġco p
Ġsignific ance
Ġiter ation
Ġindic ate
R M
an o
Ġcon ven
ĠN avig
h our
Ġd imensions
ut ations
Ġj u
Ġgre edy
Ġpar ad
op y
Ġcompos ition
S et
ak ed
Ġinteg rate
oot ing
Ġsal ary
rel ation
p ire
ĠP ower
ĠSh ow
Ġsug ar
Ġupd ating
ĠSum mer
Ġexpen sive
A G
f all
ĠC ast
ĠF ort
Ġapp eal
Ġcontain ers
Ġplan et
Ġcrypt ography
Ġt end
Ġb its
ĠB ridge
Ġ3 4
Ġinequ ality
t ion
() .
Ġanal yt
ĠS ur
Ġgener ating
ĠBro ad
ambigu ation
\\ \\
ĠThom as
t rue
v in
Ġres olution
Ġdes cent
Ġpart ies
Ġimprove ment
Ġc ategory
Ġ` @
Ġarchite ct
Ġmen u
ol ation
Ġbu gs
ĠUS A
ubern etes
on a
Ġopportun ity
g n
} _
Ġex plicit
Ġreport ed
Ġdise ase
ĠAng ular
le te
Ġclos ure
Ġof fered
/ )
M S
at re
Ġb atter
Ġre se
ang les
ĠRem ove
= (
Ġsh ift
ute x
ant a
Ġre venue
for ce
Ġelect ed
ra py
Ġmis sion
L ove
Ġg em
Ġm ur
ch ild
ĠR i
Ġyour s
z ero
Ġde lic
ĠE nt
ĠF ourier
az on
Ġassist ance
ĠStand ard
Ġp sych
ad a
Ġwebs ites
bu ild
ĠP os
ĠDecl are
Ġkern el
Ġindic ating
Ġey e
Ġn uc
^{ \\
Ġs outhern
Ġl ived
Ġhe uristic
Ġ( '
Ġv oc
f unc
Ġvib es
ĠM ethod
li ers
Ġprim arily
ĠRe place
Ġterm in
Ġinterest ed
Ġh al
Ġscal ing
Ġgr ant
LE CT
ĠC a
ĠC y
Ġpass es
ĠC at
Ġbu ff
li ament
l ers
ick et
line ar
Ġ18 0
Gener ate
Ġt ough
Ġph il
ran ches
Ġfasc inating
ra in
ĠM ong
Ġmus ical
Ġg ap
Ġg arden
Ġpo em
Ġaccess ing
ele ment
W ow
ĠS GP
Ġ201 7
dis ambiguation
at ural
Ġc lock
ĠT ur
Ġar row
ph one
ĠOr gan
Ġdraw ing
ĠSar ah
is hes
Ġro ll
Ġoppos ite
Ġp ull
Ġdi ed
Ġwon der
Ġveh icles
Ġinterse ction
Ġbo y
ĠAt l
Ġinit i
b urg
st one
ar gs
ĠS ave
Ġform ats
Ġprodu cer
ĠL ike
ĠK ubernetes
Ġent ity
sh arp
w ide
Ġoper ate
Ġhapp ens
Ġd ance
Ġcele b
. "}
Ġ" ",
Ġfant astic
Ġarbit r
3 00
at ivity
as ync
Ġl on
ip ly
conf ig
ĠC ross
ĠH ave
Ġsc ores
ĠCh inese
Ġback tracking
Ġstud io
Ġ18 6
1 000
ĠG en
Ġdra g
Ġsw im
E m
ar ithm
pl ing
Ġgre w
f in
Ġthough ts
R OM
ĠE vent
Ġenclo sed
Ob ject
F unction
N N
or ation
it tle
Ġun known
ne g
Ġchart s
) *
S S
Ġp ig
ĠW onderful
ĠO f
Ġrec ently
Ġdep artment
Ġn arr
Ġ` -
Ġcomp ression
Ġcomb ines
we b
Ġhesit ate
Ġfam ilies
5 5
Ġd ress
her s
Ġper fection
ĠGeorg ia
C H
ĠH ad
ĠL im
Ġover view
Ġcour t
at in
Ġpolic ies
M an
Ġsub sequ
Ġbenef it
er ate
ĠP M
ĠD a
19 8
eff icient
ĠN on
à¤ ¿
Ġear ned
Ġload ing
Ġextreme ly
^ \\
} }{
Ġl azy
Ġ198 8
Ġear th
Ġris ks
Ġpo or
Ġdeterm ining
ik it
Ġaccom pl
Ġpro of
ĠW al
Ġindex ing
Ġcoll ision
Ġt ensor
ic ian
ĠPlay er
J S
Ġp izz
Ġser ial
Ġdenomin ator
m as
t hen
Ġrese ar
e on
Ġb attle
ĠA wards
ve re
ĠS ong
ple x
ĠK otlin
Ġframework s
ra b
Ġ198 9
li hood
Ġ` (
Ġco vers
Ġmix ed
Ġsurround ing
ĠHand ling
H ope
Ġc ir
Ġf ancy
ĠI r
Ġn orthern
Ġwe igh
ĠHigh way
Ġobser ve
ĠTrans port
Ġpart ners
inc ial
Ġpres er
Ġdisplay ed
D e
am ily
nd ers
ĠNetwork X
ri ll
p an
il led
cript ion
mat lab
Ġhapp ened
Ġa ircraft
ĠMich igan
Ġrout ing
Ġbra in
Ġ` $
Ġac cel
Ġou ter
Ġschedu le
ay out
Ġprof ile
Ġtyp ing
Ġprote in
Ġv ideos
ĠP age
2 50
val id
Ġbill ion
Ġsummar ize
Ġrestaur ant
ĠIre land
o per
tu itive
ĠP ract
Ġne ur
Ġte le
Ġnat ive
) }{
ĠH ome
Ġp urs
ĠL ab
ap ers
Ġstre t
ĠDi jkstra
ĠHind i
ĠTensor Flow
Ġfl at
Ġfil tered
Ġveget ables
ĠL ambda
ĠMat plotlib
? \"
il ly
ĠP ress
ĠM onday
Ġal um
Ġext ended
Ġinher itance
ĠConc urrency
Ġle aks
ĠJ o
à¥ Ģ
Ġmechanism s
i ant
ĠL ong
Ġmon itor
Ġ20 21
Ġ198 7
Ġsp ring
B S
ur ies
Ġar m
Ġmed al
Ġfail ure
g ers
Ġfe wer
Ġremain ed
Ġfocus es
Ġv an
Ġal i
Ġrel ax
str ument
Ġindepend ently
Ġdefinition s
ĠB inary
ĠE S
Ġgre eting
Ġsk y
p arent
Ġb ranches
ĠS DK
Ġset tle
Ġmanage able
Ġcon quer
Ġmag azine
Ġant i
c sharp
Ġma ster
Ġbasic ally
Ġimpl ies
Ġstandard s
Ġtempl ates
Ġsens itive
En ter
o ch
o ol
Ġd aughter
ĠV en
Ġ6 5
Ġsa uce
Ġchar ge
Ġsto pping
i pp
Ġc ub
Ġser vers
Ġsuggest ions
pass word
A dd
Ġc v
Ġass ume
Ġalloc ate
p ed
w in
ro cessing
at us
ir t
ĠF lo
ĠHe ad
Ġr ou
Ġcross ing
Ġmin ute
Ġf ro
Ġevery day
Ġenc ounter
ĠOr ig
Ġcup s
W hen
st ab
un der
\" ).
Ġwe aves
ĠE ucl
Ġen em
ĠFor ce
ĠW ay
pos es
3 4
Ġbe gins
lock s
Ġreal ized
ĠMan agement
Ġbird s
k er
Ġw alking
Ġre ferences
ĠB ase
ĠRe view
Ġtow ns
} =
Ġstudy ing
Ġfib er
Ġ[ \"
Ġann ual
Ġgir l
t arget
ĠD E
Ġsh ot
right arrow
Ġrender ing
ĠHig her
Ġw ire
Ġsay ing
Ġbig gest
ain s
Ġdes pite
Ġart ist
Ġb in
Ġfe ar
Ġcomput ational
Ġinterest s
Ġsatell ites
xi ety
Ġcom plic
ĠIns ert
om a
nt y
Ġlist en
direct ory
ĠJ ose
3 8
Ġno ise
ĠX code
Ġbro ken
il ton
Ġthem e
Ġrob ust
f ix
Ġm utable
Ġl ib
ĠC ost
Ġdest ination
ĠOh io
Ġch ocolate
Ġmed ium
Ġgu arant
Ġemploy ee
ĠFil ter
Ġme ets
Ġsupp ose
ĠTra ck
Ġv ote
Ġ$ <<
Ġ\" \"\"
Ġcont roller
ten ance
Ġdeli ver
r ated
Ġl ately
Ġslic es
ĠP ack
Ġint ended
Ġmon itoring
ĠDes cribe
Ġc art
Ġb orrow
ĠS ports
Ġrout ine
und red
O ST
] `
as ant
ĠD ocument
Ġsh if
Ġintrodu ction
Ġsurpr ise
m ond
Ġf if
Ġbound ary
Ġinfin ite
U S
ir ts
ĠL L
Ġfl ag
Ġsimpl ifies
Ġsatisf ies
ul p
ri a
ĠG ET
Ġext end
Ġscient ists
ĠC am
rid ay
ĠComm ission
O ne
ĠP ass
ĠEx ec
ĠAn n
ĠGerm any
S tu
gra de
ĠChar les
Ġpropos ed
ĠC irc
ĠG reek
mod ule
Ġinform ed
in strument
ĠD og
Ex ception
g ener
Ġd ry
Ġident ified
Ġcand y
od ed
ĠPro duct
Ġcontrol s
ĠStu d
Ġmag ical
Ġcam era
Ġmicroser vices
$ ;
z y
and a
Ġwas n
gre et
Ġexerc ises
Ġd imension
ann ed
Ġland sc
Ġdisc rete
cast ing
Ġalgebra ic
ĠHistor ic
Ġp i
Ġmult ithread
Ġredu ction
Ġdel ve
Ġinsp ired
un ior
up s
)) )
im eter
ĠG rand
Ġdo or
Ġdes igns
Ġrecommend ations
S ort
k in
st ood
ari a
Ġpre par
ĠAcade my
ĠPak istan
1 20
ĠD FS
Ġlog arithm
Ġsk ill
Ġtrack s
Ġcaus es
ĠWrit ing
g al
i ance
ĠAn imal
y e
ome ga
ber g
I P
f ound
Ġa st
You r
ĠP ac
Ġoffer ing
c ious
Ġf aced
Ġgre atest
Ġra d
Ġra pid
back s
d frac
il er
ĠE ns
ĠM ex
Ġind ices
ĠTechn ology
ĠE qu
Ġtransform ations
Ġw alls
ĠS outhern
() `.
Ġspec ifies
Ġharm less
3 7
Ġkil led
un te
um ps
Ġse at
Ġretrie val
ful ness
Ġpart ner
Ġag re
or ange
Ġst rict
od a
Ġr id
ide an
ack s
Ġnot es
Ġinst ant
Ġinj ection
n ic
Ġl ake
ĠM ind
Ġ198 4
4 4
ĠG ive
Ġread er
Ġsupport ed
Ġb order
ĠAn y
ĠIm age
Ġimprove ments
Ġmar ried
rand om
Ġfore ign
ĠItal ian
b b
Ġhe av
ĠW ishing
Ġ3 7
ĠO nt
ĠSt ation
Ġsol ar
Ġsol ved
ĠJ ew
Ġun iform
Ġgood s
Ġbra ckets
ab ling
ĠF ROM
ĠL oc
Ġsp atial
Ġclose ly
Ġwest ern
S um
Ġg ar
ĠB FS
Ġpersonal ized
Ġdev iation
Ġd rop
Ġcon j
ĠH aw
Ġsc hed
Ġquant ity
Ġeco system
Ġb ars
em ploy
Ġk id
ĠK ar
Ġent ered
Ġpain t
W orld
Ġc aught
Ġfe els
Ġcele br
Ġc as
us es
et te
ĠM ike
Ġor ders
Ġun ex
Ġk it
Ġproduct ivity
Ġscript ing
Ġatmosp here
ĠH ence
] );
Ġ19 50
ĠSt ream
Ġag ric
az z
fact orial
Ġcrit eria
Ġreview s
he ight
ĠS and
ĠB ow
Ġpr ison
à¥ Ī
Ġfocus ing
Ġoccurre nces
Ġconsequ ences
ĠP DF
Ġpl us
Ġregard less
Ġmist akes
ĠB C
Ġvis ually
Ġintegr ity
ĠEngine ering
ĠJoh ns
e q
Ġs rc
Ġ` /
os oph
Ġ5 5
Ġcon sec
ang ed
Ġmar velous
Ġhead er
Ġpur poses
Ġveh icle
P h
R em
Ġconstruct ed
ĠAre a
Ġf ederal
ĠD ri
Ġsk learn
sc ore
ourn ament
Ġclust ering
i ences
ot ic
Ġtra ins
ĠOff icial
m em
Ġan xiety
ic ine
Ġj oint
Ġpy game
lt k
ĠHen ry
F orms
st ac
ĠB lo
ep s
Ġdec om
Ġautom ation
S p
Ġassign ment
ĠFunction al
Ġhapp en
Ġmet al
Ġbelie ved
uck y
Ġur ban
ĠRich ard
3 9
A A
if act
cl ick
Ġdis h
ĠDesign ing
Ġm el
Ġcl icking
Ġpre p
Ġre act
Ġconc ern
ĠJer sey
Ġg ro
od ies
ĠD ra
An imal
ĠMed ia
ĠB rown
Ġne arly
Ġbo ys
Ġgir ls
Love ly
ĠK ent
Ġreg ularly
Ġact ress
Ġsho pping
Ġillust rate
Ġhoriz ont
s igma
ĠN OT
Ġtra ined
Ġhead s
ĠEr ror
Ġlaun ched
ĠUpd ate
og ether
Ġbehav iors
ĠAm azon
Ġacqu ired
le ts
Ġ5 6
Ġvis ion
}^{ \\
Ġdiscus sion
Ġh aven
Ġwork er
Ġke pt
Ġmo le
tra in
Ġdeli very
at ile
ĠT owns
Ġde let
V C
Ġexp ansion
__ __
Ġsqu ared
p ur
Ġby te
F ield
ĠM use
Ġthere fore
Ġmost ly
ĠProf ess
Ġconver gence
Ġcontrib ution
Int eger
Ġs now
ra el
Ġunder stood
Ġmus e
inst orm
ĠREST ful
Ġ3 8
ĠAr ts
Ġ198 5
Ġjob s
ino is
Ġcred it
ĠIntegr ating
s he
al ks
Ġr ough
Ġcalcul ation
Ġread ability
Ġ198 3
Ġà¤ ķ
Ġcand ies
Ġacade mic
ĠR en
roll ing
c m
ip y
Ġtechn ical
st ic
im inal
ĠM ot
Ġrec ording
Ġvis its
ĠCon sole
Ġph ase
Ġaddress es
Ġcomfort able
Ġfinger prints
A d
( $
R U
Ġab ilities
Ġf at
Ġà¤ ¤
omet ric
c ies
g it
act er
ĠRe v
Ġmy self
urs ive
Ġdivis ible
ĠOnt ario
d t
Ġrem ark
Ġrel atively
che my
ĠProgram ming
c at
i pping
} +
Ġp enc
Ġh uge
Ġ` '
Ġdi verse
Ġag es
Ġactiv ation
Ġc ere
ĠL ook
Ġun less
Ġclick ed
st ack
ĠV alue
ĠCon sequently
Ġadminist r
Ġs q
Ġh ar
ĠM ill
Ġsent ences
direct ed
Ġv ac
Ġwin ning
Ġdeploy ment
= $
Ġc aching
ĠS velte
ans as
Ġ6 00
Ġstructure d
ĠDist rib
Ġrelig ious
empl ate
ĠAs ia
Ġgra v
Ġbound aries
ĠSol ving
ĠE ner
ĠD ig
Ġhous es
ĠCath olic
b ound
t ons
Ġt aste
eg a
Ġneighb ors
Ġindust ries
ĠD en
Ġeng agement
ĠWh y
ĠSer vices
Ġtransform ing
P ost
Ġf uel
ues day
Ġtr uth
Ġsym metric
Ġtrack ing
depend ent
Ġtick ets
sort ed
A N
Ġ$ (\\
ber ry
Ġ198 6
ĠT er
Ġsp r
Ġ20 22
Ġgener ic
Ġt ags
or al
Ġdec ide
Ġou nces
} =\\
ĠE valu
ak ers
ĠW ant
ĠCom par
Ġclaim s
ĠCommun ity
Ġbasket ball
ĠL y
ĠL ar
Ġso il
j ection
ĠIn side
++ ",
Ġcirc um
l ast
Ġto ler
Ġm it
Ġst able
il ater
ĠJ en
Ġcomple tion
Ġexperi enced
ĠIll inois
Ġsurprising ly
4 9
c ost
Ġas ks
Ġspe ct
Ġem issions
Ġown ership
Ġrece iver
Ġshap ing
Ġri de
w hel
Ġm ile
Ġhe nce
Ġr h
Ġco verage
Ġt un
Ġcomp iled
Ġinter vals
Ġtell ing
Ġmajor ity
Ġderiv atives
Ġquar ter
Ġchem ical
Ġn et
ĠB oy
ĠW ed
Ġexist ence
ĠDo e
node js
ĠSec urity
Ġresid ents
Ġo w
Ġh o
im port
Ġ( (
Ġne cess
Ġinter action
Ġmod ifying
Ġposs ess
M E
Ġc ul
ĠT our
user s
Ġob stac
con st
Ġdebug ger
Ġoccur red
en ch
Ġ` __
ĠL ittle
Ġess ay
Ġaccording ly
f o
i i
ĠS H
icks ort
ĠIntern et
â Ģ
Ġ ::
Ġs ch
Ġ4 9
Ġconf idence
ĠFe ature
Ġdiag ram
Ġf ailed
ĠM ur
fere nt
++ .
ĠApp ly
ĠDiv ide
Ġded icated
Ġop in
b ell
c ause
ll a
de v
Ġed iting
Ġtrans actions
gy pt
ĠF ace
ĠJ eff
ĠBe ach
Ġuni verse
A meric
Ġd ensity
ĠL ight
Ġcol d
Al ways
Ġc ube
Ġdi et
Ġpurch ased
h aps
is c
for c
Ġcour ses
Ġleg isl
ĠSun day
Ġchick en
C ity
Ġsp o
Ġenc oding
Ġexplo res
F A
it ter
ĠC orpor
ain er
Ġrel ation
Ġatt ended
Ġcare fully
Ġsepar ated
Ġse eds
Ġch air
Ġdis hes
ĠDet erm
ĠEucl idean
ĠEner gy
ash ion
Ġre nt
Ġsub class
Ġsa le
Ġc row
Ġbe ans
Ġexplan ation
Ġp al
qu ality
Ġlike lihood
Ġdepend ent
Ġcr ime
Ġkil omet
ĠMore over
Ġsatisfy ing
ĠW in
\"> </
s im
Ġ ic
id ae
ĠG CC
Ġret ail
ip ality
ern ary
ĠComm it
onym ous
p red
Ġth ick
ĠCh ild
Ġsm ile
Ġeng ines
Ġhy per
Ġcorout ine
ĠBus iness
ĠPac ific
ĠT enn
ĠT ony
ell i
ĠBo ard
` )
Ġst em
Ġtra ve
Ġover l
Ġmac ros
6 00
C lick
] `.
ĠCh ange
Ġarbitr ary
r at
re ment
ol ved
ĠD utch
ĠF riday
per form
Ġme ant
reed om
et t
Ġ3 3
() ,
Ġprocess ors
ĠUn it
Ġsing er
Ġmix ture
ck now
be ing
Ġsuggest s
Ġconstra int
ĠTrans form
5 4
Ġn ation
Ġacc ident
Ġmain tenance
lish ing
Ġestim ated
Ġsav ings
Ġembed ded
ĠJ oe
() );
Ġover whel
ĠJS X
Ġprint ed
Ġra w
Ġ198 2
Ġexpon ential
1 50
Ġ );
ĠF ree
ord ers
à¤ ķ
Ġstandard ized
_{ \\
Ġnove ls
Ġcitiz ens
ra d
od s
pr ice
Ġlook ed
Ġlaw s
Ġcoeff icient
| \\
Ġf irm
ad vantages
ĠF ord
Ġcor por
ĠAl bert
Ġcent re
Ġmaintain able
ĠCo ast
Ġsmooth ly
Ġax is
Ġslo pe
dig it
ĠMong o
f ast
Ġ ~
Ġ197 6
clo jure
Ġspe ech
ĠInstall ing
tra ction
ĠT ry
Ġh undred
Ġkey words
Ġreport s
Ġstrength s
d ney
Ġo cean
ĠA k
= <<
Ġ velo
Ġd jango
ut or
ĠM en
Ġknow ing
plic ations
ĠC ondition
am m
Ġpy test
ĠSat ur
y an
ĠVer ify
em porary
ers ion
Ġr ig
Ġout liers
Ġsp ending
Ġgrow s
Ġbottle ne
ĠS ud
ob ject
het ic
d atabase
g ar
Ġ$ [
ĠU til
ĠSer ver
Ġter rit
ĠCong ress
Ġconsec utive
Ġas cending
Ġhe ro
Ġen abling
Ġ\\ ).
Ġconc ent
Ġmed itation
ĠD NA
Ġvari ance
forc ement
[ \"
ct s
id y
ĠE gypt
ĠBe cause
Ġconsum ption
ĠT ree
Ġpre v
ĠAss embly
Ġbase ball
W ho
Ġto wer
ser v
ĠIs rael
Ġb at
ĠH or
ĠF ield
ĠQ t
Ġsit es
Ġes c
Des cribe
L e
r as
er ior
ĠS qu
Ġinterpre ter
Ġpuzz le
T ype
Ġd ial
ĠC LI
Ġra re
Ġeng age
ĠWith out
model s
ve c
ĠF rance
Ġcur ious
T ree
se a
Ġeast ern
Ġunex pected
Ġcon ve
Ġconst it
iling ual
Ġh oney
Ġcom edy
ĠF re
ty pes
omet imes
6 6
Ġf le
Ġst ability
Ġform al
Ġdra wn
Ġlab eled
plic ity
Ġdynamic ally
Ġprecise ly
Pr int
Ġd omin
Ġh us
ĠS a
Ġfor ced
on ents
Ġprote ction
Cont roller
Ġlength s
Ġt ank
Ġth ous
ĠD an
ian a
ness es
Ġincred ibly
G iven
L ayout
u it
ĠP an
Ġsh op
Ġprint ing
Ġgen us
Ġcalcul us
Ġpay ment
Ġrecomm ended
del ta
b f
ĠS T
om ething
Ġrece iving
Ġnest ed
Ġre ject
ur b
ĠW omen
ĠE nd
Ġpat ients
Ġbrow se
ĠQue ens
d rop
Ġsp ort
ins ert
ĠBrit ain
Ġtransl ate
Ġalign ed
b ro
h ors
m es
Ġa cknow
Ġt one
ĠA ND
ight ed
Ġ8 5
ĠPri or
ĠJohns on
i que
Ġsure ly
Ġprec ision
Ġcoordin ate
bur gh
O kay
al d
Ġto mat
ĠM ath
ĠWh o
Ġevalu ating
F alse
s ite
ĠG ir
Ġ7 2
Ġmay be
Ġfact s
Q t
form at
Ġag greg
Ġsen ior
g ments
Ġ ign
on ed
Ġg g
ĠC ase
Ġbe ach
tu dio
Ġ( *
ĠG UI
Ġpre ced
ĠRS tudio
Ġre aches
Ġdes k
Ġcount y
sp ace
Ġcon vey
Ġdeterm ines
Ġcomprehens ion
Ġ ly
it a
Ġn one
Ġsh all
ĠYou ng
com ing
ĠTe levision
ĠSte ve
Ġhypot hesis
Ġhal ves
r us
ĠT ru
Ġ3 9
ĠCh rome
Ġthem es
Ġpar se
Ġcomplic ated
c an
v ate
Ġpro s
cc er
ĠSy dney
Ġadvent ure
ĠScot land
Ġalum ni
C he
com p
Ġuni versity
Ġlab or
Ġresear chers
Ġhe aring
id ential
ĠE le
Ġprob abilities
ĠEast ern
ĠPol it
Ġpromot ing
Ġre nders
ĠC ivil
ĠB attle
Ġv ast
Ġ197 9
ĠCor rect
je ctions
ĠB BC
ĠEx cel
s rc
ĠR h
Ġev olution
ĠDis play
spe cific
Ġtuple s
p ower
se lect
ter y
Ġam b
ĠSo ft
Ġdemonstr ate
Ġa p
ĠA venue
ĠM il
ĠTh ree
)$ $
in em
ĠP C
Ġconsist ing
Ġbra instorm
un dle
Ġlist ened
Ġeffect iveness
bal ance
ĠEm pire
Ġbal anced
stra ction
Ġtransl ation
) -
re en
ĠV irtual
ĠS ign
Ġcre atures
ĠTo ken
Ġblock chain
Ġtem ple
Ġtransl ates
b a
Ġc ro
ĠD if
Ġsimpl er
Ġmov ies
Ġf re
sist ent
Ġread ers
Ġdescript ive
Ġseem ed
Ġhierarch ical
ĠAnalyz ing
c ases
d s
Ġh un
\" ),
Ġin h
igh th
P ython
Ġ4 4
Ġcor relation
Ġact ing
Con text
Ġp hen
Ġle gs
Ġpe pper
Ġact s
' '
Ġt ro
Ġle mon
Ġ{ }
Ġso cket
Ġprof iling
ĠReg ister
Ġfac ilit
Ġhierarch y
b i
Ġt ernary
Ġor ange
ĠJ ones
Ġaim s
Ġsample s
Ġcircu it
% .
I s
V D
Ġw ish
Ġn ltk
erc ase
Ġche er
cont ent
ĠAut om
Ġprefer red
ĠMuse um
ĠIn dex
ĠInd ust
Ġ($ \\
5 6
k g
ĠE uler
out s
Ġthread ing
ĠOpen MP
Ġprotect ed
7 2
Ġ5 2
Ġinfin ity
--- |
3 1
Ġs entiment
Ġsimilar ity
Ġaw ait
Ġphot os
D o
h askell
ow nt
Ġfl ight
Ġobser ved
Ġc raft
ĠA ES
Ġpl astic
ater ial
Ġlog s
Ġsw ap
Ġpan el
id ers
ĠV ideo
Ġed it
Ġmod ul
Ġguide lines
Ġfac ilities
ĠAir port
ĠSE LECT
ge q
Ġch ampions
ĠRe f
aus s
Ġsing les
nes day
Ġphr ase
ĠMongo DB
or dered
Ġin struction
ĠK it
Ġlist ing
Ġtr icks
Ġrot ation
Ġsubstit ute
/ .
a ver
ĠO R
ĠPr im
ĠChar lie
Ġdr ink
Ġcoo king
Ġparad igm
at i
Ġs igns
ot ype
ĠH un
Ġspe aking
ĠIm m
Ġconsist ency
Ġdeterm in
ĠJack son
Ġconv in
ĠItal y
hold ers
ĠA J
Ġn ine
ge x
ĠIn formation
Ġtrans mission
ym metric
Ġmer ged
Ġfib onacci
Ġa ug
er ic
Ġd ie
ay er
out heast
Ġsc ored
Ġsort s
Ġdel ay
author ized
Ġf ly
Ġnot able
T est
m o
u v
Ġp ul
ĠB ox
Ġr ating
Ġsp ends
à¤ ®
Ġaccount s
Ġmeas uring
Ġannot ations
Ġgg plot
ĠR ay
ĠIn clude
ĠJ ud
ĠLe e
ĠAdd ing
ĠSupp ort
ĠMiss ouri
c atch
Ġc odes
Ġent ertain
Ġcoll isions
Ġdiag n
Ġinher its
ĠFurther more
or a
Ġdis app
Ġcross ed
Ġpipe line
ort heast
pt ions
ply r
Ġvi ol
onom ous
L S
f ish
ĠT imes
ot o
ĠW inter
ph ia
aw ait
Ġperspect ives
Ġunc ertain
Ġang les
Ġdeclar ation
et ts
ĠO k
Ġover come
ĠApp lic
Ġgain ed
ĠBoo lean
Ġvoc als
Stu dent
t d
ĠJ up
our s
ĠOr der
ĠMa jor
W T
l ies
Ġ ..
Ġexp onent
Ġstre ams
ĠAut hor
Numb er
r ick
ro oms
Ġme al
Ġpar sing
Ġaffect ed
Americ an
Ġ er
ĠA ri
Ġde als
ĠAs ynchronous
less ly
Ġpot at
amet er
enn y
$ -
' ),
a wn
ĠRe qu
Ġaff ord
ĠCent re
or ous
Ġstand ing
S ending
Ġre in
um ing
Ġmathemat icians
Ġshap ed
Ġrev olution
ĠII I
clud ing
d ot
l ink
ĠL ive
bles h
P ar
Ġt ut
ĠI ter
Ġinter mediate
Ġend ed
ĠIn her
ĠK ong
Ġhand led
Ġmonth ly
Ġbuy ing
ĠSing leton
à¥Ī à¤Ĥ
R ead
y cle
| |
ĠC I
ce ived
Ġbut tons
ĠAnalyz e
Ġ4 6
Ġpain ting
Ġepis odes
Ġdru g
R ec
en v
Ġst ages
Ġor anges
Ġse lls
Ġmet ric
ĠRec ursion
Ġcy cl
ĠBoo st
8 00
f x
} \")
Ġf ab
ĠR a
Ex ample
Ġ/ >
ĠPro cess
Ġposs ibilities
Ġd y
ĠSt an
Ġso le
Ġfl av
Ġass igns
ĠCon vert
Ġselect ors
Ġiter ative
ĠQue en
C S
E d
e ven
w ing
re r
ur l
ect ed
Ġwrit ers
Ġfundament als
Ġauthent ic
g ent
Ġl ighter
rid ges
Ġsubsequ ent
s uch
Ġcom plement
ĠJ DK
ĠComm and
ĠRed is
Ġsched uling
ĠCorpor ation
!\" );
Numb ers
Ġdelic ious
j i
Ġw aves
yst al
Ġ5 4
Ġdistrib ute
ĠMod ify
Ġgram mar
Ġble nd
Ġlon gest
ĠC ould
ĠW ild
ĠG PS
ĠPl an
omm od
ach us
Ġqu ot
Cont ent
Ġread able
Ġsho es
or out
ĠB at
Ġhus band
F M
] ]
re al
Ġc ab
ĠT uesday
Ġor g
Ġ$ -
Ġrem ind
Ġprom otes
Ġpress ing
ĠPerform ance
Ġsav ed
ĠMart in
Ġdram a
Ġinstitution s
Ġaug ment
Ġs ac
Ġor d
Ġhand les
Ġbreak s
([ [
Ġbow l
ĠLear ning
n p
Ġw inter
Ġne ck
ĠCh art
! </
Ġin tuitive
Ġm ent
Ġex clus
ĠY es
Ġ198 1
Ġmanufact uring
Ġgall ons
Ġju ice
ĠAJ AX
0 5
g oing
ĠE conom
Ġle ague
av al
ha ust
Ġcentral ity
Ġphil osoph
k dir
Ġs in
im ination
ĠV ill
Ġknow s
Ġext ensive
vent ion
Ġtri es
oss ible
Ġexpand ed
Ġresist ance
Ġa thlet
Ġvisit ors
ĠOff ice
Ġtoler ance
A D
G T
Ġh ockey
Ġwe alth
ri age
Ġ- \\
ĠG all
ĠBe ll
enc ing
PU B
Ġscal ability
Ġbottlene cks
ĠInher itance
Ġc ats
Ġhead ing
ĠCal cul
Ġvelo city
ad ing
ĠF M
Ġconstant s
ĠCl oud
Ġentire ly
stit ution
ĠT ell
if iers
ĠN L
Ġpre pare
Ġmult ilingual
Ġsubstit ution
T op
im et
ĠP i
Ġco in
Ġgover n
Ġcommunic ating
achus etts
H T
R O
r b
ad y
ĠM orning
Ġimpact s
ĠSpe cial
Ġappoint ed
G ive
b ig
ay lor
Ġprocess ed
ĠMe an
ĠAg ile
Char lie
Ġass ets
Ġ9 5
Ġ197 7
Ġvol unte
. __
Ġt ournament
ll i
Ġv io
sh ine
Ġkeep s
Ġcur ly
F rames
Ġ rom
or o
Ġte a
Ġpost s
Ġwatch ing
Ġren amed
Ġreward ing
! \".
Ġreturn ing
Ġtri al
Ġpizz a
J ava
l ar
Ġvers atile
) ^{
s a
Ġv ibr
Ġme at
Ġimport ed
pack age
3 000
F act
at he
ĠSe a
Ġspecial ized
Ġconvin ced
G L
S pe
pt oms
est er
ost on
ĠT own
ul f
Ġ2 50
ess ions
Ġ\\ *
Ġatt end
Ġenc ourage
par se
Ġsche me
App lication
ĠRepres ents
trans form
) =\\
Ġf alls
Ġv ir
Ġco ach
Ġlead ership
Ġsequ ential
Ġphen omen
D FS
w s
ĠS up
ĠB ud
Ġun authorized
Ġtr ick
Ġfact ory
Ġfeat uring
ĠSc rum
Ġcar ried
== ==
) --
k inter
p ow
Ġv ot
ĠD ar
ĠG ar
Ġsub traction
Ġtransform ed
Ġcorrespond s
ĠImpro ved
9 6
Ġb ass
am pling
Ġex ceed
Ġvalid ation
Ġinflu enced
state ment
ĠFollow ing
ĠHum an
ĠS us
ĠN LP
fact or
Ġbal lo
Ġcrit ic
Ġm al
ĠE verything
ĠN et
ĠIs lam
G et
y ter
ĠW ould
ĠV an
Ġprom ise
Ġmar ks
ĠDef ining
Ġsubs ets
Ġcategor ical
ĠD u
ĠN ight
ĠApp lication
Ġfac ility
ĠIntegr ated
A h
A nd
e h
Ġbra ces
] $
Ġg ate
ain ed
Ġco res
Ġ197 3
Ġdistrict s
Ġbread th
agon ist
Ġconven ient
Ġmit ig
Ġ3 000
Ġflow s
Ġlow est
Ġbr ighter
le nce
Ġde veloper
ĠE lement
ke h
iv ate
og ue
Ġart icles
ade l
Ġ197 5
Ġintegr ating
ĠHad oop
I L
P A
Ġsim ulations
Ġconnect s
Ġà¤ ¸
Ġextra ction
7 7
ed ia
Ġprinc ipal
Ġdistribution s
ĠMin ister
unic ations
dist ance
o en
st ance
Ġf rames
Ġst ated
Ġal le
Ġsu c
Ġsp in
math rm
Ġple asant
Ġ196 9
Ġcamp us
Ġpick ed
fru its
B l
p ip
ly n
Ġv ent
à¥ Ĥ
F or
ĠThe orem
Ġwe ar
Ġun directed
à¤ ¦
Ġconver ted
Ġmot or
Ġrep et
Rem ember
ĠSatur day
Ġy og
em ble
os aur
Ġun like
ĠAs ian
ĠPr inc
ĠReg ular
Ġelectric ity
ĠFore st
ĠMass achusetts
it ative
ĠA ud
ent ation
py plot
Ġincorpor ating
ĠRuss ian
ĠMathemat ica
ĠWhe ther
8 5
qu ar
Ġr ational
Ġtrans mit
Ġlead ers
Ġtem p
Ġceleb rate
re du
ĠT em
ne ction
Ġcal ories
Ġvis iting
Ġfin ance
Ġsatisf action
Ġarrang ed
Ġdanger ous
Ġhyd ro
A b
Ġw it
em ail
os is
cal culate
Ġscal ar
Ġtex ture
Ġnewsp aper
Ġcop ies
v i
ĠI ran
Ġout do
Ġmark ed
Ġdiag onal
p us
ou red
ra ctions
Ġapproxim ate
Ġst one
ri er
ĠM ove
Ġacc ommod
Ġeven ly
Ġvert ical
g ency
Ġp it
Ġn arrow
Ġh ill
ish op
Ġpass age
Ġalong side
Ġsitu ated
Ġincreasing ly
c hen
Ġ âĢ
Ġst uff
Ġshe l
Ġass embly
Ġbo ol
Ġbreak points
ĠâĢ Ķ
Q ue
Ġs an
ĠT reat
Ġrespons ibility
spe ed
ĠIsland s
Ġtang ent
Ġlandsc ape
C V
ĠA S
us hed
ĠC ur
ĠM ount
ect angle
ĠG lobal
Ġsee king
ĠDe ad
ĠBoot strap
ĠFace book
N U
et ings
Ġj elly
Ġesc ape
. \\
D el
Ġne ither
Ġcomp r
Ġexec utive
urs day
e in
v a
Ġd ates
Ġex haust
ĠAnd rew
Ġ197 4
resp onse
Ġpay off
Ġlic ens
R un
} `
Ġpre fix
ps ilon
Ġmain ly
Ġcr iminal
Ġprep ared
j a
ĠSt ack
Ġele ctions
Ġ197 8
orpor ated
neg ative
Ġc ash
Ġb ond
Ġwh om
Ġr ice
Ġbig ger
Ġmemo ization
Ġweap ons
ĠS chools
Ġ8 00
Ġweek end
Ġhot el
ĠHam ilton
h igh
Ġv otes
our ne
Ġ196 8
ĠMay be
Ġprofess ion
e an
ent ed
Ġarr ange
Ġinitial izes
Ġconver sion
ĠOther wise
sub set
Ġsch ol
ĠN avy
Ġdep os
Ġinc on
tt p
Ġaut o
Ġdire ctions
Ġhous ing
b ury
Ġc ouncil
Ġb id
ĠS ometimes
ĠAl tern
à¥ ¤
Ġair port
Ġlo ved
Ġ` {
à¤ ģ
] ])
re y
Ġp ause
ĠD ou
ĠSt r
Ġstr ange
ĠPl ace
ĠMex ico
Ġsuc ceed
* (
A cc
od ium
ĠF our
ĠCh ris
Ġins urance
we ek
Ġpriv acy
Ġmultip rocessing
P T
R T
Ġs ke
ed ges
ĠI NT
ir ation
ĠP ot
ĠP ub
Ġ` #
Ġco ins
ps on
Ġavoid ing
Ġarri ved
Ġdecrypt ion
Ġpriorit ize
Ġdelet ion
Ġe ating
Ġsc ikit
Ġpar ish
ĠDo ctor
at ers
pe at
Ġres olve
aw are
Ġcr ash
eng ers
Ġconvent ions
) |
Ġc out
Ġr ural
Ġfra ctions
mult iply
W h
Ġpro jections
est yle
Ġspec ifying
ĠFirst ly
ĠPerson al
w ich
Ġprov ince
Ġcontrol led
Ġ197 2
Ġprob ing
g gle
w an
ĠP it
ĠN ash
Ġat e
ert s
Ġfl our
Ġiter atively
Ġappeal ing
Ġneur ons
N o
d ots
en ger
Ġqu otes
Ġcons cious
Ġadv anc
Ġred und
Ġassoci ation
ĠString s
ĠBay esian
Ġaward ed
u is
om orphism
Ġcan vas
umb er
pert y
Ġequ ally
app ro
Ġus ern
id ents
ĠSt ru
ail ment
ber ries
low ing
Ġweight ed
Ġrecogn ize
D P
et ime
am in
dd en
K ey
s k
Ġf ashion
ĠA rab
Ġcomm ission
Ġb ike
ĠE C
ĠData Frames
rate ful
'] .
Ġconflict s
7 9
Ġf aces
ĠS aint
Ġelect ronic
ĠRes p
Ġformat ting
rop ol
Ġw ine
Ġf mt
es see
Ġm outh
ab il
Ġse ats
Ġclass ified
Ġdis advantages
ex ec
ĠPl aces
play er
ĠG al
(' /
ĠAz ure
ĠApplic ations
O V
Ġc ables
Ġn or
ut ation
ĠFound ation
ĠNavig ate
perform ance
M at
Ġs ilver
ĠT aylor
Ġsc an
Ġ& &
aps ack
Ġsche ma
Ġsurround ed
Ġcan cer
ĠAs h
ynam ics
Ġoccas ionally
ĠJose ph
in ch
ire ction
Ġsecond ary
RE ATE
H S
Ġy ards
un ks
ĠL ater
Ġmet ap
Ġdra ft
Ġear n
Ġmac OS
v y
w ar
Ġre ly
ĠS n
Ġse vere
Ġsim plicity
Ġ iron
Ġp il
Ġsu dden
Ġminim al
Ġrepl acement
Ġoffic er
elli J
ĠA ctor
ut ter
Ġex cess
ĠH ospital
ĠU sed
Ġincorpor ate
Ġconduct ed
. </
l ime
u a
ed eration
is ation
ĠH ong
so cket
ni um
Ġ& \\
ĠGre etings
ighb or
E ng
e vent
t k
es h
ain e
ĠG ro
Ġprodu cing
aw s
ĠWh ich
nes ota
Ser ver
sign al
ĠCommit tee
el ine
Ġbu ys
Ġcons ult
we alth
Ġperfect ly
imet ers
j oint
w orth
Ġl oyal
user name
el f
Ġent ries
E vent
m p
Ġl st
ĠL uc
Ġint ric
Ġimp ress
à¤ ¸
Ġcons ervation
Ġmultithread ing
I C
i ams
ist ers
Ġby tes
ab orn
Ġque ues
Ġtyp ical
ĠChampions hip
I M
v o
et he
ĠG DB
cap s
ĠMan ager
ĠLast ly
ĠScott ish
ĠVictor ia
ĠTenn essee
st ers
Ġh ist
Ġh omes
Ġar ts
ĠEm ily
Ġexpen ses
Ġadvert ising
Ġfif th
} -
Ġg oogle
ĠJ ournal
Ġab and
Ġcont est
Ġsign ature
Ġsym ptoms
ĠGu ide
Ġtit les
ul ator
ĠF air
ont o
Ġwhere as
Ġmin ing
Ġworks pace
Ġmar gin
Ġcampa igns
Ġmig ration
Ġwidget s
Ġnuc lear
Ġf n
Ġd b
ul ates
il a
ĠD NS
Ġcomp act
Ġpract icing
Ġconver ges
Ġst y
ol i
Ġ- --
ĠD un
ĠAct ive
Ġguest s
Ġbatter y
ĠNL TK
E nt
H ash
O L
R eg
ĠG auss
Ġte aching
Ġset t
old s
++ :
Ġà¤ ¨
Ġnumer ic
e ach
um es
Ġne utral
ĠD am
Ġar ise
ec ycle
Ġvis itor
Ġauthor ity
Ġyoung er
Ġbroadcast s
s ay
tu red
ĠM u
Ġprocess or
ĠEd ward
Ġconv olution
as hes
ĠC E
Ġle af
Ġsh ares
Ġman if
app ed
Ġhigh way
6 5
= {
Ġf ails
is ons
Ġst adium
Ġim plications
Ġch unk
Ġapp arent
ĠK en
Ġtra vers
ĠAd minist
Ġnetwork ing
Ġart ic
ĠImport ing
ĠBre ak
Ġpoll ution
G reat
P C
Ġc e
st ances
Ġb ench
ĠW all
ĠF estival
pro fit
Ġche ss
ĠAr m
Ġmove ments
ĠPar liament
ortun ately
Ġfight ing
c raft
g i
st ar
ing ly
om y
Ġdeb t
enn is
Ġbott les
eps ilon
R et
Ġimport ing
Ġoper ates
Ġsub array
Ġnetwork x
Ġsur vey
ĠEn crypt
Ġear nings
Ġliter ature
ĠRS A
oen ix
B ook
h ar
in ent
Ġtra ce
ĠInt elliJ
Ġiter ations
Ġadminist ration
Ġdis k
Ġload ed
ĠMin nesota
Ġsun shine
Ġinterp olation
Ġheav ily
l st
Ġc ensus
ĠL ord
Ġmark ets
Ġ14 2
Ġparticip ants
Ġusern ame
Ġl ie
ĠSt at
equ iv
Ġtyp ed
By Id
Ġanalyt ics
Ġbuff er
c ut
ise c
ign ed
Ġnot ed
Ġmaxim ize
Ġforest s
O ut
ĠB r
St ack
ĠSen ate
Ġalt itude
Ġcas ual
P L
T able
ĠS ir
writ er
stud io
i rect
Ġh am
Ġle ap
mer ce
ask a
.\" ",
Ġselect s
Ġdecre ase
Ġli qu
ĠB et
ian o
ential s
ĠPro blem
ĠTra de
Ġmultipl ied
Ġinsight ful
Ġrou ters
Ġtrave led
ĠC ard
Ġlist ening
Ġtrans action
Ġpass ion
ĠPy Qt
ĠCPU s
ĠRuss ia
Ġstret ch
Ġfor t
Ġpe ak
Ġexpl oration
ĠSec ret
ĠDemoc ratic
ĠCare er
B ox
u ing
Ġfor get
il ib
Ġsh r
Ġsepar ately
ĠAb out
Ġcompat ibility
r oute
Ġf estival
Ġb ath
ĠB and
ĠWe ek
Ġmer ging
ĠWill iams
Ġdise ases
adel phia
d ays
j o
Ġt alent
ut y
Ġform ation
Ġfund ing
Ġmind fulness
Ġanim ations
ĠColor ado
Ġl ose
Ġcre w
Ġ> >
ĠComp are
Ġplain text
Ġvict im
Ġc ult
Ġrec on
Ġtri angles
roll ers
Ġhor se
Ġaware ness
Ġobstac les
Ġ era
Ġvis ible
we et
Ġauthor ization
Ġcompet itive
Ġmagn itude
A uth
Ġthe rapy
ĠU lt
ĠInc re
Ġobserv ations
a ith
ck er
Ġover head
Ġreg ional
Ġcontain ed
Ġdisc overy
Ġsym met
Ġavail ability
ĠExp lo
Ġa wards
Ġs yn
ĠP oin
Ġ` *
pp ers
Ġimp ossible
ĠCh annel
Ġperson ality
Ġprot agonist
ĠCont inu
ĠBu ff
Ġprevent ing
m ethod
ĠE th
Ġle x
Ġte en
inc orporated
ĠWed nesday
ĠDeterm ine
Ġe ase
Ġg one
Ġst ake
Ġfl ask
def un
Ġfood s
ĠSpe ed
Ġdev il
Ġarrang ement
Ġabs or
Ġcert ific
Ġcir cular
A t
d oc
j ac
l anguage
Ġt iny
Ġs lice
ĠEnter tain
Ġfig ures
d og
Ġl ights
ĠN amed
Ġ4 3
ĠSt ore
Ġpack ets
ĠM ah
Ġtravel ing
Ġdiscus sed
Ġestim ates
Ġhorizont al
ĠD atabase
ĠJ ul
Ġclass ical
20 13
Ġ$\\ {
Ġgreat ly
ĠIDE A
ĠJ es
Ġres il
Ġtra il
Ġpresent ation
Ġlif ecycle
w hat
Ġw ins
ĠH el
ĠM TP
pro ps
Ġrest rict
Ġclub s
Ġmur der
ĠM ix
Ġch ief
Ġkey board
Ġfund s
ĠCount ry
Ġmoment um
Ġgr ass
ĠCommon wealth
ĠProv incial
G A
Ġg rateful
ĠL atin
Ġpolynomial s
Ġtack le
ĠDig ital
ĠQueens land
C ould
u ation
Ġh ook
ĠB oston
ĠL oo
Ġcont emporary
ĠPh ys
Ġperiod s
ĠRail road
Ġmunic ipality
G B
ra cy
ĠJ on
Ġsub sequently
ĠAl bum
Ġhistor ic
clo se
ĠKent ucky
Ġà¤¤ à¤¨
Ġd ense
ust er
Ġser ious
Ġ[ [
Ġchar ges
Ġdiv ides
ĠJup yter
P l
ĠA BC
Ġd ownt
im ents
ĠM ast
ult y
Ġconc rete
ĠChrist mas
N e
g ate
l ights
ent h
ĠN FL
os a
Ġsh aking
ĠTra in
Ġformer ly
Im agine
f alse
ain ing
ĠJ erry
Ġman ages
ĠEn caps
Ġcr is
A ut
Ġo s
Ġto ward
ver tex
ĠM ic
ĠR am
Ġar ms
Ġcl othing
bo ards
Ġ16 0
Ġrandom ly
Ġmill isec
ho le
2 000
7 4
Ġsh orter
Ġqu icksort
Ġsto ps
Ġaffect s
Ġexplicit ly
ĠJen kins
ĠF ood
ount ered
Ġed ition
Ġ196 4
Ġadopt ed
ĠC hat
ol ph
Ġex it
Ġsh ips
++ ;
Ġenc ountered
ogn itive
g rid
Ġf oss
Ġst raw
ri um
ter ior
Ġres c
Ġ197 1
H appy
un ning
ang ers
ast ed
Ġdescri bing
Ġprec ious
Ġadult s
Ġnarr ative
O n
c oh
n pm
Ġf ans
al i
ĠI ra
Ġcomp ound
Ġun able
Ġ196 7
ĠMon te
Ġreli ability
Ġcandid ates
Print ln
Ġmillisec onds
t ask
en a
ĠF riend
Ġag ree
Ġclo sing
Ġminim izing
Ġb und
ĠT am
ĠTh ursday
Ġem b
Ġsee k
Ġfl ower
Ġdestroy ed
W indow
ĠD ouble
Ġsc rap
Ġsub string
ann a
ĠMat ches
tc ars
Ġbright en
Ġmuse um
z a
Ġs essions
Ġper imeter
Ġshow ed
Ġdecl aring
ĠRed ux
Ġcompat ible
ĠJ ac
Ġun f
Ġown ers
Element ById
5 2
D OM
Ġb aby
Ġro oms
Ġag ents
Ġfl ash
Ġstud ied
ĠMat rix
Ġclust ers
Ġslow ly
Ġconve x
! /
k m
Ġp add
ĠN otes
Ġdis p
ĠVis it
ĠBoo ks
ĠAv oid
R equ
\\ ,
ĠF ox
che ck
Ġc ake
em pty
ĠF ast
Ġar rest
Ġpar ks
Ġest ate
ĠCar lo
Ġattempt s
Ġtrou blesh
f its
s l
w a
on ly
ĠC oo
ĠH ard
Ġgraph ical
Ġbo at
Ġsw it
ĠDi ction
ĠQu ick
ĠDirect or
ĠCondition al
re ts
ĠT CP
ra di
Ġh iding
Ġare n
ĠR ow
get ElementById
Ġoutput s
Ġmeasure d
Col or
Ġt aught
Ġc a
Ġsp ots
ĠSc al
ĠInteg er
Ġkilomet ers
j pg
er b
ĠR aj
ĠF ac
ap ed
Ġanal og
Ġaff ili
Ġtur ning
ĠEncaps ulation
Ġt ape
he m
ĠA SP
om orph
ĠB arb
ĠW ord
Ġse ctor
ĠF ramework
Ġpass engers
Ġgu ard
12 3
Ġrecogn ized
Ġclar ify
' ).
b lock
ĠR est
ĠO S
ĠAn ything
Ġcount s
Ġrepresent ations
Ġmis s
Ġevalu ated
aun ch
ĠProt ocol
f ire
Ġh ole
ert o
Ġ9 9
ĠUn like
Ġalign ment
Ġdivis or
) `:
ent le
de mic
ig r
ĠThe atre
Ġ20 23
Ġequ ipped
ĠMy Class
Ġdr um
Ġmotiv ation
$ ),
o ir
Ġmanag ers
Ġsl ot
Ġcirc les
ogram s
Ġdrag ged
Ġsettle ment
) \"
B u
^ (
Ġs oup
ove re
Ġdesign ated
Ġsuggest ed
ĠMar ine
Ġtw ist
Ġdele ting
4 3
ĠA V
Ġn omin
ĠF ederal
ĠL em
Ġpo et
ĠSh ort
Ġsize of
ĠPh oenix
Ġhouse hold
Ġcy cles
Ġut ility
M essage
Ġt or
un it
Ġsm ell
Ġbal ancing
Ġband s
Ġroad s
ĠPhil adelphia
Ġelimin ate
Ġsq rt
Ġ ille
it ems
ĠD ate
ual ity
Ġ6 6
Ġtre ated
ĠRet ur
ĠTor onto
ĠA B
Ġe gg
ĠN atural
ud a
Ġwork flow
Ġconc aten
ĠSim pl
Ġdiscus sing
ĠForm er
Ġf ell
ĠC ook
Ġtra verse
Ġsee ing
Ġcare ful
Ġbelie fs
Ġindepend ence
Ġpenc ils
n x
et ies
ĠJ ane
Ġwill ing
app ly
Ġcomb at
ĠBu ilt
inst all
ĠW here
Ġse ar
ĠN ov
Ġcent imeters
Ġtru ck
b ot
f ront
Ġs ink
Ġf an
Ġse gments
Ġmar ble
Ġtransfer red
c v
Ġachie ving
Ġdri vers
ĠMc C
rem ove
Ġaccompl ish
Ġnecess arily
Ġs ampling
ĠB an
ĠM aster
pe l
Ġsim ulate
Ġequ ilib
Ġac id
Ġ% >
ĠPr ince
ĠRec ursive
Ġseason s
ĠEvery one
Ġtick et
Ġinvent ory
s al
ĠA thlet
ĠC art
ĠC rit
Ġcom ic
ĠH old
ual s
pro gram
.\" );
Ġ196 6
Ġdr inks
Ġsplit ting
bl ue
Ġvulner abilities
Ġpreced ing
Ġquot ient
z ona
Ġf reedom
Ġre put
Ġte ach
Ġagre ement
en ess
Ġm yth
am ps
Ġfe llow
Ġgrow n
ĠRec ord
Ġquant ities
Ġrepl acing
ĠSub lime
pack ages
Ġcontin ents
ani el
9 5
e v
ĠP OST
ict ed
It em
Ġwalk ed
b oo
Ġs or
ic ip
Ġdif fer
Ġput ting
Ġexpect ations
Ġindust rial
Ġsem i
}. $$
Ġf ishing
ĠO x
ĠO re
Ġweek ly
here nt
num py
ĠUtil izing
o a
w all
ro ph
ra g
ĠC orn
ol ly
Ġv ital
Ġsu p
Ġglo b
ĠTowns hip
f ly
ĠR ab
g ression
ĠB ul
ĠP ay
ĠL ead
Ġend point
Ġpix els
ĠT ax
ent y
ĠH arr
ĠR og
Ġcharacter ized
tra ce
ĠHar ry
Ġfill ing
ĠKore a
8 6
S ub
b t
b rid
Ġre b
Ġopt ic
Ġmass ive
Ġcivil ian
E Y
O C
Ġpl anned
Ġmus cle
25 6
ĠAss ign
ĠProv ide
Ġfiction al
Ġcoo per
ĠT erm
ĠS in
ce ll
ĠIn f
ĠK ir
Ġwrit es
Ġtable sp
Ġcent ers
Ġassum ption
Ġexplan ations
$ ).
F C
Ġp ound
ĠW is
ĠRe peat
' ])
A ctor
D S
m alloc
le ased
Ġb io
Ġth orough
Ġwhe el
ĠSt yle
Ġaut hors
ĠChampions hips
part y
Ġfac ing
Al chemy
Ġsuff icient
Ġbelong s
ĠIr ish
Ġfab ric
k w
ĠL ow
Ġend ing
Ġeng aged
Ġpopular ity
Ġ196 5
Ġheap q
Ġflav ors
i as
p a
Ġbe at
pt on
ĠL o
Ġr at
Ġper man
Ġwork out
Ġ6 3
.\" \"\"
ĠMed ical
! !
/ (
N one
S uch
at as
ĠC apt
ĠO l
Ġ{ \"
Ġlong itude
Ġstre ets
hent ication
Ġsens ors
à¥Ĥ à¤ģ
Ġprofession als
L os
c a
Ġg ray
Ġwe aving
ĠJ r
Ġdist ingu
ĠDe ep
Ġsold iers
resh old
Ġhost ed
Ġmechan ics
Ġcontra diction
ĠSup reme
X W
b ol
Ġto m
ĠD ark
lo op
Ġsu do
Ġcomp ress
ast s
te ch
Ġrec over
Ġassign ing
Ġautom ate
ĠComput er
Ġast ron
S earch
Ġb odies
Ġl atter
ĠI SP
Ġdo ctor
Ġra ils
20 12
Ġcr icket
Ch arm
ĠNum py
ĠAnal ysis
ĠGl ad
Ġven ues
Ġcipher text
F F
al id
el ixir
Ġmem ories
af ka
Ġb urn
is a
ĠE p
Ġle m
Ġ4 1
ĠCh ief
Ġelect rical
ĠCor ps
Ġdecor ators
ĠClojure Script
ĠTransport ation
ut en
ĠB io
Ġv es
Ġma st
Ġun pack
Ġbu g
ils on
Ġhighlight ing
Ġduplic ate
D ate
T itle
b ability
el ery
Ġsupp lies
Ġnon zero
Ġsymbol ic
HE RE
Ġgrav ity
O pen
d et
ra ction
Ġst eel
ĠC urrent
ĠM essage
Ġreg ister
Ġend points
ĠBro ther
Ġencaps ulation
ĠIra q
Ġc yl
ru ption
Ġwould n
Ġcomput es
Ġtop ology
Ġnumer ator
Ġgram s
Ġoffic ers
D omain
ob by
urs or
Ġsit ting
Ġfail ures
ĠPos ition
v iet
w d
Ġs ed
ĠT ask
ro ke
us ing
Ġg ard
\" ))
Ġbit wise
Ġgradu ally
Ġstrugg ling
N ext
Ġc uis
Ġre use
ĠS S
Ġstru ggle
Ġrest ri
Ġtrou ble
ĠJ unior
__ )
ĠSw ift
Ġsubject s
Ġrestaur ants
C al
P rodu
Ġr anges
ĠU t
ĠPr ime
Ġwin ner
ĠIndian a
ĠAri zona
Ġm ount
Ġh all
Ġl osing
Ġro of
oth s
Ġz one
ĠAg ain
Ġisol ated
ĠGold en
Ġcra ck
o or
ĠC lean
ag ger
rou ps
Ġgener ators
ĠDes cription
Ġsal utations
ĠRepublic an
Ġinnov ative
ĠVen us
quar ters
f un
ĠStu dent
ĠMer ge
Ġenem y
u i
Ġs overe
Ġg it
um er
ph ab
Ġsp anning
Ġmus icians
requ ency
Ġnote book
Ġproport ion
Ġp ump
ĠB ang
tu ple
ĠH aving
and y
Ġse am
Ġch a
Ġinsert ing
Ġcrypt ographic
= `,
` ).
m orphism
o ons
v are
an es
Ġal ive
Ġinc oming
Ġsol o
Ġutil izing
Ġconstit u
7 1
Ġfor g
ĠJ avascript
ag ues
connect ed
Ġthous ands
re ats
ld ots
ĠK im
Ġ7 8
Ġra cing
Ġsal ad
Ret urn
M ake
p matrix
s v
he et
ri p
ĠU N
Ġchar ged
ĠUn ity
Ġorgan ic
Ġcul tures
G re
W ishing
re nce
Ġdi ver
ps hire
ĠCom plex
Ġlarge ly
ĠEn c
Ġinstr uments
ĠLeg isl
q quad
Ġd uration
Ġ2 40
ĠF und
her ry
Ġpl ate
che ster
Ġphot o
ĠRi vers
n ull
Ġd inner
ĠIn put
Ġequ ality
Ġsl ower
Ġencrypt ed
AC GT
Ġparticip ate
b ow
in et
or gan
ĠI S
Ġexec utable
Ġadv ance
Ġfrequ ent
Ġobserv ation
Ġinnov ation
S an
c ers
m ega
n ight
Ġc oc
ĠB a
ĠR os
ĠD VD
Ġimpro ves
Ġeconom ics
Ġassum ptions
[ \\
l iving
Ġt act
th rough
Ġun su
Ġnew ly
Ġdec ides
Ġ9 6
ron ze
Ġnames pace
Ġcontrib uted
Ġaccel eration
ĠEns ure
a fter
it t
Ġn ic
Ġiter ates
25 5
Ġneg ot
Ġcomputation ally
Ġinj ury
Ġswim ming
M C
d h
Ġth in
Ġst orm
ĠE E
ĠL i
Ġar c
Ġvari ations
Ġcol ored
Ġso ccer
Ġany where
Ġ8 8
Ġexpert s
ĠComp ile
Ġinher it
F O
f ol
Ġre write
Ġcre ativity
Ġsp ark
Ġmaintain ed
AB LE
Ġflu id
f oot
Ġt error
Ġn ortheast
ol ving
ĠB rian
Ġsh oot
ĠY o
ism s
Ġlit ers
ĠTe le
ĠEm ploy
Ġclose st
Ġwindow s
ĠJew ish
ĠDif ferent
Ġentertain ment
Ġs aving
ĠF arm
ore t
ell ing
Ġcol oring
row s
ex cept
Ġfrequ encies
Ġcook in
Ġproced ures
i ary
} }\\
st yles
ĠA R
se ud
ĠE P
Ġag reed
com ponent
Ġmon ad
ĠOn ly
ĠSub stit
Ġhon or
Ġcontribution s
ĠRev olution
vare psilon
o vers
r ich
ĠC amb
ap h
Ġj son
Ġprov ing
Ġweb page
Ġt f
id ance
ĠK h
ĠAmeric ans
sc ope
ĠCar l
Ġautom ated
eng ine
Ġinvestig ation
ĠSoft ware
b ourne
ol ves
ĠFil ms
Ġnormal ization
Ġexpress ive
Requ est
j u
an as
Ġch unks
ĠSt ory
Ġlearn ers
ĠPy Charm
Ġol dest
ĠCirc le
Ġoutdo or
ropol itan
h us
Ġl ots
Ġl unch
ĠS ets
\\ }$
Ġ19 40
Ġpreser ving
O r
P oint
Ġs ight
Ġat om
Ġpl acing
Ġcomple ting
ĠMem bers
vari able
Ġrough ly
ĠEntertain ment
5 3
6 7
Ġan onymous
ĠA C
ĠW elcome
Ġcan s
ag n
Ġatt ach
Ġlog in
ura ble
Ġreve aled
5 9
l ined
st ore
Ġn om
Ġ1 10
ĠN Y
Ġad m
Ġtest ed
ĠSo viet
mar ks
ĠPol ice
Ġrep air
ĠGover nor
y er
} _{
as hed
Ġh olid
ĠP ath
ĠO ak
ĠV eg
Ġrel ief
ex port
Ġofficial s
Ġkind s
A ss
g amma
ra ce
ĠR A
ĠTh ose
Ġfl ags
ug gest
Ġboo leans
Ġcut off
Ġclos ures
Ġteacher s
Ġintric ate
M ar
it ure
Ġg ym
ĠJ IT
Ġdef ense
Ġ19 30
Ġresult ed
Ġprovid er
Ġmet a
ĠMal ays
= -
Ġal ert
Ġcl ause
Ġdo zen
Ġcent uries
ĠJ am
Ġrel ies
Ġachie ves
h ow
Ġpro ps
Ġch ips
Ġab straction
Ġposs ibly
ET E
rop ical
Ġadapt ed
s ince
Ġt ip
Ġp ale
ĠA x
ĠM aterial
Ġsh irts
Ġcont ag
Ġinc ent
Ġutil ize
ĠC lear
ĠR ome
Ġgu idance
Ġlight ing
ok u
ĠGraph s
Ġemphas izes
ĠR om
ĠU s
Ġra ces
ĠIdent ifying
Ġarri ve
I R
sist ence
ow a
ĠB ru
ĠF ront
ĠRe ason
erm an
Ġunder sea
Ġbenef icial
Ġpoly morphism
Ġsurv ive
ĠMountain s
Ġgar lic
] ",
l ad
ic ious
ĠC ra
ĠF ar
av ed
put e
ACGT ACGT
% ,
I A
i y
j ulia
o ption
Ġde que
Ġsc ales
Ġ== =
cont ainer
C ounter
S oup
Ġm ouse
Ġy es
ĠC rypt
ĠF it
ĠL abor
og rap
ace ae
Ġpow der
token ize
, ",
p ing
er ious
Ġg ang
ĠS anta
Ġtem porary
Ġdream s
G lobal
Ġc ognitive
ot hes
ĠW ilson
Ġ\" $
Ġcor n
Ġlayout s
Ġpict ures
Che ck
x x
Ġt iss
ig er
ĠB ag
ĠB ased
Ġar my
Ġret ire
ph ones
Ġkn apsack
mat ch
St ream
Ġexplain ing
cher ry
Ġten sion
Ġcompar isons
bl ack
Ġagric ulture
6 8
ĠM erc
pr ise
Ġnorth west
Ġcorout ines
ĠSong s
Ġkit chen
Ġpotat oes
Ġadvanc ements
Ġglob ally
* .
j ust
ith ub
ĠN ormal
Ġper haps
Ġqu ote
ĠTra ining
ĠMin im
ili pp
)-- (
ĠOre gon
D iv
I ns
L og
ĠS em
ĠR ight
ĠD ak
ĠF amily
ĠHol ly
ion e
om al
Ġfor ming
ĠB ush
ray s
Ġrequ iring
Ġexec utes
Ġmar ine
Ġhost s
Ġconsum ers
ĠBase ball
Ġadministr ative
A ML
E qu
P lease
i ated
t w
ic ular
Ġth ri
ig ible
ĠB ird
ĠP om
ak en
Ġrel ational
sh ire
ĠProm ise
Se lect
Ġartic ulate
4 1
Ġs le
is her
Ġin ject
Ġm ere
Ġe t
ĠB ern
Ġbu ckets
Ġjud ging
lay out
ĠPract ice
Ġdecom position
radi us
omorph ic
G reet
s end
} (\\
ĠC le
ĠE ric
Ġser v
Ġ[ (
bo ot
Ġcommit tee
Ġprop ag
Ġacknow ledge
Ġs ile
Ġv ice
Ġor ient
ĠL ily
pert ies
Ġiss ued
Ġscre ens
ĠGener ate
Ġjo ining
Ġparagraph s
Ġsubtract ing
re ason
Ġs oul
ic an
th ur
ad ata
ĠD raw
art s
Ġj ar
Ġtra ding
à¤ ¹
Ġpos itivity
Ġexp os
Ġdisc ipl
ĠClass es
Ġwra pper
R ight
ĠT able
ĠH on
Ġrec overy
Ġref lection
Ġposs ibility
Ġselect or
ĠPy game
Ġla id
Ġille gal
C ase
at ra
it led
ent er
un a
ĠO cean
Ġ[ -
Ġcollabor ate
Ġinsp ire
Ġdro pped
Ġmountain s
Ġmedal ists
O U
V ar
n ie
ĠA D
Ġg ates
ĠB on
ĠO Auth
Ġret ired
Ġqu iet
Ġworld wide
Ġconf ident
ĠMed al
Ġsole ly
k o
ĠU ses
Ġnot iced
Ġprom oted
ĠBro ok
Ġtax es
rest ling
Ġgradu ated
L ETE
v ens
ĠT rib
ĠC REATE
Ġimplement ations
ĠAd vent
Ġpub lis
Ġconvers ational
ĠRem o
Ġgrant ed
n am
n ames
Ġ( +
Ġaccept ed
Ġincorpor ated
ĠGauss ian
Ġc ents
Ġb on
ĠN a
Ġj avascript
Ġend l
ĠAl i
Ġman ual
Ġrespons ibilities
Ġmeasure ments
eng th
cons in
Ġtomat oes
Ġschol ars
Ġliqu id
ĠPoin ters
W hy
p ie
t wo
st op
Ġd ynamics
ro vers
Ġre arr
Ġre action
im ation
ĠH a
ĠF inal
Ġ| -
ins on
ok ed
Ġtemper atures
Ġscrap ing
9 8
or ig
ĠB all
cl ing
Ġshe et
Ġelect ron
ĠGe ography
Ġexten sions
Ġapart ment
Ser vice
Ġly rics
D ef
Ġde ck
vers ities
Ġ9 8
sec ond
Ġcut ting
Ġenable d
Ġlock s
pred ict
r angle
Ġm ir
Ġcl in
Ġpop ulations
Ġinitial izing
Ġtop ological
ĠOptim ization
L abel
Ġs oci
ig nty
ĠB ubble
Ġbe ar
ĠD ave
ors hip
Ġpublic ation
Ġgra des
me ans
Ġsouth west
Ġlif estyle
bu ilt
ĠBack ground
ĠT uple
Ġun w
Ġdis joint
Ġinter ior
Ġrec y
à¤ ²
---- -
Ġconf ir
Ġrele ases
amp ion
Ġsuper vised
Ġstay ing
Ġcred entials
Ġs ine
Ġg entle
Ġassum ing
Res ult
Ġn uts
ch ant
ĠOb ama
ĠSub tract
Ġphr ases
Ġking dom
ipp i
in er
an ish
ch anged
pt ic
In dex
Ġcollect or
Ġuncertain ty
Del ta
r ho
Ġde pression
ĠSc he
IO N
Ġ195 9
Ġclaim ed
ĠHand le
xy gen
0 2
M od
im a
Ġst ood
ĠIn vest
pl atform
Ġem body
Ġgener ations
Ġmed icine
Ġru g
Ġ196 3
ĠSol ve
Ġvulner able
Ġconscious ness
le nium
Ġf et
Ġf lying
Ġe ats
ĠM ars
ne ighbor
Ġinter cept
Ġbrow sers
process ing
Ġrect angular
ĠHam pshire
Ġplug in
Ġmyst erious
ĠTru ly
Ġequilib rium
er ly
Ġc able
ĠP ra
ell a
Ġprovid ers
com pass
ĠSc ient
erv oir
Ġcommit ted
ĠGPU s
Ġbind ing
5 7
p ublic
Ġd ome
Ġd ash
ĠC ape
ĠB h
ĠB read
Ġun ordered
ĠV o
ear s
ĠQu ant
Ġexam ining
ĠBroad casting
im p
ad der
ĠU r
ĠK at
ĠK ansas
Ġlear ns
aw a
ĠSim on
Ġfra ud
Ġspread ing
ĠMiss iss
Greet ings
Ġc um
ĠN ever
os c
sp ring
ĠSm all
Ġtoken ization
Ġopin ion
T S
v ision
Ġf ranch
Ġre gex
ĠS port
se ll
ĠW HERE
ĠH al
Ġqu een
Ġag ency
olog ists
Ġ196 2
sec urity
ĠMark et
p et
or ne
Ġn erve
Ġ` \"
og en
Ġem ails
}\\ \\
ĠPr ice
Ġmeet ings
ĠRet urn
Ġemer gency
sw itch
Ġpix el
Ġsovere ignty
Ġa ired
ĠB row
ay a
ĠD id
Ġfo x
ĠK afka
te en
Ġz eros
Ġexplo red
Ġintrodu ces
Ġdisplay ing
Ġleg end
ĠComput e
gr ind
Ġrapid ly
C o
Ġn aming
de m
Ġor th
Ġcal m
Ġdec ades
Ġ12 8
Ġhard er
ĠSQL ite
Ġaffect ing
Ġfarm ers
pat tern
sm art
ĠBeautiful Soup
Ġvict ory
Ġremark ably
Ġcontag ious
D og
S he
Ġth reats
am l
ĠB ene
Ġwe ave
Ġisol ate
ĠStud ents
i h
Ġc ape
or us
ro t
Ġg ender
Ġst im
ĠB rig
ab ama
Ġclean ed
ath an
Ġhand ler
ale nd
ĠNew ton
ĠInd ones
Ġdri ves
Ġinteract ing
Ġengine ers
Ġdifficult y
Ġdescript ions
dis play
po ol
Ġir re
Ġconcer ning
Ġelev ator
> `:
b ec
r ition
ĠD ub
Ġdis s
Ġche st
def ault
Ġcover ing
lu a
ĠPre m
Ġcuis ine
c ounter
ol is
ol ang
ĠB lock
ĠB orough
ag le
ĠK an
Ġobject ives
Ġexpert ise
Ġfl uff
Ġatt ached
ĠInst ant
ĠOpen CV
Ġemploy ed
vis ual
ĠMary land
5 1
< >
Ġw alks
ra cle
Ġh ide
ĠM ilitary
Ġat oms
Ġdep art
Ġjust ice
Ġru b
ĠSQL Alchemy
pow ered
ĠWis consin
M ain
i able
l atitude
Ġa pt
Ġs outheast
Ġre form
ol ished
Ġv ivid
Ġ` +
Ġ3 60
Ġmar riage
Ġpred iction
Ġbirth day
Ġstar ring
ĠAlex ander
Ġt ens
Ġc oun
Ġal ter
ĠF lex
ĠDep th
squ ared
Ġwat ers
f ortunately
t ry
Ġbe ads
ĠN ice
Ġint r
ĠG ree
Ġclass ify
Ġpub lishing
Ġtarget s
Ġbring ing
ĠGu ard
ĠS her
ĠM aps
Ġ} )
Ġind entation
Ġbrand s
Fact ory
Ġlicens ed
c all
c up
s ave
u h
ĠS quad
Ġmo on
min ute
ret urn
ĠEl iz
z o
Ġb att
ed ing
Ġd oc
Ġh ref
ĠS av
ĠW olf
ab c
ĠL ayer
ry ing
Ġbas es
Ġfind ings
Ġel imination
__ `
ym e
Ġ196 1
Ġcur ves
Ġmunic ipal
c us
d ale
g un
t em
Ġw ings
Ġp tr
Ġm ort
ĠS ound
ĠB ad
ap ore
Ġcy ber
ĠProv ince
Ġdise stab
Ġproport ional
Ġdefe ated
. '
Ġs pl
Ġw ed
ĠA RM
Ġd ask
ĠW i
ĠM VC
ĠD ue
Ġch rom
ure d
Ġref act
Ġart ifact
k h
z h
ir ty
Ġv ocal
ast y
Ġsc r
Ġopen s
Ġreal istic
vent h
Ġarrang ements
H ttp
M ax
g res
u els
ĠL ind
Ġint ense
Ġacc um
ĠAd am
Ġstrateg ic
ĠMus lim
Ġbreath ing
Ġmicroser vice
Un it
ĠDri ve
' `
D ocument
T ask
c p
j query
Ġp un
ĠT ogether
ol er
ĠR andom
Ġ6 8
ĠSe qu
att r
Ġpredict ed
Ġexception ally
Ġsurv ival
Ġ ram
ĠC ro
se x
est iv
Ġoptim izations
ĠLe on
ER T
ĠRepresent ation
bre ak
Ġafford able
) `.
, -
t ail
if ting
Ġint ensity
oc ese
Ġsh ut
Ġ195 8
Ġcollect ing
Ġintellig ent
iz able
Ġsh ock
Ġ5 8
Ġprom inent
ĠInter face
ĠQue st
ĠMod ern
ĠSqu are
7 3
r ons
Ġp ens
am i
ab its
ag ers
Ġun us
ĠAl abama
ĠShe ll
ĠSp anish
Ġ14 0
ĠPh ilipp
ĠOb serv
Ġkind ness
ĠBuild ings
Ġhor ror
Ġconvent ion
B ig
O ver
W idget
it ives
ĠF red
ĠN ether
Ġcl othes
Ġperform ances
AT H
Ġpay ing
ĠBo keh
Ġproced ure
ĠAk ka
l ah
al as
ĠT ABLE
ĠS R
ĠF ill
ĠL ie
ob e
Ġcap tured
Ġhigh lights
To ols
ĠSystem s
ĠSim ple
Ġthoughtful ness
Ġful fill
Ġexhib it
Ġterrit ory
al ty
Ġb om
ĠM obile
iz ard
Ġcomp ares
Ġrec ru
In put
Ġremo ves
Ġpolit ics
Ġconstruct s
Ġstream ing
Ġcallback s
Ġlic ense
Ġmyst ery
Ġdesk top
c ondition
Ġb atch
ĠN orm
Ġk o
Ġsupp osed
ĠReg ion
Ġmotiv ated
Ġstrugg les
ĠEncrypt ion
E E
Ġp ays
Ġo ct
per vised
Ġcode base
ĠDec or
ĠNot ice
Red uce
Ġiniti atives
Ġoverwhel ming
Ġaband oned
C omm
Ġp ed
Ġro lling
Ġgen e
Ġsub group
Ġsqu ad
Ġsus pect
ĠTw itter
Ġencoura ges
Ġmole c
ĠA ff
Ġm utex
de lete
ĠI ron
Ġcons olid
pro du
ĠCon stitution
ĠGra de
Ġdownt own
Ġcris is
5 000
C I
m us
ĠS SL
az ines
Ġbl ank
Ġadv oc
Ġintrodu cing
Ġnorm ally
t au
Ġf urn
Ġin efficient
Ġg orout
Ġbe am
if ts
ĠR ose
Ġro cks
az e
omet ry
Ġanim ated
vis ited
Ġfold ers
Ġconj unction
4 7
ĠH ills
od d
Ġsh arp
cl aim
Ġsub mit
Ġcharacter istic
Ġspeed s
gress ive
Ġste am
( &
Ġt err
le ctions
de gree
de cor
Ġdes cending
Ġco al
Ġag encies
}{ (
inc ol
bo ol
ĠCol lection
Ġdri ven
Ġsepar ation
n on
Ġm and
ul k
ĠC ensus
ĠM unic
Ġse es
ĠAn th
ĠPh ot
solute ly
Ġabs ence
coh ol
} +\\
Ġand roid
ĠComm unications
ĠCont ent
Ġmitig ate
u ction
at o
ot y
ĠEx t
Ġ\\ {
Ġ' __
Ġwork load
inc ome
ale nce
Ġpartic les
gre en
Ġmill ions
Ġt ub
or ney
Ġw ing
Ġb one
Ġp ra
is sing
Ġbe ef
ĠP E
Ġal pha
rom ise
ĠPro du
In ter
fe ature
Ġsuper ior
ĠPo ly
ĠLab our
Ġmodul o
ĠRetur ns
ĠMississ ippi
P age
S ock
h ome
Ġb unch
ic ut
ĠM ember
Ġopt ional
ĠCon stant
Ġblock ing
erest ing
ĠSing apore
Ġcomprehens ions
ĠCast le
Ġbyte code
( __
0 8
> `,
Q R
ĠI ce
ĠB rand
Ġwith draw
Ġcont rolling
Ġcomput ed
ser vice
erv ative
Ġvary ing
Ġcarry ing
ĠPack age
P ath
d r
g oogle
t ri
ou ston
ĠM oon
ĠJ ython
Ġdef end
ĠSt ock
Ġcent ered
Ġmet adata
Ġscen es
ĠKore an
H and
[ :
Ġd uck
Ġst uck
Ġmem or
ĠAt om
ik i
n n
Ġp upp
ĠC oc
ĠV ector
à¥ ĭ
ĠEn h
Ġ195 7
off s
Ġcombin ator
Ġdru gs
pur pose
Acc ount
! (\"
o king
Ġt ight
us ive
Ġg olf
Ġcan cel
fere n
own ed
Ġgame play
Ġneighb oring
Ġdel ighted
Ġimm ers
ĠBill board
Ġcircum stances
) !
Ġin se
as er
ĠT rust
ro py
ĠS on
am ount
ad ow
Ġ\" ;
Ġprogram mers
Ġem bra
to kens
ĠMat t
ĠPar is
ĠJust ice
ĠDec ision
inst ance
ĠChild ren
Que ue
in x
ĠP ict
Ġal phab
ous es
olog ist
Ġent ers
ograph ics
ĠEm ma
Ġsto pped
ĠMem orial
ĠStep hen
Ġtrig ger
ĠFact ory
ĠEvalu ate
fol io
Ġexpos ure
ĠW ind
Ġv irtu
Ġle ver
ĠO racle
Ġk ick
Ġgu y
Ġconnect ivity
Ġhead ers
Ġiter able
ĠNumb ers
ĠMax im
Are a
m ates
Ġw ider
ar on
ĠH art
ĠR yan
ĠL ew
ĠG il
Ġ5 1
Ġ8 4
Ġpass enger
Ġconf usion
Ġgreen house
async io
1 80
h older
k otlin
om plete
ĠS ide
ĠS plit
ĠG M
ĠO ption
Ġpass words
AR CH
Ġsend er
Ġsustain ability
Ġrecip es
ĠDak ota
pe ople
ĠJ VM
Ġ4 7
ĠSc i
ĠReg ional
. _
S ec
ĠD aniel
Ġpr icing
ud es
Ġver ifying
op her
Ġrepresent ative
Ġorder ing
Ġpuzz les
Ġcheer ful
Ġb undle
ant ry
Ġg ated
th ird
ĠTh ough
Ġover ride
Ġwild life
Ġnut ri
ĠSH A
Ġm ine
Ġ# !/
ĠF alls
Ġr anging
Ġdis rupt
com merce
ĠCon ver
Ġconf ront
Ġtri ple
Ġtarget ed
Ġ195 4
pre ne
arsh all
Ġinh abit
s leep
Ġt orch
in ations
Ġh ur
ĠS ix
Ġon going
ĠM rs
ĠO OP
ap es
Ġ5 9
Ġvari ation
Ġlog istic
Ġ195 6
Ph one
Ġexclus ive
E verything
Ġb anks
ent ral
ĠH ay
ĠM P
ĠEx per
ors es
Ġspe aker
ys ql
Ġpar king
Ġprofess or
Ġweap on
ĠJac ob
ĠNether lands
H z
m ont
is er
ur ations
ĠI owa
ne q
Ġent ering
Ġsurpr ises
Im age
Ġcrow d
Ġ.. .,
Ġord inary
lah oma
! '
a ud
re prene
ĠI N
Ġbe ll
ad min
Ġ10 1
tal ion
Ġpres ents
we aving
ĠTest ing
Ġh its
ĠD ie
ĠJ WT
ord an
ĠTo ols
cy cle
Ġsec rets
Ġcontinu ously
ĠRes ult
Ġmist ake
Ġtrig on
ĠAtl antic
jac ency
0 3
f amily
Ġg al
un ing
Ġcom plain
ĠN P
ĠL ock
Ġso ph
Ġtrans itions
load ing
Ġple ased
Ġnavig ating
Ġevalu ates
ĠDist ance
Ġcompet e
ĠBoo leans
igu ous
igen ous
Eng ine
at ar
Ġs ail
Ġw et
ĠC as
ĠTh ird
Ġsp here
Ġev olved
Ġsum s
Ġfactor ization
Ġple nty
ĠRec all
Ġweak nesses
Ġbin omial
ĠImm utable
ĠLoo ps
v ial
re q
Ġf olk
Ġb act
Ġb aking
Ġo h
ĠComb ining
employ ees
Ġrh yth
r ant
Ġl at
Ġcon ference
pl ane
Ġwhe els
Ġsc ipy
Ġj umps
à¤ ¯
Ġloo se
Ġ-- >
ĠEl astic
Ġlo an
thread ing
Ġdeploy ing
Ġwood en
ĠGall ery
reason ed
H ub
s chool
Ġp od
ĠA y
Ġe PUB
Ġre ar
ĠB ranch
Ġmeasure ment
Ġfant asy
Ġmanufacture r
ĠPosition ing
ĠA N
as ible
am ber
ĠB ir
ĠP ale
Ġ- =
od ge
ĠK enn
rib ute
Ġmusic ian
Ġisland s
types cript
Ġsymmet ry
N ot
n able
{ -
Ġt ou
Ġp in
ig raph
ab eth
int end
Ġdes ire
ĠCh alle
rol led
over line
Ġprotect ing
Ġ194 7
opt ions
ĠConnect icut
Ġprepar ing
ĠOk lahoma
ĠPit ts
in ity
ar ks
Ġyou th
ĠS ilver
ĠB ab
ĠL incol
ĠAr k
Ġbi as
IN G
ĠPlot ly
F orm
m v
ou ter
ĠW il
ĠM PI
ĠN ations
Ġsur ve
Ġmaintain ability
Ġknowledge able
Ġbound s
Ġ195 5
ĠTech niqu
Ġmodular ity
Ġcontract s
ĠMel bourne
Ġstake holders
Ġtroublesh ooting
6 2
D ri
h ab
ul um
Ġcont rovers
Ġconc ert
Ġrob ots
Pro v
W ith
h ill
o cc
it able
Ġg ps
ĠE st
ĠAr thur
ĠOn line
Ġconver ts
Ġmembers hip
Ġbrother s
Ġdou bles
ĠProfess or
Ġchunk ed
Produ ct
n v
Ġst ir
Ġv end
Ġwe aring
ĠD C
ĠN am
int on
Ġman ually
hat tan
Ġmat ters
Ġ8 1
Ġbrief ly
ĠArch ite
F rom
Ġf av
ĠN ick
Ġcorrect s
ĠSt adium
Ġiter ator
off icial
ĠChar acter
Ġrev ised
ĠCE O
C ode
C ons
Ġs avor
ĠA ction
Ġn il
\\ {
ĠR id
ĠD er
ĠD FT
ĠJ ason
ac on
Ġinter rupt
ĠCom ics
Ġtrans mitted
Ġsur g
Ġfall ing
T A
u ct
Ġat omic
act ers
Ġ12 3
Ġimm une
eon hole
ĠStud ies
ĠToken ization
Ġpadd ing
e lect
} -\\
al gorithm
ul as
ĠB le
ĠR ug
Ġte eth
ĠBe at
ĠSt aff
Ġreal ize
Ġhapp iness
Ġdem oc
rec ision
Ġdomain s
Ġbr ute
ĠAlgorithm s
Ġpartition ing
Ġhundred s
T orch
_ \\
f rames
t emplate
Ġf ur
Ġg iant
\" .",
ĠN AS
ub a
Ġinf l
ĠQu ery
fl ies
Ġol ive
ĠTem ple
S ize
] }
ĠT kinter
ĠG arden
Ġch ose
ache lor
Ġcommit ment
ĠMap Reduce
ĠTuple s
) ):
S cal
Ġst unning
and roid
ap ache
Ġ19 20
Ġob vious
Ġed itors
Ġ10 5
Ġblue print
H y
b el
f etch
Ġb ridges
Ġle ns
llow s
Ġmin i
Ġtre asure
ĠConf ig
ĠSy nt
Ġbroadcast ing
ĠTy pes
Ġweigh s
subset eq
Ġme als
king s
à¤ µ
Ġ9 2
Ġcr ystal
Ġengine er
Ġinvest ors
ĠInteg ration
thread ed
Write Line
Ġdeath s
in itial
st ration
or i
Ġcom pl
ive red
Ġele ctor
Ġro se
Ġra ising
Ġ12 5
Ġpack s
^{ (
sc he
à¥ ģ
Ġindex es
Ġdocument ary
amet ers
lay er
Ġschedu led
Ġspirit ual
Ġimag inary
I G
b oy
d plyr
al g
ĠC ut
Ġhe rit
ĠR on
ak a
du ate
ĠSe veral
ĠCon clusion
ĠWeb site
Ġauthor ities
AS E
Ġhabit at
ĠProfess ional
Ġretire ment
E ff
m icro
le g
Ġf t
Ġp itch
ĠT ower
ic ate
ĠS ab
ĠL anc
ag ram
Ġdi ameter
ĠComp anies
Ġbound ed
}, \\
Ġapproxim ation
ĠNot able
Ġtrust ing
ĠMult i
Ġvers us
Ġisol ation
Ġaugment ing
sa fe
ĠAdminist ration
P er
or ity
Ġas ymmetric
ot ton
ri ers
Ġdes c
Ġover flow
Ġvisual izing
Ġaw k
Ġtradition s
Cl ient
Ġwat ched
mem ory
ĠBread th
estiv als
Ġthe ater
Ġl uck
ĠB etween
ĠH an
ĠR od
ke l
Ġr ings
ĠSing le
Ġgather ing
s ure
y ard
} |
Ġa ver
Ġmin us
Ġbro ke
Ġpay ments
Ġhy brid
met a
ĠSw ing
gg plot
Ġpul led
Ġtut orial
Ġvio lence
Ġn ur
Ġre wards
Ġv aries
ile y
end ency
inc rement
ĠGe o
Ġtw enty
ĠReg iment
Ġreport ing
Ġjud ge
Ġillust r
ilater ation
redu ce
Ġtravers ing
8 4
m tcars
Ġo xygen
Ġg ran
se ls
ĠF ish
Ġdo ors
Ġfe e
Ġtr ilateration
Ġcons ume
Ġperson nel
Ġuni versal
Ġattack er
ĠAut hentication
Ġrelig ion
Ġoccup ied
Ġ%> %
b ird
em et
ĠC ow
ĠP ut
iz ers
Ġindivid ually
ĠTra il
Ġremo val
ĠDep loy
Ġbi ological
Ġdeploy ed
ĠJim my
Ġduplic ates
Ġreput ation
C ustom
Ġl ift
em an
ĠP ers
Ġ5 3
Ġsub t
ĠPy Torch
Ġretrie ving
Ġjoy ful
ĠAV L
Ġherit age
U N
Ġb es
om ot
ĠBe gin
Ġj azz
ĠInt ellig
Ġlo ving
Ġimmed iate
Ġcos ine
Ġrom antic
ĠStr ateg
R ep
f n
w y
Ġ$ {\\
int eger
Ġ* /
aut h
ĠFind ing
AG CT
i at
re es
Ġcontinu ity
ĠAut onomous
Ġmicro scope
Ġoccurre nce
ĠTer rit
ĠAlbum s
st ock
ĠM ess
ĠR ick
ĠG i
ĠO tt
ĠSt re
ĠK now
Ġpar ser
Ġprom ises
Ġrequest ed
ĠGre g
ĠMan ip
Ġax es
ĠTre es
ĠDistrib uted
Ġvibr ant
f ig
g ithub
ĠT een
ĠI O
Ġ# {
ĠSt atic
Ġfound er
Ġdeterm ination
Ġpd b
path y
pare ncy
writ ten
Sp ark
Ġconcern ed
u z
al o
Ġb omb
Ġb ronze
all as
Ġch apter
ph ant
Ġmy project
Ġinc ident
ĠPl ant
Ġtem por
Ġmaintain s
Ġflo ats
Ġautom atic
Ġprote ins
Ġemer ged
ĠHot el
ĠDE LETE
Ġprepar ation
Ġrestri ctions
decor ator
D ec
E N
G ET
Ġn th
Ġoff ices
Ġrel ate
Ġgu ilt
Ġ\\( \\
ros so
Ġgradu ate
clud ed
Ġinterpret ation
Ġtro ops
c ery
l aw
o om
um a
are n
gh an
og ene
ĠCon ference
Ġflo ors
Ġappear ances
stud ent
ĠHo ll
emet ery
8 8
t x
er ves
Ġp anc
tu al
Ġ` :
ĠF ull
ĠG ord
ure au
ĠK y
loy d
Ġfix ing
Ch ild
Ġchain ing
ĠSort ing
Ġcoast al
ĠLim ited
Ġresil ience
Ġs ql
Ġe c
ce st
Ġcon clude
ĠG BA
Ġele g
ĠAl an
ĠUn fortunately
Ġsur faces
lie st
pri vate
ĠSw ed
ĠMark down
ĠGit Hub
Ġrobot ics
Ġnewsp apers
Ġguarant ee
ĠBlo om
Ġchampions hip
Ġdetermin ant
ĠOx ford
h av
j an
ĠA ST
Ġg ear
ĠM D
Ġup gra
ĠSt one
Ġreg ulations
Ġve gan
Ġtre ats
Ġri vers
ĠDis ney
child ren
) ),
6 9
H el
W rit
ro ts
Ġth reshold
Ġh ip
Ġhe aps
ĠL ower
Ġsh ore
Ġprot otype
Ġchild hood
Ġdecl ares
Ġport ray
depend ency
Ġinterpre ted
Ġenem ies
Ab solutely
alend ar
M s
S omething
ĠS V
ĠM S
ĠD ream
ĠL aunch
Ġel igible
sh aped
mon th
Ġdefe at
Ġcub ic
Ġho les
Ġrig orous
ĠPolit ical
Rec ord
Ġmal icious
J DK
n ormal
Ġre vers
ĠU k
Ġcomm ut
Ġmod es
Ġent hus
Ġdecl ine
Ġsimpl ified
Ġoccur ring
Ġacqu is
ĠHaw ai
Ġloyal ty
Reg ression
ĠJes us
Ġfoss il
e ast
Ġto t
Ġre plic
ĠS af
Ġus ual
se ction
ĠR us
ĠD or
ass ert
Ġad option
ond a
Ġem p
sal ary
er ion
Ġthe atre
ke ys
ĠO wn
pd b
Ġcast le
Ġreve al
Ġtrib ut
AGCT AGCT
A m
M ay
Ġs ad
Ġf ought
Ġh abits
ĠP as
ĠH arb
ĠH ockey
ĠE ss
Ġun ions
ac s
ĠV ersion
Ġsub tree
ĠAn na
ĠDe ath
my app
Ġleg acy
ĠEd ge
Ġsens ory
Ġeigen values
Ġoverl apping
Ġconcent ration
Ġballo ons
M em
T wo
l ings
n odes
u f
in fo
ĠA T
im b
ĠI V
Ġg aming
ĠE stab
ĠF I
ier ce
Ġless ons
onal d
ĠNote book
Be autiful
0 7
f ather
o oth
ĠCom pos
Ġass et
ĠMan chester
Ġlow ercase
ĠWeb pack
An ything
Pro ject
Pro file
Ġthrow s
Ġven v
ĠFin ancial
> ;
B I
| --------
Ġw ond
Ġp unct
ut ability
ĠP or
ert y
ĠRet rie
cons uming
Ġemphas is
sign ed
appro x
rosso ver
a ug
} }$
Ġa qu
Ġp ace
ĠS D
ast ers
Ġrec re
Ġsub stant
Ġsy nd
Ġpost erior
ĠChe m
ĠSm art
Ġpurch ases
Ġplug ins
ĠKe vin
Ġresc ue
ant ha
Ġl apt
ul ative
ĠC ounter
Ġ( !
ĠK al
ask et
ĠAr row
Ġcut s
ĠEff ective
Ġsimultane ous
Ġsex ual
Ġeth nic
E X
b lowing
Ġb old
Ġin herent
Ġcre ature
Ġle verage
ĠG ram
Ġch ances
Ġback up
Ġshow case
Ġdel ivered
Ġgr asp
Ġestablish ing
Ġseem ingly
Ġpan demic
ĠPop ulated
de bug
Ġg host
ĠM oh
Ġdata frame
Ġdef ensive
Ġloc ate
Ġsign atures
Ġbreak fast
Ġstack s
Ġretrie ves
ĠDev Tools
Ġcub es
ĠAlbert a
( *
in th
ĠA de
Ġin ver
Ġn a
\" ",
ĠH om
Ġj ew
Ġname ly
(\" %
Ġline arly
sc reen
Ġpost ed
Ġpolit icians
Int eresting
Ġgold en
M e
d on
ol t
ĠF le
Ġatt ractions
Ġgroup ed
Ġstre ng
Ġcat al
ĠCustom er
ic on
ĠC L
Ġint ent
Ġen compass
Ġrel ie
Ġelement ary
ĠSp ain
ĠMan hattan
ĠOr ange
Ġreflect s
ĠPlay ers
ĠCapt ain
ARCH AR
ĠRug by
! ');
V ector
ĠG len
Ġi Phone
Ġheart s
Ġpartial ly
ĠInsert ion
Ġcorpor ate
ĠHolly wood
G e
m n
u an
Ġan ch
Ġs ought
ĠA st
Ġm ob
ic ide
Ġst icks
ĠR ound
Ġout line
Ġcalcul ator
ĠSe ason
Ġintegr als
Ġ194 5
Ġsleep ing
Ġsubs id
Ġmagn etic
0 4
l ining
ou nce
ur ches
ĠS ky
Ġun ders
Ġhead quarters
Ġmind s
ĠAct iv
Ġdr ums
ĠObject s
itz er
Ġshad ow
Ġdial ogue
Ġshel ter
Ġunus ual
ĠPitts burgh
I dent
S k
ĠP ur
ĠK ill
Ġ* )
one ly
Ġent rance
Ġref resh
my project
St ep
Ġactress es
B FS
s velte
Ġc inem
ĠB ull
ĠW alk
Ġma les
ĠJ ess
ĠJ ordan
Ġres on
Ġev il
Ġaut oc
Ġtri als
ĠBra z
ĠElect ric
ĠOrig inally
ifact Id
Ġphilosoph y
ĠUlt imately
0 9
6 3
R S
m ad
n ab
s ized
w ick
if er
ĠM aven
ĠN S
Ġver b
Ġmultiple s
Ġprim itive
Ġfac ulty
ĠAtl anta
ĠEliz abeth
m ail
u ced
Ġr ounds
Ġinter connected
Ġappro ved
ĠX OR
Ġpol ar
Ġsix th
Ġdro ps
Ġdoub led
Ġsac r
oret ical
Ġf aith
ĠO s
Ġdi ct
Ġinv alid
Ġsk i
Ġmark up
Ġbene ath
!\" ;
Ġwin ners
Ġpush ing
Ġsummar ization
Ġtit led
Ġnuc le
ĠSecret ary
Gre eting
Ġko alas
Ġf ert
us hes
ĠI T
ĠR ating
ĠD J
ĠJ ay
ĠEx tract
Ġsh ooting
Ġlear ner
Ġsw aps
Ġsuper class
ache l
Ġinvest ing
Ġpolit ician
Ġwor se
ĠOff ic
Ġutil ization
Ġslic ed
ĠHarr is
ĠLegisl ative
M AR
h ot
Ġ ];
re nt
Ġc ow
Ġs ib
Ġf its
ĠT en
ĠR ain
ĠF low
ĠF ederation
Ġbo ot
Ġmess aging
ĠRep ort
Post ed
ĠVill age
ĠGree ce
n etwork
Ġt ends
Ġw ard
im g
ĠR oss
ect ors
Ġun defined
Ġsub ur
hed ral
ĠCon sist
Ġpack et
Ġpack aging
Ġpres erve
Ġpain tings
Ġvill ages
ĠDav is
Ġliter ally
stud ents
idy verse
Ġm ask
de c
Ġst ead
el ve
Ġsh ipping
Ġ19 2
stru ctor
Ġdifferent ly
ĠDe lete
pend icular
che stra
ky o
Ġconfigure d
I V
Ġd ough
ce ive
ĠW y
ac le
Ġsome what
Ġinter change
Ġmethod ology
ĠPro bability
Ġsing ing
Ġext ens
Ġcustom ized
sh ort
ĠNe v
Ġvalid ate
spe cies
group Id
ĠSecond ary
ĠUp on
m ac
in ition
it ement
Ġb oss
Ġd ess
ĠM L
ĠL td
art ifactId
pro t
Ġbo ards
Ġserver less
ĠMan aging
Ġ194 8
Pro cess
fil led
Ġgun s
ĠSci Py
C M
T ra
Ġ \",
Ġl ux
ĠR ange
Ġobser ving
Ġloss es
ĠBar ry
Ġassum ed
flo or
Ġcertific ate
> <
b ind
Ġp iano
Ġm ock
as m
Ġde struction
\\ }
ĠL es
Ġconst itution
ĠPro cessing
Ġexplain s
Ġpredict ive
ĠMean while
R ectangle
i w
m outh
Ġp ink
ro gram
Ġh ired
ĠF am
up date
Ġkn ock
Ġ6 2
ran e
Ġconf irm
ĠAnd y
Ġopp onent
ĠBo ys
ĠAcc ount
Ġclim bing
Ġarchitect ural
Man ager
Ġagric ultural
Ġow ns
Ġlegisl ation
ĠAltern atively
b its
st ation
Ġb are
Ġp seud
Ġhe ights
Ġr ising
Ġdis aster
St art
Ġconsider ations
15 9
Ġport folio
Ġaim ed
Ġlif etime
ĠAccess ing
ĠSl ack
ĠAuthor ity
+ (
d ro
Ġin n
Ġl un
am ond
Ġhe x
Ġ{ \\
Ġtra its
Ġconsider ation
Ġtechn ological
cle an
ĠInteg ers
level and
ĠMalays ia
/ ](
c akes
Ġc ray
Ġs ick
ĠIn dependent
per ature
ip art
Ġj ack
Ġsim ilarly
ĠAl len
ĠPro duction
Ġsepar ates
Ġemploy ment
Ġestablish ment
product s
Ġsear ches
Ġfranch ise
m aster
Ġc ursor
Ġb ills
Ġm amm
ch i
ĠSe attle
Ġgra b
Ġscient ist
Ġunc over
Ġtail ored
ĠVal grind
Ġredund ant
V is
k ar
v ance
at al
Ġp ile
Ġh ints
Ġst ones
ĠD allas
ect s
Ġsc ulp
Ġsimple st
ĠCol lect
Th ank
ape l
ograph ical
Ġsw ing
Ġkill ing
ĠLear n
Ġlisten ers
Ġap olog
b urn
h as
j it
s ales
ur is
Ġst ays
ut ures
ĠB illy
Ġal cohol
Ġart work
ĠPl atform
ĠInter active
Ġsens or
ĠMet ro
ĠDisc uss
Ġdiagram s
ĠInstant iate
m d
er ved
Ġre active
ĠS alt
and ra
Ġen um
Ġdevelop ments
ale m
Ġext ending
Ġaltern ate
ĠSh iny
sh ape
Ġdeb ate
ĠCol umn
200 5
200 6
Ġattempt ing
ĠRepresent atives
Ġstick ers
Ġathlet es
ĠIntellig ence
p air
} </
it ting
ĠN ic
ĠJ ake
ĠTo y
Ġfe es
Ġ10 8
Ġaccess ibility
text bf
Ġvol umes
Ġcook ed
Ġinform ative
Ġdark ness
ĠMo ore
ĠComb ine
Ġregist ered
ĠEgypt ian
Ġcro ps
Ġfacilit ate
Ġperman ent
ĠSquad ron
H L
ĠC elery
ĠB ry
ĠH ero
ĠJ enn
te in
Ġ7 6
Ġexp osed
Ġident ifier
ox ide
Ġrespond s
Ġpropos al
ĠThrough out
Ġconj ug
Ġholid ay
Ġdome stic
b ane
g roups
ĠC leveland
Ġwas h
ĠV ARCHAR
Ġ6 9
aus es
Ġbus es
Ġ25 6
Ġaccount ing
Ġprompt s
Ġwor ried
Ġmole cular
Ġgovern ments
ĠIslam ic
: ',
C y
O D
p read
Ġcon gest
ĠF al
ĠF uture
ĠG ate
ĠK han
Ġsystem atically
ĠAm ong
Ġexplain ed
Ġgr atitude
Ġwar ning
Ġperm utations
ĠTre llo
Ġsafe ly
Ġban ana
ilater al
E G
b n
c r
d jango
f ox
st ein
Ġm kdir
im er
pe z
Ġpar liament
Ġvol t
Ġmicro cont
Ġadjust ing
Ġresid ential
Ġvac ation
olph ins
E C
ard ing
Ġdirect ives
Ġcap tures
err ane
20 10
Ġuni versities
ĠStu di
ĠMed it
iam i
ĠDa ily
Ġpil ot
Ġnomin ated
F I
R C
b ut
d k
g ow
j ar
l led
l ower
t te
Ġc ater
Ġw are
Ġre loc
Ġas ide
um in
ir is
ĠH ouston
ĠM eta
ain ts
ie wer
Ġdis m
Ġtri angular
ides pread
co ordin
ĠMark eting
lim its
Ġenjoy ed
Ġban anas
ĠSud oku
Ġincon sist
Select or
visual studio
B M
en de
Ġd t
ĠS ep
ver ty
Ġch airs
Ġrecord ings
Ġstri ke
Ġinterse ct
Ġbelong ing
Ġfinger print
eh icle
= `
Ġan ne
Ġo vers
Ġto ss
ot ion
Ġar tery
Ġha z
Ġsc ar
Ġform ulas
Ġsl oths
Ġcompet ed
ĠSen ior
Ġpurs ue
Ġprev ents
Ġreject ed
Ġwed ding
Ġimmers ive
errane an
f r
t own
Ġs oda
Ġd ual
et erm
ĠC RU
ĠL I
Ġpo verty
ne utral
vers ary
ĠHe art
Ġexpres sing
ĠRead ing
Ġrequire ment
Ġfoot age
Ġinj uries
Ġdoll ar
Ġreve als
erto ols
V ari
ĠE dition
Ġim per
Ġsu ite
ie st
Ġprov incial
Ġher bs
Ġprodu cers
Ġdisc ont
oun ters
ĠAust in
Ġexc itement
Ġhost ing
Ġcam eras
ĠMill er
Ġpoet ry
f mt
Ġt ropical
Ġh at
ĠC ass
Ġv ine
ĠE s
Ġse ed
are r
Ġcar ries
ĠComp onent
Ġcompil ers
Ġexpand ing
fit ting
Ġbr ush
ĠVi et
}^ \\
Ġli kes
Ġchem istry
ĠEuler ian
Ġaccommod ate
Ġscr atch
( `
P ool
n ative
ad ed
ĠF ro
Ġpl ates
St age
Ġcolle agues
Ġquery ing
ĠExec utive
ĠCompar ing
Ġic on
Ġs il
Ġw rap
Ġp ushed
Ġ1 12
Ġgen es
Ġsub urb
ĠSe lenium
Ġent reprene
Ġmo ist
Ġcho pped
Ġder ive
Ġappear ing
Ġconfig urations
Ġextract ing
Ġgall on
Ġassess ment
ĠLinked List
Ġwire less
ester day
l angle
Ġf uels
om atic
ul ink
ĠS ri
ĠS ources
Ġma il
act ivate
ĠEx ception
Ġimp lying
Ġpoint ed
view s
Ġear liest
co very
Ġcontinu ing
Ġcred its
ĠPat tern
ĠProm ises
Ġquar ters
Time out
ĠThread s
ĠLouis iana
ĠStudi os
c i
d atas
v oid
ĠT rie
Ġcon clus
ĠE mer
ab s
ĠG TK
Ġch ronic
Ġun cle
ĠK a
Ġprov en
Ġshe lls
Ġexper iments
add ress
Ġanalyz ed
ĠSpe ak
Ġcompos ite
ĠAf ghan
Ġrail road
ĠColl abor
Ġali en
c ot
c alled
e ah
Ġd in
umb led
ĠCh apter
Ġà¤ Ĩ
Ġdra gon
Ġ195 2
[] `
Ġtur b
Ġpredict ing
Ġsudden ly
! `
l on
at on
ul us
ĠB alt
ĠL ady
Ġprov ed
Ġbas h
cul ator
Ġtrans parency
ser ies
sc ene
ĠFl ash
ĠCommun ication
ĠMedit erranean
s f
} )$
ing ers
ro it
ĠP u
ĠH ur
Ġuse State
ak h
Ġhand lers
fra id
ern ate
Ġmis sions
Ġpur ple
)\\ \\
Ġpurch asing
ĠArray List
Col umn
build ing
ĠOrgan ization
Ġgro cery
Ġhar vest
ĠElement ary
ĠNev ada
ĠCRU D
F e
T rans
X X
f old
h alf
i qu
m kdir
Ġw idespread
ĠI d
ĠW ars
ĠF ive
el if
ĠU l
Ġpre gn
Ġinsert ed
ĠTrans fer
ĠAut o
Ġjava fx
Ġannot ation
Ġincred ible
ĠDiction aries
ĠLew is
ĠLincol n
f are
Ġd fs
Ġsu its
oo f
Ġj unior
Ġro y
Ġtra ils
els on
(\" $
ĠAl pha
Ġreal m
uff er
Ġhi king
Ġeat en
Ġaffili ated
ĠRog er
Ġinhabit ants
2 40
D id
Ġsh irt
Ġk ne
app lication
Ġplot ting
mar ize
ĠIns pect
Ġinvestig ate
Ġmanufacture rs
athe red
Ġsubstant ial
a way
d if
k it
t oler
re ction
on ut
er als
er ator
ch a
ĠW or
Ġv eter
ĠP ear
ĠL abel
Ġdirect ive
Ġmis sed
ĠComp iler
Ġtru cks
Ġdefin ite
Ġsatisf ied
jure d
Ġsun light
Ġopin ions
Ġvir us
ĠTreat ies
a ire
b as
in cess
Ġb low
Ġcan al
pp ings
ĠE ve
ĠD ur
Ġfollow ers
Ġso ap
Ex ec
Ġform ally
Ġmus cles
Ġkm ph
icy cle
ĠLL M
Ġrating s
Right arrow
l it
m ony
ate ur
ĠB ishop
ĠP ow
ĠJ ob
mer ge
Ġpre t
Ġdifferent iation
Ġfl ip
Ġbuild s
List ener
ĠWork ers
ĠGraph QL
Ġaccept s
fru it
Ġsubarray s
Ġbon us
= [
p al
v ol
w t
z er
at able
Ġp icking
Ġle ak
Ġsp an
Ġ8 9
dition al
__ ':
14 159
Ġexperiment al
fill na
Ġwit ness
ĠMast ering
M orning
g age
l ig
ĠC ru
ĠL ex
ĠK o
Ġgra ce
ĠCompar ison
Ġmere ly
8 9
U P
w he
it ational
Ġto oth
Ġd ust
ĠT ai
ĠR an
Ġnot ion
cri bed
St ore
Ġland s
Ġill ness
)/ (
Ġyog a
c ustom
n it
p ub
on der
um ns
ĠH D
ĠM iami
ĠR ap
ĠL isa
Ġ7 7
Ġcap ac
Ġcar go
Ġcoll ap
Ġri val
Ġsecure ly
Ġmechan ical
Ġsn ack
Ġregist ers
Ġshad ows
ĠMot or
Ġneck l
W A
m utex
er g
Ġan cest
Ġh orses
ĠG ard
Ġgen re
Ġlog o
Ġcolle ges
sh ift
ĠSam antha
$ \",
A PI
C O
a verage
b ridge
v ia
ĠP S
Ġar ises
Ġco ck
Ġrele vance
requ est
Ġbelie f
af let
ĠGord on
ĠB ris
ĠM aria
ĠJ un
ĠBe ing
umb le
Ġval ley
Ġinvest ed
ĠSec ure
Ġsus pen
ĠWild life
Ġtrick y
Ġimpress ive
ĠAnth ony
Ġalphab et
Ġbact eria
# ,
D ist
Ġc akes
ĠC ab
ĠP red
ĠEx port
Ġcor ruption
Ġ' (
Ġsp am
ĠAl aska
Ġdisc r
Ġreason able
Ġpromot ion
ĠHind u
ĠOrig inal
ĠBow l
ĠBru ce
orig inal
ĠBraz il
n ut
an al
ant ly
ĠC ert
Ġv it
ram id
ag an
Ġup coming
Ġdes ert
oid al
Ġmet res
Ġlim iting
ĠTra vel
Ġcross es
We b
ĠMor gan
MA Script
asp berry
Ġrank ed
Ġphenomen a
. *
D on
b at
} }{\\
Ġg ifts
ĠM V
ĠN ig
Ġwork place
Ġdis orders
Ġvis ibility
Ġleg it
Ġrecogn izing
Ġinflu enc
ĠGl as
Ġimag ery
Ġrat ios
Ġwond ers
Ġcongest ion
O mega
d ra
Ġa est
Ġd p
ĠS ales
ĠR DD
ĠR achel
ĠF all
ĠG un
ie val
Ġro pe
20 11
Ġland ing
Ġ195 3
Ġobtain ing
eral d
ĠInc orpor
Ġur l
writ ing
Ġsand wich
Ġmut ual
Ġpartners hip
Mat rix
ĠCoo per
Ġgard ens
I y
i ro
y ing
Ġt ennis
ic hes
Ġth r
ĠC ant
id ity
ĠF ant
ort ed
pl an
ĠK EY
Ġdi pl
Ġact ively
Ġà¤ ¬
ĠPri ze
Ġban king
Ġglass es
Ġrelax ation
____ ____
Ġfurn iture
nab la
Ġp ic
ĠF ocus
ag h
Ġ\\ ):
ĠAns ible
string s
200 7
Ġ'. /
Ġmix ing
Ġ194 1
Ġphot ograph
Ġinsp iration
Ġfem ales
Ġsegment ation
Ġphenomen on
( ()
C R
M ark
O IN
P ass
W ork
on ia
ur istics
av id
Ġra ises
Ġatt ending
ĠSe lection
Ġenc ounters
Ġmag azines
Ġfra gment
Ġslic ing
Res p
valid ation
l p
in cluding
ĠC opy
Ġ' '
Ġcont iguous
ĠTo kyo
ĠHow ard
Ġdist ract
St ar
Ġiter ating
Ġsl ots
ĠJohn ny
ĠMin istry
spe ak
ĠAg ric
Ġkil ograms
ĠPat rick
Ġdivis ors
Ġjud gment
Ġnut rition
Ġaccompl ished
Eff ect
b rew
Ġf estivals
Ġg aps
ĠB ot
Ġun lock
Ġnumb a
Ġsub script
Ġbet a
Ġdesign er
Ġtransform s
acc ount
Ġadapt ive
ĠGr ant
Ġstrict ly
Run nable
Sock et
1 10
x label
y ml
or atory
Ġth rown
Ġfor th
ĠB ureau
pe lling
ĠU pper
Ġident ification
ĠEn joy
Ġliter ary
Ġrein forcement
V er
b ul
c op
h ard
Ġa fraid
et ary
Ġy ard
ĠC A
ĠH u
\\ ),
ck ing
ĠL oop
Ġ\" );
Ġdec ade
Ġprof ound
Ġmer ges
Ġ195 1
Ġassum es
Ġarri val
Ġpeace ful
Ġoppos ed
Ġattract ive
Ġcelebr ated
Read er
Ġvot ing
ĠResp ons
ĠFriend s
ĠSynt ax
Ġc ave
st ory
Ġp ine
Ġch ord
ĠU nt
Ġpr imes
Ġ+ +
AT AB
su ited
Ġarrest ed
0 6
Ġin line
de velop
ve ctors
Ġsp a
Ġgu ys
requ ests
Ġsimilar ities
Ġfore casting
ĠAg ency
Ġjo ins
find ing
ĠUt ah
<> ();
Hy per
rogram ming
n atural
r ison
s ong
ĠM it
Ġro lls
Ġoper ational
Ġappro ached
eff ective
Ġpast a
ĠDel aware
Ġven ue
Ġelev ation
ethe less
Ġtiss ue
ĠBene fits
ĠArk ansas
a a
b us
d ings
i xt
he app
ĠA P
om ed
Ġ( ),
ĠM all
ĠG h
Ġapp end
Ġen force
') )
ĠSc iences
Ġdistrib uting
Ġ194 4
ĠCustom ize
ĠBi ography
abil istic
ĠBris bane
D atabase
W est
Ġp apers
Ġe ld
Ġis omorphism
em ann
ĠB Y
Ġper pendicular
ĠK ap
Ġinstall er
Ġdiv isions
ann y
ĠGre edy
Ġcompet itors
ĠAddition al
ĠHello World
Ġground s
ĠDocker file
Ġspr int
ĠSV G
Ident ify
M z
[ -
Ġt k
Ġb ab
Ġp thread
Ġm or
ra diction
ĠD ick
ib er
Ġcomm as
ĠK elly
Ġcare t
Ġconsist ed
Ġear ns
Ġdemonstr ated
Ġrect angles
Ġcounter part
ĠStart ing
Ġdecre ased
ĠDet roit
ĠThom pson
query Selector
Ġinterview s
Ġshif ts
y ou
Ġb onds
ĠP UT
ap olis
ost er
Ġob j
ins ula
Ġ. /
Ġbl ur
Ġpers u
ĠGra dle
squ ares
Ġsuff ered
Ġsurv iv
Ġstem ming
ĠBat talion
Ġpunct uation
ipart ite
S ource
ĠS oup
ĠP un
ĠM un
Ġne uro
ĠL ux
ĠG NU
ĠJ ean
Ġun sorted
Ġpe an
Ġra b
ĠLe ft
Ġcho oses
ĠApp ro
ĠPy Spark
Ġexperi encing
Ġdam aged
Ġdecre ases
ĠMag azine
ĠGet ting
Ġlogarithm ic
ĠGir ls
N ice
l ibrary
m i
s ample
Ġh ills
Ġl augh
ĠS ource
qu ate
Ġun d
Ġclean er
ĠCh air
Ġco aches
ex p
ĠOpen AI
Ġcolor ful
Ġbi ology
ĠBra d
Ġstrugg led
Ġyog urt
Ġsty ling
f ers
l ied
st atus
al ities
ĠT emplate
Ġex ch
Ġlist ener
Ġrun ner
Ġ12 00
Ġpres idential
Ġmet er
Ġru st
the less
ĠOr leans
Ġparallel ize
Ġpers ons
Ġconsum ed
Ġconstruct ing
ĠBrother s
export ed
Ġtrigon ometric
Ġgal ax
Ġvolt age
ĠGlas gow
a ul
c ython
Ġt orn
ĠT un
im m
Ġl s
qu ant
Ġcomp an
Ġun changed
Ġnatural ly
ang a
ann ah
ĠZ e
Ġport able
ĠClo s
Ġant icip
ĠEnvironment al
Ġregist ration
drop na
Ġorient ation
g lobal
he ro
ra ils
Ġre por
Ġst eal
Ġbe ars
ĠW atch
Ġ\\ ,
ast ing
Ġsc aled
Ġstru ck
Ġver ification
alle t
ĠAr c
Ġchat bot
ĠBut ton
Ġattempt ed
Ġfarm ing
Ġacqu ire
Ġenclo sing
Ġrepet itive
ĠEC MAScript
Ġacquis ition
Ġdiscont inu
Iy Mz
' }
S u
g t
s ur
Ġb ones
ĠB eng
ot ten
Ġcon ce
ad or
ĠJ osh
est ed
Ġpre ference
pect ive
Ġmin ister
Ġ9 7
Ġdesign ers
ex pression
ox y
Sh ape
ĠAh oy
boot strap
Ġrefact oring
Ġconclus ions
IyMz IyMz
. [
8 1
I nd
h op
s odium
Ġthe oretical
ar ity
Ġd plyr
Ġ5 7
ĠX AML
Ġdownload ed
wh ite
Ġcontrib uting
Ġ194 6
Ġ194 9
ĠYear s
Ġveget able
Ġorth og
O per
Ġt ied
Ġt ails
ĠA the
Ġh obby
ĠC NN
th a
ĠH ud
Ġr ush
ag a
Ġprogram me
Ġsp ices
Ġcol our
Ġmult im
Ġam pl
Ġstud ios
Ġbreak through
Ġcompil ing
ĠAb stract
gl as
Ġinconsist encies
) }\\
1 60
Ġa er
Ġp m
ĠA lf
ĠW at
Ġad s
ph inx
Ġfe asible
Ġ6 7
plit ude
Ġdem ands
gra d
ĠInter state
ĠGu y
Ġu pl
ĠMc G
Ġguitar ist
Ġmut ation
Ġinvent ed
Ġcere mony
Ġsor ry
à¥Ĥà¤ģ à¥¤
e ed
k al
Ġin qu
ct ic
ut her
ut ors
ĠL ane
el lect
ĠG lo
Ġcomp ass
ni versary
yl abel
Ġcontext s
Ġge ographic
Ġdiag on
Ġtreat ments
Ġoppos ition
Ġir is
Ġmig r
ilder ness
Ġwonder ing
à¤ķ à¤¤
ĠST L
ĠSubstit uting
v able
Ġ rib
Ġt ent
Ġc alendar
Ġh unt
de p
Ġl akes
ĠS ant
ĠM and
ĠM ov
ĠG ab
ĠV ectors
ĠAn ne
play ing
Ġcompos er
Ġphot ography
.... ....
ĠDistrib ution
ĠRid ge
Ġelector al
G PS
ĠC any
Ġpro jection
ĠB ou
ĠE ll
Ġinv as
ex pr
Ġsing ular
Ġorgan isms
Ġmulti plic
Ġsw apping
ĠDef unct
200 4
ĠWork s
Ġdetect ive
Ġconduct ing
Ġbul let
Ġpen alty
Ġchair man
Ġswit ches
Ġdepart ments
Ġc rown
it udes
Ġd ies
ge red
Ġ( #
Ġdo lls
alle lism
Ġaut onomous
ĠCl imate
Ġemploy ing
anc er
Ġann ually
Ġadapt ation
Ġcollabor ative
ĠRo ll
Ġbul bs
Ġ$| \\
Ġeth ical
Ġhist ogram
Ent ailment
Ġartifact s
m other
Ġ lying
ĠA verage
Ġn erv
Ġre ck
Ġre nov
ĠS il
ĠD raft
Ġpo le
Ġsp oke
Ġlet s
Ġapplic able
Ġchar ity
ric ks
pd f
Ġcup cakes
Ġpan els
Ġexport ing
pat hetic
ĠEnt ailment
Ġcyl inder
ĠCamb ridge
A V
M ethod
g ie
i ac
Ġin jured
ĠT itle
ĠS O
Ġcon d
Ġspecific ations
irc le
iss ance
Ġgover nor
Ġes cap
ĠLaw rence
Ġaccom pan
Ġrug by
Ġchrom os
m ary
p ol
p ine
r ine
w atch
in ction
ist a
om ers
se en
ĠU sers
Ġdef ic
ĠSt eel
Ġsub tle
Ġloc ality
ĠCom ments
ĠPh ill
ĠNe ural
Ġhuman ity
ĠSim ulink
Ġdr inking
run ning
Ġiniti ative
C E
r ors
ĠS now
ĠN ich
ĠO w
Ġshe ets
ĠDe an
Ġel abor
** **
ĠZ ero
Ġdemonstr ating
ĠFrank lin
she et
Ġspo ken
Ġà¤¸ à¤ķà¤¤
Ġexcess ive
ĠCart esian
E le
v ard
w x
in burgh
Ġf ri
Ġd ice
Ġd ots
Ġn u
ĠB ible
Ġ- ----------------
ĠD est
ĠDe veloper
Ġinitial ized
Ġassoci ate
ourn als
sec ret
Ġbur ning
ĠCap ital
ĠSus an
Ġdepos it
ĠExplo re
Ġc od
Ġs aves
Ġh ub
ĠR ace
ĠF ine
ĠN V
per or
ak i
ĠK am
ĠK id
Ġunder ground
Ġra ster
Ġsk illed
Ġmanip ulated
12 00
In stance
Ġload s
Ġsimpl ifying
Ġmultipl ies
Ġbroad er
Ġreus ability
Ġdealloc ation
ĠLL VM
Ġremark able
==== ====
osaur us
ĠHoll and
N LP
P N
a id
t aking
Ġb er
us sion
de cess
ĠI o
ir i
Ġcom ed
ab out
ĠL iver
ĠJ oy
Ġch ampion
ag u
ject ive
Ġout lined
Ġ6 1
Ġthere by
Ġem it
ĠCol on
In valid
let ter
ĠCont roller
200 9
Ġfoot print
ĠMed icine
ho ps
Ġstri p
ĠMain e
Ġdealloc ate
Ġsett led
ĠIncre ased
f i
Ġp ray
Ġl onely
Ġg athered
ĠB run
tu p
ĠL ink
Ġext ent
gre eting
Ġcour ts
sequ ence
Ġ194 2
ĠBas ics
structure d
Ġbutter fly
Ġencaps ulate
ĠHun ter
Ġphilosoph ical
ĠIndones ia
ĠTechniqu es
9 2
a o
d am
f alls
j l
p ay
t ensor
y ield
ou stic
Ġre actions
Ġis Student
ri ble
ĠR ights
ke e
ru g
Ġr iding
el le
Ġar med
ph y
Ġtra pez
Ġsec uring
Ġgraph ic
com mon
Ġref used
Ġpartic le
ĠPar ks
ĠSim ilar
ĠSpe c
Ġarchitect ures
ĠFilter ing
Ġdimension ality
ĠIndust rial
Bl ack
Ġsile nt
Over ride
Ġcray ons
M on
b inary
Ġt ie
ĠT an
Ġclass room
Ġpar ab
ob b
ĠSe aborn
ĠY ellow
oid s
ĠDep endency
Ġ194 3
fil m
Ġadvent ures
ĠDra gon
Mod ule
P re
ĠT urn
ge on
ĠG rid
Ġsp awn
Ġimport s
Ġback ing
ĠSh are
ĠAnd erson
Ġtri ps
opt im
Ġtack les
ĠGir l
Ġmir ror
Ġbatt les
! )
G ra
O nce
at ility
Ġs our
ĠP RI
Ġ` \\
ĠR ule
ĠL akes
pl us
our g
Ġen for
Ġcor ners
Ġj ars
Ġdi versity
ĠAd obe
air y
Ġbo ats
200 8
Ġinflu ential
ĠHistor ical
ĠMathemat ically
ogene ous
Ġjew el
p he
Ġo x
Ġin ch
um ed
ĠH ost
ĠE igen
igh ters
Ġfo ster
Ġcor pus
ĠAl ong
Ġdisc overs
ĠLe vel
ĠWith in
Ġcrit ics
uff icient
Ġjo ke
fil er
ĠLa ure
GP T
ĠVol ume
ĠMethod s
Ġcycl ic
ĠDie go
O ption
S ound
Ġre cept
ĠS P
ĠR ectangle
ĠL ost
ĠL ara
ĠU b
ĠK ings
Ġrem inder
pro duction
be an
Ġgroup ing
Ġshort ly
PU nit
ĠEm ail
ĠEd inburgh
ĠChrist opher
Ġcommunic ations
Ġquad r
A F
D ep
} [
Ġc rop
Ġc rossover
Ġthe ories
Ġh ang
ĠC BS
ĠB ah
th ree
ad er
ab ul
ru p
ĠG olf
ĠO d
Ġfe ars
Ġstart project
ĠCom ment
Ġcomplex ities
ĠIm p
az a
Ġess ence
ĠCl ang
12 8
Ġwater fall
gra pe
att ered
Ġann ounc
Ġperm ission
ĠPri vate
ĠFore ver
ĠHo ly
M I
T ube
b ols
l ins
v olution
ro le
Ġl oud
se ason
ĠH ub
ĠH alf
ĠH uff
ĠL P
Ġr s
Ġfunction ing
Ġch ip
ie ve
Ġmay or
Ġloc omot
Ġent itled
200 3
Ġchain s
Ġbill ions
Ġfarm er
mark et
Ġter rain
ĠScal ability
block ing
Ġin du
Ġon ions
ĠG olang
ĠO N
cl ient
Ġinv ited
sc atter
Ġ13 0
ĠMat the
Ġassoci ations
Ġapprec iation
ĠSpring s
ĠTechn ical
Ġelimin ating
Ġguarant ees
Ġcum ulative
} )^
re tt
Ġd ating
Ġst eep
Ġst amps
ĠS I
am on
ĠP ast
out ing
Ġper ception
Ġmat ched
Ġpresent ing
cent ral
ĠTom my
ĠNov a
F i
b one
h s
ed ed
es ar
Ġl ime
Ġg ems
\" }
\\ ]
Ġres ort
Ġcount ies
bo ys
Ġassign ments
ĠCho osing
ĠPom od
ĠBrig ade
Ġrab bit
^ -
b x
k u
q q
v r
Ġs ys
it i
Ġp ants
Ġcom pelling
ĠM B
ĠD ivid
ĠD omin
ĠL IN
our se
ff t
Ġph ones
verse ly
Ġens emble
Ġconver ge
Ġminim ax
Ġinteract ivity
Ġphys ically
Ġavoid s
Ġadjust ments
Ġresid ual
Ġcast ing
Ġtim ing
Ġuniform ly
ĠFre der
ĠSimpl ifying
m ode
y es
st ones
ou ver
ut ies
ĠM es
ĠR aspberry
Ġor bit
ĠN elson
Ġimpact ed
Ġport s
Ġtw elve
Ġcrit erion
Ġfru str
Ġut ilities
Ġdiscus sions
Ġjava x
Ġexpon ents
ĠEconom ic
kw args
Ġsurg ery
micro soft
ĠCany on
N ow
r ats
Ġd ia
Ġre ception
ĠS ony
ĠB asket
ore an
ĠO DE
ĠJ ump
Ġun incorporated
Ġcont rollers
Ġpr uning
Ġcontrib utes
Ġestim ation
Em pty
Ġtensor flow
Ġaccident ally
Ġballo on
ĠPrinc iple
' ?
B ased
T e
f olk
t ag
st em
ant h
un tu
ĠM as
oc ation
Ġun re
Ġup load
ĠCl ient
li ver
Ġpair wise
Ġ14 4
istic ated
Ġneighb our
Ġhy p
anc ouver
ĠEduc ational
ĠOper ations
Ġshif ting
Ġecosystem s
Ġoverwhel med
Bu ilder
Ġtribut ary
B ar
i ations
j ab
m ir
m ove
w rap
in dependent
Ġp ets
is y
Ġre ass
ĠC over
ĠP ig
ĠM ir
Ġed ited
Ġpoint ing
Ġsk ip
200 1
Ġstrong ly
Ġauthor ized
ĠMark up
ĠBob by
Ġalt ogether
Ġencoura ged
Ġdress ing
Ġunsu pervised
K arp
c opy
re ls
Ġan th
Ġw ishing
Ġb ored
ĠS ite
ĠW W
ĠP yth
ĠF C
ĠN eg
Ġres ume
Ġ{ :
ĠSt ill
). $$
ĠQ uality
Ġhead ed
Ġmathemat ically
ĠGre ater
ĠRes erve
ĠInter mediate
ĠClass ic
asc ading
Ġcapt uring
Ġhun ting
ĠQuant um
) `,
f inal
p recision
it age
ĠT ed
ĠN i
int eg
ph ony
Ġoper a
Ġdist ant
Ġtrans parent
ix ed
ĠCon stra
sc ill
ĠImplement ation
Ġhome work
ĠMar g
Ġbi ases
Ġenjoy able
ĠMet ropolitan
post s
ĠDen ver
Ġseam less
Writ er
Resp onse
C all
H A
b led
c re
j av
m ount
p any
Ġm ph
Ġh ats
de ed
ĠB ron
act or
ĠV erm
Ġsystem atic
Ġhand y
ĠCon struction
aw k
man n
ĠBut ter
Ġpoly gon
Ġplant ed
Ġtour ism
ĠMult iple
Ġtim eline
Ġexhib its
Ġcult iv
Ġeleg ant
B ase
u w
er ical
Ġf er
al ph
ch annel
ĠB log
ĠL as
ĠL ess
per m
app er
Ġarg ue
by e
Ġinf er
Ġindex ed
ik o
Ġinvest ments
ĠQu ad
ĠDevelop ing
align ed
Ġswitch ing
Ġdispl acement
Ġpsych ological
RU E
Ġdomin ant
ĠBud dh
Ġrepet ition
ĠRemo ving
9 7
b c
w indow
w iches
on na
Ġf ol
ri or
ĠR oda
ĠJ Unit
Ġco at
Ġrun ners
Ġshould er
ĠSe ction
Ġevery where
Ġmus h
iss a
Ġbelie ves
Ġregard ed
Ġprem i
Ġshif ted
HT ML
ĠDu ke
Ġtablesp oons
Ġtact ics
' '(
E ven
T C
n an
p thread
y nt
in f
Ġf i
ĠA qu
us ually
ra it
Ġh int
im als
ĠM other
ĠR oy
Ġj ournals
Ġsp ons
ĠYou Tube
Ġinter vention
Ġorig ins
Ġhead ings
ĠUni versal
Ġmaxim izing
ĠRob in
Ġren dered
Ġassert ions
ĠWay ne
ĠLoc ation
ĠLar ry
Ġsup plement
ĠUr ban
ĠHawai i
9 4
G amma
G lad
at om
Ġh urt
ĠI an
Ġg low
ĠS elf
ram a
Ġun predict
ĠSt ew
Ġro ses
ĠV ancouver
Ġpart itions
Ġ/ *
Ġ8 2
Ġworks hops
Ġpriv ile
Ġattack ed
Ġdraw s
Ġfair ly
Ġenh anced
Ġradi ation
Ġarri ves
Ġadvert is
ĠSin atra
L ab
P ane
x s
Ġo ven
Ġg ently
\" `
ĠH em
ĠE lection
Ġma ze
Ġdis order
Ġsome where
Ġart istic
cont radiction
ĠChar acters
ĠMus ical
ĠSing les
Ġsurround ings
asp oon
ĠPort land
ĠNor way
Ġconven ience
Ġborrow ing
Ġvot ers
O W
s ym
in ated
Ġp sy
Ġh ooks
Ġte aspoon
Ġstruct ural
Ġanal yst
Ġback ward
ĠUn incorporated
Ġconf used
Ġinf o
Ġalloc ating
ĠClass ification
Ġequiv alence
Ġdoub t
Ġthorough ly
ĠPhilipp ines
intend o
hav ior
ĠOffic er
P M
he it
ĠT in
Ġth rill
Ġst ating
Ġbe ats
ĠM ale
od er
ĠG ray
able d
ĠSt op
Ġpre defined
cy clo
Ġdep ict
Ġfound ing
Ġpack ed
Ġeduc ated
Ġminim izes
cent er
ĠPa per
Ġdetect ing
ĠLog ical
Ġjournal ist
Ġcir cul
Ġspect rum
ĠPrim ary
tech n
Ġlegit imate
c ra
l an
Ġ urg
Ġc def
ĠM ission
ĠG ary
Ġdirect ors
ĠAs sistant
Ġbeh ave
Ġorgan isation
the re
Ġnon linear
Ġdra in
Ġclim b
Ġconsolid ation
ĠTerrit ory
6 1
Ġm all
ĠS ay
ĠC M
ĠC R
Ġpro gression
Ġbe es
ĠIt em
ĠFor ces
Ġlist ens
Ġsol ves
Ġcar rots
Ġautom ating
lev ant
ĠAnal yt
ĠPo ll
ĠBit wise
ĠDou glas
ĠTam il
boo st
Ġpropag ation
Ġmemor able
Ġnutri ents
ĠPomod oro
! \\
% )
m ade
s ound
ĠA le
Ġm es
ĠT aking
ul i
ĠS ac
ĠB ib
Ġv acc
Ġ` &
Ġle an
ĠK eras
ĠHow dy
Ġ8 7
op ter
Ġins pe
Ġadv is
Ġ25 5
Ġprob abilistic
Ġsl ide
Ġachieve ments
Ġsho ps
ĠMor ris
olk it
Ġcos mic
Ġtrib es
Ġ193 9
Ġcapt ain
Ġconfir med
Ġà¤Ĩ à¤
toler ant
D avid
f iction
s ky
} :
re nder
Ġc herry
st own
as ures
Ġe ll
ig ious
Ġon ion
ke eper
ĠL amb
ep ing
Ġ7 00
ser ve
Ġreg ulation
js x
ext end
ĠNew found
Ġident ities
St ation
ĠRes ource
ĠPar allelism
ercent age
Ġsche mes
Ġutil ized
Ġmolec ules
Ġpod cast
Ġlapt op
C II
U M
[ ],
g ons
h u
m pg
Ġin version
ur i
am ents
Ġ( ;
Ġwarm ing
Ġen forcement
ĠRe ception
ĠAn cient
Ġcheck ed
Ġru led
ili ary
Ġpain ted
Con nection
Ġrot ations
ĠBul g
S ing
m onds
o ll
p mod
z ip
Ġb ree
Ġm m
im ore
em ale
il iate
Ġ` %
ĠG ulf
Ġ19 00
Ġsub stance
Ġmod ification
ĠOpen CL
Ġge om
ĠPH PUnit
ĠTim sort
ĠRel ations
ĠProt ected
Ġrecip ient
Ġtomat o
d or
Ġto ile
ow ed
il ation
Ġres ervoir
ast ics
Ġj un
oth y
Ġfact oring
Ġ9 3
') ",
Ġalloc ates
Ġparticip ated
}. $
ĠMult iply
Ġjump ing
ĠWal ter
ighth ouse
F ore
M ult
W ill
x ic
Ġ 00
Ġt ons
en z
ĠA round
ĠT ab
ĠS IM
ĠS aints
ĠC old
ĠP sych
ĠH end
ĠF iction
iv a
Ġdi oxide
Ġ7 3
ĠAd vantages
com put
ĠSe ven
ĠCon vention
Ġpri ze
ĠCl ark
Ġflow ing
Ġview ers
Ġbegin ners
gra duate
press ure
Ġenh ancing
Ġdealloc ated
Ġsan it
Ġvictim s
ĠPhys ical
Div ision
Ġsoph isticated
Scal er
N F
S upp
p ark
r atio
s ent
Ġd uty
im mer
ĠS el
ĠM A
ĠIn g
Ġ3 50
el ian
Ġen roll
ĠSt orm
Ġvari ant
Ġincl usive
Ġx ml
Ġgener a
Ġplan ets
ik ed
Ġtransl ated
ĠClo se
Ġtour s
Ġinfin itely
ĠNon etheless
ĠRef lect
Ġsequential ly
Ġrhyth m
J ane
a ccess
an ner
Ġthe rm
Ġre ven
ĠB abel
ĠH op
ĠN intendo
ĠL iter
Ġch arm
Ġsequ el
Ġsound track
Ġaddress ed
array s
Ġlaw yer
Ġauthor itative
Ġdraw backs
Ġcred ited
Des ign
ograp her
ĠElastic search
ĠKenn edy
ĠNewfound land
: \\
Ġthe rap
Ġo scill
ul atory
Ġbe er
ort ion
ĠJ est
Ġch ir
Ġres h
Ġres erve
Ġkn ife
ens itive
Ġrele asing
Ġà¤ ª
ym ce
ĠCar ib
ĠComp onents
def ine
ĠNorth west
16 8
Ġcamp ing
Ġmiddle ware
ĠChat GPT
Ġstraw berries
pie ce
Prov ide
Ġapolog ize
m any
o ly
ch art
ig ration
ĠP ap
ĠN u
end ment
ag en
ĠEx change
Ġj uris
Ġover rid
Ġtri ll
ĠMar vel
ĠUS B
Ġfriends hip
Ġcollect ive
Ġexam ination
ĠMac ros
ĠCour se
ĠSuper vised
Ġtele phone
Ġacknow led
ĠIndust ry
Ġmetap rogramming
Ġtyped ef
ĠBet ter
Ġstreng then
E ach
Q U
b h
l ists
ĠT ro
em ade
am el
ri ors
ĠIn deed
ĠL ad
ind rome
Ġcount ed
Ġrel ates
Ġbre ast
yl er
pri ority
wh o
ĠHer itage
ĠHar vard
Ġtour ist
ĠBel g
Ġkill er
Ġspeak ers
Ġfetch Data
Ġrecy cling
) ).
ĠT al
Ġn it
ĠB achelor
Ġbe an
ĠW ard
ĠD I
ĠD ance
ĠN BC
per cent
Ġpre decess
pro perty
Ġvert ically
Ġfore cast
Ġactiv ate
à¥ĩ à¤Ĥ
Ġrecip ro
Ġapparent ly
Ġcoc onut
Ġincent ives
ĠPrem ier
Ġrub ber
Ġnerv ous
Ele ments
g em
ĠA FL
ant ed
Ġ$ ('
Ġwarm th
Ġ15 00
gin x
Ġprof its
To ken
inter cept
Ġexist ed
ĠRed uced
Ġstatic ally
Ġinvolve ment
Ġbr ick
var phi
Ġves sels
Ġlever aging
ĠConfig uring
Vari able
O K
Ġt ale
ct ures
ĠI R
ĠE X
ĠN ation
Ġshe ep
Ġem pathy
Ġfl ights
mat ic
ĠPro te
ĠSc en
par ameters
ĠAll iance
Ġcompet itions
gra dle
Ġlo ves
ĠMo z
irection al
ulk erson
MAR Y
ĠViet nam
d owns
m ysql
n amed
z ing
le m
it o
om er
Ġ2 10
ĠE PUB
ab ad
ru b
Ġfun ny
ĠO pp
Ġcomp eting
Ġhas hes
ex cel
Ġport ions
Ġseason al
Ġrefer ring
ĠArch ae
Ġdeliver ing
Ġmanif old
Ġcha os
F ulkerson
M ath
c ache
Ġp ione
Ġm ansion
ĠT arget
ul u
ol as
ĠE asy
Ġch urches
ip rocessing
og a
Ġco aching
Ġi P
Ġtext s
to ols
Ġbl ind
ĠOb last
ĠFe el
Ġbackground s
Ġthreat ened
ĠRi emann
Ġlemon ade
Ġsucceed ed
Ġmultiplic ative
D ouble
p in
Ġt iles
at che
Ġd rew
Ġpr on
ps i
Ġ8 3
Ġra bb
Ġac res
Ġlast ing
Ġrepe ating
Ġasynchronous ly
ĠPol icy
Ġdecre asing
ĠHy per
Ġmultithread ed
ĠLar ge
lar gest
ĠDecor ators
Ġenthus i
ĠPor tu
ĠAfghan istan
ĠClos ures
Ġorthog onal
Ġà¤Ĩà¤ ª
R ew
k ed
m ut
t f
Ġan omal
Ġm art
ur ring
th at
iv ative
Ġup grade
Ġ5 0000
ari um
Ġ7 4
Ġrepresent atives
ĠAd ams
Ġref uge
ah ren
pos ed
Ġexcept ional
Ġexpl oded
Ġaud iences
yt es
ĠVictor ian
Ġpenc il
Ġtut oring
ĠResult s
Ġaccompan ied
S erv
d p
n u
r out
Ġn ose
Ġre un
um my
ĠM ort
Ġwh ites
lo s
Ġun ity
Ġmy app
10 1
ĠSh ape
Ġrespons iveness
ik a
ĠOb server
Ġsubs cri
Ġdro ve
Ġfont s
Ġencoura ging
Ġtermin us
ĠMur ray
Ġbrainstorm ing
Ġrestrict ed
ĠUnt il
c over
p andas
t elling
Ġp erc
ar o
es is
Ġd ancing
Ġn ations
Ġas p
ur u
ĠW ing
ĠL ank
ag onal
Ġsh ar
Ġi o
Ġmod ifications
Ġdec ay
ric ulum
con quer
Ġappropri ately
ĠHi ya
ID IA
char ge
Ġvulner ability
Ġprem ium
ĠStru cture
ĠRus sell
9 3
f ibonacci
v ideo
Ġa ster
er lang
Ġf ake
Ġp ies
ot ing
ĠW right
ĠH as
\\ ,\\
ĠF resh
Ġint ellect
Ġsc ra
ft en
rib utes
con text
def n
sol ve
uck oo
ĠMon itor
circ le
igm oid
Ġpsych ology
JS ON
Ġdial og
ĠIndex ing
ĠIran ian
Ġlux ury
ahren heit
1 40
B U
p q
se lection
ĠM uch
iv ari
Ġsh ots
form s
ater n
Ġspace craft
ex it
ĠSc ene
Ġprom ising
ĠYork shire
Ġfit ting
Ġcat ches
Ġsales man
Ġste pped
ĠPhil ip
ĠImpro ving
ĠEvent ually
Ġmyth ology
feren cing
ĠArchite cture
S D
S m
S ession
m ill
Ġa de
ro ck
Ġn ick
Ġex terior
Ġ( ,
Ġcom ics
ĠD ES
ĠO il
are t
Ġj unction
ĠTo ol
pen ame
Ġam plitude
Ġass ault
Ġ9 00
mat ization
ĠAl b
ĠPl us
ĠPl ug
ĠAdd ress
Ġiter ators
file s
ĠMar cus
Ġstay ed
Ġant ib
ĠNove ls
Ġcard io
vis or
Ġmodul us
ĠStat istics
Ġtablesp oon
Ġinse cts
ĠLIN Q
ĠPyth ag
w hen
Ġa tulya
he tt
ed er
is ations
Ġd olphins
ĠB art
ĠM oney
Ġse venth
cl i
ĠV inc
Ġpe ppers
ian ces
pro p
Ġpath finding
ĠInt erest
ĠInd ivid
Ġview ed
Ġsym py
Ġperiod ic
ĠMe asure
emb ourg
Ġsn acks
Ġult imate
Ġded ication
ĠPop ulation
Ġtun ing
Ġsubclass es
Ġaggreg ation
Ġcompr ises
ĠPale st
cyclo ped
[ (
h t
l m
l ot
n ell
w alk
z ens
} ]
Ġl ig
ĠC arm
ĠC row
ĠR AM
ĠG ran
Ġnew found
Ġtra pped
à¤ ¼
Ġpublic ations
uch y
---- --
ĠFl ight
ĠDef ense
ĠPerform ing
AS S
Ġextract ed
sw ift
Ġsand wiches
Ġinfl ation
ĠCompos er
Ġware house
H ead
w ind
Ġin duct
ĠI ss
ĠC O
ge l
ĠD al
Ġr um
ĠG row
Ġcomp ens
Ġimp utation
form erly
Ġnot ing
Ġfile d
ish ment
Ġgre y
ĠWe ight
alle n
Ġatt ende
ĠAss ume
Ġnote books
ĠSam uel
Sc ene
Ġvan illa
ĠExec ute
Ġvolunte ers
Ġlex ical
Ġclin ical
c ard
Ġh arsh
id en
ĠD B
lo ok
Ġch lor
red it
Ġprov ision
Ġatt orney
con sole
Ġrest ored
Ġcr ashes
spe c
Int rodu
ĠInitial ly
ĠRo om
ĠLib eral
doc s
Dri ver
Ġjewel ry
B ack
v m
er k
Ġb ipartite
ĠT erry
ĠS uggest
un ov
Ġhe aling
ĠF A
Ġres ident
Ġrest ore
Ġtrib e
ĠMont ana
ĠKir k
ATAB ASE
t ies
y r
z es
Ġw ound
et al
ir ates
ĠL au
Ġcomp ounds
Ġab und
Ġdo ctors
ĠInst agram
Ġav iation
use State
Ġupp ercase
Ġbur st
Ġhabit ats
Ġtermin ology
Ġroll er
Ġneur on
Ġmuse ums
Ġwealth y
Ġpublis her
ĠEnh anced
I RA
S SL
Y o
f ive
Ġt ube
Ġc otton
Ġf ingers
ct u
ĠT a
Ġg est
ĠP ine
Ġr it
oc ado
Ġpl acement
ĠRe ference
Ġlist ings
Ġph ases
Ġdig est
ĠDo es
ĠIDE s
size of
Char Field
Ġhorizont ally
ĠValue Error
Ġmast ering
fun ctions
Ġcombinator ial
Hel p
ĠNV IDIA
Serv let
O OP
s g
he nd
Ġan terior
ro fit
Ġn ights
Ġy esterday
Ġst om
Ġcon g
Ġv oted
ĠM aking
ĠL at
ĠO liver
ram s
Ġab use
lf riend
Ġind irect
ĠAs ync
ĠShe ets
An al
ĠURL s
Ġsn ake
Ġstock s
Ġran king
Ġdeclar ative
ĠPet e
ĠEvalu ating
Ġdash board
ĠMunic ipal
D BC
c f
z an
Ġt ire
Ġf ir
ant e
Ġre claim
Ġl ip
ĠS ask
ord ination
rou s
Ġper sistent
ĠK ind
ĠHe ap
fore st
com plete
Ġinitial ization
Ġtarget ing
ĠSp ir
Ġà¤ ħ
Ġaff iliate
Ġamong st
ĠSw itch
ĠJS P
ĠPre process
Ġtrust ed
Ġtim er
SE LECT
Ġtun nel
Out put
Ġdisestab lished
Ġelabor ate
G ame
J ames
N G
U R
h um
Ġa es
st at
st able
Ġm l
Ġd uties
ĠS ier
Ġne at
ĠO ct
ath on
Ġ9 4
mat hemat
Ġpat ch
ĠAr ithmetic
Ġz oo
ĠCl inton
ĠSer v
Ġdem olished
Ġflo od
ĠRes ources
Ġ\\[ \\
ĠRich mond
Ġoverl ap
Ġdisapp ear
Ġalle ged
Ġredund ancy
Ġmount ed
Ġdess ert
Ġfri ction
Ġtrill ion
L A
S qu
m akers
Ġc urrency
em on
ĠE ver
ĠD ays
Ġint ention
ĠG ene
ĠG PT
ĠPro perties
Ġcondition als
)) ",
ining en
Ġrest art
Ġdel ays
Ġprior ities
ĠInter p
lym orphism
ĠMc K
Ġtrig gered
ĠAud io
ĠAS CII
ĠContinu ous
Ġ[- ]
Cons ider
ĠManip ulating
Ġanne aling
ĠLiver pool
F in
T E
e lection
f u
m ile
p ia
Ġs ynchronous
it ches
Ġth inks
im um
ĠS yn
ĠH ug
iv y
Ġint ensive
Ġev olve
ink le
pro f
pr im
Ġsur f
Ġtri vial
Ġmark ers
Ġarch ive
Ġvalid ity
Ġsuff ering
ĠDel ta
Ġorigin ated
onom y
Ġcream y
ĠHamilton ian
Ġconjug ate
ĠPRI MARY
E xt
Ġs word
al chemy
ar ter
Ġn ost
ĠS eg
qu ick
Ġal ike
ĠN ar
ill ing
Ġalgorithm ic
ott om
ĠReg ression
Ġimm utability
ĠMark ov
Ġvers a
Ġconvolution al
uten ant
Ġelectron ics
ĠAde la
Ġvine gar
' $
C ircle
T each
v d
Ġc ows
ĠM arshall
ĠF ame
ĠN odes
Ġret ain
ĠV ue
Ġser iously
ĠCh i
à¤ Ĺ
Ġ7 1
Ġind igenous
Ġback end
be y
class es
Ġtend ency
Ġearth qu
Ġauthentic ate
Ġbund ling
Ġsib lings
ĠHuff man
C lo
d ocker
m ate
Ġt kinter
re p
Ġf ired
Ġb is
ĠB rist
ĠD S
Ġim plicit
ĠL yn
Ġve c
Ġgu ided
Ġgl ance
ĠCl ar
200 2
ĠDon ald
Ġwood s
Ġwind s
Ġinstrument al
fin ite
igr ants
ĠLux embourg
P D
U til
Ġc ous
le e
it ations
Ġp est
ĠC B
Ġpro sec
ot he
il let
ĠP ick
Ġse as
ĠTh ings
ĠG or
act ic
Ġres olved
ĠSt orage
Ġsp rite
Ġcons ensus
rib ution
ĠUn ic
vent ions
ĠSh o
ĠCons ervation
12 5
au ge
Ġcru st
gre p
ĠRed uce
equ ation
Ġdele g
ĠArt ificial
ĠMag ic
Ġsus pic
ĠComput ing
Ġserial ization
Sum marize
ĠVill ages
- (
k x
} /
ĠD ennis
Ġk in
ac o
ĠK ate
Ġpe aked
Ġend less
ĠUnder stand
ĠCamp bell
('/ ')
Equ al
Hand ler
M in
o ks
| $
Ġe ager
ĠI QR
ĠN az
ĠEx ten
Ġnot ifications
ĠSt ay
ĠAd jacency
ling ton
set tings
ĠComp et
Ġfriends hips
Ġpreprocess ed
Ġenjoy ing
ĠPlay Station
Ġdeclar ations
Ġcolon ial
Ġà¤ķ à¤°
ĠIter ate
Ġvolunte er
ĠBuff alo
Ġhousehold s
ĠSS H
Ġconstitu ency
Ġdesc end
ĠBalt imore
Ġunpredict able
s ys
Ġs urre
Ġf ierce
Ġis omorphic
ĠC os
ĠC OV
ĠB ed
ĠM ut
ĠM yst
ĠL ate
ĠJ et
Ġsc ent
Ġincl usion
Ġco vari
ob ody
ser vices
Ġatt raction
cd ots
Ġbre athe
Ġprot est
Ġlit eral
Ġlater al
Ġprevent ion
ĠPo lymorphism
work s
Ġemer ging
Ġbank rupt
Ġdiscount s
ĠCr icket
Ġmanufacture d
Ġpizz as
lli ptic
Ġhydro gen
Ġswit ched
ĠBasket ball
c in
n z
he res
er on
Ġp icks
Ġm oral
ĠT ar
Ġre direct
Ġh ol
em bles
Ġg ig
Ġst roke
ir l
Ġse aborn
ĠL ever
Ġcl ues
ap ters
Ġclass ifier
Ġcol ony
Ġob lig
els ius
Ġoff ensive
col umns
Ġgain s
Ġdele ted
ĠBay es
Ġsubject ive
Ġspir al
({ '
ĠPract ical
Ġrou ter
ĠNash ville
ĠNever theless
Ġgorout ines
7 00
S eries
] {
b olic
i ating
r r
u y
ĠA ve
ĠS lo
ĠS ample
ĠThe ory
ĠN ep
ĠJ unction
Ġcl ique
pic s
Ġdis asters
Ġtr an
ming ham
Ġref rig
ĠCl ay
Ġdest inations
ĠGame play
Ġpull ing
Ġguilt y
Ġstead y
ĠAdela ide
* }$$
P G
j est
k ers
Ġt ired
Ġin duction
em file
ĠC H
ot ics
ĠP orter
ĠF ra
ĠJ oin
ich ael
red ited
Ġpre y
Ġany more
Ġsign ifies
ĠIm per
Ġref ine
ex press
Ġcustom ization
Ġmed ication
Ġmed ieval
Ġaltern atives
Ġinf e
Ġdifficult ies
Ġstri pes
UT F
ĠKn ight
ĠEle ments
---| ---|
ACGTACGT ACGTACGT
ĠKan ban
ĠPun jab
F uture
S w
c ur
f ull
Ġt on
or ia
Ġw restling
ĠM ade
ru it
ĠL ength
Ġ19 29
Ġj e
ĠRe pl
Ġqu art
ĠK r
Ġso cks
Ġpos ed
Ġcap ability
con current
Ġsw apped
che ll
Ġsto len
Ġbar riers
Ġdev ast
Ġcontra dict
ĠSym metric
ĠPop ular
Ġqual ified
ĠEv ents
Ġaccel er
Ġfro zen
Ġvio lent
ĠEnc ourage
Ġintr igu
ĠStew art
Ġattende es
' ?",
n est
u j
in yl
Ġh orm
ol ine
Ġhe ating
ĠB orn
Ġ19 32
Ġspe ll
Ġag ile
Ġdec entral
Ġ9 1
ĠSo ph
ren a
ĠCar ter
Ġdri ed
ĠDef inition
ĠPer th
ĠObject ive
Ġdistinct ive
Ġsus pend
ĠCr ystal
ĠNor folk
Ġrare ly
Ed it
ĠActive Record
Ġrelie ved
ĠSIM D
b ian
Ġa uction
\" ],
ĠB arn
th y
ĠH M
ĠJ IRA
ĠSt ars
ĠK er
uc umber
Ġincre ments
Ġless on
ov a
'] }
Ġinflu ences
ios ity
empl ates
Ġtemple s
Ġcooper ation
ĠQuest ion
Ġspa Cy
Ġsurviv ors
ĠDivid ing
] `,
b orough
f ramework
n orm
Ġfor ged
ĠG ib
ĠBe ar
ĠX box
Ġenc oded
Ġmark er
My Class
Ġfac ial
Ġcloud s
Ġliter als
Em ploy
Ġgrav itational
Ġthous and
Ġshr ink
ĠNorm an
ĠCOV ID
A tt
Ġt alks
Ġin aug
Ġl os
Ġst rain
ĠC ub
ĠC emetery
\" |
ĠP le
ain ers
ĠN othing
ĠO m
Ġcap s
Ġsign ing
au x
ĠZ one
Ġheap ify
ĠSw im
eng u
Ġstream line
Ġparticip ation
Ġsubstit uting
ĠGr iff
Line ar
ĠCa esar
ĠPolit ics
Ed ge
Ġdistingu ish
Ġsubsid iary
> `.
D oc
he x
Ġs its
Ġw r
al one
ĠM ason
du plic
ĠV ice
Ġco inc
erm el
Ġgen res
Ġ8 6
ĠPro of
ĠSer ve
ĠUni x
Ġgover ning
AB C
Ġstop words
Ġpredict able
Ġdead locks
Ġlock ed
ĠFund ament
ĠBir mingham
Ġsculp ture
ĠUb untu
C at
Ġs odium
as i
ĠS end
ĠS print
ĠS outheast
Ġv amp
ĠM aur
ag ent
Ġad mitted
Ġdep ar
hed ron
Ġcar ing
Ġmid point
Ġperm utation
ĠAnt on
Ġtex tures
Ġsurve ys
dep th
ĠImp act
ĠVerm ont
L ength
l ly
p ng
v g
y ers
he im
Ġan niversary
Ġd ub
ul ous
ĠS weet
ĠB aker
ĠP il
ĠP enn
ĠP ercentage
ĠM osc
ĠR atio
ĠF ri
Ġ\\ ),
Ġro d
Ġcount less
ibr aries
ĠSc ale
ather ine
enc rypt
Ġ13 5
vert ices
Ġcolon ies
Ins ert
Ġsquad ron
itzer land
mac ro
ĠAthe ns
B locks
M VC
S R
e or
l ades
t ouch
ĠC rown
qu art
ĠD ash
Ġret ention
og y
Ġcorrect ness
Ġtra cing
Ġexp ose
ĠPl anning
Ġhour ly
Ġview ing
Ġmind set
Ġestim ating
ĠRich ards
Ġtrig gers
Ġcitiz en
Ġrad ical
Hash Map
Ġà¤¨ à¤®
ĠCra ig
ĠVo ice
N C
} >
on z
ĠT SP
Ġg od
her ic
Ġr ises
ial s
Ġ5 000
Ġ19 36
The se
Ġappro val
(\" /
Ġatt itude
ule nt
Ġassoci ative
Ġinsert s
ĠEd itor
aur us
Ġfavor able
ĠMc D
ĠEar l
char acter
depend ence
reg ular
she ll
ĠAff airs
ĠNig eria
Ġdia lect
A fter
B ank
I ter
b ank
t i
Ġc ounc
Ġs ne
Ġpro xim
ĠE dd
ĠJ OIN
Ġab bre
Ġcl icks
ĠHe at
ob j
Ġspecific ation
ug s
uc er
ĠInt el
sh ot
ĠEm acs
ĠSub ject
ĠAb straction
Ġdetect ed
Ġconvent ional
clus ive
Ġchick ens
Ġdelic ate
)* (
Ġham let
ĠMic hel
ĠAthlet ics
ĠCrit ical
ĠRab bit
Ġcong ru
F lo
re verse
Ġb aked
et ics
\" {
ĠB or
ĠB ound
ĠW ait
ab etes
Ġne wer
Ġr ides
Ġnumb ered
Ġ19 27
ĠV R
ĠCh ick
ĠCom plete
Ġ18 00
Ġz ip
ĠAnd re
Ġretrie ved
Ġstar red
Ġrecommend ation
ĠGl ass
ĠSte ven
ĠMet al
Ġpromot ions
ĠBroad way
Ġpreser ved
Ġcircum ference
Ġauthentic ity
Ġber ries
ĠCarib bean
> </
B O
E l
h h
k ind
r in
ĠA RI
ur st
ĠS low
ĠC inc
ĠB es
ĠP arent
res olve
ĠG IS
Ġun employ
Ġsh ield
Ġdes erve
Ġshe lf
ĠSh ah
Ġmet ab
Ġsuggest ing
ĠWh it
ĠMy Component
Ġsuccess or
Ġ17 0
ĠSu ccess
Ġharm ful
Class ify
Sc ore
hand le
ĠHash Map
ĠScot ia
ĠBlo od
Ġterrit ories
ĠBrist ol
c x
s olution
Ġt ap
Ġt ender
re place
re kar
Ġw orn
Ġin hib
Ġre fere
id dle
ĠR ing
ĠF ab
iv ic
Ġ\" )
Ġha un
ĠU ns
Ġ19 28
Ġgre p
Ġrel ating
Ġind oor
Ġpat ience
str ong
ĠFe llows
count ry
urg ers
ĠLinear Regression
ĠMad ison
Spe ak
ĠWeek ly
123 45
Ġinn oc
ĠPythag orean
G I
S ince
v ation
w edge
ro g
un es
ĠR x
ĠG round
ĠYou th
20 15
Ġident ifies
aut o
Ġinf erior
ann on
ann els
Ġnp x
ĠLe o
Ġfund ra
ĠStu dy
ĠPost s
Ġemot ionally
des cribe
ĠSelect ing
Ġinterpre ting
Ġthrow ing
Ġgrand mother
Ġproced ural
ĠBer lin
ĠEnt ity
Ġtransmit ter
Ġves sel
Ġsoci eties
Ġlat ency
Hyper text
) }$
9 00
e cho
} )\\
an ic
Ġs ons
Ġw ake
Ġp unk
Ġas ym
ĠC F
ol ar
ateg or
ĠTh or
Ġun signed
ap unov
Ġsc oring
ous ing
ĠRe form
Ġ0 1
Ġx y
---- ---|
Ġconf idential
ĠPer haps
Ġcook ie
Ġcivil ization
Ġste pping
Ġneighborhood s
ĠPal ace
Ġbatter ies
oper ator
Ġic onic
Wh ich
ĠMedal ists
Ġcinem a
c ro
i our
en sion
Ġf ate
Ġin vert
om p
Ġg ases
ĠC and
ĠP ed
ĠF ern
ĠJ ung
Ġres idence
ry s
ĠK ath
Ġdis ag
Ġdis abilities
Ġlet ting
Ġmem b
ick ets
Ġche ap
Ġche aper
Ġrout ines
Ġbra ve
ĠVisual izing
Ġenh anc
ĠFore ign
AL U
Ġembra ce
ĠPict ures
Ġfert il
Ġroy al
ĠLara vel
cycloped ia
8 7
L U
b uck
g inal
s upp
t om
Ġt an
Ġc her
Ġm ango
\\ ).
ill o
ag les
Ġcor rection
ĠTo olkit
Ġdes per
Ġ7 9
ĠInst r
Ġ$$ (
}$ )
Ġsuper hero
ĠPe ak
Ġreus ed
ĠSol ar
Ġdead lines
Ġsmart phones
hour s
Ġborrow ed
ĠBang lades
hab ilit
G NU
j q
Ġs ns
Ġw ise
Ġd ad
ĠT DD
Ġl oses
Ġst ra
ĠP air
ĠH DFS
ĠD rum
pe c
cc a
el iness
ĠSt em
Ġed ible
yn asty
Ġsy rup
Ġdisc on
Ġcent roid
19 90
Ġcur riculum
ĠOr th
Ġexpect ation
num eric
sql ite
inn ati
Ġpig eonhole
Ġvent ure
k k
y aml
Ġt ort
Ġb ust
ĠW as
ĠR y
ĠF aster
ĠIn v
ĠO RM
pres sed
Ġsp ray
Ġinter med
Ġmed ic
Ġsk ull
sp awn
ĠRec ogn
OM E
ĠSw itzerland
ĠMem o
Ġgain ing
Ġmel ody
Ġmetap hor
ĠGro ve
ĠDiction ary
boo lean
ĠObserv able
Ġupl ifting
Ġcompass ion
Ġbree ze
ĠCinc innati
d z
w ed
| ^
Ġa pi
Ġde struct
ĠN BA
Ġr anks
ill ery
pres sions
Ġdis pos
set up
ty pename
ĠGre eting
Ġrepl ication
ĠOb serve
Ġtradition ally
Ġindic ators
Ġdu o
ĠJew s
Ġcere mon
Ġcertific ates
ĠJon athan
ĠBarb ara
fire base
Ass embly
ĠMatthe w
Rew rite
= ['
T w
f ilt
j v
at ur
Ġg ay
ĠW P
ĠW ol
ĠW restling
ĠP ant
ĠD eg
lo b
Ġad here
Ġ4 80
ail and
Ġ10 2
Ġexp orts
ĠCon versely
20 14
Ġ18 60
Ġbeh alf
Ġrest less
Ġ; ;
Ġprotect s
Ġgall ery
Ġemphas ize
Ġali as
Ġdisapp oint
ĠPub lishing
Ġmanif est
Ġdrum mer
Ġvend ors
K E
f our
v ity
Ġf ighter
al bum
Ġl inking
ĠW a
ĠM eg
ĠF el
Ġ\" [
Ġr if
ĠJ ama
Ġdifferent iate
Ġanal ys
pro file
Ġchar set
ĠAl t
ĠPro file
Ġfin ishing
ah a
ĠMy App
ĠSim pson
Ġsmooth ie
ĠAnge l
Ġharm on
ĠMod ular
br aska
dri ver
Ġveget arian
ĠCustom izing
Ġhom emade
comm unications
Ġpartners hips
ĠCirc uit
Ġkid n
Ġcelebr ating
Ġinspe ction
J an
c uts
d l
m g
Ġs isters
Ġd ining
ĠC ele
ĠP ure
ĠE SP
ĠF BI
ĠJ azz
ach i
inal s
Ġinv ari
ĠOff er
ĠEff iciency
alt ies
Ġrot ate
ĠPet ers
Ġscan ner
Ġbath room
ĠExplo rer
Ġpic nic
ĠHud son
lins pace
G M
L T
P OST
Ġa ux
ĠA ctors
et c
et e
Ġcre ator
ĠH il
od ox
ĠBe ars
Ġcomp ost
Ġher b
Ġhum or
ik ip
Ġstat istic
ĠSw iss
ĠLib erty
Ġkern els
ĠLy apunov
Ġcab in
Event Listener
Ġgray scale
Ġxml ns
atche wan
mathemat ica
ĠMosc ow
! (
) ])
E M
U se
c lock
g z
j et
p wd
w au
in ate
Ġthe ft
Ġl n
Ġacc used
Ġen z
ard ust
Ġsc op
Ġchar ging
ĠSh adow
Ġear ning
Ġbehav es
ĠPe ace
Hi ya
Ġstri king
ĠCD N
ĠFin ance
Ġ193 8
ĠColl ins
=$ <<
ĠIsrael i
Ġcommission ed
Ġfet ched
dif ference
ĠProte ction
3 60
S ome
^ *
Ġc ached
st atic
Ġs ou
Ġb ay
Ġb orders
ĠT as
Ġh ire
Ġl att
Ġst abil
ĠC ell
ĠW es
ĠH ung
ap ing
Ġ0 8
Ġem pire
Ġstr and
ah o
19 99
ĠPar ish
ele ments
Ġprompt ed
Ġspread sheet
Ġspir its
ĠPen insula
Ġbutter flies
Ġdiscover ies
Ġflu ctu
inn amon
Ġeigen vectors
Ġexclus ively
ĠProdu ctions
ĠAnalyt ics
ĠSask atchewan
j ack
n gest
w art
Ġ ray
Ġp our
ĠI NS
ĠI BM
ĠS omething
ĠF ather
ĠG L
ĠJ a
ĠK ay
ords hire
Ġcustom izing
Ġtri e
ĠIs a
list ed
Ġpersonal ities
ĠDi ocese
ĠWeb Assembly
ĠVisual ize
ĠMon th
ĠGra ham
ops is
Ġbul k
ira ble
ĠOper ation
ĠAngular JS
Ġpotat o
ĠStan ley
Aut hor
ĠJam ie
Ġinfluenc ers
B re
U p
b ots
in ces
Ġp ys
ed ition
ro se
ra c
ra ine
Ġre lying
Ġg am
ĠS oul
ĠC ulture
Ġpro hib
ĠP ope
Ġimp osed
Ġvari ants
py x
Ġcur iosity
Ġpred omin
Ġlaw su
ĠLoad ing
Ġcool ing
ĠForm ation
ĠBack tracking
ĠKe ith
ĠEv ans
ĠEqu ation
Ġment ions
Ġsmell s
ĠVeg as
ĠEss ential
Ġinver ted
Ġextens ively
ĠIo T
8 000
W indows
Ġt um
er ful
Ġm esh
ĠT yler
et ra
ĠS pect
ĠS ync
ĠB ass
ĠB ath
ĠR alph
Ġsu icide
Ġset Timeout
Ġsc iences
Ġper se
Ġco ordination
ĠAr n
omet er
yl int
div ision
Ġreve aling
Gener al
Ġqual ities
Ġshall ow
styles heet
Ġterr ific
ĠConsist ently
I X
K it
b undle
w ered
Ġb ins
ple s
id x
Ġcle ver
pl ug
ĠTh ailand
Ġj et
Ġro cket
ia h
Ġmult id
Ġcons ent
Ġtrans it
Ġmin erals
ĠY et
Ġdown stream
ĠSc aling
Ġsk illet
Ġstory telling
Ġsuccess ive
Ġhealth ier
Ġcur v
ĠEl aine
ĠJust in
Ġreflect ive
ĠVer tex
ĠDel hi
Ġ193 7
Ġdram atic
Ġguarant eed
Ġrid ge
Ġfle et
Ġdiagn osis
F ound
L inked
m x
in ery
ct uary
de vice
Ġst ems
ĠS id
ĠM om
ĠR oc
Ġ19 35
Ġco pper
Ġhand ful
hes ive
ĠSe q
Ġsing ers
Ġve in
pos itive
ĠOr chestra
list en
Ġhot els
Ġgir lfriend
ĠMo ving
Ġattract ed
mem o
Ġign ore
ĠEmploy ee
Ġpale tte
Ġpupp ies
ĠLI SP
H aving
m al
p z
x ls
st age
Ġw age
Ġst umbled
ĠC ars
ĠB right
ĠR ot
Ġal mond
ĠF ork
lo oking
ĠTh ai
ĠG orout
Ġres olving
ĠSt ri
ĠK aren
ric ane
ĠCon text
Ġapproach ing
par am
}\\ ,
Ġband width
div ide
mar king
Ġfail ing
Ġvalu ed
ĠMag n
comm un
Ġfro st
lar ge
Ġdraft ed
ĠMit chell
Ġstom ach
d iff
j ob
o z
s en
ll ip
ĠP ush
ĠD oc
ĠD iff
Ġwh is
pe st
ĠG ot
Ġpo ols
Ġnot ably
Ġag ed
pro d
ĠSc ikit
ĠLe aflet
rec ord
ĠTrans it
ĠColle ctions
Ġemot ion
Ġfast est
Ġadjust ed
group by
ĠWater fall
ĠTur key
ĠCalcul ator
OV A
Ġstretch ing
Ġanch or
) }{\\
R ob
c led
f usion
or ters
Ġs ixt
Ġw arr
ĠT rou
Ġth umb
Ġl iked
em en
ĠS N
ĠB eth
Ġ2 20
ĠM ust
ĠL azy
el ia
Ġha ck
ap or
ud i
ĠV ert
Ġso ckets
ĠCh a
Ġcomple tes
Ġsub groups
ĠAd apt
com b
Ġunique ly
Ġpip es
Ġmer ger
Ġattrib uted
ĠPer ry
augh ters
}} $.
ĠGen etic
win ning
rad or
Ġlabor atory
Ġunlike ly
tem perature
Ġtempor arily
Ġbare ly
Ġmultim edia
Ġà¤¨à¤® à¤¸
8 2
] \\
f requency
r h
Ġan ten
Ġf ills
ĠA w
Ġg db
ĠH unt
Ġal arm
ĠN ord
Ġacc idents
os ph
Ġvari eties
ale nv
Ġsupport ive
Ġbl ues
ĠBu ck
ĠBu ilder
lev ard
ĠCo le
yl on
Ġpast e
Ġfeed ing
Ġant ider
Ġconv icted
Ġpropos ition
ĠEnter prise
Be ans
ĠDemoc rats
ĠMex ican
ĠProcess es
Ah oy
rag ma
ĠEstab lish
Ġdiagon als
O DE
P art
P DF
en use
Ġb fs
ant le
ra ge
im s
Ġl ap
ĠC her
Ġcre ek
ver b
ĠE sc
ĠF requency
ill ance
Ġad apter
Ġdep icted
ĠSc ipy
Ġfin ishes
Ġwa its
Ġinteract s
Ġdiff ers
Ġreflect ed
Ġharm ony
Ġsecret ary
Ġsurv ived
Ġdiscover ing
post gres
gl ass
Ġsubsequ ence
gener al
Ġcritic ism
ĠMove ment
Ġburn ed
Ġthri ve
ĠChalle ng
Ġrefresh ing
Ġinvas ion
ĠSoph ie
' \\
P romise
] $.
j z
m b
z eros
st e
ed a
Ġm ild
Ġe ars
ist ani
ĠP ad
Ġit ertools
Ġ` []`
pp y
Ġsh ake
Ġhas n
ĠV e
Ġsim ulated
cept ions
Ġdist inction
com fort
Ġbre ed
vious ly
Ġcur ved
ĠCont ainers
Ġill usion
Ġinterse ctions
ĠDisc ography
US A
ĠStan ford
osa urs
Ġdiscipl ines
p her
t asks
he art
Ġto ll
Ġm alloc
ĠT ag
il st
Ġ\" /
ĠG os
Ġtra it
ĠCh ron
Ġass ass
ats on
Ġmar ginal
ĠHTTP S
ĠDep ending
ĠMult ithread
Ġschedu les
Ġvac u
Ġpros pect
ĠAlf red
abul ary
wau kee
M us
M ount
a ign
e enth
h d
q t
Ġyou ngest
ĠC ategory
Ġbe aches
ir ical
ĠH ell
ĠM os
ĠF ault
Ġhel ic
ĠN ag
Ġen rolled
ac ier
ĠSt rong
cy cl
Ġdiv or
Ġsk etch
Ġteam work
add EventListener
requ ire
80 80
ĠPark er
Ġdecor ated
mod ules
sub mit
bin om
Ġembed dings
ĠJo an
Ġobstac le
ĠTree Node
Ġsyn onym
Ġabsor b
Ġarc ade
Ġdepar ture
* )
d in
r x
s is
Ġw id
Ġb un
ĠS leep
ĠP A
ĠP L
Ġse af
all ow
ĠO cc
Ġcl oth
red ient
Ġsub mitted
ĠCon volution
Ġinf lam
Ġoffer ings
In st
Ġsumm ation
ĠPer l
Ġmeas urable
Ġrespond ing
Ġjud ges
CA A
ĠSen ator
Ġtow els
Ġang ry
ĠImpro ve
ĠPos itivity
Ġrent al
say Hello
ĠLeon ard
ĠConstant ly
Ġportray ed
ĠWalk er
Division Error
ĠSier ra
x ious
or acle
Ġw is
it ars
Ġp aus
Ġg ri
ĠB ridges
Ġor che
Ġse al
ĠN ur
ĠL ic
Ġsu ited
Ġch amber
Ġpo cket
Ġcal c
ĠK in
Ġoper and
Ġcons ervative
app a
Ġsepar ating
Ġpay load
ĠNe o
ĠNe ed
ĠAm ount
As ync
}, $
ĠFire fox
Ġtoken ize
Ġemer ge
Ġbask ets
Ġfraction al
Ġslo pes
Ġfetch ing
ĠCamp us
Ġhar ness
ĠMil ky
ĠCalcul ating
Ġqueen s
ikip edia
$ .",
D I
D ear
F ord
V ert
j x
Ķ à¤°
et on
ke ls
ĠF er
Ġhelp er
pl ant
Ġr uling
ĠFor um
read able
Ġdist ractions
urre nce
Ġtrans pose
op al
Ġass emb
Ġent ropy
cd n
ĠIs le
Ġà¤ Ķà¤°
ĠTra ditional
ĠMay a
Ġindic ated
Ġgr ants
ĠPat ri
Ġhit ting
ĠLog istic
het ical
ĠHor se
ĠPrinc ipal
ĠInf antry
Ġcricket ers
ĠCurrent ly
ĠOak land
Ġreloc ated
B ra
S I
h ad
Ġt ill
re pres
Ġf is
Ġb ake
ur d
ĠS hip
ĠM ode
ĠL ot
Ġdata frames
Ġbu ll
ĠAr men
Ġmean ings
Ġblock ed
ĠGre y
Ġcr imes
ĠRun ning
num s
des ign
Ġparticip ating
Ġpipe lines
ĠFilm ography
ĠMont real
II I
Ġce iling
ĠWolf ram
ĠUnic ode
ĠMemo ization
8 3
a uc
g ement
k t
s ided
Ġt ies
er ie
Ġc sv
Ġh ung
im on
ĠThe ater
ĠP ic
qu it
ĠD rop
ĠD ancing
ĠN C
ĠN ad
ĠG as
ĠJ DBC
Ġun visited
Ġper mit
els h
uc ing
Ġac oustic
Ġpack ing
fe ld
print f
che m
dis c
Ġvi ctor
ĠPoint s
Ġbed room
ĠExp and
à¤¿ à¤Ĥ
Ġexhaust ing
Ġdistract ed
jav ase
C ome
f igure
l ate
o ard
Ġf ence
Ġm orphism
Ġd im
Ġd ump
Ġd well
Ġas c
Ġas h
ĠB in
Ġbe ings
ĠL inks
Ġpe aks
ĠAs pect
Ġconsider able
Ġdon ated
ĠNe braska
stra ctions
ĠWar ren
Ġdiscuss es
equ al
ĠMe chan
Ġcatch ing
Sim ple
ĠGover n
NA ME
iter ations
Re act
ĠJeff erson
Ġrevolution ized
Ġmunicipal ities
ĠSaf ety
Ġreck on
duplic ates
/ ),
P ush
b or
c z
s i
v x
v et
Ġw orship
Ġf r
Ġd angers
Ġth ro
Ġh ate
ĠC ultural
ig ation
Ġcon n
ĠW indow
ĠP erm
Ġal igns
Ġspe lling
Ġob s
ange red
Ġfl ips
Ġdec iding
Ġreg ulatory
.. .\"
Ġpublic ly
Ġconc erts
Ġsqu ir
Ġpri de
Ġorgan isations
ĠFl utter
Ġarch ae
cap acity
Ġdel ta
Re ceived
ĠINT O
Ġspl its
Mem ory
central ity
filt ered
, '
ĠA llow
Ġpro be
ĠB ol
Ġbe ad
qu es
ke ley
ram er
ph al
Ġtime ly
ĠK il
Ġev ident
ĠCh orus
Ġ10 6
ash ire
Ġback log
pro of
ĠAs k
ĠLe iningen
Ġmathemat ician
Ġmind ful
ĠGra dient
ĠBell man
ĠExper iment
Ġphotograph s
E nd
T LS
h ol
k eras
Ġ igraph
on i
Ġf ed
Ġf ract
Ġf erry
et ry
ĠR ate
ĠD ATABASE
ĠF reedom
ĠIn n
ĠL ED
ph r
Ġneed ing
ĠRe lease
Ġ* =
Ġag gressive
val ued
Ġdisc rep
20 20
Ġprot oty
Ġlast ed
iss on
Ġplot ly
ĠInter faces
ID F
Ġinsp iring
Sh ift
Ġla wn
Ġinequ alities
Em ail
Ġfulfill ing
Ġmicrocont roller
ĠFreder ick
ynt hesis
Elements By
Ġrabb its
Ġnost alg
Util s
xls x
C F
R el
Z ero
e val
l aim
o les
r ise
in ian
it ol
Ġm g
Ġm eth
Ġare na
ĠS und
ce ans
ĠP ain
Ġse asoning
Ġint ake
ĠG ay
Ġsh ower
Ġso y
get ElementsBy
sh irts
Ġevent ual
ĠWeb Socket
test s
Ġcollect s
ĠEd it
Ġsmo ke
ĠSing h
ĠRE PL
Ġfire wall
Ġsn ap
Ġwat ts
Ġwat ermel
Ġ193 4
Ġ<! --
Comm and
Ġmush rooms
b abel
Ġt am
ĠA rena
Ġd ors
Ġy arn
Ġg auge
ĠC inem
pe red
ĠN ik
Ġab stractions
ie fs
ĠK um
ob i
Ġback pack
20 22
Ġworld s
ĠUnder water
Ġtable ts
par allel
ĠQu icksort
Ġfra g
rel ations
Ġenh ances
Ġsuff ix
ĠDem ographics
lay ers
Ġrad ar
Ġconcaten ation
Ġcompress ed
Or der
ĠAdvent ure
ĠConver ting
Ġfav our
Ġtot ally
ĠJess ica
ĠIng redients
Ġfir ms
G E
J VM
P an
h p
m q
s n
re leased
Ġc ant
en ne
Ġw and
Ġp up
Ġd airy
ic ol
ul se
ĠC Make
Ġhe m
ĠB ody
if ice
ĠW ide
ĠP ier
Ġor b
ĠD SL
ĠL A
ight ing
ib ble
du ctor
Ġnew Node
Ġ19 14
red is
Ġsim ulating
Ġdi vers
Ġdi abetes
Ġpeople s
tal k
ug ar
ĠSe x
ĠSo on
12 7
ball s
ĠTra vis
enn a
Ġprec ip
des h
Ġaccept ance
ĠLeg al
Ġdoub ly
ĠNavig ating
Ġpreser ves
ĠMil waukee
Ġdelay ed
Ġalle g
ĠScient ific
whe el
F l
S uggest
Ġto wers
ĠT F
Ġe rect
om ical
ĠW onder
ĠF ly
ĠG DP
ĠBe havior
ost ic
ĠSt ories
put s
ern el
Ġ18 40
Ġmon ot
Ġmanip ulations
sh ared
Ġpract iced
ĠComm ons
Ġfilm ed
Ġpred ators
ĠEm bed
Ġactiv ated
ĠNum erical
ĠMe as
Ġsmo king
Ġpan ic
std lib
Ġbur den
lear ning
ĠFlor a
ĠLib sodium
Ġrain bow
Ġanalyt ical
Ġarrow s
Ġali ens
ĠSand y
Ġretail ers
ĠRequ ests
Ġ`* `
ĠHel p
Ġrevers ed
Ġrepor ter
habilit ation
Ġcurv ature
4 50
B B
S H
Y Z
b rand
d n
h tein
i q
j y
k top
st ed
ro gen
ĠS ally
ĠE li
ĠR ud
ĠJ ar
Ġ4 50
Ġres umed
Ġpr one
ring s
Ġdis put
ens is
Ġam ateur
Ġra c
Ġsee ks
Ġbre eding
Ġav atar
ĠCl in
ĠCl are
ĠPr incess
Ġden ied
ĠPh oto
Ġ17 5
Ġland ed
ĠVisual ization
Con fig
ĠGraph ics
ĠEngine er
Ġweak ness
Ġimag ination
Ġexhib ition
Ġhospital s
ĠLoc ated
Ġathlet ic
Ġresil ient
Ġdisestab lish
ĠPE P
ĠTai wan
ĠBou levard
> (
b ass
m ation
} }$$
is en
ĠC urt
Ġcon e
ĠH orn
ĠN aval
ĠL if
Ġwhe at
Ġk eras
Ġper sistence
ĠWe ather
Ġem ulator
Ġdiv id
Ġbre aches
ĠSh ould
Ġmet ropolitan
ah n
Ġide als
Ġnon negative
ĠUni verse
ĠAb d
anc ers
Ġsurpr ised
Ġfarm s
sm all
onom ic
Ġtom orrow
Cal culator
.* ;
N orth
u its
Ġan ime
Ġan ts
Ġp ond
ĠA NS
ĠT el
Ġl adder
em ed
ch astic
ĠC elsius
ĠR av
ep age
ĠAn imation
ĠAt omic
ik h
Ġaff airs
ighb ors
ĠMat rices
ĠDep uty
ĠForm s
Ġodd s
Ġbur ied
Ġoccas ional
ĠRen a
roph y
Ġirre levant
tri angle
ĠChalle nge
ĠNAS A
ĠSwed en
Ġsynd rome
ĠMarg aret
H P
T otal
Y ear
u pt
w ait
Ġa rom
at omy
Ġf isher
ĠT RUE
ur ities
ĠI de
ĠC ities
id al
ĠF a
ĠL ions
int erest
Ġret ained
Ġsc ream
Ġper ceived
Ġro asted
ĠV I
Ġoper ands
fra k
Ġend lessly
uc lear
ĠCan al
math frak
ĠOpen GL
ĠBl u
test ing
ĠWar ner
osp atial
Int eg
Ġhop es
Ġhous ed
Ġhypot hetical
Ġrain fall
ĠProf iling
Red ucer
Ġeigen vector
ĠCa uchy
Bu ild
ĠBio python
Ġseam lessly
ĠAdvent ures
ĠLanc ashire
Ġjuris diction
Employ ee
P layer
^ (-
Ġw izard
al am
Ġb eds
Ġb icycle
ĠA my
Ġg ods
ĠS phinx
ir s
ĠR at
Ġor n
ĠF isher
Ġ\" __
Ġout lines
-- >
Ġunder go
Ġinv ention
text Content
Ġair line
Ġpa ired
ĠFe atures
Ġbar rier
uff le
}, $$
ĠAct ivity
Ġlo ans
Ġcard inal
ĠForm ula
Ġsmart phone
Ġgrand father
pop ulation
Ġsport ing
Ġdetermin istic
Ġrecon struct
ĠSubstit ute
Ġgym n
ĠBird s
Ġintellect ual
ĠINS ERT
/ \\
B ut
L oad
S un
c ia
c rit
e als
f a
g db
Ġ rays
Ġt we
Ġt ightly
Ġf s
Ġf reed
Ġb ite
Ġp ins
ant ics
Ġl ingu
ĠC ats
Ġde er
Ġ( <
and al
ĠR RT
ĠN ut
ĠBe ck
arm a
ag ation
ph an
Ġdo cker
ĠSt ir
Ġfile name
Ġunder t
Ġmod erate
ĠAd just
Ġdesign ation
ĠPro perty
Ġarr anging
Ġcar n
ane ous
Ġelse where
li ography
Ġmaxim izes
Ġopp onents
ĠEm peror
Ġobser ver
Ġcentral ized
Ġded uce
Ġbul b
clud es
Ġcopy ing
ĠSym bols
ĠElect ron
Ġceleb ration
ĠLab rador
Ġchemical s
ĠAdminist r
Ġcyl ind
ĠPra desh
Ġdiscon nect
Ġdisestablish ments
ĠRena issance
G o
G UI
U pd
` ),
d im
g c
j w
k l
it is
de que
ĠS W
ĠS ad
ĠH ib
ĠN ginx
ĠTh under
ust ain
Ġ' /
ans wers
Ġstart app
The y
Ġinc omplete
ash a
ĠAs ymmetric
set q
Ġdem o
ĠCar go
Ġcr yst
Ġsl ight
ĠCont inue
Ġscal er
Ġing redient
Ġpromot ional
writ ers
Ġjournal ism
Ġchampions hips
ĠEp is
Ġscholars hip
Ġcompl iance
Ġsubur bs
Ġinqu ir
ĠMov ie
ĠESP N
A pple
B est
D is
L R
L ong
d ocuments
g b
v z
y ll
Ġ ),
Ġt ense
re ne
on ing
Ġc ited
Ġo mp
Ġto ppings
Ġto xic
Ġm ice
ĠS ki
Ġby pass
am an
Ġ= \\
ĠW elsh
ĠP ent
ĠM Hz
ĠD AG
ĠF ahrenheit
ĠV GA
Ġsub space
Ġpub lish
ĠAr gent
ex ist
con nection
Ġsqu ee
ĠSh aring
Ġinf ection
ĠSer ial
ĠPr ison
ik er
([ (
ĠConf ederation
Ġfib ers
ĠGra ce
Ġround ed
duc ible
ĠVari ous
Ġ190 8
Ġsynchron ized
ĠAcade mic
ĠPlan et
ĠChart s
Ġgorout ine
Ġcancel led
Ġcatal og
ivari ate
D C
g ue
v s
Ġt ires
Ġb ricks
ĠT O
ĠS i
ĠC hes
ĠC ache
od ore
ĠIn di
end a
Ġcomp ose
lic al
Ġ19 10
Ġsc attered
Ġpo ems
ĠK ids
vers es
ĠCre ates
Ġover se
Ġtr im
oh y
Ġcheck out
head s
Ġvisual s
Ġelect ro
ĠBu cket
Ġsto chastic
Ġge ographical
ĠAct ress
ĠInter pre
AR T
LE D
Ġrep airs
Ġgradu ating
vas cular
Ġwra pped
ĠFlo ating
Ġgar age
Ġfle w
ĠLuc as
Ġattach ment
Ġmoist ure
hett i
. ).
G S
M Q
d omain
h om
j amin
p ragma
} \"
Ġre produ
ol o
ĠH ttp
ĠM ine
ĠR acing
el and
Ġte aches
ass ic
Ġ19 23
20 21
Ġgu ides
\") );
ĠSh a
Ġmon itors
log ical
ĠCont ainer
ĠBl ues
Ġsun set
ĠOptim ize
Ġcam ps
Ġminor ity
Ġrelax ing
Ġaggreg ate
ĠJud ge
Ġaugment ed
aval ry
ĠBrook lyn
Ġduck s
Ġcommut ative
ĠChem ical
Ġmamm als
Ġentreprene urs
Ġkne e
Ġparab ola
Ġintrigu ing
ĠTas man
& =
D own
K EY
M B
P e
j h
} `.
Ġc raw
Ġw ax
ĠA ck
Ġm erc
Ġd ip
Ġe ighth
Ġl aser
ver ance
Ġv iewer
ĠH arm
ĠM iles
ĠN y
Ġun t
ĠU ML
Ġtime it
te es
Ġmake up
Ġz ones
How dy
ym es
Ġdownload ing
Ġtransport ed
Ġsynchron ize
ĠBer keley
ĠPrior it
Ġdiscipl ine
Ġ`+ `
Ġdemoc racy
Ġencompass es
Ġsacr ific
techn ologies
9 1
L ock
n ia
y on
} '
Ġan ge
le ys
Ġs li
Ġp enn
ar ct
Ġn an
Ġy e
Ġst ardust
Ġcon gression
ĠW atson
cc oli
Ġim aging
ĠL ag
ĠJ oint
ip lying
Ġ19 24
Ġ19 33
Ġbu ilder
ni an
Ġ7 50
__ \":
Ġident ifiers
be at
let te
ov y
ĠHigh land
Ġsuper vision
Ġstyles heet
Ġabs ent
heap q
Ġprison ers
Ġce ased
ĠAN OVA
ĠGi ants
Ġcongression al
F FT
b log
g art
Ġc p
Ġan ger
Ġm im
ĠT roy
Ġn aval
Ġre cess
Ġg ross
ĠB apt
ĠB omb
ir us
iv ia
ĠG host
Ġte ars
Ġvari ed
Ġwell ness
Ġany way
Ġfl ipping
ug g
Ġaccess ories
Ġ18 90
ĠSo cket
Ġcustom s
In c
ĠSpe cies
)\\ ,
ĠPart icip
ham mad
sub s
ĠRepublic ans
Ġclim bed
Ġteen agers
ĠPhys ics
Ġcyber security
Ġdefic it
Ġpredecess or
Ġmultid imensional
4 80
C AR
P ress
re ll
Ġan xious
Ġs ans
Ġw ars
Ġo z
is ible
is sed
de rer
ĠS or
ĠB un
Ġex clusion
se lling
ĠW oman
pl ication
iv an
oc ate
int age
Ġdo zens
Ġpo se
Ġadd iction
Ġmy graph
Ġform ulation
Ġenvironment ally
Ġaccess es
Ġlog ged
Ġgra in
ĠZ oo
Ġcur se
pi racy
Ġsold ier
Ġrepe ats
Ġcat tle
ĠVal id
ĠAnn ual
ĠEns uring
Ġabsor bed
ĠBern ard
Ġpra ised
Ġtoile t
] +
j ay
st ick
Ġd rank
ĠT ig
ĠC P
ĠC ash
ĠC aching
ĠW el
ad i
ĠM ile
ĠG ale
Ġro lled
ĠK yle
Ġdifferent iable
Ġwere n
Ġopt ical
Ġreg ulate
ĠPro fit
for all
Ġsumm it
)+ \\
Ġid i
ĠChristian ity
Ġsettle ments
ĠEconom ics
vens htein
ĠBle nder
Ġna ive
Ġpean ut
Ġdecentral ized
ĠMultithread ing
z i
z x
z ed
Ġst ere
Ġfor um
ut o
Ġhe al
Ġwh isk
ĠL ore
Ġ19 13
ong o
Ġinc idents
Ġpat ent
Ġph arm
ĠSo ccer
Ġans wered
Ġav ocado
Ġdeb uted
Ġplan es
ĠCo x
ĠRes ervoir
bra ce
Ġnorm s
acc o
Ġconsum ing
depend encies
Ġhom ogeneous
object s
Ġdistingu ished
Ġnic kels
Ġbes ides
ĠFant asy
Ġrecipro cal
G C
c ards
g ae
i versity
p aces
v q
Ġ eros
Ġc Profile
Ġthe at
le tt
Ġw arn
Ġre ply
ĠS ize
ĠM ob
ĠF loyd
pl t
Ġint im
ĠG onz
Ġab elian
Ġup ward
Ġ19 22
Ġtra ded
ĠCh annels
ens es
Ġrem emb
Ġloc als
ĠSe an
Ġref err
ĠX eon
)) ))
ĠQ Application
Ġmon ster
ĠSp read
My App
Ġcrypt oc
Ġincorpor ates
Ġdead lock
199 7
ĠSym bol
AL SE
Ġcert ified
ĠWood s
Ġheav ier
Ġcorpor ation
Ġexceed s
Ġincon sistent
Def ault
Ġcontrovers ial
AGCTAGCT AGCTAGCT
Ġell ipse
L ists
b oro
g ood
Ġw ore
Ġb ou
ĠA aron
ĠT ail
Ġe q
Ġst airs
ut ils
Ġbe lt
\\ *
ĠM ario
Ġcle arer
00 1
ip es
Ġres erved
ĠSt age
Ġmy Array
ĠHe ights
Ġinf ected
Ġsynt hes
Ġ16 5
rec ursive
ĠNo SQL
Ġprogress ive
ĠPre processing
Ġtour ists
Ġdeli vers
Ġinterse cts
199 8
Ġincrement al
Ġvoc abulary
fin ity
Spe ed
Ġpayoff s
ĠFac ulty
Date Time
Ġunsu ccess
Ġserv ings
Linked List
A ction
H C
j b
z u
Ġt une
ĠT it
Ġcon qu
Ġfun ctor
ang led
ac ements
à¤ ľ
com plex
Ġans we
Ġprof iles
Ġfund ed
Ġsuccess es
ĠMat lab
ĠCent ury
ĠJan et
ĠAir lines
ĠModel s
Ġstar tup
33 3
Ġwat ches
open ed
Ġrobot ic
tr l
Http Request
Anal yz
Ġwis dom
C ascading
j f
v b
ch oose
ation ally
Ġfor cing
ig a
ĠM s
ĠF ried
ĠN ear
ĠJ ere
Ġcomp romise
ach ine
Ġsh ades
ish a
Ġinter ventions
ob a
Ġwon dered
ĠX SS
py game
Ġaltern ating
less ness
ĠMan ufact
Ġopp osing
ok er
ĠRed s
Ġwar nings
Ġvo ices
Ġnull ptr
bre aking
Ġcouple d
Ġelimin ates
ĠLouis ville
De bug
Ġlib eral
Ġevolution ary
Ġcycl ing
ĠPot ter
Ġsup ers
Ġreb els
Ġtom bs
coordin ates
Ġmerges ort
ĠEdd ie
N I
U C
U RL
p ages
p tual
Ġc innamon
Ġin tu
ĠC ad
qu et
ĠR isk
ag hetti
Ġimp ly
Ġ19 26
Ġpe er
Ġexp r
Ġarg ued
Ġcar rier
Ġconsider ate
PI O
Ġpract ition
Ġmar king
PU T
ĠTe acher
ĠAm anda
ĠRun time
Ġsuff er
ĠView Model
Ġhom omorphism
arg v
ĠFact or
Ġeigen value
AA F
Ġlegisl ative
Java Script
ĠIncre ase
bec ause
ĠGard ens
Dist ance
ĠSpir it
Ġproxim ity
Inst all
3 50
B oo
F un
F ree
b ie
c ond
g cd
re ation
Ġp el
Ġg arn
ir k
Ġimp ression
ff ield
Ġres izing
Ġ| \\
pro v
Hello World
Ġexplo sion
atch ing
ĠRem ote
Ġmer ch
board ing
lim ited
weight ed
ĠMa ple
Ġliter acy
Ġenter prise
Ġsurv iving
ĠLeg end
Ġcopy right
ĠSearch ing
gn u
ĠStream s
Ġpros per
redu x
ĠCle arly
Ġrearr ange
Ġmob ility
ĠId aho
Ġcompan ion
) }$$
P os
V ersion
c uda
g ro
n els
Ġa we
Ġin sist
Ġd irt
ĠT HE
ĠT itan
ot ive
ĠW A
ĠP ie
Ġse ctors
ĠD omain
ĠF itz
lo ved
ĠN E
ĠN CAA
Ġr ated
ĠG w
ĠG uine
av ier
ĠJ enny
ĠV ehicle
Ġform ations
Ġsur name
Ġmed als
Ġdon ations
ĠCons ervative
Ġbro th
yl an
Ġinher ited
Ġblo om
ĠTre k
ĠRepresent ing
ĠBen jamin
Ġacade m
Ġappoint ment
gener ate
Ġrad ix
ĠPrior ity
Ġcoun sel
ĠBeng al
Ġpremi ered
ĠTin ymce
ĠBanglades h
, $$
T om
p ent
s ome
he alth
Ġp iles
ro d
am ine
Ġbe gun
se q
Ġde re
ĠH erm
Ġcan cell
Ġassistant s
ĠF oster
Ġte as
Ġacc laim
cl oud
Ġcl auses
Ġ19 12
Ġele ven
Ġinter ference
Ġmain stream
Ġcommand er
Ġche es
Ġpres ervation
In fo
Ġ11 5
DE R
Ġpa wn
Ġlo llip
year s
OR M
cons cious
Array s
199 5
Ġhypot enuse
Ġprem ises
ĠDa wn
}` );
ĠContinu ing
ĠAthlet es
ĠHon or
ĠRetrie ve
Ġuncle ar
ĠKap rekar
Ġcounterpart s
sent ence
Ġearthqu ake
- $
S te
b ility
l ived
m aker
t rees
x aml
in us
Ġc ass
le in
Ġm ic
us alem
Ġhe ll
Ġhe uristics
Ġv inyl
Ġwe ird
ĠO sc
Ġte ar
Ġcomp rom
Ġ4 000
Ġcor rupt
ac ies
Ġout standing
Ġexec ut
ĠSh ar
ĠZ en
Ġbegin ner
sol ved
Ġsal aries
Ġrespond ed
ĠRobert s
199 6
mult iprocessing
crypt o
cor pus
comp onents
ĠMunic ipality
Ġcollap se
anal ysis
Ġsubscript ion
Oper ation
N P
f d
h all
i vers
s oup
Ġc ues
it ime
Ġp unch
Ġm ilit
Ġd urable
ĠT H
Ġcon cluded
Ġwe lf
ĠM ental
ĠF ras
ĠG arbage
Ġvari ability
ser if
Ġsa fer
Ġperson ally
oy le
Ġsuggest ion
Ġcur ry
ĠCont ains
ĠAss ess
ĠMar tha
Ġvol can
gra des
ĠChar ter
Ġlif ting
Ġproport ions
ĠPak istani
ĠCost a
can vas
Ġfre ight
Ġpump kin
ĠCoc oa
dra wn
Ġeld erly
Ġenroll ment
ĠSuggest ions
Ġbankrupt cy
Ġpaus ed
Ġwelf are
: ])
c ities
m oney
s hip
he ld
Ġp ap
ant ine
Ġh ull
ĠH ooks
\\ |
ĠM apping
Ġch ron
ag i
Ġab road
Ġres ign
ph ants
ong ue
Ġsp icy
ĠV eter
Ex p
Ġco hesive
Ġoff line
Ġmin es
Ġz oom
ĠSh ared
by te
lu ence
100 0000
Ġjournal ists
ĠOper ators
ĠBal ance
Ġdiet ary
Ġcorpor ations
Ġexponent iation
agn etic
Ġmort gage
Ġcontrovers y
ĠPers ian
Ġwhites pace
Ġlig ament
Ġje ans
, ,
J ack
Ġh iring
im ated
ĠC OP
ĠB ond
ple tion
Ġex its
ĠE c
ĠM ari
ĠR cpp
ĠF igure
Ġres ized
Ġcomm a
Ġ19 18
ĠK el
Ġbas il
ĠCh apel
ert on
Ġam en
inal g
Ġbo keh
Ġgu itars
Ġposs ession
Ġgra ins
Ġdeb ris
let ters
ĠDes ert
file name
Ġpage ant
Ġfree ly
Ġtw in
ĠRed ucing
akes pe
Ġachieve ment
}) $.
fl ix
Ġoccas ion
ĠProduct s
ferent ial
Ġ`{ }`
Ġanalog y
elect ric
ĠJenn ifer
heapp ush
A rt
C am
D T
d ie
s or
Ġt anks
Ġc elery
Ġf allen
Ġd il
ĠT uring
Ġh ind
Ġst ats
ĠC ave
ot ional
Ġbe et
Ġse ver
lo ss
Ġar cs
Ġ19 25
Ġsc anning
Ġpo les
Ġ0 7
ĠK ra
Ġco aster
get s
Ġoff spring
Ġweb pack
ash i
mat plotlib
Ġfeat hers
Ġdisc ard
Th ree
19 2
Ġbusiness man
Ġdecl ined
ĠBl ake
ĠMay or
mit ter
Ġbi ography
anc ies
ĠOther s
Ġbrand ing
So ft
ES S
Ġful filled
Ġdress ed
ĠCommission er
ĠPub lis
Ġvend or
ĠHarb our
Ġcircul ation
Ġcous in
B L
D ense
N um
l ater
o ving
r l
w as
Ġ ip
re main
Ġc oup
ĠA ld
de mo
ĠS M
ĠS aw
ĠP ages
ĠR u
ĠN ortheast
Ġ$ (\"
ĠRe ed
Ġev olving
read er
ĠHe avy
Ġhand ed
Ġshould ers
Ġve gg
Ġext inct
Ġnum s
ĠShe ffield
Ġexplo it
Ġmis under
Ġ16 00
Ġstory line
bal anced
ĠDef ence
Ġbra ce
ĠPy C
sub tract
Ġresid ue
aj ax
ĠFin n
ipl ication
ĠLim it
Ġpurs uit
Ġagre es
Ġviol in
Ġbench mark
ĠFam iliar
ĠSep ar
Ġdiscr imin
ĠAgric ulture
Ġthrill er
ĠBelg ium
Ġwarr ant
> &
B uffer
F E
J IT
P air
U sing
b etween
p c
q h
re ck
Ġm tcars
Ġh r
Ġh ike
Ġg odd
am ic
Ġhe ter
Ġcon ferences
th lete
ĠW arm
ĠR T
pe g
ĠN ap
ĠL ion
Ġch ili
ĠBe an
Ġab olished
Ġun s
Ġper sist
Ġall ies
Ġ10 3
py test
St r
ĠSh aw
Ġpri est
ah l
Ġbehavior al
ĠReg ularly
Ġfunctional ities
Ġpress ed
Ġbi kes
Ġsun ny
Ġsem antic
ĠGroup ing
po llo
Ġter rible
ĠMathemat ics
serv let
ĠSign al
exec ute
GB T
Ġworkflow s
Ġterror ist
ĠSwed ish
Exec utor
L ink
X ML
a ired
Ġc ran
Ġw ages
Ġf art
ar ound
ed e
Ġre ign
Ġl amb
Ġl anes
ch n
ĠS ynchron
ĠB anks
ĠH at
ĠE agles
ĠM ak
ĠM ail
ĠD ere
lo or
int rodu
ag ar
ĠV ision
Ġequ ilateral
ĠSh op
Ġdon ate
Ġbreak down
ĠLe ban
und ry
Ġcrit ically
aun a
ĠMod ule
Ġsem antics
ĠSecond ly
Ġmotiv ations
Ġdro pping
Ġcategor ized
Ġpoor ly
oper ability
format ics
Ġimpress ed
ethe us
ĠMu hammad
ĠCrypt ography
Ġoct op
Ġvacu um
Ġeros ion
M r
N E
g om
n ote
n uts
st ats
Ġb ounce
ĠT ow
Ġth irty
ĠS ent
Ġfor k
tu ce
il io
ĠH aven
\\ ;
ĠN A
ĠIn come
ĠL ay
Ġ\" .
Ġr m
per sistence
ĠG ym
art a
end ers
Ġcl one
Ġdef ence
Ġres embles
Ġtra ced
ĠCon duct
Ġpat rol
Ġgra pes
ann ers
Ġpred icate
sp aces
Ġautom obile
ĠSm ooth
ĠRob inson
Ġcontainer ization
ĠArt icle
ĠColumb us
Ġlogarithm s
Ġspect ral
ĠMaterial s
ĠLie utenant
Ġsurve illance
iat ric
Ġsuspend ed
Flo at
Ġunemploy ment
Ġseaf ood
. ]
H OME
P ort
] ))
m ix
t idyverse
Ġa k
in formation
ĠB ring
ot imes
id o
Ġ2 80
and o
ĠD in
ĠN arr
Ġr uler
ĠG er
Ġwas hing
Ġun int
Ġper pet
Ġsp aced
Ġsp acing
ove l
Ġsim ulates
ear ing
Ġtra p
Ġtra uma
10 5
ĠAr g
ĠSc ore
col lect
Ġquant itative
ĠState ment
spe ople
ĠGu ild
Ġang ular
ĠAnt i
Ġ193 1
rill iant
ĠFlo ats
Ġprison er
sim ilar
ĠSud den
aware ness
Ġconcaten ate
Ġperman ently
ĠIncorpor ating
ĠVinc ent
Ġaux iliary
1 30
b rown
h al
k le
k ill
q x
r f
s un
Ġa ids
re ach
Ġc tx
it rus
Ġp ent
ĠS uff
if ted
il ia
ĠF at
Ġres emb
Ġsp ine
ĠV M
Ġbetween ness
bo at
ĠStu art
Ġflo oding
Ġsent enced
Ġelect rom
ĠChe ster
Ġindic ator
ho res
Ġimm ense
Ġreview ing
ĠPre pare
Ġfootball er
ĠQue ue
Ġexpen se
ĠArch ive
Ġtail or
Ġcouple s
Se q
Ġfro g
Ġtowns hip
ĠCam eron
Ġinstant ly
Ġinh ab
ĠAutom ated
Ġtwist ed
Ġgard ening
Ġsql alchemy
ĠToy ota
ĠPred ict
Ġpersu as
ĠBrun sw
Ġlocomot ives
ĠClar ke
ĠImper ial
A tulya
T H
e ing
q z
r ational
t les
} \\_
st ead
Ġp ill
ĠT rig
ĠP R
ĠE SL
ĠM ID
ĠR ice
ĠR ules
ap hores
Ġ\\ $
Ġ19 11
Ġ19 17
ace ous
Ġspe aks
Ġoff set
Ġrem ix
Ġcons on
ron es
Ġshow c
^{ -\\
ĠCl uster
ĠRec ording
Ġland marks
Ġformat ted
iod iversity
Ġsens es
box es
Ġpy ramid
ĠNetwork s
ĠExpl oratory
Ġalt ered
199 4
ĠJer usalem
Ġlaunch ing
ĠSur vey
Ġspo kes
ĠEth an
ĠLabor atory
Ġtiss ues
ĠMuslim s
Ġaver ages
Ġski ing
ĠPig eonhole
Ġlatt ice
A ust
B al
N etwork
S erial
h ind
l ane
y y
Ġf ires
om on
im read
Ġv on
ĠE ither
ĠD anny
lo ys
Ġint ro
Ġk ills
Ġpr ince
du le
Ġequ ity
Ġplay ground
load er
Ġsynt hesis
Ġbro ker
Ġfix es
ĠMar ie
ĠMar velous
Ġnice ly
Ġ80 80
Ġprimary Stage
ĠLu cy
ĠRS pec
ĠMain tain
ĠCat hedral
Ġshr imp
clean ed
EG ER
vol ume
Ġexch anging
Ġkin etic
quart ered
Ġanalys es
Ġintu ition
) **
R Y
V ER
g d
l inalg
p u
Ġt oured
re gex
Ġb orough
Ġb ishop
Ġd iced
Ġl ady
ĠC raw
ir teen
Ġ` !
ĠH az
ĠL en
av an
Ġprogram med
Ġset Count
Ġ0 6
Ġdis band
). $
Ġac ids
Ġ12 6
Ġ12 7
ĠSh akespe
az ed
sh aring
Ġ16 8
Ġless er
Ġbehav iour
numb a
ĠTe ams
Ġsuper natural
Ġrepl aces
Pro perty
}) $,
ĠPlay ing
ĠTod d
ĠHar per
het ics
step s
Ġbed rooms
ĠTri angle
Le ft
Ġtutorial s
Ġnucle us
Ġparliament ary
Ġneckl aces
Ġperc ussion
ĠMeas uring
S outh
b est
c aster
g ender
l int
q w
s parse
w ave
re ceive
ĠA rial
ch t
ĠC ove
ut f
if iable
ad os
ĠH ans
ĠL oss
Ġint act
oc ode
ĠO ri
Ġsh ade
Ġadd itive
Ġtra ject
Ġsum ming
Ġkey boards
ĠPro gress
Ġsing ly
Ġmon arch
ĠEn able
ĠCont act
atter y
Ġnegative ly
zz le
opt ional
Ġlif es
ĠHar old
Ġadminist ered
Ġsweet ness
Ġpen alties
ĠElect ronic
Ġatmosp heric
ĠSport speople
ĠFlex box
Ġsubur ban
ĠMV VM
Ġasym pt
% ",
) ^{-
G O
M en
g row
m ind
Ġt idyverse
st amp
Ġw ilderness
is ure
Ġre built
ĠB ert
ĠB ST
ĠE U
ĠE q
ĠM is
out ines
ort ex
ĠG ang
ĠO t
Ġen orm
Ġ19 19
Ġj ury
Ġro ok
ink et
Ġag ing
Ġdown ward
ĠSh ire
Ġmon ument
Ġgl uten
ty m
Ġspecial ize
iss ors
ik u
fe atures
ĠChe l
Ġapprec iated
Ġlimit ation
Ġreview ed
Ġhistor ically
Ġharm onic
ĠForm at
Ġsummar izing
inner HTML
ĠCamp aign
Ġoccup ation
Ġpurs uing
comp ile
Ġcompr ising
Ġsett lers
ĠEth io
ĠLem ma
ĠInspect or
Ġabbre vi
P ack
W here
b orne
j ud
k ook
w right
y ellow
st an
Ġo ceans
Ġm ad
Ġl ighthouse
ĠS U
ĠB aby
ĠE M
ĠR ole
ĠL ayout
Ġres igned
Ġpo ison
Ġcal ming
ĠK i
Ġco pe
ps y
Ġpe ers
Ġfl ies
Ġshould n
time it
Ġanswer ing
Ġ100 00
ĠComm ander
gre at
My Component
Ġlaw yers
Ġfru stration
Ġrot ating
ĠIP v
Array List
ĠSE O
Ġelimin ated
Ġ(\" /
Ġwra ps
Ġarbitr arily
tw ice
Ġade quate
ĠDeg ree
Push Button
Ġgodd ess
ĠBrunsw ick
+ $
H D
H ome
S M
S ign
i ctor
j m
k z
in ja
re lla
at u
Ġc uckoo
Ġthe r
Ġf usion
ĠT ib
Ġn od
Ġe lliptic
Ġth rew
Ġh orn
ĠP our
Ġne ut
Ġse ating
ĠG ill
act ivity
ust ering
Ġcl ay
ĠSt acks
Ġdes erial
Ġstruct s
Ġover c
pen s
Ġtest able
Ġend angered
ĠSc reen
Ġconf ess
ull ivan
Ġsuper visor
cont rol
)\\ )
Con nect
asc ade
Ġillust rated
Ġtouch downs
Ġren owned
ĠSym Py
ĠPos itive
Ġspin ning
Bl ue
Ġpassion ate
ĠIS O
ĠDub lin
ĠExper ience
May be
tom l
4 000
D irect
L ast
N Y
S A
f lex
m issions
n b
o is
s up
in ae
Ġthe ta
Ġw ww
Ġp ad
Ġm as
Ġd imin
Ġe pic
Ġl ucky
Ġst air
ĠC hen
se ling
ĠP OS
Ġ` ==
ĠE T
ĠL ang
ĠO K
int osh
Ġch ase
Ġch apters
Ġrest oration
tra ined
ĠGe ometric
ley ball
Ġemploy ers
ĠDi amond
ĠAb original
Ġsens ing
ĠGener ators
ĠAir flow
Ġdecor ations
Ġsn akes
ĠSte vens
uzz y
Ġobserv able
Ġrain forest
Ġcra zy
Ġworry ing
Ġpure ly
ĠCat al
ĠToken ize
Ġrom ance
Ġsear ched
Ġnic he
ĠEmer gency
Ġbored om
Bank Account
Ġinflam mation
ĠBapt ist
V ehicle
r w
} !\"
Ġs ulf
Ġw rest
ed it
de veloper
ve x
Ġl ang
ch ing
ĠI l
ĠC itiz
\" ])
if th
ĠW ire
Ġv ig
ĠE as
ĠF emale
ĠG OP
Ġen chant
ord inary
ĠV ar
ĠCh ampion
Ġ| --------
be e
ĠShe l
Ġadv ances
19 80
min ster
ĠMan it
ĠPer fect
Ġge ospatial
ura bility
Com pose
mar ine
Ġwar fare
ĠIndian apolis
ĠPol ish
rig ation
ĠDisc rete
ĠAtt ributes
ĠComb at
Ġcert ification
Ġadopt ing
Ġboy friend
ĠAgain st
Ġmolec ule
Ġtou ches
Ġmart ial
Pan el
Ġ umb
in os
Ġc aut
ĠA ra
es an
Ġd aughters
ll ar
ĠC alled
\" ?
um i
ĠW ag
Ġde put
Ġ` --
ĠE ye
ĠJ i
ie ge
ast es
ĠK ramer
Ġover t
ĠAd ult
ĠAr ctic
par ameter
ĠSp ider
amb ers
ĠOpen SSL
upp er
ĠAss uming
Ġtravel ers
Ġconstru ctors
loc ation
ĠPerson nel
Ġyield ing
Ġswe at
pat ible
term inal
Ġdecrypt ed
ĠDebug ger
Ġassert ion
ĠHy dro
Ġqual ify
ĠDemoc rat
ĠLinked In
ĠColl ision
ĠAnn ie
Ġspo ils
ĠSud an
ĠSche me
Ġpregn ancy
ĠPlug ging
ĠGuine a
ĠESL int
* $
a que
c oin
g all
h ark
p ivot
w alls
Ġt in
in ar
Ġs igmoid
Ġw ishes
it arian
Ġf ft
Ġre production
ch mod
ĠB os
il oc
ĠH oney
ĠE ld
ĠM ead
ĠIn dependence
Ġpart ly
ec d
Ġunder graduate
Ġ10 4
Ġver te
Ġpass ive
ock s
Ġcustom izable
sh a
Ġshort s
min us
ĠFe b
Ġattack ing
Ġcand les
Ġgr illed
Ġsens itivity
Ġdepth s
ĠPart ners
Ġir regular
Ġaccom pany
ĠDecl ar
De velop
Ġlandsc apes
ĠDen mark
Ġdy ing
ĠAltern ative
Ġhist ograms
ĠTax a
ĠComplex ity
Ġheaps ort
ĠUk raine
ĠHib ernate
< \\
G rid
L O
d irection
Ġc ata
Ġw x
Ġb og
Ġb ub
ĠA chie
us r
us cript
Ġh over
am ation
ig e
Ġbe ating
ĠP od
ĠE lli
ĠM issing
ĠL il
Ġun seen
ac re
Ġprodu ctions
Ġshe d
ĠPro p
ins p
)) )))
Ġcare ers
Ġmulti player
Ġpositive ly
ĠCar bon
ĠCo al
Ġneg lect
Ġactiv ist
Ġcell ular
ĠQue bec
work er
Ġstri ps
Ġ190 1
Ġhoriz on
ĠTur ner
rus kal
ĠNet flix
ĠRest aur
ĠBa iley
Ġpanc ake
ĠFI FA
Ġrecre ation
Ġconstitution al
Ġcapac ities
ĠBib liography
ĠMoz illa
Squ are
ĠLever aging
F il
R ef
V al
k now
r ating
Ġt ile
Ġf ats
ĠT iger
ĠI C
ĠS A
am pton
th an
ĠW R
ĠD ear
Ġma pped
ĠU PD
Ġsc ared
Ġ< %
ĠSt ra
Ġkn ot
ĠCh anges
Ġco zy
ail ing
ss l
Ġreg iment
ĠCon nection
urs ed
Ġ15 6
ĠAust ria
ĠPh D
15 00
Ġprotect ive
Ġvill agers
Ġdate time
fl ask
Class ifier
Ġtab s
Ġaggreg ating
Ġign ored
Ġ{} \",
Ġtransmit ting
ĠResp onse
Ġnom ine
Ġnom ination
feren ced
lot te
Ġmemb rane
Ġantider ivative
ĠShakespe are
M M
at ri
Ġc ython
Ġm orph
as io
ĠS BC
if fs
ĠP and
ĠF aith
Ġle cture
ĠL loyd
ĠL ibraries
ĠL GBT
Ġmy Car
Ġ10 7
Ġchar ter
Ġpop ulated
ĠNew port
Ġfound ations
Ġcar b
Ġà¤ ¯
Ġfactor ies
ĠAdd s
Ġhome less
Ġstation ary
ĠDi pl
Ch icago
Ġscen ic
Ġfit ted
ocol ates
ĠGener ation
ĠAg ent
Ġtall er
ĠVol unte
ĠRequ est
ĠEconom y
Ġexhaust ed
ĠStru ctures
ĠStat istical
pel led
Ġrecru it
Sec ond
Ġ123 45
ĠStrateg y
Ġsacr ifice
Ġgrace fully
Ġà¤Ĩà¤ª à¤ķ
ĠLank a
prop agation
Ġcounc ill
Ġlawsu it
ĠGorout ines
Ġdors al
' `,
' `.
7 75
] >
c ross
f ib
l if
t z
v or
Ġan ecd
Ġp ist
Ġm v
om as
ĠS lic
ĠC ond
ĠW ikipedia
ĠE ight
ĠE agle
ĠR AAF
ĠD ylan
ĠG IL
oo ps
ind ing
ific ate
Ġsim ul
cript ive
Ġunder w
ĠHe len
com pute
ĠPro per
20 19
.\" ;
Ġfin itely
ĠComm ercial
Ġcr unch
Ġsl iding
Ġpost er
Ġstat ue
Ġport al
Ġfree ze
Ġintegr ates
ĠChrist ians
Ġarri ving
Ġapart ments
Ġdark er
po ly
gr ass
ĠAtt orney
car go
Ġflavor ful
Ġphil os
Ġstret ches
ĠRen ew
ĠMur phy
ĠBet ty
ĠHarr ison
Ġastron omical
ĠCrypt o
Ġvocal ist
ĠGil bert
ĠDeploy ing
Ġpanc akes
Ġpregn ant
Ġneckl ace
Pass word
ĠScen ario
ĠOrth odox
ĠIsa ac
Ġpredomin antly
Ġrememb ered
7 50
E lect
m und
Ġ eras
re lu
Ġin place
Ġm uff
Ġn ood
Ġh rs
ur ls
ad ic
ĠR ic
ĠF etch
ĠIn tuitive
Ġ\" +
ĠG oth
ĠJ e
Ġdef module
les h
ĠRe comm
ring e
Ġ0 9
Ġallow ance
Ġmethod ologies
Ġver se
ĠY an
Ġve ins
St em
Ġgl ue
ty ped
Ġsynt hetic
Ġdem ographics
Ġsit com
ĠGe or
pre processing
Ġcompet itor
att ribute
function al
ĠVari able
OR T
Ġcivil izations
Ġste ak
ĠDri ver
ĠField s
ĠRog ers
Ġautoc omplete
Ġchir p
Ġanomal ies
postgres ql
; `
V P
b irth
h n
Ġf ried
ar f
Ġe Book
Ġfor ums
ĠB M
ĠB ark
ĠB urn
Ġex cluding
ĠW ii
ĠR aw
Ġor al
Ġ3 20
Ġch orus
est e
og rad
Ġbu zz
Ġsub graph
Ġra p
Ġcons iders
Ġact ed
Ġmin ced
ĠIm ages
sc ipy
Ġsay Hello
Ġsl ider
sp an
ĠDo or
ĠMin i
ĠGu itar
ĠSum mary
Ġaccept able
ĠAng lic
Ġveget ation
Ġboost ing
ĠRel ated
NN s
ĠDou g
Ġastron aut
ĠSubtract ing
ĠLanc aster
ĠPu erto
quant ity
Ġannounc ement
operator name
ĠSudden ly
b w
c ars
h ist
i en
j j
m art
y x
Ġa h
le ading
Ġb ark
Ġn ails
im pl
Ġl ac
ig hed
ge ons
ĠW alt
ĠP CA
ĠE state
ĠR out
ĠL Z
el ong
ĠBe yond
Ġad mit
ph is
ĠRe in
ĠRe factor
ĠV ery
Ġev ac
Ġdi amond
ĠCh and
ĠCh amber
à¤ Ī
Ġmod ifiers
Ġexp osing
Ġind ie
Ġcost ly
con stant
Ġsk ate
Ġposition ed
Ġred es
Ġmaxim al
Ġemploy er
uck s
ĠChe erful
Ġimm igrants
Com pare
aff e
flow ers
ĠRock y
Ġbow ls
Ġoccas ions
Ġpriorit izing
ĠCap itol
Ġalum in
Ent ity
ĠRA F
Ġvirtu ally
Ġsql ite
ĠActiv ities
ĠGate way
Supp ose
Fin ish
ĠStem ming
ĠChalleng es
Upd ate
6 78
: ]:
B as
f utures
g ues
n av
p n
p aced
t ens
re hend
or relation
Ġw itch
ĠA ce
Ġre name
Ġh arb
Ġg inger
ĠS pen
ĠC ob
ol in
um ni
ĠB E
Ġ\" \\
ĠJ Frame
Ġad min
Ġup wards
rit es
Ġdis pute
Ġunder water
Ġsub net
Ġpar ishes
Ġrel atable
Ġmod ifies
Ġexp end
ĠUn real
ĠCon struct
ĠBy z
Ġsingle ton
Ġhead line
_{ -\\
ĠApp end
co res
ĠAct s
ho les
Ġcountry side
ĠIdent ity
ĠLu ke
Ġdead line
ĠLog ging
Ġdecre ment
Ġ190 7
Ġexperiment ing
Ġhon ors
ĠHol mes
Ġnarr ator
ĠFac ilities
ĠNormal ize
Ġlegend ary
Ġcomplain ts
Ġtrapez oidal
Ġprecip itation
L C
c n
k q
m w
r floor
y pes
Ġd owns
Ġl ined
ĠS cript
ĠS ams
ĠS plendid
un ique
ple ted
ĠP orts
ĠH it
ĠH ob
ĠM ul
ĠM ouse
ĠR and
ĠD h
ĠD art
ĠF CC
Ġsu pre
ĠTh ames
ĠG ather
xt on
Ġ19 15
Ġ0 2
Ġout let
Ġtra ces
lf loor
Ġmin eral
.. .,
Ġsupp orters
Ġche f
ĠSc out
sh irt
ĠInstall ation
head er
Ġpriv ately
Ġgover ned
col ors
Ġsecure d
ĠRail ways
Ġpreprocess or
ĠModel ing
ĠMor rison
Ġbind ings
ĠWhe el
Ġstret ched
Ġcart oon
ĠAutom ation
Ġhaz ard
custom er
Ġaest hetic
ĠArchae ologists
Ġinvert ible
H ar
M ichael
S plendid
] })
b acco
g ames
p f
ed erate
Ġl aughter
Ġst up
Ġpro xy
\" /
ĠN at
ĠIn nov
ĠG PIO
ong i
com mit
Ġph p
Ġimpro per
Ġ12 4
St ru
urs es
amb oo
oin ter
Ġhead quartered
ĠLe venshtein
ĠBut ler
Ġside bar
dle y
Ġmag net
Ġair ports
ĠWeb GL
ĠMon ads
Con struct
ĠDesign er
Ġdele gate
sub ject
ĠHash ing
ĠDev il
Ġà¤® à¤¦
Ġadministr ator
Ġdepos its
ĠKen ya
ĠJul ie
Could n
ĠNormal ization
Ġrecy cled
Ġdemoc ratic
ĠHarb or
coordin ate
datas et
Ver tex
obb ies
ĠLau ra
ĠMID I
Ġà¤®à¤¦ à¤¦
# .
$ {
) ^{\\
C ook
[ ['
w eg
Ġt allest
he lls
Ġc ust
or ns
it as
ĠA ur
ra ment
Ġn obody
om it
ur ous
ĠS ah
ĠC ir
am as
Ġpro pri
Ġv ow
ĠM ock
ĠR andy
ĠN ine
ĠIn ver
Ġ19 21
stru ctors
ring ton
ĠK rist
Ġrec overed
Ġlet tuce
Ġsimple x
Ġdepend ence
Ġgu ards
log ging
ĠTe a
ĠRec reation
Ġquant ify
Ġeconom ies
ĠCor p
Ġtyp ography
Ġclaim ing
ĠPres by
ĠMult iplying
ĠMicro services
ĠCD s
Ġgas oline
Ġ190 5
ĠSpark Context
Ġweigh ing
found ed
Ġpossess es
dot net
Ġenum erate
Ġveter an
ĠChair man
Ġchromos ome
Ġurg ency
Ġjun gle
Ġcardio vascular
ĠSho pping
ĠKer ala
Ġceremon ies
Ġsever ity
F ine
J oin
P at
] $,
j n
k f
in is
he ster
er ated
Ġp ork
ĠA bra
ĠA pollo
ĠT ruth
Ġg rip
ĠS it
ĠS urre
ĠS ax
Ġex clude
ĠP ink
ri el
ĠM ait
ĠD A
ĠF o
Ġle ase
ĠL on
Ġcomp iles
Ġimp rison
du ino
Ġj og
Ġele phants
Ġclass mates
ĠV ALU
ĠCh ad
Ġdis ks
Ġover fitting
ĠAd vert
ĠY eah
ĠNew sp
par ser
Ġmar ry
Ġdocument ed
pi pe
ĠMin or
Ġsens ation
Ġtour ing
Ġutil izes
Ġbreath taking
ĠProgram s
Ġ190 3
Pr ice
Ġcomment ary
dest ination
dest roy
Ġdestroy ing
ĠMot ion
Ġdomin ated
Ġcab inet
ĠArm strong
Ġtroublesh oot
ograp hers
ĠIndones ian
ĠLind a
Ġtempor al
IyMzIyMz IyMzIyMz
ĠBulg aria
! \",
L D
h l
r ina
z A
ed back
ĠT ol
Ġg cc
Ġg rill
Ġst a
Ġhe ated
Ġr ic
Ġj ail
Ġout fit
Ġx s
ĠCh ain
ĠCre ative
Ġ7 20
ĠAl gebra
Ġ18 70
Ġreal izes
Ġ: ),
log in
itor ies
ĠCo ol
yl um
ĠPy Open
met ry
ourn aments
Ġann oy
Com par
Ġplant ing
ĠExpl an
ĠCr ime
ĠWrit ers
valu ate
ĠAndrew s
ĠIraq i
Ġsubt asks
ĠWy oming
Ġgalax y
ĠPhill ips
ĠNich olas
ĠInterp ret
ĠRabbit MQ
Ġdivid end
ĠCOP Y
gom ery
M ac
c ipher
ĠT ouch
ant om
ra pe
Ġn oun
Ġst ee
un its
am o
ol ition
um m
il de
ĠW ave
ĠP ipe
nt on
ĠF lying
Ġ\" ))
ĠG and
ĠG ross
umb ers
Ġfo st
ide a
Ġdef ects
ang ling
ĠCh ase
ens ed
Ġam id
ress ed
Ġtrans verse
olog ically
Ġlog ger
Ġprom in
amp a
the med
ĠFl at
back ground
Ġbrow sing
Ġelect rons
cast le
Ġappl iances
ĠQu arter
ĠEr nest
ĠConf ederate
ze ch
Ġnormal izing
Ġrev olves
Ġ27 0
Ġbright ness
ĠIll ust
ĠBal d
Tree Node
bro ok
ĠEle ctions
ĠArab ic
Ġlex er
component Did
ĠAx ios
OU R
Ġbom bs
aud io
Ġrecre ational
Ġsuspen se
Ġanalyst s
Ġtherm al
Ġperse verance
Inc rement
ĠDere k
D i
T ER
t ags
t imer
Ġt ul
re rs
Ġc uda
as a
ĠS ega
ol ia
Ġcan ce
ĠR ou
ĠR angers
ĠF ix
ĠN iger
ag us
Ġ' {
ari ans
ĠSt atus
Ġ0 3
Ġwork force
Ġrec urrence
ick ed
Ġback wards
ĠDe vice
Ġsupp lied
Ġwant ing
ĠCons erv
ĠCount ing
ĠPar sing
Ġge ography
uck land
ĠWork er
ĠMon ica
Ġsho e
ĠMod ules
ĠEv olution
oper ation
ĠES Next
Ġsac red
HT TP
Ġcrash ing
Ġsile nce
tem p
Ġpun ishment
G u
H u
K D
O rig
R ad
c ov
d as
g ap
Ġt b
Ġf ights
Ġb ol
ĠA OP
Ġh mm
im an
ur ate
Ġst itches
ĠS ara
ig o
Ġex ams
Ġde emed
ĠF oss
Ġwh ilst
ĠN ames
Ġhas hed
Ġpr inter
Ġqu it
Ġwork outs
arch ive
Ġover loading
ni k
Ġdep rec
Ġem pathetic
ob ic
ĠCom edy
ash ing
ĠAl umni
ĠY e
ĠY u
20 16
)$ :
ST AL
eff ect
bra ins
Ġexc av
ĠChar lotte
spe cial
ĠInc rement
ĠMac intosh
Ġstri kes
Sc atter
ĠDirect ory
ĠMont gomery
Ġencaps ulates
ĠStandard Scaler
Ġremind ers
ĠGal ax
erb ai
organ ized
ĠVeg et
ĠNAS CAR
Ġsuspen sion
Ġdiscr imination
Ġfragment ation
Su per
Att ribute
ĠIntuitive ly
E ast
H igh
L ife
N OT
P aul
R ow
j db
j dk
v w
Ġ" -
Ġl ag
ĠS r
ĠC redit
ĠP in
ĠM umb
ĠM ack
Ġen queue
Ġup stream
ĠRe e
Ġ0 5
Ġtra ps
Ġmem orial
io x
Ġsub structure
Ġspecific s
ĠDe let
Ġ18 80
Ġtre m
sh ore
Ġsl ave
11 11
Ġes cal
ĠReg ulations
([ '
ĠSw an
Ġdecor ative
)+ (
Ġaccept ing
Ġdiscount ed
ĠBel ow
Ġconsequ ence
atin um
à¥Ģ à¤Ĥ
Ġquarter back
ĠIndust ries
Ġattend ance
Ġà¤¨ à¤¹
ĠBrand on
Ġentreprene ur
Ġturb ines
ĠAppro xim
jet brains
( :
A ns
E mitter
f ordshire
h ouses
in ental
st o
Ġb rilliant
is Student
Ġre habilitation
im o
Ġl ush
ĠC ly
se ed
Ġcan on
ĠF ur
ĠF erry
ĠF rem
pe x
iv ating
ĠG C
Ġres olves
Ġ' [
ac os
Ġdes ires
ail ure
Ġpar as
Ġrel atives
ob el
Ġfl ame
Ġref in
Ġconf using
Ġmar athon
Ġposition ing
Ġconver sions
Ġbro ccoli
Ġgot ten
ster dam
Ġbra ke
Ġaccount ability
Ch rist
use Effect
ump ing
Ġground ed
Ġbr ut
Ġbr ig
Ġconv ince
ĠRet rofit
AP PS
mean ing
Ġanalyt ic
Ġpig eon
Ġlegisl ature
ĠDif ference
Ġorg ans
ĠTerm inal
sv g
Ġcovari ance
ĠMichel le
Bre ak
ĠIndi ans
Ġinhab ited
ĠUPD ATE
Stem mer
ĠExplan ation
O pt
j ax
l ord
l ash
v h
Ġ ub
at z
Ġc emetery
an imal
Ġb ats
ĠA uckland
Ġin ev
Ġd ye
us ement
ĠC ed
il ine
Ġde ce
ab a
ĠR ather
ĠR ush
ĠJ PA
Ġch ocolates
ĠBe a
Ġar th
gram s
Ġup set
Ġsc roll
Ġj am
Ġev al
Ġcons piracy
ĠAr duino
ĠInst itution
Ġtable t
Ġcurrent s
Ġprom ised
by tes
Ġnon profit
Ġprim itives
spe ech
Ġsmooth ing
igu ity
Ġfem in
ĠAv ail
Ġremote ly
comm and
ĠFound ed
Ġtermin ates
ĠOrgan izations
Ġlib uv
Ġdrop down
ĠSa udi
Ġcomplement ary
ĠPot ential
Ġsubstring s
prot otype
ĠNu Get
Ġrit uals
Clo se
Ġcongru ent
Ġmetab ol
ĠOsc ar
ĠFras er
ĠSynchron ization
STAL LED
R F
T D
b uffer
h az
s ley
is ch
ĠT ips
ĠT ournament
ist le
im ens
ce ster
ir ate
ir ie
ĠW E
ĠW ords
ĠM ills
ĠN atal
Ġle ather
Ġres et
ud dy
Ġdes irable
Ġ8 000
Ġgener ics
pro perties
com pos
ĠPro test
ĠY am
to ol
Ġà¤ ¦
Ġsong writer
Ġland mark
Ġbra cket
ĠEd wards
Ġbi ased
Ġimm un
sec ure
Ġfair y
do or
inst ein
fl ower
Ġfresh water
Ġmist aken
Act ivity
Ġla undry
ĠBank Account
Ġtrave lling
Ġhero es
ĠDan ish
Par agraph
ĠTreat y
.\\ ]
Wh ile
Ġcha otic
Ġforg otten
Ġholid ays
Ġfrustr ated
ĠAnton io
Ġfluctu ations
Ġenorm ous
ĠMait land
A ug
B E
R andom
T ech
b ag
e z
l ia
Ġs ights
ar ange
ĠT ables
ro ads
de ll
ĠI M
ĠC elt
am ins
ig ue
ri k
ĠH erald
Ġcle aring
ĠN an
oc hem
ĠG om
ĠEx pected
Ġman uscript
ne eded
ĠK ruskal
Ġclass rooms
Ġsome how
Ġinstall s
10 2
Ġafter wards
ins pect
Ġinf ect
Ġà¤ ļ
ĠAt oms
Ġ11 1
Ġlast s
Ġlook up
Ġair plane
Ġphys i
Ġattack ers
astic ity
ĠGener ator
Ġgrid s
Ġrev is
hib ernate
Ġsustain ed
ĠEngine ers
ĠGl acier
ĠDet ective
Ġir rational
ĠMor occ
ĠRock et
Ġguess es
Ġelev ated
greg ation
ĠPal mer
sim ple
Ġspin ach
ĠMinim ax
Ġrecru ited
Ġped est
datas ets
ĠConstra ints
Ġsubscri bers
cro ft
cycl ic
Ġoctop uses
ĠAnglic an
C REATE
G IS
W ord
c py
c ott
Ġt u
Ġb end
Ġp ear
ĠT iny
ĠC arr
\" `.
Ġcre ators
ĠB ing
ri ka
res ource
ĠF ul
her ical
ĠIn jection
Ġuse Effect
Ġall iance
Ġbas in
Ġbas sist
Ġ[ ];
Ġproject ed
ĠHe brew
Ġinc om
') `
ĠSc anner
)) ^
ĠSh ore
Ġmon ads
Ġpot tery
Ġtool bar
Ġcr isp
Ġpost ing
ĠNe il
Ġaccount able
ĠBar on
west ern
Ġir rit
hand ed
Be an
ĠPal m
âĢ ¢
Ġconstit utes
Ġdisapp eared
ĠCalcul us
Ġbid irectional
dog s
ĠMerc ury
Ġloose ly
ĠBegin ning
ĠBot tle
Ġdies el
Ġinfe ctions
Ġerect ed
Ġcardinal ity
A IN
g iving
h pp
r ice
v l
y g
Ġa thlete
Ġf uck
ch in
Ġst ew
ĠS omers
ĠS ugar
un til
ĠB ent
Ġbe e
ĠW ish
ad jacency
ĠM I
ĠN HL
ĠIn fra
ĠL ena
iz a
oo per
Ġsp ider
ĠV ern
ĠV alent
Ġdevelop s
Ġsub stances
com pose
Ġafter math
Can vas
Ġsur pass
oun cing
Ġsk ating
ĠDes ktop
Ġintern ationally
Ġeditor ial
ĠDec rypt
Ġshape file
Ġrev ision
fl at
ĠGit Lab
Ġir rigation
Un ited
ĠAz erbai
ĠMind fulness
ĠTour ist
ĠWin ners
ĠRh ode
Ġphotos ynthesis
Ġviol ations
Ġshel ves
ĠFour th
ĠMast ers
ĠFast API
ĠPict ure
Ġnutri ent
Ġmicrocont rollers
ĠUl tra
cop g
ĠMcD onald
B T
T ake
T oy
b lo
c ope
d w
s ud
ed uc
Ġm old
Ġl amp
ĠS ustain
Ġ` ^
\\ }$.
ĠR ural
ĠR uth
ĠD ocuments
ĠN agle
iz ont
ĠJ ur
Ġun ic
Ġsh ining
ide l
Ġ\\ ;
Ġnew line
Ġj er
Ġsp acy
ĠK end
Ġdis par
Ġob sc
Ġrec urring
Ġsub field
Ġgraph ing
Ġfl aws
ser ial
Ġexp ans
Ġinv ite
Ġbet ray
ĠDe le
ĠAd mir
Ġexec utor
ale z
my Element
cd r
Ġext rem
Ġmed ial
Ġdon ation
Ġaddition s
Ġfin ancing
ĠCl aire
med ia
med ian
Ġdel ight
ĠNum eric
cont ained
Ġrecogn ised
ms g
apple s
mid dle
Ġli ability
Ġtab ular
Ġwra pping
Ġmel ted
Ġment or
Ġsubstitution s
Ġteen ager
ĠLoo king
Pl ot
ĠCorn wall
Mar velous
ĠFit ness
Ġcoun seling
ĠGuard ian
call back
Ġvirtu alenv
ĠJenn a
ĠPear l
ĠIncorpor ate
Ġconce ptual
ĠEll is
ĠNep al
Ġenhanc ement
ĠJama ica
Ġamen ities
Ġpersuas ive
ĠVALU ES
D ay
e u
g ray
o kes
p om
q f
at omic
er ving
Ġto pped
as List
ct ural
ĠT all
ĠS ue
ut orial
ĠW it
ĠE cho
ĠF ALSE
ĠG a
int ensive
ĠU nd
Ġcor d
ud d
Ġ19 16
Ġ< [
ĠV S
ĠV ista
ĠCh ile
ian e
à¤ Ł
ĠAn ch
ser vers
Ġsol ver
Ġref lex
ĠSh annon
til de
Ġmet eor
ĠInd igenous
AT A
Ġmer chant
stra int
Ġadjacency List
ĠIntrodu cing
ĠPo ol
su per
Sh ort
Ġjump ed
ĠFort ran
Ġarm or
Ġadministr ators
isc opal
Par ser
Ġpil ots
Eng lish
Ġnomin ations
ĠUk rain
Ġemp loys
ĠPas cal
ĠFlash sort
Ġbab ies
role um
ĠDI Y
Mus ic
Ġcryst als
Ġpenn ies
Soft ware
! ';
P al
S pace
c ence
k b
Ġt ales
is null
ĠA er
Ġd ated
ĠT oo
ro kes
Ġe cc
Ġth under
et ta
ĠB AS
Ġon Click
th al
ĠH ack
ĠH ood
qu is
Ġor chestra
ĠU g
Ġen code
Ġinst ability
ne ath
ĠK arn
ĠHe aven
Ġreg ime
Ġreg ards
Ġback pressure
Ġaut umn
20 17
lis hes
Ġcent res
Ġ16 2
}\\ )
Ġachie vable
ĠGe off
14 4
ĠAm sterdam
Ch art
Ġexpl oratory
13 5
Ġmass es
ĠLog ic
Ġwind ing
ows ki
Ġmur dered
ĠTur k
Ġfro gs
Test Case
Ġsin us
Ġnegot iations
Ġnur se
Ġmigr ations
Ġrib bon
Gra de
Ġfol ks
ĠChick en
Ġinnoc ent
Ġinvari ant
Ġcalc ium
ĠCurt is
ĠNarr ator
( _
M o
R P
b ling
g over
p rom
u ous
} ",
st roke
Ġs ync
Ġp q
ar an
Ġin ex
Ġd ent
Ġd rought
Ġn inth
Ġre pt
Ġl iver
ĠS ile
ĠS ullivan
ĠC herry
ig s
Ġbe loved
if est
Ġ2 25
ab we
ĠD y
ĠF inger
Ġacc ord
ĠBe ij
Ġen v
Ġ4 20
ang ar
ak y
ĠK on
Ġprov isions
Ġdi ocese
ĠCh uck
ĠSh am
Ġsk ipped
Ġmis ses
ĠZ h
tra cks
Ġaff air
Ġparamet ric
ĠWar riors
ĠDis covery
Ġvirtual ization
ĠAct ivate
Ġsens ations
IN E
Ġtur tles
Ġcollabor ating
ĠPo etry
ocal y
OR D
ĠAng lo
ĠAv iation
ĠMal ay
MA X
199 3
Ġadvent urous
Res ource
Ġ`$ ('
Ġcritic ized
Ġoutdo ors
Ġpit falls
ĠBreak points
Ġteen age
Ġdisp atch
Ġmiss ile
Ġtens ors
Ġobvious ly
ĠOwn er
imb abwe
ĠRDD s
Ġ----------------- ----------------
Ġneighbour hood
Ġindirect ly
ĠTig ers
Ġlollip ops
Aust ral
G D
O A
T erm
U K
d fs
i el
l ion
l ation
m its
Ġ ib
er ce
Ġw ors
is an
Ġm os
ĠT ak
de part
em or
ol ith
um ph
Ġex otic
il ant
ir ls
ĠP ylint
ĠE ug
ĠR oot
ĠL ack
ĠL ines
Ġun related
Ġdef unct
Ġcomm ute
Ġper ipher
read File
Ġsub way
ĠY AML
ĠMy Thread
ged y
avor ite
ille n
Ġbar rel
ĠDis advantages
Ġbuy er
Ġsmo other
Ġparameter ized
ĠSelect s
Ġstress ed
Ġgram mat
Ġdemand ing
ĠAtt ached
Ġflat ten
Ġagre ements
big g
ĠINT EGER
Ġsty led
ĠLem on
ĠSimpl ify
ĠEp iscopal
Ġlem matization
ĠRemo ves
Ġsuspect s
Ġemit ted
BU G
ĠExpand ing
ĠGonz alez
Ġvegg ies
ĠSpen cer
R ock
s ets
} &
Ġt enth
Ġt ournaments
in formatics
Ġc ry
Ġb urgers
Ġin ade
ĠS F
ĠS yl
un ion
system s
ĠH E
ĠM ira
Ġfo g
cl ub
Ġres ides
Ġsp ans
Ġsp aghetti
te am
ĠV a
ĠV io
ys ics
ĠPro s
ĠX P
Ġgl ac
sc ores
ĠCl ustering
ici encies
Ġdem ographic
Ġpresent er
ĠCo ordin
ott age
Ġchalleng ed
ĠPark way
urch ase
Ġimm igration
Ġapproxim ations
ĠMon itoring
script s
ino a
Ġrep ublic
Ġtag ging
uzz le
ĠCall backs
Ġspot ted
Ġrelax ed
ĠBow ie
ĠJes se
Ġsufficient ly
Ġirre ducible
ĠDur ham
Ġshar pen
ĠBes ides
Ġintermed iary
Ġak ka
) ?
H F
M onday
O ff
g x
o j
u ces
z n
Ġ ul
or p
Ġs aus
Ġs ized
Ġf ame
ĠT u
ra ster
Ġn n
Ġl aps
ur ated
il ogy
Ġv ic
ĠM utex
ĠN AT
iv ated
ĠG tk
av ity
ĠBe ver
Ġun e
ĠRe fact
Ġ0 4
ĠCh ocolate
Ġpre st
Ġdist ur
Ġra cial
Ġem power
Ġinv iting
Ġinv oked
ĠSe b
Ġru ins
Ġ11 3
ĠReg arding
Ġscal ars
ĠMem phis
Ġexpand s
Ġcoordin ating
Ġsav ory
ĠIns urance
Ġtouch ing
Ġvi olation
Ġsen ators
Ġassess ments
Ġfamiliar ize
Ġpool ing
Ġconve ys
Ġadvanc ement
ĠLead er
ĠMinim ize
develop ment
Ġgalax ies
ĠColon el
Ġreass igned
ĠLiter ature
ategor ical
Tw ice
O ri
a q
f ood
g olang
s omething
w b
w at
Ġt ongue
Ġb oring
ĠT rophy
ent ric
ĠB enn
ĠW S
Ġv intage
ĠP IL
ĠM arsh
ĠR az
Ġle agues
ĠG erald
ĠO ften
pres so
Ġqu bit
ĠV ic
ava il
Ġinter ns
Ġinter fere
Ġtr ump
ĠHe ath
Ġpos es
ĠCom merce
Ġpat ron
Ġhigh ways
Ġfound ational
Ġbre ach
Ġmon sters
Ġess ays
ats uba
ĠCons ult
ĠIs n
ĠSp atial
Ġprot ests
ĠZ imbabwe
Ġchat bots
iss ue
Ġautom orphism
ĠTra ffic
Ġfinal s
Ch ange
Ġmarket ed
Ġtransl ations
Ġadapt able
ĠAssoci ated
Ġhighlight ed
ĠJoh ann
Ġdealloc ating
He ight
ĠTr ump
ĠTr inket
ĠJo ey
ĠRequ ired
unit test
ĠCow boys
Te X
Ġtherap ist
percent age
wart z
Ġintim id
ĠAbra ham
D et
G roup
o ven
z d
in v
st ial
or ie
Ġs ax
Ġm elt
ĠT emplates
de crypt
Ġst orms
ĠS old
ĠS ession
ĠB A
ĠP ond
ĠM TV
ĠR M
Ġor ch
umb ent
Ġab d
Ġret reat
ac onda
Ġ{ ",
Ġwell being
Ġprov es
eg u
ĠCh iefs
Ġoff ense
Ġtr unk
Ġdist urb
op ol
vel t
Ġdet er
ĠCon cept
Ġph osph
Ġbo iling
Ġ12 1
Ġshow cases
Ġ15 3
add le
di ents
Ġener g
ĠDef ault
ĠCont emporary
Ġrespect ed
RE AD
ĠEd ges
ĠPre par
ĠDistrict s
des igned
Ar g
Ġreli ance
Ġcommit tees
Ġlif ted
Ġcred ibility
care t
ij i
Ġtrib ute
Ġgro cer
Ġfre el
Ġdiver gence
----- |--------
Ġram p
Not Found
sche mas
ĠStre ets
ĠEs sex
pub lished
Ġvit amins
Ġnutrition al
heapp op
Ġreven ge
Ġenthusi asts
buck et
Ġhelic opter
ĠEmbed ded
ĠTasman ia
Ġpractition ers
ĠSBC L
gues e
D ocuments
L a
O O
O ptions
Z E
b ishop
f ocus
g ic
l azy
q n
v io
Ġa erial
re lease
Ġw ow
Ġm ysql
ll er
em y
Ġg amb
ay ette
se ct
ĠP ul
Ġ` ?
ĠH og
Ġle nt
ĠU DP
Ġcl iff
stand ard
ish ops
Ġhad n
Ġrel uct
ĠCom position
pr ises
Ġaut h
Ġbo il
con n
St and
load s
Ġgl uc
Ġ100 0000
=\" #
Ġestab lishes
ĠCar la
Ġsl ip
Ġ13 2
Ġred is
Ġtw ists
ĠPy ramid
Ġvol atility
Ġgeneral ization
Ġbroad ly
Ġwar rior
Ġwave length
ĠBi ology
ĠTy pically
Ġ186 5
Ġaccel erate
Ġfif teen
employ ee
ĠStream lit
Ġic ons
Ġcontest ed
Ġlem ma
ĠSequ ence
mont on
ĠSD L
Ġchromos omes
Ġcompens ation
ĠSync fusion
ĠPresby ter
ĠBeij ing
M ary
b idden
d ou
f m
s b
} !\")
Ġ ion
Ġb less
Ġm int
Ġre build
Ġh uh
ch anging
Ġst iff
ĠS ind
ĠC T
ĠB B
ad ian
ĠH P
ĠD od
ĠD atas
Ġ\" \"
Ġte les
ĠJ al
Ġch apel
Ġsh red
ace ut
ĠV el
Ġmat ure
Ġdis solved
Ġem bro
urre n
Ġsupp lier
ĠSe oul
ric ia
Ġlog istics
ĠSp ot
ĠFl ag
Ġmach inery
ade c
ym bol
Ġcr ate
Ġweek ends
Ġred ist
100 00
uck er
ĠEd monds
cont rolled
Ġbi king
Ġprogress es
Ġadapt ations
create Element
Ġguitar ists
Ġsen iors
ĠAcade m
Ġmig rate
Ġ189 4
Ġtermin ate
Ġsched uler
rat ulations
jac ent
Ġunw anted
ĠScient ists
ĠMess ages
ĠGreg ory
Ġaqu atic
ĠChem istry
ĠGh ana
Ġdiscontinu ed
Ġindu ced
Ġprivile ges
Ġrefrig erator
Ġconfidential ity
ĠArn old
ĠANS I
Ġdisband ed
ĠTib et
ĠManit oba
rape ut
$ ?
h m
p it
q y
r ator
s ensitive
w oman
Ġthe aters
it he
Ġb ak
Ġo ils
ĠA part
ĠT aj
ra pper
Ġl ad
ur dy
Ġst amp
Ġst itch
ĠB og
ĠH od
ĠM C
Ġse vent
ĠL uther
Ġma ker
Ġun used
Ġsc ary
ks h
Ġj ug
ub ect
Ġinst itute
Ġdis abled
Ġgen ome
Ġed itions
Ġind ented
Ġtest ament
ĠPro log
Ġ18 5
Ġph y
ĠSh in
Ġconver gent
Ġtool kit
cal culator
ĠPar ad
ĠAm endment
ĠEl len
aun ting
ĠCor outines
Ġdev oted
ros pective
AC C
ĠDel i
ĠBack log
ĠSpring field
Ġsus cept
à¥ĩ !
Ġcontact s
Ġinnov ations
ĠTr inity
Ġglo be
Ġlon eliness
Ġkid ney
Ġvolunte ering
ias m
à¥Ĥà¤ģ ,
ĠMalays ian
Ġsle e
ĠKat ie
ĠFlex ibility
Ġblank et
ĠPoly nomial
Ġintent ions
asm ine
bn b
ĠTrou blesh
Ġlifes pan
ĠByz antine
ĠMumb ai
R R
S ur
f z
g ary
p aper
u ke
v ic
he ets
Ġs ar
Ġin eff
Ġin acc
Ġd ynasty
ĠT ank
Ġre sistant
Ġl ob
ul ers
ul sion
ĠC atherine
ig ion
ĠB und
ĠB rew
ĠW B
ĠH us
ĠH ale
ĠH isp
ĠM ia
ĠR ank
ĠR ah
ĠN ull
ĠL CM
per ing
Ġen velop
ther net
ong s
Ġout s
Ġout lets
Ġqu bits
ne arest
ĠK ivy
Ġspec imens
ĠCh in
Ġver ifies
Ġem its
Ġjust ify
Ġback ed
Ġoptim um
ĠUn iform
uc ch
Ġstr on
ĠQ R
load ed
Ġinf antry
Ġear rings
ta iled
ĠRem ix
oot er
Ġlight ning
ĠPh one
resp ons
ĠInter view
spe ction
OS E
Ġfeed s
Ġnormal ized
ĠProv ides
Class Name
ĠMid lands
Ġax i
Ġsem icol
Ġtransfer ring
99 9
Ġclos eness
Ġhierarch ies
ĠOper ating
ĠElect oral
Ġeth ics
Text Field
Ġtransition ing
ĠCy ber
ĠPass ing
ĠJul ian
ĠAthlet ic
Ġrestri ction
Ġsoutheast ern
Ġdin osaur
ĠOw en
ĠPortu guese
Ġnick name
Ġsuspic ious
Ġnostalg ic
Ġoverse as
Ġcancell ation
Fil ter
Toy ota
A x
D ele
K e
U sers
c ue
q d
v t
Ġf ries
Ġd imes
om ination
ol ate
ĠB uch
ĠW inst
pp el
ĠR ising
Ġse rene
ĠD aw
ore station
Ġun de
Ġun con
Ġev oke
Ġbas ement
), $
Ġfl aw
Ġunderstand able
be k
be ans
ĠCons umer
over rightarrow
ush i
def macro
11 1
ĠWest minster
)^ (
Ġdiff usion
Ġdel im
cont rib
Ġcompos itions
Com p
Ġdu plication
Ġfresh ly
Ġran kings
Ġlack s
ĠProm etheus
Ġassess ing
Ġ188 9
ĠVal ues
Ġjoint s
aver n
Ġrein for
ĠPrinc eton
Ġaccomplish ments
ĠClean ing
ĠBry an
Ġasp ir
ĠIndivid uals
ĠEas ier
# ",
C LI
d ated
f c
f ont
f air
w l
Â ²
ĠA ber
as ma
ĠT LS
Ġh older
ow ing
Ġl ane
ul s
ut t
Ġex ert
il ion
ĠW an
ĠP unk
ĠR NA
ĠD ale
ĠN ancy
ĠL ila
ĠG ulp
ĠG roups
int ing
ĠBe e
ĠEx pect
Ġad mission
Ġ< >
ĠV ict
rit ious
Ġover night
Ġgen etics
Ġline up
fra ction
ĠSc ar
Ġbl ade
pos ing
ym akers
ov o
Ġspecial ty
omet own
Ġdeal er
isp ers
ĠBro ken
Ġrob ber
run k
ĠPol and
ĠArt ist
ĠSy ria
ĠLa place
Ġ(` <
mult i
Ġpet ition
ĠMethod ist
Ġathlet ics
RO UP
Que ens
Acc ording
umber land
Ġ`* `,
Ġsor ce
Ġsouthwest ern
ĠMaxim izing
ĠBeat les
ĠAgric ultural
ĠiP ad
Ġdevast ating
Ġanten na
ĠAck ley
tym ology
ubect l
! ,
B lock
P o
V alid
b oth
j t
m ma
m issing
u ate
it ertools
Ġb ore
Ġo re
ĠA uth
Ġin verses
Ġn g
et o
ir atory
ĠW ilderness
ĠP ont
ĠE aster
ĠD ir
ĠL am
ĠG oing
Ġma ple
ach ment
Ġsh ine
Ġres ize
ac ular
Ġdo ct
Ġval leys
Ġtr ash
io http
Ġtrans p
Ġdec ou
Ġins ufficient
10 8
ĠY ale
Ġpat ches
Ġcar p
ĠSh an
amet ric
ĠSer ge
Ġcur l
ĠAss ert
Ch annel
Ġavoid ed
IN T
Pro gram
Ġextra ordinary
duc ers
Ġtoken izer
sw ap
Ġ190 4
ĠLeg acy
ĠXML HttpRequest
ĠCr iminal
Ġtang y
ĠTri ple
Ġdefe ating
Ġpig s
gener ated
Ġrid ers
Ġrig or
Ġbench marking
ĠWall ace
Ġfet ches
ĠGeo JSON
EX T
Ġtran qu
ĠRx Java
Ġfis cal
design ated
ĠEpis ode
ĠUkrain ian
aceut ical
A ud
B ooks
S ha
c arb
d ar
h istor
k io
m ember
Ġt sp
on ential
al y
Ġin ert
Ġd umb
Ġd irty
ro e
Ġre order
Ġl in
Ġl ips
Ġbe aring
ĠP upp
ĠN I
ag g
Ġun ified
Ġen act
Ġdef er
Ġres erves
ud ding
ĠHe le
Ġsub mission
land o
ĠSh ift
fact ory
di ctions
ĠLe eds
ĠCal gary
ĠAt ari
ĠRep ly
Ġleg ends
Ġblue berries
ĠPre tty
Ġtur tle
Ġfootball ers
Ġadapt ability
icy cles
des cription
Ġstar ter
Ġpick up
Ġrock y
Ġmut ually
Ġinspect ing
Ġfold ing
ĠSur v
Ġreported ly
Ġresear cher
Ġencounter ing
ĠMot ors
ĠIter ative
Ġstraw berry
det erm
ĠGram mar
Ġunders cores
ĠARI MA
crit ical
Ġfart her
Ans wer
: </
C ategory
G emfile
h ave
j g
l av
m are
m ong
r im
s em
u pervised
v ine
x ample
Ġ ll
Ġ ``
Ġf iring
Ġp g
Ġp ushes
ĠA gre
Ġd type
Ġy ork
Ġas leep
Ġex h
ĠP id
ĠF an
ĠF ed
ĠN uclear
ere xample
ag in
ie ce
Ġret aining
ip h
ast ype
ell er
Ġ6 0000
Ġpre lim
ec onomic
Ġpe aches
Ġtrans fers
Ġsupp liers
ran o
be fore
Ġbra very
An imation
Ġpoly gons
ĠMc Car
ĠJu an
ĠHar vey
ĠSuper ior
ĠDel ighted
lab els
ĠCommun ist
Ġproceed s
Ġmur ders
ĠUtil ize
ownt own
Ġrevolution ize
Ġscan f
ĠSequ ential
prot ected
Ġjack et
Ġchord al
ĠGab riel
Ġnit rogen
hum an
engu in
ĠJung kook
Ġdestruct uring
ĠWP F
Ġdisput es
L ocal
] ],
l ap
p w
r ations
s lice
st reet
it ary
Ġp ills
ĠS ons
ĠC zech
am ous
ĠB one
ĠB order
ĠP ID
Ġ` >
ĠE V
ĠR onald
od ont
her ing
ĠN athan
ĠL ok
oc a
ĠJ ill
Ġun for
Ġun weighted
Ġcor on
ĠK az
Ġtra des
Ġunder neath
ĠHe aps
Ġdirect ing
lis s
Ġorgan ism
Ġpresent ations
Ġpd f
Ġ; ),
RA M
Ġones elf
Com put
Ġten ure
ĠBel le
ĠHash Table
199 1
ĠBur ns
Ġnut ritious
Ġcategor ize
Ġdisp ersion
Ġcombinator ics
Ġemp irical
Ġhaz ards
Ġvamp ire
Ġunsuccess ful
ĠTroublesh ooting
) >
2 70
B N
c ook
c ats
i ator
r studio
x l
ĠA A
Ġm anga
as is
as ury
ĠT i
Ġe erie
Ġth irteen
ur ious
ĠI st
Ġg n
Ġst yl
am en
ĠB attery
Ġcon form
ĠW ake
ĠP I
ĠR ams
ĠR ico
Ġse ated
Ġse aled
ĠD ow
ort on
Ġapp et
Ġcomm od
Ġcomm emor
Ġper mitted
ĠSt raw
own ers
Ġspec imen
Ġperform ers
Ġcons erve
other mal
sh ould
ĠCo ach
ĠNe ighb
ĠEd en
Ġbuy ers
Ġadapt ing
ĠMid land
Ġemer gence
Ġtrade mark
Ġsus pected
LI FO
ĠPublic ations
Ġtim ber
Ġtow el
Ġmyst eries
Ġdoub ling
Add ress
Ġment ally
Box Layout
Ġtalent ed
Ġdin osaurs
ĠHu gh
develop ed
ĠPeters burg
Ġpys park
Ġdeput y
ĠSams ung
izont al
% ),
( |
) -\\
/ `
A ccess
M iddle
S al
c Profile
d oms
f ills
h un
h arm
l inked
r ary
v f
er gy
Ġc ucumber
Ġthe sis
Ġp ulp
Ġd ens
ĠS ET
ĠB end
ĠW et
ĠF raction
lo o
Ġfun ctors
ĠG amb
os ort
Ġcl ips
oo ge
form ed
Ġsp ice
ĠK D
Ġkn ight
Ġover time
Ġrun way
Ġgre ens
ĠY ah
ĠUn ions
Ġref ining
ĠAr med
Ġhalf way
Ġhy gi
ĠMed ian
ĠGener ally
Pro ps
Ġlive stock
ĠPo isson
ĠBre nd
ĠRo lling
iter ator
Ġhom epage
Ġhypot heses
Ġtab u
ĠBen ch
ĠRel ational
Ġincorrect ly
ĠKn ights
Ġ189 5
ĠBroad cast
Ġkilomet res
Ġstuff ed
Ġcompr ised
worth y
Ġnegot iation
Ġpublis hers
Ġmutex es
Vis ual
iqu es
Ġreven ues
ĠSyn opsis
Ġseas hells
Ġprototy pes
Ġshowc asing
Ġfost ering
ĠRefact oring
adec imal
$ (
A pr
D R
O ld
g cc
h ai
q r
Ġm asc
ĠT es
Ġn erves
Ġh ood
ĠC ou
ay an
Ġex changed
if ax
ĠP ix
ĠP seud
ĠL an
ĠG iant
Ġch i
umb ling
Ġab oard
Ġdef orm
Ġk iss
ĠRe yn
ĠRe ceived
ĠSt range
Ġout going
Ġro de
Ġstand alone
Ġinv isible
Ġoptim izer
Ġref uses
ĠSc rapy
---- |
Ġve st
ĠQ Widget
ĠQ PushButton
be cca
ĠSh aron
ren al
Ġcho ir
Ġtechn ically
ĠCS P
Ġhum idity
ĠApp lied
oose velt
Ġbox ing
Ġsal mon
ĠOpt ions
ĠBro oks
Ġjo kes
Ġboard ing
Ġreus ing
Ġbranch ing
br as
ĠSum mit
ĠBra dley
ĠSte in
Im plement
ĠRepresent ative
Ġrenew ed
ĠSch wartz
ĠSym phony
Ġpen et
ĠOper a
gu ard
Ġtermin ated
web pack
ĠLight ning
Ġhyper parameters
Ġfacilit ating
OC K
ĠEmploy ees
aph ore
Ġwaters hed
Ġupgra ding
ĠConsist ency
Ġdrain age
Ġfrost ing
Ġtb sp
ĠSomers et
. -
. ),
C trl
L oving
P P
T od
b ud
Ġc types
or ious
Ġan atomy
Ġw olf
ĠA ges
ĠT ina
Ġg y
Ġg lowing
Ġ( ).
ĠP rec
Ġ` ",
ĠH ours
lo re
ess ed
ĠN ested
iz on
iz ar
Ġ$ .
ect ing
ile mma
Ġsh ipped
Ġcl ip
Ġcor al
ac cept
ac cel
ĠCh ance
Ġra ck
Ġ18 50
Ġel ong
Ġstr ands
ĠNew castle
Ġcar ved
Ġbl ame
ĠCol in
not es
Ġplace holder
ĠMan or
ĠOr lando
Ġ17 2
Ġder ives
Ġtask ed
Ġport rait
Ġdel ving
resh ape
Ġfair ness
Ġten sions
Ġfall acy
ĠArt ists
ĠMo E
Sh ow
Ġinvestig ating
Ġgreet ings
ĠNavig ation
fin itely
ĠFlo at
Ġign oring
Ġaccommod ation
Ġske leton
Ġforg ot
Ġtou ched
Sing le
Ġantib i
ĠUns upervised
Ġfundra ising
Ġrif le
disc ipl
Analyz e
ĠLeban on
A c
F unc
O s
P op
T ag
W idth
X SS
b ad
b ottom
f uture
m ag
o i
z t
Ġt ar
er us
Ġc ig
st orm
ĠA way
Ġto ast
Ġd war
Ġre bell
ĠC ul
ĠW T
ĠE van
ĠM atch
ĠL ud
pl ate
Ġcorrect ing
Ġx hr
Ġsub species
Ġconst itute
Ġhand sh
ĠDe e
mat ure
Ġend ings
aw ks
ron ym
Ġleft over
arr ass
Ġtem pt
Ġgra dients
requ is
Ġquestion ing
ĠRes ear
ok a
Ġinvest or
ĠSpe aker
Ġ$( -
ai ro
ili ans
ĠEd monton
Ġ`< !
Ġmen us
ĠPost ed
Ġhost ile
Con sole
lim it
ĠClass ical
ĠProv iding
Ġ^_^ ,
Ġsubtract ed
ĠPat terns
Ġprofit ability
Ġ190 9
199 2
Ġcos m
ĠRel igious
Ġble nder
inder gart
Ġmile stones
ĠPub lished
ĠFood s
Ġrearr anging
dem and
Ġnur sing
Ġupgra des
ĠLes lie
eterm ined
ĠCollabor ation
song writer
ĠSO A
ĠConstra int
Ġoverrid ing
Ġabund ant
ĠKr ish
Vert ices
jdb c
ĠPresbyter ian
' ];
g ain
v dots
ou ns
ĠA ircraft
Ġto fu
Ġd amp
ĠT us
de e
im show
ch air
ĠS ure
am y
Ġ1 19
Ġus ability
ĠW ear
ad dition
Ġ` =
Ġ- --------
ĠR GB
od b
ĠL it
end or
ĠJ AX
Ġacc redited
ac erb
plain text
Ġall erg
Ġpar sley
ix on
Cont rol
ric ular
Ġel ite
my database
Ġredu cer
ĠFl ags
Ġà¤ ²
Ġmulti plications
Ġmust ard
Ġhum orous
Ġ14 5
Ġautom otive
cal loc
ĠPer u
Ġcorrespond ence
Ġsample d
Ġlo aves
field s
ĠRoad s
Ġcontra ction
ĠSuper man
Ġdead ly
ĠStand ards
Ġvi able
ĠHy pot
ĠHealth care
Ġappoint ments
ano i
Ġtele communications
ĠKar l
ĠSand ra
Ġmel ting
Ġfat igue
ĠCase y
ĠHold en
Ġadvoc ate
third s
Ġinterrupt ed
elect ed
Ġsad ness
Ġcompan ions
Ġadvertis ement
Ġhaun ted
Ġcentroid s
Ġalleg ations
> ,
Y Y
b et
g iate
j p
j ohn
j unit
k r
Ġt ram
in ars
Ġc ursed
Ġp inch
Ġo k
ed es
ĠS ak
ĠS par
ĠS alem
Ġcre ational
se par
id ian
ad ers
ĠP av
ĠP kg
ĠP leased
Ġ` []
ĠM ans
ĠM ann
ĠD iana
pt ical
iv ation
Ġfun eral
Ġint ens
Ġun structured
ĠEx pert
Ġen de
cl uster
Ġcor relations
ast ical
ell ar
ĠRe venue
Ġtra ct
ĠFor ward
ĠCh an
Ġ[ /
Ġmy Thread
ĠAn a
ĠWe ap
Ġcount able
Ġpar ity
op andas
Ġdec imals
Ġback yard
ator ies
Ġhash lib
to String
Ġclo ves
Ġsk aters
log en
ĠPl ain
Ġtri o
ĠDes criptive
ĠCar roll
ĠNe ighbor
ĠSim ply
Ġscre w
ĠAir bnb
run s
ĠAdv ance
Ġ36 00
LL O
izz a
Ġdenomin ations
ĠEv ange
ĠKn ox
Ġinterpret ations
Ġiniti ated
Ġrad ial
Ġspr ink
Ġpal indrome
Ġcraft s
ĠJup iter
Ġrein force
Ġmotor cycle
ĠAsh ley
ĠYo ongi
Ġsoci etal
ĠInvest ment
Ġcoal ition
Ġmand atory
à¥ĭ ?
Ġimper ative
oxy gen
there um
ĠPalest inian
à¤¼ à¥Ģ
ĠExten sion
Ġinaug ural
Iter ation
Ġ(< =
mind ed
Ġcata st
Ori ented
& \\
* `
C ON
G old
H op
b z
c g
i eth
p se
u ated
w ig
Ġt weet
he e
Ġf are
Ġb acon
Ġb achelor
Ġp end
Ġp eg
ar us
Ġin k
ĠT ul
Ġh obbies
Ġl id
Ġg or
ĠS ke
ĠS we
ĠS isters
ĠC V
ĠC otton
ĠB irth
ĠH ousing
ĠR oosevelt
ĠIn ternal
all ists
ĠO mega
int o
Ġcomm erce
ĠV lad
ni peg
Ġexp atri
20 18
Ġcommun e
Ġeduc ate
Ġaff irm
ĠMar c
ĠMar ines
ĠChe ss
ĠWell s
Ġball ad
Ġtax i
Ġ:- ),
ĠPres ent
Ġsn ail
Ġgradu ation
Ġsnipp ets
Ġcipher s
ĠAh med
Ġhon our
ĠEqu ipment
Ġcriminal s
Ġfort une
Ġbund les
Ġemb ark
Ġshoot er
Ġbom bing
Ġpean uts
grad ation
ĠHend erson
rout es
ĠGor illa
Ġbust ling
ĠSund ays
introdu ce
urren cies
ucch ini
) '
J u
L ight
L ear
T race
V I
h ou
j in
n ovel
v n
z one
| =
Ġt astes
Ġb x
Ġre e
Ġy o
Ġl ining
Ġg i
ĠS C
ĠS om
ĠC e
Ġex acerb
Ġ` =`
ĠE thereum
ĠR aven
ĠN est
ĠL ith
pl ots
ĠO TP
ĠO dd
Ġwas hed
ĠEx am
Ġcl ue
est ab
Ġgo ats
Ġper tain
Ġinst it
rit is
Ġpar sed
Ġrel ay
Ġra pper
Ġ16 9
Ġshort cuts
ĠList en
Ġload er
Ġsuper position
ĠAm azing
ĠAm ateur
enn on
ĠChe ese
'] ]
ĠAb u
cto ols
ĠSan ctuary
Ġhistor ian
Ġstri ve
Ġinform al
ĠMult iplication
ĠBre aking
find all
ĠMathemat ical
--- +
Ġdenomin ators
Ġthreat ening
Ġpoll ut
Ġnation ally
Ġrig id
Ġamb iguity
ĠAutom ating
Ġconsult ant
Ġchess board
Sub ject
Ġdiver ges
ĠLegisl ature
Ġadm its
ogen ic
Ġ`+ `,
Widget s
Ġfulfill ment
Ġadvoc acy
Ġterr ifying
Pool Executor
ĠPow ell
Ġpret end
Ġancest ors
Ġcock tail
ĠBuddh ism
ĠPoll ard
ĠHil bert
Ġye arly
ĠJere my
Ġexecut ives
Ġumb rella
ĠAzerbai jan
% ;
D ig
P ri
T im
b g
c orn
f at
m un
n one
q m
t m
Ġ ?,
Ġw orms
Ġb s
Ġp orn
ed u
Ġto bacco
ĠT ales
ĠT ampa
Ġn ar
Ġre ferenced
ĠI van
Ġg ast
Ġpro c
ĠB rid
ple y
Ġwith drawn
Ġde queue
ĠP ike
ĠR ig
Ġcle ared
ĠL odge
ĠG am
Ġch ore
Ġad versity
Ġele phant
Ġdec ent
Ġend urance
Ġ18 99
Ġref lections
Ġcondition ing
Ġnow here
Ġconsider ably
Ġremain ders
ĠZ ach
gre ater
ĠOr d
Ġaccount ed
ĠPost man
osp ace
ĠRet ail
ĠLog an
Ġ190 2
Ġpull s
ĠWal at
ĠKar achi
ĠTenn is
Ġconcent rate
Ġprev alent
ĠRa iders
appro pri
Ġaband on
Ġca ution
ĠShort ly
Ġincent ive
ĠTrib une
----- |
ĠBrow ser
ĠStrateg ies
FI LE
Ġescap ed
Ġnu anced
ĠPortu gal
Ġreprodu ce
Ġcryptoc urrency
affe ine
Ġgluc ose
F ire
S che
W ed
W arshall
f g
i ya
o C
re ly
Ġc ure
Ġs oc
Ġd ynam
ĠT E
Ġh amb
om o
Ġl ion
ĠI F
Ġst er
ĠS au
ĠC able
um atic
ĠG uest
ĠO p
Ġar ter
os ity
os itory
ult an
Ġset ter
Ġsc ram
Ġout reach
Ġtra gedy
Ġinter f
Ġinstall ations
ĠPro ps
Ġno isy
ĠUn its
Ġbo iler
Ġ& =\\
)) `
alth ough
ĠPl ate
Ġmar gins
ĠZ oom
Ġflo ods
sp ark
Ġperiod ically
45 1
work ing
Ġcam el
ĠCD F
Ġ190 6
sm ith
Ġemphas izing
ĠDirect ed
Ġqual ifications
Ġ`- `,
ĠLL C
Ġhar ass
ĠUlt imate
ĠHard ware
ĠCorn ell
Ġbio informatics
ĠUs age
ĠSche dule
Ġinse ct
Ġdipl om
ĠSac rament
ĠDB MS
ĠArgent ina
ĠCraw ford
ĠAchie ve
! ')
) [
9 44
N R
N ote
P ol
h is
m aps
r ates
in fl
an ical
Ġf ighters
Ġb iodiversity
Ġm arch
Ġd urability
Ġh ometown
Ġg ut
Ġg rief
Ġst ub
Ġhe ct
Ġal lev
lo p
ĠL ed
ĠG em
Ġun stable
ap sed
Ġdef orestation
Ġcomm enced
Ġdo se
ĠK os
Ġ6 000
Ġmy py
Ġam bit
Ġdiv ine
ĠCon stit
ĠSc atter
Ġorgan izes
ah an
à¥ ĥ
pos it
Ġprof iler
Ġ25 00
Ġlab s
Ġspecial ist
Ġleg ally
Ġprevent ed
Ġexc er
}} $,
ĠGra duate
Ġswe ets
ĠHash Set
ĠFin land
Ġrelig ions
Ġcommercial s
ĠFact orial
Sp ring
Ġgovern ance
Ġexceed ing
ĠNet Beans
('/ ',
[...]
