#version: 0.2
i n
Ġ a
Ġ t
r e
č Ċ
o n
h e
e r
t i
Ġ c
in g
Ġ s
e s
n d
o r
Ġt he
e n
o u
Ġ p
a l
i t
a t
i s
a n
Ġ f
Ġa nd
l e
Ġ w
ti on
a r
Ġ in
Ġ o
Ġ b
Ġ d
Ġt o
Ġ e
Ġ m
e d
r o
i c
Ġo f
l y
s t
- -
Ġ re
r a
en t
o m
v e
Ġ y
Ġ A
e c
o l
Ġy ou
i d
a s
o w
u s
a tion
Ġ l
Ġt h
e t
Ġ h
Ġ n
u l
a c
Ġ T
i m
i l
e p
e l
Ġ g
an t
i g
Ġf or
Ġs t
Ġc on
v er
e m
is t
Ġe x
c e
o t
Ġ on
Ġ S
Ġ or
it h
Ġyou r
at e
u r
u n
s e
u c
Ġa s
-- --
Ġp ro
p p
Ġw ith
t er
es s
a g
q u
i r
a m
| >
< |
Ġ he
Ġ C
i f
ti c
re s
a d
er s
a y
a b
Ġa n
it y
Ġa l
Ġc om
u t
Ġa re
r i
Ġ I
k e
s ist
ou t
he r
Ġ is
Ġ P
Ġb y
a in
t s
Ġ en
Ġ v
Ġa c
Ġb e
i p
u re
s i
it e
u m
u d
Ġ Ġ
Ġc h
o d
o re
Ġ (
ig h
ĠA I
Ġ it
sist ant
Ġth at
p l
Ġ us
Ġ E
ation s
* *
tion s
t h
Ġin t
f ul
l ow
Ġ W
Ġ D
at ed
ti ve
Ġw h
Ġp re
m ent
o c
Ġ M
ou r
Ġ F
Ġ B
Ġhe l
Ġc re
a nd
Ġhel p
Ġ R
ra c
p le
Ġa pp
Ġ le
Ġ u
i al
in e
t ep
e re
Ġ un
t ing
i z
r ou
Ġn e
o s
c l
Ġa d
Ġ 1
Ġ im
a p
c h
Ġ H
---- ----
Ġs h
Ġs p
Ġ '
i es
y st
t u
is e
id e
n t
= =
il l
# #
om e
Ġ r
yst em
ac h
Ġc an
Ġth is
ro m
he n
g h
' s
p er
igh t
e nd
Ġa t
S tep
on s
g e
o o
Ġw e
Ġh a
i le
ab le
Ġ G
a re
Ġs u
Y ou
Ġ L
ar d
i v
Ġp ol
Ġ "
al ly
d uc
f or
Ġ 2
Ġd e
al l
l d
ou s
o p
on g
Ġcon t
k ing
c ise
Ġf rom
ĠT he
ent s
o g
an ce
u st
ag e
en ti
c t
t her
Ġre s
Ġp l
Ġhelp ful
k s
Ġcre ated
Ġpre cise
e y
re d
cl ud
Ġs e
i ti
Ġc o
Ġpol ite
ec t
Ġas sistant
c ess
ver y
us er
ant ra
ly a
ĠT antra
s ystem
tu lya
ĠA tulya
as sistant
at ing
c es
ol low
ĠI n
in d
Ġcom p
Ġa b
Ġn ot
Ġ U
Ġc l
in es
Ġ =
u id
Ġ O
Ġthe ir
es t
en ce
e x
l es
Ġp ar
ip s
nd er
f f
Ġf ollow
Ġl i
Ġha ve
Ġ -
or t
ig n
i on
i e
ic al
r uc
ĠT h
tic al
at es
Ġw or
Ġ out
uid el
u e
Ġus e
Ġp o
ou ld
el l
â Ģ
ti v
r y
Ġthe se
Ġ N
ar y
b er
le d
Ġs uc
al s
Ġm a
Ġ j
Ġd is
K ey
rou gh
a v
clud e
Ġt im
Ġa r
ul ar
ve l
b le
Ġh ow
res s
Ġm o
Ġ k
ar i
d i
or y
or s
Ġs ec
m s
Ġd et
Ġe m
Ġu p
r ite
Ġe v
ex t
Ġint o
if ic
an g
Ġp er
Ġ 3
a il
Ġin st
Ġli ke
Ġex am
Ġu nder
on e
at er
ur ing
Ġ if
an s
Ġex p
n ing
f ere
n s
Ġthe y
' .
ac t
Ġ $
Ġex pl
Ġw ill
r ic
Ġun it
t ain
for m
Ġre l
Ġ qu
Ġth rough
e ar
iti es
Ġs c
== ==
Ġm e
Ġim p
Ġst ep
Ġd es
Ġw hen
Ġe qu
Ġac c
he re
Ġo ver
ac e
d ing
a st
ot h
Ġo ther
Ġ ke
uidel ines
Ġb et
Ġf e
ment s
Ġtim e
ĠS t
e g
Ġp rac
ĠĠ ĠĠ
Ġt r
ic h
Ġin ter
ag es
Ġthe m
) .
Ġe ach
ac k
st and
ec h
a tive
ĠTh is
Ġcon s
Ġsuc h
tion al
el f
Ġcom m
w e
Ġcon c
0 0
Ġ 5
Ġab out
Ġg o
f ore
v ing
Ġin c
it ing
Ġit s
Ġs o
Ġm an
n g
-------- --------
Ġ ro
Ġin d
Ġne w
Ġp h
Ġc ol
i ly
" ,
iz e
Ġd ep
n ow
Ġsp ec
ro duc
i re
Ġfollow ing
Ġn um
as e
o se
Ġin v
Ġv al
Ġal low
Ġf un
enti al
Ġo p
y s
il ity
Ġm ore
Ġto p
ar t
Ġt ra
ing s
Ġs im
ti m
Ġan y
l ic
Ġ &
Ġal l
ou gh
Ġre g
ou nd
Ġpro v
an c
le ct
Ġon e
Ġsu b
Ġs ome
Ġ 4
rou nd
u b
ro w
Ġc al
Ġex per
Ġwh ile
si on
Ġd if
w ard
id er
as s
t en
Ġre c
Ġus ing
Ġd o
we en
Ġfor m
Ġre m
oo k
Ġin s
Ġof f
Ġen g
p h
Ġapp ro
Ġt ext
ay s
Ġ very
Ġcom ple
l l
ag ing
Ġv ari
Ġbet ween
Ġre p
on d
u res
Ġne ed
ĠD o
ech n
Ġp ers
Ġ +
Ġd ec
ul t
Ġwh ich
o id
a ke
Ġl ong
Ġ our
Ġin clude
Ġt w
am e
u es
u al
y p
Ġen s
I n
re ad
## #
Ġre ad
' ,
a k
Ġthe re
ic e
Ġ ra
Ġe very
Ġunder stand
Ġc ur
Ġsec tion
en g
ile d
Ġke y
re e
a ti
i red
Ġ Y
it s
Ġb ut
Ġk now
as ed
Ġm od
v es
Ġe as
g et
ri b
ĠH ow
is h
Ġst r
W rite
et h
Ġdis c
ar k
Ġa m
c ul
a iled
Ġt echn
he s
p ec
Ġd uring
Ġw r
Ġpro cess
v oid
Ġ \
o y
i qu
c ome
Ġim ages
Ġexam ple
Ġwith in
T he
c tion
Ġw here
ĠF or
Ġdet ailed
Ġo b
Ġdif fere
ri end
en c
res ent
Ġb oth
ĠC on
ol og
ou nt
e ver
Ġm at
Ġre qu
Ġe ff
Ġb ec
ĠE x
ra tion
Ġad v
Ġwith out
er m
Ġm ay
i ve
Ġtop ic
Ġs k
Ġs ign
in t
i a
Ġs ol
Ġad d
f t
Ġg ra
Ġconc ep
y le
Ġt e
Ġtw o
il d
Ġm ain
ir st
si ve
s s
o od
Ġpar tic
Ġc or
Ġf ind
) ,
Ġch ar
Ġ K
en s
Ġh as
n ce
ĠC h
ĠT ips
ver s
Ġ V
ap ter
Ġwh at
i ons
ow n
Ġ J
ve red
ul ti
Ġapp ly
Ġprac tical
ot her
Ġas s
a us
Ġth an
o st
Ġs et
Ġch apter
ĠW e
Ġinst ruc
Ġs m
e f
oc us
at h
Ġbe fore
Ġle ar
em ber
i ence
ol d
' t
ĠA d
he d
iv id
Ġ 6
Ġf riend
Ġdep th
u p
Ġg u
er ing
read y
h ie
ti l
Ġpro duc
s o
Ġ âĢ
Ġal ready
Ġres p
Ġac hie
ent ly
Ġwr iting
ĠC om
Ġsh ould
ĠY our
Ġa g
Ġc le
Ġspec ific
Ġst ud
Ġd ist
on om
ac ter
Ġwh o
w or
n ess
m a
t e
Ġs er
or ial
n e
Ġg en
f ter
si ons
Ġco vered
if e
pp ort
vel op
Ġw as
an ge
t y
er g
Ġb u
ĠĠ Ġ
l i
Ġt it
enti f
n it
Ġt ut
b ers
Ġp ot
Ġst yle
cl us
e ad
em ent
Ġpers on
==== ====
ĠIn clude
Ġtext b
H ow
Ġtut orial
ow er
g an
Ġm in
ic s
Ġ **
: **
Ġre f
Ġpo si
ĠB y
ic k
Ġt yp
Ġp r
W h
ĠG uidelines
Ġ |
al th
u le
Ġn o
roduc tion
ĠS tep
Ġt ips
Ġma ke
ation al
Ġe nd
Ġf l
ic i
Ġcons ider
Ġtr ans
Ġstep s
Ġg uidelines
ĠA pp
Ġinc re
Ġpro f
Ġeas ily
i k
Ġhelp s
Ġl oc
ĠI t
s elf
Ġcal cul
ĠP ro
Ġ x
Ġcomm un
Ġc he
h ip
i b
ate g
u tion
ĠA l
d s
Ġcon f
. ,
Ġvari ous
Ġs ystem
ti ce
ere st
ns ure
ĠI f
i el
p s
ec ess
Ġwor k
ou n
ore d
Ġm ulti
in ing
Ġread ers
o b
p or
Ġh igh
W e
Ġin form
Ġle ad
Ġachie ve
Ġb l
Ġpre v
Ġdes ired
Ġinv ol
Ġal so
Ġmain tain
v ed
Ġdiffere nt
ĠE nsure
Ġpl ay
ic ation
Ġf irst
ar ity
in al
Ġcomple x
Ġb ack
A A
ĠâĢ ĵ
Ġat t
at a
Ġch all
Ġallow ing
Ġinstruc tions
Ġnum ber
Ġexpl an
eth od
Ġs ur
ate ly
ec tive
an ces
o ve
Ġd i
le c
Ġp e
at her
Ġcre ate
Ġchar acter
ie w
et s
Ġle t
Ġd own
Ġc ap
di tion
Ġpro m
Ġind ivid
v en
Ġf act
ter n
c c
Ġexplan ations
ik i
ab ility
s es
Ġc ould
Ġunderstand ing
Ġprov id
iz ing
p t
Ġre al
Ġeng aging
oo ks
Ġs a
o ol
Ġint erest
Ġan other
Ġ 7
Ġint eg
Ġs ch
Ġgu ide
ut e
re at
en ces
at ure
Ġa void
Ġ2 0
ti es
l ine
ar ch
Ġev en
ro ss
Ġc are
Ġex t
Ġyour self
oo se
Ġg row
ĠA s
Ġpartic ular
ĠA n
d u
re ate
Ġin f
Ġrel ations
Ġen c
Ġs oc
ater ial
Ġp os
iki How
} {
re n
al ity
Ġcl arity
Ġout come
Ġhe alth
ur al
ward s
Ġm ight
ec tion
Ġw ater
Ġ id
Ġde velop
ar ly
ĠU se
Ġ ent
ĠB e
ach ing
ĠThe se
Ġl ine
ĠW h
Ġpractical ity
igh ts
Ġv is
Ġw ell
uidel ine
Ġchall eng
Ġpot ential
in ess
Ġac tiv
$ $
w ays
Ġb r
Ġh and
as es
Ġfe el
ĠR em
re hen
ud ing
i ous
Ġe c
ĠW ikiHow
Ġens ure
iz ed
a x
Ġin l
ab l
Ġa round
Ġinl uding
o ver
pl es
Ġd em
Ġf ocus
w n
Ġn ecess
f rac
it le
or ies
Ġt ail
Ġcon n
Ġm ethod
Ġtit led
Ġde ep
Ġ ess
Ġw ould
Ġin clud
Ġb ased
od y
Ġd ata
i x
Ġan al
Ġsign ific
Ġd ire
Ġimp ro
Ġle vel
Ġg iv
C on
ar m
g in
' re
Ġde f
Ġm on
Ġbe h
Ġor gan
Ġexp res
iqu e
s ing
Ġre se
Ġm ed
di tional
tic s
ic es
ec ts
Ġpro per
or d
Ġe le
ur n
j ect
e ep
E x
our n
enc y
Ġt one
ill s
Ġal ong
aus e
ra m
a ir
Ġfriend s
ĠC ons
ess ion
in ts
c tions
for t
in k
Ġprov ide
ful ly
Ġm aterial
a king
Ġequ ations
in ce
T itle
Ġ1 0
g g
Ġman y
ur ther
Ġhe r
y ing
Ġph ra
Ġh ist
Ġc ar
ou ra
Ġ *
Ġimp ort
nt roduction
Ġsm all
Ġappro ach
Ġrem ain
ĠW rite
Ġp ri
our ces
led ge
Ġpar t
Ġth ose
Ġcon sist
am es
Ġsuc cess
t ure
Ġess ential
Ġ 8
Ġthe n
Ġlear n
a w
y m
e w
Ġinform ation
rehen sive
si ble
ant s
âĢ Ļ
Ġse e
Ġ ide
Ġfun ction
Ġf ound
ĠHow ever
t ed
Ġb re
c k
Ġval ue
Ġa fter
Ġtail ored
p ly
Ġma king
ĠT o
in c
Ġbe gin
Ġsignific ant
Ġd ue
Ġcon st
Ġ You
ĠH ere
Ġphra ses
iz ation
Ġw ay
Ġac cess
s er
are d
in ation
Ġl ife
Ġother s
at ter
end ing
erg y
Ġec onom
t o
Ġpro g
el s
ad e
Ġst re
ĠE ng
tiv es
-- -
Ġgen er
ar ing
Ġj ourn
Ġd el
Ġp ur
Ġcont ent
p ut
d e
Ġs l
Ġh is
iel d
Ġev ents
n ces
Ġf ac
Ġth ough
ab les
Ġl ist
Ġ 0
at ures
Ġpl an
Ġdes ign
Ġl ess
r ate
Ġthrough out
Ġconcep ts
c om
in s
Ġunit s
o ple
ar s
Ġexper i
Ġar tic
is ion
i or
Ġconcep t
Ġperson al
Ġm ark
" .
re nt
Ġme as
Ġint roduc
Ġe t
re ct
Ġpro ble
Ġl ight
Ġapp les
ĠS h
ĠR e
Ġf in
ĠK eep
Ġke ep
Ġapp lic
Ġg et
ĠP l
ĠT ip
Ġr ight
ir on
Ġg rou
Ġstr ateg
he ma
e ed
ic ally
get her
Ġto gether
olog y
ĠRem ember
Ġop en
o f
or ing
Ġs he
Ġm em
Ġf am
Ġch ild
Ġ ver
or ding
Ġe l
ruc ial
Ġb el
Ġsu pp
Ġex c
l ess
d ay
Ġco st
h ips
T h
ti t
clus ion
Ġper form
Ġte aching
Ġsch ool
et y
Ġco ver
iqu es
ust om
Ġnecess ary
Ġto wards
n er
Ġknow ledge
Ġc rucial
z e
Ġmo st
a ve
ati s
Ġn ow
r on
Ġinclud ing
Ġ1 9
Ġcont in
v iew
anc ed
Ġd ra
o x
Ġg l
Ġposi tive
Ġl ar
Ġt er
Ġup on
em s
Ġrep resent
Ġprof ession
Ġch ang
Ġy ear
Ġp ower
pl oy
Ġd ay
i ble
ere d
Ġsim ple
ent al
Ġen h
t al
Ġc ri
C reate
i ed
in ed
Ġp op
Ġe lect
Ġover all
I ntroduction
Ġyou ng
ver se
Ġcont rib
is m
Ġst and
u nd
Ġs it
v iron
Ġof ten
uc h
Ġnum bers
Ġtextb ooks
id es
Ġeff ective
T o
l ing
Ġdet erm
Ġres ul
p ri
ĠE n
Ġpe ople
rac t
Ġac ross
a pp
\ _
Ġa im
Ġj ust
Ġval ues
er tain
Ġo wn
us h
Ġag ain
Ġw ant
. .
Ġon ly
Ġt ake
Ġst ruc
Ġth ree
id ence
Ġun ique
m er
Ġgrow th
Ġcle an
Ġen ergy
as ing
Ġc ir
## ##
Ġt ry
it al
Ġartic le
Ġs ure
Ġun til
Ġwor ld
Ġpro t
Ġa ud
t ory
Ġto ol
Ġsh ow
Ġexam ples
Ġinter ac
ĠR es
Ġcur rent
Wh at
Ġne g
Ġ ve
ut es
Ġdire ct
oc i
Ġw he
v al
Ġsh ap
og n
p i
Ġhe ad
ĠW ith
Ġus ed
Ġb ody
Ġl im
Ġcomp rehensive
Ġhist ory
Ġmat hema
2 0
b s
du ce
x im
Ġcalcul us
' ll
Ġmo ve
G uideline
Ġcomm on
Ġid entif
Ġstud ents
Ġsa f
Ġsk ills
Ġtechn iques
Ġdo es
Ġallow s
ang u
Ġp resent
ot s
Ġin iti
ro l
Ġa ut
Ġbeh av
Ġreg ard
Ġrese arch
Ġfact ors
Ġem p
Ġse ver
ter s
Ġ <
Ġqu es
Ġt em
il ities
Ġa w
tiv ity
us iness
le x
Ġresp on
Ġst ra
ĠU nit
Ġsoc ial
i od
Ġam ong
Ġre t
Ġpo int
ĠA void
or ous
nder stand
ĠThe y
Ġapp ear
Ġw ere
Ġc ent
Ġf urther
Ġgiv en
Ġbet ter
Ġen viron
pport un
ĠCom p
B e
Ġbe ing
Ġcor rect
Ġimport ant
ĠI m
Ġre le
re p
Ġm us
Ġto o
Ġcont ain
N ow
Ġsever al
end ed
** :
c le
ĠW hen
Ġindivid ual
oc k
ĠS e
tu res
Ġintroduc tory
Ġs elf
fere nces
Ġare a
Ġlear ning
ub lic
Ġtextb ook
ig orous
Ġ 9
Ġis s
Ġexpres sions
Ġ čĊ
j ust
Ġe y
b y
Ġre duc
u ally
Ġph ys
Ġc ustom
Ġn ar
a u
t le
ĠS c
Ġb al
b ra
1 0
le ar
Ġa v
Ġp ress
angu age
Ġreg ular
Ġdisc us
Ġb en
j oy
Ġpri or
inc ip
ĠUnit ed
Ġactiv ities
Ġenc oura
Ġexperi ences
Ġgo od
Ġem o
li ed
i er
Ġimpro ve
m on
Ġf ul
Ġ es
Ġan im
Ġc ell
ot e
Ġo cc
Ġter ms
g ing
ĠSt ates
ĠĠĠĠ ĠĠĠĠ
Ġcom b
Ġst art
ab or
ĠS p
Ġcon vers
Ġpos sible
f er
Ġacc ording
Ġcl ass
Ġset ting
Ġp ric
Ġf ield
Ġd iv
t he
Ġsu pport
Ġan g
Ġwhe ther
ĠCons ider
Ġch o
ten tion
Ġf il
pl an
Ġo pportun
Ġequ ation
Ġcal led
Ġele ments
---------------- ----------------
Ġtechn ical
eng th
um e
on st
Ġare as
Ġm ind
Ġmin im
p on
d er
Ġfun ctions
v ices
as h
Ġm ag
g es
Ġme an
Ġrequ ire
Ġinf l
el come
ag ement
Ġha pp
ect ed
i res
Ġst ory
Ġmod ule
ly ing
ĠM ake
om m
Ġs um
Ġneed ed
======== ========
r u
Ġbec ome
Ġ20 1
Ġprev ent
ul ation
ra tive
ra ph
Ġe ar
ĠD e
Ġspec ial
Ġ ill
Ġinst ead
Ġs qu
abl ish
if y
Ġn at
Ġmulti ple
Ġc our
Ġf ost
Ġav ail
ĠP o
t ext
B y
ad em
ĠA c
se qu
Ġexper ience
Ġre st
i os
Ġappro pri
tic ally
wor k
Ġ est
Ġs ince
Ġb est
Ġrelations hips
Ġh um
di tions
Ġa ff
al ing
Ġchalleng ing
Ġadd ress
Ġrel ated
Ġ z
Ġcol or
ail s
Ġit ems
s c
Ġstr ong
Ġl anguage
v ice
Ġle g
Ġconc er
Ġsit u
d ep
Ġpo ints
Ġass oci
Ġl o
om es
Ġg re
u als
âĢ Ķ
Ġform at
Ġem ploy
Ġch ange
il i
r al
en se
c i
Ġbec ause
plan ation
Ġex ist
il ding
t on
Ġregard ing
Ġo per
Ġchild ren
Ġm ust
ut ure
ĠE m
al e
ys is
Ġneed s
ti f
Ġprac tic
Ġn ames
u tions
Ġt re
Ġs ame
Ġcharacter s
Ġexpl ore
it able
O nce
Ġprac tice
Ġt ri
Ġb as
Ġde b
ro p
Ġinteg ration
Ġs om
pl ic
Ġp res
Ġen joy
Ġlevel s
Ġneg ative
ir m
at ch
id d
U nit
Ġexpl ain
Ġro le
Ġb usiness
Ġob j
Ġst ar
Ġf ood
Ġor ig
g er
Ġm et
Ġsc en
Ġat tention
an e
Ġaud ience
Ġp ati
Ġsp ace
Ġd ates
ĠR eg
at or
Ġcommun ication
em ents
Ġac adem
ec tions
or m
Ġn on
Ġm uch
um p
Ġon line
ĠF ocus
Ġchang es
Ġenviron ment
y n
Ġt ip
ak es
Ġd en
Ġr is
e k
eth ing
Ġper iod
Ġr ather
Ġpro of
Ġf re
atter ns
Ġens uring
Ġsh ort
Ġd on
Ġt as
Ġ Key
k es
Ġim ag
Ġto tal
Ġpr im
{ \
Ġagain st
Ġval u
is tic
e qu
ĠEng aging
Ġcont rol
Ġstre ng
m ed
Ġmathema tical
AA AA
Ġc aus
r ing
Ġ i
Ġha ir
b e
Ġal ways
Ġbe en
Ġsec ond
Ġ Q
dep th
Ġsom ething
Ġtim es
Ġl ook
Ġinst ance
Ġex er
at s
Ġcre ating
on ents
Ġc ertain
. "
Ġp ublic
ac ks
Ġres ources
Ġs ide
l ines
_ _
Ġsur f
ĠS et
Ġeff ici
anc ial
ap er
ol ution
il ar
Ġv ol
Ġmark et
i o
Con clusion
Ġben ef
os ing
Ġb ra
Ġh our
ep t
Ġob ser
ard s
Ġpre p
Ġcom e
Ġcom fort
ĠA t
ĠCh oose
Ġcle ar
Ġop tim
Ġnar rative
Ġknow n
Ġacc ount
ac es
Ġoff er
Ġf rac
is c
Ġresul ts
Ġm ade
Ġtyp e
or por
Ġsim ply
Ġ /
Ġd am
Ġre ac
Ġoff ering
Ġgra ph
ri es
Ġtool s
Ġp atterns
Ġe d
ĠP rac
Ġques tions
Ġl iv
Ġsh are
dition ally
Ġstrateg ies
Ġbehav ior
Ġbu ild
Ġpl ace
tu al
Ġe f
Ġp i
Ġh ad
ĠCon t
Ġmethod s
ĠS o
Ġl it
Ġavail able
ĠR ec
Be fore
Ġh ome
Ġs ym
ĠH e
ar ies
op e
ios ity
00 0
tim es
Ġindivid uals
Ġide as
Ġcol le
Ġf uture
Ġtyp es
Ġop tions
ic ate
Ġl ay
av ig
Ġcri tical
) :
b ility
Ġl ength
Ġacadem ic
Ġsystem s
Ġmaintain ing
Ġc r
Ġs ti
ĠS u
an y
Ġh y
pl ay
Ġcon ditions
I f
Ġrelations hip
Ġresp ect
Ġmeas ure
Ġcur iosity
Ġrequ ires
an k
ĠApp lied
it her
Ġres ult
ic ro
ri p
Ġd id
Ġgo ver
incip les
olog ical
is hed
Ġwor ds
ĠU nderstand
Ġs w
Ġnat ural
Ġproof s
Ġad ditional
Ġloc al
Ġon es
Ġassoci ated
Ġrem ember
mer ic
al k
am ple
Ġf ree
Ġins ights
ech an
it ed
ĠR igorous
Ġiss ues
` `
si tion
Ġen ti
w er
Ġdem onst
om s
Ġgrou p
ĠP h
Ġproduc t
Ġchalleng es
ĠC l
Ġbegin ning
ĠT ry
z ing
b r
Ġfam ily
Ġvalu able
ul es
Ġt rac
o ot
Ġad just
an ti
pec tive
en ing
Ġinvol ves
v ant
i tion
Ġc ount
Ġpi ec
Ġexper im
Ġle ft
Ġs al
Ġthough t
Ġappropri ate
Ġd a
ĠI nt
Ġsim ilar
Ġopportun ities
Ġp ass
Ġd ri
A s
Ġl og
oc um
Ġeffective ly
Ġf und
av ing
Ġn et
Ġinfl u
od e
x t
c hes
Ġcl ose
lec ting
} }
p o
Ex planation
oo king
pi ration
s ide
Ġexp ress
Ġl ines
Ġprovid ing
ar get
st ead
ĠWh ile
lear ning
Ġeconom ic
f ect
Ġtry ing
Ġanal y
Ġcomple te
Ġv ia
o v
Ġequ al
o h
Ġh ig
ous ly
Ġits elf
i an
Ġen ough
her s
Ġm ar
Ġgo als
pec ts
Ġtem per
Ġevery one
ĠL et
Ġpol ic
Ġqu ick
Ġmaterial s
clus ions
Ġphys ical
Ġimp act
Ġadv ice
S t
ĠAd ditionally
ĠU n
d entif
nd s
is es
Ġscen ari
Ġeng age
ĠS ome
Ġstra ight
er n
l o
Ġevery day
Ġne xt
Ġproble ms
Ġincre ase
Ġme et
Ġsk in
Ġdra w
Ġal ign
â Ī
Ġne ar
Ġst at
Ġt reat
Ġpo st
id s
Ġn ame
ec ting
om ial
Ġsub ject
Ġcontin u
Ġnum er
Ġform ul
Ġlead ing
Ġp ay
ĠA meric
on es
Ġ$ \
ti tu
Ġcon clusions
Ġsignificant ly
Ġso ft
ff ici
is ions
Ġins piration
av or
at ors
Ġ er
Ġa ir
Ġm is
ĠT r
Ġsu itable
om in
Ġs ides
th ing
Ġfe atures
Ġ [
Ġr un
Ġd ig
ou se
Ġlar ge
ĠA r
Ġh or
Ġtr ust
Th is
ĠW or
Ġaw ay
Ġmem bers
Ġl aw
Ġdist rib
Ġth ings
Ġcour se
or ough
Ġinc orpor
Ġsm o
ra y
Ġgo al
Ġacc ur
Ġposi tion
p ect
p ort
re t
Ġw rite
m y
ir ical
Ġformat ting
Ġab ove
ĠA cc
Ġl and
Ġocc ur
Ġs n
Ġfre qu
ĠThe re
Ġill ust
Ġdirect ly
Ġtra ditional
w are
il it
Ġprofession al
Ġmin utes
Ġdevelop ment
as on
n y
Ġfin ancial
e ti
ili ar
Ġanal ysis
res ents
ra p
Ġf low
ot es
fere nce
Ġprev ious
av es
$ .
ĠPrac tice
Ġt arget
r ight
Ġwor king
Ġperform ance
anc ing
Ġproble m
ge bra
im e
Ġjourn ey
Ġproduc ts
Ġme ans
m un
Ġcon ver
ĠĠĠĠ ĠĠĠ
v r
m e
Ġqu ality
Ġbal ance
Ġt erm
Ġj o
al u
ti g
Ġhe re
Ġsc i
Ġsti ll
Ġma kes
Ġrep resents
Ġm echan
Ġcol l
ic ial
Ġret urn
om et
le ep
Ġal tern
l ies
Ġinv es
Ġy et
Ġdes c
ar c
ple ment
Ġwor ks
Ġre view
ib ility
Ġpop ular
Ġac tive
ul ations
Ġanim als
Ġs ize
Ġe ither
all s
1 9
ĠAl ways
Ġg ain
he ck
Ġprovid es
Ġon to
ĠP er
Ġas pects
} \
Ġtra de
ce ed
Ġbu ilding
Ġrec ent
Ġrequ ired
5 0
Ġb ase
Ġb i
Ġte am
ĠO r
Ġb ro
/ /
or ts
ain tain
if t
Ġs ing
Ġm ess
Ġinter n
ure ly
Ġ2 00
Ġdem and
Ġens ures
ud e
Ġsome one
ĠC ol
Ġda ily
Ġon ce
Ġpartic ip
Ġem b
re ci
Ġrec ogn
Ġsu gg
Ġb o
ell ing
^ {
ĠS im
c ed
Ġev alu
ĠReg ular
Ġenti re
Ġab s
ĠL ate
i um
Ġstruc ture
oun ter
Ġdeterm ine
g en
ac y
Ġhour s
Ġhig her
Ġch oose
Ġm en
Ġet c
Ġdep ending
w elcome
Ġg ame
pp ing
Ġpl at
Ġd ry
Ġr ate
Ġcor res
Ġadv ent
Ġd ed
Ġm ix
Ġu til
Ġconst ruc
Ġcir c
Ġgrou ps
Ġprog ress
Ġr out
Ġcomp onents
ol ving
it es
res sion
Ġc ult
Ġinv est
Ġp ain
$ ,
er y
Ġad dition
ear ch
am p
Ġc y
Ġm om
ĠLate X
an n
is ms
m ing
Ġex cess
1 2
ĠO pt
ist s
med i
a tives
Ġcare fully
Ġtit le
Ġse lect
r or
A n
Ġst atis
Ġref lect
Ġpur ch
D o
Ġmod el
Ġfe ed
Ġadv anced
Ġinterest s
Ġcost s
Ġp aper
Ġsur round
idd le
Ġn avig
Ġre ce
olog ies
Ġidentif y
our ce
Ġdec ision
ĠO p
Ġdif f
C h
b ased
Ġ1 2
Ġst ress
ang le
Ġorig inal
ĠI nd
Ġcommun ity
Ġwh y
Ġar c
ep ar
yn am
Ġpractic es
os en
Ġiniti al
Ġe duc
Ġf our
Ġc ut
is ing
Ġwe bs
Ġconsist ent
Ġexc iting
om ing
atis f
Ġapplic ation
un it
ĠO ne
Ġmean ing
ĠR ep
it or
Ġd er
iel ds
Ġgover n
Ġbec omes
Ġint roduction
Ġ1 8
og raph
op h
os ed
Ġh arm
ram e
ig ure
Ġma xim
ĠU sing
Ġins ide
Ġsurf ace
s p
ĠM ore
ut ing
Ġh ard
om en
im al
* :
ĠB ut
ĠM e
oun ts
ĠD es
Ġenh ance
Ġche ck
Ġp are
Ġth orough
Ġs ources
Ġyear s
Ġac tion
o on
re en
Ġincre asing
Ġpress ure
th s
ac hes
ap s
dentif y
Ġemp irical
res h
Ġg uid
ir ing
os s
Ġpre d
om p
Ġscenari os
et erm
b ack
Ġl ow
Ġl ast
Ġtrans form
ĠE qu
ers on
Ġv iew
Ġhum an
ord in
ĠF un
p ite
Ġt en
Ġre duce
Ġstar ting
Ġh al
Ġf ore
n ers
iti ze
Ġprofession als
Ġremain s
g o
Ġfind ings
Ġper fect
le ction
1 8
Ġd ocum
Ġra di
Ġb ound
Ġad ding
Ġcell s
Ġcont act
Ġb ot
as c
ĠA lex
is s
Ġline ar
er o
Ġsch ol
ĠA nd
Ġvis ual
Ġconn ections
Ġinvol ving
Ġcl oth
Ġe arly
Ġ {
Ġsp e
e e
Ġshap e
Ġam ount
Ġey e
Ġapp reci
eg in
Ġtas ks
cl es
Ġl ower
Ġdi verse
Ġb ond
Ġp ath
s h
ĠC reate
Ġapply ing
ight ly
ĠO n
Ġind ust
Ġful l
Ġexpres sion
Ġrele vant
ind ow
ĠM aintain
Ġs epar
Ġr ates
Ġpati ence
Ġg round
ĠF in
Ġpo ly
Ġn ature
Ġs atisf
Ġst ay
Ġw arm
ĠAd d
Ġmon ey
tim e
-------- ----
Ġ$ $
Ġw a
Ġconcer ns
Ġcomm it
Ġorgan iz
Ġstud y
Ġha ving
Ġsqu are
at ory
Ġsuccess ful
Ġw ays
Ġprocess es
ur ity
Ġcontrib ute
Wh y
l ight
i ent
Ġn ut
Ġf inal
oun ting
es ts
pec ial
Ġavoid ing
Ġd ynam
Ġse em
t t
Ġsaf ety
ch ing
ĠP rep
Ġt urn
a tic
or ation
Ġpric e
Ġconst ant
Ġsol ution
u g
Ġfind ing
Ġr ange
A d
Ġsp eed
Ġformul a
for ms
Ġ >
sist ance
Ġt aking
ĠN ew
Ġmed ia
Ġrec omm
Ġapplic ations
Ġr ules
c on
Ġfor ms
ĠTh at
id ent
Ġpre ferences
vers ity
he ad
Ġpr inciples
Ġsol utions
Ġhealth y
ast e
ĠWh at
Ġfocus ing
L et
Ġest ablish
Ġbas ic
Ġpar ts
Ġfeel ings
Ġbe y
Ġbey ond
Ġsing le
Ġ .
ap e
ĠO nce
Ġinstruc tion
Ġev idence
as tic
) ^
Ġexp ect
iz es
Ġs un
Ġsmo oth
Ġind ic
Ġph ot
Ġem erg
W hen
( \
ĠDe velop
Ġma st
Ġch osen
ĠM an
: *
e le
c hed
Ġwho le
Ġsu per
Ġsaf e
y th
q q
Ġche m
c tional
en ess
ab ly
Ġg e
Ġj ob
Ġinves tig
Ġh old
ar g
Ġser vices
Ġoptim al
ĠN ow
Ġto ys
ap t
t a
entif ic
Ġtyp ically
Ġg r
p ro
n omial
Ġor der
ĠS ystem
Ġsmall er
Ġless ons
ĠA fter
Ġregular ly
Ġm iddle
Ġfor ce
ew is
y l
Ġv ide
in king
ĠM ich
Ġsetting s
a el
Ġs leep
Ġdec isions
Ġd u
r t
Ġk ind
Â °
ĠD ec
ĠR ef
ag ine
ĠP ar
Ġass ess
Ġs ound
m is
ĠM on
Ġf it
im en
ĠL ewis
du ally
Ġc ase
Ġeas y
ĠH app
Ġth ink
Ġf ace
Ġde g
Ġh im
Ġder iv
Ġw alk
Ġt akes
Ġin put
it ation
en e
Ġre ach
Ġlar ger
ir d
Ġbre ak
Ġc ateg
Ġexpl oring
c are
Ġdet ails
ĠMich ael
Ġob tain
ti se
ĠS k
Ġinter p
al ities
g round
Ġbel ow
Ġc ul
Ġar g
Ġp at
Ġsh ared
Ġre ve
l ife
Ġp urely
Ġillust rate
Ġrese arc
Ġfac ilit
h ib
Ġc ause
Ġtemper ature
ur y
r ating
Ġqu anti
p r
m ore
Ġinterac tions
Ġbenef its
pec ific
Ġsub t
Ġthe ore
r up
k now
Ġcolle ge
lo ad
m it
Ġincre ased
Ġs ay
Ġbel ie
Ġt est
Ġman agement
Ġhead lines
ot ing
ast er
Ġl ater
o le
Ġup d
ĠB u
i ke
s u
Ġprovid ed
q rt
ĠA ss
Ġactiv ity
Ġevery thing
Ġhe at
Ġris k
a f
Ġcover age
Ġresearc hers
Ġse arch
Ġquick ly
Ġle ast
Ġdist in
tim ately
Ġloc ation
Ġev ent
Ġcom es
Ġmo ving
Ġcomplex ity
im in
Ġint ended
Ġg reat
ep end
Ġsim pl
ĠT ra
Ġm y
Ġproper ties
g le
Ġst ate
ari ly
Ġsh aring
Ġstatis tical
Ġdam age
Ġlim it
ffici ent
Ġf rame
Ġfund am
Ġb row
ĠEx per
ti al
m in
Ġo il
> >
re l
ic t
Ġexper tise
b ol
Ġeas ier
Ġs low
ri ve
Ġf avor
' ve
F or
Ġsci entific
u ter
Ġsub st
Ġsol id
ul ate
hed ule
igh ting
Ġappro xim
ative ly
Ġint ric
Ġgre ater
Ġo ld
Ġext ra
st ablish
ĠG u
ĠI dentify
Ġsitu ations
Ġin n
Ġo pp
and s
Ġb ar
ou ble
Ġ `
p ar
Ġcol ors
por ary
Ġh ab
Ġ1 5
ĠO ver
Ġar r
Ġtrac k
ĠRes earch
Ġco ol
= \
o res
Ġman age
Ġpro ceed
Ġpiec es
ra ms
Ġpre fer
au ti
i ety
en er
Ġcomp ared
Ġdist ance
ĠB l
i ents
c ent
pp ed
ar r
ough t
Ġcomfort able
id ing
Ġsol ve
âĢ Ŀ
Ġdeb ates
Ġu nd
Ġtr ue
j ects
Ġhal f
il es
Ġmod els
ĠF ollow
h or
st s
Ġwe ight
Ġhy d
al cul
er v
Ġan s
Ġd og
Ġp air
Ġab ility
ĠG ra
if ied
) )
ĠL e
ĠO ut
iv al
b o
I m
Ġdiff ic
ud get
Ġfrac tions
Ġp ast
1 5
Ġc op
Ġatt em
Ġpri v
Ġvari ables
Ġfact or
Ġcare ful
Ġb ox
_ {
el ves
Ġhigh ly
ĠEx p
up s
Ġg ently
Ġab le
ĠO b
for ts
Ġaccess ible
Ġaccording ly
Ġstand ard
Ġpers ist
Ġwor d
com es
Ġproduc tion
end s
Ġdeep er
n ot
wor ks
or ting
Ġemo tional
iz on
Ġang le
Ġa ge
p ose
Ġbr ing
Ġdef in
Ġsurround ing
m et
Ġfound ation
Ġf ive
u ine
Ġm ir
Ġv ary
Ġfriend ly
im ent
i et
Ġc ra
Ġc ross
li ke
Ġbot t
Ġrespon si
Ġbeh ind
le t
ĠMore over
Ġcontin ue
Ġprim ary
Ġse qu
Ġus ers
Ġas k
Ġoff ers
c ep
Ġg ive
Ġinvol ved
ĠU til
Ġac tions
Ġsitu ation
Ġstruc tures
Ġef forts
Ġincorpor ating
be ing
Ġrequire ments
Ġh on
Ġencoura ging
ĠM od
ĠAn al
Ġl ove
oo gle
Ġd ivid
ĠI s
, "
Ġresul ting
os ure
ro ll
Ġf ru
6 0
in ter
Ġm ass
Ġexist ing
ĠC le
Ġjourn al
st ruc
pecial ly
ĠRegular ly
enc ies
en si
ĠG uideline
ĠâĢ ľ
ph as
Ġconf idence
ob al
w here
Ġcomp eti
ĠS ec
ĠD on
Ġcons um
Ġincre ases
Ġs ent
er ful
Ġout comes
Ġhe ight
Ġcre atures
ĠP ol
Ġim medi
st ep
Ġdo ing
ĠO ff
if ying
or n
Ġser ve
Ġc at
Ġnut ri
for ward
Ġl if
Ġemo tions
ĠE ach
Ġd ays
Ġthough ts
he l
Ġnot e
rac tion
Ġfundam ental
Ġexer cise
ĠUnderstand ing
Ġt ax
u gg
Ġes pecially
Ġh ol
} $
Ġcre d
t hen
Ġappear ance
Ġdesign ed
Ġey es
Ġstraight forward
rac y
Ġex act
ĠD is
Ġrel ax
Ġt ur
ra tions
Ġm ental
Ġfeed back
ĠF urther
Ġcon duc
plic ations
Ġre d
Ġexp and
ens es
Ġcoll abor
Ġobj ects
S o
Ġm ut
Ġ( $
Ġmeas ures
Ġsum m
Ġar t
m ath
r ated
Ġf oot
Ġen ables
Ġex ten
Ġtr an
A fter
Ġsl ightly
y les
Ġlearn ers
Ġtra ding
Ġadvent ure
Ġwhen ever
le ft
Ġfun ctional
Ġdeep ly
Ġpro te
: //
Ġro om
Ġexam ination
Ġcap tiv
Ġunder lying
Ġbre ath
âĢ ĵ
tive ly
w w
Ġ3 0
iliar ize
ol ve
Ġcont ext
ĠIn stead
Ġdistin ct
Ġto day
Ġim plement
Ġimag in
Ġsh o
ar king
f act
p art
Ġlearn ed
es ting
Ġus er
ĠAmeric an
tern al
oura ge
Ġes tim
sequ ently
â Ĥ
Ġeff ects
ver age
Ġcomp any
ish ing
< /
ĠP resent
U sing
Ġz ero
j or
it er
Ġparticular ly
Ġprom ote
Ġtra vel
Ġc ard
ĠF ind
Ġwe ek
Ġappro aches
Ġplat forms
Ġplay ing
o ti
Ġbl ood
ub s
Ġlit tle
tic k
ab ilities
Ġgen uine
Ġsn acks
ac tion
Ġcalcul ate
in y
ter m
ra tic
Ġrem o
ĠQ u
enti ally
i ber
Ġg ames
Ġsuccess fully
Ġdiscus s
Ġpol i
Ġgener al
ill ing
ĠM ulti
Ġsp ark
Ġexpl oration
Ġt ou
Ġfe et
Ġt able
Ġef fort
op s
e at
Ġf resh
Ġ Z
b on
Ġpl ac
Ġtr ig
Ġnumer ous
Ġexpect ations
Ġsome times
Ġinn ov
Ġc and
ĠTh rough
Ġminim ize
Ã ©
pon ding
Ġser vice
ĠF am
Ġspecific ally
Ġel se
Ġstud ies
Ġc art
Ġconvers ations
li er
Ġde vice
Ġ ul
ĠU p
Ġid enti
Ġeconom ics
ĠIn ter
Ġg ather
Ġreduc ing
Ġdesc rib
om ain
Ġser ies
`` `
Ġl ab
ĠHapp y
Ġinterac tive
Ġr ule
Ġplan ning
Ġliv ing
ĠPro per
Ġb ig
Ġdis play
Ġdisc over
Ġexperim ents
Ġdi ag
Ġtra ining
Ġvol ume
Ġhor izon
Ġd r
Ġfost ering
n ts
Ġra ti
Ġ X
Ġres pective
Ġv ir
tic ip
P ro
s qrt
AAAA AAAA
re g
Ġthe ories
Ġp ow
Ġf ar
Ġcustom er
pl ication
h old
Ġmo tiv
Ġdiffere nce
os p
Ġhow ever
ol l
h ood
y ear
Ġcho ices
Ġext ract
Ġden omin
Ġfor ward
ĠE stablish
a res
ang ing
Ġbro ad
Ġimport ance
Ġpro por
pp er
Ġc ode
Ġout put
eterm ine
Ġout side
Ġis n
y nt
out h
ĠB en
ĠS he
a tivity
Ġaccur ate
Ġf el
ĠT w
Ġmom ent
ecess ary
ĠAn other
h tt
Ġmat ter
Ġm icro
ig u
he m
Ġm ach
Ġread y
ir l
e es
Ġbound aries
Ġgovern ment
Ġsk ill
ific ation
Ġf lex
Ġaim ing
oc ate
Ġmir ror
Ġcorres ponding
ĠEn c
Ġcon ven
Ġelect r
Ġre ferences
ĠT ime
Ġhe av
p os
ĠSt ay
Ġrem ove
.. .
Ġfe w
go ing
is tics
ĠD isc
ec tives
ĠS pecific
Ġclean ing
Ġdiffic ult
Ġrel ate
Ġpos s
Ġadd ed
Ġmus ic
Ġaltern ative
Ġhand s
Ġpoly nomial
Ġ ir
Ġmulti ply
Ġimag ine
ĠSt art
S ection
Ġsee king
Ġp hen
Ġde vices
g ed
ul l
Ġsc r
ĠSe lect
pec tives
Ġse lecting
ĠCom mun
Ġind epend
ĠG oogle
s y
Ġapp lies
a h
Ġexer c
val u
Ġb all
r is
Ġyoung er
ĠM ark
Ġproper ty
Ġun c
Ġb ed
uc k
ĠFurther more
Ġcontain ing
Ġsoft ware
am et
Ġem phas
ĠEx pl
ĠCon f
O ne
Ġinvol ve
Ġmove ment
Ġest abl
il le
Ġem ail
ĠL ear
Ġstreng then
Ġang les
e al
Ġ ing
al le
in for
Ġvari able
Ġbr ush
Ġgo ing
ra w
Ġconf lic
Ġre v
Ġcl ick
A l
g ar
ĠP ri
Ġad apt
Ġinc ome
Ġconn ection
Ġex hib
re am
Ġab ilities
Ġqu ad
N A
o or
en ed
Ġve ct
ron t
Ġnavig ate
Ġmo tion
ult ane
D es
Ġmethod ologies
ĠD ef
ra in
ĠC heck
Ġintric ate
Ġcomp uter
Ġmo ist
m an
ĠPl an
ĠN um
Ġguid ance
Ġorganiz ations
Ġfollow s
ĠThere fore
Ġc ook
Ġprog ram
end er
Ġprom oting
er ve
em porary
Ġfor ces
Ġinform ed
Ġcolor ful
Ġposs ess
Ġadv ant
tit ude
Ġshow s
c y
ĠJ am
Ġdocum ent
Ġh ouse
v ent
ĠA ll
Ġexcess ive
Ġb udget
Ġkeep ing
Ġin equ
Ġhe art
Ġplay ers
Ġdiffere nces
Ġtre nds
od ay
Ġspec ies
Ġdec re
r ates
ath y
ĠFor m
3 0
Ġro ot
u fact
Ġint ro
Ġremain ing
en ge
ĠT hen
Ġthere by
Ġeng agement
Ġcent er
Ġelect ron
Ġd ise
i tive
Ġe th
um b
y d
ti er
Ġexperi enc
ĠS m
Ġbut ton
) ;
ip ment
ĠSt r
Ġs ense
i ors
Ġtechn ology
Ġpower ful
x y
Ġco ordin
Ġp ic
erson al
ĠP ay
Ġc all
Ġl abor
er al
Ġsh ad
ĠEx am
w h
Ġcon clusion
r it
Ġplay ful
Ġcaus ing
Ġdoes n
Ġpers pectives
ĠE ar
ĠApp ro
Ġsign s
ĠPrep are
or ical
Ġrec ip
Ġal gebra
Ġsc reen
ĠComp rehensive
ĠApp ly
ĠEng age
Ġget ting
ch ange
Ġear lier
Ġthorough ly
hen tic
Ġback ground
Ġtopic s
ĠA re
ag ed
Ġrel i
th ough
Ġbott om
arg on
Ġp ut
F ind
Ġf air
ĠS am
pl ace
Ġreduc es
on ent
oc ks
T here
Ġma jor
Ġ Ã
Ġsub s
ĠExper iment
Ġoper ations
il arly
ms elves
Ġpl ants
Ġj argon
Ġc ore
Ġthe mselves
in ating
W elcome
Ex ample
ĠR el
Ġcor ner
Ġto ward
Ġapproach able
Ġpl ays
r um
ĠL ook
Ġknowledge able
Ġpro b
M z
Ġprot ect
wor d
Ġattem p
Ġchem ical
Ġv ital
ĠP re
abl ing
ti s
am ed
Ġdraw ing
Ġrout ine
Ġex ec
Ġst ates
htt ps
Ġf irm
Ġcirc um
Ġestabl ished
Ġpublic ation
2 5
Ġobser v
ĠF irst
Ġpre c
Ġtas k
Ġob ject
Ġen able
Ġpro ject
Ġw ide
v i
Ġshap es
ĠS ince
Ġsol ving
1 1
ac ts
Ġb ooks
il s
Ġprom pt
Ġb le
ĠSu pp
Ġw ond
ĠGu ide
Ġd omain
l and
Ġcon dition
Ġpar ties
Ġchang ing
Ġp as
al es
Ġreg ion
Ġsl ope
Ġwebs ite
Ġjourn als
i ver
indow s
Ġphen omen
Ġpric es
Ġconvers ational
ĠN eed
Ġapproxim ately
res sive
Ġc ounter
a ks
Ġli ve
In stead
b ilities
Ġdistrib ution
Ġim age
Ġwe ak
Ġb ur
Ġ1 00
ĠSh are
Ġlong er
Ġro b
a im
Ġcomp an
Ġhigh l
Ġre ct
Ġsec tions
Ġst ore
T ry
z z
w ise
Ġad op
Ġcart oon
sy ch
Ġaw are
Ġbu y
Ġset s
) \
Ġ\ *
ess ions
Ġs ensi
st ain
ot hes
Ġcan not
rac tions
Ġconc ent
g ment
Ġfost er
P h
ĠT oday
Ġpolic y
Ġcustom ers
ud d
4 0
Ġschol arly
il t
ith m
Ġl ooking
Ġpolic ies
Ġmod ern
Ġus ually
Ġge omet
wor ld
Ġp ack
Ġimagin ative
Ġon going
================ ================
Ġeduc ation
Ġval id
Ġful ly
ab ric
ens ity
Ġfavor ite
Ġ19 9
oc ial
Ġsp arking
Ġman ufact
__ __
ultane ously
red ients
Ġ vers
Ġro t
Ġf ile
Ġ( -
Ġre infor
Ġeffici ency
Ġex ternal
rac ting
Ġc os
Ġmechan isms
in ary
b al
Ġloc ated
if ts
Mz Mz
ĠAl low
et ing
Ġthe ory
ĠN ever
Ġm or
Ġcir cle
Ġwh ite
ar ation
Ġpop ulation
Ġin j
Ġinst all
Ġul timately
Ġd ive
Ġfrac tion
Ġdiv ide
nd ing
Ġorgan ization
ĠT ell
Ġdisc o
Ġp an
Ġide a
Ġcult ural
Ġth us
Ġche erful
Ġdire ction
ĠN ot
am ing
R em
Ġrespon sible
Ġ< <
ĠS ub
u racy
Ġpractic ing
ĠP r
mis sion
Ġmag ical
P l
Ġbehav iors
Ġgl obal
Ġsu stain
Ġlit er
ĠG et
Ġent ren
ers hip
us e
ĠSpecific ally
on y
b ox
Ġpot entially
ag s
here nt
Ġinflu ence
A pp
Ġpare nts
ĠSe ek
Ġac qu
Ġlist ening
ound s
Ġentren ched
Ġindust ry
u ff
ĠO ur
Ġcur ve
Ġcommun ities
ĠCon sequently
a ut
Ġenvironment al
Ġs ix
Ġsym bol
bo ard
Ġvide o
Ġj ud
Ġp age
ri x
Ġaut hor
Ġn uc
Ġh ot
Ġcaptiv ates
ur ance
Ġrep ut
Ġgiv es
Ġto w
al ign
Ġpl ant
Ġpro duce
Ġrece iv
ĠV ol
] (
ns wer
Ġconvers ation
ĠC o
bra ce
Ġd ial
Ġexerc ises
Ġaccur ately
Ġan n
Ġris ks
ici ous
Ġreaders hip
Ġgra dually
op ic
ĠC ar
Ġeng ine
Ġconsist ency
ol ute
Ġreac tions
ma king
ĠUtil ize
Ġdemonst rate
r m
orm al
Ġne ver
Ġthe rap
ĠA m
Ġencoura ge
Ġcloth ing
re es
Ġtheore tical
alle l
Ġrespon se
ĠJ ust
Ġdynam ics
Ġmus cle
Ġbec oming
Ġc ou
ang es
Ġgen e
Ġstr ing
i versity
Ġdig ital
Ġst age
tiv ate
ĠM icro
Ġst ability
b it
Ġques tion
Ġsp read
Ġsec ure
Ġbusiness es
H ere
er t
ĠL ine
Ġch ann
re ating
ĠEnc ourage
ĠTr ans
Ġsal es
1 4
Ġprior itize
ĠWor ld
n ed
Ġd imen
Ġtechn ique
or age
) (
ump tion
ĠT echn
Ġstart ed
Ġst ri
Ġhealth care
Ġpro ced
Ġsec urity
Ġpro p
Ġconf irm
Ġal g
Ġst yles
Ġf ix
Ġg as
Ġa x
Ġabs or
C l
ĠM ed
ĠOr gan
t r
I I
p id
un ch
os ite
Ġf ields
p ond
b les
Ġcl os
1 6
Ġfrequ ently
is ed
it ten
c d
ĠT yp
Ġl a
ĠH el
Ġs essions
Ġfollow ed
ĠN o
Ġcap ital
F irst
v ity
r ors
ic on
ĠPro v
Ġsa ve
ob b
Ġop tion
Ġd at
Ġacc uracy
Ġconsist ently
Ġfil led
ne tic
Ġra tional
Ġso le
1 7
Ġno vel
ang les
ĠÃ Ĺ
Ġac id
ell s
Ġelect ric
Ġaut om
ell ig
Ġ â
ĠP ur
Ġdel ve
Ġstreng th
Ġn amed
Ġless on
al king
Ġk ne
it ch
Ġaddress ing
ab ol
Ġve get
Ġread ing
Ġus age
Ġidenti ty
ĠAt t
Ġr ights
b ook
Ġd il
b f
id ed
Ġp et
Ġac know
Ġhab its
Ġd ark
Ġf ing
) =
ĠPh ys
Ġcap ac
ĠD em
yth on
ĠC ur
Ġrecomm end
Ġan ti
idd en
Ġmut ual
ĠFun ctions
Ġac t
tiv eness
Ġman ip
ĠCom mon
ĠI ntroduction
f it
ĠF rom
Ġinterp ret
C ol
id th
Ġcho osing
Ġno tice
Ġcl im
Ġtrans port
Ġrel ative
Ġd ouble
ĠL aw
Ġdiscus sions
Ġcon sequ
ac tive
Ġbond s
Ġrun ning
Ġen abling
Ġdet ail
qu ality
Ġh yp
Ġre ason
Ġchall enge
Ġs ource
c os
Ġconsider ing
Ġdec imal
Ġsent ence
Ġcons ult
Ġun n
us ion
ĠSet ting
Ġv o
ut ed
Ġth inking
le ment
Ġt end
ĠCom ple
titu tion
Ġobj ectives
Ġro les
ons es
Ġl oss
Ġch ances
F in
Ġconn ect
Ġpiec e
Ġgood s
Ġanim al
s in
Ġst ories
ic ated
ag er
Ġb acter
Ġsee k
Ġcomplete ly
Ġprog rams
Ġmaxim um
Ġf abric
Ġf all
ist ry
ĠB as
Ġ1 6
he tic
Ġn u
iv ide
Ġcult ure
ĠT ake
Ġmove ments
ĠT im
ĠTh us
Ġimmedi ately
ot al
im als
P r
Ġexact ly
ĠL ist
s et
Ġmeaning ful
Ġmed ical
Ġnet work
ĠEar th
Ġ âĪ
ĠC an
Ġlo ved
Ġf asc
Ġpro jects
c ept
Ġli qu
ro gen
Ġpar ty
ten ance
d ef
Ġph one
onom ic
Ġcred it
ĠPri or
Ġsupp ly
Ġexten sive
ĠCons ult
Ġver tical
pl ac
R ec
Ġimprove ment
Ġas sistance
Ġenh ancing
Ġsim ultaneously
Ġco e
Ġmind ful
ro c
Ġc ases
ub e
ĠAc cess
ĠSt ud
ĠPl ace
ĠCle an
ib ri
ĠU S
in ations
Ġc ele
ou d
atch ing
l or
Ġb an
er ation
Ġhon est
Ġr igorous
Ġmat ters
st r
Ġd ate
Ġref ers
Ġb ook
Ġele ment
Ġa verage
re ne
o int
8 0
Ġdevelop ing
Ġh ost
N T
Ġpoli tical
v ille
ĠF act
Ġdiv ision
Ġres id
Ġcol lec
ĠG o
ant ed
Ġtrans fer
O p
Ġans wer
il ibri
Ġp or
ir t
Ġaut hentic
le ge
ĠW ar
ic ations
Ġrequ iring
Ġinc hes
Ġd ress
Ġdes pite
Ġm il
= "
el i
pt oms
Ġeffici ent
Ġin herent
m osp
Ġperson ality
Ġlead s
Ġwhere as
Ġman aging
Ġle aving
Ġequ ival
Ġgre en
Ġche c
ĠIn st
ĠV al
Ġde aling
ĠS er
Ġra pid
ĠM o
} $$
Ġass ign
Ġopportun ity
Ġim plications
Ġperiod s
Ġrest ric
Ġe gg
o sition
ĠG ood
Ġg ar
Ġ Î
Ġas king
Ġn ight
G et
( -
Ġded ication
Ġac tual
Ġ vel
Ġbe auti
Ġrob ust
Ġfost ers
Ġth ird
Ġcharacter istics
Ġcap able
Ġe ver
eng u
Ġro ots
Ġcre ativity
Ġresp onses
ĠFam iliarize
ĠM ethod
Ġli k
Ġmess age
g i
Ġcontinu ous
Ġpartic les
Ġleg al
N ext
Ġt ree
Ġsole ly
od ies
Ġexam ine
Ġm ill
Ġoff icial
Ġexp osure
Ġclose ly
Ġcar bon
Ġconsequ ences
Ġalg or
ed s
Ġlay er
Ġn or
if ies
Ġcommit ment
Ġb ir
in a
Ġhelp ing
Ġinclud es
Ġcaus ed
Ġquanti ty
W ith
Ġwe b
Ġrepresent ing
Ġs il
Ġs we
Ġidentif ying
Â ²
A nd
Ġtreat ment
sequ ent
Ġequ ipment
Ġb ul
Ġ ur
Ġ1 4
Ġuse ful
Ġcar ry
or ds
) $
S c
Ġ1 1
Ġ icon
Ġlaw s
l ist
Ġ #
ĠIm agine
Ġcent ral
f s
Rem ember
in ks
Ġfil es
Ġdial og
Ġas pect
ĠBen ny
as ure
---------------- ------------
ific ations
Ġed ge
Ġintern al
ex p
Ġref er
l ation
Ġl ies
Ġhand ling
Ġs av
Ġenh ances
Ġse ason
Ġ }
Ġaff ect
cul es
Ġbl ack
Ġgiv ing
Ġing redients
Ġdis s
Ġachie ving
Ġanaly ze
f ace
, \
Ġdiffere n
rene ur
ĠD uring
Ġmarket ing
ĠAl tern
Ġarr ang
Ġpers pective
ĠPo k
Ġc amp
Ġmen u
Ġpati ent
Ġh idden
Ġan x
Ġser ves
Ġsurf aces
ĠP art
Ġdi et
Ġstrateg y
Ġprot ection
qu ad
Ġsepar ate
In ter
rep reneur
Ġemp athy
ĠĠĠĠĠĠĠĠ ĠĠĠ
Ġtri angle
ve y
h ic
Ġlim its
Ġ1 7
ra ble
Ġarg um
âĢ ¢
at t
Ġw ar
Ġded icated
obb ies
w ay
ĠH igh
Ġexam ining
A t
Ġhist orical
Ġper cent
Ġexperim ent
Ġpar allel
Ġconsider ation
Ġs us
ĠS ocial
Ġiss ue
Ġnecess it
Ġag re
Ġpur su
Ġreac tion
Ġcomp ati
ent le
Ġliv es
in ning
Ġinteg r
Ġcle arly
Ġp ort
om pl
Ġst orage
Ġeffici ently
Ġat mosp
Ġoccur s
Ġcre ative
Ġed ges
il ience
Ġreve al
ĠB re
Ġprep ared
en sive
ĠSc hedule
Ġb ow
Ġc ooking
Ġar ch
b egin
ĠD etermine
Ġro ll
Ġpro s
Ġ5 0
ul ating
ĠWor k
F inal
on t
Ġdenomin ator
Ġ ice
Ġcorres pond
Ġcont emporary
st ances
si tions
h and
Ġmo lec
Ġdef ined
Ġide al
Ġappreci ation
ĠCh ar
Ġpat tern
Ġmo le
Ġmulti plication
Ġw on
Ġop in
Ġvect or
Ġhorizon tal
Ġcol lect
ĠMon itor
Ġcomple ting
Ġwebs ites
ĠThe ir
l er
c ing
2 1
Ġwas h
Ġchar ge
Ġfasc inating
od es
ĠSim ilarly
Ġvel oc
Ġpare nt
Ġbl ue
Ġform ing
et her
ĠIn v
onom et
Ġs ynt
ĠE u
Ġprefer red
ĠOp en
ilibri um
Ġcateg ories
ĠPer form
Ġcont ra
Ġw ood
Ġbeauti ful
ĠA nswer
ĠSh ow
Ġwr itten
Ġeff ect
ĠS ch
ed eral
Ġlim ited
M e
Ġ round
Ġso on
ĠV is
Ġad equ
ro om
e ks
Ġabs olute
Ġdeg rees
Ġstre t
Ġexperienc ed
Ġcomp ar
ĠAd just
as ons
Ġy ields
Ġro w
Ġa head
Ġdeterm ining
Ġcount ry
Ġex change
Im agine
ĠS ur
Ġlay ers
Ġdisc ip
ĠRec ogn
Ġover w
Ġmach ine
Ġsub sequent
or k
ure r
Ġcre ates
Ġunn ecessary
Ġfru its
Ġconcer ning
ĠO ther
as ion
oh n
Ġexp on
Ġb oo
Ġprim arily
Ġpart ners
Ġlike ly
Ġshap ing
S h
ĠEm p
cd ot
Ġmo v
ð Ł
Ġor d
ellig ence
Ġsym ptoms
Ġrati o
qq qq
Ġwell being
ĠPro f
Ġsugg est
ven ue
il ing
igh b
ol es
ĠCon n
Ġf ail
Ġprom otes
Ġcircum stances
ĠPrior itize
Ġinvest ment
Ġcri tically
Ġrelax ation
os is
b ing
Ġag g
Ġpur pose
Ġa part
i ans
Ġmon th
engu in
iti z
c o
nd om
Ġ2 5
ĠA g
Ġbu ilt
er tif
}{ \
oc al
Ġat om
Ġwe ar
ĠL im
d om
Ġpurch asing
Ġsequ ence
Ġbal anced
ri al
Ġflex ibility
Ġpres ence
Ġl ink
ĠT est
ĠC alcul
) /
iv en
Ġgrow ing
Ġappreci ate
b ly
ĠF e
ĠOff er
st ract
av ors
ĠR ead
Ġimpro ved
min ist
Ġacc ompl
Ġfocus ed
Ġwor th
ĠC are
In put
ex ts
ĠM at
am m
Ġent er
Ġh obbies
Ġbra nd
Ġwa it
ĠD ep
Ġvis it
lic k
Ġdown load
a ff
Ġf old
Ġinter s
Ġre sistance
ain s
Ġres ilience
Ġexc ell
ĠEqu ations
Ġc up
Ġm ist
Ġmess ages
Ġpr int
el ing
Ġreduc ed
ĠTw o
Fin ally
Ġsc ale
Ġconf id
re w
Ġcre am
Ġle ave
t or
Ġdivid ing
Ġref lec
G uidelines
Ġsp aces
ĠLear n
1 00
Ġcut ting
ff ective
Ġanaly zing
Ġv i
Ġst e
Ġinflu enc
Ġdesc rip
ticip ate
Ġfrequ ency
eli hood
Ġfel low
d es
ur ally
clus ive
Ġs ell
ast ly
Ġresp ond
S e
ic tion
Ġapp lied
Ġgener ate
the ta
Ġstat us
Ġp ush
Ġy ield
ĠF l
Ġh ar
Ġne ut
Ï Ģ
Ġattemp ting
Ġiniti ally
Ġenviron ments
Ġlik elihood
Ġorig in
Ġprevious ly
Ġoverw hel
Ġret ur
r iting
! "
ad s
Ġer rors
Ġg entle
ĠPl ay
a z
1 3
Ġenc ounter
Ġinterac tion
Ġf igure
Ġfl uid
Ġstrateg ic
d own
Ġp en
Ġgl ass
un g
Ġjo in
Ġf ish
2 9
c oh
Ġfacilit ate
Ġinter ven
Ġschol ars
Ġprev ents
Ġout l
Ġf ur
Ġte ac
Ġmark ets
ri ef
Ġm yst
Ġmole cules
Ġt iss
Ġd est
coh ol
Ġstat ement
Ġu pper
Ġv ac
ic it
ĠB al
Ġcho ice
Ġcount ries
ĠN on
p re
Ġrecomm ended
Ġacc ept
ĠE c
Ġar ise
Ġform ation
Ġconst ra
ith ms
est yle
ĠStr ateg
Ġn ormal
Ġun w
op tional
Ġstreng ths
ĠIn c
Ġcommun icate
Ġsoc iety
rop e
Ġc am
Ġc ity
au gh
Ġliqu id
Ġpl ans
uc id
ra g
Ġsc ience
og ether
Ġins p
Ġfood s
Ġaim ed
Ġne ighb
2 00
iz z
Ġre ference
Ġfac ed
ra ft
Ġfl at
Ġmus cles
Ġproper ly
Ġfeel ing
Ġvary ing
Ġve hic
oc ol
Ġcontinu ed
r ant
Ġevalu ate
E R
Ġtw ice
ĠC ap
Ġmoist ure
Ġp u
ĠApp lic
Ġfe ature
ĠRe view
Ġrece ive
Ġs tim
Ġcons umption
U nderstand
ar p
Ġliter ature
ĠV er
Ġel imin
d y
Ġstr ugg
ec k
ĠI de
ak ers
Ġequival ent
Ġt ap
. '
Ġle aves
Ġr ich
Ġent h
Ġmain tenance
ĠT e
ĠD if
i pped
Ġsp ending
ness es
Ġstrong er
Pr inciples
Ġequ als
ogn itive
A c
. )
Ġme als
Ġmake up
Ġchann els
Ġdec ided
Ġins titu
Ġf ear
ast s
so ft
f riend
ab y
Ġwor ry
ĠE valu
ic king
ric k
c er
ĠCont in
Ġse lection
o ff
Ġcl aim
oo p
ak en
Ġquad ratic
Ġsumm ary
Ġdefin ition
Wh ile
Ġinvestig ation
rou p
Ġencoura ges
iv il
Ġe p
Ġrel ig
Ġs tick
Ġbo ard
er c
Ġar ray
rac k
Ġde le
for d
aterial s
ri pt
Ġcal m
Ġto wn
Ġf ig
Ġ6 0
Ġshow c
ĠT opic
ĠExam ples
Ġalong side
ĠDes ign
Ġproceed ing
Ġsc hedule
Ġhapp ens
Ġ1 3
Ġprep are
um s
- \
a id
Ġ\ (
xy gen
Ġf aster
ĠL ess
m ar
ax is
Ġa f
Ġreg ions
ĠHe alth
Ġel ucid
Ġrele ase
ĠAnal ysis
Ġgener ally
Ġimpro ving
ol i
Ġm id
Ġland sc
Ġra ndom
Ġadjust ments
Ġcontrib utes
Ġquanti ties
Ġexp an
Ġmanufact urer
um es
Ġres on
Ġmon ths
ĠP ython
n ame
ĠB egin
Ġcorrect ly
Ġstat ements
ind er
rehen sion
Ġexp enses
i ology
ĠP ersonal
Ġde ad
Ġsu gar
Ġtra its
Ġp enc
Ġdocum ents
Ġprote ins
ploy ment
ĠFin ally
ac tions
Ġacc um
ord er
ĠR ed
---------------- ----
ĠE v
Ġcontrib uting
anc y
l im
Ġhand le
Ġind icate
Ġadv anc
Ġmo ves
Ġstand ards
ing ly
Ġcalcul ations
ĠM ac
Ġtou ch
ur t
ĠL ife
Ġcontain s
Ġrec ords
ĠInt eg
ĠVol ume
Ġun s
S k
Ġproduc tivity
i as
Ġsp ir
Ġslow ly
Ġdiv ing
Ġcomp rom
C ons
Ġreg ulations
Ġalgebra ic
Ġphenomen a
ĠAl so
Ġclos er
Ġit em
Ġpr incip
og en
Ġp sych
Ġre ward
Ġ2 4
Ġres ource
} ^{
Ġsatisf action
Ġmast ering
Ġt ab
b all
E m
Ġf ast
Ġcompan ies
Ġexcell ent
Ġplat form
c el
ĠE d
Ġconn ecting
Ġacknow led
Ġin ner
Ġpart ner
Ġanx iety
Ġloc ations
Ġun i
Ġelectr ons
Ġmat ch
ir ms
Ġconn ected
Ġtran sition
Ġt ack
Ġatt end
Ġv s
Ġt ang
v als
Ġs izes
Ġqu an
ĠEu rope
Ġveloc ity
Ġv ib
Ġphys ics
Ġsc hed
Ġcaus es
Ġre aching
B u
ĠG e
am s
Ġw aves
us es
Ġnet works
Ġso ap
Ġatt rib
Ġus es
Ġacc el
R e
Ġs ample
Ġappear s
Ġm ac
Ġdimen sions
in omial
Ġposi tions
Ġexpon ential
Ġg irl
C om
ĠL ike
a zing
Ġdep end
ĠBe fore
r im
Ġadequ ate
Ġsubst anti
Ġnew ly
Ġpurch ase
Ġeven ly
Ġbreath ing
Ġcap abilities
Ġgo es
et er
tu ally
Ġwe ather
v is
y si
oc ation
Ġbl ock
ĠG ather
Ġcom pl
Ġover l
Ġth ick
Ġhapp iness
Ġintro duce
Ġcompeti tion
ĠS qu
Ġw ise
ĠF riend
ĠSt ruc
Ġheav y
Ġcomp rehension
Ġim m
l ig
Ġgover ning
Ġare n
ic y
Ġprob ability
b rate
Ġbenef it
Ġund ers
Ġdemonst rates
Ġsensi tive
Ġcol um
ĠSam my
Ġapp s
7 5
Ġperform ing
ĠPro g
-------------------------------- ----
Ġd one
Ġle d
form ation
ĠP e
Ġc ards
ĠP ower
Ġg ard
Ġsp ot
o very
Ġ\ \
Ġacc ounting
Ġdel icious
i tions
Ġmeasure ments
ar ant
Ġopp osite
Ġb atter
ĠSk ills
Ġcare er
Ġincreasing ly
c heck
re me
Ġver sion
ĠC ost
Ġg ets
Ġcapac ity
4 5
Ġins ight
Ġlimit ations
Ġsu fficient
Ġk n
Ġm ent
on ge
Ġtemper atures
Ġ4 0
Ġspe aking
Ġdec or
Ġenjoy able
Ġdise ase
Ġf ront
Ġactive ly
Con text
ĠF ace
Ġbra in
Ġw indow
Ġdec imals
iter ia
Ġc ash
Ġsignific ance
Ġleg s
l s
Ġat oms
ve re
ĠH ist
Ġs ens
ys es
Ġwant ed
Ġth reat
Ġcy cle
oph istic
Ġevalu ating
I t
ĠEx planation
ĠN ote
Ġatmosp here
out s
Ġenth us
ad es
at o
ĠAl though
Ġt iny
---------------- --------
ww w
Ġacc ounts
Ġam b
Ġnuc le
Ġad here
Ġaccess ories
Ġdeg ree
onom ics
Ġun f
Ġaccompl ish
a e
u ly
Ġrecommend ations
Wh o
Ġs ophistic
Ġcons tit
Ġmem ory
c rib
ĠM in
math bf
ĠP ress
Ġcons id
ĠProv ide
Ġintern ational
Ġstud ent
o tic
Ġbroad er
pos es
omm od
ĠD i
Ġrecogn izing
Ġequ ilibrium
ĠIm plement
Ġend s
Ġpos si
Ġdesign s
Ġw idth
Ġconver t
ĠG ener
Ġcollabor ation
Ġconf ident
ĠPok Ã©
Ġselect ed
rac ing
ow s
u tive
Ġmed ium
Ġtrans l
ash ion
Ġcur ious
ĠAltern atively
Ġmaxim ize
ĠF r
Ġam ounts
Ġcharacter ized
Ġpred ic
tic ul
ĠIn s
Ġinv ent
Ġnat urally
Ġany thing
is on
E n
ĠA b
ĠP roduc
Ġsupp orting
as sion
Ġpriv ate
Ġev olution
Ġdynam ic
ĠAnal y
Ġsho es
Ġb ank
Ġinter val
I i
Ġdiscus sion
Ġmom ents
Ġw ish
st er
Ġphot os
ĠW ell
ĠD ist
H e
p are
d ed
a tically
ĠS l
Ġhapp y
ul ts
ĠM us
t es
Ġes c
er ge
Ġdef ine
Ġpow ers
Ġcomp are
Ġinst rum
ĠSt and
Ġw arr
Con t
AAAAAAAA AAAAAAAA
Ġt ables
Ġprof ile
Ġf u
Ġmeet ing
B ut
aut y
Ġderiv ative
ĠG reat
Ġm as
Ġappropri ately
Ġa est
Ġpe ace
Understand ing
ĠC ent
Ġrepresent ation
' (
Ġd rop
Ġim mun
. *
Ġfor get
Ġ$ (
um in
Ġexhib it
ing u
p e
Ġcomple ment
il os
Ġdiag n
Ġt aste
Ġdiscus sing
ĠR ight
Ġo xygen
2 2
Ġproced ures
Ġw aste
on ic
ĠL og
Ġdri ve
Ġtext ure
Ġany one
Ġop t
Ġmultiply ing
Ġden otes
Ġpar amet
Ġprompt ly
Ġwe eks
Ġs lic
Ġful f
ĠB oth
Ġs em
t ural
Ġph ase
Ġanal yses
Ġregard less
Ġint elligence
Ġpair s
Ġs and
Ġbec ame
Ġbel ong
Ġshow ing
Ġreal m
po int
Ġsym met
Ġveget ables
Ġdisco vered
ĠW ater
Ġal cohol
Ġemploy ing
+ \
Ġhol ding
em ployment
Ġcomp onent
Ġclass es
Ġrecogn ize
Ġvari ations
Ġlif estyle
ast ing
Ġobser ve
Ġincorpor ate
Ġapplic able
ĠS w
Ġcand id
Ġpres er
ĠA ut
Ġreput able
Ġimplement ing
Ġ ou
Ġis ol
Ġint r
Ġinequ ality
Ġfunctional ity
A T
Ġten sion
Ġw all
Ġadvant age
Ġthe rm
Ġpriv acy
Ġform al
Ġper p
ĠB usiness
Ġrequ est
ĠG l
ĠS ol
ĠRe qu
ĠPro t
Ġcomb ined
Ġal le
Ġvide os
Ġc ertif
Ġapp e
Ġconsid ered
Ġplan e
Ġsp orts
Ġrec ord
ĠBu ild
Col lege
Ġreal istic
\_ {
ar ithm
O n
ograph y
Ġwh ose
Ġorgan ized
A r
Ġp ick
Ġfig ures
ĠRe al
Ġth in
Ġse x
A R
ĠAmeric a
? "
Ġle mon
Ġidentif ied
Ġdialog ue
Ġs elling
C omp
O S
3 9
Ġconstra ints
ĠMulti ply
Ġmotiv ation
el ta
app ro
Ġdec ide
r ust
Ġam azing
Ġmon itor
com ing
Ġemploy ees
Ġh om
igh ter
exp ected
ĠC ustom
Ġnot es
Ġconf igu
Ġacc ommod
N D
us s
pl it
Ġt aken
Ġcap ture
Ġj oy
ĠS af
Ġtre es
ĠA f
Ġpre ference
Ġcontra st
ie ties
Ġb odies
Ġpur poses
Ġprote in
A b
Ġresponsi bility
Ġent repreneur
ĠK now
Ġ19 8
Ġad minist
Ġsupp or
onom y
D e
Ġbre aking
Ġminim al
ĠM ax
p tion
u x
app ing
Ġframe works
Ġrep e
ĠOb ser
Ġpain t
ĠG raph
Ġlast ing
Ġboo st
Ġme ticul
ĠBu ilding
Ġdri ving
< <
Ġs ong
Ġqu alities
Ġl ic
me tic
Ġoper ating
ĠAcc ording
a it
a ult
Ġbl ocks
Ġf ine
Ġpl aces
Ġdi versity
Ġinf in
2 4
ĠR o
Ġopin ions
Ġans w
Ġliv ed
Ġqu al
ĠGra dually
Ġo d
Ġcr iteria
Ġ ri
Ġl ooks
Ġg old
iv ed
Ġal ter
ĠE lect
Ġgra titude
Ġprocess ing
ĠS un
Ġdat as
f ree
Ġrepresent ed
Ġl oose
omp ass
ĠA P
ad ing
Ġtrust ed
Ġunders c
Ġsub tle
Ġconflic ts
Ġc ognitive
Ġfeel s
ars h
Ġf ire
Ġform ed
ĠAl gebra
erv ation
or row
Ġinc red
ĠĠĠĠ Ġ
k en
Ġeconom y
Ġgu arant
Ġsa id
Ġun expected
Ġspecial ized
Ġnear by
ĠIn tern
Ġexpress ed
ĠAdd ress
if orm
Ġd oll
Ġs in
l og
Ġinterest ing
Ġgeomet ric
Ġmathema tics
Ġenc ompass
Ġpass word
Ġb rief
O ur
r at
en tion
ĠEx pon
Ġmast er
iti g
ult ural
ec tiveness
Ġeth ical
ĠDes pite
ĠCon sist
ari o
Ġexpress ing
ĠJam ie
Ġm iles
Ġr ise
Ġinteg ral
Ġres olution
ub l
Ġhighl ighting
Ġvis ible
Ii Ii
Ġutil izing
Ġmo b
Ġbelie fs
ul ated
ĠH ave
Ġmeasure ment
Ġmeas uring
Ġdil ig
Ġcol d
o in
Ġobser ved
Ġocc asion
ĠW indows
ĠSu pport
om an
Ġmat rix
ari an
ĠC our
Ġparticip ate
know n
g ers
Ġmen tion
I nt
ĠU l
Ġprof it
udd en
Ġal one
il led
Ġsec re
r an
Ġconsist s
un e
es e
Ġtreat s
Ad d
Ġj ump
Ġmix ed
roll ing
Ġprof ici
al y
) }
Ġrep ort
ĠD ata
Ġt esting
ĠV ari
Ġr ub
Ġd ream
res sions
er ies
Ġpay ment
Ġbacter ia
Ġeduc ational
Ġd omin
Ġfam iliar
id ge
Ġso il
Ġvo ice
Ġvi ol
n um
ric s
Ch oose
Ġacknowled ging
Ġimp acts
Ġbr ight
ĠIn iti
Ġother wise
Ġindic ating
Ġreli able
Ġsh ifts
Ġre asons
un te
ĠSt ore
ĠSetting s
Ġsp ots
Ġnew s
ĠP enguin
ĠExpl ore
Ġobj ective
Ġmed itation
a ign
Ġs od
ric t
Ġdis h
ĠN et
Ġupd ates
ump tions
Ġbe auty
ĠB ack
Ġar ti
Ġe ating
Ġpositive ly
ĠPokÃ© mon
Ġnot ation
Ġmo od
ĠPhys ics
ĠS uch
ĠYour self
Ġcent ury
ĠRep eat
Ġal ike
Ġs ite
* }
ĠApp le
Ġs yn
Ġcop y
tic es
Ġinter act
less ly
Ġcolle ction
Ġc auti
Ġsp end
Ġf er
U n
S ince
Ġutil ize
Ġadvanc ements
Ġdis par
Ġfru it
Ġatt rac
Ġmet al
Ġhigh light
ĠN e
Ġt al
ti tion
ĠP at
verse ly
Ġminim um
Ġsh arp
ĠTim my
Ġbu ying
Ġbre aks
Ġd ro
ĠC al
Ġreg ist
un ting
at om
Ġ _
Ġconfid ently
Ġadd s
ĠFun ction
Ġegg s
Ġse am
ĠPro cess
ĠEm brace
in ent
Ġk ids
ĠEn ter
Ġear ning
ĠSystem s
Ġdist ractions
Ġw ants
ĠS ally
Ġloc ate
Ġâ ī
Ġs hed
ĠA ct
Ġalign ment
Ġst ages
plic ated
ĠCh o
Ġsecond s
or able
pri ate
Ġh it
O r
ĠA im
ĠM any
Ġcri tic
Ġaltern atives
ĠAss ess
L ife
Ġa id
Ġadvant ages
av a
wor ds
Ġg uideline
Ġaff ecting
Ġminim izing
Ġtransport ation
Ġknow ing
Ġse eds
Ġexpl icit
Ġbar ri
Ġw ind
ĠD NA
Ġar m
Ġser ving
Ġretur ns
ff ic
Ġcontain er
Ġindic ates
Ġcre ation
Ġlist en
Ġstud ying
Ġcomp ut
Ġb aking
is hes
hes is
ĠI I
ĠM ost
Ġkind ness
S ub
Ġindepend ent
Ġsound s
Ġf ill
Ġcomp aring
er ate
ĠH air
Ġinter view
her ing
ma tic
Ġw omen
ĠC or
Ġpic ture
Ġl ack
ĠD own
ith metic
Ġg ender
Ġthought ful
Ġpersist ence
Ġinteg er
Ġdisc om
ĠNum ber
U se
Ġcl othes
Ġdifferen ti
si tive
Ġd ance
Ġe ase
Ġcra f
Ġavail ability
Ġpropor tional
Ġmag netic
Ġaware ness
ĠAd ding
Ġl at
ĠCh ange
Ġdis rup
Ġcalcul ated
ĠBas ic
ĠCom b
ĠM r
ĠB et
ul a
Ġclim ate
g ra
Ġe ight
Ġele v
ĠAn imal
Ġinj ury
over n
in er
Ġm outh
Ġh ope
Ġli br
ĠMicro soft
Ġcurrent ly
le ase
Ġdiscom fort
ric h
Ġoper ation
Ġch ain
Ġb aby
Ġ ion
Ġdep ends
Ġcontrib utions
Ġw ave
ac king
Ġreview s
Ġfl o
d ig
S im
n am
ĠAcc ount
a ur
tim ate
ĠA ng
Ġp ul
ip e
Ġsh ift
Ġpl ot
iz ations
air s
Ġderiv ed
qu e
Ġpl astic
Ġstand ing
Ġgraph s
Ġvari ety
Ġent ertain
Ġfix ed
Ġsophistic ated
y e
ĠNum bers
uc tu
Ġfore st
Ġpop ulations
Ġsci enti
Ġeff ectiveness
Ġsp ect
row n
o ves
ĠCl ub
Ġseem ingly
Ġobserv ations
Î ¸
ĠRel ations
ĠEx ample
Ġexist s
ĠList en
Ġexpan sion
Ġgu ess
Ġl ate
Ġad he
ro id
Ġdevelop ments
Ġsupp lies
Ġcompati bility
Ġl ighting
re qu
ĠW he
Ġout d
Ġconcent ration
" >
Ġfund s
oy al
Ġo w
ĠLine ar
G ener
Ġax is
Ġsm art
Ġachieve ments
ul ner
Ġc ups
z y
ĠS elf
Ġprep aration
Ġthem es
Ġp un
Ġcon g
it oring
Ġfac ing
b ody
! [
el lec
Ġp al
Ġf ashion
v able
Ġfac ial
.. ..
Ġadvent ures
Ġsubstanti al
enti als
Ġf irms
ĠCol l
Ph one
ph a
ĠH aving
Ġchec king
Ġst ars
Ġsubt racting
Ġc ues
Ġresponsi bilities
ĠIn f
Ġmolec ular
ĠP ric
Ġinnov ation
ĠAf ric
inter cept
Ġent ry
ĠD ocum
Ġprevent ing
Ġass umptions
ĠInt ro
An other
c rip
A P
b l
an a
Ġscr ut
Ġremo ving
ĠRes pect
Ġcompeti tive
z ed
iv ing
Ġmag ic
ord ers
Ġcomb inations
Ġhab it
Ġf em
Ġopen ing
Ġfing er
ĠTh ink
al led
ĠSp ace
et ary
i ance
Ġqu iet
ĠLim it
ĠP ot
ĠC lick
Ġre venue
ver t
Ġimprove ments
Ġtri angles
im ming
ĠT reat
Ġt ac
ur ies
ĠInv est
Ġf arm
ĠM ag
Ġsu it
Ġsafe ly
Ġcon vey
Ġreg ul
Ġmat h
Ġtr uly
ĠTechn iques
Ġaf ford
re te
ĠAs k
Ġdevelop ed
Ġc ame
Ġas sist
Ġdel iver
ar a
et ch
Ġcir cles
Ġfl oor
Ġpred ict
ĠI ts
ĠL ay
ult ure
MzMz MzMz
Ġam ple
ĠPo ly
Ġabsor b
Ġfl uctu
d ate
Ġconsum er
Ġpe ers
Ġvis ually
ĠM ay
Ġvir tual
ĠEvalu ate
Ġt ell
e led
it ter
Ġmist akes
Ġar tif
Ġc itiz
Ġb ag
Ġdemand s
R eg
Ġac tually
am in
ĠH and
Ġcomple ted
Ġto y
s um
ro ph
Ġorganiz ational
Ġsur v
Ġcoordin ate
gi ene
Ġst able
Ġthem e
Ġemerg ing
Ġn ational
Ġar ms
ĠRef lect
ilos oph
Ġst op
Ġj u
Ġchar ges
Ġsal t
Ġ rough
ag ers
âĪ Ĵ
ĠD raw
D P
ĠN ext
Me et
Ġnar row
Ġt all
Ġstruc tural
ĠSch ool
in se
The se
Ġdivid ed
Ġspe ak
st ac
Ġwa iting
pr int
C reating
Ġn eck
Ġt ests
ĠBe ing
s uch
ĠF ound
Ġequ ipped
oo per
Ġprom o
Ġrec all
Ġpol l
ĠN or
ĠEn ergy
u ce
Ġcra ft
Ġvers ati
V V
ĠFin ancial
ĠMat hema
Ġun less
-------------------------------- --------
Ġenh anced
ect or
Ġou ter
Ġb on
Ġnu anced
Ġe at
Ġmanage able
Ġt alk
he st
NT U
ĠP res
Ġproduc ed
Ġconflic t
Ġneg oti
Ġ Â
Ġst ores
ual ity
Ġt ape
ke y
Ġsupp orts
Ġsmooth ly
Ġsp ent
ri e
Ġtheore m
uc cess
Ġlength s
ĠRem ove
Ġra d
ĠB r
Ġc m
Ġext ended
Ġinequ alities
Ġpric ing
Ġscenari o
ĠInt erest
g s
$$ \
k et
Ġhum ans
Ġro ck
Ġd ust
Ġg ear
Ġexp ected
Ġam id
Ġcur ves
Ġcur ren
Ġcamp aign
Ġconstruc tion
ĠĠ čĊ
ĠC ul
Ġm el
Ġunw anted
S et
Op tional
Ġspir it
e u
Ġ19 7
Ġsu ff
Ġsuppor tive
ore m
Ġdel i
Ġv ulner
Ġbe gan
es tions
--- |
ir c
ues ts
Ġbir th
Ġsqu ares
ĠM ix
Ġfe at
Ġplay er
Ġconstruc tive
Ġshe l
os es
Ġme al
ĠJ ohn
if ting
hold ers
Ġb ags
Ġinst ances
Ġfriends hip
Ġsign als
ent y
ĠM ar
Ġpercent age
Ġstre am
Ġcomb ining
Ġdu ration
} ^
ang ular
ĠMe an
Ġgene tic
ĠHist ory
Ġreward ing
ĠS n
ĠD ouble
Ġins urance
ain t
Ġjo ining
Ġfe es
Ġper ce
Ġfore ign
Ġid en
l ong
Ġend e
Ġar ri
Ġsh own
Ġinter rup
ffici ents
b re
p ace
t op
ĠN eg
Ġorgan ic
Ġst ead
F igure
ur b
Ġplay ed
Ġorgan isms
Ġstrengthen s
ĠM em
Ġinstitu tions
ĠP ost
Ġpar k
Ġpor tion
Ġext reme
ĠMan agement
g ments
Ġre plac
Ġarch it
our se
Ġpersist ent
9 0
Ġrem ind
Ġh ous
Ġ ---
ip l
Ġmob ile
* ,
2 3
Ġw alls
Ġcol on
b ar
el low
Ġpre m
Ġc ot
ac hed
ograph ic
t ract
ver si
Ġcl ar
il ies
How ever
Ġtechn ological
oc h
Ġc atch
rat ulations
ic ular
ĠM ove
um ing
ĠCont rol
ĠG row
Ġmem ories
Ġcon cise
tion ally
Ġmoment um
Ġocc up
ĠP ers
Ġsc al
ĠInst all
ĠP rom
Ġad j
Ġre wards
ĠFace book
er ms
Ġdist ances
Ġtur ns
ĠE very
Ġcont exts
m ark
is p
ĠN avig
Ġst ock
s olving
Ġtran sitions
D elta
Ġrati os
Ġcomp ound
Ġtransform ations
Ġmem br
Ġlead ership
Ġy og
ne w
le an
Ġf ederal
Ġob stac
c ement
Ġext end
ren ch
Ġt ight
Ġtrans pare
Ġwill ing
Cons ider
Ġwork ers
Ġintern et
th rop
| |
ĠPro ble
et te
rom e
ot ed
Ġatt ach
} .
t ra
Ġun iform
Ġb and
ĠIm pro
Ġtack le
C alcul
Ġpolynomial s
ut ter
Ġfre ed
h av
Ġr h
v ision
ĠT ool
Ġi Phone
Ġre ly
Ġstay ing
en ario
Ġframe work
Ġparticip ants
Ġrect angle
B ec
Ġm itig
und red
Ġw ire
ĠE lement
Ġprincip le
os ph
Ġw ild
Ġcre di
ĠM atter
Ġprec ision
Ġv ent
Ġpreser ving
Ġapp eal
ch ar
c ol
Ġhouse hold
ĠR et
] ,
) ",
Ġf ant
ĠT ogether
Ġre ally
an tic
Ġsun light
Ġdam p
Ġmag nit
le y
Ġcateg ory
Ġrecogn ition
Ġcomb ination
Ġinnov ative
R es
Inter active
ĠRecogn ize
onomet ric
r K
Ġse en
Ġcook ies
ĠStruc ture
ĠB ra
Ġpo or
i pping
Ġrout ines
ĠD ivide
Ġharm ful
Ġm ere
Ġsa w
ĠSupp ose
dig it
Ġneut ral
Ġdescrib e
ĠAtt end
Ġrespect ful
fere d
Ġplac ing
Ġtechn ologies
l ink
Ab stract
ĠS ave
Ġp ep
po ints
Ġelectr ical
Ġhe aling
tiv ities
Ġr anging
Ġatt ending
end icular
i pp
ĠPo sition
T r
an ning
Ġof fered
Ġdise ases
w ide
Ġinter vals
Ġunc ertain
Ġpu zz
k y
P re
Ġfl avor
Ġrespective ly
Ġexp onents
Ġoutl ined
at ural
Ġhold s
Ġiden tical
Ġunder p
Ġtransform ation
A S
ĠSo ft
al se
) **
Ġarg ue
ĠSec ond
ol ved
Ġmod e
Ġinfl ation
Ġtiss ue
ant ing
I ns
Ġw alking
Ġl ost
Ġintegr ity
Ġsu its
âĤ Ĥ
Ġas ide
Ġin verse
ellec tual
ro ec
Ġcomp ute
Ġsus p
Ġdiscuss ed
Ġtow el
Ġstand s
ĠS um
ti le
Ġparticip ating
. **
tain ing
ĠD ire
Ġcor por
Ġsatisf ied
Ġsubt raction
] .
Ġindust ries
Ġno ise
Ġm er
Ġn ose
Ġpow der
Ġworks h
Ġass ets
Ġv ast
Ġcauti ous
ĠT V
Ġm ember
ri ed
Ġinteg ers
C T
Ġweak nesses
hem istry
Ġexpl o
\ )
ĠBre ak
Ġflow ers
g est
u it
nit ure
ĠExp ress
Ġimmedi ate
Ġs am
Ġnavig ating
ĠTyp e
Ġt ex
Ġcoe fficients
Ġdel icate
Ġqu ar
Ġvis ion
Ġanaly tical
Ġer ror
Ġt ast
Ġ9 0
in o
Ġsec ret
Ġcomp osition
Ġstar ts
Ġhyd rogen
Ġdesign ated
Ġref ine
Ġteam s
E S
m ost
ĠSt ar
Ġor ient
Ġevent ually
Ġproduc ing
ĠNeed ed
ĠC ong
ud es
ĠP op
Ġg uests
* .
Ġcent ered
Ġfe wer
l ish
ĠWh y
Ġche st
Ġli ber
Ġpress ing
ĠR ational
ent h
ĠM y
Ġt ick
Ġd irt
Ġbow l
Â ®
viron ment
Ġben e
Ġhy per
ac ing
fere n
Ġaff ected
ut h
Ġb ath
ot yp
Ġ& =
Ġinves ting
Ġg aps
Ġ201 8
Ġde al
Ġeng aged
l am
Ġg ot
ĠObser ve
Ġdeli very
Ġrec overy
Ġconver sion
Ġradi us
Ġmark ed
at tle
al low
ĠEn joy
Ġoverwhel ming
ĠM et
Ġbenef icial
Ġhighl ights
ĠD et
Ġsimpl ify
Ġcont ro
ĠWhe ther
Ġintroduc ed
Ġad ap
St art
b acks
Ġch ick
Ġim per
Ġsol d
Ġj us
ĠC lear
Ġlet ter
S olve
Ġl ips
ĠApp lying
ac ies
Ġ rac
ven ues
} $.
Ġex clusive
Ġbut ter
O U
Ġpro ve
Ġnumer ator
Ġnot able
Ġemb ark
Ġsugg ests
Ġbl og
Ġdemonst rating
Ġmill ion
Ġpol ar
le ts
Ġelectron ic
Ġtarget ed
Se lect
Ġtur ning
t ex
Ġrestric tions
Ġac ting
ĠD r
iet al
B C
am ent
Ġse gment
an ks
Ġmix ture
Ġsustain able
wor king
m o
Ġinvestig ations
on al
Ġ201 7
E D
Ġemploy ed
Ġw atch
Ġmodel ing
Ġengine ering
Ġcoe fficient
Ġreg ulation
Ġsumm ar
Ġalgor ithms
row s
Ġamid st
in ting
ĠUl timately
Ġde vi
ĠThe orem
ci ent
Ġcollec tive
Ġpost ure
Ġc alls
Ġmat ches
ĠRef rain
Ġpain ting
Ġtherap y
ĠProf ession
ĠT itle
ĠB ec
Ġhe ro
anc ies
} ,
um ps
Ġint ensity
ĠLe vel
D ivide
Ġpas sion
Ġentire ly
Ġind ex
wh ile
Ġcl icking
Ġcom plicated
} (
Ġfin ish
Ġtreat ments
re st
em ble
Ġconsum ers
ĠThe ory
Ġra ce
cep ts
âĤ ģ
Ġinstall ation
" "
Ġdecre ase
ĠB ody
ĠU nder
Ġcl ubs
op es
Ġf at
ĠH ome
Ġemploy ment
Ġbene ath
Ġman ual
Ġgra de
Ġgra sp
er a
Ġsub jects
Ġcorrespond s
} )
ĠL eg
Ġtoo k
Ġl ights
Ġkeep s
ĠPh ot
Ġallow ed
Ġadv ances
Ġvehic le
Ġenthus ias
Ġas ym
Ġexc it
n ey
tif y
Ġc ater
sion al
Ġcour ses
ĠN ecessary
Ġtra ffic
ap h
Ġcoordin ates
Ġsoc ietal
Ġmon itoring
Ġarrang ements
Ġsav ings
l ock
Ġs at
Ġemphas izing
Ġlet ters
{ (
Ġaim s
Ġcirc ular
oc king
Ġgard en
ĠHel ps
Ġutil ity
Ġac ts
Ġatt ract
D etermine
Ġequ ally
hav ior
Ġelimin ate
Ġobstac les
Ġn ic
ĠS ign
Ġworksh ops
Ġle an
ag ram
t ors
Ġinc on
Ġdef ining
ĠHel p
Ġopen ly
ĠConf irm
Ġac ids
Ġcul tures
Ġbelie ve
a i
ĠOn line
Ġass er
Ġcomb ine
ĠĠĠĠĠĠĠĠ ĠĠĠĠĠĠĠĠ
r s
ĠIn formation
Ġsugg estions
ti ous
ĠM aster
Ġcitiz ens
Ġc ivil
Ġbrow ser
Ġscienti sts
f l
Ġreflec ts
Ġt un
Ġpenc il
Ġcir cul
Ġreal ized
Ġ( \
Ġdis p
or ize
Ġh undred
Ġcul tivate
ĠL iber
the less
ĠN ational
h ouse
Ġexperim ental
Ġmov ie
Ġestablish ing
ĠBal ance
st ring
n et
ĠAd v
us hes
um an
w ater
Ġsub mit
pl ify
Ġver ify
ĠC he
ie f
Ġent ering
ĠDef ine
Ġmil est
Ġsit es
Ġmis sing
h yd
i ences
Ġprot ective
Ġalgor ithm
Ġfl our
dentif ying
Ġprep aring
Ġupd ate
ĠComple te
ĠDocum ent
Ġmin or
Ġmis sion
Ġmention ed
ap es
ĠCommun ication
Ġb ill
Ġout fit
onge vity
ĠSp e
Ġp ages
Ġh arsh
ist er
tain s
ĠVal ue
n a
Ġd ensity
ind ed
ag ues
Ġlog arithm
Ġdig it
Ġreceiv ed
O N
6 4
ot or
Ġg au
Ġk it
Ġp iv
Ġargum ents
Ġuni verse
D ec
Ġp izz
Ġfeat uring
Ġre place
k a
ĠR ad
ĠH er
( )
we ight
ĠCul tivate
Ġbegin s
Ġfriends hips
Ġvol unte
c ut
Ġqu ite
p ng
Ġto oth
Ġgl oves
ti re
ĠPer iod
o ly
Ġschool s
d x
Ġinvent ory
Ġl ongevity
} =
op y
Ġref lection
ĠPar ticipate
Ġaccel eration
P er
ĠA ir
ĠS uccess
omes tic
Ġ4 5
oun ters
t age
u nderstand
Ġear n
Ġfit ness
Ġhelp ed
ĠE ven
ĠL ong
ilit ary
S u
Ġlab eled
Ġad hering
Ġmechan ics
ang er
Ġargum ent
Ġvis ibility
b b
Ġp ull
Ġsho pping
Ġlight ly
Ġinteg rating
ant um
ĠEng lish
S E
ant ly
Ġcommon ly
Ġpay ments
Ġmor ning
id ents
ĠO per
r ig
Ġdeterm ination
Ġ201 6
Ġtax es
Ġdid n
C A
ĠW ord
Ġjob s
Ġlandsc ape
at he
Ġse vere
ĠJ ava
r ange
Ġdisc ourse
P S
Ġmat urity
Ġl ip
Ġp ubl
s is
Ġwe alth
Ġcredi bility
Ġpres erve
Ġperp endicular
Ġdenomin ators
ĠD ry
ĠB o
Ġvers us
Ġinfluenc ing
k ary
ĠCl ass
f low
Ġupd ated
-------------------------------- ------------
ĠMe as
Ġ201 5
Ġparticip ation
art ment
ĠPe ople
tiv ating
Ġmar g
pl o
Ġemb racing
ail ing
ĠMark et
reg ate
Ġmarg inal
Ġexpand ing
Ġde v
Ġlead ers
Ġnutri ents
Ġl oyal
Ġcomp assion
Ġfam ilies
ĠR ule
Ġpossi bilities
Ġmod ifications
ĠH is
Ġcor rel
Ġdeb ris
ĠD a
Ġexcit ement
Ġb ol
Ġhel d
tit ute
Ġrot ation
Ġfing ers
Ġwe aring
Ġind eed
Ġsh ares
E ng
( "
Ġalign s
Ġfor th
Des pite
ir ts
Ġbox es
Ġsequ ences
, '
M L
Ġlay out
Ġst rict
Ġdec l
Ġfirm ly
fort able
Ġtrac king
Ġal t
Ġc ooper
Ġint en
og ene
Ġcomplex ities
Ġbr ings
ew el
Ġdeterm ined
r ical
Ġc a
Ġcar s
Ġsay ing
Ġco ins
Ġhapp en
Ġup ward
ĠC ri
Ġch ance
tit ative
ĠAre a
Ġt rick
Ġapp oint
Ġb urn
Ġdire ctions
F rom
Ġmem orable
Ġme ets
Ġinflu ences
Ġtim el
Ġprov ider
Ġbatter y
Ġoptim ize
Gener ate
f un
Ġb orrow
Ġhy giene
Ġs udden
Ġha z
Ġed iting
Ġv it
os ystem
Ġ8 0
Ġinter face
Ġdeb t
[ ^
Ġdog s
v b
ĠLear ning
Ġwe ap
al ax
Ġfacilit ating
Ġ iron
ĠAppro ach
Ġp ets
Ġansw ers
Ġaud io
ti an
et he
Ġdem oc
T ube
ĠE duc
ac ent
Ġc as
Ġconsider ations
Ġh am
ĠNever theless
Ġrapid ly
un t
Ġpresent ed
pl ies
Ġvib rant
Ġpar abol
Ġartif icial
Ġradi ation
Ġsol ar
Ġinterven tion
Ġl oop
ve c
Ġenthusias m
Ġar ithmetic
^{ -
ĠE l
od ing
Ġmeticul ously
Ġhor se
Ġunderp inning
Ġevalu ation
Ġrelig ious
ĠCommun icate
r ist
Ġfluctu ations
2 8
Ġsymbol s
Ġfel t
Ġre ass
t ally
ĠCon versely
Ġch at
Ġexpl ored
ĠG overn
e v
ĠS ection
O R
Ġp aid
ĠCh all
Ġpresent ation
ĠF uture
Ġ201 9
Ġunc over
Ġask ed
Ġec osystem
Ġfur niture
Ġmagnit ude
Ġdilig ently
L astly
ĠColl abor
Ġhe ar
Ġjud gment
Ġdis ag
Ġcomple tion
ĠMe asure
Ġm ild
Ġ rom
Ġd oc
Ġs aving
Ġg aming
Ġworld wide
Ġkne w
Ġsc rew
Ġartic les
Ġnegative ly
Ġbrow n
Ġst rive
ĠDisc uss
Ġchar ged
ou b
Ġcolum n
Ġincred ible
Ġappe aling
Ġse ven
as hes
Ġdry ing
ĠStrateg ies
ĠC ity
Ġobtain ed
cl ing
} =\
Ġnumer ical
Ġter rit
Ġgener ated
Ġimmun e
or g
Ġacc ep
Ġcons titu
$ )
Ġdisc rep
b an
el es
are nt
Ġlar gest
st yle
it ate
ce an
f ol
ĠMod el
Ġint u
crib e
Ġsymmet ry
ĠTra de
Ġin tim
Ġregul atory
ox ide
Ġmar ks
Ġreve als
Ġplac ed
Ġprop osed
ĠSt re
st e
Ġf a
ĠSc enario
Ġformul as
ĠD ress
Ġthere fore
ĠMatter s
ff ee
Ġ ==
Ġswe et
Ġf o
Ġaff ects
Ġgra vity
ĠEn vironment
Ġspec ified
Ġold er
Ġcomp ounds
er cise
Ġdifferent ly
S olving
Ġsign al
Ġhyp othes
Ġc ub
Ġsched ules
I N
Ġinterest ed
Ġse gments
Ġref ining
Ġw ent
ĠAcc ounting
tic ed
us ed
Ġcor ners
Ġtrig gers
Ġpersonal ized
ĠConn ect
ĠAnaly ze
Ġcot ton
f idence
7 0
m ic
Ġprom p
Ġemerg ed
A D
Ġint ense
ad d
ĠE ffective
ph one
m inded
Ġm ap
ad ow
tif ication
G iven
Ġst ake
Ġdec ay
Ġra re
Ġphenomen on
Ġteac hers
Ġext rac
Ġf ro
rough t
Th us
ap an
Ġfant astic
ĠG irl
Ġreceiv ing
Ġauthentic ity
Ġclass ic
c ious
Ġmindful ness
Ġpar tial
Ġwash ing
t uring
Ġre act
ure d
ĠJ ourn
Ġst em
ĠPo sitive
Ġcolle agues
A C
Ġcritic ism
Ġb one
ĠL ight
ĠN ame
Ġrec ur
Ġshad es
Ġnutri tion
Ġarchit ect
Ġto m
ol ar
Ġnu ances
erg ies
Ġfreed om
g l
{ {
ĠGrow th
Ġem brace
po sition
asc ular
ĠSu per
ost er
Ġpan el
" )
t d
Ġfil ter
Ġspe ech
om b
Ġtrans actions
Ġi P
un ning
Ġse ems
Ġlo ves
There fore
er b
r ary
& =
ethe less
Ġp it
in ner
anc hes
Ġfam iliarize
Ġgeomet ry
Ġl ens
Find ing
Ġinterpret ation
Ġv ill
Th ought
su it
s hip
Ġte ach
ron ic
Ġfu el
Ġw et
Ġinf ection
Ġoff ice
Ġsw itch
Ġprof ound
ed ing
Ġen for
3 6
Ġn ails
Ġman if
ĠYou Tube
Ġt alking
ro t
ane ous
Ġhorizon tally
ĠGo als
Ġreason ing
Ġacc omp
ĠF ood
ĠSm all
Ġlemon ade
imen sional
W or
Ġnor ms
fere nt
Ġno ticed
Ġcraf ting
ĠU s
Ġwide ly
ĠProfession al
Rec ent
ĠInc re
ĠG erm
Ġsec urely
Ġchem istry
n ight
ĠH ar
struc tions
Ġdo or
ĠG iven
ĠLess on
Ġst ored
ĠPoly nomial
ĠF igure
\ *
3 2
H E
Ġbarri ers
h t
ĠJ oin
Ġreve aling
Ġex h
os ses
Ġfl avors
Ġenjoy ing
Wh ich
Ġcop ies
ĠS al
ewel ry
ĠPrep aration
Ġdat ab
} }{
pl ays
ĠS olving
Ġth r
Ġrel atively
Ġp ig
Ġte le
Ġdescrib ed
Ġtac tics
Ġcon v
em b
Ġph ysi
Ġann ual
I dentify
Ġinclud ed
di rect
Ġplan et
ĠChar acter
Ġwork ed
Ġhapp ened
ac ting
Ġdesign ing
Ġsh ade
Ġint ellectual
Ġpost s
ĠCol or
Ġstead y
Ġcou ns
Ġy ellow
rel ated
Y our
Ġobser ving
ĠStud y
Ġb us
Ġtra in
Ġcomp et
Ġenti ties
W here
ect ors
Ġadjust ing
Ġar rive
Ġad ver
Ġco at
D ef
Ġattem pt
Ġg am
Ġf ol
Ġobserv ation
ato es
Ġdemonst rated
Ġdeb ate
l n
C ong
m l
rom ag
Ġestim ate
oti ent
ĠD ay
o e
Ġthreat s
Ġindepend ence
Ġalign ed
is sion
L E
Ġsupp ose
Ġpl ate
Ġtri p
Ġev olving
Ġprac tition
ce al
** .
Ġmeasure d
Ġro ad
ti sh
ĠCle arly
Ġpas sions
Ġdis hes
con t
hem ical
Ex pl
Ġb ind
A cc
Ġdomain s
3 5
Ġgra ce
ĠAd vent
Ġvect ors
I D
ĠU pon
ĠBl ack
ocol ate
Tr ans
ĠF ore
ĠTr ig
Ġgener ating
Ġlibr ary
Ġra ise
Ġch rom
Ġsugg esting
Ġb ad
ig ration
Ġtem por
i ration
Ġt rou
D is
ĠRe v
Ġs ac
Ġp le
Ġconduc t
ĠG roup
ven ess
le vel
Ġalle vi
Ġra ised
d isc
qqqq qqqq
ash ing
Ġharm ony
Ġun employment
Ġc her
Ġb ases
Ġint ake
Ġcont rolling
Ġderiv atives
Ġra w
Ġneighb or
Ġf rust
Ġtow els
Ġyog a
Ġpass ing
Ġver tex
Ġm ilitary
wor th
Ġcele brate
h aps
k er
ĠM aterials
end it
Ġprim e
Ġinter ior
Ġpath s
ĠC at
Ġwr ong
Ġdist ingu
Ġteac her
Ġheav ily
Ġrepe ated
Ġscen e
ĠDem onst
Ġintroduc ing
pec tion
d t
ĠR ate
Ġsc ore
Ġparamet ers
g n
Ġleg is
A lex
Ġdo ors
Ġde ath
L S
Ġcontin ues
ĠNor th
si a
Ġmilest ones
d o
Ġhe ard
Ġin duc
ĠC reating
ĠMan age
\ [
ill i
Ġdiscip lines
e tit
Ġble nd
Ġcomp uting
ĠK ing
ul f
Ġexper t
ĠEm ploy
ĠF inal
ĠG ently
Ġcomb at
Ġ ...
Ġen em
Ġconstit utes
I nd
Ġhig hest
Ġinterp re
ide o
Ġflex ible
Ġreinfor ce
Ġcontro versi
ĠF ill
Ġth ing
Ġun known
5 00
Ġchec ks
b or
or ter
Ġper cep
atom y
Ġour s
Ġs ought
ĠW riting
ĠL a
Ġpurch ases
Ġintegr als
R L
Ġ201 4
Ġmil k
Ġc odes
Ġre w
as y
+ +
Ġset up
Ġattemp ts
Ġcomp elling
Ġperfect ly
ĠComple x
i rable
Ġiniti atives
Ġgraph ing
us ing
ul er
ĠIntern ational
ĠS outh
ell ular
2 7
pi rations
ĠFact ors
ĠC r
Ġcalcul ation
Ġincon sist
S p
Ġdis app
Ġaest hetic
ĠLiber ty
ĠJ apan
w o
ul i
ĠB ar
Ġdif fer
Ġprog ressive
Ġrep eat
Ġser ious
ĠB C
ĠApplic ations
Ġcandid ates
Ġref lecting
O ver
omet ric
ec e
Ġph ilosoph
Ġver tically
Al gebra
u ed
Ġg all
n es
erv ous
ĠCho osing
ur ch
Ġmet ers
Ġregion al
Ġc row
Ġha irst
ĠG DP
Ġfe as
Ġbi ological
ot he
Ġchick en
Ġment ors
C O
Ġb it
Ġban ks
Ġlink ed
m at
Ġp in
Ġin ch
ĠSt yle
Ġradi o
Ġdi ver
Ġbr anches
ĠNavig ate
Ġad ults
Ġo x
Ġcom ing
Ġfac es
Ġmis understand
Ġm al
er os
s ub
erc ial
er ves
Ġapp le
T P
s m
box ed
Ġmonth ly
Ġfold er
Ġm ount
Ġshe ll
ch ie
Ġsur pr
Ġauthor ity
ab il
/ >
Ġinst alled
-------------------------------- --
ĠEm o
Ġgain ed
e ven
Ġm ul
M aterials
Ġsp ray
Ġcomm ercial
Ġemphas ize
ĠV ir
Ġlo ad
Ġmov ies
Ġtem porary
n cy
Ġgra m
ĠSt at
ĠD el
Ġidentif ication
Ġnuc lear
Ġperce ived
ĠC O
ĠOp tions
Ġsecre ts
____ ____
Ġth ous
Ġexperienc ing
Ġob lig
ĠMod ule
ĠCare fully
Ġst aff
ĠAd op
Ġdocument ation
et ed
Ġatt acks
ĠR est
Ġdec iding
Ġimpro ves
Th rough
ĠPhys ical
6 5
Ġgra ins
ĠVis it
Ġadj acent
Ġb ub
Ġsum mer
Ġvis iting
Ġmembr ane
oc y
G raph
m ates
ĠRec ent
Ġgather ing
ĠApplic ation
tis tic
Ġdiscrep ancies
Ġgau ge
Ġw atching
N ew
Ġautom atically
" :
Ġg ro
er ious
Ġn it
Ġdefin itions
Ġsign ifies
ap ers
et a
ody nam
f its
ĠP ati
Ġquan titative
Ġcop ing
Ġdra wn
R eal
um ber
ĠR out
Ġra in
ĠAb out
Ġre sist
Ġbl ank
C H
ĠC ut
Ġcover ing
Ġaction able
Ġobtain ing
Ġpro long
ain ing
Ġtarget s
ĠDis play
Ġ rib
Ġfin ance
ĠM ath
Ġun com
Ġp il
Ġshe et
Ġa p
ine gar
g ement
Ġn ail
ĠH yd
. âĢĿ
f ac
N ame
Ġprom inent
pp y
Ġdiv is
ĠH T
Ġwe igh
ĠProduc t
Ġinvest ments
s ue
Ġr ush
isc al
g al
Ĩ Ĵ
clud ing
d imensional
Ġown ership
struc ture
Ġbot tle
math rm
Ġlo an
friend ly
ĠMark eting
ĠF rench
ĠC y
Ġcom ments
ĠAmeric ans
Ġb alls
ĠWith in
ĠB ri
ĠCh ris
Ġem erge
Ġgener ation
ĠPo ints
ĠHapp iness
ĠStr ong
Ġmet abol
ĠSome times
Ġdisco very
Ġco ffee
c ons
Ġf ram
Ġtex tures
ĠNon etheless
Ġsw imming
Ġenc ounters
Ġreput ation
hes es
i ation
Ġver sions
Ġ18 0
j ective
Ġcl in
ier arch
Ġplac ement
Ġpractition ers
z ym
ĠEurope an
Ġb inomial
Ġgl ue
Ġcomput ational
Ġf illing
ĠE ss
Ġchemical s
Ġsubst ances
Cong ratulations
Ġ ions
Ġexec ution
ĠNot ably
ĠPric e
Ġshould ers
Ġreac hes
Ġw ikiHow
Ġcl osed
ĠBe havior
ft y
Ġdead lines
Ġt ells
Ġgenuine ly
Ġl ighter
Ġdig es
Ġpo ol
Ġsimpl er
Ġpay ing
ĠAppro priate
Ġweek ly
Ġintric acies
Ġconven tions
Ġbra nds
Ġrep eti
amet er
Ġcarry ing
am ount
R O
Ġst ro
ĠContin u
Ġreal ity
Ġas pirations
Ġbir ds
Ġcong ru
g ence
ĠIm port
Ġoil s
ĠH y
Ġmanip ulation
Ġinter play
yp e
Ġadv oc
Ġd ru
Ġfact oring
Ġ :
lec tions
Ġfail ure
Ġp ed
Ġknow s
Ġne u
E qu
Ġcent ers
Ġcomprom ise
Ġadop ting
C D
Ġcl ients
Ġele g
Ġmet rics
Ġpress ures
Ġconver ting
ĠL astly
Ġpropor tions
Ġsearch ing
ĠS ym
iz er
Ġvol tage
Ġw is
Ġco he
Ġaccommod ate
Ġattrac tive
ĠF ire
Ġconfigu rations
Ġyour s
Ġprovid ers
Ġ king
Ġ ly
Ġcollect ed
Ġprofici ency
00 00
Ġprof its
an ch
Ġext ending
ter ior
Ġr anges
Ġpropor tion
Ġd omestic
ĠW i
Ġdiscip line
Ġende avors
6 7
pl ing
Ġelect ro
Ġnecessit ating
d a
Ġw indows
ic ating
Ġdra g
ĠProper ties
Ġan cient
Ġs ession
ic ine
Ġmin ute
Ġattrib utes
Ġfam ous
Ġfin ished
ĠAnd roid
Ġsubt ract
Ġin h
Ġorient ation
6 3
Ġout line
m as
Ġbas ket
P ar
onomet ry
medi ate
Ġexc ep
Ġag ree
} $,
Ġl ift
Ġsp o
Ġre lying
or gan
Ġad m
rim ination
Ġperiod ically
Ġs plit
Ġsecond ary
Ġcont ract
Ġdep os
Ġconf usion
Ġh inder
ĠEx cel
ĠAc tive
Ġachie ved
Ġpursu ing
he t
Ġcomp r
Ġidenti ties
Ġret ail
---| ---|
Ġ20 20
Ġcle ans
Ġcontrol s
Ġun like
De velop
Ġass ume
he ro
ĠI D
Ġatt ached
Ġdistrib ute
Ġup wards
Ġcomm and
Ġel astic
Ġagre ement
ĠG ame
ob e
Ġrow s
o ved
ĠSec ure
Or gan
Ġp ounds
Ġcomp etit
Ġop ens
Ġdel ves
Ġcut s
st orm
Ġfin ally
ĠG en
ĠH old
Ġme at
Ġachie vable
Ġentertain ment
) -
Ġinvest ors
ti qu
Ġc ounting
Ġprot ecting
Ġremo val
Ġhor mon
Ġper mission
an es
ab el
ĠL ocate
angu ages
ĠOn ly
Ġd imin
is k
Ġne ither
Ġcl oud
Ġb rought
ĠF ile
Ġj ewelry
Ġoutd oor
Ġpartic le
} _{
ĠRes pon
ra bility
ĠT erms
Ġinj uries
Ġarti sts
on ing
is sions
ater al
ĠFollow ing
ent ed
g ent
Ġb read
ĠInd eed
ĠAm ong
Ġpl enty
omm y
ĠBet ween
Ġcontain ers
Ġal though
ill a
Ġwarm th
9 8
Ġaccomplish ments
Ġbas ics
op ol
Ġex ceed
ress ing
low s
ear s
crip tion
Ġstatis tics
Ġsod a
ĠEqu ation
Ġinsp ire
) ]
Ġs ort
Ġgener ations
Ġr ig
Ġre nt
Ġhol es
N S
C lean
Ġrecip e
Ġclaim s
ial s
Ġinterac ting
Ġemp ty
Ġr ating
ed ge
ĠCh anges
ĠG od
Ġkne es
Ġsk y
Ġmechan ical
Ġus ern
Ġexper ts
Ġgain s
Set ting
Ġsensi tivity
Ġreduc tion
$ :
or rect
Ġsoc ieties
ĠT em
Ġwond erful
Ġs end
p ing
Ġadapt ability
Ġphys ically
Ġdig its
Ġrun s
Ġb ird
pl ied
Ġst yl
aw are
Ġad ult
Ġfac ts
Ġve ter
ĠPol icy
Ġorgan izing
ĠB el
) *
Ġinfin ite
ount ered
ordin ate
ï ¸
Ġaccomp an
Ġposi tivity
Ġlat est
Ġjo int
Ġmisunderstand ings
ĠPot ential
I s
}} \
um my
Ġsubs titution
id ity
Ġpizz a
Ġte en
Ġsh op
Ġrep air
Ġfocus es
em bly
Ġf rag
Ġdef ault
ĠSt atis
AAAAAAAAAAAAAAAA AAAAAAAAAAAAAAAA
ĠW ait
iel ding
Ġf ra
Ġper man
Ġadhere nce
Ġs tic
Ġenc ountered
tic ing
Ġcons ervation
Ġsc ar
vers al
Ġh omes
Ġag ents
Ġwise ly
Ġcap turing
par ts
ĠOrgan ize
3 3
ĠIde ally
Ġra m
Ġdisc ount
Ġtranspare ncy
I V
Ġcol lecting
Ġte eth
Ġrepresent ations
Ġsex ual
ra tional
ĠY ork
ĠAc tivity
wh ich
Ġra pport
Ġhyd ro
Ġindust rial
c ell
Ġfil m
Ġclean er
oh ns
Ġdistrib utions
orough ly
Ġearning s
} _
v it
ĠBri tish
ĠPur suit
Ġrad ical
) $,
ine tic
Ġrh yth
Ġsc ales
ĠMed ia
Ġexp ensive
Ġpe ak
Ġs y
Ġmod ify
Ġatt ack
Ġreli ability
C are
Ġv en
oo ps
Ġqu antum
Ġ201 3
re he
if f
Ġtrig onometric
ĠComp are
Ġwarr ant
Ġhealth ier
Ġours elves
P T
Ġd x
-------- --
Ġbacter ial
ric ular
es tures
ĠA ud
Ġproced ure
ĠContin ue
ĠC re
oot ing
w ear
Ġpiv otal
0 9
Ġre new
Ġcou ple
S S
ĠCon clusion
ĠQ ues
v ance
Ġcontrol led
Ġaccess ibility
Ġhe s
Ġelucid ate
v as
id ation
ep l
Ġkn ife
Ġca ution
Ġmoist ur
Ġer a
Ġatom ic
Ġdescrip tions
ro ts
ĠP C
Ġlo ans
ĠExpl ain
Ġf alls
Ġde ar
Ġrec ording
ĠSpe ak
Ġo ven
Ġrem ark
Ġim plies
Ġ2 1
Ġequ ality
Ġbi ases
Ġw it
Ġpar amount
oth ing
Ġs qrt
augh t
se e
ynt hesis
Ġconstruc t
Ġelectric ity
Ġhar ness
in fty
ĠL anguage
Ġemploy ee
w ood
ĠA ge
Ġslic es
ĠRec all
Ġpush ing
ful ness
Ġag ric
) $.
ord ination
Ġcr yst
Ġat ten
Ġear th
B egin
Ġtem pl
Ġg ift
Ġf i
Ġrep orts
Ġse a
F i
K eep
P rep
Ġl ots
Ġex ac
Ġcour t
O T
ens ation
es tern
Ġmeet ings
Ġnic he
Ġaud iences
eg u
Ġâī Ī
ar row
s ec
Ġrecip roc
Ġexplicit ly
tic ians
ĠU RL
ell o
ĠY OU
Ġcurren cy
Ġexac erb
Ġsc re
Ġent ries
ĠDown load
Ġm otor
ir rel
ĠCalcul ate
Ġprof iles
ric tion
Ġdis plac
Ġimplement ation
Ġden ote
Ġremo ved
Ġn ation
ĠE nt
Ġl inks
Ġ20 21
H ave
Ġrep orting
ides p
li ers
ĠIm p
Ġuncom fortable
Ġem ails
Ġrefer red
Ġrom antic
Ġh iding
Ġl osing
u um
ĠUn iversity
Ġdifficult y
Ġsong s
Ġcont rac
: _
E d
Ġflow s
Ġguid es
Ġinten tions
A ss
Ġl ose
Ġcounter parts
idesp read
T able
ĠPol i
Ġdis plays
Ġl ung
) +
ĠDe b
Ġnut s
Ġlab el
ohns on
romag netic
Ġt ends
---------------------------- --
Ġda unting
Ġmyst erious
G ra
Ġover ly
Ġst uff
Ġshould er
Ġpic tures
Ġstret ch
red it
Ġfulf illing
s tim
Ġrect angular
Ġa venues
Ġb old
ĠF ree
Ġper m
ĠExp ressions
ĠPur ch
ĠMaintain ing
Ġall ocation
n ic
Pl ace
ĠC ele
Ġra ising
ver bal
ard ro
ond s
Ġrele asing
Ġbed time
ĠC ard
Ġversati le
Ġver bal
Ġp ace
Ġrele ased
ĠS tick
N o
or al
Ġe ars
Ġh ierarch
Ġsun ny
Ġinput s
Ġallevi ate
Ġl anguages
Ġconc rete
im eter
Ġw idespread
Ġey el
Ġfabric s
Ġmix ing
ĠCh ina
ĠMultiply ing
Ġcl ub
Ġt ank
Ġch ocolate
Ġpres ents
Ġsurround ings
Ġconduc ive
W ork
ar ks
cl ick
Ġdri ed
ĠT ou
Ġex ch
Ġbefore hand
Ġconven tional
l ity
Ġc ats
Ġcol ored
Ġdispar ities
ĠD iv
c hen
Ġf ats
Ġcomp rehe
Ġstra in
Ġcele br
Ex p
Ġexist ence
Ġhand y
Ġre verse
Ġcalcul ating
t ons
n eg
Ġbuild up
M ore
ĠE le
Ġar ising
Ġsepar ately
Ġdifferen tial
Ġcon ve
F ollow
Ġre nder
Ġv inegar
Ġcompati ble
ĠE th
os sible
Ġcommit ted
Sk r
h o
j ection
Ġ2 8
ĠCh rist
est ed
M an
athe red
Ġneighbor hood
ĠI d
Ġindepend ently
Ġmanufact uring
Ġstake holders
Ġcy cles
Ġd ict
Ġg estures
tit uting
ĠVer ify
Ġloyal ty
Ġbon ding
an as
Ġconsider able
Ġfeed ing
Ġpo se
Ġparent heses
Ġsec uring
Ġlead er
Ġhard ware
a very
Ġv ic
Ġb ones
Ġstrugg le
urt uring
Ġman agers
Ġsh orter
4 8
Ġrev olution
Ġmo tions
id ay
ĠAc tivities
Ġtre ating
ĠImpro ve
ĠEx ercise
orpor ate
Ġm other
Ġclass ical
ĠT urn
Ġen rich
Ġexp onent
ĠT ri
ric ks
Ġassess ment
y ling
ĠDem and
Ġcomp osed
ĠNet work
Ġperiod ic
Ġdatas et
Ġreg ression
ĠMean while
Ġas p
ĠSqu are
ĠO f
Ġdown ward
Ġorgan ize
Ġb oy
Ġ($ \
Ġpl us
iss ors
pos al
Ġcam era
w ing
Ġdatas ets
he si
c an
Ġcould n
ĠWh o
eterm ining
x ic
Ġdescrip tion
Ġ' ðŁ
Ġdeterm in
Ġfacilit ates
ĠCur rent
Ġsc ores
Ġvehic les
Ġdisplay ed
Ġnecessit ates
Ġv an
con fidence
Ġcomp eting
Ġdes ire
Ġfound ational
Ġsav ed
Ġwis dom
Ġk id
Ġhapp ening
ur rent
Ġd anger
con n
ir atory
ĠCont act
Wor ld
Ġtang ent
ĠSh aring
Ġassess ing
Ġp H
Des ign
Ġch lor
Ġup coming
Ġshowc ase
Ġmach ines
Ġ3 6
Ġmolec ule
ĠL o
Ġ ign
Ġsp ati
Ġover view
z en
ay lor
ag ue
z on
Ġt ub
Ġmor al
Ġsub sc
ĠN atural
Ġinterp ersonal
D raw
u its
Ġa st
Ġpoli tics
L ist
ĠA bs
ĠEn h
ĠDevelop ment
Ġscrut in
Ġbuild s
Ġposition ing
ĠTh ought
Ġinf ra
is it
val ue
A M
ĠC ir
Ġrew rite
Ġthan ks
Ġel ig
Ġenjoy ment
Ġ$ <<
Ġ ðŁ
ardro be
at ers
ĠSt e
Ġindic ators
. $$
im g
Ġsp in
Ġne at
================================ ================
ĠDif ferent
IiIi IiIi
ĠH or
Ġpredic tions
ĠHealth y
ang ed
part y
Ġagg ressive
Ġexc ited
Ġcon ceal
ĠL and
? '.
us ive
Ġl osses
ag raph
Ġinfl amm
ĠC D
ĠL abor
Ġchang ed
Ġtim ing
Ġse al
b orn
Ġemp ow
Ġabsor ption
ed ding
Ġemerg ency
Ġfi bers
= -
Ġtrans mission
ĠAss oci
Pro per
ĠWh ite
it ations
ĠTool s
ĠE arly
Ġfrequ ent
Ġg athered
ĠT otal
ĠS oci
Ġcas ual
Ġc ities
fac eted
Ġman ually
Ġlist s
Ġencoura gement
lec ular
al pha
Ġoccasion ally
fol io
ĠP ublic
Ġr ice
ĠPo int
Ġgovern ments
par tial
l ength
ĠCon struc
b u
ĠPer fect
T ake
Ġconsist ing
Ġreac hed
tit udes
b ound
Ġc ast
ob by
Ġrest aur
4 4
Ġmast ery
Ġbi ology
a ired
Ġp als
ig en
ĠE ast
olog ists
Ġadop t
Ġs now
oid s
Ġd w
tic le
Ġrele ases
Ġcell ular
ĠDire ct
Ġw ra
ut ri
ĠMus ic
Sub tract
ĠP et
Ġinterpret ations
Ġsl ide
Ġsh ifting
Ġbackground s
ĠB udget
Ġk il
Ġper f
Ġco vers
Ġcar b
it ors
Ġ3 5
ĠSt ate
Ġdam aging
ĠA ma
Ġremark able
Ġth read
Ġf an
Ġab stract
Ġdi ameter
` .
Ġdiet ary
Ġc ake
Ġext ant
ĠDep ending
Ġtiss ues
Ġcampaign s
ĠAg ain
Ġph osph
ugg ing
Ġdecre ases
================================ ========
ĠC ount
Ġtra ditions
Ġdisag re
Ġart work
Ġsp anning
Ġat titude
plic ity
ĠAll ocate
Ġh ips
Ġr ing
augh ter
Ġbel oved
Ġs tit
u ters
Ġju ice
ĠS pecial
em on
ĠS olution
ck now
S he
ph ones
d ual
Ġover come
Ġfunction ing
Ġcomplement ary
M ulti
Ġ- >
ar ithms
Ġen ch
Ġ2 7
Ġtw ist
Ġmin i
ĠV ideo
Ġbring ing
w ith
Ġall ocate
Ġspecial izing
Ġtra ject
ti sing
Ġdis orders
ĠProper ty
Ġnavig ation
Ġsaf egu
Ġpath ways
Ġinterview s
Ġg ifts
ĠExpon ential
ol f
Ġharm on
Ġassign ments
Ġf ans
um er
Ġspeed s
Ġdet ection
ĠFriend s
ĠAfric an
Ġvisual ize
Ġ7 0
Ġtarget ing
Ġusern ame
H aving
Ġpack age
Ġprot ocol
elf are
Ġstr ings
Ġuncertain ty
Ġdes k
Ġloc k
Ġaest he
Ġ7 5
Ġlab els
Ġcirc uit
ĠEc onomic
ĠB ase
Ġpr on
ĠE nd
Ġs ib
Ġmind set
ĠUtil izing
ĠHT ML
c ase
S olution
ĠM ass
vant ages
Ġemo tionally
Ġpass ed
Ġconcer n
Ġre tention
Ġadv ance
Ġprom ising
Ġgl ance
Ġdeep en
Ġturn ed
g ue
App lying
ĠĠĠĠ ĠĠ
Ġar tistic
Ġpoll ution
Q u
Ġgra b
b ell
Ġdist ress
Ġdam aged
' :
Ġdetail ing
ec raft
Ġth rive
Ġst ation
ĠNo tice
ĠL ever
Ġgreat ly
ri ving
Ġformat s
Ġcolum ns
Ġar bit
ĠM ind
Ġle ver
mis sions
Ġfeas ible
ĠS leep
Ġcul tivating
Ġb un
Ġglass es
ear ing
o k
o tion
Ġst atic
aware ness
Ġeconom ies
Ġcompl iance
Ġequ ity
D uring
ric es
Ġvari ation
Ġphot o
ĠA v
Ġfl ash
ĠQ uality
Ġdiscover ies
Ġtyp ical
ĠTh oroughly
ĠSoft ware
e em
si an
ĠCol lege
Ġf alse
po on
Ġdr inks
Ġfulf ill
ĠH ouse
Ġrele vance
Ġcred entials
Ġcons ume
ĠM ain
Ġbrief ly
Ġt our
Ġmus ical
9 9
Ġ( "
ers ion
Ġmechan ism
ul ing
Ġguarant ees
Ġrem ote
A re
ke le
Ġsp r
Ġrec y
at ches
Ġman ager
Ġacknow ledge
ĠDist rib
Ġth umb
Ġbr idge
Ġw in
Ġbro ken
ard ing
Ġcircul ation
Ġuns ure
Ġmay be
omet ry
Ġt ens
uc ose
Ġdu rability
Ġconst ants
ĠNeg ative
ug s
ĠC ross
Ġstr ange
J ohn
re f
Ġdoll ars
Ġnecess arily
Ġv aries
Ġmis s
Ġhe ter
ĠL ocal
Ġfer til
Ġb ak
Ġme ant
Ġrequ ests
Ġscr ub
Ġth row
ed ia
ra ys
ĠCh ild
com p
ĠSub t
og ram
Ġte as
ĠG reen
Ġset backs
ĠWith out
sc ale
r ance
Ġj ack
Ġsuper ior
Ġdest ination
ĠSur round
o ke
Ġprior ities
Ġexpand ed
im ents
Ġpresent ing
ur ities
Ġinterven tions
Ġpenc ils
Ġsustain ability
Ġen zym
E stablish
Ġor b
O b
Ġhypothes is
Ġexp osed
d ata
ĠGovern ment
Ġf its
Ġguid ing
tis m
Ġdep ression
Ġte a
Ġexplain ed
Ġpep per
Ġdefin ite
Ġseam less
Through out
Ġb uck
ore an
Ġche ese
ĠPres ident
Ġ( *
Ġ2 000
ĠM echan
Ġmulti faceted
ĠRelations hips
Ġg un
Ġmanip ulate
ĠOp tim
ĠA B
Ã ł
Ġpopular ity
Ġview s
d ers
â ģ
im es
Ġbas is
Ġmaintain s
Ġord ers
Ġst o
ulti es
Ġla un
ĠSupp ly
br id
Ġst rip
ĠD og
ĠAdvent ure
en ny
ĠB ro
ym akers
Ġg ap
ĠG ive
Ġgen es
Ġinvolve ment
Ġrect angles
Ġsubst ance
Ġst ain
Ġown er
am ps
Ġsam ples
D isc
ĠInd ia
Su pp
h ow
ul ates
ul ting
il ly
ist ance
Ġdet ect
Ġshad ows
Ġ q
Ġang ular
M icro
i ers
Ġco ordination
Ġreson ate
Ġwas n
I S
M on
ĠCalcul us
ĠAd dition
Ġlim iting
Ġconfigu ration
ou l
Ġg alax
Ġ$ {
Ġcount less
Ġexp endit
Ġstrateg ically
d raw
Ġqu ery
ĠRem ain
Ġreview ing
ĠSm ith
M y
ĠL ink
ĠW atch
Ġinsp ired
Ġbe ar
Ġill umin
br ush
Ġaccount ability
Ġod d
ti ble
ar n
Ġse ed
Ġestim ated
Ġentrepreneur s
ĠL ead
\ \
le vant
ĠH ab
ap or
ĠO pportun
Ġinstrum ents
Ġconsum ing
Ġchann el
ĠJourn al
R E
Ġinc enti
st ream
iti m
ĠH uman
Ġdream s
ab ul
duc t
Ġaccum ulation
on n
Ġform er
ĠOb tain
Ġdimen sion
Ġiniti ate
aw s
} +
Ġw elfare
Ġn urturing
ĠR un
Ġmag n
Ġ ÏĢ
L e
Ġdispar ate
ys rK
ĠTr ust
S ome
Ġheight ened
ivid ing
Ġtou ching
Ġke ys
) }{
Ġcompetit ors
q K
as er
Ġagre ements
( (
n el
u rable
Ġt ones
Ġexam ines
ĠUn ion
Ġser ver
Ġprom ise
Ġwhe el
Ġdomin ant
Ġapp arent
Ġden oted
Ġnet working
Ġover night
Bu ilding
ĠE ff
Ġcooper ation
ber t
Ġmat ching
ĠJ ohnson
Ġsqu ee
ĠEx t
Ġrec ently
T ime
l ands
o per
at in
ĠT able
ec utive
I C
Ġw inter
E nsure
Ġfor g
Ġgra ss
Ġtravel ing
ĠA ff
Ġlogarithm ic
I T
ti ll
Ġcom plications
Ġser ved
c ast
c ks
Ġsimpl ifies
Ġo cean
Ġreinfor ces
b ase
Ġcomfort ably
Ġpor tions
Ġdra in
ru it
Ġrelax ed
V D
Ġn ervous
Ġg ases
Ġw rap
ĠS earch
l ings
s he
An aly
Ġcook ed
ĠCong ress
Ġoblig ations
Ġc ere
v ari
Ġkey words
Ġcouns el
ĠF eed
Ġsqu ared
Ġesc al
Ġmo bility
Ġestim ates
Ġgra nd
MzMzMzMz MzMzMzMz
o ors
Ġun lock
Ġ5 00
Ġconfirm ation
Ġmill ions
Ġsh all
Ġfem ale
ĠT ommy
ex tual
ĠRec omm
ĠInd ust
iv es
Ġ/ /
ĠSaf ety
ĠCour ses
st ers
Ġst ains
ĠPrac ticing
ĠNew ton
ar ray
ĠG re
ag on
Ġcomprom ising
Ġv ess
Ġasym pt
ĠM en
Ġ3 2
j o
Ġper haps
ĠFind ing
align ed
v ascular
==== ==
Ġfall ing
Ġe ager
Ġsurv ival
roduc tive
ĠProble m
Ġcar rots
Ġdeliver ing
ĠA D
h at
Ġinters ection
Ġan throp
Ġf ly
ri age
Ġstret ching
Ġgen res
Ġinterpre ting
Reg ular
or ph
im ination
Ġpar ad
ĠRecogn izing
Ġparabol a
Ġacqu ired
Ġgar ments
Ġt ough
Ġv oc
ĠIn equ
Ġlandsc apes
vit ational
ĠCom m
Ġf t
Ġcal end
plic ate
ag n
Ġsk et
Ġc u
Ġphot ograph
c asts
Ġs le
pl ifying
Ġb attle
Ġsent ences
Ġt exts
Ġnutri ent
E lect
Ġmanif est
Ġdisplay ing
Ġshap ed
Ġelucid ating
Ġma x
Ġag encies
Ġactiv ation
M od
Ġqu otient
ĠQu ad
ra d
ĠA cknow
ĠT ext
Ġpre t
Ġdep ic
ĠProg ress
Ġcontinu ity
Ġsp ring
si zed
Em p
Ġw al
Ġjump ing
Ġdec k
Ġintr igu
Ġmed icine
ĠS olve
ĠStep s
m ade
ĠOper ations
Ġprogram ming
kary otic
oun c
Ġear ned
Ġassoci ations
ĠOr ig
ĠT re
ve led
Ġg rip
Ġcont acts
Ġaff irm
iti zing
ĠPati ence
b ur
ot t
and er
B ased
L C
f rom
ĠF ederal
Ġprecise ly
Ġper t
Ġroll ing
ĠWe bs
ĠTyp es
Ġhaz ards
E ffective
Ġresid ue
u ing
Ġtal ents
ĠDec ide
ĠPart y
Ġspati al
k in
Ġrec ept
Ġcaptiv ating
Ġdisc rimination
Ġn ur
Ġdist inc
z ero
Ġimp ression
ec tivity
Ġstra nds
Ġel imination
ci um
Ġdiffic ulties
Cl ass
Ġexec uting
Ġun us
Ġcard io
Ġmitig ate
Ġfl u
Ġsynt hesi
Ġc able
ĠStand ard
Ġw age
ĠB ring
Ġsepar ation
mat rix
Ġtime ly
ati gue
ĠF und
is y
ĠA ND
Ġtr uth
ĠWor ks
ĠLess ons
Ġv ig
Ġdes irable
z er
Ġb ought
ĠCont ent
y es
Ġanti b
h ing
Ġs ine
ĠP ass
Ġgra di
Ġgrow s
Ġ20 10
G B
ĠH ead
v est
f iber
ĠPop ular
ĠS ubs
Ġout fits
ĠFe atures
Ġminim izes
Ġm and
Ġre tain
Ġpre gn
Ġsince re
Bec oming
d iv
ĠR oman
amp oo
r ons
Ġ2 2
Ġimagin ary
ĠP aper
Ġsur ve
Ġthan k
Ġdisplac ement
Ġwhere in
Ġver tices
7 7
Ġn ations
Ġag ency
Ġexten sion
ĠFact or
Ġf iber
ĠPhot os
ĠC ool
w idth
Ġhous ing
ĠCele brate
Ġhe nce
Ġshowc asing
ĠR ights
Ġw ardrobe
as k
Ġwond er
ĠI dentifying
Ġpass es
Th ings
r ine
ĠCri tical
ĠRev olution
Ġlic ens
Ġin direct
ĠT ur
Ġmed ications
Ġcar p
Ġcy l
Ġbig ger
Ġview points
]( #
ĠEmp ire
ĠGl obal
ic ks
Ġhe ating
Ġset tle
Ġep is
) =\
ro g
Ġunder st
Ġtou ches
ĠInst agram
Ġpolic ymakers
Ġmicro sc
ur ricular
ĠUn like
ĠMathema tically
6 8
Ġm im
Ġgro oming
| \
ĠP sych
Ġpl as
ry ing
Ġdiscover ing
put es
fun ction
Ġsw it
ĠVis ual
; \
pec ting
Ġtri al
Des cribe
Ġperform ances
Ġen cl
ĠM ess
ĠStre ng
Ġar ises
Ġro oms
Ġnot ing
Ġr ide
Ġjus tice
ĠChris tian
Ġf iscal
ici ans
Ġshed ding
Eng age
c irc
line ar
Ġinnov ations
Ġsus cep
ĠUS B
Ġd ancing
Ġun ity
ĠPro b
ib ly
Ġbra ve
Ġterm in
Ġbi as
Ġagre ed
Ġrelig ion
u ous
Ġt or
Ġdist urb
Ġ201 1
Ġfa ith
ĠCent er
âĢ ĭ
Ġra ys
Ġli e
Ġtrans action
g ans
Ġstri ke
/ (
ĠGener al
Ġem issions
f oli
Ġfree ly
T hen
int erest
Ġmere ly
Ġcorpor ate
ĠB ound
Ġfair ness
ĠCon ver
Ġcand y
] :
og ens
Ġdi oxide
ĠCollabor ate
Ġneed ing
VV VV
Ġkit chen
Ġun even
Ġtit les
M S
Ġ- \
Ġcont ents
Ġpar agraph
ordin ary
Ġur ban
Ġcl ust
Ġinst ant
==== =
Ġproduc es
oh yd
Ġf es
un k
q quad
ol ding
Ġ< /
ĠOther s
B l
Ġoper ational
H ello
Ġsuper hero
Ġweap ons
Ġvac c
Ġprev ailing
Ġexhib its
it tle
Ġall oc
ook ed
ĠOut come
Ġshe ets
Ġoper ate
Ġble nding
he me
ĠDo es
Ġdescrib es
b ow
Ġa th
Ġconstruc ting
Ġchrom os
av y
Ġprog ression
Ġk inetic
Ġthous ands
ĠM a
ĠAr t
Sc ript
Ġdro ps
r ific
Ġh ide
h ors
s or
Ġmon etary
ĠB row
rap y
ĠSk in
ĠSec urity
d ri
Ph ys
Ġhonest ly
Ġst ere
Ġ1 000
ĠTh ree
Ġsc hem
Ġcon d
re tion
Ġpursu its
f ast
er als
ĠRep l
Ġsleep ing
ĠC ivil
Ġsmo other
Ġp ump
Ġread ily
---------------------------- ---
Ġconven ient
W riting
Op en
P A
Ġo l
ĠT op
ĠTw itter
ĠIniti ate
art ed
Ġpsych ological
Ġinflamm ation
T T
o oth
is ons
Ġman ner
R ep
Ġal b
Ġmar gin
S um
ol ves
ĠD ig
ĠWe b
Ġassess ments
Ġsu g
Ġarchitect ure
Ġbut tons
Ġguarant ee
S ec
ĠR ob
Ġback up
Ġiniti ating
un ately
Ġdri ves
Ġconduc ted
ĠAn y
ĠTra ining
Ġmac roec
Ġc ounts
ĠP ark
ĠR ot
Ġindivid ually
Ġhes itate
ĠBas ics
Ġle ather
Ġcustom ize
Ġcongru ent
Ġmod es
ro oms
ĠId enti
Ġsubs titute
Ġthr illing
al f
Ġh ole
ĠâĢ ĺ
A B
Ġundersc ore
Ġdel ight
u ration
Ġde als
Ġ200 8
Ġtast es
Ġf riction
en n
ĠB le
ĠO wn
ĠConsist ency
Ġs ale
Ġmed ication
Ġscrut iny
Ġst abil
Ġfram es
F orm
Ġl uck
Ġsp ac
. ).
M aintain
Ġinfra structure
ĠO ld
vel ength
ra vel
as is
Ġb low
Ġle af
Ġcomp uters
ĠCons titution
Ġf ont
Ġd ie
Ġmathema tically
Ġrespect fully
D F
Ġset t
Ġz ones
Ġperform ed
Ġaesthe tics
\ ,
Ġm ort
ĠIt ems
Ġv ict
Ġinter conn
as ures
Ġunder go
Ġprotocol s
em pl
ĠRequ est
Ġcl ock
ĠÎ Ķ
Ġs ad
Q L
Ġrough ly
er ts
Ġconcent rations
Ġb ands
Ġla unch
ĠC ell
Ġproduc tive
Ġst ems
ĠP an
io qK
Ġisol ate
ra tives
ĠB ased
ht ml
ĠCon vert
p an
als o
Ġfollow ers
Ġtr im
Ġappoint ments
Ġcan cer
str onomy
Ġnucle us
ĠSc ience
In c
ec onomic
Ġsign aling
U p
Ġw id
Ġtherm al
ĠSer vice
ĠL ar
Ġvig il
Ġcl utter
ree k
Ġpos es
Ġadop tion
ĠF our
Ġthought fully
Ġto ler
ĠIn come
Ġmyst eries
Ġy ummy
Ġfavor able
Ġ2 3
Ġc ube
Ġdel iber
p m
Â ł
Ġne ural
Ġag o
ĠCent ral
ĠB ank
Ġinstitu tional
rou ps
Ġprofici ent
igen ous
Ġprompt ed
n Z
Ġrout e
Ġtransform ed
Ġpuzz les
Ġcos ine
8 9
Ġsh ine
Ġcar ri
Ġarti st
Ġf atigue
Ġst yling
Ġagg regate
Ġamong st
Ġdr ink
^ -
Ġt ightly
Ġcat al
ak er
Ġvalu ed
Ġsupp lement
Ġoverwhel med
Ġb ust
Ġm ic
Ġb att
Ġhist or
in ition
il a
Ġdistinc tive
Ġat tire
Ġinc orrect
Ġsk etch
Ġn ative
ĠT aylor
ip her
eg ree
ili arity
ĠR ole
Ġnot hing
Ġresid ual
Ġp ra
ĠW ood
Ġscre ens
Ġc ro
Ġd oub
id ating
ke w
P E
Ġ201 2
Ġextra ordinary
tr ans
& \
in ity
Ġmed i
ĠSer vices
u h
Ġappro aching
Ġhonest y
Ġgl ucose
Ġz eros
ĠProper ly
Ġm ale
ĠS low
ĠComb ine
e en
old s
Ġrecogn ized
ĠP erson
um n
Ġbal ancing
lec tive
' )
Ġmark ers
orn ey
Ġbegin ners
ysi ology
Ġprocess ed
Ġdrop down
Ġvol umes
iv eness
Ġfil ters
Ġemb ed
Ġconven ience
Ġconstit ute
ang ers
ĠRec ord
mar ks
Ġhyd rated
ĠA C
Ġs ending
Ġeff ic
Ġexplain ing
Ġcontroversi es
Ġreason able
os tic
Ġecosystem s
Ġcommit ments
or ns
Ġcand ies
U pon
Ġh un
Ġunder m
Ġstream line
cl aim
Ġper se
t LS
Ġimp ressive
Ġc e
Ġsystem atically
Ġworks pace
ĠEduc ation
Ġal most
ĠEv idence
Ġlist ed
Ġscrew s
] {
Ġn od
Ġm aps
ard less
AR T
tic les
Ġsc ope
es ter
est eem
Ġinvestig ate
stand ing
Ġmicro b
C heck
d en
ad a
Ġs enti
Ġl ing
Ġfac ilities
Ġhero es
on c
Ġmod erate
h a
Ġrespon ding
ĠMulti plication
art ments
Ġaddress es
Ġtang ible
Ġor bit
Ġh ip
Ġbr anch
U S
^ \
Ġsynt hetic
Ġsac rific
ĠSe e
Ġtrig ger
Ġat titudes
ur is
ĠC ook
Ġsoc io
Ġhead s
Int eg
Ġbre ed
E valu
Ġunus ual
Ġ( [
Ġtre nd
Ġle nd
Ġsc ript
Ġrest ore
Ġones elf
Ġhyd ration
---------------------------- -
Ġne ur
s pecific
ep h
Ġlook ed
ap ed
Ġdele te
Ġseam lessly
ĠExpon ents
Ġco zy
Ġacqu is
om al
Ġy ielding
Ġcollabor ative
Ġland ing
Ġgreat est
ĠD er
Ġlight weight
Ġschem es
ĠC over
th rough
Ġcons ole
Ġir r
Ġcompar ison
ell ar
Ġimpro per
Ġput ting
Ġt ale
it em
ĠAn n
Ġtail or
ĠSu itable
otyp es
img ur
Ġimp osed
Ġafford able
Ġl ashes
ĠF il
= <<
Ġcandid ate
es is
Ġh ats
ĠC os
` ,
ĠMake up
odynam ics
Ġch ains
Ġd ating
Ġcon j
ne ath
3 00
Î Ķ
Th at
ĠĠĠĠĠĠĠĠ ĠĠĠĠĠĠĠ
Ġpromp ts
ce nding
Ġopp onents
Ġg ave
Ġgather ings
ik es
ĠComp aring
o ice
ĠP ut
Ġintrigu ing
Ġmotiv ations
Ġext ends
ĠT ap
ĠF oster
aus es
-------------------- -
s ubs
end ers
' m
Ġp od
Ġhand les
Ġun p
Ġbi ke
Ġinstrum ent
Ġaut hors
Ġleg itim
Ġspread ing
i ant
C ar
Ġm es
Ġanal og
Ġoptim ization
Ġan ticip
ĠA ust
Ġst ur
ĠMark ets
ĠEmp irical
Ġshad ow
.... ....
st one
Ġtre asure
] )
Ġc oc
Ġdri ven
Ġab und
Ġarrang ement
H el
B iology
F l
Ġow ing
ĠH am
Ġcontinu ing
Ġcopy right
Ġmer ch
ĠD I
Ġprolong ed
s on
Ġbo ards
Ġdown wards
Ġdecre asing
g a
Ġgovern ance
App ly
Ġp ure
Ġvac uum
ro sc
Ġport folio
Ġpat ent
ĠGener ally
Ġadver tising
Ġcl ues
Ġno tion
Ġdifferenti ation
Ins ert
Ġins u
Ġadapt ation
Ġh iring
por ts
Ġphra se
Ġgar lic
ry pt
Ġconduc ting
ĠR inse
Ġag ent
ĠIntern et
Ġharmon ious
Ġcomp osite
Ġ1 20
Ġbu ff
Con n
Ġopin ion
ra b
iti s
Ġpul ling
Ġent ails
eng er
Ġ200 7
Ġstri king
Ġ200 6
yth ag
Ġt ag
Ġr inse
yp es
^ (
am iliar
ograph ical
Ġhard er
g y
Ġr an
Ġnar ratives
Ġrender ing
S m
P C
Ġhim self
Ġl apt
ĠProble ms
Ġcor re
Ġdis putes
Ġaut onomy
Ġjo ints
Ġcompar ative
More over
Ġst unning
ĠS it
ĠAfric a
Ġex terior
Ġregist ration
Ġbound ary
A nswer
r ants
ĠCon st
Ġspirit ual
ĠJava Script
o om
G o
ĠBound aries
Ġrel ief
ĠCh rome
Ġmed ian
ow ns
in et
ĠCommun ity
! )
it ative
Ġch in
r id
r als
iv ity
Ġre cess
F act
ell a
Ġev olve
ĠFe el
ĠSp end
tif ying
Ġor gans
Ġcommit ting
ĠC E
ĠAc adem
ĠRead ing
Ġrub ber
Ġbus y
s l
Ġw ages
Ġimp ul
Ġsod ium
ĠAma zon
or ge
I M
ass es
Ġesc ape
f ront
ac he
Ġis land
Ġover head
fer ably
pro of
Ġa qu
ol ic
ap ing
Ġpol ished
Ġgra vitational
Ġacc ident
Ġenthus i
_ {\
Ġtherap eu
2 6
Ġz one
ri ad
Ġj e
Ġfl ight
Ġrecip es
form ing
Ġeffic acy
Ġview ing
Ġh urt
ines e
Ġ4 8
enc ing
Ġcontinu ously
ĠJ ob
ĠDemonst rate
Ġcharacter istic
om ach
Ġinflu ential
Ġper imeter
Ġwond ers
Im port
l iness
Ġcl ient
Ġsl avery
Ġclar ify
ot ting
ĠCap ital
Ġt ies
am b
Ġill ness
Ġdri ver
ĠMon ey
e ff
Ġhost ing
plo ad
ens us
Ġsatisf y
Ġirr itation
ĠM ast
Ġper mit
Ġsit ting
Ġlog ical
Ġsuggest ed
Ġd ipl
si ties
w l
Ġcons cious
Ġwood en
ĠS ing
Ġax es
Ġgirl s
ress ed
Ġgen re
Ġsupport ed
Ġins er
Ġra b
Ġmat rices
Ġcool ing
ĠA chie
ce nd
Ġclass room
R ef
at hetic
Ġinterconn ected
Ġb ars
Ġd ots
Ġteam work
Ġstra w
sp ace
Ġmy riad
ĠA TP
alth y
Ġconf ront
Ġres olve
Ġaccept ance
3 4
un es
Ġexc el
Ġro cks
Ġcontrib ution
Ġ200 5
Ġacc idents
ĠC redit
Ġal k
rop y
Ġextrac urricular
ĠB est
h adow
rup t
Ġstrugg les
ĠEx change
Ġsil ver
Ġpol ish
u nder
Ġseem ed
Expl ain
O H
Ġ %
ĠS E
c al
t able
Ġgu ard
u k
ess or
Ġcontrib uted
Ġw ip
Ġs ne
ex ic
Ġdef ense
Ġpros per
Ġf ight
ĠRes ources
Ġtempor arily
C F
Ġst one
ĠEx pect
Ġpro j
tiv ation
ste in
ĠHe at
Ġsti r
n o
Ġp ink
ruc tion
Ġmin erals
Ġmyst ery
Ġins pect
Ġsolid ify
ĠKnow ing
ĠW est
Ġve t
ĠPurch ase
ĠInd ivid
pre ting
$ ),
Ġf if
ĠD eep
Ġpati ents
Ġadv ancing
abul ary
Ġl id
d ic
Ġver b
Ġwe ights
Ġdress ing
Ġtick ets
iz ational
ver ance
ĠMathema tics
Ġl ot
t elling
Ġlic ense
Ġbur ning
Ġvalid ity
Ġri ver
P art
Ġh op
Ġwork out
Ġmar bles
ĠAccording ly
f ound
Ġfin ancing
Ġoffer ings
st ate
ĠH on
Ġfair ly
Ġmo ved
Ġbrow sing
Ġthick ness
Ġcommun icating
Ġad verse
ins ic
a ver
t aking
Ġref in
Ġvisit ors
Ġadhe sive
ay ing
Ġret rie
og ical
Ġnew sp
Ġcompar isons
Ġsynt hesis
Ġdis order
Ġten sions
Ġcre ature
Ġass embly
Ġfrequ encies
ke ep
Ġcont extual
Ġdes ires
Ġdr inking
ĠFound ations
Ġcompan ions
)/ (
Ġor ange
Ġincenti ves
ĠSaf e
Ġany where
St ring
ythag orean
Ġ200 4
Ġhe aring
ĠTh om
Ġgra pp
Ġbuilding s
Ġroot ed
Ġdatab ase
c her
ĠNeed s
pre ferably
ĠFr ance
Ġsoc cer
Ġunf amiliar
ĠAdv anced
L ear
b eta
ĠCor rect
Ġpo inting
Ġprev al
ĠMan ager
Ġcy cl
Ġmess aging
Ġgram mar
Ġinfluenc ed
Ġdecor ative
ĠB i
Ġsim plicity
Ġfind s
5 4
Ġre n
ĠM aking
Ġdec ades
Ġinh ab
Ġs ulf
Ġsur vey
orm one
ograph ics
ĠBr ush
Ġin clusive
Ġpl ates
Ġwork place
Ġnon zero
ĠAr ch
Ġhormon es
Ġwa velength
b W
ad er
Ġdec line
Ġder ive
am ins
Ġdet er
ĠAcknow ledge
{ -
Ġstim ulate
Ġversati lity
y ou
ĠOp tional
Ġphotograph s
Ġown ers
ĠEc onomics
Ġreg ulate
ĠOut put
reg ular
crib ed
ĠT ax
Ġsp onge
Ġmet als
ĠPl us
Ġhum or
Ġemploy ers
Ġphilosoph y
Ġt we
Ġpun c
ĠM iddle
ĠMove ment
Ġag es
Ġcons ulting
Ed it
Ġground ed
Ġdecre ased
ĠBec ause
o vers
Ġcre ations
ĠG old
ĠPoli tical
Ġsa uce
m p
v ious
Ġc ab
ĠEqu ipment
Ġpursu it
Ġdoc tor
d nZ
Ġso f
ab et
Ġsepar ated
Ġwa ist
ĠIs lam
per ature
Ġstur dy
Ġch ronic
Ġneighb ors
Ġref rig
Ġed it
ra se
Ġoccur ring
Ġvir uses
// //
Ġd inner
eng es
Ġsum s
Ġ\ (\
Ġj uris
Ġrec over
ĠCl ose
ĠPr incip
appro priate
Ġinterrup ting
* (
ĠT aking
ĠIn ves
Ġkey board
Ġgr id
O ut
pl us
Ġappear ing
Ad ding
ir ty
Ġdevi ation
Ġp itch
ĠR ati
io tic
Ġrout es
Ġattach ment
ĠB ook
Ġtrans mit
Ġclin ical
ĠLever age
b ul
Ġsh iny
ĠFor ce
Ġ3 00
Ġdel ays
Ġorig ins
Ġlif ting
Ġg roc
Ġw el
ĠPeriod ically
Ġdistingu ish
Ġr id
Ġj un
ĠOrgan ization
Ġexplan ation
Ġauthor ities
Ġconf ron
ĠInd ian
ĠMo tion
Ġfrust ration
d d
Ġw ider
rac king
Ġch art
Ġmulti plied
equ ation
Ġassign ed
Ġback ward
Ġrhyth m
ĠR ub
iod iversity
appro x
an ish
Ġper taining
ĠPri v
Ġsummar ize
Ġimp lying
Ġar ter
Ġperse verance
ĠH ence
us hed
Ġman eu
l a
ĠâĪ ļ
ri or
Ġide ally
ad der
ĠPlan ning
eles tial
is ite
Ġelect romagnetic
Ġdescrib ing
Ġexcessive ly
Ġt ire
ĠAn ti
ol utions
em ade
ĠI ss
Ġacqu iring
Ġfail ures
Ġretur ning
E ach
ĠA ction
ĠDe al
3 7
Ġqu est
Ġsk illed
Ġeven ing
Ġexc ept
Ġinconsist encies
l in
ĠTyp ically
Ġto xic
Ġ2 6
ĠOr der
S A
Ġins ert
Ġelectron ics
ĠDe le
Ġresponsi bly
Ġembed ded
Ġrab bit
our s
Ġwilling ness
Ġass et
p ython
Ġe ll
Ġspeak er
ĠC P
Ġpers u
clus ivity
Ġhon ey
Ġperp et
Ġpros pects
om ic
Rec ogn
Ġus ual
Ġremain der
Ġpre ced
ĠB un
roduc t
pi ece
Ġgain ing
Ġnutri tious
or tion
Ġreson ates
Ġprem ium
il ateral
Ġa rom
Ġdiagn osis
Ġsh ipping
Ġcal cium
as ions
Ġh ues
Ġresp iratory
Ġbelie ved
Ġrating s
) $$
Ġban anas
Ġicon ic
in ars
el ly
Ġdef ensive
Ġdisagre ements
Ġinf ections
am ination
Ġinv iting
Ġrepe ating
Ġperman ent
ĠAssoci ation
Ġparad ig
Ġ1 50
Ġcur ved
Ġplan ned
Ġcr ush
oli tical
Ġinsu fficient
Ġnit rogen
ĠQues tions
A meric
ĠDI Y
Ġbind ing
1 20
ĠFact oring
st all
ĠM ach
Ġscen es
Ġamb igu
Ġn ice
Ġvalid ate
ĠAdop t
Ġcontrac ts
q ysrK
Ġfor ums
ĠM c
II I
Ġb er
ĠG reek
Ġinc oming
Ġsatisf ying
Ġsp ine
Ġkne e
ĠH arm
ĠRe ach
Ġcul min
ĠD oc
Ġsuccess es
Ġdepend ent
Ġeye b
Ġinfin ity
Ġbe ans
ĠM exic
Ġradi ans
er ator
f ers
Ġmas sive
ĠP ythagorean
Ġsens ory
cl ass
Ġse at
Ġunderst ood
} +\
ĠI P
Ġemo tion
ĠSol utions
im ate
ĠDiv ision
l u
ber g
sc reen
m ary
Ġplan ets
ĠCh inese
Ġmind s
ĠAut hentic
end ment
Ġun ch
Ġess ence
Ġmeticul ous
Ġp ad
Ġha ven
Ġcomm ands
Ġdra ma
ĠUn employment
Ġdiag ram
Ġpass age
col or
$ \
Ġcateg or
ĠEstablish ing
Ġcons ent
r un
ĠS ales
ut able
Ġpas sive
as m
ĠDec or
Ġlif es
Ġtherapeu tic
Ġconstant ly
ĠSer ies
ipl inary
Ġcohe sive
Ġbr id
ser t
qu ir
ĠDec ision
c raft
ĠD rive
ĠF re
Ġdeterm ines
ĠS ize
Ġpro active
ĠP ack
ĠL i
Ġrecip ient
Ġunderpinning s
Ġl oops
Ġsc heme
ĠCustom ize
Bec ome
w ar
out her
Ġec ological
erv ative
ef ined
ĠSh ould
Ġestim ating
c ar
Ġencompass ing
gra de
S T
Ġp ays
Ġend ing
Ġaff ection
Ġst omach
Ġestim ation
Ġexec ute
Ġcalm ly
ti les
ĠC irc
ĠIn put
ĠClean ing
Ġpl ain
Ġinter ference
Ġbill ion
N avig
Ex am
Ġar ts
Ac cess
Ġd ye
ĠF ractions
Ġ$ -
he ll
Ġdem ographic
Ġfulfill ment
Ġar row
Ġinteg rated
d em
Ġpan els
Ġn orm
ĠS ar
ĠR NA
Ġcal ories
ĠP ic
Ġtrac ks
Ġbr ushes
Ġbo iling
Ġalter ations
ĠRet urn
id ential
ĠĠĠĠ čĊ
feren ti
Ġadap tive
Ġvict ories
B ack
Ġfact ory
Ġvis its
Ġpen al
o es
Ġp enguin
ĠD rag
Ġgrace fully
Ġs ector
Ġma il
ro ad
Ġflo ors
p aper
ig ma
ef its
In structions
ĠFam ily
ĠVari ables
N ote
ug ment
Supp ose
T otal
---------------- --
Ġ200 9
Ġatt orney
ĠExper ience
Ġreinfor cement
Ġp aste
Ġcl osing
------------------------ ---
Ġg ym
Ġhous es
Ġvolunte er
disc iplinary
N Y
M ethod
d frac
re m
Ġm ounting
ound ing
Ġgra dual
F L
Ġit er
Ġflow er
Ġtrans lation
Ġsl opes
Ġbott les
Ġs ays
Ġm it
Ġgre w
) "
her m
Ġimp ossible
Ġbelie f
Ġris ing
ĠF ac
Ġtrust worth
Ġdistrib uted
Ġcl ips
Ġlever aging
e an
Ġlegis l
Ġsh ock
Ġcap s
Ġnecessit ate
ĠiP od
} -
Ġcor n
Ġpos its
Ġdel ving
dep end
Ġcircum ference
Ġst ays
Ġincred ibly
Ġclass ification
Ch ange
Ġtast y
ut s
ri a
Ġopen ed
epl ay
0 5
as ant
ĠC ode
Ġwork outs
oun ced
ĠE ye
ĠCour t
t an
ep s
get s
Ġext ent
P ress
re nce
Ġlow est
ĠSim ilar
tiqu ette
i i
Ġexp ense
aring ly
ĠMac roec
ĠW ashing
Ġenc aps
Ch ar
Ġvess els
Ġs pl
Ġaccep ting
id ate
Ġoverl apping
Ġresearch ing
ĠAr range
alcul us
Ġlung s
i able
Ġpeace ful
ĠP ath
Ġhabit at
A L
] ).
Ġcons ecutive
ĠSc i
l ate
ĠCon vers
Ġdri vers
pi res
Ġatten tively
Ġprop ag
u led
ou nce
ĠWh ich
air y
Ġpercep tion
ĠComp uter
Ġb ills
- >
Ġex it
Ġfl ip
ĠAc tively
M D
Ġan ch
sp ring
ĠExp and
Ġremind ers
Ġh ang
rou d
ĠU V
ĠV iew
Ġaccept able
Ġrel ies
Ġlet ting
Ġf ib
ail able
Ġfund ing
Ġtal ent
p ers
Ġ200 3
Ġgr an
Ġclean ed
Ġstructure d
M ART
Ġf ighting
Ġdark er
ĠâĪ Ĵ
Ġst ones
Ġsp ort
Ġsh r
Ġrep roduction
.. ."
ĠSqu irrel
ĠIm age
Ġpen et
inc are
ĠComp any
i ac
Ġaccum ulate
ĠRep ublic
Ġelse where
Ġul timate
Ġpubl ished
ĠIdenti ty
Ġs aves
struc t
Ġacqu ire
Ġpl ots
Ġsc issors
Ġcar ries
Ġwit ness
Ġe u
I ON
Ġh osp
ĠH ear
ĠEmo tional
Ġmacroec onomic
( '
Ġvulner able
4 2
Ġp ie
Ġang er
ĠF red
Ġapp li
sc ill
Ġreplac ing
Ġhe ights
ĠRep resent
Ġg ly
Ġrel ation
Ġimportant ly
Ġinstall ing
Ġco in
ĠPerform ance
Ġfin ishing
Ġtravel s
Ġrac ial
Ġstro kes
Ġ$$ \
ĠProb ability
% .
Ġg el
ĠR ules
Ġmotiv ated
Ġdru g
Ġt rib
Ġcouple d
ra is
Ġr it
ĠSe lecting
ĠEv ents
in i
Ġclass mates
os ity
Ġro d
Ġt ricks
ac ity
ĠRe levant
ĠP a
Ġasp iring
S ave
Ġhy brid
Ġord ered
h am
Ġdisc oura
Ġgraph ics
as ive
ĠCon duct
= (
ĠFound ation
Ķ İ
au tions
ĠSp eed
isp ens
Ġfrac tional
D own
it ting
Ġc age
ĠR ock
ĠL ower
Ġcustom s
M T
ĠIs land
Ġreveal ed
Ġord inary
ĠP lease
Ġ+ =
Ġread er
Ġoutput s
Ġcomb ines
ĠTe am
Ġprincip al
Ġl oud
Ġwould n
Ġest ate
Ġemb arking
ĠVal ues
Ġevolution ary
Ġill um
Ġnon verbal
ĠRout ine
Ġenfor cement
Ġst oring
ĠC am
Ġrec ep
Ġsim ilarly
Ġpack ages
Ġperm its
ec onomics
Ġp ock
at able
Ġpur sue
plic it
Ġir rational
C hemistry
Ġs orts
ĠB ox
Ġgrow n
ĠC ase
Ġat tain
ĠAtt ach
Ġn ine
ĠC hemistry
Ġsw ift
ĠT erm
Ġsh ampoo
Ġpar ks
Ġbub bles
ex ist
Ġind ispens
Ġpres ident
am ents
ĠG ames
Ġstory telling
ĠIniti al
t ered
ĠJ an
ĠGe ometric
lic e
r imin
Ġor al
ever al
Ġpsych ology
ĠKnow ledge
Ġd ough
ĠI II
Ġm old
Ġvit amins
Ġvoc abulary
t ail
Ġpr one
Ġrub bing
Ġsubsc rip
Ġheter ogene
Ġph ases
âĪ ļ
An atomy
Ġv ar
Ġbust ling
Ġb inary
Ġbrush ing
Ġpuzz le
$ ).
Ġment ally
ont in
Ġreass ess
Ġh ing
Ġsw ing
Ġcele b
v f
Ġcon qu
Ġmo on
Ġdu rable
Ġâ ĨĴ
Ġpartners hips
Ġoccur red
Ġir re
Ġvir us
ate ver
Ġover s
1 50
ĠB all
Ġperson ally
s ers
ĠL ow
Ġtra veled
D ep
Ġarrang ed
am a
ĠCap tain
Ġvulner ability
4 00
Ġt ender
Ġman aged
omet er
ĠSh ort
] ;
p y
Ġreinfor cing
C o
f ish
ĠT ail
Ġ( <
Ġres ume
Ġgold en
Ġcar ing
Ġcompan ion
off s
, -
l en
it arian
im port
ĠCont ents
Ġcarb ohyd
Ġl en
ĠComp eti
Ġres olving
Ġsc atter
Ġoutl ining
Ġprofession ally
Ġh ind
Ġautom atic
ĠMeas uring
ment al
Ġsm ile
ĠChall enge
Ġenjoy ed
Ġdisc ern
ĠFin ance
Com b
Ġst ance
id ental
ber ries
m ons
ĠRelations hip
ĠBec ome
LE CT
Setting s
il on
Ġgraph ical
ig s
ĠW ould
Ġ {\
Ġlog arithms
Ġintim idating
Ġbuy ers
Ġt ags
Ġsh ops
Ġadv is
ph ant
Ġprob abilities
P rac
Ġh unting
ĠU ser
Ġtra ined
am ond
Ġreal ize
Ġacquis ition
si ze
ĠIde al
ĠSl ope
Ġp ads
ĠA sia
em ic
ĠRecomm ended
oun ces
RO M
I F
ob ile
Ġvalid ation
5 5
ĠC all
Ġcur v
Ġenable d
f alls
Ġp ants
Ġsl ight
ou ds
Ġne arly
Ġcr is
Ad ditionally
M o
f ections
Ġac orns
Ġdemand ing
Ġsu ited
Ġben ch
ra tics
ph i
Ġtransl ate
M E
\ ,\
Ġshort cut
ĠPh ysiology
Ġdesk top
' d
S ystem
th at
Ġpurch ased
Ġmajor ity
u ation
e ke
Ġgener ates
Ġreli ance
ici an
Bu ild
F un
Ġcon ting
Ġsmall est
Ġintroduc es
Ġutil ization
ĠConsist ent
Ġs ight
Ġo val
uc le
[ \
sh aped
Ġblog s
? ',
p ret
Ġn one
Ġdiag rams
Ġindispens able
Ġsh ots
ĠP atterns
Ġen ergies
Ġexp ed
qqqqqqqq qqqqqqqq
Ġcom ment
ĠW estern
Ġver ification
her ic
ure ka
Ġmat ure
Ġ$ (\
Ġaccompan ied
Ġdipl om
j ud
Ġ2 9
ĠO h
a uc
ĠB ig
char ge
ro te
Ġup right
Ġinter mediate
ĠSim ple
Ġeyes hadow
ĠM oon
ĠSk etch
Ġstyl ish
Ġin hib
Ġexperiment ing
Ġg low
Ġmicro fiber
Ġhundred s
ra st
Ġch ips
Ġ4 00
, âĢĿ
ac c
Ġass uming
M ake
Ġatt raction
ĠPok emon
Ġmas k
ĠDet ails
Ġsurpr ise
outher n
Ġpro pose
ĠRequ ire
Ġcirc uits
Ġunder neath
val ent
tif ications
ĠLe ave
b ooks
Ġt ong
Ġinteg rate
Ġbarri er
ro s
Ġcan vas
Ġsystem atic
ĠFore st
Ġfound ations
Ġc elestial
Ġbe ach
Ġtransform ing
Ġhom emade
Ġs ou
ist rib
epend ent
Ġprec ious
M B
Ġcorrel ation
Ġh ur
ogen esis
ĠB iology
ĠSt ress
ĠK ind
Ġfear s
Ġmanufacturer s
Ġreport ed
ĠIntro duce
ĠC ulture
Ġk g
Ġasym met
Ġm onom
ĠProg ram
|| ||
Ġburn out
ĠTrans fer
Ġp ins
ĠC ash
Ġstre et
Ġmut ually
Ġir regular
ĠChall enges
Ġenem y
p ow
in f
is ible
Ġj umps
Ġcost ume
Ġstic ks
Ġinf er
ĠAc qu
min ute
Ġterm inal
Ġsubmit ting
Americ an
Ġsp ont
it ar
Ġsudden ly
tit le
Ġn erve
ĠH ig
Ġsp aringly
Ġeng ines
Ġu pl
ning s
Ġsoft ly
ĠRepl ace
3 8
ĠW arm
Ġref ined
ĠOb j
Ġt id
Ġb udd
ĠPar ticip
Ġintu ition
Ġne are
hold er
Ġpack aging
neg ative
Multi ply
o ons
ĠO wl
Ġpar as
Ġmain ly
Ġbro ther
Ġinters ect
Ġland s
Ġdivis or
I dentifying
ĉ ĉ
ans hip
Ġloc ks
Ġsal ient
Ġdecor ations
ĠMin ecraft
Ġslic e
Ġf le
vari able
c m
Ġpromo tions
Ġreciproc al
Ġh ormone
Ġsand w
in em
ĠB oy
G e
ĠI ll
ĠL ocation
Ġhome work
Ġretail ers
Ġdanger ous
ĠPol ly
ĠF resh
i us
aff e
Ġst ub
ĠI R
Ġsched uling
ĠAd obe
Ġmim ic
Ġb orn
Ġend less
Ġpro xim
Ġdist ant
T unes
ĠH ot
Ġsh ot
ĠF ort
ĠR us
Ġgam eplay
Ġexcep tional
Ġs ectors
Ġfin ite
ĠImp act
Ġn ode
Ġcon clude
Ġch a
ĠF low
ĠContinu ously
Ġdemoc racy
Ġcomp ensation
Ġc aught
Ġan ces
Ġdiv isions
Ġeth ics
Ġreceiv es
W indows
ĠCh ann
po ons
Ġdiagn ostic
Ġbatt les
Ġop tional
ĠDem oc
Ġadhe res
ĠF rame
Ġfin ances
reci ation
Ġcollabor ate
Ġc rack
and om
Ġtooth brush
ĠJapan ese
Ġsuc ceed
omet ers
Ġkind s
he at
ut ch
Ġencounter ing
ĠCost s
ĠCol lect
play er
ĠMe et
u ity
Ġd ot
im age
ad vantages
ĠP roduction
ĠQu ick
L ine
Ġbo ots
ĠS il
Ġrig id
f all
Ġt ube
vel oper
op oly
Ġm amm
ĠE vent
Ġinv ite
A N
Ġpert inent
Ġname ly
Ġquar ter
ocy tes
Ġto es
ly sis
Ġde hyd
â ī
iz ons
Ġob sc
Ġcustom ization
Ġfam iliarity
Ġl unch
ric e
âĪ ł
ran ch
ĠDa isy
Ġol ive
ĠWashing ton
S am
l oy
Ġw inning
Ġb ab
Ġdisc ounts
Ġmathema ticians
Ġvill age
M ark
av ity
Ġmag az
Ġalter ing
Ġprosper ity
l ers
Ġprior itizing
ĠImplement ing
Ġsummar izing
D em
m en
Ġpr ints
Ġveget able
Ġling ering
Ġded uc
ĠStrateg y
Ġarbit rary
v an
in sing
ĠDevelop ing
Ġstret ches
u ge
ĠD ark
ĠGraph ing
I P
Ġbe at
Se lecting
Ġveter in
Ġin her
uc lear
Ġprofit ability
ĠP ort
Ġrec onc
Ġcur ls
Ġrev isit
umin um
Ġking dom
enti lation
Ġpot atoes
Ġenem ies
ĠEle ments
ĠS pec
Ġ" ""
ĠLa unch
Ġneu ro
ur pose
Ġaccel er
Ġdiges tion
ĠP al
Ġsign ed
Ġillust rating
Ġseason al
Ġbehavior al
Ġhyper bol
Ġsc aling
ast ers
Ġbreath s
Ġa er
Ġt ed
us sion
reat he
Ġexten sions
Ġc ute
Ġocc asions
Ġs an
ĠP are
Ġundersc ores
C M
ti r
Ġp roud
Ġemerg ence
Ġact ors
Ġuni versal
Ġinter fere
Ġw ipe
ent ral
Ġfe ather
Ġmembers hip
ĠV en
Ġopp osing
Ġsam pling
ver ty
ĠConf idence
Ġcub ic
Ġpregn ancy
Ġaccident ally
Ġw edding
et al
Ġpo verty
ĠiP ad
Ġcon ferences
Ġfundam ent
^ {\
Ġp y
Ġev olved
Ġgra du
Ġmaxim izing
Ġfit ting
Ġemphas izes
ĠForm at
T HE
Ġth riving
ut y
ĠPl at
Ġteas poon
ĠInequ alities
9 5
f aces
he arted
Ġoff ensive
Ġhabit ats
Ġbal ances
+ /
Ġg ems
red ient
Ġindividual ity
ĠMulti ple
Ġdelight ful
ĠB rain
Ġgra des
Ġcross ing
w ell
ĠD ate
Ġemb ody
C ustom
s en
Ġs ick
ĠC ore
Ġcy cling
D if
si us
Ġdistrib utive
ĠBl ood
Ġhe m
ĠR ates
Ġbl aming
Ġi OS
Ġadminist ration
Ġass umes
âĪ ŀ
ĠInteg ration
Ġpunc tu
" ).
Ġeleg ant
A tt
Ġl ingu
ĠD en
ĠR a
ĠPers pective
ĠGerm any
Ġl in
ĠH ard
Ġsp acing
eg a
Ġsimilar ities
Ġalign ing
Ġf ishing
ĠN utri
Ġacc idental
Ġmon opol
Ġhairst yle
ob ic
D i
Ġf oss
Ġl enses
ors es
Ġcraf ts
z ation
Ġins pection
Ġchar ts
umb led
7 6
G l
ir ds
Ġclass ified
Ġanaly tics
emb ling
o king
p ass
Ġcondition er
ish ment
ĠAd here
ĠTr an
Ġhol iday
ĠÎ ¸
Ġprem ature
ĠL ib
Ġcor ro
Ġprom ises
Ġprot ons
ĠM om
Ġro of
ĠRespon si
Ġenzym es
Ġcardio vascular
f ting
av ed
g u
Ġv ocal
Ġve nd
tr l
ĠP age
Ġins ects
Ġview ers
ĠPr im
v ation
Ġd ip
Ġup set
ĠNot ation
Ġpromo tional
-------------------------------- ---
it ance
ĠD iversity
Ġt ruc
Ġspect rum
Ġam ino
Ġcent uries
aut hor
ĠHigh light
Ġl inking
Ġtrig g
Ġreflec tions
ĠPress ure
i j
------------------------------------ -
g yp
am ma
Ġneed le
pon ents
Ġconceal er
E c
Ġsof ten
ĠD E
ĠF oot
Ġgall ons
Ġdep artment
ĠSp anish
Ġmar riage
B usiness
ĠS QL
yst s
= $
ic ates
ĠE ra
âĤ Ģ
R ad
Ġadv ocate
ĠMod ern
Ġdemoc ratic
Ġd ense
Ġmulti ples
Calcul us
Ġstub born
Ġw oman
ĠBu y
Ġmitig ating
ĠChrist mas
Ġa ugment
Ġrest ing
Ġelimin ating
Engage NY
R el
ĠSt ra
Ġprot ected
ĠProduc ts
ĠLog arithm
bles h
Dec ide
Ġth resh
Ġfour th
se en
Ġle is
Ġcomp act
Ġfo am
ĠUn til
Ġtranspare nt
Ġappro val
T wo
Ġge ographical
ĠForm ula
et ric
ĠB rit
Ġchar ging
ĠProv iding
ĠL ittle
ĠĠĠĠĠĠĠĠ Ġ
ĠAss ign
Ġb es
ĠA BC
ir us
A void
ĠB ur
Ġtr inomial
Ġflow ing
ĠGraph s
Ġinterrup tions
h ost
in ite
Ġun ravel
Ġdisc rete
-------------------- ---
Ġrestaur ant
kele tal
Ġsp elling
Ġion ic
Ġm ouse
Ġsp oon
ĠI r
Ġemphas is
Ġbe nd
Ġwild life
Ġench anting
Ġle verage
Ġpros pective
Ġtele vision
c or
st atic
Ġst er
iz able
Ġwe eke
Ġheav ier
ĠSt ory
enc il
Ġvent ure
Ġcub es
Ġb ored
ot en
ĠC old
Ġadop ted
Pl an
T C
Ġt ear
Ġst eep
m od
Ġdec ides
Ġ200 1
Ġel usive
ĠPre ferences
ĠAccess orize
oid al
if orn
An imal
En ter
Ġp ray
olog ist
ĠBun ny
Ġhum idity
Ġtre asures
Ġc enti
ic a
Ġr uler
Ġeffort lessly
str onom
Ġcollec tions
Ġscholars hip
Ġstrict ly
H igh
ĠPrincip le
v j
Ġrep roductive
math bb
Ġir rit
S O
ap se
Ġstra nd
Ġlifes pan
ĠMethod s
ND Q
f ield
Ġlog ged
Ġcertif ied
Ġbul lying
p erson
Ġste el
Ġadminist rative
Ġber ries
ĠSar ah
Ġgu est
ĠSh op
ĠMacroec onomics
Ġlegis lation
Ġprior ity
ab s
ĠAd apt
met ers
Ġdis k
ĠEv olution
Ġelev ate
Ġsuper vision
Ġtre ated
a ze
o sitions
ĠPl ant
}^ {\
Ġmetabol ic
Ġd iction
ĠD ividing
Ġcr im
Ġfluid s
Ġdisrup t
Ġt es
ire ct
Ġevery where
ĠEmp athy
Ġterrit ories
Ġphysi ological
m ph
z es
ĠSim plify
Ġnor th
ĠGerm an
Ġenthusi asts
in ten
es ian
ĠTh ank
og rams
Ġpl ug
Ġbatter ies
Ġtrou ble
Ġelig ibility
Ġconstruc ts
Ġf lying
Ġw ine
il arity
Ġab use
Ġla id
Ġtempl ate
ur ated
Ġdis cl
Ġconcep tual
Ġlif el
ĠRed uc
ĠHab its
ĠT om
Ġconfid ential
ne tism
ĠRep ort
Ġhe ated
ĠC art
ĠDa ily
d f
r us
Ġh anging
S ign
Ġto ld
Ġarr ange
ĠTechn ology
Ġm erg
ĠAfter ward
Ġhighlight ed
* )
m m
Ġneighb oring
ir th
ĠM ode
S ubs
Ġin ev
ĠC ells
Ġwor n
ĠWor king
Ġlog in
7 8
R et
Ġt ie
Ġ Ï
iforn ia
Ġo scill
ine a
Ġsupp liers
Ġ< =
Ġappear ances
Ġi Tunes
Ġbur ge
an o
Ġm isc
Ġdatab ases
or ce
ag ger
Ġpred omin
Ġwal ks
Ġremain ed
Ġshowc ases
ĠT HE
ĠG roups
Ġelement ary
ven tion
Un iversity
Ġrecur ring
R ational
b and
ĠTr ue
ĠInterest s
P oint
m ail
Ġconv inc
Ġrepresent atives
Ġinvestig ating
Ġele ction
Ġburge oning
rou s
ĠC el
Ġvo ila
5 6
t wo
ĠSe qu
Ġpartners hip
S ocial
l ooking
ĠB udd
Ġse ating
ĠLaw s
ĠProt ection
Ġconver gence
b i
c ular
Ġlong est
ĠTrig onometry
ounc il
ĠEng land
Down load
R ed
ac tively
un ing
Ġresid ents
Ġw iki
Ġsib lings
Ġr ings
Ġbelong ings
requ ency
ĠEffective ly
Ġkid ney
Ġs our
Ġchapter s
ĠComp ar
Ġcris is
Ġsh irt
ĠL ength
Ġsimpl ified
ort ed
asc ara
Ġmanip ulating
Ġnegoti ations
a tics
Ġe ast
Ġco ats
Ġgra ms
B A
Ġqu eries
Ġcan cell
Ġmount ain
Ġlog o
ĠFriend ly
om y
ul um
Ġcertif ications
Ġk ick
Ġent ered
Ġexch anges
Ġcomprehe nd
b iology
ip se
Ġmis sions
aw ay
Ġbrain storm
Ġcalend ar
Ġfac ets
Ġaltern ate
pos able
"> </
C omm
Ġtra des
Ġprofessional ism
Ġaccep ted
Over all
Ġorb ital
ĠPrac tices
Ġroll er
Ġher self
ĠAm endment
Ġcolon ial
Ġelastic ity
Ġlibr aries
Ġcher ished
Ġrefin ement
p es
Ġb iodiversity
Ġse asons
Ġpat ches
Ġpromp ting
9 6
Ġisol ation
ĠW aves
Ġoptim izing
Ġlog s
Ġreflect ed
Ġliqu ids
Ġagric ulture
] [
Ġshad ing
ĠAbs olute
ĠD iet
ot a
ival ent
Ġwond ered
Ġweap on
ï¸ İ
ĠE r
ĠStar ting
Â® ï¸İ
Ġbe ings
ĠDes ired
Ġfol ks
Hel p
E ureka
Ġresp ected
Ġje ans
er as
il ton
Ġun t
ĠG r
Ġste am
Ġrepresent ative
Ġexacerb ate
in put
ĠE at
ost asis
te en
li pping
T ra
ĠT arget
ĠW illi
Ġreg imen
num ber
lam b
Ġdownload ing
Ġ ,
Ġfl ag
Ġslow er
Ġopp onent
Ġsynthesi zing
ond on
fit ting
Ġproportional ity
Ġarri val
Ġimper fections
ĠM ount
ĠIn sert
ĠEng ine
Ġviol ence
in ery
Ġcan cel
Ġsk incare
Ġgene tics
ĠBl ue
> <
Ġw and
Ġrecept ors
à ¤
in ated
Ġbed room
Ġstri ps
Ġst ack
ver ages
ĠEnh ance
ĠQuad ratic
on ut
er ved
Ġsh y
Ġsimpl ifying
Ġwr ink
Ġattend ees
Ġintu itive
Ġe tiquette
Ġgr ants
Ġdisapp oint
ĠRequire ments
lamb da
Ġsever ity
Ġstrugg ling
G ive
ĠSe lection
ĠReg ardless
Ġquad ratics
ï¸ ı
c ap
ing er
Ġlarge ly
g age
Ġillumin ate
Ġmar king
Ġquick er
Ġintro s
Ġshel ter
Ġvit amin
Ġin quir
iv atives
Ġbl ind
AAAAAAAAAAAAAAAAAAAAAAAAAAAAAAAA AAAAAAAAAAAAAAAAAAAAAAAAAAAAAAAA
1 000
ĠLevel s
it ory
ĠG ene
Ġcont end
ĠPro ject
Ġscal p
Ġlapt op
Ġsc roll
Ġcompl iments
ĠElect ric
Follow ing
ĠJ ames
T ypes
Ġaffirm ations
e enth
v in
Ġv ot
ĠAn throp
ĠLay er
Ġing redient
ĠF it
Ġapplic ability
Com ple
Ġfe e
ĠP DF
Ġstrengthen ing
us ually
ĠC ra
ĠB an
ĠInt elligence
Ġbelong ing
ĠÂ ±
Ġneare st
ro y
Ġtrig onometry
ĠStatis tics
b ut
## ###
ĠIm plications
m anship
Ġcl ouds
ogen ic
m u
et ry
ĠC amp
Ġr iding
ĠMen u
Ġplas ma
Ġrece ip
Ġalt ered
Ġcal or
Ġins titution
18 0
uff y
ĠProt ect
ber ry
Ġvisual ization
Ġin clusivity
Ġcont raction
ĠV eg
Ġcollec tively
SE LECT
Ġbasket ball
A ut
Ġhor izons
â ĨĴ
ar se
ĠN ature
val ues
pro ve
A ll
Ġt apping
Ġre arr
est ry
ĠKeep ing
Ġ200 2
Ġstri ving
Ġdescrip tive
ĠCon dition
ĠEnvironment al
ile m
Ġregist ered
ĠCh apter
ĠGe orge
M R
u ary
ĠT ex
ĠSoci ety
Ġp ond
Ġexplore rs
Ġaltern ating
ĠPr inciples
Ġ rou
ou ns
Ġterrit ory
for ce
ĠEm phas
Ġdevi ations
Â®ï¸İ /
Â ³
Ġher bs
ĠCo ordinate
T ip
------------------------ -
Ġneat ly
ĠH um
Ġar med
}\ \
Ġqual ified
Ġan ticipate
Ġch am
Ġprev ention
ĠConsist ently
Ġtraject ories
ĠCont emporary
ĠObj ectives
T aking
ĠAd minist
Ġk ept
est y
Ġl atter
Ġpar ti
clud es
Ġjourn aling
) ".
ul ative
ĠB ay
Ġcor d
g ency
ay ment
Pro v
Ġsustain ed
++ )
7 2
ĠTechn ique
abet es
Ġm ol
Ġfacilit ated
ĠPro of
Ġpresent ations
ĠMain tenance
p ack
Ġ3 60
Ġdu ties
Ġapproxim ate
Ġperf ection
Ġc ush
D etermining
ĠS T
ĠR i
Ġper tains
Ġaut o
Ġs ister
Ġd ental
Ch o
Ġspe akers
Ġeth nic
ĠOptim ize
ĠL ines
ĠN ative
Ġind igenous
ĠAddress ing
Ġvar ieties
8 5
Î ±
Ġal ert
pl aces
Ġtra il
ĠMin im
ĠC and
ĠEd it
Ġpra ise
R NA
c ertain
ĠS tir
Ġgra y
ma x
+ (
ĠPare nts
M C
ĠPh ilosoph
ĠAcc ept
S P
Ġim bal
Ġnew found
ch ron
xim ately
Ġfarm ers
Ġtimel ine
Ġem it
Ġtop s
Ġcand les
Ġc ow
ĠD ue
Ġsh irts
Ġgalax ies
ĠE gyp
Ġrot ating
ĠCal ifornia
Ġrepeti tion
Ġsocio economic
ĠExam ination
Cont emporary
Ġintim acy
4 9
Ġsign ature
Ġ rip
ĠM al
Ġtyp ing
Ġsell ers
ĠLink ed
Ġcur ric
Ġsee ing
ĠAppro pri
Graph ing
Ġsug ars
p ic
ĠL abel
Ġinform ative
udden ly
iz ers
ĠL in
bo ards
Ġtoler ance
h i
Ġnon linear
Ġupd ating
ĠI V
Ġlog ic
ĠBack ground
Ġt enth
ĠS an
Ġprec autions
Ġmor ph
Ġsket ching
Ġimag ination
Ġreplac ement
are r
Ġgr ant
f ox
Ġsol ids
Con vert
in ct
Ġc affe
Ġexerc ising
6 6
Ġremo ves
------------------------------------ ---
Ġwr ist
Ġfro zen
ĠIss ues
Ġceleb ration
ĠS at
ĠAl ign
Ġ199 0
ĠMo ist
Ġtack ling
m ers
Ġmod ified
int end
Ġconver ted
Ġhalf way
Ġath le
Ġinhab it
or us
we et
Ġnucle i
Ġfem in
Ġepis odes
Ġculmin ating
n ov
t bW
ĠExpect ations
ĠAd ditional
% ,
d egree
Ġc atching
Ġre jection
Ġnot ably
Con f
Ġreflec tive
ĠCy cle
F ile
M AP
\ ]
o ise
ari a
Ġinst inc
ffici ency
ĠOpportun ities
r ator
Ġadjust ment
Ġout ward
Ġp our
Ġwhe els
Ġst umbled
ĠM ia
Ġbre ast
Ġcondition ing
ĠâĪ «
C ap
}{ (
Ġrel atable
imin ary
Ġrenew able
ous es
Ġparamet er
ĠW all
o vered
Ġansw ering
i en
Ġor th
Ġun ion
Ġshel ves
I G
Ġclim bing
h op
ĠA nt
Ġbirth day
it a
ĠDec imals
el ine
Ġelev ated
Ġalt ogether
ĠP ow
Ġim aging
ey ond
te in
Ġgar n
ĠF alse
Ġenh anc
ar ound
ĠF arm
Ġunch anged
ut ations
D ele
ĠL oc
tif ied
af e
Ġl un
Ġpoly g
ĠExam ine
Ġsub sequently
Ġcustom ized
L ess
Ġ ounces
ar ting
Ġr ank
C B
Ġb ite
Ġin k
Ġimplement ed
Ġtra ce
Ġc oding
Ġh at
Ġind oor
bs p
Ġemp ower
M s
Ġsub mission
il let
ĠL ily
Ġmass es
Ġscr atch
Ġswe ep
Ġimm ers
Ġcle ver
Ġstre aming
ĠPur sue
ĠMay be
Ġcelebr ating
Ġw ings
Ġmir rors
Ġprec ip
Ġstick ers
en sion
gg regate
oph y
Ġstim uli
Ġinstrum ental
Ġfat ty
oten use
en ergy
ĠInves tig
Ġoverl ooked
ĠE ll
ĠF iles
ĠTra vel
Ġres pecting
Ġqual ifications
b ed
ad o
Ġch amp
ors o
Ġsign ing
Pre c
ĠRef ine
Ġreson ance
Ġp ec
ĠM or
Ġper c
Ġsem i
p ed
ur s
Ġcons ensus
Ġcal ming
zz le
ud s
Ġimag ery
Ġpath ogens
Ġencompass es
ĠStatis tical
Ġcommun ications
U nder
ĠE yes
Ġundersc oring
ĠHig her
Ġo v
Ġoverl ap
Ġw ires
ĠS end
ump ing
Ġtherap ist
C lick
ĠP aint
Ġpit falls
ĠHar ry
Ġagric ultural
Ġveterin arian
0 1
Ġwh atever
Ġter rain
Ġsmart phone
ĠIns urance
T im
Ġstre ams
Ġfil ms
Ġeleg ance
Ġr ic
Ġres orting
Ġachieve ment
ĠInter preting
Ġcater ing
ĠOut line
Ġspread she
Ġpromo tion
Ġmetabol ism
w in
tr bf
Ġpu ppy
Ġappli ances
id ers
Ġtri ed
Ġpriv ile
Ġconj ug
G ood
Ġv entilation
V er
or a
Ġ( (
ome ga
Ġag ing
htt p
ĠEff ects
Ġcro ps
Ġh ook
wh at
Ġintr insic
Ġw ax
Ġint ellig
ĠEn able
Ġban king
Ġboo sts
P V
Ġ20 22
Ġent rance
ĠEm ail
Ġliber ty
ĠImport ance
} -\
ur ate
ĠEnc oura
Ġgroc ery
round ed
Ġreturn ed
Ġsho e
Ġ( +
Ġguid ed
ĠDef ining
D on
ĠL ED
Ġhairst yles
6 00
M ax
Ġc ourage
ĠD ed
Ġdef e
Ġeduc ators
Ġhyp othe
Ġre he
ĠD u
Ġvo ices
Ġblank ets
Ġdet erg
Ġshow ed
Ġv oting
Ġac ne
lic t
Ġoff ic
Ġvari ed
18 00
D E
} }{\
Ġbet a
r ings
ol ly
ĠT ow
Ġf ather
Ġv ote
ĠStud ent
ĠStat ement
Ġbuck et
Ġref resh
Ġsurve ys
ĠS en
ĠBl ock
Ġmach inery
at ar
Ġsc rap
ĠE s
Ġsal ary
Ġbed ding
Ġadm iration
Ġh obby
F urther
Ġclos est
B re
D A
Ġp el
Ġan t
Ġmin us
Ġpod casts
Ġqu otes
------------------------ --
9 2
Ġdra matic
Ġtom atoes
Ġt act
Ġb orders
Ġy es
Ġram ifications
c onst
Ġo z
Ġl ux
ĠPrep aring
Ġgreen house
ĠDraw ing
ĠBo ard
Ġdiges tive
Ġneur ons
ĠAust ral
L i
Ġc iv
Ġdep loy
Ġ19 80
is ites
Ġal oud
ĠMed ical
Ġtem p
ĠReg ulation
ĠDef inition
ĠMem ory
Calcul ate
M ac
Ġl n
ĠBen efits
Ġr insing
ĠPol ar
Ġcup c
ĠReal istic
Ġre vers
ĠT er
}} $
Ġint ention
Ġk m
def ined
N umber
ĠW here
ĠPers ist
Ġborrow ing
ĠSym bol
ĠTou ch
ĠIn g
ĠTrans port
pre ced
5 7
Ġs en
as si
Ġmin eral
Al though
requ isites
Ġham ster
oc rine
Ġcool er
e z
ĠS ources
Ġpo res
Ġ'ðŁ ĵ
Ġ ?
Ġcomp ression
Ġopen ness
ĠMicro economics
ĠTra in
Ġdru gs
P sych
ĠR ich
Ġapp eti
Ex per
ĠSh ape
Ġbored om
Ġd uc
tic ism
Ġassoci ation
ĠRes pond
Ġtun ed
Ġinsp iring
IiIiIiIi IiIiIiIi
) '.
ĠS and
Ġsaf er
Ġalb um
Ġcho res
Ġm eth
om er
Ġex foli
un ks
Ġexperiment ation
Ġtap estry
N on
Ġall ergies
Ġam en
ĠSlow ly
ĠF er
Ġsk ate
Ġpe er
Ġpublic ly
ĠSec ret
Ġp and
Ġess ay
J ust
Ġen erge
ĠMach ine
Ġsl ides
rit ten
ĠSur face
Ġven ue
Ġst ated
ĠM is
ĠQ ue
Maintain ing
ĠP ain
Ġbre eding
Ġcri tics
ĠBrit ain
ĠOver view
Ġdetermin ants
A I
Ġsatisf ies
Ġeyeb rows
Ġcarbohyd rates
Ġcre atively
ĠTh anks
ra nd
ĠP i
Ġdis posal
ĠAppropri ately
preced ented
st ing
ĠT rack
Ġ4 2
Ġbre eds
Ġdirect ed
pr il
im s
Ġappro ved
Ġatmosp heric
ĠKing dom
3 1
ĠLeg al
ĠHear t
ĠĠĠ čĊ
ĠM P
Ġvol ati
Ġenti ty
ĠEvery one
F e
ult y
ĠFr ank
ĠT ree
ĠS ide
Ġtick et
Ġpercep tions
n oon
it ters
ton es
Ġvic tory
Ġexp ose
Ġcorrel ations
) ^{
Are a
Ġdisc ontin
Ġenter pr
ĠMag ic
Ġm ig
ang ling
bu ilding
c ases
d iction
Ġag ility
Ġbeh ave
Get ting
o ir
Ġrem ed
Ġread ability
exp ression
E stim
Ġt orso
ĠH ost
Ġtempl ates
ĠComm and
ec es
Ġsur plus
L L
Ġvolunte ering
Ġempow ers
author ized
f oot
Ġwh om
Ġclean liness
Ġfu els
ĠT own
eng ers
Ġaff ili
Ġextreme ly
k ers
Ġ6 4
und ry
num bers
ĠLar ge
ĠMast ering
ader ie
Ġ ult
ar aderie
Ġun precedented
red ict
ĠPh one
izon tal
Des ired
Ġexhib ited
Ġst ations
ther n
Ġwarm ing
Ġsh allow
Ġj aw
Ġper missions
Ġra ises
Be ing
Analy ze
Ġd ining
Ġv ice
Ġfore ver
R U
ti bility
Ġcam araderie
ĠBle nd
Ġvigil ant
Ġco pper
Prep are
Ġparadig ms
Ġleis ure
S ch
Ġs ells
ĠS ound
ĠL ondon
ox y
Ġfil ing
intend o
e fficient
h ou
in fect
he althy
ĠC ultural
Cont in
Ġsenti ment
E nt
Ġal pha
Ġres erv
Ġtempor al
Ġl aughter
il ic
og s
Ġprov es
Ġent ropy
ĠEvalu ating
c he
al ian
Ġrel ates
Ġproduc ers
ordin ates
ĠSuccess ful
Ġstere otypes
Ġall erg
Ġcy to
ĠDep artment
;\ ;\
Ġhe els
ĠH a
til led
Ġexec utive
Ġcolon ies
ĠIncre ase
Ġorgan ism
Ġentrepreneur ial
Ġshell s
Ġscrutin ize
Ġgradi ent
Ġdevelop ers
Ġfold ers
Ġv igorous
Ġmac OS
Ġw est
} ;
Ġ ut
ar ms
Ġ= >
Ġdisc retion
ĠBC E
Ġmoistur izer
Ġpro c
Ġph arm
ĠList ening
ĠSc roll
Ġcr ust
O C
Ġco ast
ĠMod els
Ġproxim ity
Ġtri als
Ġsing ing
ug ust
ĠE ns
Ġdra ft
C an
ĠOff ice
ĠB ill
Ġabs ence
Ġrecy cling
ĠSubt racting
b ows
Ġfor ced
roduc ing
Ġharness ing
Ġa stronom
Ġst ocks
Ġengine ers
Ġhit ting
P roduct
Ġco herent
Ġpenal ties
Ġlist ing
ĠConsider ations
Ġjo ined
rest rial
Ġcrim inal
ĠH D
Ġdiag onal
Ġ lying
ol ine
Ġacc ent
Ġassign ment
Ġsacrific ing
Ġtend encies
Ac tivity
ĠLogarithm ic
Ġth igh
Ġsh ower
play ing
Ġs outh
ment ation
mer ce
re c
Ġan tig
Ġd y
Ġconn ectivity
Ġhol istic
ĠThrough out
Ġcos mic
---------------------------------------- -
k i
Res earch
Emp irical
O s
Ġn ights
ĠF lo
Ġstem ming
S l
Ġatt racting
Ġtri ps
Ġconver sions
Ġexhib iting
Ġintros pection
I CA
f e
Ġn ull
Ġpar king
Ġdisc rimin
ĠCustom er
Ġdoll ar
Ġperpet u
$ -
Ġatt ractions
ew rite
att ered
jo ys
v y
Ġsp am
Ġeyel iner
ĠA x
app le
ios is
ĠUn its
St ud
Ġsil k
ĠTh ough
Ġtra sh
Ġhon ing
ĠDeb ates
9 1
m ond
et tes
am ental
ĠB rown
Ġresp iration
Ġcour ts
Ġc ope
Ġhe al
Ġqual itative
u ra
Ġf ron
ĠF ast
ĠDe vice
Ġv apor
ĠTh ird
Ġnecess ity
Ġsuff ice
er ving
Ġtrick y
Ġconve ying
T erm
Ġext r
le q
Ġrandom ly
ĠJ ack
app end
Ġexpendit ures
ĠS erve
Ġad versity
epend ence
co ordinate
Ġm igration
Ġfinal izing
ĠFind ings
Ġautom ated
Ġfra ud
Ġstic king
he it
reg ation
ah ren
ĠSm art
Ġcryst al
- ,
c ount
ro duce
eterm ined
Ġliter acy
Ġen joys
Ġdi vers
Ġcurv ature
Ġ\ $
Ġevalu ations
Ġball oon
och ond
A g
ĠB aby
Ġcomprehe nding
Ġn om
ac tic
ĠE stim
Ġdiscoura ged
Ġphotos ynthesis
Less on
ĠSp ect
ĠAng les
Ġarri ved
Ġdepos its
ĠUp date
B i
on ym
g um
Sim plify
ĠO ct
Ad v
ahren heit
S D
el ess
Ġhead ing
Ġcontain ed
Ġdw elling
he res
ĠR iver
ord an
Ġacadem ics
Ġdemand ed
ĠLinked In
Ġp ound
ast ed
Ġmet ric
IN G
ĠTri angle
Ġt um
Ġre venues
Ġfin ishes
Ġskills et
Ġfes tiv
b el
Ġinv isible
ĠStruc tures
Ġch air
Ġly mph
ĠSim ply
Pl ay
Ġmid point
Ġimm ense
Ġfarm ing
Ġswit ching
8 7
Ġf ocal
A ng
Ġprov en
Ġsort ed
Ġlingu istic
E T
Ġd ys
ĠN a
Ġadvoc ating
ĠC a
cep tion
ĠM ary
Ġsp ends
Ġcomp osure
ĠRem o
Ġec o
ean or
Ġg erm
Ġpur ple
feren tial
ĠTem perature
ref lection
p ress
fort unately
Ġdra s
Ġnutri tional
ĠGood s
ĠProf ile
ĠB ow
H y
O f
X X
l ie
Ġinst ability
acter ia
Ġdel ay
ĠRo om
Ġb ent
ver ting
ĠC hemical
Ġser vers
ĠExpl oring
ĠRequ ired
Ġlifel ong
Ġro ads
The y
Ġsurround ed
ĠComb ining
ĠD etermining
Ġdiff ering
r ule
al gebra
ĠP erm
ld er
Ġdis posable
ĠIde as
Ġconfron ted
c ence
Ġc asting
it ers
ĠC raft
âĪ «
ĠSupp lies
Ġrush ing
P s
i at
ĠC opy
ĠP u
Ġpic king
Ġfore sts
Ġcaffe ine
t ype
id a
cl ock
iv ative
ĠSc r
Ġtrustworth y
Prac tice
Ġp lease
li ver
Ġhapp ily
Ġaccum ulated
Ġre form
em bles
Ġvari ability
Ġdi abetes
Ġdem ographics
Ġpolite ly
Ġg iant
Ġmiss ed
Ġcenti meters
Ġt an
op ing
og rap
Ġ6 5
Ġgu itar
Ġur gency
Cho osing
ul as
ĠEx c
Ġse ats
Ġboy friend
us able
Ġgraph ic
Ġconstruc tively
Ġd ow
lect ric
Ġlim bs
ĠSm ooth
Ġcall ing
Ġvac ation
Ġhousehold s
ĠConst ant
8 00
ĠP en
Ġsoc i
Rem ove
ĠConn ection
Ġcam eras
kary otes
6 9
od s
ĠB attle
Ġann ually
Ġult ra
ĠJ ud
tire ment
Ġfl atter
ĠTrans form
Ġsee ks
Ġdiff usion
ĠJan uary
H R
Ġp apers
ĠCom mit
Ġdiag on
Ġrot ate
anc er
| ----
ĠM arch
Al low
M aking
l abel
Ġpal ette
Ġcorpor ations
Ġrepeated ly
Ġb ell
ĠL if
ĠL ive
Ġdraw ings
Ġemerg es
Ġli ability
Ġreg ulating
Ġadvanc ement
Ġscal ar
d ie
Ġal uminum
ak ed
Ġfoot wear
ĠVol unte
------------------------------------ --
r in
ĠRe venue
ĠHarm ony
Ġp ip
ĠC ertif
ĠW ill
ĠSt ock
Ġche aper
M I
Ġb order
ĠS oc
ĠP ick
Ġse ar
k ins
Ġexclusive ly
Ġtooth p
Ġinduc ed
Ġbu gs
Ġtab s
ĠInvest ment
App lic
ĠFire fox
prove ment
ac hel
Ġex agger
Ġsm ud
ĠSim ultaneously
Ġbinomial s
ĠPic ture
d ry
Ġd airy
Ġbl ocking
Ġbreak fast
ĠP encil
Ġwh oles
Ġsp ices
ĠFirst ly
Ġofficial s
ĠAng le
ĠNeg oti
V ol
Ġh orses
ĠY es
ĠDevelop ments
}. $$
uli ar
in cess
Ġb ure
Ġal ph
od or
Ad ditional
Ġsuper f
ĠAnaly zing
ĠSt rive
D r
plit ude
Ġtra pped
Ġbul k
ĠThom as
) |
ĠA verage
and ise
e valu
Ġcr isp
Ġb io
ec tious
Ġtrans fers
ĠCl othing
Ġisol ated
ĠPhilosoph y
o pl
nd rome
ar ter
ĠN intendo
Ġagg ression
Ġpreval ent
Lear ning
ry ption
Ġfur ry
Ġrecur sive
Ġd ual
ĠA p
Con struct
Ġcho pped
Ġground work
-------------------------------------------- --
p x
Ġsurv ive
Ġcoc onut
p ublic
Ġs ink
ĠS ource
ĠB ul
Ġinconsist ent
z o
ĠF ield
rep resent
Ġpil lows
Ġt ract
ĠRes ults
Ġextensive ly
Regular ly
ul us
iqu eness
m ega
Ġn our
Ġph ones
Ġaddress ed
Calcul ating
Ġhaz ard
p age
ĠCan ada
Ġinstinc ts
Ġdec omp
St ay
Ġsmo king
Ġround ed
Ġpro actively
Ġper ipher
Ġafter noon
Ġdepos it
ti que
Ġb in
em p
Ġres erves
ort oise
Ġass umption
Ġmembr anes
ĠF ix
Ġ3 4
Ġcons ol
Ġmod ifying
Ġgra in
ĠGra nd
ĠRo ots
ĠCom pl
Ġstud ied
Ġcompr ising
Ġpredomin antly
Ġdem eanor
Ġnegoti ation
eles c
Ġspecific ations
Ġbr ighter
Ġhome ostasis
C lear
Ġout lines
Ġcle arer
Ġoutd oors
Ġc rop
Ġra il
Ġloc ally
Ġscar ves
A stronomy
Ġdivide nd
ĠMem bers
le ading
ĠDig ital
anc el
Ġbul bs
Ġconstitu tional
Ġf ranch
Ġun able
cep tions
L og
in ters
ĠD ise
Ġref rain
Ġstandard ized
Ġrequest ed
Ġt uck
ĠDisc over
Evalu ating
Ġex tern
ĠIn side
ĠAc id
h y
v ol
Ġw aters
Ġcoll isions
S ugg
Ġstim ulation
ĠDemonst rating
ĠM ental
Ġbul let
Ġcarri er
Ġpec uliar
Ġinc ident
Ġexplain s
Ġdam ages
---------------------------------------- --
oc hemical
ĠCh anging
ĠCur ve
ĠCel sius
Ġsol ved
Ġun authorized
ĠY ear
Ġbright ness
Ġphysi ology
y ard
ĠIm mun
Ġemerg encies
Ġsem inal
ĠHy per
ĠS up
ĠSc reen
Ġcloth s
c king
ĠT herm
Ġg ad
Ġperce ive
Ġcleans ing
Ġm ang
Ġinv ention
re al
Ġin timate
Ġende avor
MzMzMzMzMzMzMzMz MzMzMzMzMzMzMzMz
Ġpret ty
ĠD ynam
= '
at ula
Ġb rack
ĠF old
all ic
Ġhuman ity
Ġchromos omes
ĠA rab
Ġ( '
Ġcur l
o ber
ĠW al
Ġsk illet
Ġdilig ent
roup ing
Ġcontrast ing
pp ers
Ġimp ressions
Ġsub jective
Ġpost ing
Bu y
Ġexpendit ure
blesh ooting
Ġdis able
Ġel abor
Ġl ig
Ġequ itable
M us
Ġcrow d
Ġp es
ĠTou ches
P ay
d ict
Ġin cl
ĠFor ces
Ġreal ism
Ġstro ke
C oll
ĠB ear
Ġsyn chron
atom ic
Ġflo at
el ve
ĠW ay
ĠD omain
ĠRe actions
Ġsquee ze
Ġcomp ositions
Ġsuccess ive
Ġf usion
C C
Ġb reathe
Ġcontroversi al
E v
Ġany more
." ""
ĠProm ote
Ġrent al
ĠEmphas ize
Ġt ense
ĠM il
Ġ7 2
Ġ20 23
Ġphot ography
G ather
i king
Ġasser tiveness
Ġtes tim
D ata
u el
Ġres ide
Ġpr ism
ĠS uddenly
Ġco aches
Ġab n
Ġcl ip
M any
** ,
Ġbu nd
Ġapproxim ation
Ġimm igration
Ġox idation
Ġsp erm
Ġsmo ke
Ġt on
Ġun l
titu tional
ĠUs ers
ĠBrow se
v iet
Ġen ric
Ġres c
Ġsoc ks
Ġbra ce
Ġposition ed
Ġdrag on
Ġstit ch
Ġmic row
Ġhypothe tical
ĠSt ring
Ġopen ings
ĠAnthrop ology
Ġ --
Ġworld s
rac ks
Ġrep airs
ĠRes p
Ġpast a
I R
ad y
tu p
Ġrecord ed
Draw ing
ist le
oc l
Ġforg iveness
Ġillum inating
$ ;
duc tion
Ġbreak age
S earch
Ġactiv ate
Ġsw im
Ġbo ys
ĠTra ditional
Ġcomput ation
P F
an ies
ĠD av
Ġveloc ities
Ġg erms
R ewrite
ĠCon ditions
ĠDec l
Ġconfirm ing
R ight
Ġsell er
Ġadap ting
ver sion
Ġsh ooting
Ġsp inning
ion e
Ġpo em
es ome
Ġco valent
) [^
Ġc ables
Ġwith draw
Ġ6 00
ĠM ars
ari ous
Ġfl aw
Ġred ness
Ġfoss il
A m
Ġend urance
Ġble ach
Ġ ille
in ch
ĠG as
Ġro se
ĠEm erg
Ġformul ated
Ġcyl ind
Ġint act
Ġclean up
ti ps
Ġsp here
ĠG al
Ġinstruc tors
Ġbel ts
ĠG alax
Ġeconom ists
ĠSo viet
Ġasympt otes
4 6
Ġgre ens
ĠSo on
Ġtraject ory
Ġspac ed
ex ample
Ġcalcul ator
bre aking
Ġdistin ctions
Ġhing es
Ġst ops
ĠE gg
til ity
Ġcook ie
ĠNe ut
Ġad s
Ġdis m
Ġbr on
19 45
4 7
ro at
ind ing
Ġinform ing
Ġestablish ment
Ġconsum ed
im provement
Ġtransfer ring
Ġscrutin izing
ĠWebs ite
Ġwel coming
Ġclean ly
illi ant
Ġp atch
id ays
ĠTh ings
St r
Ġrot ational
Ġm ush
Ġun iqueness
Ġvir al
ĠWe ight
Ġpos ed
Ġcertif ication
N ot
r h
Ġimp acting
Ġeng end
ĠEx cess
Ġconf igure
Ġcancell ation
Ġli kes
Ġchar m
Ġgard ening
Ġclust ers
ĠInt o
ĠAut hor
ĠTrig onometric
Ġmul tim
Ġtw enty
Ġal ive
ĠD C
ĠJ o
Ġrelax ing
t ress
Ġflo ating
t une
Ġp up
Ġcollabor ations
C ri
L a
Ġpro hib
Ġbe ars
Ġche eks
ist ant
Ġro pe
Ġed itor
Ġball oons
ĠGe ometry
Ġelig ible
; &
b ling
c asting
gh t
fore seen
Ġvulner abilities
Ġmisc on
S R
t otal
} ,\
Ġsc an
Micro biology
P o
Ġfl ux
iver sities
Ġhost s
Ġt ar
Ġf ancy
Ġg rie
ath ing
Ġlit ers
l ists
os a
Ġsystem ic
Ġsa uc
Ġhyp otenuse
Ġabsorb ed
ĠAn ticipate
ov ie
Ġb acks
Ġmar vel
Ġbow ls
Y W
ag o
ĠY et
right arrow
Ġdress es
Ġsuscep tible
V al
roll er
ĠMexic o
y lic
ĠS MART
Ġlaun ching
Ġre usable
ĠT ut
ĠU r
ble m
Ġbel t
Ġsle e
Ġto ile
ĠExpl oration
g amma
Ġun healthy
ĠN ight
Ġsincere ly
Ġsc attered
Ġur ine
Ġsusp icious
Ġfundament als
C ut
W ell
h igh
or izing
iz ard
ĠOb jective
ĠR en
Ġswift ly
or ient
ĠĠĠĠĠĠĠĠ ĠĠ
ĠEnt repreneur
ĠEns uring
e ffective
Ġt ied
ti a
Ġsim ulations
Ġperson nel
Ġgroup ing
Ġjack ets
Dele te
Ġex empl
Ġ\ ,
ĠUn i
Ġcyl inder
Ġstress ful
Ġfresh ly
ĠPower Point
re et
Ġfoot ball
Ġm ascara
ĠA pril
Ġnotice able
Ġpercent ages
Sim ilarly
Ġt ro
ig er
Ġm uc
Ġ$ |
Ġhum ility
ĠDist ance
Ġmaneu ver
em ann
19 80
Ġt rop
Ġstep ping
ĠCal m
Ġpro posal
Ġsub c
Ġver te
Ġport ray
ĠEth ics
a tiv
Ġsome where
oc c
ĠSp read
Ġped ag
on ia
Ġyou th
Ġun foreseen
box ylic
om position
ie ve
================================================ ========
E l
Ġw rote
ĠEqu ivalent
ĠAchie ve
Ġg al
erc ury
Ġc ogn
is en
ĠA ggregate
ĠV el
titu tions
Ġsepar ating
ĠAccess ories
Ġdiver gent
Ġsh ut
Ġpersonal ities
ĠFin ish
Ġwra pping
Ġsuperf icial
p ower
it t
ĠMan aging
ĠSub tract
m ann
Ġp ier
ĠH al
Ġlit ter
Ġg ast
Ġsh ip
ĠRem ind
Ġam mon
Ġsol di
ĠPat ent
Ġdeterg ent
ic he
Ġbe nding
Ġj ar
Ġj elly
ĠVer tical
j a
Ġcon e
Ġas ks
rac ted
Ġwork er
ffici ently
ĠTail or
Ġf av
Ġaccess ing
Ġadjust ed
Estim ated
io tics
Ġcare ers
Ġtransition ing
Ġdimin ished
Ġprot on
Ġquad r
Ġquestion ing
l antic
â Ķ
ĠH yp
Ġtra p
Ġmass age
Ġinter disciplinary
Ġpack ed
ĠCho ices
b ons
gen er
ĠVari able
Ġsto pping
[ (
f ile
Ġout standing
Ġdef end
Ġhierarch ical
ĠV ector
ĠSe ason
Ġleft over
arg inal
Phys ical
Ġmulti player
Ġbl ade
Ġli abilities
Th ink
ĠWebs ites
Ġmus icians
Ġbrow se
======================================== ======
Ġ ~
ĠL ove
Ġdis advantages
Ġris es
Ġgr anted
Ġoccasion al
ĠHand le
ĠV e
Ġcompeti tions
Ġtimel ines
m n
in stein
av ailable
ĠR ect
Ġout lets
Ġvari ance
ĠF ur
Ġfl uffy
Ġpossi bility
onn ect
Ġcre ators
Ġad orable
Ġwant ing
Ġlicens ed
Prov ide
Ġf ails
Ġfor cing
ĠSt orage
Ġoff spring
Ġcr itters
Ġsn ack
Ġcapture d
M P
S w
Ġreg imes
Ġens emble
Ġbu ys
ĠRe infor
-------------------- --
m ain
r ho
Ġhal ves
Ġdele g
-------------------------------------------- -
Ġc ram
Ġp ipe
Ġch airs
Ġpr inter
ted ly
let ters
Ġtimel ess
Ġsad ness
Ġemp ire
Ġmet er
Ġmicrosc opic
L ook
k ets
Ġcos m
Ġdele tion
Ġinev itable
o pping
ĠI ce
Ġrequire ment
Ġindic ative
cent er
Ġod ors
roph ic
Ġsat ell
Ġl ining
Ġcan s
Ġdeb ts
Ġ'ðŁ Ķİ
Ġb its
Ġcont amin
ten sion
Ġappreci ating
b ial
f ly
Ġcere mon
ĠIng redients
Ġcon form
ĠH om
ĠSh ift
Ġdiss em
Ġconstitu ent
ĠJ ew
Ġn odes
ĠEm b
En c
ch o
Ġperson a
Ġround s
D eal
Ġfe ver
F am
Ġd ilem
Ġins ulation
Ġdisc ard
Ġbr illiant
N et
Ġ __
ĠIn structions
Ġsol vent
ĠPriv acy
Ġoff line
Ġdraw backs
Ġclar ifying
ĠO F
Ġartic ulate
Ġunf air
Sim plifying
Ġlips tick
Ġce iling
Ġorbit als
Ġwr iters
Ġcar ried
Ġgl ob
Ġarr anging
Ġtherap ists
Ġworth y
otyp e
i ol
Ġp ine
ĠLe ague
i ra
Ġw ool
Ġbl o
Ġcorner stone
ĠB ure
ĠCons umer
plic ates
ĠD rop
Ġres et
Sk rK
ĠTreat ment
E ven
Ġpath way
ĠForm ation
ed e
ĠT esting
Ġprim er
astic ity
Ġsw ings
ĠTr im
Ġadequ ately
Prec alculus
R T
c ies
Ġst ating
ĠB ob
ĠJ ordan
Ġlo ading
urrent ly
f irst
ĠSum mary
Ġun iversity
Ġstress ors
ĠDesign ate
ĠIndust ry
ĠWorks pace
P resent
Ġs ed
Ġhypothes es
Ġbub ble
Ġstit ches
ĠFeed back
ĠRot ate
Ġc asc
oub tedly
Ġkil ometers
it age
** *
Ġ3 7
Ġla undry
ĠSal t
ĠJ us
) ).
ag en
ĠO S
ĠPl ants
Ġdisrup tions
Ġstuff ed
ad ian
Ġsched uled
Ġthread s
ĠE asy
a a
Ġsubst rate
ĠMat rix
a ust
Ġre j
Ġent ers
Import ant
Ġintellig ent
k l
Ġd ash
Ġm ile
Ġactiv ated
Ġview ed
ĠStre et
t w
ĠDistrib ution
4 1
l ining
Ġ[ ]
Ġvers a
ER E
ĠPersonal ize
ĠAcqu ire
e q
f ts
ust ain
Ġk itten
Ġev oke
Ġsti ff
if ier
Ġle nding
ĠStud ies
k ward
Ġpro w
Ġv oid
Ġcomple ments
Ġpati ently
acks on
Ġpunctu ation
pp ings
Ġdirect ory
Develop ing
Ġrestaur ants
v a
Ġac ute
Ġ3 1
ish ments
Sec ond
ĠEs timate
ĠA ugust
Ġim plicit
Ġinv itations
ĠSc ale
Ġann oy
ĠIndust rial
ĠMa jor
B en
le ments
Ġst a
Ġacqu aint
Ġcha os
[ ]
Ġind oors
Ġra y
ĠRel ax
rad ation
Ġlegisl ative
l ox
al d
Ġre plication
se x
ĠG ard
Ġli ver
Ġsuscep tibility
Ġch urch
Ġplant ing
ĠSing le
" !
g ram
Ġst uck
Establish ing
O L
Ġp ix
ĠV an
Ġclass ify
Ġsmart phones
Ġenerge tic
Ġh os
if ted
ĠB ed
Ġu pload
Ġemploy er
ĠSu gg
uff le
Ġprow ess
6 2
Ġres ili
ps on
Ġmus e
Ġlay ering
Ġwire less
) :**
in ate
ac ci
Ġteam mates
O ff
em ail
Ġunderstand s
Ġphys ic
Ġn ost
Ġend ed
Ġhere in
ĠPsych ology
Ġtermin ology
Ġut ens
ĠS everal
ĠCon cepts
ĠComp onents
Ġbed s
Sm ith
ul in
um ed
ang ent
Ġinf ring
Ġdivid es
ĠH en
Ġspecial ize
Ġparent al
Ġappeti te
Ġyog urt
VVVV VVVV
Ġcon cludes
Ġadapt ations
Ġrestric ted
H and
k ay
ĠF ahrenheit
In tern
ink le
ĠProf essor
Ġattrib uted
Ġnegoti ate
Ġhormon al
E very
Ġt u
ĠP ret
Ġ$ {\
ĠJ ot
Ġ199 9
Ġinfluenc ers
Ġsib ling
Ġw ake
Ġcompanions hip
& =\
V isit
b one
im p
ĠB oo
Ġfoot age
Ġpossi bly
ĠG round
Ġfactor ization
ĠZ ero
Ġparallel ogram
Ġcounsel ors
C P
S U
Ġp acks
ĠF lex
ĠMeas ures
Ġexp ands
Ġdep artments
20 18
depend ent
ĠBrain storm
? !
R ead
r idge
Ġdef eat
ĠFeel ings
Ġre per
ĠR oll
ch ool
Ġconcent rate
Ġmas ks
Ġhair s
ĠCharacter istics
v L
Ġb od
ud inal
pl ant
Ġunder water
ĠExplore r
Ġnewsp aper
ĠDes cribe
Ġas leep
acter ial
Ġgener ic
ĠRec e
Ġund oubtedly
ĠPol ic
Ġsens ations
Ġimmun ity
G oogle
Ġp aving
Ġeng ender
ind ex
ĠX box
Ġparti ally
d is
Ġl adder
ĠT ortoise
Ġdet ective
Ġper me
Ġted dy
Ġpass words
Ġquar ters
Ġlegitim ate
Ġinhabit ants
v ised
Ġr ides
Ġbo at
ĠIndivid ual
is her
Ġf ailed
ra id
Ġver ifying
ĠDif ferenti
ep age
form ed
Ġsoap y
Ġg oth
ĠSt ars
Ġcons ervative
Ġpos it
Ġmeas urable
ĠRi emann
es tion
Ġimp ly
Ġra bb
Ġconstruc ted
Ġwrink les
ari um
Ġtub es
B enny
M r
Ġe lections
ak y
ĠG ar
ĠN ur
Ġinst antly
Ġmagaz ines
2 000
ĠJ eff
Ġinform ational
ĠSim s
Ġpain ts
ĠStud ents
Ġsafegu ard
Ġtact fully
N e
T e
m i
kew arm
Ġre tirement
ĠO il
E lement
ast y
Ġref lex
Ġmeaning fully
F A
ti sts
ĠTh inking
add le
5 8
u gin
Ġn aming
ĠL ee
Ġinf o
ept ember
Organ izational
Ġb icy
Ġdele ting
clock wise
ĠSome one
Ġresponsi veness
feren cing
Ġpro ps
oo led
Ġup gra
Ġtra dition
Ġfinancial ly
ĠEss ential
E U
S V
im um
ĠM el
ĠProm otion
u kewarm
he tor
om atic
ĠM ad
ĠB er
Ġsm ell
ĠDe vices
allow een
Ġcohe sion
Ġran king
Ġcomp ass
Ġresult ed
Ġpassion ate
ĠCir cle
Ġlend ers
Ġfact ored
plic ating
ĠPol ite
ĠOrgan izations
Ġpredic ting
Ġhundred ths
âģ ¡
Rational e
\ ),
l ights
Ġv ivid
hen tically
Ġover c
olog ically
ĠCont rib
ĠM er
ear ance
Ġpossess es
Ġsophistic ation
comp assion
ĠHam ilton
Ġtong ue
Ġmaintain ed
Ġmus cular
ĠVal idate
ĠRati o
Ġrec ruit
Ġstri kes
Ġdetermin ant
h ist
Ġpr inting
arc ity
Re view
Ġinfinite ly
Ġrit uals
Ġcryst als
on acci
ĠD id
let es
ĠDis ney
Ġri val
Ġbol ster
ĠComple ting
Ġdest roy
Ġbak ery
Ġgalax y
Ġaqu atic
Ġrefrig erator
it als
Ġanim e
Ġsitu ated
Ġmar ine
ĠWilli am
ĠRe lease
Ġexer ted
Al tern
Ġappoint ment
Ġneg lect
Ġbo il
ĠPlay er
Ġdiction ary
Ġc od
ĠPr ime
App ro
Ġtransfer red
' '
re ated
Ġint ens
Ac tive
Ġsem inars
D S
ĠProg rams
or ms
ĠCon cept
Ġcurren ts
ĠL ast
hetor ic
om a
Ġprot ects
ĠRed uce
No tice
p urpose
Ġsec urities
Ġup h
Ġdisc ol
ox id
Ġtables poons
Def ining
Phys ics
ver sible
ut en
Ġall ies
Ġlaw y
dri ven
Conn ect
Ġf iction
ĠP ast
Ġint est
Ġel ong
Ġcy ber
Ġsubscrip tion
Ġpol ice
Ġlo osen
ĠDep ression
-------------------------------------------- ---
ĠF ull
Ġinc idents
olog ize
ĠSp ot
Ġsecure d
ĠPat ty
Ġhear ts
odynam ic
Ġutil ized
ĠTran sition
Ġab road
ĠCar bon
ĠGen uine
Ġsafegu arding
ĠDrag on
in come
ad ed
Ġres ides
ĠQu an
Ġwond ering
mar ize
y our
ro ck
Ġhapp ier
Ġdehyd ration
ti zation
Ġcon ditional
Ġco ach
ĠO liver
Ġneck l
5 2
ĠEduc ate
Ġarchitect ural
ĠFund amental
ĠA round
qu isite
Ġ3 3
Ġ3 8
Ġ19 60
ĠForm ulas
Ġcoordin ating
Ġvan illa
ĠTh ose
Ġmanip ulations
Ġric her
Ġill nesses
vant age
Ġdisturb ances
9 7
Ġspec ify
Ġam pl
ĠFor ms
ĠBl u
Ġmes h
Ġun iversities
Ġ199 5
Ġanx ious
P D
t est
ct ure
n bsp
Ġun related
Ġtri ple
Ġfree zing
os omes
ĠRes istance
io let
J oin
S pecific
Ġh one
ĠL ic
Ġpr ide
Ġloc ating
St and
Ġconvinc ing
Ġle mons
mer se
Ġuniform ly
} |
Ġcr ime
Ġcleans er
Ġgradi ents
im ens
20 21
ĠMechan isms
h an
ig g
ips es
ĠIncre ased
Ġth roat
Ġ15 00
Ġthrow ing
Ġmerch andise
Subs tituting
P j
er ce
ĠB on
Ġgu inea
St ruc
ĠBal ancing
Ġeu karyotic
Ġind ices
Ġconn ects
mon ary
E nd
ĠInf ections
ĠM atch
Ġapp rais
Ġle ts
Ġpar tition
Ġillust rates
Ġcouns eling
Ġsear ches
m ol
Ġas certain
ĠYou ng
Ġlength y
Ent repreneur
ĠSup reme
a fter
ĠD ri
Ġsqu irrel
Ġbroad en
Ġ199 8
ilos op
Ġsin us
ĠOpportun ity
Ġgu y
str ual
ra ss
Ġn ick
Ġch unks
Ġmod ification
Ġleg ally
I ng
Ġp aired
Ġre ar
Ġsleep over
Ġlic enses
ĠHarmony ville
Ġb oot
ĠP ubl
enc ed
eed ing
Ġwere n
ĠUp d
ĠLim its
Ġpersu asive
ĠC SS
Ġimp air
Ġinter medi
Ġclar ification
er ators
Ġb ake
Ġk ill
Ġrec re
Ġmotiv ate
Ġ199 7
Char acter
m akers
Ġacc ents
ĠAr c
ĠCol ors
18 77
Dep ending
Ġcupc akes
Ġdeg radation
Ġneut rons
Ġsuff ering
ĠCh urch
Ġiniti ative
ĠMeas urable
ac tivity
Ġg um
Ġfun gi
Ġsl iding
}$ )
Ġrestric t
ĠQues tion
Ġsulf ur
ab out
ĠP or
ĠE con
Ġexam s
Ġpublic ations
Ġheterogene ity
Ġb atch
Ġh ooks
un a
Ġtw ists
Ġel bow
Ġtrac es
First ly
ĠLay out
Ġt aught
Ġc it
aw ai
m outh
ic hes
Ġde void
Ġk et
ou ch
Ġout wards
Ġvend ors
Ġh ire
gin ia
Ġcontin ually
ĠDire ctions
Ġbak ed
in cluding
Ġemb ell
Ġbur den
ĠProm pt
Ġaccompan ying
ĠC ateg
Ġsim ilarity
Ġsk irts
Ġte aches
organ isms
H T
a ways
Î ²
am ic
20 19
Ġmen us
Ġcompr ises
Gra de
Ġmonom ials
f el
ĠE p
Ġread ings
Ġworry ing
echn ology
Ġsun screen
( );
Ġtra um
Ġno tification
Ġappe ared
Ġvis ited
Ġox id
P rior
on ials
Ġd irty
por tion
Ġtail s
Ġleg acy
Ġpost er
ĠMeasure ment
Ġun for
Ġ& \
Ġlo ving
ĠInd ependence
E arly
Ġd aughter
Ġup front
Ġapplic ants
Ġaw kward
ĠOp tion
Ġvi able
Ġentertain ing
Ġdisp ute
ĠEncoura ging
Ġinform al
Ġt ired
Ġc um
ren ces
ĠPer cent
ĠPric es
c ost
Ġan atomy
Ġoper ates
Ġveter inary
ĠThe m
ub ric
ĠJ ane
Ġ> =
ĠAg re
ĠAud ience
Ġrip e
Ġcor rup
Ġend point
Ġphilosoph ical
j i
Ġback yard
Ġacid ic
Ġafford ability
c ultural
4 3
Ġch ose
ĠR id
Ġrel atives
ĠSci entific
ĠQue en
Ġsp inal
ill ary
Ġcomm erce
ĠV ary
Ġadap ted
Ġres emble
Ġauthentic ation
Exp and
Ġinquir y
P al
Ġor anges
Ġle aks
ies t
Ġbath room
w s
Ġd im
oc ity
int age
plan e
lo ves
Ġhol idays
Ġmel ting
ĠChild ren
s ided
ĠS y
ĠR ab
Ġel bows
1 60
ac her
Ġquan tify
Ġoccup y
Ġmort gage
rast ination
ĠF ish
ex pl
Ġattend ance
b matrix
ĠF air
os c
Ġdivide nds
ĠHy giene
dri ver
6 1
Ġbe ef
ĠR ome
Ġres ort
Ġmost ly
}} }}
Ġhun ger
g ov
Ġtrans cription
Ġutens ils
P N
W ater
ĠR ange
ĠJ une
Ġaccommod ations
Ġpock ets
ĠC orpor
Ġsp atula
Ġanim ation
Ġaf raid
Ġdisappoint ment
V B
Ġun in
Ġbel ly
Ġrest oring
ĠOther wise
Ġc akes
Ġno tifications
Ġroll s
Ġelectro ly
ĠL iving
Ġabund ant
assi um
Ġd t
ĠA S
Ġen velop
Ġfer tile
Ġmarginal ized
ĠRespon se
Recogn izing
Ġin clusion
Ġo ily
Ġcont est
ĠM art
por ting
lec tively
Ġbra id
Ġstring ent
Ġexh aus
Class ify
H ist
L ong
ĠF abric
Ġsp an
Ġmat tress
Ġconcer ts
ĠAt oms
Ġtrac tion
ĠAre as
Ġcounter clockwise
ĠP air
In iti
Ġemb ry
Ġtransform ative
Ġinters ecting
ĠM aterial
Ġround ing
Ġliber ties
ip er
Ġse lective
Ġwor ries
Ġdistin ction
Ġwarr anting
unt ary
Ġthous and
P oly
Ġam plitude
Ġparamet ric
Ġscienti st
Ġs enses
ĠJ es
Ġgl ands
Inc orporate
P e
fore st
Ġinstruc tional
âĪ Ĥ
Ġkn ots
Ġat e
Ġgr ime
vent ory
ĠW ire
ĠM aps
equ ipped
Ġdry ness
Ġsymbol ic
ĠStreng th
Ġ rack
Ġw elcome
Ġpres idential
17 63
Ġambigu ity
Comm un
Ġc roc
ĠC ath
Ġsh ield
ĠCom mission
M ost
Ġc ru
ĠS eed
ĠSt ret
t ry
th ree
ĠSh ared
ipp ers
v ate
Ġw ing
ill ance
Ġsuc c
Ġop tical
sh irts
Ġcul inary
w all
ĠA M
get table
Ġtrust y
Ġcard board
ĠGet ting
Ġperman ently
Ġprov isions
Ġdec omposition
Ġexplo it
Ġad ditions
ĠWh ole
Ġtri angular
Cl oud
Ġdil ation
Ġswe at
Ġtherm odynamics
ĠPa ul
2 50
t ake
al ysis
Ġo sm
Line ar
ĠL uc
Ġdef ici
of ten
Ġinvest ed
Ġcred its
Ġban ana
ĠSaf ari
Ġs q
it an
ĠF lor
ĠL ou
as ks
ĠT or
ri an
ĠD ance
Ġsp ell
Th ank
ĠTe ach
B as
t ag
Ã ¡
ĠR isk
Ass ess
Ġchlor ide
Ġtenth s
Ġc ave
Ġh all
Ġco inc
Ġinter ns
Ġobserv ational
Ġuncover ing
ĠD VD
ew ise
Ġsl ots
ĠConvers ations
he ast
Ġon ions
ĠEd ge
Ġdifferenti ate
Ġfif th
dic tions
l it
Ġsk ep
Ġemp athetic
inet eenth
Ġrabb its
Ġs kew
Ġexam ined
cle ar
19 8
ĠRef lection
Ġdownload ed
Ġb ooking
Ġn erves
Ġst orm
art ure
Ġenrich ing
Ġmand atory
L ocate
er ning
tiv ari
vel t
Ġprev iew
ĠSE O
ĠLin ux
9 3
Ġsp ons
ail ure
Ġrem in
Sc ape
Ġwar ning
ĠWork ed
ĠPhotos hop
Ġskate board
g ame
Ġm ys
Ġun con
Ġmut ations
ĠSol ar
ĠTex as
-------------------------------- -
ĠBal anced
Ġl iner
Ġfor k
ĠE ating
Ġdown time
Ġalloc ating
ĠS ir
Ġal erts
Ġkind ly
Ġtrigg ering
Sugg est
Ġacquaint ances
E M
P rom
rac ious
oo f
roduc tory
Ġliber al
GB T
if fs
Ġtra ps
Ġfirst hand
Ġfra gment
S ur
b ec
Ġs orting
ĠS ex
ĠKey nes
Ġupl ift
D irect
mer ge
Ġvol can
ultane ous
U T
ol a
Ġcross es
ĠInter view
Ġdepic ting
ag ements
ĠD est
ĠD eterm
Ġexp ort
oose velt
ĠComp anies
ĠIslam ic
Ġmamm als
ĠT en
Ġfact orial
ĠAr gum
Ġsil hou
Ġwr iter
Ġwhe at
Ġinten tional
kele ton
ĠLead ership
Ġbrid ges
Ġst ellar
ill ips
Ġh uge
ri er
Ġprot ections
ĠWhen ever
Ġfore head
Ġprint ed
Ġcauti ously
ĠCir cul
ĠVolunte er
C ur
M ed
Ġcap tures
Ġfact ories
c hers
Ġobjective ly
ĠRad io
In stall
* -
w riting
} )^
un ci
ĠH alloween
Ġse wing
Ġtw elve
Ġown ed
pro fit
s igma
vers y
20 17
ĠDec ember
Ġrou ter
b a
w iki
Ġh iking
---------------- ---
Ġcur tains
onst ruction
il ation
Ġse es
ĠHand book
Ġdrain age
Ġille gal
- (
at ched
Ġg ross
ĠD S
une Scape
om ics
Ġsubs id
Ġautom ation
Ġassign ing
---------------------------------------- ---
F F
z a
ĠT alk
Ġcorrespond ence
Ġpredic tive
Ġentrepreneur ship
b iqu
Ġep it
ĠSubt raction
_ \
Ġl aser
ĠO cean
Ġno ises
Ġvis uals
Ġpoint ed
yn c
ov able
ĠPan el
G reat
Ġh tt
Ġlabor atory
Ġcompar able
F riend
Ġp ests
ent er
ine ly
Ġsub m
Ġexplore r
dom inal
Ġbuff er
N O
an sion
Ġaccess ory
ĠAbs or
el eration
ĠP ac
Ġav oc
F ree
f ix
ĠF ar
ign ed
Ġcomplex ion
Ġord ering
ĠRob lox
ĠIm per
Ġliter ary
Adv anced
M echan
Ġd ign
ab e
Ġve gg
bre ak
o ples
Ġan k
Ġsubt ly
Ġbar rel
Ġri vers
Ġm erge
Ġre ject
Ġcomp ost
ĠN ations
Ġreplac ed
Ġpep pers
Ġtrain ers
N C
Ġunfor gettable
Ġ1 60
Ġcl an
m ap
Ġsusp ic
V C
Ġso othing
Ġseason ed
ĠDocum ents
f ig
Ġg lean
Ġsc ul
Ġdistrib uting
Ġfo il
Ġinstant aneous
l ined
ĠB atter
en ic
ĠM iss
Ġbl ades
Ġbol st
Ġse lections
Ġob vious
ger y
ĠDi agram
Ġfeather s
Ġval ence
Ġtra it
ne q
20 20
Ġble eding
ĠOf ten
Further more
Ġb are
Ġenc ryption
ĠAcc ounts
ĠPre c
Ġsoldi ers
Ġf ake
Ġcomm od
ĠGra ce
Ġhierarch y
Ġmargin s
Ġr ust
Ġeng agements
0000 0000
inten s
Ġg aze
ĠW omen
Ġsw elling
ĠSecond ly
qysrK Skr
Ġc rown
it udinal
Ġdimin ishing
ĠVari ous
ĠSn ail
| ---|---|
Ġl ash
Ġeconom etric
Ġvir tu
ĠTim ing
Ġmean ings
Ġtom orrow
intens ity
ater n
ive red
Ġbl ame
Ġenc oding
Ġd os
Ġab and
Ġpot ent
inter cepts
Ġmist ake
bor ne
g un
Ġrem inder
Ġag end
Ġglobal ization
cont rol
Ġspo ken
orient ed
qu ar
ves ting
Ġsupp ress
Ġturn over
Ġboost ing
ĠC ards
Ġde veloper
og ging
Ġimp ose
Ġdu o
ĠGirl s
Ġcompet e
on ial
Ġint end
ry lic
Ġlife time
Ġill usion
Ġprogressive ly
} (\
Ġto gg
st on
Ġexp orts
ĠAff ect
ĠR h
Ġmark er
Ġaut hentically
tif icial
Ġ199 6
Ġâī ¤
ĠDr ink
ĠMind fulness
Ġproj ections
Ġd in
ce ived
Ġu biqu
enti veness
Ġbes ide
. \
ra ining
te e
ĠHor izontal
y al
Ġillust ration
18 98
Ġpray er
M in
\ ).
s im
Ġ9 5
Ġjud icious
Elect ric
Ġgrapp le
le e
ĠP R
Ġpre y
ĠH em
Ġallow ance
Ġ197 0
Ġc avity
Ġpred etermined
Ġfunctional ities
Ġjud ge
gl ass
b x
w est
id el
Ġafter ward
Ġcoll ision
Ġestabl ishes
Ġsus pect
Ġammon ia
ĠIn ternal
Ġimp ress
ĠA sian
av al
Ġsl ip
Ġpres cribed
Ġmount ains
Ġcorro bor
: .
V is
Ġb at
am ina
Ġcl osure
Ġsol ute
Ġsubs tituting
Sk p
E ar
h our
Ġcont amination
Ġatt acking
Ġdr um
ĠPolynomial s
b age
Ġ ________
Ġo kay
aps ed
Sam my
ĠR ather
ut ors
Ġdis mis
Ġjo kes
y a
Ġc ough
Ġs or
Ġbe verages
Ġsc rip
Ġques ts
Ġthick er
Ġimm ig
F ill
Ġmat te
As k
Ġalg ae
H z
Ġindic ated
Ġrecep tive
ĠL GBT
Ġsn ug
ĠPar is
Pro blem
Ġnews letters
Ġenzym e
ĠNegoti ate
ed ay
ĠL atin
Ġdis tilled
ĠLif estyle
n as
Ġ ic
Ġp ens
am i
ĠM ail
ĠEx ec
Ġmet a
Ġstir ring
n ode
Ġconcer ned
Ġwarm er
ĠAdop ting
) !
O K
Ġin ver
Ġplan es
ĠRes erve
Ġlo ads
Ġimbal ances
: :
a q
s v
et ooth
Ġsh ocks
Ġwhere by
Ġinf ected
Ġlog ging
Sh ow
Ġod ds
ĠFr anc
Ġmanager ial
ĠH alf
ĠU K
Ġelect ed
Ġexh aust
Ġell ipse
Ġtoile t
Ġa u
Ġ5 4
wor ms
Ġfl ood
Ġche ek
Ġplay time
ĠX P
ĠStrateg ically
Ġpun k
Ġrecording s
Ġf urn
Ġv ascular
Ġfoot print
ĠCompeti tion
ĠP il
Ġanti der
Ġcamp ing
ĠOpen ly
ĠA lice
ĠE instein
Ġnot ed
Ġjud gments
ĠDecor ate
ĠB inomial
Ġsp a
Ġsp ills
Ġadjust able
Ġdepend ence
Ġanticip ated
ra ge
ĠD ust
Ġve ins
Ġbrow sers
Ing redients
? **
y c
Ġpro pri
Ġstrong ly
Ġbreak through
Ġdr ill
Ġhom epage
Acc ording
P ersonal
Ġa ward
Ġex otic
Ġv otes
Ġsom eday
[ -
w he
Ġcle aring
Ġbl ush
Ġreal izing
ĠPrac tical
Ġtree house
Ġamb ient
ce ans
ĠB ond
Ġback ups
Ġconflic ting
Ġhost ed
Ġdialog ues
ĠPolic ies
ĠM obile
ll a
Ġread s
Ġweeke nd
Ġres olutions
Ġcol oring
ur ous
ĠC ub
Y Z
Ġl ukewarm
Ġrel ating
Ġext raction
tiqu es
f r
ri zz
ĠR oosevelt
Ġcl ay
ĠDec isions
Ġappe als
ĠM ic
Ġexam inations
Ġfair y
Ġradio active
Ġdiscount ed
Ġaer obic
Ġt ech
at us
Ġf ic
Care fully
Ġp ile
.. .,
ĠCorrect ly
Ġpedag ogical
Ġcy t
et ers
Ġcon es
ĠJ uly
Im plement
Ġencl osed
ĠChann el
e lect
ro ot
ĠW ave
Ġpre l
ĠJ ackson
Ġcarp et
. $
Ġauthor ized
mark down
ĠT ele
Ġco al
Ġreduc tions
Ġpair ing
Ġ199 4
P G
ool s
Ġchild hood
Ġwra pped
ĠEgyp t
Ġdign ity
Ġfl ags
Ġdefin itive
Ġtid y
Ġinf ectious
ĠCons ume
Ġcab in
Multiply ing
Ġm ales
Ġsp ouse
ĠSc issors
Ġarg ued
Rec all
Ġorigin ally
ep tion
Ġhe x
ĠIt alian
Ġher itage
Ġstre ets
ĠEast ern
f old
{ {\
ĠM yst
og l
li ament
po sitions
Ġnumer ators
ĠRef er
Ġrecip ients
am el
Ġhand made
Ġabsolute ly
Ġod or
Eng aging
d istance
ĠF ox
Ġsim ultaneous
pec tions
Ġhas ht
Ġlater al
Ġpredic ted
ĠBet ter
Ġdistingu ishing
Ġwip es
ĠO cc
b ru
ist ers
ctional ity
P erson
m ber
Ġ racing
act ory
Ġtra dem
tal k
Ġear rings
Ġprep ares
ĠQu otient
ĠÃ ·
Ġtow ns
Ġimper ial
Ġlicens ing
cl oth
Ġfound ed
ĠTim es
Ġtestim onials
Ġt ent
Ġpropag ation
g ames
i tively
ĠN ormal
Ġfl air
ĠâĪ ł
Ġconstra int
ĠDi agn
Ġbure auc
H ERE
Ġtra ded
ĠSp ain
ynt hetic
Re ferences
B al
ra di
Ġrel ativity
|---- |----
ĠJes us
ra sive
ul atory
Ġal mond
Ġwork force
put ing
Ġincorpor ates
ict or
Ġred istrib
ĠConf ed
othe rapy
L Skr
M at
Ġpro l
text bf
Ġple asant
ĠEss ay
ĠPolite ly
Ġd Ã©
Ġproble matic
equ al
ĠTut orial
P R
T ext
i ances
al ine
ĠW ise
Ġso aking
Ġutil ities
Ġ18 00
Ġfresh ness
Ġunderm ine
Ġs li
ĠP S
Ġcre w
Ġover load
Ġconstitu ents
ĠVir tual
ĠFort unately
V ID
Ġdet ecting
Ġmod est
iment ary
Ob ser
Ġcarri ers
ĠC ot
ĠB aking
ĠPh il
L T
c at
p op
ĠI ron
si tional
Ġmast ered
Ġnod ding
ĠC H
Ġres erve
here nce
Ġacadem ia
ĠInd ex
Ġlisten ers
in yl
Ġb ounce
Ġch ats
ĠCount ry
Ġanthrop ology
Ġw ound
Ġv es
os ures
ove mber
s k
Ġs ends
Ġb oss
uc tion
Ġal ien
rac ellular
Ġrep ayment
Ġmarket place
Ġsuper vis
ĠSub mit
Ġdoc tors
ĠImport ant
b ones
Ġexp oses
Ġopp osition
Ġinsight ful
Ġsens ation
Ġcontro versy
Ġcom ed
ĠB ooks
Ġres ent
ĠDed icate
c tures
Ġt ourn
pon ential
Ġground breaking
Ġdest ruction
C entral
ĠW alk
Ġ4 9
ĠCon text
Ġpick ed
osph ate
ĠComp ati
Ġbul b
ĠStat ements
ĠEvent ually
L im
ĠConf lict
ĠRout e
Ġpil low
ĠResponsi bility
f ollow
m id
Ġco ating
Ġph ilosop
____ __
ĠS now
ĠW ant
ĠN otes
Ġdiv orce
Ġoccur rences
ĠMus lim
Ġcu is
Navig ate
Ġmit ochond
Ġg rate
Ġhe el
ĠC trl
ay er
Ġab rupt
Ġar rows
Ġread iness
Ġsupp lied
ĠLog arithms
Ġstation ary
ĠInvestig ate
ĠOct ober
P op
u ities
Ġthe sis
id ency
Ġ5 6
ĠFin ishing
ĠPlat forms
P ower
Ġsh oot
Ġdel ivered
ole cules
Ġlaun ched
d elta
int eg
ĠV oice
ĠP arent
Ġfun ny
Ġide ological
Ġanti oxid
Ġenric hes
5 9
n on
an i
ur ning
ir al
Con verting
Ġdiss ip
ĠC ouncil
Ġsc ored
Ġsocial ly
St atis
With in
Ġviol ations
Ġfrag ile
Ġnewsp apers
ĠMom ent
ac ed
Ġover sp
Ġinstruc tor
Ġaw esome
Ġexer t
Ġsy ndrome
c alled
Ġc itation
ĠO pp
Ġsc oop
ĠTe en
Ġadver tis
claim er
Ġremin isc
ĠS eptember
ĠO l
Ġatt entiveness
Ġhist ories
Ġbur d
Ġsuperhero es
Ġre forms
Ġprov ed
Ġcur sor
Ġdi ets
Ġport able
Ġantib odies
as al
tain able
ĠV ac
Ġbra ke
Ġphot ons
Ġly rics
st ar
ĠF em
ĠG loves
ĠO x
ruc tive
ĠSt op
ik ip
Ġang ry
exist ing
Ġtruc k
ur ns
ut ation
Ġsk ip
ĠComp ute
ĠAr ithmetic
Ġlove ly
ĠIncre asing
Ġcompet ence
ĠCart esian
ĠC R
ĠV iet
Ġtable ts
Navig ating
ĠFac ial
Ġin er
Ġform ally
Ġdisc ourage
Ġwork flow
Ġpreser ves
C ook
v ar
el led
og g
Ġgr anting
Ġhot el
ĠHist orical
Ġrepeti tive
5 3
Ġre taining
Ġcont ests
Ġexp osing
int ended
Ġess entially
Ġsw ap
Ġcoll apse
Ġund efined
it ating
Ġunf old
Work place
Ġbudd y
Ġch ore
ĠF ROM
ĠH ind
Ġcush ion
Ġglob ally
Ġy arn
ĠS ite
ĠL ab
Ġso vere
Ġro ds
Ġsign ify
Ġsumm ation
ĠFam iliar
Ġfinger tips
) }\
s qu
ĠF ailure
ĠThe rapy
Ġarom atic
* }$$
c ting
he ating
ĠN OT
Con fidence
ĠR uneScape
Ġhead phones
bru ary
ĠH as
ĠCh ain
Ġcolle ges
Ġfit ted
ĠDisc ussion
Ġconfidential ity
low er
Ġph yl
In f
ĠEx erc
ĠK en
ĠHere in
Ġlow ering
Ġabsor bing
ĠCut ting
Rad io
ĠEstim ating
el les
Ġsp ells
Ġfl ights
ĠPro tein
ĠPay ment
Applic ations
n ies
Ġcomp ly
com mun
Ġdepic ted
ic ago
Ġ8 5
Ġanalog ous
o tive
he a
Ġm yth
Ġon ion
Ġem ission
ĠK it
Ġjuris diction
ĠDemoc ratic
Ġd ess
Ġl augh
Ġencoura ged
Ġsat urated
ĠStra ight
Ġbrainstorm ing
I L
Ġcomp ress
ass urance
Ġstr angers
Ġpubl ishing
Ġl amps
ĠS epar
Ġiss ued
Com mon
Ġtables poon
Per form
z illa
Ġpre jud
Ġun res
Ġhon or
Ġpizz as
D ividing
p g
Ġt ales
Ġsocial ization
Ġaff airs
Ġdry er
ĠVen us
Ġgad gets
I A
Ġg ut
ĠRel ig
ĠClean se
ĠFood s
? âĢĿ
Ġto e
âĢ ľ
ĠAdminist ration
ĠJeff erson
O z
Y es
ĠB and
Ġtra ditionally
ĠPro ceed
Ġwater proof
Ġemerg ent
Ġcalend ars
Ġpand emic
Ġelabor ate
r ators
ĠT ab
ĠCar ry
Ġartif acts
Ġspont ane
re ach
Ġdist ract
S elf
ĠR ace
Ġinn oc
ĠInter pret
Ġdecor ating
a ft
Ġm i
Ġre du
abl ished
Ġ199 1
Ġamb iance
Ġshortcut s
ĠL iqu
Ġse as
Ġsn ipp
Ġinn ate
' '(
> </
re ma
st ud
Ġcapac itor
Ġadvoc acy
op olitical
Ġbound s
Ġdest inations
izz es
Ġempow ering
f our
Ġp ear
ol s
Ġsl ave
ĠRe vis
18 44
ĠExp endit
Ġsens ors
He alth
Ġregist er
Ġadhe sion
Ġredu nd
Ġrob ot
Ġstim ulating
ĠDoc s
ĠParticip ating
ikip edia
ent ric
Ġexp osition
-------------------------------- ------------------
ĠProcess es
Ġenfor ce
Ġpron ounced
ĠAuthentic ity
E G
L ike
M A
T ips
Ġ5 5
Ġval ve
medi ately
Ġsymmet rical
ĠSun ny
^ (-
Ġt ill
app ed
Ġdeliber ate
Exam ine
P at
am onds
ĠP ossible
Ġro yal
Ġdisc erning
Ġdiss olved
ĠConn ections
Ġuni vers
Ġcurric ulum
Ġ !
Ġb acking
Ġm oles
Ġse ams
Ġconf ounding
Ġthresh old
Ġb ins
Ġadvent urous
Ġgard ens
Ġpiv ot
Ġsurve illance
rosc opy
ĠMoist ur
B ook
Ġab dominal
ick en
Ġplay ground
Ġt elesc
Ġh its
Ġmet allic
ĠAustral ia
L A
ĠD utch
Ġcar rot
valu ed
Ġattrac ts
d ec
f X
Ġb is
res pect
ĠL CM
Ġcaus al
Ġcamp us
ogene ous
ag g
Ġdis infect
Ġbl u
Ġleg end
Ġbi om
Ġbreath able
ĠChar les
C ell
a j
ĠC ast
ĠSt age
ĠQu anti
ĠPur pose
aph rase
Ġconjug ate
Ġbod ily
G row
ĠConver ting
Ġimpul sive
ĠGalax y
Ġconf irms
En ergy
c atching
r ances
in fl
Ġthe ft
ant a
ĠD ial
ĠM ill
Ġsl aves
Ġpres ervation
Ġge ographic
ĠUtil ity
Ġinters ects
Ġm ph
Ġv intage
Ġev ident
ĠCom fortable
Ġconf using
Ġer aser
Ġgr ill
Ġexceed s
subs ection
Ġsandw iches
ĠLib rary
Ġe lic
ĠO R
ĠIs n
Sc enario
P ut
tic ian
Ġprom in
Ġcounsel or
Ġconqu er
ĠT ask
Ġpers ists
lies t
ĠGra titude
Ġcat aly
f ire
Ġdep arture
Ġtax ation
Ġmaster piece
Ġvent ures
Ġimper ative
ĠRad ical
keep ing
p ot
ul sion
Ġpe an
Ġsubject ed
ĠDif ference
ĠCre ative
Ġperipher al
7 4
c ounter
Ġbe am
og y
Ġsw allow
ĠPh illips
ĠÂ ½
T ype
Ġtrac ing
Ġpaper work
Ġtransl ates
ĠKind ness
âī Ī
ant er
Ġar rays
ann ed
ĠSw itch
Ġdev oted
ĠFore ign
C R
O ther
Ġt elling
en tions
Ġo ceans
ĠC up
ĠAss emble
Ġaccompl ished
Ġarri ving
ĠOrig in
8 1
Ġle ak
ĠSe a
ĠGu y
Ġcounter part
Ġju ices
c it
og a
te enth
Ġdi amond
ĠAt lantic
ĠAr m
oss ip
Ġmer its
Dis claimer
ĠSym ptoms
ĠStreng then
Ġdoub t
Ġproud ly
Ġremed ies
ĠS outhern
Ġdr ift
Ġpossess ions
Ġtherm ometer
Ġfem ales
ĠCong ratulations
eps ilon
qqqqqqqqqqqqqqqq qqqqqqqqqqqqqqqq
Ġcow ork
D ress
ĠH ang
Ġdet rim
ĠEx ist
Comp aring
Ġcan c
ps ilon
ĠUn fortunately
Ġinvest or
Ġdocument aries
Ġunp redict
System s
ĠBure au
ti st
Ġl ays
Ġback ed
AA AD
gl asses
ĠUs ed
Ġresc ue
h ot
ĠThe me
ĠIm ages
Ġcul tiv
Ġwind s
Ġath letes
or se
Ġf ines
Ġbu g
Ġconven tion
Ġsket ches
Ġspreadshe et
Ġt angles
Ġprov ision
ici ously
rol ogical
ĠSe al
Ġvigil ance
Ġdep le
Ġkey word
Ġcre ase
Ġchar ity
Ġgener ous
Ġav atar
Ġer r
Ġstick y
achel or
Ġbrack ets
e ast
Ġh ose
ĠP rel
Ġdesign ers
Ġarch ae
Ġpin point
ĠVeg et
B r
Ġp anc
Ġr um
ĠG ain
Ġconcise ly
g roup
Ġa ids
er k
Ġab d
Ġshare holders
ĠPar allel
ĠOrgan izational
m ulti
Ġs on
ĠF raction
ch ain
Ġma pping
Dem and
, $
ĠReg ister
Ġmicro organisms
Ġtor que
Out put
Recogn ize
s ince
Ġbelong s
plo ys
ĠHyd rated
Ġteen ager
Ġp orts
ĠS eg
ĠR ow
Ġmethod ology
y g
Ġre evalu
Ġan omal
ĠB ern
Ġlist ings
Ġincorpor ated
Ġadventure rs
Ġjud icial
Ġdict ate
? '
B ar
l ook
Ġp acking
Ġy ards
ĠE uler
Ġcont our
ĠN ar
Ġinf lection
Ġpoly mer
ĠAdvent ures
Prep aring
M V
em ia
Ġdet ected
Ġacc us
Ġso ak
Ġexcep tions
f lies
ĠW ars
less ness
Ġer as
Ġer ase
Ġevalu ated
ims ical
re ction
od ge
ĠB B
Ġinter faces
ĠAl ong
Ġatt aching
Ġanal ysts
ĠMod eling
Ġdetrim ental
pl ier
Ġle ctures
Ġad oles
ĠProt ective
ĠBlu etooth
d rop
ĠM id
ang s
Ġpain ted
Ġathle tic
Ġw ins
ĠInteg rals
Ġpal ms
ĠFre ed
Ġchem ists
Ġcard iac
Ġhar ass
Ġconve ys
Ġswit ches
ĠRemo ving
Ġdow nt
" ;
ĠR ay
Ġse g
Ġcomp uted
Ġem ploys
Ġcons erve
Ġbas kets
Ġunc overed
Ġsplit ting
Ġjack et
Ġindirect ly
) ?
h ab
Ġm x
ĠChar lie
Ġasser tive
Ġscrub bing
Ġfestiv als
c ript
Ġc ure
ĠCon c
Ġpe b
Ġhead er
ĠCl oud
Ġexpan sions
Ġescal ate
ĠVe hic
a que
Ġn est
ĠP E
Ad just
Ġpan ic
ĠInteg rating
Ġexplo itation
Ġabund ance
ĠDynam ics
ĠC ounting
Ġexec uted
Sh are
Ġb oun
ac char
od d
enti sts
Ġunderstand ings
Ġpe oples
} )\
olog ic
ĠSh apes
Ġharm onic
pro portion
Ġ199 3
Ġlux ury
ĠB illy
Ġprior itiz
Ġliquid ity
m al
on in
Ġal titude
Ġres embling
li x
Ġgl oss
Ġassoci ate
Ġdark ness
Ġimp urities
Ġinter cepts
Ġass umed
Expl ore
ĠNutri tion
Ġvot ers
p athetic
ad ows
ĠI T
Ġexpl or
Ġtra vers
ym e
Ġpred efined
ĠStud io
ĠChar ge
ĠElect ron
Ġencl osure
G overn
Ġter restrial
}} $$
Ġmen strual
Ġcateg orize
Ġequival ence
d oor
g ical
ti e
id al
pp ies
ang ible
Ġfl aws
gg ing
ĠCl imate
ĠUn ique
Ġsun glasses
Ġreass urance
Ġcompr ise
Exam ples
La unch
ĠS us
Ġcont acting
ib onacci
Ġdevelopment al
Ġnorm ally
Ġh over
com ings
Ġtrop ical
K Skr
Ġas cending
Ġpro position
ell er
ĠCh art
Ġbreak down
ilibri a
t one
Ġc rypt
ĠP red
Ġ\( (
Ġrenew ed
Ġcyto pl
n n
ol n
Ġch ip
ĠW ild
ĠM ap
ĠG CF
anc ers
Ġsynt ax
Ġgall on
Ġmicrob ial
Ġlegitim acy
ĠDele te
) )^
H D
er ry
ĠS ounds
Ġun available
ĠAn cient
Ġsymmet ric
bre vi
Ġuncertain ties
Ġsett ling
ĠMinim ize
rac es
Ġtra y
Ġche er
Ġdu plicate
Ġsolid ifying
\* (
Ġg racious
Ġgl obe
Ġund es
Cont rol
Ġbab ies
engu ins
Ġsupplement ary
Ġaugment ed
Ġn ap
Ġdown stream
ĠForm al
Ġcomput ations
ti p
Ġp ony
ir it
Ġ$ [
Ġillust rative
Ġsatell ite
Fam iliarize
Ġh uh
Ġg ate
ass ess
Ġdiv ine
Ġconcent rated
Ġtherap ies
T A
Ġf lipping
In vest
Ġgu ys
Ġrespon sive
Ġdisp ersion
TT TT
t osis
Ġf ox
Ġim merse
Ġover do
Ġconsider ably
Ġemb ar
st ory
ep r
ĠF irm
Ġsp ur
ĠFr iday
Ġcitiz en
Ġarri ves
Ġrepeti tions
ĠExt end
Ġcorre ctions
ĠExpendit ure
k top
l ated
Ġvisual izing
requ ently
7 3
Ġun expl
Ġgener ously
Ġins ect
Ġmulti t
Ġ199 2
Ġwavelength s
es ity
en p
Ġf ault
ĠD am
Ġreg ain
Ġprivile ges
f lo
Ġto dd
ul ent
Ġr ural
Ġcost umes
Ġbolst ering
we ek
ĠK n
Ġplan etary
ĠEqu ilibrium
ĠLe ft
Ġfarm er
Ġthe ater
ĠF ive
Ġde em
ĠSp ring
ĠCath olic
Ġfic tional
' ;
in clude
Ġf ier
Ġh ill
ine tics
ĠIn verse
Ġind uce
Ġshel f
Ġreserv oir
g oogle
ĠS av
ĠIn ventory
av en
Ġstead ily
Ġwip ing
|||| ||||
A chie
uc ent
iti ous
tit rust
Ġparticip ant
Ġsatisf actory
ĠDec imal
Col lect
Ġplot ting
Ġasser tively
Ġasympt ote
Ġjaw line
G u
P ublic
ĠT iss
ig uring
Ġwhere ver
Ġund ue
Fin ancial
Ġfold s
ogen ous
Ġoccup ied
ĠDer ivatives
ocl ass
Ġappreci ated
Ġbuy er
her ical
Ġbur ns
Gener al
Ġc ock
Ġun used
Ġappro ached
Ġshort comings
Ġpat ents
Ġproceed ings
Ġrobust ness
Ġradical s
Ġpy ram
ĠDise ase
8 8
M ar
si veness
ĠB irth
ĠK id
Ġmag net
Ġmer it
Fact oring
re li
Ġs anc
ĠH ol
Ġrem over
ĠDis pose
ĠShe ets
Comp are
appro ximately
Ġsuppor ters
Ġb ud
ĠS ong
ĠM arginal
Ġcomp ens
Ġ3 9
Ġqu ir
Ġstar tup
ĠBack up
ĠW as
ĠIn nov
Ġnew er
Ġapproxim ations
Ġven ues
Ġspont aneous
LSkr LSkr
G E
Ġl ined
Ġhur d
H A
P P
f igure
w ill
an ing
Ġh us
tic ks
Ġag ed
Ġaccount able
Ġrot ations
Ġmicrow ave
P ost
f are
Ġst ove
Ġqu ot
20 16
12 5
Ġescal ating
Ġto ss
Ġ5 2
aph rag
ĠContinu ous
Ġdash board
Ġnost r
g raph
ĠE fficiency
ĠR oot
Ġimp orts
Ġaband on
B S
b oy
Ġm l
ari ans
pr ime
ĠOver all
fact or
ĠÂ ¼
] ]
p ired
re asing
se y
ĠD ream
Ġad vers
Ġview er
enti ous
Ġmo tif
ĠV ictor
Ġpass engers
Ġp ale
ond ay
Ġclock wise
Ġo ct
ĠT oy
yp ically
press ure
Ġd ens
Ġen ig
Ġofficial ly
ĠConn ecting
ĠAud io
Gl obal
ic ed
Ġreg rouping
Ġam plify
Ġcapac ities
Ġsettle ment
Ġresent ment
r d
Ġs ere
ĠG mail
ub ility
Ġoff set
ll ie
app y
ware ness
Ġproc rastination
ĠV ectors
Ġche ap
Ex ponential
Ġfix tures
ĠInc orporate
Ġattrib utable
Ġnucle oph
ĠPass word
Ã Ĺ
Ġf rizz
ĠS ample
Ġout liers
ĠPerson ality
Ġunderm ining
ĠMed ium
f eeding
ar ations
Ġy ard
ĠA qu
Ġis ot
ĠR AM
Ġtrans it
Ġlay outs
mis hes
)\ ,
ĠDif ferences
Ġattach ments
ĠPop ulation
Ġshr ink
Ġvegg ies
Ġprel iminary
R I
b ral
Ġt iles
Ġpro ving
Ġop ting
up iter
Ġcharacter izing
oti ents
Ġaccomplish ment
Ġcongru ence
Ġretrie val
Ġburd ens
rosc opic
ĠScr ub
ĠGard en
d ots
ĠM es
ĠRe ason
itig ation
Ġmul tivari
v ise
Ġ7 8
ins on
ĠĠĠĠĠĠĠĠ ĠĠĠĠĠ
Ġbra ids
ann ers
Ġdr ills
Ġlive ly
ĠInteg rate
Bu ying
ĠTre nds
N j
ĠC as
ĠP enny
ĠR O
ge q
ĠFocus ing
ĠExp ansion
Ġserving s
ĠAcadem y
C ase
ic one
ec tures
ac on
Ġdisco vers
Ġsubsc rib
ac cept
uc l
ĠSt ri
Ġair craft
Ġshad ed
ĠDif f
Ġcurren cies
ĠSit uation
g row
Ġg est
Ġsh ifted
Ġ" [
ĠSo ak
ĠAr rive
Ġlat ent
ipp y
R A
Ġc racks
up on
Ġfix ing
Ġtend ency
Ġelectro static
Ġrehe ars
B eyond
f rame
al a
clud ed
ĠSt yles
Ġpot assium
ĠIt aly
Ġdeep ens
ru g
Ġsal ts
Ġmar tial
Ġre in
Ġun intended
Ġ2 50
Ġres iding
Ġext rema
Ġsupp lements
Ġcou ples
Le vel
Ġcorrup tion
Ġsubm erg
2 40
7 9
C ost
ar ts
rac ies
ĠU N
ood les
Ġrev is
Ġclim b
ĠPlay ers
ĠNavig ating
Ġsc ent
Ġpot s
Ġret reat
Ġtri um
App le
ĠCur ves
Ġamen ities
os h
Ġbase ball
ĠPar ts
Ġsequ encing
ils on
Ġport ra
b alls
ol ph
th ood
Ġso fter
Ġinherent ly
Ġ198 9
ĠMay a
ĠRati os
od ed
ĠF ine
Ġfun gal
Ġwater ing
Ġdele ted
Ġconscious ness
Ġdiagon ally
A ct
at al
op tim
Ġinv ited
Ġreg ener
Ġear ns
Ġthumb n
ĠEff ect
is tically
ĠN er
Ġpot ato
Ġinf est
Ġsal mon
Ġpul monary
Ġpun ishment
ĠWord Press
Ġpenet rate
Ġsou p
Ġunl ocking
ogl ob
ĠAc ross
ĠInt ellectual
/ \
s ource
Ġe lder
Ġint ent
arch y
Ġtable t
Ġbrace lets
idel ity
Ġst ood
ut ures
Ġsn ake
Ġrev olves
lim ited
ĠS weet
os aur
Ġco herence
Ġsm ells
Ġdra fting
Ġwarm ly
yl on
ĠPr int
pe z
Ġdrama tically
Ġre app
Ġins pections
Ġrequ esting
ost on
Ġneg ativity
Ġlocal ized
ĠSam s
Ġple asure
Ġram p
B rown
Ġb x
im m
Ġis lands
Ġacc red
Ġgam ma
" ]
i vers
or ic
Ġ4 4
Ġench anted
ke ys
ĠR andom
Ġunder tones
Ġimp aired
Ġoper ators
ĠCar l
on ts
ĠPro p
Ġphot ograp
Ġconting ency
m ount
Ġm m
Ġlog os
Ġpred ators
ĠSk y
Ġdomin ance
ĠHyd rogen
un c
Ġcont ractions
Ġtrans forms
Ġconver ges
oclass ical
J am
as king
inc oln
Ġmin ing
po sitive
Ġrob ots
ĠBra nd
unci ation
Ġexpl ores
Ġevery body
Ġsl ot
ĠCommon ly
ĠMess age
Ġreceip t
) ):
T oday
ĠT oo
Ġdeep ening
Ġcompassion ate
Ġchromos ome
Ġhyperbol a
Ġnom inal
Ġg amet
Ġcri tique
atisf action
Ġemphas ized
% )
Ã ¶
tain ment
frac tion
Ġgl and
Ġarg uing
Organ ic
Ġfranch ise
Ġres embles
Ġman ners
ub ble
Ġoptim ism
Ġquan tif
Ġcraft ed
ĠMet al
Right arrow
res olution
ap id
end el
Ġme ats
Ġhead ings
ĠGre ece
Ġmiscon ceptions
Intern ational
Q U
i h
ĠH all
Ġsym pt
Ġs keletal
Ġl umin
ĠF ashion
ĠInteg ers
Ġgrate ful
Ġreminisc ent
p rom
ĠP M
Ġinv itation
ven tional
Ġevent ual
Ġweb inars
c ards
Ġg rief
ĠB ad
Ġdesign er
Ġpractic ed
Evalu ate
Ġphysic ists
Ġw aking
ĠS tu
Ġun clear
ott om
Ġepis ode
Ġdras tic
A F
D et
it o
ĠA w
ĠS ort
ĠM ovie
Ġall iances
Ġdec ade
ĠDef ined
ĠSign s
Ġmul tic
ĠChristian ity
Ġs ized
Ġl one
ir ting
ion al
Ġequ ip
Ġcal ib
Ġend points
Ġsuff er
ĠEth ical
o a
Ġa stronomy
Ġn in
Ġad apter
Ġpl ugin
ors hip
Con cepts
20 15
Ch anging
ĠRad iation
Ġdisapp ear
Ġstabil ize
Ret urn
Ġembell ishments
Ġglean ed
8 4
si ves
Ġrep roduce
Ġten ets
ĠRab bit
er ity
ig l
Ġal arm
K G
c a
âĢ ²
Ġtutorial s
Ġterm ination
Ġveget ation
ĠSubs tituting
ĠConvers ation
Ġh ue
Ġve gan
Ġnote book
Ġdev ast
U V
Ġa wards
an ties
th is
ĠMe eting
ĠExp ression
Ġquan tifying
ĠJourn ey
ĠExerc ises
g iving
ĠS ay
Ġconsider ate
Ġvis a
Ġang led
Ġside bar
ĠPot ter
Ġexacerb ating
Ġmaneu vers
ĠLGBT Q
Ġre charge
th al
sc rib
Ġscr atches
Ġresid ential
Ġbudd ies
onym ous
ĠHen ry
N a
d it
re aching
Ġb arg
Ġrem ovable
ĠCh icago
ĠCorpor ation
r c
em an
um ble
ĠF all
ĠCons ervation
Ġradi i
Ġrib bon
Ġt ires
am ine
ĠMo lecular
ĠSign ific
Ġcitizens hip
Ġvill agers
Ġflaw less
Ġslee ves
Ġs outhern
Ġp acing
ĠN ervous
Ġsc ams
Ġlong itudinal
ush ing
Ġview point
Ġwalk ed
Ġdro ple
' ).
enti st
Ġmagnit udes
Ġdecl utter
Ġinser ting
ĠM ir
Ġdef ines
Ġdisp ers
trans mit
Q uality
Ġl ubric
Ġinv oking
sp eed
Ġdisag ree
........ ........
ĠGold en
Coll abor
ĠA st
Ġqu izzes
Ġpiec ewise
Ġdivis ible
ĠInequ ality
y cle
Ġwh isk
Ġunder going
ĠRes ist
ĠAut om
Ġorient ations
it amin
Ġh unt
Ġnon negative
sh ine
ĠCO VID
Ġrec ap
Ġjourney s
Ġvolunte ers
Ġparagraph s
ĠSams ung
B o
n ums
Ġh ards
ĠN ovember
ail ability
Ġcur ling
Ġ9 9
Ġemb odies
Ġrefer rals
Ġarm or
Equ ation
ĠG aus
sec tional
Ġresili ent
. _
Ġdec ip
Ġob struc
Ġrich ness
Ġtrou bleshooting
================================================ =====
u ven
ĠG ro
Ġflat ten
Per forming
Ġthigh s
Ġc er
Ġn an
Ġcomp artments
Ġsc ary
Ġcomplex es
Ġfree ze
Ġmar ble
Clean ing
agon ist
Ġsandw ich
N As
U h
Ġre sistant
ent ation
Ġrev ised
Al ways
Ġmor ale
Ġpredict able
Ġbun ny
ĠDistrib ute
g reen
Ġc ents
Ġqu e
Ġdes cending
Ġ| |
Ġgre ase
Ġcr ises
ĠDisc ard
Ġquar ks
Ġcivil izations
Ġlawy er
Ġblu epr
it ches
Ġexp ecting
Ġincre mental
ĠFe bruary
Ġblank et
ĠS ine
ĠG PS
Ġdec e
}\ )
Ġspir al
Ġcher ish
Ġgram ma
Ġembar rass
k g
ec hes
ĠO N
str ings
ĠAg ency
ĠEd itor
Ġfu eling
ĠOrig inal
v ic
ent ence
ĠD an
ĠB ot
ĠB alls
Ġaw a
Ġstra ps
hel ial
name ly
Form at
or th
Ġto wer
ro ke
ĠG ram
Ġpo ised
sp ray
Ġsubs et
Ġur gent
amm atory
Ġteach ings
Ġphosph ate
ĠManager ial
Fun ctions
o ing
Ġcor ds
Ex ercise
Ġsens or
Ġre plicate
ĠSt one
}} }
light en
wh ite
Ġpeace fully
ĠSubs titution
Ġimmers ive
Ġhasht ags
N eg
c ode
v ia
Ġfor t
ĠD ar
ĠF requency
ric tional
Ġtra pez
Ġlight hearted
ĠQ ual
iter ion
ĠX YZ
ĠMet als
aver ing
Ġh ills
Ġexp iration
Ġplan ks
zz y
ĠFl ash
Ġpep ti
Ġwarrant y
t z
Ġcom ic
Ġun st
Ġpo etry
Ġqu otients
Ġover coming
ĠPro por
Ġsur ge
Ġmem or
Ġd erm
ince re
ĠCalcul ating
Ar ray
ĠS S
ain ts
Ġint racellular
ĠL ighting
ort ex
Ġk not
Ġtra ils
ĠPric ing
C ul
t uning
ĠM ong
ĠL incoln
Ġdis proportion
ĠBe at
Ġfac ility
ĠEqu ip
Int erest
Ġtall er
Ġenhanc ement
ple asant
Ġgen ome
ĠComp rom
Ġear liest
Ġmeet ups
Ġow l
Ġd ull
ob s
Ġext rem
Ġsitu ational
Ġcop ying
Ġcounter act
Ph ot
Ġweigh ing
Ġsor ry
h ang
ĠC ounter
ĠEm ma
eal ous
Ġoutd ated
het orical
awai i
ĠKeynes ian
o lecular
Ġe B
ĠCon cent
Ġdel ine
ĠPl ot
Ġcaus ality
Ġland marks
Ġir res
Ġsubstanti ally
ĠIll ust
Ġunravel ing
bl ue
Ġsuit ability
Ġp enguins
Ġbe aring
ĠBut ter
L ay
e or
~ \
ĠI gn
Ġus ability
Ġble mishes
Ġdro pping
Ġhydro x
âģ¡ (
G R
ĠI SO
Ġbe es
Ġim plicated
ĠPro fit
Ġobser ver
Ġdesc ent
ounc ements
ĠVel ocity
Ġab brevi
Ġsim ulation
ĠCh at
Ġz inc
Ġweak ened
Ġisol ating
Ġovers ight
AAAAAAAAAAAAAAAAAAAAAAAAAAAAAAAAAAAAAAAAAAAAAAAAAAAAAAAAAAAAAAAA AAAAAAAAAAAAAAAAAAAAAAAAAAAAAAAAAAAAAAAAAAAAAAAAAAAAAAAAAAAAAAAA
Comple te
Str ateg
Ġprol if
: \
n atural
ĠT asks
Ġch ron
Ġsp ong
Ġper oxide
Ġhead aches
ĠMus cle
ez ers
0 4
Ġcon ges
Ġch ord
ĠF ed
ens ing
Ġoper ator
oster one
? ",
Ġp ap
ot ors
Ġdraw s
Ġexcell ence
Ġtwist ing
F ROM
Ï ī
Ġst ats
res istant
Ġunique ly
âĤ ĥ
Ġdomin ate
Ġnice ly
ro b
Ġdep reciation
Ġsol v
Ġend orph
Ġ[ "
Ġunw avering
Ġcorpor ation
Ġpock et
pow ered
Ġdiscol oration
ro st
Ġbe ads
ĠN uclear
ĠSim plifying
Ġelucid ates
Ġcrow ded
Ġsen ior
d F
w hen
re ts
Ġdis ability
ĠIns titute
Ġfol ding
Ġstraw berries
Ġdevelop s
Ġ8 00
Ġsing ular
ĠInter actions
Ġrac es
Ġpreval ence
hell s
V ir
Ġh ung
ist les
Ġpro ponents
ach ment
br ane
Ġrad ial
Ġpolar ization
V I
Ġf oli
Ġb itter
Ġre b
---------------- -
Ġ& &
ĠAl pha
ĠEm ily
Ġconsult ation
Ġelev ation
ĠBra z
Ġpreced ing
ĠRus sian
Ġvigorous ly
Ġdeem ed
B oth
un ge
ĠM ist
S ched
re ng
ĠB ab
}\ ,
Ġdiss oci
ĠMin i
ĠM s
Ġfree zer
ĠÎ ±
ĠInf lation
Ġundergo es
en a
ic les
ĠS und
Ġac et
Ġind ul
Ġcheck ups
Ġastronom ers
Ġp ill
Ġp ause
Ġn avy
Ġg one
Ġstr ides
Ġend uring
Ġimport ed
Ġpain ful
gra du
Ġbreakthrough s
j pg
â ĥ
Ġl ush
Ġcont roller
ĠAl cohol
Ġground s
ĠZ eros
ĠCP U
phant om
Ġtro ops
ic its
ĠR ain
Ġide als
ĠAr r
Ġcourse work
h ots
Ġn ineteenth
be it
ĠAss ume
Ġcollabor atively
Ġtransl ations
emb led
Ġgrapp ling
Ġst aining
ave nder
ĠInf lu
Ġcompet encies
Ġbicy cle
Ġtogg le
C ateg
Ġre pl
Ġh ood
Ġn asal
term ost
Ġexch anging
Ġsne akers
ĠJew ish
quar ters
Ġp ave
Ġwh is
Ġillust rations
l ar
Ġs ore
ĠH o
ĠL ip
est inal
ew ear
Ġsal ad
Ġanaly zed
Ġcompeti tiveness
Ġlab eling
ĠProg ressive
Entrepreneur ship
ut o
ld ots
ĠN ucle
Ġel apsed
Ġdiagn ose
ĠSol id
Ġsecre tion
Ġun pleasant
Ġoff ices
Ġsurpr ises
Ġhosp ital
en tive
ĠM C
Ġob esity
Ad op
craft ed
ĠCompati bility
lighten ment
ĠC ertain
Ġan tiv
Ġcomp ressed
Ġins ulin
Ġparabol as
Ġth rows
Ġpow ered
Ġbon uses
Ġmentors hip
Ġretrie ve
Ġreper to
in ical
ag ging
Ġdec lines
Ġchar is
ĠHe ight
tr ine
ĠBel ow
Ġanticip ation
â ľ
Ġen roll
ĠRe ward
Ġreac tivity
Ġarc s
Ġgirl friend
Ġamb itious
Ġtransl ating
Ġthin ner
Ġdro pped
Ġextrac ellular
Analy zing
Ġprecip itation
ĠPor tu
an ium
Ġst amina
ĠE st
os ine
Ġcost ly
Ġpost ers
Ġoccur rence
Ġgovern ed
Ġtur key
Ġspect ral
Ġrecept or
Ġenig matic
L P
Ġsc ra
Ġequ ips
inc erity
ĠSp ark
ĠAr med
Ġorigin ated
Ġwarr ants
Ġqual ify
Ġfeas ibility
structure d
w ritten
ĠSc al
pos als
ĠTur tle
ĠThom pson
Ġjuris dictions
Ġwitness ed
" ?
ag an
Ġun ions
br idge
Ġoverl ook
Ġslic ed
ĠTreat y
urb ed
urch ase
Ġhazard ous
Ġremember ing
Ġplant ed
Ġcertif icates
Def inition
M ay
P lease
Ġ umb
Ġg ri
Ġsur gery
Ġtrac ed
Ġmultim edia
ĠR ound
ĠSp o
ĠAt tention
Em b
Ġs uds
ĠS ports
ĠL iter
Ġdet ract
Ġ4 6
Ġher b
ĠGra de
ĠSn ack
Ġextern alities
ĠF lows
Ġactiv ating
Ġdisrup ting
t ypically
ir cle
Ġhel ium
Ġtim er
ĠApp earance
Ġsymbol izes
abol ism
ĠCare er
ĠMr s
Ġhistor ians
wiki how
ĠdÃ© cor
Ġmotif s
Ġadd iction
Ġplay lists
Ġcertif icate
ĠIndivid uals
ortion ment
Ġthresh olds
ĠReinfor ce
ĠPac ific
n ote
Ġp ione
Ġm olar
ĠA T
Ġco aching
Ġtra iner
ression al
Ġprop ensity
Ġattrib ute
Mod ern
Ġcategor ized
ativ istic
Ġneckl aces
F ix
Ã Ń
ĠR uler
ĠL ock
Ġout ings
ĠĠĠĠĠĠĠĠ ĠĠĠĠ
ĠCol umb
Ġ198 6
Ġdiver gence
Ġsug ary
Ġhosp itals
Ġsinus oidal
Ġins incere
Ġgl uten
ĠPre view
Ġwarr anted
ĠAut o
Ġreact ants
Ġoffic ers
isen h
ĠFlor ida
O h
u ble
Ġb ites
Ġlearn er
Ġoptim istic
ov ille
Ġdu rations
Ġshel ters
Ġl acking
Ġn th
ĠM onday
Ġsp y
Ġinv asion
cc oli
ru its
Ġattrac ted
ĠMy S
Ġfertil ization
sv g
9 4
N G
T urn
Ġf ell
ess ors
Ġplay list
com merce
Ġdiss olve
Ġvolati lity
Ġdism iss
P z
P rice
Ġcop ied
ĠConf igure
ĠEc onomy
ĠFrame work
d ays
is ive
Ġw ig
op ard
Ġsc oring
Ġconc urrently
Ch apter
U l
U ser
he ld
ra s
ĠJ ones
Ġprob ably
Em o
ĠUl tra
D ay
Ġ4 7
int estinal
Ġou termost
ĠNet works
Ġsat uration
ĠEra ser
Vol ume
Ġinterns hips
Ġg em
ĠComp ound
Ġsci ences
Ġbrow s
Ġnic hes
h ma
ti ans
Ġco il
Ġillust rated
Ġspin ach
ĠL y
ĠL ightly
Ġback pack
ĠCap ture
ĠAlgebra ic
Ġsy rup
Bas ic
M ag
Ġc ooled
ĠC ooking
ĠP interest
Ġimp osing
Ġund ist
Ġadapt able
Ġnucle oti
ament als
ĠCat al
Ġrit ual
Ġmight y
ract or
ĠSp irit
ĠUS A
ĠPart ner
emb ered
C al
âĢ ¦
Ġtra ins
ĠProcess ing
Ġengend ered
H uman
l arg
ĠB oston
ie val
Ġsc anning
Ġcomm ission
ĠCol umn
ĠMag netic
Ġantioxid ants
ogg les
v are
Ġb rick
um bs
Ġbal m
ĠAt om
cel es
ol ars
Ġdis asters
ĠAccess ing
Ġfrust rating
ĠH oo
Ġdes cend
ĠDi amond
Ġalb ums
A w
ag rams
ip h
Ġwh ites
Ġr ul
ey e
ĠSc ore
Ġradi ant
osp here
Ġguarant eed
U til
V iew
Ġgu ards
Ġplan ners
Ġed its
head s
ĠFl uid
Ġexh ale
Ġproj ec
Ġgarn ered
Ġsnipp et
Ġdecip hering
l inks
Ġdis ent
Ġtrade offs
ĠSur faces
Poly nomial
en es
Ġre vel
res ult
Ġens l
ĠCon cer
ris ed
ĠBegin ning
Ġrecruit ment
C trl
g or
ro intestinal
Ġr im
Ġr anks
ĠAd vantage
Ġillumin ated
f ind
ti ght
Ġb ic
Ġm uff
Ġg ossip
ĠM ario
ich i
ĠQu antum
Ġpeb bles
Ġspec ifying
pt on
ĠAn imals
ĠMethod ologies
ĠGl ass
Ġign ore
' ]
H ome
Ġc racking
os celes
Ġsp heres
Ġwor sen
now ned
Ġanaly tic
Ġfoli age
Ġm g
ĠB ake
and a
ĠN it
ll i
ili ation
Ġair flow
ĠDec ay
Ġbudget ing
OR w
ĠHor se
ĠRecomm end
Ġparas ites
ĠFrank lin
VB ORw
* ).
p rep
w as
Ġco exist
ram es
Ġdirect ories
Ġpass ages
Ġmar ried
Ġpor k
Ġinher itance
Ġreceip ts
Ġcowork ers
Ġharass ment
G ently
X V
Ġg inger
Ġv inyl
ĠR unning
Ġaw ait
Ġoccup ation
Ġscar ce
ĠCompar ison
K E
o sion
ir ly
Ġv oy
Ġmarket ers
infl ammatory
- $
f Hy
ĠL ips
Ġar my
ĠComp ounds
Pro of
T ap
ĠD egree
Ġk its
Ġden sities
Ġlay ing
fun ctional
Ġspo ons
p ath
at ab
Ġm ur
ĠG ender
ĠIm mediately
Ġsw apping
Ġ[ [
Ġcooper ative
ĠFred dy
N H
Ġo lig
AAAA NS
ĠAmeric as
go AAAANS
Ġelimin ates
Ġpainting s
KG goAAAANS
KGgoAAAANS Uh
0 3
ĠB it
Ġpl ag
ĠPl ane
ĠStrateg ic
Ġ198 5
ĠExpon ent
ĠIniti ally
ĠEmploy ees
ĠDeb t
Mark eting
EU g
KGgoAAAANSUh EUg
T est
Ġl ake
ĠPers pectives
Ġbath ing
Ġchlor ine
ĠChann els
Tim my
Ġscrip ts
Ġf ence
Ġal beit
Ġ6 8
Ġanim ations
Ġconver ge
Ġdw ar
H ar
u tical
Ġd angers
ĠS od
Ġpe aks
Ġarter ies
Ġcogn ition
E th
ĠM S
ĠF ruit
umb ling
ĠEc onom
ĠRo ad
Ġfreed oms
ĠEmo tions
Psych ology
Ġcylind rical
m el
Step s
Ġbegin ner
ĠPer haps
Ġann ouncements
ĠCore quisite
O P
Q ues
Ġt ile
Ġs izing
og ue
Ġdi aphrag
ĠGra dual
ah oo
Ġseason ings
ĠSur vey
Ġarchit ectures
Ġtuck ed
D ig
a ud
ĠI N
amet ers
ĠSl ide
Ġstrip es
Ġmicrob es
R o
n is
Ġb ikes
ĠE sc
ĠN ail
Ġclear ance
ĠNew s
Ġtransmit ted
ĠComprom ise
f ill
ĠB ell
Ġr ugs
Ġso y
Ġconfirm ed
Ġamb itions
ĠKnow n
ĠFil ter
Import ance
Ġduc t
b iotic
el iness
um en
ĠE lig
os in
Ġur ge
Ġlat tice
Sum mary
s up
Ġ ]
ĠA h
Ġad mit
Ġsm iling
Ġrespond s
Ġloose ly
ĠVir ginia
Ġinfer ior
) '
ĠS ustain
Ġfore cast
ĠImpro ved
ĠPrim ary
Ġenterpr ise
d ered
i VBORw
Ġpre requisites
Ġdis charge
Ġaccess ed
ĠSafe ly
iche ver
Ġob l
Ġtem ples
Ġreac ting
ĠSoci ology
Ġcorre ction
Ġseg regation
Ġconges tion
ĠB Y
ĠAd ver
Ġdef ects
ĠTra ding
mo lecular
p rice
v itation
Ġhe d
ĠC ream
Ġdig ging
Ġtran qu
Ġgar ment
Ġhar vest
ĠRo bert
Ġnegoti ating
Ġalloc ated
Ġtrib es
ĠFamiliar izing
Ġundist urbed
D el
Ġsk ull
Ġiss u
Ġcoll ar
Ġantib iotics
k ed
ar bon
rom atic
ren cy
Ġneg lecting
Ġsn ap
ĠInter act
Ġinser ted
late x
Ġsuspic ion
5 1
u an
ĠRes ource
Ġlog istics
Ġbro th
Ġrelig ions
ĠFil m
Ġcham ber
Ġcuis ine
ys ical
met er
)\ \
Ġaccel erate
Ġpal m
Ġdilem mas
Ġtrium ph
Ġ ure
Ġw ars
ĠP our
Ġconf used
ĠSp ending
Ġacadem ically
ĠSk ype
Ġcat ast
ĠCo ordinates
Ġhar bor
Ġtransl ucent
ĠFinal ize
Ġintention ally
Ġimmig rants
Ġcheek bones
Ġendorph ins
D ate
R un
ch anging
asc ent
Ġr u
ĠG ift
Ġfold ed
Ġregul ators
Ġterrit orial
ĠSequ ences
Achie ving
Nj Y
Ġchalleng ed
Ġlo vable
ĠSer ver
ĠÎ ¼
Ġbon us
ĠMean ing
itarian ism
Cri tical
Sched ule
Ġre tains
ĠE q
Ġun equal
Ġcan al
Ġmat s
Ġsol it
Ġmon ot
ĠPl ans
Ġnight time
Ġdiscip l
Ġ198 4
Per iod
Ġneuro transmit
F ocus
em ploy
ĠC auses
Ġbe er
ap tic
ch ild
ĠK ids
ĠCom fort
Ġconcer t
Ag ain
Ġrej uven
Ġhtt ps
> .
h ire
Ġa venue
il ings
ĠR apid
Ġdist rict
Ġcar boxylic
Ġassist s
ĠInstall ing
Disc uss
Ġobsc ure
qysrKSkr qysrKSkr
ĠViet nam
F und
Ġwh imsical
ĠB ol
enti eth
ĠJ r
Ġspecial izes
isc o
Ġep ist
Ġsand paper
Ġtruc ks
Ġdiscipl inary
Ġt ears
Ġs arc
es tive
ri ors
Ġfil t
Ġcos play
Ġste ak
iat ric
B ase
M et
Ġl oses
em perature
Ġgar age
Ġcentral ized
do i
Lear n
ĠC ris
Ġdef enses
Ġver bs
Ġmarket places
ĠInv olving
Ġbol sters
S af
Ġo ste
Ġb ay
ĠC ooper
Ġse vent
ĠV ers
Ġair port
Â° .
Ġcollabor ating
Inter mediate
Ġwood s
ĠStat us
Ġbab ys
on a
ĠW in
20 14
ĠDis orders
ĠCar ol
Ġsubmit ted
claim ed
Ġanch or
b ot
il ial
Ġst airs
ĠP ra
ĠM otor
ron aut
Ġresid ues
Ġbeauti fully
Ġmac ro
ĠCr yst
E u
N uclear
g ate
n ext
Ġn ascent
ir ically
ap hor
ĠU ber
Ġbal let
pr ints
ĠAppro aches
Ġweak ness
Ġscrew driver
nes ium
Ġadm ire
ene tic
Ġbill ions
Ġexcited ly
ĠMexic an
ĠFarm er
ĠCircul atory
ĠHind u
Ġw estern
Ġex clusion
ĠL u
tional ity
row ding
Ġelect oral
Ġ[ -
sl ope
IiIiIiIiIiIiIiIi IiIiIiIiIiIiIiIi
Ġsympt om
y roid
ur ately
Ġan ten
ĠR E
iz ability
ĠMan ufact
Ġhierarch ies
Man aging
Ġemit ted
ĠLou is
oglob in
Jam ie
c over
k ind
ic ulty
ĠC orporate
ĠP ix
ile y
Ġ4 3
ĠWe ather
Ġec ology
be at
ĠInt roductory
Ġcoll agen
Ġaccommod ating
Ġsto pped
Ġmagn ets
Comb ining
W rap
c orn
tic ular
over line
ĠSp r
Ġdiff ers
cons cious
Ġnur ture
S everal
ef inite
ĠShe et
Ġexped ite
ĠNeut ral
il ater
ĠW ilson
Ġsh ake
tim icro
ĠMix ed
ĠPhot o
Micro soft
H ey
in ction
rac ts
Ġsc arcity
ace utical
Ġmethod ological
ĠCont ro
hand ed
Ġmal ware
Ġclust er
Ġhind ering
Ġcalor ie
ĠTransform ations
ĠBatter y
V ER
ac co
ĠW a
ĠD ra
Ġpol es
Ġme iosis
Ġjud ges
ĠMo zilla
ĠGather ing
Ġthoughtful ness
mark et
ĠEl imin
Ġperm utations
Ġpremature ly
Ġsubc ulture
s hes
Ġf les
Ġre nd
Ġv ag
Ġiniti ation
ĠSp ray
Ġmob il
Ġsle ek
Ġadvis ors
Ġcalor ic
Ev olution
Ġoversp ending
M F
Ġb ip
ĠO xygen
amet ric
Ġmanifest ations
bur g
ĠEmb racing
Ġpix els
0 8
C E
ĠH IV
ĠO tt
Ġemp ath
Ġbound ed
Ġâī ł
Ġsupp lier
ĠMarket place
Ġexceed ing
//// ////
Altern atively
Ġtraum a
E duc
e res
us ions
Ġorgan elles
ĠDe ath
optim al
Ġ erg
it z
ĠT ik
se ud
ĠH R
ĠK ore
Ġsimpl est
Col or
Su pport
Ġscre ening
Ġvic tim
ĠCompeti tive
P ri
st art
Ġdi amonds
Ġfol lic
Ġb id
Ġl act
Ġg olf
uc t
Ġac rylic
ĠWe ek
ĠPoli tics
ĠSen ate
X P
os ites
ust er
ific ent
Ġdon ate
Ġlast s
Ġbreak up
2 10
ĠB ang
Ġtest ed
ĠPre m
ĠPriv ate
RU VD
Ġunres olved
) }{\
r ality
Ġapp ar
Ġwr ists
Ġgre eting
Ġlower case
Ġprop elling
ĠMed ic
ĠCour se
0 2
n x
Ġv ow
igh th
ĠD rain
ĠLo an
Ġdefe ating
Ġmang a
ĠJus tice
ĠEcon oville
H C
g ulation
ol er
ri tis
Ġover se
Ġcol der
(- \
ĠLay ers
ĠExpress ing
Ġ(\ (
Ġmush rooms
Q R
Ġl ace
Ġg host
ir s
ĠP ear
ĠF ear
Ġfam ilial
Ġgraph ite
ĠBut ton
Ec onomic
Ġquadr ilateral
R est
ĠB onds
Ġtre ati
plic ative
ĠSu gar
ĠAssess ment
K now
ĠT rou
ĠT ech
iv a
Ġcont ours
Ġdef ending
ocum ent
Ġvac u
Ġow ning
flow er
Ġcon ic
Ġgl itter
Ġ` <
Ġjud iciously
Fact or
Ġrevis iting
C he
ĠS hel
un ction
ĠF ant
ĠCon ceal
}} =\
ĠOff ering
Ġpenet ration
Ġdissem ination
or ate
ĠF ibonacci
Ġu ter
ĠH im
vers es
Ġpres idency
Ġeffici encies
ĠBu ff
Ġsil icone
ĠBre athing
Ġoverwhel m
I ss
p in
Ġtr imming
Ġincre ment
ĠPo or
Ġside ways
Ġer osion
Ġspe aks
Ġseal ant
ĠImmun e
ĠNur ture
Ġre direct
ĠW ind
Ġcre vices
ym ph
Th ree
Ġcircul atory
Ġseal ed
============================================== =
t ri
or tions
ĠOut look
othes is
Ġpoll ut
vare psilon
^ +
} [
ep ler
ess ential
ĠJ upiter
Ġpot entials
ĠAl k
ĠMo tivation
Ġimm ersion
ĠRus sia
7 1
F ace
Ġw ishes
Ġl on
ĠL oss
Ġsol o
Ġbl ur
ĠAs sistance
Ġances tors
Ġreperto ire
( [
0 6
ri ers
Ġcr unch
Ġcount y
Ġspir its
Ġoffic er
ĠCompl iment
Enc ourage
Govern ment
Ġre nowned
il ant
ĠC atch
Ġen vision
ĠH un
ys ics
ati t
Ġtrans crip
Ġgre et
Ġi Cloud
Ġ\\ [
print ln
Ġabn orm
Ġl acks
os er
ĠSh arp
Ġneg atives
Ġtri es
Ġprefer ably
Ġ198 8
Ġheterogene ous
Ġlin en
Ġvot er
ĠTransport ation
assess ment
as hed
em por
Ġspecial ization
Ġmess y
Ġblock ed
Ġdecl ining
Ġrig or
) {
Ġe cho
Ġinv ites
^{ (
ĠInter face
Ġenth al
Ġtherm odynamic
Integ rated
Ġtoothp aste
P olitical
c up
e ating
ou fl
al am
id able
ot er
ĠB ird
fer red
Ġpass port
Ġscr atching
Ġrev isions
ĠRead y
Ġju icy
Ġbol ts
Ġweeke nds
E r
T ogether
Ġun att
Ġsp arks
Ġdep ict
bra tions
ĠMon itoring
Ġstret ched
Ġforg ot
Ġcatal og
Ġtire lessly
Ġrepl en
Ġb ib
Ġb ait
Ġcoordin ated
Ġweak en
ĠInv ite
ĠDav id
R epl
V ari
ad ers
ĠD imen
ne um
ĠApp s
Ġwell ness
ĠZ oom
Ġstim ulates
Ġrare ly
Ġcelebr ated
forest ation
D R
Ġw rest
ĠC ats
ĠB end
Ġup grade
ĠY oga
ĠV ill
Ġgu ilt
Ġdi ary
}^{ -
Ġsett led
ĠArgum ent
al ism
im mer
Ġint ra
ĠN one
ari b
Ġob s
ior K
Ġcustom izing
Ġsolid arity
Ġfel ine
Ġdest ructive
Ġexplo iting
Ġdecl ared
Ġrefresh ing
Ġantig en
ĠAgre ement
ĠLe an
Ġfar ther
Ġla wn
ĠGovern ments
Ġtra verse
Ġtra ders
Ġpossess ing
pe ople
ĠElect ro
Ġirre levant
Contin ue
u j
ac ement
Ġg oggles
Ġey ewear
amp ire
Ġelectr one
Ġengine er
Ġ198 7
x x
en ers
Ġhel lo
Ġr ushed
Ġpop s
by e
ĠSc rew
ĠSet up
ĠRec overy
ĠAr my
Ġspo il
Ġpolyg ons
Ġfraud ulent
Element ary
Ġv as
Ġcont rary
cc entric
Ġneg lig
Ġmet aph
ĠAr ticle
Ġvent ric
Ġenfor cing
Ġfram ing
ĠExc ited
ĠVac uum
Ġgracious ly
um ents
ĠB ible
Ġsh ips
Ġ3 50
Ġ4 1
Ġstra y
ĠPh ase
Ġthreat ened
Ġ197 6
rig ation
Ġfrag ments
L ast
V R
Ġc ray
ĠD il
Ġform idable
Ġresult ant
bl ack
h r
Ġsim ulate
yl ation
Ġspect ra
Ġflu or
Ġskep ticism
ĠFreed om
Ġo h
nt y
Ġpl aus
Ġforce fully
ris k
ĠReview s
Def ine
Ind ivid
b ands
Ġm un
ig nty
tiv ated
Ġdes erves
Ġpred iction
Ġmel ted
fol ios
ĠSte am
Ġcrafts manship
v iolet
â ĭ
ur l
Ġstress ed
ĠPar abol
Bi ological
Ġs incerity
ip line
tu itive
Ġout s
erm an
ĠK im
ĠJ im
ticip ating
ĠControl s
Ġglow ing
a zz
c ore
Ġ )
Ġd ad
em pt
Ġscal ed
ĠConstruc ting
car bon
ĠQuick ly
Ġrecre ational
ĠElig ibility
8 6
D O
Ġm arsh
Ġh ollow
Ġv ents
os it
end ments
de velop
Ġdirect ors
12 00
ĠOrgan ic
Ġnor thern
Ġlean ing
Ġminor ity
Ġimpul se
Vis ual
Ġtodd ler
} ]
ir ling
ch ment
ĠH ero
ĠÎ ²
Ġcivil ization
Ġ ...,
Ġl es
Ġsimpl ification
pare nt
Ġmilest one
ĠCr ush
c urrent
ens ory
Ġmed iation
Ġded uce
Ġindic ator
lim its
ĠPeriod ic
sm all
Ġdisagre ement
( {
Ġk nit
Ġrem embered
Ġrep s
ĠCol lection
Ġrecommend ation
Ġdifferenti able
ĠOper ating
Ġw rench
ep an
ĠM ul
Ġcre ases
Ġinter rog
ĠDo ing
ivid ed
Ġrefer ring
Ġcon versely
if iers
ĠEqu ity
Ġpoli ticians
Ġunc ons
Ġpip es
Ġtar iffs
Ġceremon y
Ġic ons
M c
M em
P ass
us sions
ĠE ther
Ġsp ins
Ġres h
ĠEx tra
Ġdef icit
Ġpic nic
Ġrestric ting
Ġalle les
Ġfamiliar izing
ogene tic
ĠOrig ins
Ġvacc ine
Ġaccent u
Ġ! =
b in
s ed
Ġp ies
Ġm ice
ĠI dentif
Ġres erved
ĠVisual ize
nas tics
p ost
s ol
Ġt et
ĠA head
Ġl ap
im ental
ĠD ead
ĠN ap
erm aid
ĠRep utable
Sum marize
Ġsucc inct
C or
T reat
Ġt il
ion a
Ġro bo
Ġdist raction
Ġche w
ĠPo si
Ġhum ble
Ġexist ed
ĠAm ount
zy matic
Ġsy ll
Ġo mit
Ġd owns
ĠW elcome
Ġj am
Ġinc idence
ĠPar rot
umb ing
Ġcast le
ĠPersist ent
YW MB
ĠNer f
Ġan terior
Ġphot on
ĠAss ets
Ġresist ors
Proper ties
Ques tion
H P
ix on
met ry
Ġspark ling
Ġveget arian
Ġpet als
str ong
AT ION
vas ive
ĠR ise
Ġwas hed
Ġtur bul
Reg ardless
organ ized
Ġmini ature
bell ion
Ġwid gets
8 3
G S
at eness
ĠPro ced
ym bol
Work ed
ĠGrace fully
Ġr ud
read ing
alle y
Ġsli pp
c ancel
ĠH u
Ġk inem
ins pired
Ġobj ections
ĠEqu ality
ĠMay or
ĠHab it
Ġabd omen
D h
G roup
he ated
ro le
oc hemistry
ill aries
Ġwor ried
ĠN ear
Ġcost ing
Ġdra ining
ĠRec onstruction
step s
Ġfar away
l ay
Ġp ans
ra ined
ter y
ĠC rucial
Ġpar chment
Ġnum b
hes s
ĠAr ticles
versi es
ĠEss entials
Ġphosph orus
Ġdiplom acy
;\;\ ;\;\
ĠCot ton
ĠMoment um
Ġensl aved
" ),
Ġl avender
ep ti
ory lation
Ġsub optimal
Ġreal ities
ĠSc ene
Ġblood stream
Ġfro st
Ġtele phone
Ġrevers ed
RUVD R
H B
st ock
Ġback wards
Ġpe asy
ĠMove ments
tex tit
Ġleaf y
Ġ'ðŁĵ ĸ
) +\
. ]
ly mp
ĠAd ams
Ġshe er
Ġiniti ated
br ates
------------ --
Ġvir tually
Ġclaim ed
Ġkidney s
s w
Ġre plied
Ġac ous
ĠE ver
ĠCh icken
Ġbrow ning
Ġquad rant
Ġcontra dic
Ġbank rupt
cons uming
Ġlock ed
ĠCam era
Ġd uty
ist an
Ġ2 40
Ġev apor
ĠCon tain
To k
Ġsw ab
Ġworking s
Ġclos et
Ġthreat ening
C ome
P U
o ven
s plit
w a
Ġtrans cend
ĠSh adow
Ġconcent rating
ĠSn ap
ĠCri tics
ĠHon esty
Ġbench marks
Ġenterpr ises
Ġaccred ited
v ince
ec urity
pl ug
Ġad ren
Ġcalcul ators
ĠCl aim
Ġimpact ful
/> )
oc oc
Ġmis leading
ĠCo at
ĠSl ides
Ġdisrup tion
Ġextrac ted
Ġpermit ting
ns w
Ġ19 45
Ġaud itory
Ġdiagn osing
Ġasp ire
ĠConstruc t
ĠRemain der
Ġmagn ificent
Ġconfron ting
F C
S MART
c ard
Ġn oodles
Ġche wing
ĠIm m
onal d
Ġteen agers
Ġast ronaut
Ġcu ticles
Ġsweep ing
r ane
Ġun su
Ġev id
ĠComp osition
Ġmoment arily
Ġdocument ed
Ġcream s
Ġfeature d
Ġion ization
Ġcycl ical
Access ories
ĠHa irst
E Q
Ġm int
ad os
oc ating
ĠB ag
Sub t
ĠMechan ics
Ġmedi ating
ĠDoc tor
ĠSequ ence
m us
o ard
Ġb oring
ĠP T
ĠM ah
Ġun rest
ĠL LC
Ġup side
Ġshould n
yn asty
Ġsal aries
pro cess
arr hea
col ored
Ġmal icious
i ar
t ops
Ġh ub
tu b
Ġro ses
Ġpr incess
St ar
Ġten nis
Ġaccum ulating
Re ach
Ġdrople ts
ĠM arsh
Ġpress ed
Ġdepend encies
Ġadminist rators
}_ {\
real istic
Ġcroc het
C ount
G old
H ence
f ive
ook ie
Ġsm iled
Ġproduc er
Ġprof essor
Ġrestric tive
ĠCre ation
Ġuncon ventional
) ',
Î »
Ġpo ison
Ġbr ightly
Ġ9 6
Ġlo af
Ġfinal ize
Ġrev ision
Ġsan itiz
ĠC ellular
ĠF an
ple te
Ġsh orts
enti lated
Ġsoc iology
tit utes
ĠMan ual
Im p
ĠðŁ Ķİ
bu ild
Ġvess el
u ro
Ġ ought
Ġl itigation
Ġdec oration
ron utri
Ġdon eness
Ġcele brations
Ġwarr anties
Dif ferent
! *
D y
L eg
s ection
Ġs ail
Ġto ll
Ġsm iles
}} $.
Ġpolyg on
ĠHyper bol
Val ue
ĠQuanti ty
H om
\ %
on ance
Ġday light
Ġcolon ization
ĠLuc y
Ġfier ce
W arm
al i
ĠWe ak
Ġcertain ly
Ġlog istic
Ġspe eches
Ġfig uring
Ġembark ed
Ġborrow ed
ĠMess enger
Ġtrigg ered
Ġfav oring
fel t
c ot
v ial
Ġf ought
Ġfor um
cl er
Ġsh ar
Ġab ol
Ġcl ippers
Ġequ ilibria
Ġharm less
rim p
Ġcredi ble
Expand ing
d owns
in n
in duc
Ġw olf
Ġpro posals
Ġday time
Ġconstruc tions
Ġput s
)\ )
Ġapart ment
Ġsyn c
g E
Ġb ios
oc ard
Ġse ated
ĠInter action
reg n
ĠAbsor ption
ĠS till
Ġsh ore
ĠEx foli
Ġprof itable
Ġsil ent
Ġvib rations
ĠAnaly tics
Ge ometry
ĠFlex ibility
Ġtr unk
Ġsol ubility
inter pret
Ġneighborhood s
D B
ĠE isenh
ĠD ot
Ġspec imens
Ġplay style
Ex t
ĠRes olution
Ġclim ates
ĠBrow ser
______ _
H ead
Ġy east
Ġinter depend
ving s
Ġhair spray
Ġoptim ally
Ġsound ing
Ġbur sts
ĠLim ited
des igned
R B
ĠG uid
Ġdis abling
Ġref und
Ġrest oration
Ġflour ish
ĠTiss ue
Ġhurd les
A ge
P osition
Ġp ane
Ġp umps
st en
Ġpro karyotic
Ġv om
pl oid
ĠB eyond
per or
ĠJ oint
Ġ19 20
Ġslow s
Ġtur tle
Ġmedium s
Ġserious ly
Ġkil ograms
ĠAv ailable
ĠSpo tify
Ġe ats
Ġ\ ]
Ġcateg orical
ĠFl ip
ĠNor thern
ĠPow ers
ĠKore a
G reen
ed ed
ĠF iscal
ĠH P
Ġ" *
Ġdis abilities
Ġinv entions
Ġrest art
Ġcr an
ĠAltern ative
Ġrain fall
Ġrhyth ms
Ġconfront ation
Comb ine
O W
ou lli
Ġb ricks
ĠT ape
ig an
ap tive
Ġsu ic
Ġreac tive
ĠDis k
ĠCommun ities
ĠPay Pal
ing le
ra ising
ra ndom
Ġ1 40
ch i
Ġsp herical
Ġop tics
ĠEx ternal
Ġass ert
Ġmin ced
Ġmulti plier
Ġbi ochemical
Pro t
Ġorigin ate
ĠDi vers
Ġquiet ly
Ġpil ot
Ġhistor ically
Ġupl ifting
Ġirrit ate
ĠCompar ative
Ġexplor ations
A BC
D NA
Ġp ly
Ġm ism
Ġres idence
Ġend ocrine
St ress
Ġpig s
) **:
B lock
T ran
th ird
Ġro l
Ġcol ony
Ġ6 3
ĠAr tificial
ĠExp osure
Ġconduc tor
Pl anning
ĠCustom ers
ĠPosition ing
S tory
Ġt in
ĠSt ream
ph osphate
Ġcomple tes
Ġrequ isite
disc overy
Ġgun s
Ġanthrop ologists
Ġlapt ops
x iety
Ġc itations
Ġw asting
Ġm RNA
ĠT ac
ĠT am
ain ed
ĠM endel
ĠG entle
ecess arily
Ġline ages
Ġden im
ĠSub sequently
Ġnur sing
T V
Ġgen omic
Ġgre y
ili an
Ġfilter ing
ĠAgain st
ĠMart in
C a
ut tered
sequ ences
avor able
Ġbo ast
Ġcheck ed
Im age
Ġbig gest
Ġble nder
eli very
Cont act
"" "
Ġpool s
ĠCos ine
=$ <<
represent ed
Ġunivers ally
Ġunexpl ored
G DP
ap oration
Ġpres cription
Ġer up
Ġdress ed
ĠEmp ty
Ġsurpr ising
Ġdeduc tions
Ġcum ulative
Ġn oun
ĠC ab
Ġcont empl
ĠJ oe
ĠAc ids
Ġsw ay
ĠAlex ander
A h
b um
y an
at orial
em a
ĠO ri
Ġintroduc tions
Ġtask ed
bell um
Ġasymmet ric
Ġiner tia
ĠeB ay
t au
x i
Ġf onts
le g
ĠCont acts
ĠDisc ount
ĠPart ners
Ġstrugg led
Ġpoor ly
Ġrevolution ary
3 60
> `
Ġt ilt
Ġp end
ĠF ront
Ġr uled
ues day
ĠV oting
Ex MT
ĠPre vent
Ġaccommod ation
sec ond
Ġcatal yst
Ġspl its
Ġenvelop e
Ġo ve
ĠD oll
Ġins cribed
ĠY ellow
Ġmet aphor
Ġenvironment ally
bal anced
ĠDel iver
âģ »
0 7
] $
f u
k ens
ur bing
rac tive
ĠL ord
ĠV ersion
Ġdi aper
Ġconver ts
ĠOb jects
ĠPat tern
ĠTreat s
Ġindustrial ization
ĠAcadem ia
Character istics
Ġunpredict able
Ġrol led
N atural
U N
l asting
Ġl ur
Ġis osceles
ell ers
Ġcontrib utors
Ġcam ps
Ġinduc tion
Ġirregular ities
MzMzMzMzMzMzMzMzMzMzMzMzMzMzMzMz MzMzMzMzMzMzMzMzMzMzMzMzMzMzMzMz
out ing
Ġle nder
Ġover sh
Ġke en
Ġmod eration
onom ous
Ġ19 64
Ġow ns
Ġpig ment
ĠPati ent
ĠThough ts
Ġmuc us
acchar ides
H er
tu ce
iv ores
Ġde odor
Ġpl ugging
Ġ= \
Ġj er
Ġk inetics
Ġrel ied
Ġmain stream
ĠAb ove
Ġinfin ites
Ġharmonious ly
) ),
b ro
Ġp unch
Ġdisc reet
be havior
Ġdynam ically
Ġcra sh
ĠStand ards
Ġreact ant
Ġsubmerg ed
ĠConcer ns
} )$
Ġb ass
Ġle ase
Ġad orn
Ġj ogging
ĠRe act
ĠRe action
Ġtreat y
Ġcapital ize
oles ter
AT E
Ġhom ogeneous
Ġcompetit or
Ġattain able
ĠUni verse
re ase
Ġg ang
ĠF ig
ide os
Ġpo le
20 13
Ġconvers ing
Ġsw abs
ĠAnd rew
ĠDis order
ĠRel ated
ĠPlat form
Ġdivers ification
Ġpes tic
! âĢĿ
p roduct
v o
he im
ation ally
ĠM ercury
Ġpl ural
ind rome
Ġper forms
Ġdisc onn
Ġgener osity
Ġpriv ately
ĠDisc ord
Ġincon ven
ĠWi i
Ġpert urb
Ġrearr ange
Ġpier cing
ĠVehic le
Repl ace
D er
H old
h ind
h ave
Ġc rick
ĠS we
uc ks
Ġab rasive
ĠSo il
rip etal
Ġdiss ecting
Rep resent
ĠBoy friend
f n
h al
r ide
ic c
Ġpe as
Ġide ologies
Ġz ip
St arting
Ġstake holder
ĠPet e
Mon itor
Ġverb ally
Ġbrid ging
ĠResp onses
Ġnostr ils
I E
[ '
am ation
Ġinc umb
Ġwas her
Ġfac ulty
Ab out
Acc ount
k it
ĠT al
ce nds
Ġdis aster
Ġinter molecular
Ġinf ant
Ġdra fts
Ġbond ed
ĠMo ving
Ġweb page
Ġfertil izer
ĠRub y
Ġalph abe
ĠS om
ĠD ish
Ġann ounced
Ġdev ise
b n
ve t
ol k
). $$
ĠK ir
Ġche es
lec omm
Pl otting
Ġfertil ity
ĠRepublic an
ĠTherm odynamics
^ ].
in st
Ġc ouncil
it ous
Ġth rown
ever se
Ġunn ecessarily
Ġport folios
Ġcong ratulations
ĠCharacter s
======================================== =====
Ġsubscrip tions
ĠSpec ify
f illed
g re
an ol
Ġbe ats
Ġconn ective
Ġtem pt
Ġpare n
Po sitive
Struc ture
" );
S un
S te
st ellar
ĠS ix
ur day
qu es
if er
Ġsh aking
Ġins till
Ġser um
ĠPl ugging
ĠFl at
Ġviol ent
Ġchamp ion
Ġwithdraw al
squ are
Ġp est
ĠA z
ow ing
Ġl ou
Ġsh aft
ĠIn cluding
Ġstory line
ĠRec ip
co al
ias is
Ġ: =
Ġirre versible
Ġdevast ating
) `
Ġelect roph
Ġorganiz ers
Ġbott oms
ĠSm ile
Ġcollec ts
Ġneut ron
Ġmort ality
ĠSci entists
Ġantider ivative
Ġunst able
M ix
S equ
tention ally
St ate
Pro f
Ġweigh s
Ġrevolution ized
Ġsett lers
Ġaqu arium
Custom er
Ġallerg ens
o il
Ġl bs
Ġres olved
Ġconc ave
Ġbr istles
Ġworks he
Ġvalid ating
Ġdeliber ately
Ġethnic ity
Ġpollut ants
p aced
v Z
z one
Ġb illing
ep tic
ab sor
ĠP y
ĠR oyal
ĠY ahoo
Ġvol um
Ġland mark
Ġsour cing
ĠC u
ut her
Ġad ul
ue led
Ġrep ublic
Ġgra pes
ĠJ S
Ġend ors
Ġdra wer
sc ore
ah n
ĠAllow ing
ĠRecogn ition
Ġpull s
Ġrom ance
Ġcit rus
H S
m ass
an ching
Ġf ires
Ġd ou
Ġpre con
Ġorgan ically
Ġ19 68
Ġcapac itors
Pre algebra
ĠAcadem ic
Ġdeter ior
mod el
Ġplaus ible
b as
ĠP in
ĠK el
Ġstud io
$$ (
Ġcarbon yl
ĠAdjust ments
Ġdimin ish
Ġantiv irus
f in
ĠA li
ĠS D
ĠP eter
ĠK ar
Ġdist ortions
Ġloc ker
Ġ8 4
Ġ19 50
Ġrest s
ĠClass ical
ĠâĪ« [
c ite
d if
ĠM ut
ĠB ella
Ġ$ |\
Ġimpact ed
Ġautom ate
Ġconsult ations
Ġpredict ability
Ġmagn ifying
Ġencaps ulates
Ġdip ole
Ġperpetu ating
S er
d et
in formed
ra int
ĠO lymp
ĠCons uming
Ġstra ins
ĠOb ject
ĠMod ify
Ġsusp ension
Ġdigit ally
Ġsweet ness
ĠTem pl
Prep aration
Ġupgra des
Ġcytopl asm
u tional
Ġp ist
Ġres ident
Ġma j
ĠWh ats
Ġaff inity
Ġrev ise
Sh aring
Ġremind ing
Ġtun n
Fl uid
ĠContro versies
Ġunatt ended
âĭ ħ
h ar
Ġs ati
it ems
ĠM i
Ġle ap
per ms
lic king
Ġcontent ment
com ed
Ġgood will
Ġed itors
Ġcr iterion
Ġmicro phone
Ġsustain ing
Sc ene
ĠMax well
ĠEnter tainment
ĠAma zing
ĠAnn ual
Ġadvers aries
M ass
S ee
T ell
ic tions
Ġqu iz
ear chers
Ġacc ru
00 1
Ġass embled
Ġanim ated
Ġsensi tivities
Ġinj ured
Ġsac red
Ġabnorm alities
P I
T S
n u
Ġphys ician
sh irt
Ġseason ing
Ġcompound ing
Ġgly c
Ġexagger ated
B D
C le
ĠT illy
ot echnology
ĠAd vice
Ġbl ess
Ġfore casting
Ġge opolitical
ĠRed dit
Ġcu ticle
ĠPersist ence
Ġallerg ic
Ġt anks
Ġp aves
ĠN ode
Ġsign atures
Ġorig inating
Ġrecogn izable
ĠLike wise
Ins pect
Wor king
ĠThought fully
Ġcoast al
Ġunin tentionally
ĠEisenh ower
on ation
al t
ĠM ild
Ġpol arity
Ġj ealous
ob acteria
Ġbl az
Ġdi pped
Ġfac tual
Trans fer
Organ ize
Ġa ster
is hers
ad ium
ĠR om
ph ib
Ġmag netism
ĠAcc eleration
// /
Ġdiff use
ĠPurch asing
H x
s afe
al g
Ġl umber
ĠP ush
ĠH it
ĠCh amp
Ġdu plicates
Ġtransl ated
Ġcritic izing
cap tion
Ġintest ine
C ard
Ġf ission
Ġf utures
ĠT ables
Ġsu fficiently
Ġcont entious
ĠJ un
rop ic
Comp ose
Sub mit
cont amination
Ġtransmit ting
ĠCirc uits
ĠSpec ies
S ort
out heast
ill ion
op en
ng oing
ĠCur ious
Ġign oring
Ġcasc ades
Ġfilt ration
timicro bial
it ably
Ġf iring
Ġb atches
st ates
Ġre ign
ĠW il
est yles
Ġwork load
Ġtem po
Ġdon ations
)* (
Ġmuse um
L abor
c ss
i w
ĠD omestic
Ġcl oves
ĠPr incess
Ġplot ted
bl ock
Ġuniform ity
OT k
Ġillum ination
Ġlegend ary
Ġc ache
Ġsp are
com mon
ĠAc ts
ring e
ĠInd igenous
Ġold est
ĠEar nings
tis an
Ġroad map
ĠExpand ing
ĠBay esian
ĠSund ay
Ġs ights
ĠS old
Ġplan ner
Ġless er
Ġsti p
Ġox ide
Ġresist or
Ġsquee zing
ĠTik Tok
ing ing
Ġequ ilateral
ĠBro ad
Ġciv ic
Ġposter ior
f lix
ĠT ale
em i
Ġcomp artment
Ġlog ically
Ġeduc ate
Ġnovel s
Ġfant asy
ĠSum mer
Ġbutter fly
Ġaccomp any
Back ground
Ġscatter ing
ĠReduc ing
Ġdiscretion ary
Ġbarg aining
olester ol
Ġw ast
Ġcl auses
Ġ6 7
Ġdist urbing
Ġinterac ts
Ġleg umes
ĠReg ulations
Ġir rigation
set ting
cut s
ĠSuper hero
Ġfrag rance
Ġpump kin
Ġcush ions
Ġextr aneous
C opy
b ird
Ġw atched
Ġpro be
ab eth
lic ts
Ġreal ms
Ġclean ers
Ġvol untary
Ġcircum vent
Ġantig ens
I ll
M O
u Li
ou nder
Ġwor ship
Ġconf use
ĠPl ate
Ġoptim ized
omin ant
Ġmix tures
Ġfresh water
Ã© s
ĠImpro ving
ĠWhats App
F T
Ġc uc
Ġd rew
Ġd ancers
Ġe dition
im ages
im eters
ĠV itamin
Ġpe el
ĠGra vity
Ġgeneral ized
New ton
Bre ak
ol ation
Ġat op
Ġcomp ile
Ġafter wards
Ġben z
ĠRec ords
Ġbro ccoli
12 3
ĠMon opoly
ĠDer ivative
Pe ople
ĠCris is
p us
Ġf ights
Ġth ri
Ġch ief
ĠR od
Ġoff ense
Ġelect roc
oh r
ĠMon th
Ġswe ating
ĠDen omin
Ġlon eliness
P M
d r
Ġc ry
Ġs rc
Ġp eg
Ġprot agonist
Ġbro ker
Ġabs ent
Ġearth qu
Ġdisturb ance
Ġw atches
Ġad ept
ous ing
ram er
ĠPl astic
ĠAt omic
Ġpoll en
ĠMass age
bul lying
Ġtrustworth iness
but ton
ĠRelax ation
Ġcabin ets
rane an
ĠN ixon
Ġtra ys
ety l
ĠAdjust ing
izz a
Ġmagaz ine
Ġavoc ado
Ġerr one
Ġumb re
d ot
Ġse aling
Ġ9 8
Ġalgebra ically
co lysis
B rid
b led
p ons
r iter
Ġp ent
Ġre ap
ĠW ond
Ġdis gu
ree ze
ĠV eter
Ġdi arrhea
Ġmis commun
ĠEqu al
cy cle
Ġattrac tiveness
Ġvacc ines
P res
ti ers
Ġ" +
Ġsc ents
Ġdi ed
ĠAtt ack
Ġdoll s
Ġvend or
Ġagend a
Ġst amps
ĠThe ories
Ġtut oring
Ġprof essors
Ġcar n
ĠPresent ation
Ġsurv iv
ES T
ocy tosis
Ġrain bow
Ġblow ing
P i
Z W
t ails
igh ters
ĠH ands
Ġsp ill
Ġsp rays
Ġins pires
Ġchar coal
ĠCons umption
ĠOrgan izing
Ġshed s
Ind ust
Ġank le
N z
on ization
Ġb om
ĠD eg
per ing
ĠSh oes
Ġed ited
Ġthink ers
Ġeat en
Ġdefe ated
Ġsmud ging
a o
i ants
Ġc ortex
Ġeng ages
ĠV PN
Ġprob ing
ĠHand ling
ĠGene tic
Ġvolati le
Ang le
Ġsovere ignty
1 10
t urn
Ġf ed
Ġin verses
ĠA R
oc key
Ġess entials
Ġterm ed
medi ated
ĠExp enses
ĠSec urely
ĠDis p
Ġsegment ation
ĠJob s
Ġfemin ine
p matrix
Ġconf ined
Ġsur gical
Ġdef icits
ĠLet ter
ĠResp iratory
ĠC orn
Ġbe gun
ĠL emon
Ġunder ground
Ġfl ush
Ġconf ines
Ġfore casts
Ġlif estyles
)\ *
Ġcalm ness
ĠAP I
Ġunexpected ly
Ġpad ding
ĠStret ch
Ġdismis sing
Ġelder ly
W ash
Ġm os
ĠP ed
cep tual
ĠAppro xim
Ġcas ually
Ġpron unciation
Ġundes irable
] \
m allow
Ã ³
Ġw oven
Ġdet ectives
Ġpos ited
Ġtool bar
mon th
Ġair line
Ġbi ased
Ġfluctu ating
uit ary
Ġwealth y
Ġneu rological
ĠMount ain
ĠExist ing
* ),
ĠĠĠĠĠĠĠĠ ĠĠĠĠĠĠ
)) ;
Ġgeomet rical
ĠClass ic
Ġattempt ed
ĠF if
ĠL oose
Ġcur ly
Ġfl oss
Ġcap ability
Ġdil uted
Ġdepend ency
Ġhus band
R equ
Ġth irst
ĠT O
em ption
-------------------------------- --------------------------------
Ġbudget s
Ġsil ence
requ ent
ĠBan ana
Ġgal van
ĠFur niture
C ultural
H eat
s ort
Ġd yes
Ġr hetorical
ĠG ross
ct an
ĠJ er
Ġaud ition
Ġlim b
Ġcomb in
Ġmen tions
Ġheart felt
Ġeth n
ĠSw it
Ġdamp ened
Ġfes tive
Bl ack
ic le
Ġsp ans
ill er
Ġsim mer
ath on
Ġcommun ic
Ġback story
Ġher bal
Ġpri zes
Ġsqu ats
ĠMon t
Ġfa uc
Ġiter ative
Mus ic
Ġpre fix
ĠCh lor
te ins
Ġste ering
Ġchick ens
Ġlip ids
Ġconfront ational
sen al
st ones
Ġint ellec
ĠD ie
Ġinv asive
to oth
Ġobserv able
Ġwind ing
ĠBr idge
ĠTerm inal
Ġranking s
P O
d XV
ĠB ron
ĠB acteria
Ġr hetoric
ĠL ater
ĠJ ump
Ġperform ers
Ġvol t
Ġair tight
ĠOp tionally
uck y
Ġfix es
ĠAltern ate
ĠObser v
Ġchat ting
Ġrib bons
Ġatten tive
ĠMind set
Ġspong es
h ism
Ġto ppings
Ġe pid
el p
Ġpro karyotes
Ġen zymatic
ĠR ib
ĠG oth
Ġj ars
Ġev il
ĠPe ace
Ġparabol ic
ĠBar b
Ġcurric ula
st ore
as ma
ul ator
th ritis
Ġchar ming
Ġref res
Ġfl oral
Reg ulation
Ġcryst all
atern al
R s
c led
n uts
p et
iv ot
Ġk icks
ĠAn atomy
Â° ,
ĠBl og
ĠPre heat
Ġpremium s
pic uous
Ġabn ormal
Ġs its
Ġs word
Ġcomp rised
On line
a ults
r anging
Ġs oul
ro cy
ĠC ould
ĠM other
ĠL ore
Ġmel t
Ġamen able
D I
b urn
Ġm otors
Ġwor ms
Ġins ur
ser ies
Ġact or
Su per
ĠLever aging
ĠConver sion
Ġconsol idation
âĶ Ģ
gradu ate
Ġenthal py
( $
. </
Ġw ounds
ĠS aving
Ġmod alities
Ġprocess or
Ġref raction
ĠPl ug
Ġâ ħ
ĠCard io
ĠCir cles
ĠSil ver
Ġsupervis ors
Ġc ounters
Ġb ou
ant le
Ġsc are
Ġmod ules
Â° )
ĠPar ties
He althy
ĠFit ness
ĠT R
Ġco aster
ause a
ysi ological
Over view
Ġelectroly te
H O
m em
p at
Ġf ond
Ġe ccentric
per form
ĠO K
ession al
Ġimper fect
Ġdoc trine
Ġsauc epan
Ġhung ry
ilater als
+ )
L ink
ul ence
ist led
Ġun ve
ĠAss uming
Ġsequ entially
ĠPost ure
ino a
subs titution
Ġdefici encies
ĠPrel iminary
Ġquir ks
Ġf ade
Ġint angible
ĠG all
ĠFor g
Ġz oom
Ġreac ts
ĠExper iences
ensi ties
Ġunc heck
Ġ14 00
Ġped al
Ġpregn ant
ĠSeed s
Ġthumbn ail
F ederal
Ġb omb
Ġn ested
ag us
ĠW ear
Ġcl ause
ĠV iol
ĠAn na
Ġintr ig
fun ctions
Ġfrust rated
Ġadvoc ates
Ġguard ians
Ġspreadshe ets
Ġpharm aceutical
ĠAp ologize
Ġhos tile
Ġsubsid ies
Ġen rolling
oc ultural
ens ed
Ġback drop
Ġgraph ically
ugg ed
Ġviol ate
Ġvacc inations
Ġadvis or
Di agn
Ġappar atus
Ġs addle
it ant
Ġpro jection
ĠM use
Ġmo ons
ĠDec k
ĠJam aa
uff s
Ġsix th
Ġanomal ies
Ġprolif eration
Ġc af
led ging
Ġdes ert
Ġprep arations
Ġspark ed
Ġwar fare
ĠEd iting
Ġsat in
Ġevid enced
le ys
ed ience
ĠG ear
ĠMed itation
Ġstream lining
Ġmoistur izing
ĠT ick
Ġst och
ĠW ow
ĠB ath
ĠR am
per m
Ġout let
Ġev aporation
Ġind efinite
Ġpr ank
Ġactiv ism
Ġshow ers
ĠCan adian
ĠEnt ry
ĠMess ages
alam us
S pecial
Â ·
Ġhe ur
Em ploy
Ġfles h
A verage
Ġre ds
ac hers
ver ted
Ġsh am
Ġ** "
Inter preting
Ġment or
Ġrock et
ĠSmall er
ĠWi Fi
ME NT
ĠDeterm in
E ating
S qu
us tion
Ġl atit
ĠF ishing
Ġqu ote
Ġpersonal ize
Ġcat ches
ĠTrans l
Ġep och
pe ak
Ġoccup ational
Ġspac ious
Ġannoy ing
Ġth or
Ġcar til
ock et
ĠDe veloper
rup ted
uff les
Me an
Ġpu ppies
Ġri pp
Ġtun es
ĠEmploy ing
Ġadul thood
E s
T O
Ġth aw
ĠL ady
Ġconc avity
the med
Ġjud ging
Ġdil ute
Ġdilig ence
Ġcham bers
Ġperc ents
on i
Ġf are
ĠC ognitive
ĠM R
Ġr at
Ġgr it
ĠHealth care
ĠFriend ship
Ġcarp ets
Ġpean ut
igl oo
. -
in tuitive
ti ms
ric ts
Ġbl ues
Ġmon sters
Ġtri o
ĠMed icine
Ġupper case
Ġlip id
Ġple asing
Ġeager ly
ĠRepresent ation
imp act
Ġgramma tical
= {
D id
M a
h ome
ti ff
ro ider
et ching
Ġn a
Ġdis ks
orpor ating
Ġsmooth ing
Ġfar ms
Ġquad rants
Ġload ed
ĠRub ber
8 2
Ã ¼
Ġ igloo
Ġp auses
Ġf ueled
Ġw ife
Ġb achelor
Ġh ints
ĠT uesday
Ġch alk
ĠR ating
Ġext inction
ĠCl othes
Ġdev ising
Ġflash light
sex ual
C urrent
I d
Ġf oci
ĠP ose
Ġprom ised
Ġstre aks
ĠâĪ ŀ
Ġport al
Ġap ology
whe el
L ead
at ories
pl ot
iz abeth
av ored
Ġacc ustom
Ġ5 7
Ġlear ns
Ġbas in
Ġbo asts
Ġelucid ated
ĠHon est
ĠDecl aration
Ġdos age
reli ance
ĠCarol ina
Ġp m
Ġst d
ĠL ift
Ġpl iers
Ġpar s
Ġcommun al
ĠMe als
ĠGe org
oufl age
C ross
Ġth irty
ĠD atab
Ġad en
ĠU pper
Ġmod ulating
ĠV ision
Ġno body
Ġhand stand
Con sist
au x
ĠĠĠĠĠĠĠĠ ĠĠĠĠĠĠĠĠĠĠĠ
Ġbenef iting
eti tion
ĠPar aphrase
Ġcapital ism
Ġfail ing
Ġdecor ate
Ġalcohol s
Ġspect roscopy
A ir
C r
p olar
Ġo st
us ement
ul ators
Ġst akes
Ġqu een
Ġche ating
ĠSh ifts
Ġprot ractor
Ġcompl aints
Ġtom ato
Ġdiscrimin ant
or ity
Ġal ve
ĠL ie
ish able
Ġmag nesium
ĠEm ployment
St ation
ĠDes cription
iter ranean
ĠInter active
ocy te
Ġchamp ions
F RUVDR
Ġexpres sive
ĠDes ktop
uccess ful
Ġsusp ected
ĠCollabor ation
ĠDisplay ing
ok ed
ĠSoc ieties
ĠMoistur ize
ti bles
Ġcon cluding
Ġco ales
Ġsec ant
Ġsk irt
Ġcap illaries
ĠInd ependent
Ġestablish ments
auti ful
het ti
ĠPow der
Ġelectrone g
D C
is tical
ĠA bilities
ĠP aste
ĠE V
ĠSt ation
Ġcor al
pi eces
Ġpic ks
abol ic
ĠOh m
Obser ve
Ġintrig ue
v ard
ĠW ere
Ġsp ikes
Ġco ated
Ġper ks
Ġnum s
Ġback bone
Ġaccount ants
pro v
Ġconsequ ence
Ġcrow ds
ĠHyd ro
opol istic
Ġwit nesses
Ġexch anged
Ġorb its
ĠAchie vable
ĠCamp aign
ĠPret ty
R NAs
n ia
Ġin ward
Ġbe an
ĠM ike
ĠF ields
Ġmod erators
Ġenc rypt
ĠTo oth
ither to
Ġleft overs
hel p
ĠConf igu
Ġeth ically
Ġforget ting
Ġclin ics
ĠInves ting
Ġun realistic
Ġplay back
Ġtemper ament
Ġincorpor ation
omen cl
ĠAppro ximately
ĠBre aking
Ġslic ing
Ġren al
. âĢĻ
O per
m d
Ġbe e
ĠR ing
hen s
ĠN ails
Ġag rees
Ġhum id
Ġgroc eries
Ġinher ited
ĠCand y
Ġbacks ide
in nam
Ġb angs
Ġd ice
Ġh itherto
ist ot
Ġreg ulated
eth ical
ĠK epler
Ġcap ita
ĠBe auty
Ġbr u
Ġpack ets
Ġwar nings
ICA g
Ġp ant
ĠT es
Ġcl icks
Ġslow ing
ĠEar n
ĠLo ad
ĠLiqu id
Ġvom iting
f iction
m es
Ġ Â°
ĠF iona
cl osure
ĠN at
ĠV alley
Ġline arly
ĠSo ap
Ġpermit ted
ĠHD MI
ĠEgg s
et ts
um bers
Ġcl og
est ablished
Ġdis pose
ass emble
Ġcharacter ization
ĠTra il
Ġnote books
ĠDef ense
Ġpul led
ĠConstruc tive
Ġren ting
Ġdiscrimin atory
ĠG rant
Ġregard ed
Ġfil tered
Ġdocument ing
Ġpubl ish
Ġreconc iling
ĠEr ror
ĠRect angular
: }
g ie
as p
out put
Ġdo zen
eth yl
Ġdra gging
br istled
eterm ination
ĠDesign ing
b ig
f arious
Ġ' âľ
ĠL CD
Ġdec entral
ĠV o
ram ing
ĠRes ult
ili ary
Ġdon ating
Ġposs ession
ĠSat urday
st age
ĠD raft
ĠL ake
ĠJ os
ĠNo tify
Or der
Ġgrasp ing
Ġenhanc ements
B I
C S
I j
g ood
Ġa verages
ĠT H
ĠW olf
ĠM ission
Ġse af
Ġsc ans
ĠIt em
Ġmed ieval
sc rip
Ġexpan sive
cons ole
ĠYOU R
neg oti
======================================== =
Ġvoy age
7 00
S low
Ġc ig
Ġsc ared
Ġhand led
mer c
Ġsw ipe
)^ (
Ġsuper vised
ĠMon etary
Ġhar b
ĠPlay ing
Ġnarrow er
Ġgam ers
B ra
P ol
k ines
Ġto b
Ġto kens
Ġch i
Ġwh ichever
Ġspecial ty
Ġsqu aring
ĠTechn ological
Ġalle le
ĠCr iteria
v v
Ġhel met
Ġle ague
ĠL ion
Ġfl ame
of il
Ġhot els
Mod el
Ġtrim s
prep ared
A x
S al
v entilated
ĠT rees
ur ious
Ġche at
ĠSol ids
Ġrac ism
o pp
t own
Ġp ir
ĠC ou
Ġle gg
Ġrec reate
Ġob structions
the y
Ġdon ation
Ġded icate
ele ment
Ġell ipses
Ġscul pt
Brid ging
n ames
ĠT ests
ĠM as
Ġrel ie
Ġimp ed
Ġprot ests
ĠRes earchers
Ġshort ly
ĠCl ar
Ġtravel ers
Ġpas times
Ġcounter intuitive
Ġ198 3
ĠUs age
Ġreconc ile
( ):
T herm
d ense
h uman
i ot
in stall
Ġf aint
id get
ch at
ĠO llie
Ġar rest
Ġ\ ;
ob ia
Ad vantages
Ġlif ted
ĠPerform ing
Ġdeploy ment
O mega
Ġt ons
as ury
anc k
ĠPro s
Ġpe a
Ġappropri ateness
par allel
ĠSecond ary
ev olving
Ġsafegu ards
Ġpromin ently
ĠElimin ate
R ear
Ġen act
Ġpre ppy
ĠN G
ĠV ideos
Ġpop up
Ġbra nding
ĠCl ause
Sh ould
ĠAg ric
crip tions
Ġ197 4
E at
d og
g overn
Ġo vere
ore tical
Ġpre heated
Ġr if
ĠG PT
Ġsu pre
own ers
ĠJ ac
Ġcommun icates
Ġred ox
Ġbroad cast
Ġhyp oth
Ġcab inet
Ġtob acco
D ear
ĠE U
Ġk illing
ari us
ĠEx port
ĠInter mediate
ĠMist akes
Saf ety
B est
T ri
Ġin box
Ġel ite
Ġpi ano
Ġcher ry
ĠEnt ries
Ġambigu ous
cler osis
m ate
u tives
in formation
Ġsubst rates
ĠGu ard
Ġcompl aint
worth y
Ġast hma
Ġmim icking
Ġdisable d
omencl ature
ol ith
as mic
ĠC her
ĠM onst
Ġlet tuce
Ġspecial ists
Ġsal ads
Ġabsor bs
Ġtal ks
ĠPres ence
Ġtrou sers
ĠLo ans
Ġperc enti
Ġphilosop hers
ĠSignific ance
it ect
ly cer
Ġen orm
Ġu plo
Ġsh red
Ġble nds
ĠWork place
ĠEd die
roph y
Equ ipment
Ġtong s
ĠFem ale
Ġerrone ous
; %
ol ate
ĠC A
ĠF a
ĠWe ap
Ġsa ut
}} _{
ĠChe cking
Ġurban ization
Ġinser tion
Ġgradu ate
Ġcultiv ates
M M
at urated
ĠS N
uc king
ph ase
Ġtw entieth
Ġsl im
ĠOut fit
Cont ent
ĠEmploy ee
Ġtermin als
Ġsquirrel s
* {
M ath
is tive
Ġun ified
Ġman ages
ump tious
ĠRec ording
ĠNet flix
Ġcritic isms
ĠPsych ological
ĠTow ards
gener ated
Ġmuse ums
s ome
or tic
al ation
om odor
ad ic
ĠE y
Ġqu art
ĠY ears
Ġhair line
ned y
ĠEd ges
Ġkn ives
Ġempow ered
Mo lecular
VVVVVVVV VVVVVVVV
ĠDifferenti ation
Ġdou bles
ĠB uck
cl imate
ĠU pload
Ġmed ic
Ġprotect ant
ĠAdv anc
Ġcontamin ants
Ġmultit asking
M ast
ed ges
em onic
ad ay
ĠL os
ber ty
ang ements
Ġext racting
mit t
ĠBet a
Ġ197 9
Ġdiscontin uities
Ġplugin s
Ġaccustom ed
/ âĪĤ
> )
Ġp iles
om ers
ag hetti
ĠH obbies
ĠL ymph
og onal
ĠDo or
Ġgra ding
hed ral
)}{ (
A v
Ġth inks
ur qysrK
un its
Ġr uling
Ġpo ise
Ġmat ched
int ed
Ġver ified
ris on
ĠPre vious
amm ers
Ġoutl ook
Ġep ic
Ġpick up
Ġfro sting
Ġincenti v
Ġmicrosc ope
Ġsacrific e
ĠFranc isco
ĠP V
Ġac orn
ĠD ensity
ĠO ngoing
ĠTh under
Ġpr ison
ink ling
ĠLimit ations
Ġ197 7
Ġflavor ful
ĠSpe ech
Ġalk yl
Ġcray ons
ExMT ExMT
b ability
re y
he red
ĠG ym
Ġrestric tion
ĠElect rical
ĠMag ical
Ġconv ol
Ġhyperbol as
Ġstack ed
Ġreserv ations
Ġdras tically
Ġm ating
om as
as uring
Ġcon ce
ad ata
od ied
Ġcomp osing
ĠCol ored
Ġfall en
Ġwar rior
Ġunf avorable
Ar range
Ġflash cards
Ġdiscl osure
Ġapprais al
innam on
w atch
ĠB right
ach us
Ġgra vel
Ġobj ectivity
Ġnon profit
Me asure
Ġste wards
Ġadminist rator
Ġhybrid ization
Ġf avors
Ġw ield
Ġo vals
Ġdet angling
Ġideal ized
ĠLar ger
Ġtwe ezers
Ġgran ular
Ġf andom
et ween
ĠT ower
Ġab ound
ĠCon vention
Ġsk i
Ġesc aping
ĠConstruc tion
Some times
Ġf etal
il ia
Ġ5 8
ĠBe hind
Ġlight ning
rop ol
Ġfre el
Ġpropor tionally
Ġstream lines
Ġham mer
Ġsaut Ã©
h ouses
Ġt earing
Ġb races
ĠL ack
Ġfavor ites
Ġcomprom ises
/> .
Ġmerg ing
ĠEmerg ency
Î ¼
ĠM u
op ia
arch ing
ĠTr inomial
ĠAr tic
Ġ{ }
Ġcou pling
Ġâī ¥
Ġborrow ers
Ġovers im
Ġgradu ation
SkrK SkrK
Ġoxid ative
Ġsilhou ette
4 50
B ring
E C
L ength
T w
r ise
im mun
Ġpro xy
Ġhead ers
Ġrecy cle
S n
y cl
Ġo xy
Ġb or
ĠA ri
ĠW ash
ĠD elivery
act ly
ak i
Ġ8 1
ann el
ĠAnd y
Ġsequ ential
ugg age
Ġscr umptious
att oo
Ġtalk ed
Ġreconc iliation
Ġtrinomial s
Ġoverse as
b oth
ĠA ges
ĠC T
Ġbe ating
Ġk iss
Ġacc r
Ġgood ies
ĠAssess ing
Ġjus tify
Ġca ul
pow ers
Ġintermedi aries
F R
re nder
ig ans
Ġphra sing
Ġgl itches
Cl ub
Ġexpon entially
Ġinterpre ted
Ġneur on
Ġsta ples
C os
E NT
u o
it eness
Ġclass ifications
Ġparadig m
Ġdiplom atic
Ġmorph ological
Ġcosm os
Ġtradem ark
Ġpyram id
ĠIdentif ication
M ind
ec tionality
Ġdes erve
Ġtem ple
Pr im
Ġdead line
ĠBel ie
ester day
Mat hema
h ift
l r
st ack
os si
ĠH an
all ing
Ġtra mp
Ġsl ider
ĠReg ist
kin z
Ġcond ensation
eph al
Ġsauc es
H yd
o am
Ġp p
ĠP ul
Ġcons erving
Ġcri tiques
Ġbutter flies
)+ (
Ġconceal ed
Ġce ilings
ĠHum ans
achus etts
p roduc
Ġc ust
ver b
ĠS ynthesis
Ġch olesterol
Ġover heating
Ġsoc ket
-------------------------------- --------------------
reg ulation
Ġresource fulness
Comp ute
ĠElect ronic
Ġattain ment
ophy ll
gE gE
S ure
b ars
Ġl akes
ĠS in
Ġup take
ĠCon sequences
ĠInt roducing
ĠDisc overy
ĠÎ £
ĠIns titutions
Ġhyper tension
ĠFac ilit
Ġbankrupt cy
D iff
R inse
ig inal
ĠF ro
Ġpl ush
Ġcommon alities
Ġcustom izable
ĠSp in
Ġz o
Ġsing er
F ound
w racking
ĠS yn
ĠF irms
ĠF ried
ĠF requently
di ble
Ġreg ime
Ġra gs
ĠK han
Ġgl am
iss ance
ĠIs lands
Ġsumm aries
ĠInteg ral
Ġrecess ion
is ks
ĠA id
Ġh o
Ġex iting
Ġser ial
ĠReg ression
ĠPar ad
let ter
ĠShow case
Ġsymmet ries
ĠMath ville
ĠCirc uit
Ġrul ers
Ġd orm
Ġstep ped
lic ation
ĠFor ward
Ġleft ward
Ġsepar ates
arg uments
Ġhyd roc
ÏĢ r
ĠElect romagnetic
E A
b G
b ags
s tick
Ġm L
ĠW ally
Ġassistant s
ĠâĢ ¢
Ġstar ters
St reng
Ġtou ched
Ġacid ity
Ġham sters
Ġmild ew
Ġtour s
Ġmerch ants
ĠUr ban
H i
Ġcons titution
ĠDo e
Ġdist ortion
Ġbre asts
Ġclean se
Ġstar ter
Ġmis interpret
Ġ12 5
ĠDire ction
Ġremote ly
Ġscreens hots
Ġsne aky
Ġiter ations
Ġsta ple
Ġaccus atory
ĠInnov ation
dF J
Ġb ark
ec d
ĠS anta
ĠR ounding
ĠCh rom
Ġass im
ĠCons ole
me al
Ġelement al
Ġdomin ating
Ġmel ody
Ġtun ing
c ro
ĠT ed
-------- ---
iti ves
Ġmet eor
Ġspread s
Ġdiss olution
ĠText ure
Ġcer amic
H or
p a
p ad
ĠI ran
stand ard
ĠInter ference
ĠAm b
az ed
Ġviol ating
aur in
Ob jective
Ġeyeb row
Ġcorro sion
Conf irm
Ġcylind ers
Ġcommod ities
Tran sition
T echn
Ġ ).
Ġun limited
ans as
Ġover sized
Ġrem n
ensi tive
ĠPre vention
ĠTrans actions
ĠSch olars
Ġstim ulus
ĠCost ing
ĠFeed ing
T aylor
n i
ag in
Ġsp ider
Ġspec iation
ĠAt tainable
Ġlog istical
ĠTr uth
Ġsun set
ĠSub sequent
cd ots
Ġcatal ysts
Ġperturb ations
ĠM it
os omal
ĠH ay
Ġwor se
Ġcontin ents
Ġworld view
Ġsocial izing
iter ate
ĠEvalu ation
ĠGener ation
Ġsulf ate
. [
B row
L o
ur ches
Ġ1 10
Pl ant
co ordinates
Ġcomprom ised
ĠStruc tural
ĠEl izabeth
Ġnod ded
ĠCondition ing
Ġpel lets
Ġfron tier
induc ed
g Y
m ix
w ashing
ef it
te es
Ġmulti plicative
Ġbehav es
Ġvalu ation
ĠRep air
ĠMe ans
ĠOff icial
math cal
ĠSurround ing
Ġcoc oa
ĠâĪļ (
ĠDrop box
Ġinfring ement
Ġexhaus tive
Ill ust
P a
b order
Ġin appropriate
ed nes
Ġdes ks
und ane
ĠSc ott
ios ync
ĠBusiness es
Ġdrag ons
Ġwest ward
B ank
O cc
b its
c r
Ġe ther
Ġm ult
ruc t
ĠPre ferred
Ġtranqu ility
l aurin
ol st
ĠU ns
ase ous
Ġid iosync
ĠEn lightenment
D eep
G en
Ġa ux
al ks
il st
ĠC li
ĠI con
os ome
ĠEx it
Ġright ward
Ġgroup ed
Ġcoll ateral
ĠFl u
ĠCal end
ĠLeg end
oe lectric
ĠMast ery
Ġrecep tion
Ġmeth ane
ĠExcess ive
Ġdestroy ed
Ġdess ert
Ġrud imentary
m aintain
ic er
ĠS elling
Ġam endments
Ġdeb it
Ġcra shes
board ing
Ġpit ches
ĠBi ological
Ġpup ils
ĠEntrepreneur ial
Ġgast rointestinal
Stand ard
Ġprejud ice
B T
V arious
f at
f il
r ats
Ġc inem
or ative
ĠR inely
Ġrece iver
mis sible
Ġact in
Ġfro g
Trans form
arn ish
Ġton er
Ġcontamin ated
ĠBoo st
ĠDar win
D ip
m g
ol en
Ġn p
ĠH idden
Ġout right
Ġcomm ens
Ġ8 8
ov ies
ĠOff ers
ĠInter ior
ĠSelect ed
Ġdimen sional
Ġsyn erg
amb oo
ĠDri ver
Ġdisinfect ant
Ġbluepr int
. ),
ð Ŀ
Ġc erv
Ġm undane
ĠS ections
ĠEn roll
ee ze
ĠProt est
Ġtac tical
Ġscal ability
Ġrecy cled
Ġpharm ac
Ġirres pective
Ġf res
Ġte ens
Ġdirect or
Cl ose
Ġste alth
E X
V ideo
ti ary
Ġc ous
Ġf rying
Ġinter cept
Ġhead sh
ĠMus cles
Ġoccup ying
Exp ress
Ġtrend y
Ġcha otic
Ġultra s
merc ial
9 00
A rt
m onds
u a
Ġst ark
ess age
au g
Ġlay ered
eter is
Graph s
Ġhop ing
Ġsynchron ization
ĠExec ute
Ġseas hells
Ġdisproportion ately
T re
f ocus
re ens
Ġf idelity
ul ous
ĠT ina
Ġsh ining
ĠG un
Ġ6 6
Ġhor ror
ĠÎ »
Ġlik ed
ĠVer bal
Ġelev ator
cont ent
Ġbuck le
Rep eat
ĠCirc ular
Ġconting ent
ĠM aria
Ġsh rimp
ear ned
ĠSc ript
ĠMed iterranean
ĠInst rum
Ġdiss atisfaction
ĠIde a
ĠCre ativity
Ġobsc ured
ococ cal
ĠT one
ĠC oping
Ġj et
Ġvari ants
Ġdire ctional
ĠFam iliarity
ĠRet rie
Ġbun nies
Mark et
hearted ly
Ġmonopol ies
bi ased
Ġunt reated
Ġexhaus tion
Ġenorm ous
f requency
ĠP as
Ġwe eds
Ġrep tiles
Ġpers ons
Ġmod er
Ġtur t
}}{ {
ĠCount y
Ġsto ichi
ĠTur key
ĠSee king
ĠRich ard
ĠBern oulli
Sequ ences
W HERE
h off
an alysis
ĠC red
Ġcom plicating
Ġun inter
op rop
ĠK orean
Ġdist racting
Ġconf iguring
Ch at
ĠBas ket
urer s
aph yl
Ġconv ince
Ġpron ouns
Ġdoub ts
ĠUpd ated
A X
D ouble
ĠC e
ĠSh ampoo
Ġmathema tician
Ġidentif ies
ĠProv ides
Ġrational e
ĠGo al
Ġadvantage ous
Ġtight en
ĠSte er
Ġpret end
Ġreflex es
Ġsnug ly
^ *
h ill
ro f
ec ks
ĠC ancer
ĠE aster
Ġsp or
ĠThe rap
Ġsm arter
pon ent
oot er
Ġdownload s
Ġlun ar
F S
Ġf ills
ĠT rip
ĠF ron
Ġsc or
Ġcor on
Ġang el
================================ =====
Expl oring
oul try
Ġarom a
Ġacceler ated
Ġadvertis ements
Ġadorn ed
Ġstoch astic
C s
ĠSupp or
Ġstiff ness
L ight
g ender
ro ps
Ġle uk
Ġam usement
Ġatt ended
ĠAn xiety
19 60
Ġbelie ving
Ġmil ie
Ġri vals
ĠStreng ths
) }$$
* '.
ĠP ig
ĠF R
ind ust
oth s
Ġsome what
Ġcomb ustion
be e
ian a
Ġopp osed
Ġconduc tion
plac ement
Ar ithmetic
Ġdish on
Ġow ed
Ġdiagon als
ĠRect angle
ĠJS ON
i tic
ĠE lection
ĠD ip
enti ls
ĠInt ake
ĠCur ate
ĠAng eles
Ġrecall ing
ĠMix ing
Ġmonom ial
Ġmonopol istic
Skp KSkr
Ġd ose
Ġst un
ĠS PF
ĠP ull
alu able
Im pro
Ġinquir ies
ĠDecl utter
Ġderm at
omodor o
d eg
j ug
l st
Â ¹
on na
or b
Ġl int
ĠC oc
Ġpar liament
ric eps
Ġloc als
Ġmaxim izes
Ġhar vesting
ĠSol icit
Ġuph olding
Ġau tism
Ġcomed y
1 40
N umer
r ill
y ms
Ġt y
ic ip
Ġn ons
Ġg ig
ĠG ary
Ġdis reg
Ġmulti plicity
Con struc
Ġadj ectives
ĠClass ification
ĠEnh ancing
ĠGeometric ally
Ġengend ering
Ġubiqu itous
c f
Ġd ab
ĠI S
Ġwh ilst
ten ess
Ġchar ger
Ġ19 14
------------ ---
ĠLe ather
Ġagree ing
Ġfurn ish
Ġsere ne
w ash
Ġst agn
---- --
qu ire
Ġens embles
Ġbas eline
br ushes
An n
omp osing
Ġhold er
Ġing en
ĠAg ree
ĠMass achusetts
Ġdoub ling
ĠCopy right
ĠSugg estions
Ġdwar f
Ġmarsh mallow
h ale
v ances
Ġ ^
Ġc av
ra ses
Ġno vice
Ġcap tions
Ġbra kes
Ġpressure d
ĠExper t
ĠOut comes
Me asuring
En h
Ġobstac le
ĠSym metry
ĠFoot ball
D D
F ig
ra ins
si x
ĠD iss
ĠCh ocolate
Ġfl irting
Ġden oting
Ġobser vers
Ġplac ements
ĠEc ology
ĠPersonal ized
Ġadminist ered
Ġtal ented
ĠEnh anced
hab ilit
ĠBraz il
a ic
o is
Ġp seud
Ġth irds
et t
ĠR hetoric
Ġun h
ĠL ooking
Ġmulti farious
Ġsupp ressing
asc al
Ġtransl ational
Ġdomin ated
Ġstabil ization
Ġpray ers
Ġmarking s
ĠPi eces
Ġpes ky
ĠUni versal
Ġs tif
ĠF O
Ġman ic
to xic
Ġplan k
ĠSh ade
Ġcount ed
ĠRep orting
Ġprop el
Ġinvent ed
Dif ferenti
ednes day
B n
Ġ iod
Ġc udd
Ġhelp er
ĠAr ts
Ġintr usive
Ġpul se
ĠEl asticity
Ġincl ined
Ġvolcan ic
Ġcushion ing
ĠGro oming
Ġuninter rupted
ent a
ĠA wareness
pp ler
ĠP it
ĠP ep
ch in
Ġtrans verse
Ġent ail
Ġfull ness
pr ise
Ġbroad ly
Appro ach
Ġfragment ation
ĠMuse um
Ġch ic
Ġexperi ential
Ġfil aments
Ġturn out
ĠMan ip
ĠBra nds
ĠEss entially
Ġvic tims
ĠTri angles
Ġeast ern
Ġgest ure
Ġdiaphrag m
! **
U R
ĠD J
Ġrel ativistic
Ġdec isive
Ġsho vel
ĠCul tivating
ĠMar gin
Ġjus tification
Ġsilhou ettes
E E
Ġw asted
ent ary
Ġh ay
ap ses
ific ant
AA AC
ĠPrior itizing
Ġneutral ize
Ġinflation ary
ĠFold er
t ax
ĠF ees
os keletal
Ġse iz
ĠN ick
Ġar rog
Ġop acity
Ġweight ed
ĠPlan et
ĠRel iable
Ġblock chain
ĠOtt oman
M j
b ash
m ay
Ä ģ
ĠW ikipedia
ĠEx hib
ĠAd equ
ĠSh opping
Ġcat ers
ĠIns ights
Ġbud ding
Ġd rip
pp ling
Ġch ili
Ġout going
Ġintern ationally
Ġmaxim a
Ġweak er
Ġsymbol izing
)= (
Ġvi ability
Ġclaim ing
ĠCr us
Ġadvoc ated
pass word
Prior itize
Ã ±
ra pping
Ġh atching
if est
Ġ1 30
Ġequ ate
ĠFor d
sc ape
Ġderiv ing
ensi veness
Ġgeneral izability
Ġgym nastics
Ġdecomp ose
ĠQuan titative
Statis tics
Ġspontane ously
Ġlur king
D a
r angle
Ġf ading
Ġo ak
Ġdis respect
ob l
Ġ7 6
Ġdraw ers
Ġoriginal ity
ĠInd ic
ĠOn es
Ġproceed s
Ġbur st
Ġcream y
Disc over
Ġseed lings
Ġjun cture
Ġted ious
Ġswallow ing
role um
S I
o kes
Ġs lipping
om orph
ĠE ucl
Ġint ensive
ĠN PC
Ġche ats
Ġprogress es
Ġarter y
ĠPort folio
ĠBan king
) }$
S ide
in it
al one
ĠM ent
Ġ5 1
Ġinc ons
ĠK ne
ĠV ar
ĠApp ortionment
Ġinf lows
Ġpop corn
Ġwhole heartedly
Ġnorm ative
ĠBudd hism
Ġbund le
ĠKen nedy
KGgoAAAANSUhEUg AAAA
W in
er ting
Ġl ob
ĠD uty
av oid
Ġte lecomm
til ization
Ġide ology
Ġfac tions
Ġ12 00
Al ong
Ġbul ly
Sc roll
ĠIR S
Mechan ics
ĠEther net
b ank
ĠT alking
se ason
ĠW ang
ĠB one
Ġem an
Ġrec ru
ĠBe autiful
Ġfound ing
Ġter ror
Ġcross ed
Ġsubs ets
Ġgeomet ries
Ġresid ency
Ġinterven e
ĠMar x
Ġmicrosc opy
C quad
Q z
i ro
s entence
Ġal arms
Ġunder graduate
ĠTra sh
Ġgas oline
ĠGo ing
ĠShow ing
Ġvib ration
ĠCustom izing
Ġmention ing
Ġfruit ful
Ġmedi ated
Ġsne e
hell o
Ġprecon ceived
g ens
Ġg ates
Ġwe ars
Ġmat uration
wor m
ĠAc tivate
Em ail
Ġast roph
Ġdeliber ation
Ġprojec tile
A ud
H am
b ug
Ġdec ays
ĠAd vantages
Ġno zzle
Ġpric ed
eti tive
Ġten ure
ĠTra its
ĠCalcul ator
De aling
Un like
Ġfrag rances
Ġsoften ed
ĠDE F
Ġyouth ful
ĠGaus sian
Ġcatast rophic
roider y
t arget
u ght
v acy
Ġl uggage
low n
Ġwh isp
ĠM ask
Ġev olves
Ġno ble
Ġconf er
Ġproced ural
Ġassist ing
Ġexplo sive
hyd ration
ĠIr ish
? .
er ic
Ġw inner
Ġb reeze
Ġde forestation
âĢ Ĳ
Ġval ves
Ġcontin ent
Ġbra ins
ĠCont ract
yl van
Ġmotiv ates
ĠShe ll
ĠTw ist
wh o
ĠEvery thing
Ġdeodor ant
g ues
ra red
ĠT we
ĠC itiz
ĠI NT
od erm
20 10
su its
rel ation
ĠGu inea
Ġfirm ware
Ġ198 1
Ġdelay ed
ĠMarsh all
s pect
à ¥
Ġb iting
lec tivity
ĠBe ach
Ġdel ved
Ġcent r
-------------------------------- -------------------
Ġmor ality
Int ro
Ġap ologize
jud gment
ĠBow l
/ )
S ally
Ġo s
ĠD ating
Ġsym pathetic
ĠTreat ments
Ġdict ates
Ġfif teen
Ġrum ors
ot ox
ĠM O
ĠM outh
ĠL oop
ĠY ay
Ġess ays
Ġair plane
ĠAr row
Ġtou g
ĠConf ident
ĠÎ µ
Ġinvent or
ĠMag netism
Ġsusp ended
ĠRest ric
ĠSat urn
Ġelong ated
* "
m ag
s al
t use
Ġc el
ip ing
Ġapp end
Ġcont ested
Ġthem ed
Ġneed les
Ġincre ments
Ġgl utes
rol ogy
ĠDe vi
Ġconduc tors
ĠAdv ances
ĠCool ing
ĠS ara
Ġun sc
Ġbl ast
Ġund eres
ĠMicro fiber
Ġwall paper
Ġinduc ing
Ind ex
Ġdie ti
ĠMor ning
D iv
P our
Y ear
x s
Ġst air
ĠP ray
ĠK a
ĠCh op
Ġfl ames
Sh ift
Ġoccup ies
ĠProfession als
Ġmanif ests
Ġwal let
Ġimpul ses
Ġencaps ulated
Ġoverload ing
) -\
m ation
Ġd ying
Ġd iced
Ġv ague
ĠF ight
Ġapp ren
Ġam ass
ĠAd ult
Ġbody weight
be an
Ġmix er
ograph ies
Ġcommit tee
def ense
Ġ198 2
ĠCal vin
bre aks
ĠWeb kinz
Ġelic it
Ġm oss
ĠH olding
est one
Ġbl adder
Ġlist ened
Ġutil izes
Ġeduc ated
)) )
... '
ĠNon verbal
ĠAdv ocate
[...]
