{
  "<pad>": 0,
  "<s>": 1,
  "</s>": 2,
  "<unk>": 3,
  "<bos>": 4,
  "<eos>": 5,
  "<audio>": 6,
  "<image>": 7,
  "<video>": 8,
  "!": 9,
  "\"": 10,
  "#": 11,
  "$": 12,
  "%": 13,
  "&": 14,
  "'": 15,
  "(": 16,
  ")": 17,
  "*": 18,
  "+": 19,
  ",": 20,
  "-": 21,
  ".": 22,
  "/": 23,
  "0": 24,
  "1": 25,
  "2": 26,
  "3": 27,
  "4": 28,
  "5": 29,
  "6": 30,
  "7": 31,
  "8": 32,
  "9": 33,
  ":": 34,
  ";": 35,
  "<": 36,
  "=": 37,
  ">": 38,
  "?": 39,
  "@": 40,
  "A": 41,
  "B": 42,
  "C": 43,
  "D": 44,
  "E": 45,
  "F": 46,
  "G": 47,
  "H": 48,
  "I": 49,
  "J": 50,
  "K": 51,
  "L": 52,
  "M": 53,
  "N": 54,
  "O": 55,
  "P": 56,
  "Q": 57,
  "R": 58,
  "S": 59,
  "T": 60,
  "U": 61,
  "V": 62,
  "W": 63,
  "X": 64,
  "Y": 65,
  "Z": 66,
  "[": 67,
  "\\": 68,
  "]": 69,
  "^": 70,
  "_": 71,
  "`": 72,
  "a": 73,
  "b": 74,
  "c": 75,
  "d": 76,
  "e": 77,
  "f": 78,
  "g": 79,
  "h": 80,
  "i": 81,
  "j": 82,
  "k": 83,
  "l": 84,
  "m": 85,
  "n": 86,
  "o": 87,
  "p": 88,
  "q": 89,
  "r": 90,
  "s": 91,
  "t": 92,
  "u": 93,
  "v": 94,
  "w": 95,
  "x": 96,
  "y": 97,
  "z": 98,
  "{": 99,
  "|": 100,
  "}": 101,
  "~": 102,
  "\u00a1": 103,
  "\u00a2": 104,
  "\u00a3": 105,
  "\u00a4": 106,
  "\u00a5": 107,
  "\u00a6": 108,
  "\u00a7": 109,
  "\u00a8": 110,
  "\u00a9": 111,
  "\u00aa": 112,
  "\u00ab": 113,
  "\u00ac": 114,
  "\u00ae": 115,
  "\u00af": 116,
  "\u00b0": 117,
  "\u00b1": 118,
  "\u00b2": 119,
  "\u00b3": 120,
  "\u00b4": 121,
  "\u00b5": 122,
  "\u00b6": 123,
  "\u00b7": 124,
  "\u00b8": 125,
  "\u00b9": 126,
  "\u00ba": 127,
  "\u00bb": 128,
  "\u00bc": 129,
  "\u00bd": 130,
  "\u00be": 131,
  "\u00bf": 132,
  "\u00c0": 133,
  "\u00c1": 134,
  "\u00c2": 135,
  "\u00c3": 136,
  "\u00c4": 137,
  "\u00c5": 138,
  "\u00c6": 139,
  "\u00c7": 140,
  "\u00c8": 141,
  "\u00c9": 142,
  "\u00ca": 143,
  "\u00cb": 144,
  "\u00cc": 145,
  "\u00cd": 146,
  "\u00ce": 147,
  "\u00cf": 148,
  "\u00d0": 149,
  "\u00d1": 150,
  "\u00d2": 151,
  "\u00d3": 152,
  "\u00d4": 153,
  "\u00d5": 154,
  "\u00d6": 155,
  "\u00d7": 156,
  "\u00d8": 157,
  "\u00d9": 158,
  "\u00da": 159,
  "\u00db": 160,
  "\u00dc": 161,
  "\u00dd": 162,
  "\u00de": 163,
  "\u00df": 164,
  "\u00e0": 165,
  "\u00e1": 166,
  "\u00e2": 167,
  "\u00e3": 168,
  "\u00e4": 169,
  "\u00e5": 170,
  "\u00e6": 171,
  "\u00e7": 172,
  "\u00e8": 173,
  "\u00e9": 174,
  "\u00ea": 175,
  "\u00eb": 176,
  "\u00ec": 177,
  "\u00ed": 178,
  "\u00ee": 179,
  "\u00ef": 180,
  "\u00f0": 181,
  "\u00f1": 182,
  "\u00f2": 183,
  "\u00f3": 184,
  "\u00f4": 185,
  "\u00f5": 186,
  "\u00f6": 187,
  "\u00f7": 188,
  "\u00f8": 189,
  "\u00f9": 190,
  "\u00fa": 191,
  "\u00fb": 192,
  "\u00fc": 193,
  "\u00fd": 194,
  "\u00fe": 195,
  "\u00ff": 196,
  "\u0100": 197,
  "\u0101": 198,
  "\u0102": 199,
  "\u0103": 200,
  "\u0104": 201,
  "\u0105": 202,
  "\u0106": 203,
  "\u0107": 204,
  "\u0108": 205,
  "\u0109": 206,
  "\u010a": 207,
  "\u010b": 208,
  "\u010c": 209,
  "\u010d": 210,
  "\u010e": 211,
  "\u010f": 212,
  "\u0110": 213,
  "\u0111": 214,
  "\u0112": 215,
  "\u0113": 216,
  "\u0114": 217,
  "\u0115": 218,
  "\u0116": 219,
  "\u0117": 220,
  "\u0118": 221,
  "\u0119": 222,
  "\u011a": 223,
  "\u011b": 224,
  "\u011c": 225,
  "\u011d": 226,
  "\u011e": 227,
  "\u011f": 228,
  "\u0120": 229,
  "\u0121": 230,
  "\u0122": 231,
  "\u0123": 232,
  "\u0124": 233,
  "\u0125": 234,
  "\u0126": 235,
  "\u0127": 236,
  "\u0128": 237,
  "\u0129": 238,
  "\u012a": 239,
  "\u012b": 240,
  "\u012c": 241,
  "\u012d": 242,
  "\u012e": 243,
  "\u012f": 244,
  "\u0130": 245,
  "\u0131": 246,
  "\u0132": 247,
  "\u0133": 248,
  "\u0134": 249,
  "\u0135": 250,
  "\u0136": 251,
  "\u0137": 252,
  "\u0138": 253,
  "\u0139": 254,
  "\u013a": 255,
  "\u013b": 256,
  "\u013c": 257,
  "\u013d": 258,
  "\u013e": 259,
  "\u013f": 260,
  "\u0140": 261,
  "\u0141": 262,
  "\u0142": 263,
  "\u0143": 264,
  "in": 265,
  "\u0120a": 266,
  "\u0120t": 267,
  "re": 268,
  "\u010d\u010a": 269,
  "on": 270,
  "he": 271,
  "er": 272,
  "ti": 273,
  "\u0120c": 274,
  "ing": 275,
  "\u0120s": 276,
  "es": 277,
  "nd": 278,
  "or": 279,
  "\u0120the": 280,
  "en": 281,
  "ou": 282,
  "\u0120p": 283,
  "al": 284,
  "it": 285,
  "at": 286,
  "is": 287,
  "an": 288,
  "\u0120f": 289,
  "\u0120and": 290,
  "le": 291,
  "\u0120w": 292,
  "tion": 293,
  "ar": 294,
  "\u0120in": 295,
  "\u0120o": 296,
  "\u0120b": 297,
  "\u0120d": 298,
  "\u0120to": 299,
  "\u0120e": 300,
  "\u0120m": 301,
  "ed": 302,
  "ro": 303,
  "ic": 304,
  "\u0120of": 305,
  "ly": 306,
  "st": 307,
  "--": 308,
  "\u0120re": 309,
  "ra": 310,
  "ent": 311,
  "om": 312,
  "ve": 313,
  "\u0120y": 314,
  "\u0120A": 315,
  "ec": 316,
  "ol": 317,
  "\u0120you": 318,
  "id": 319,
  "as": 320,
  "ow": 321,
  "us": 322,
  "ation": 323,
  "\u0120l": 324,
  "\u0120th": 325,
  "et": 326,
  "\u0120h": 327,
  "\u0120n": 328,
  "ul": 329,
  "ac": 330,
  "\u0120T": 331,
  "im": 332,
  "il": 333,
  "ep": 334,
  "el": 335,
  "\u0120g": 336,
  "ant": 337,
  "ig": 338,
  "\u0120for": 339,
  "\u0120st": 340,
  "\u0120con": 341,
  "ver": 342,
  "em": 343,
  "ist": 344,
  "\u0120ex": 345,
  "ce": 346,
  "ot": 347,
  "\u0120on": 348,
  "\u0120S": 349,
  "\u0120or": 350,
  "ith": 351,
  "\u0120your": 352,
  "ate": 353,
  "ur": 354,
  "un": 355,
  "se": 356,
  "uc": 357,
  "\u0120as": 358,
  "----": 359,
  "\u0120pro": 360,
  "pp": 361,
  "\u0120with": 362,
  "ter": 363,
  "ess": 364,
  "ag": 365,
  "qu": 366,
  "ir": 367,
  "am": 368,
  "|>": 369,
  "<|": 370,
  "\u0120he": 371,
  "\u0120C": 372,
  "if": 373,
  "tic": 374,
  "res": 375,
  "ad": 376,
  "ers": 377,
  "ay": 378,
  "ab": 379,
  "\u0120an": 380,
  "ity": 381,
  "\u0120al": 382,
  "\u0120com": 383,
  "ut": 384,
  "\u0120are": 385,
  "ri": 386,
  "\u0120I": 387,
  "ke": 388,
  "sist": 389,
  "out": 390,
  "her": 391,
  "\u0120is": 392,
  "\u0120P": 393,
  "\u0120by": 394,
  "ain": 395,
  "ts": 396,
  "\u0120en": 397,
  "\u0120v": 398,
  "\u0120ac": 399,
  "\u0120be": 400,
  "ip": 401,
  "ure": 402,
  "si": 403,
  "ite": 404,
  "um": 405,
  "ud": 406,
  "\u0120\u0120": 407,
  "\u0120ch": 408,
  "od": 409,
  "ore": 410,
  "\u0120(": 411,
  "igh": 412,
  "\u0120AI": 413,
  "\u0120it": 414,
  "sistant": 415,
  "\u0120that": 416,
  "pl": 417,
  "\u0120us": 418,
  "\u0120E": 419,
  "ations": 420,
  "**": 421,
  "tions": 422,
  "th": 423,
  "\u0120int": 424,
  "ful": 425,
  "low": 426,
  "\u0120W": 427,
  "\u0120D": 428,
  "ated": 429,
  "tive": 430,
  "\u0120wh": 431,
  "\u0120pre": 432,
  "ment": 433,
  "oc": 434,
  "\u0120M": 435,
  "our": 436,
  "\u0120F": 437,
  "\u0120B": 438,
  "\u0120hel": 439,
  "\u0120cre": 440,
  "and": 441,
  "\u0120help": 442,
  "\u0120R": 443,
  "rac": 444,
  "ple": 445,
  "\u0120app": 446,
  "\u0120le": 447,
  "\u0120u": 448,
  "ial": 449,
  "ine": 450,
  "tep": 451,
  "ere": 452,
  "\u0120un": 453,
  "ting": 454,
  "iz": 455,
  "rou": 456,
  "\u0120ne": 457,
  "os": 458,
  "cl": 459,
  "\u0120ad": 460,
  "\u01201": 461,
  "\u0120im": 462,
  "ap": 463,
  "ch": 464,
  "\u0120H": 465,
  "--------": 466,
  "\u0120sh": 467,
  "\u0120sp": 468,
  "\u0120'": 469,
  "ies": 470,
  "yst": 471,
  "tu": 472,
  "ise": 473,
  "ide": 474,
  "nt": 475,
  "==": 476,
  "ill": 477,
  "##": 478,
  "ome": 479,
  "\u0120r": 480,
  "ystem": 481,
  "ach": 482,
  "\u0120can": 483,
  "\u0120this": 484,
  "rom": 485,
  "hen": 486,
  "gh": 487,
  "'s": 488,
  "per": 489,
  "ight": 490,
  "end": 491,
  "\u0120at": 492,
  "Step": 493,
  "ons": 494,
  "ge": 495,
  "oo": 496,
  "\u0120we": 497,
  "\u0120ha": 498,
  "ile": 499,
  "able": 500,
  "\u0120G": 501,
  "are": 502,
  "\u0120su": 503,
  "You": 504,
  "\u0120L": 505,
  "ard": 506,
  "iv": 507,
  "\u0120pol": 508,
  "\u0120\"": 509,
  "ally": 510,
  "duc": 511,
  "for": 512,
  "\u01202": 513,
  "\u0120de": 514,
  "all": 515,
  "ld": 516,
  "ous": 517,
  "op": 518,
  "ong": 519,
  "\u0120cont": 520,
  "king": 521,
  "cise": 522,
  "\u0120from": 523,
  "\u0120The": 524,
  "ents": 525,
  "og": 526,
  "ance": 527,
  "ust": 528,
  "age": 529,
  "enti": 530,
  "ct": 531,
  "ther": 532,
  "\u0120res": 533,
  "\u0120pl": 534,
  "\u0120helpful": 535,
  "ks": 536,
  "\u0120created": 537,
  "\u0120precise": 538,
  "ey": 539,
  "red": 540,
  "clud": 541,
  "\u0120se": 542,
  "iti": 543,
  "\u0120co": 544,
  "\u0120polite": 545,
  "ect": 546,
  "\u0120assistant": 547,
  "cess": 548,
  "very": 549,
  "user": 550,
  "antra": 551,
  "lya": 552,
  "\u0120Tantra": 553,
  "system": 554,
  "tulya": 555,
  "\u0120Atulya": 556,
  "assistant": 557,
  "ating": 558,
  "ces": 559,
  "ollow": 560,
  "\u0120In": 561,
  "ind": 562,
  "\u0120comp": 563,
  "\u0120ab": 564,
  "\u0120not": 565,
  "\u0120U": 566,
  "\u0120cl": 567,
  "ines": 568,
  "\u0120=": 569,
  "uid": 570,
  "\u0120O": 571,
  "\u0120their": 572,
  "est": 573,
  "ence": 574,
  "ex": 575,
  "les": 576,
  "\u0120par": 577,
  "ips": 578,
  "nder": 579,
  "ff": 580,
  "\u0120follow": 581,
  "\u0120li": 582,
  "\u0120have": 583,
  "\u0120-": 584,
  "ort": 585,
  "ign": 586,
  "ion": 587,
  "ie": 588,
  "ical": 589,
  "ruc": 590,
  "\u0120Th": 591,
  "tical": 592,
  "ates": 593,
  "\u0120wor": 594,
  "\u0120out": 595,
  "uidel": 596,
  "ue": 597,
  "\u0120use": 598,
  "\u0120po": 599,
  "ould": 600,
  "ell": 601,
  "\u00e2\u0122": 602,
  "tiv": 603,
  "ry": 604,
  "\u0120these": 605,
  "\u0120N": 606,
  "ary": 607,
  "ber": 608,
  "led": 609,
  "\u0120suc": 610,
  "als": 611,
  "\u0120ma": 612,
  "\u0120j": 613,
  "\u0120dis": 614,
  "Key": 615,
  "rough": 616,
  "av": 617,
  "clude": 618,
  "\u0120tim": 619,
  "\u0120ar": 620,
  "ular": 621,
  "vel": 622,
  "ble": 623,
  "\u0120how": 624,
  "ress": 625,
  "\u0120mo": 626,
  "\u0120k": 627,
  "ari": 628,
  "di": 629,
  "ory": 630,
  "ors": 631,
  "\u0120sec": 632,
  "ms": 633,
  "\u0120det": 634,
  "\u0120em": 635,
  "\u0120up": 636,
  "rite": 637,
  "\u0120ev": 638,
  "ext": 639,
  "\u0120into": 640,
  "ific": 641,
  "ang": 642,
  "\u0120per": 643,
  "\u01203": 644,
  "ail": 645,
  "\u0120inst": 646,
  "\u0120like": 647,
  "\u0120exam": 648,
  "\u0120under": 649,
  "one": 650,
  "ater": 651,
  "uring": 652,
  "\u0120if": 653,
  "ans": 654,
  "\u0120exp": 655,
  "ning": 656,
  "fere": 657,
  "ns": 658,
  "\u0120they": 659,
  "'.": 660,
  "act": 661,
  "\u0120$": 662,
  "\u0120expl": 663,
  "\u0120will": 664,
  "ric": 665,
  "\u0120unit": 666,
  "tain": 667,
  "form": 668,
  "\u0120rel": 669,
  "\u0120qu": 670,
  "\u0120through": 671,
  "ear": 672,
  "ities": 673,
  "\u0120sc": 674,
  "====": 675,
  "\u0120me": 676,
  "\u0120imp": 677,
  "\u0120step": 678,
  "\u0120des": 679,
  "\u0120when": 680,
  "\u0120equ": 681,
  "\u0120acc": 682,
  "here": 683,
  "\u0120over": 684,
  "ace": 685,
  "ding": 686,
  "ast": 687,
  "oth": 688,
  "\u0120other": 689,
  "\u0120ke": 690,
  "uidelines": 691,
  "\u0120bet": 692,
  "\u0120fe": 693,
  "ments": 694,
  "\u0120time": 695,
  "\u0120St": 696,
  "eg": 697,
  "\u0120prac": 698,
  "\u0120\u0120\u0120\u0120": 699,
  "\u0120tr": 700,
  "ich": 701,
  "\u0120inter": 702,
  "ages": 703,
  "\u0120them": 704,
  ").": 705,
  "\u0120each": 706,
  "ack": 707,
  "stand": 708,
  "ech": 709,
  "ative": 710,
  "\u0120This": 711,
  "\u0120cons": 712,
  "\u0120such": 713,
  "tional": 714,
  "elf": 715,
  "\u0120comm": 716,
  "we": 717,
  "\u0120conc": 718,
  "00": 719,
  "\u01205": 720,
  "\u0120about": 721,
  "\u0120go": 722,
  "fore": 723,
  "ving": 724,
  "\u0120inc": 725,
  "iting": 726,
  "\u0120its": 727,
  "\u0120so": 728,
  "\u0120man": 729,
  "ng": 730,
  "----------------": 731,
  "\u0120ro": 732,
  "\u0120ind": 733,
  "\u0120new": 734,
  "\u0120ph": 735,
  "\u0120col": 736,
  "ily": 737,
  "\",": 738,
  "ize": 739,
  "\u0120dep": 740,
  "now": 741,
  "\u0120spec": 742,
  "roduc": 743,
  "ire": 744,
  "\u0120following": 745,
  "\u0120num": 746,
  "ase": 747,
  "ose": 748,
  "\u0120inv": 749,
  "\u0120val": 750,
  "\u0120allow": 751,
  "\u0120fun": 752,
  "ential": 753,
  "\u0120op": 754,
  "ys": 755,
  "ility": 756,
  "\u0120more": 757,
  "\u0120top": 758,
  "art": 759,
  "\u0120tra": 760,
  "ings": 761,
  "\u0120sim": 762,
  "tim": 763,
  "\u0120any": 764,
  "lic": 765,
  "\u0120&": 766,
  "\u0120all": 767,
  "ough": 768,
  "\u0120reg": 769,
  "ound": 770,
  "\u0120prov": 771,
  "anc": 772,
  "lect": 773,
  "\u0120one": 774,
  "\u0120sub": 775,
  "\u0120some": 776,
  "\u01204": 777,
  "round": 778,
  "ub": 779,
  "row": 780,
  "\u0120cal": 781,
  "\u0120exper": 782,
  "\u0120while": 783,
  "sion": 784,
  "\u0120dif": 785,
  "ward": 786,
  "ider": 787,
  "ass": 788,
  "ten": 789,
  "\u0120rec": 790,
  "\u0120using": 791,
  "\u0120do": 792,
  "ween": 793,
  "\u0120form": 794,
  "\u0120rem": 795,
  "ook": 796,
  "\u0120ins": 797,
  "\u0120off": 798,
  "\u0120eng": 799,
  "ph": 800,
  "\u0120appro": 801,
  "\u0120text": 802,
  "ays": 803,
  "\u0120very": 804,
  "\u0120comple": 805,
  "ll": 806,
  "aging": 807,
  "\u0120vari": 808,
  "\u0120between": 809,
  "\u0120rep": 810,
  "ond": 811,
  "ures": 812,
  "\u0120need": 813,
  "\u0120Do": 814,
  "echn": 815,
  "\u0120pers": 816,
  "\u0120+": 817,
  "\u0120dec": 818,
  "ult": 819,
  "\u0120which": 820,
  "oid": 821,
  "ake": 822,
  "\u0120long": 823,
  "\u0120our": 824,
  "\u0120include": 825,
  "\u0120tw": 826,
  "ame": 827,
  "ues": 828,
  "ual": 829,
  "yp": 830,
  "\u0120ens": 831,
  "In": 832,
  "read": 833,
  "###": 834,
  "\u0120read": 835,
  "',": 836,
  "ak": 837,
  "\u0120there": 838,
  "ice": 839,
  "\u0120ra": 840,
  "\u0120every": 841,
  "\u0120understand": 842,
  "\u0120cur": 843,
  "\u0120section": 844,
  "eng": 845,
  "iled": 846,
  "\u0120key": 847,
  "ree": 848,
  "ati": 849,
  "ired": 850,
  "\u0120Y": 851,
  "its": 852,
  "\u0120but": 853,
  "\u0120know": 854,
  "ased": 855,
  "\u0120mod": 856,
  "ves": 857,
  "\u0120eas": 858,
  "get": 859,
  "rib": 860,
  "\u0120How": 861,
  "ish": 862,
  "\u0120str": 863,
  "Write": 864,
  "eth": 865,
  "\u0120disc": 866,
  "ark": 867,
  "\u0120am": 868,
  "cul": 869,
  "ailed": 870,
  "\u0120techn": 871,
  "hes": 872,
  "pec": 873,
  "\u0120during": 874,
  "\u0120wr": 875,
  "\u0120process": 876,
  "void": 877,
  "\u0120\\": 878,
  "oy": 879,
  "iqu": 880,
  "come": 881,
  "\u0120images": 882,
  "\u0120example": 883,
  "\u0120within": 884,
  "The": 885,
  "ction": 886,
  "\u0120where": 887,
  "\u0120For": 888,
  "\u0120detailed": 889,
  "\u0120ob": 890,
  "\u0120differe": 891,
  "riend": 892,
  "enc": 893,
  "resent": 894,
  "\u0120both": 895,
  "\u0120Con": 896,
  "olog": 897,
  "ount": 898,
  "ever": 899,
  "\u0120mat": 900,
  "\u0120requ": 901,
  "\u0120eff": 902,
  "\u0120bec": 903,
  "\u0120Ex": 904,
  "ration": 905,
  "\u0120adv": 906,
  "\u0120without": 907,
  "erm": 908,
  "\u0120may": 909,
  "ive": 910,
  "\u0120topic": 911,
  "\u0120sk": 912,
  "\u0120sign": 913,
  "int": 914,
  "ia": 915,
  "\u0120sol": 916,
  "\u0120add": 917,
  "ft": 918,
  "\u0120gra": 919,
  "\u0120concep": 920,
  "yle": 921,
  "\u0120te": 922,
  "\u0120two": 923,
  "ild": 924,
  "\u0120main": 925,
  "irst": 926,
  "sive": 927,
  "ss": 928,
  "ood": 929,
  "\u0120partic": 930,
  "\u0120cor": 931,
  "\u0120find": 932,
  "),": 933,
  "\u0120char": 934,
  "\u0120K": 935,
  "ens": 936,
  "\u0120has": 937,
  "nce": 938,
  "\u0120Ch": 939,
  "\u0120Tips": 940,
  "vers": 941,
  "\u0120V": 942,
  "apter": 943,
  "\u0120what": 944,
  "ions": 945,
  "own": 946,
  "\u0120J": 947,
  "vered": 948,
  "ulti": 949,
  "\u0120apply": 950,
  "\u0120practical": 951,
  "other": 952,
  "\u0120ass": 953,
  "aus": 954,
  "\u0120than": 955,
  "ost": 956,
  "\u0120set": 957,
  "\u0120chapter": 958,
  "\u0120We": 959,
  "\u0120instruc": 960,
  "\u0120sm": 961,
  "ef": 962,
  "ocus": 963,
  "ath": 964,
  "\u0120before": 965,
  "\u0120lear": 966,
  "ember": 967,
  "ience": 968,
  "old": 969,
  "'t": 970,
  "\u0120Ad": 971,
  "hed": 972,
  "ivid": 973,
  "\u01206": 974,
  "\u0120friend": 975,
  "\u0120depth": 976,
  "up": 977,
  "\u0120gu": 978,
  "ering": 979,
  "ready": 980,
  "hie": 981,
  "til": 982,
  "\u0120produc": 983,
  "so": 984,
  "\u0120\u00e2\u0122": 985,
  "\u0120already": 986,
  "\u0120resp": 987,
  "\u0120achie": 988,
  "ently": 989,
  "\u0120writing": 990,
  "\u0120Com": 991,
  "\u0120should": 992,
  "\u0120Your": 993,
  "\u0120ag": 994,
  "\u0120cle": 995,
  "\u0120specific": 996,
  "\u0120stud": 997,
  "\u0120dist": 998,
  "onom": 999,
  "acter": 1000,
  "\u0120who": 1001,
  "wor": 1002,
  "ness": 1003,
  "ma": 1004,
  "te": 1005,
  "\u0120ser": 1006,
  "orial": 1007,
  "ne": 1008,
  "\u0120gen": 1009,
  "fter": 1010,
  "sions": 1011,
  "\u0120covered": 1012,
  "ife": 1013,
  "pport": 1014,
  "velop": 1015,
  "\u0120was": 1016,
  "ange": 1017,
  "ty": 1018,
  "erg": 1019,
  "\u0120bu": 1020,
  "\u0120\u0120\u0120": 1021,
  "li": 1022,
  "\u0120tit": 1023,
  "entif": 1024,
  "nit": 1025,
  "\u0120tut": 1026,
  "bers": 1027,
  "\u0120pot": 1028,
  "\u0120style": 1029,
  "clus": 1030,
  "ead": 1031,
  "ement": 1032,
  "\u0120person": 1033,
  "========": 1034,
  "\u0120Include": 1035,
  "\u0120textb": 1036,
  "How": 1037,
  "\u0120tutorial": 1038,
  "ower": 1039,
  "gan": 1040,
  "\u0120min": 1041,
  "ics": 1042,
  "\u0120**": 1043,
  ":**": 1044,
  "\u0120ref": 1045,
  "\u0120posi": 1046,
  "\u0120By": 1047,
  "ick": 1048,
  "\u0120typ": 1049,
  "\u0120pr": 1050,
  "Wh": 1051,
  "\u0120Guidelines": 1052,
  "\u0120|": 1053,
  "alth": 1054,
  "ule": 1055,
  "\u0120no": 1056,
  "roduction": 1057,
  "\u0120Step": 1058,
  "\u0120tips": 1059,
  "\u0120make": 1060,
  "ational": 1061,
  "\u0120end": 1062,
  "\u0120fl": 1063,
  "ici": 1064,
  "\u0120consider": 1065,
  "\u0120trans": 1066,
  "\u0120steps": 1067,
  "\u0120guidelines": 1068,
  "\u0120App": 1069,
  "\u0120incre": 1070,
  "\u0120prof": 1071,
  "\u0120easily": 1072,
  "ik": 1073,
  "\u0120helps": 1074,
  "\u0120loc": 1075,
  "\u0120It": 1076,
  "self": 1077,
  "\u0120calcul": 1078,
  "\u0120Pro": 1079,
  "\u0120x": 1080,
  "\u0120commun": 1081,
  "\u0120che": 1082,
  "hip": 1083,
  "ib": 1084,
  "ateg": 1085,
  "ution": 1086,
  "\u0120Al": 1087,
  "ds": 1088,
  "\u0120conf": 1089,
  ".,": 1090,
  "\u0120various": 1091,
  "\u0120system": 1092,
  "tice": 1093,
  "erest": 1094,
  "nsure": 1095,
  "\u0120If": 1096,
  "iel": 1097,
  "ps": 1098,
  "ecess": 1099,
  "\u0120work": 1100,
  "oun": 1101,
  "ored": 1102,
  "\u0120multi": 1103,
  "ining": 1104,
  "\u0120readers": 1105,
  "ob": 1106,
  "por": 1107,
  "\u0120high": 1108,
  "We": 1109,
  "\u0120inform": 1110,
  "\u0120lead": 1111,
  "\u0120achieve": 1112,
  "\u0120bl": 1113,
  "\u0120prev": 1114,
  "\u0120desired": 1115,
  "\u0120invol": 1116,
  "\u0120also": 1117,
  "\u0120maintain": 1118,
  "ved": 1119,
  "\u0120different": 1120,
  "\u0120Ensure": 1121,
  "\u0120play": 1122,
  "ication": 1123,
  "\u0120first": 1124,
  "arity": 1125,
  "inal": 1126,
  "\u0120complex": 1127,
  "\u0120back": 1128,
  "AA": 1129,
  "\u0120\u00e2\u0122\u0135": 1130,
  "\u0120att": 1131,
  "ata": 1132,
  "\u0120chall": 1133,
  "\u0120allowing": 1134,
  "\u0120instructions": 1135,
  "\u0120number": 1136,
  "\u0120explan": 1137,
  "ethod": 1138,
  "\u0120sur": 1139,
  "ately": 1140,
  "ective": 1141,
  "ances": 1142,
  "ove": 1143,
  "\u0120di": 1144,
  "lec": 1145,
  "\u0120pe": 1146,
  "ather": 1147,
  "\u0120create": 1148,
  "\u0120character": 1149,
  "iew": 1150,
  "ets": 1151,
  "\u0120let": 1152,
  "\u0120down": 1153,
  "\u0120cap": 1154,
  "dition": 1155,
  "\u0120prom": 1156,
  "\u0120individ": 1157,
  "ven": 1158,
  "\u0120fact": 1159,
  "tern": 1160,
  "cc": 1161,
  "\u0120explanations": 1162,
  "iki": 1163,
  "ability": 1164,
  "ses": 1165,
  "\u0120could": 1166,
  "\u0120understanding": 1167,
  "\u0120provid": 1168,
  "izing": 1169,
  "pt": 1170,
  "\u0120real": 1171,
  "\u0120engaging": 1172,
  "ooks": 1173,
  "\u0120sa": 1174,
  "ool": 1175,
  "\u0120interest": 1176,
  "\u0120another": 1177,
  "\u01207": 1178,
  "\u0120integ": 1179,
  "\u0120sch": 1180,
  "\u0120guide": 1181,
  "ute": 1182,
  "reat": 1183,
  "ences": 1184,
  "ature": 1185,
  "\u0120avoid": 1186,
  "\u012020": 1187,
  "ties": 1188,
  "line": 1189,
  "arch": 1190,
  "\u0120even": 1191,
  "ross": 1192,
  "\u0120care": 1193,
  "\u0120ext": 1194,
  "\u0120yourself": 1195,
  "oose": 1196,
  "\u0120grow": 1197,
  "\u0120As": 1198,
  "\u0120particular": 1199,
  "\u0120An": 1200,
  "du": 1201,
  "reate": 1202,
  "\u0120inf": 1203,
  "\u0120relations": 1204,
  "\u0120enc": 1205,
  "\u0120soc": 1206,
  "aterial": 1207,
  "\u0120pos": 1208,
  "ikiHow": 1209,
  "}{": 1210,
  "ren": 1211,
  "ality": 1212,
  "\u0120clarity": 1213,
  "\u0120outcome": 1214,
  "\u0120health": 1215,
  "ural": 1216,
  "wards": 1217,
  "\u0120might": 1218,
  "ection": 1219,
  "\u0120water": 1220,
  "\u0120id": 1221,
  "\u0120develop": 1222,
  "arly": 1223,
  "\u0120Use": 1224,
  "\u0120ent": 1225,
  "\u0120Be": 1226,
  "aching": 1227,
  "\u0120These": 1228,
  "\u0120line": 1229,
  "\u0120Wh": 1230,
  "\u0120practicality": 1231,
  "ights": 1232,
  "\u0120vis": 1233,
  "\u0120well": 1234,
  "uideline": 1235,
  "\u0120challeng": 1236,
  "\u0120potential": 1237,
  "iness": 1238,
  "\u0120activ": 1239,
  "$$": 1240,
  "ways": 1241,
  "\u0120br": 1242,
  "\u0120hand": 1243,
  "ases": 1244,
  "\u0120feel": 1245,
  "\u0120Rem": 1246,
  "rehen": 1247,
  "uding": 1248,
  "ious": 1249,
  "\u0120ec": 1250,
  "\u0120WikiHow": 1251,
  "\u0120ensure": 1252,
  "ized": 1253,
  "ax": 1254,
  "\u0120inl": 1255,
  "abl": 1256,
  "\u0120around": 1257,
  "\u0120inluding": 1258,
  "over": 1259,
  "ples": 1260,
  "\u0120dem": 1261,
  "\u0120focus": 1262,
  "wn": 1263,
  "\u0120necess": 1264,
  "frac": 1265,
  "itle": 1266,
  "ories": 1267,
  "\u0120tail": 1268,
  "\u0120conn": 1269,
  "\u0120method": 1270,
  "\u0120titled": 1271,
  "\u0120deep": 1272,
  "\u0120ess": 1273,
  "\u0120would": 1274,
  "\u0120includ": 1275,
  "\u0120based": 1276,
  "ody": 1277,
  "\u0120data": 1278,
  "ix": 1279,
  "\u0120anal": 1280,
  "\u0120signific": 1281,
  "\u0120dire": 1282,
  "\u0120impro": 1283,
  "\u0120level": 1284,
  "\u0120giv": 1285,
  "Con": 1286,
  "arm": 1287,
  "gin": 1288,
  "'re": 1289,
  "\u0120def": 1290,
  "\u0120mon": 1291,
  "\u0120beh": 1292,
  "\u0120organ": 1293,
  "\u0120expres": 1294,
  "ique": 1295,
  "sing": 1296,
  "\u0120rese": 1297,
  "\u0120med": 1298,
  "ditional": 1299,
  "tics": 1300,
  "ices": 1301,
  "ects": 1302,
  "\u0120proper": 1303,
  "ord": 1304,
  "\u0120ele": 1305,
  "urn": 1306,
  "ject": 1307,
  "eep": 1308,
  "Ex": 1309,
  "ourn": 1310,
  "ency": 1311,
  "\u0120tone": 1312,
  "ills": 1313,
  "\u0120along": 1314,
  "ause": 1315,
  "ram": 1316,
  "air": 1317,
  "\u0120friends": 1318,
  "\u0120Cons": 1319,
  "ession": 1320,
  "ints": 1321,
  "ctions": 1322,
  "fort": 1323,
  "ink": 1324,
  "\u0120provide": 1325,
  "fully": 1326,
  "\u0120material": 1327,
  "aking": 1328,
  "\u0120equations": 1329,
  "ince": 1330,
  "Title": 1331,
  "\u012010": 1332,
  "gg": 1333,
  "\u0120many": 1334,
  "urther": 1335,
  "\u0120her": 1336,
  "ying": 1337,
  "\u0120phra": 1338,
  "\u0120hist": 1339,
  "\u0120car": 1340,
  "oura": 1341,
  "\u0120*": 1342,
  "\u0120import": 1343,
  "ntroduction": 1344,
  "\u0120small": 1345,
  "\u0120approach": 1346,
  "\u0120remain": 1347,
  "\u0120Write": 1348,
  "\u0120pri": 1349,
  "ources": 1350,
  "ledge": 1351,
  "\u0120part": 1352,
  "\u0120those": 1353,
  "\u0120consist": 1354,
  "ames": 1355,
  "\u0120success": 1356,
  "ture": 1357,
  "\u0120essential": 1358,
  "\u01208": 1359,
  "\u0120then": 1360,
  "\u0120learn": 1361,
  "aw": 1362,
  "ym": 1363,
  "ew": 1364,
  "\u0120information": 1365,
  "rehensive": 1366,
  "sible": 1367,
  "ants": 1368,
  "\u00e2\u0122\u013b": 1369,
  "\u0120see": 1370,
  "\u0120ide": 1371,
  "\u0120function": 1372,
  "\u0120found": 1373,
  "\u0120However": 1374,
  "ted": 1375,
  "\u0120bre": 1376,
  "ck": 1377,
  "\u0120value": 1378,
  "\u0120after": 1379,
  "\u0120tailored": 1380,
  "ply": 1381,
  "\u0120making": 1382,
  "\u0120To": 1383,
  "inc": 1384,
  "\u0120begin": 1385,
  "\u0120significant": 1386,
  "\u0120due": 1387,
  "\u0120const": 1388,
  "\u0120You": 1389,
  "\u0120Here": 1390,
  "\u0120phrases": 1391,
  "ization": 1392,
  "\u0120way": 1393,
  "\u0120access": 1394,
  "ser": 1395,
  "ared": 1396,
  "ination": 1397,
  "\u0120life": 1398,
  "\u0120others": 1399,
  "atter": 1400,
  "ending": 1401,
  "ergy": 1402,
  "\u0120econom": 1403,
  "to": 1404,
  "\u0120prog": 1405,
  "els": 1406,
  "ade": 1407,
  "\u0120stre": 1408,
  "\u0120Eng": 1409,
  "tives": 1410,
  "---": 1411,
  "\u0120gener": 1412,
  "aring": 1413,
  "\u0120journ": 1414,
  "\u0120del": 1415,
  "\u0120pur": 1416,
  "\u0120content": 1417,
  "put": 1418,
  "de": 1419,
  "\u0120sl": 1420,
  "\u0120his": 1421,
  "ield": 1422,
  "\u0120events": 1423,
  "nces": 1424,
  "\u0120fac": 1425,
  "\u0120though": 1426,
  "ables": 1427,
  "\u0120list": 1428,
  "\u01200": 1429,
  "atures": 1430,
  "\u0120plan": 1431,
  "\u0120design": 1432,
  "\u0120less": 1433,
  "rate": 1434,
  "\u0120throughout": 1435,
  "\u0120concepts": 1436,
  "com": 1437,
  "ins": 1438,
  "\u0120units": 1439,
  "ople": 1440,
  "ars": 1441,
  "\u0120experi": 1442,
  "\u0120artic": 1443,
  "ision": 1444,
  "ior": 1445,
  "\u0120concept": 1446,
  "\u0120personal": 1447,
  "\u0120mark": 1448,
  "\".": 1449,
  "rent": 1450,
  "\u0120meas": 1451,
  "\u0120introduc": 1452,
  "\u0120et": 1453,
  "rect": 1454,
  "\u0120proble": 1455,
  "\u0120light": 1456,
  "\u0120apples": 1457,
  "\u0120Sh": 1458,
  "\u0120Re": 1459,
  "\u0120fin": 1460,
  "\u0120Keep": 1461,
  "\u0120keep": 1462,
  "\u0120applic": 1463,
  "\u0120get": 1464,
  "\u0120Pl": 1465,
  "\u0120Tip": 1466,
  "\u0120right": 1467,
  "iron": 1468,
  "\u0120grou": 1469,
  "\u0120strateg": 1470,
  "hema": 1471,
  "eed": 1472,
  "ically": 1473,
  "gether": 1474,
  "\u0120together": 1475,
  "ology": 1476,
  "\u0120Remember": 1477,
  "\u0120open": 1478,
  "of": 1479,
  "oring": 1480,
  "\u0120she": 1481,
  "\u0120mem": 1482,
  "\u0120fam": 1483,
  "\u0120child": 1484,
  "\u0120ver": 1485,
  "ording": 1486,
  "\u0120el": 1487,
  "rucial": 1488,
  "\u0120bel": 1489,
  "\u0120supp": 1490,
  "\u0120exc": 1491,
  "less": 1492,
  "day": 1493,
  "\u0120cost": 1494,
  "hips": 1495,
  "Th": 1496,
  "tit": 1497,
  "clusion": 1498,
  "\u0120perform": 1499,
  "\u0120teaching": 1500,
  "\u0120school": 1501,
  "ety": 1502,
  "\u0120cover": 1503,
  "iques": 1504,
  "ustom": 1505,
  "\u0120necessary": 1506,
  "\u0120towards": 1507,
  "ner": 1508,
  "\u0120knowledge": 1509,
  "\u0120crucial": 1510,
  "ze": 1511,
  "\u0120most": 1512,
  "ave": 1513,
  "atis": 1514,
  "\u0120now": 1515,
  "ron": 1516,
  "\u0120including": 1517,
  "\u012019": 1518,
  "\u0120contin": 1519,
  "view": 1520,
  "anced": 1521,
  "\u0120dra": 1522,
  "ox": 1523,
  "\u0120gl": 1524,
  "\u0120positive": 1525,
  "\u0120lar": 1526,
  "\u0120ter": 1527,
  "\u0120upon": 1528,
  "ems": 1529,
  "\u0120represent": 1530,
  "\u0120profession": 1531,
  "\u0120chang": 1532,
  "\u0120year": 1533,
  "\u0120power": 1534,
  "ploy": 1535,
  "\u0120day": 1536,
  "ible": 1537,
  "ered": 1538,
  "\u0120simple": 1539,
  "ental": 1540,
  "\u0120enh": 1541,
  "tal": 1542,
  "\u0120cri": 1543,
  "Create": 1544,
  "ied": 1545,
  "ined": 1546,
  "\u0120pop": 1547,
  "\u0120elect": 1548,
  "\u0120overall": 1549,
  "Introduction": 1550,
  "\u0120young": 1551,
  "verse": 1552,
  "\u0120contrib": 1553,
  "ism": 1554,
  "\u0120stand": 1555,
  "und": 1556,
  "\u0120sit": 1557,
  "viron": 1558,
  "\u0120often": 1559,
  "uch": 1560,
  "\u0120numbers": 1561,
  "\u0120textbooks": 1562,
  "ides": 1563,
  "\u0120effective": 1564,
  "To": 1565,
  "ling": 1566,
  "\u0120determ": 1567,
  "\u0120resul": 1568,
  "pri": 1569,
  "\u0120En": 1570,
  "\u0120people": 1571,
  "ract": 1572,
  "\u0120across": 1573,
  "app": 1574,
  "\\_": 1575,
  "\u0120aim": 1576,
  "\u0120just": 1577,
  "\u0120values": 1578,
  "ertain": 1579,
  "\u0120own": 1580,
  "ush": 1581,
  "\u0120again": 1582,
  "\u0120want": 1583,
  "..": 1584,
  "\u0120only": 1585,
  "\u0120take": 1586,
  "\u0120struc": 1587,
  "\u0120three": 1588,
  "idence": 1589,
  "\u0120unique": 1590,
  "mer": 1591,
  "\u0120growth": 1592,
  "\u0120clean": 1593,
  "\u0120energy": 1594,
  "asing": 1595,
  "\u0120cir": 1596,
  "####": 1597,
  "\u0120try": 1598,
  "ital": 1599,
  "\u0120article": 1600,
  "\u0120sure": 1601,
  "\u0120until": 1602,
  "\u0120world": 1603,
  "\u0120prot": 1604,
  "\u0120aud": 1605,
  "tory": 1606,
  "\u0120tool": 1607,
  "\u0120show": 1608,
  "\u0120examples": 1609,
  "\u0120interac": 1610,
  "\u0120Res": 1611,
  "\u0120current": 1612,
  "What": 1613,
  "\u0120neg": 1614,
  "\u0120ve": 1615,
  "utes": 1616,
  "\u0120direct": 1617,
  "oci": 1618,
  "\u0120whe": 1619,
  "val": 1620,
  "\u0120shap": 1621,
  "ogn": 1622,
  "pi": 1623,
  "\u0120head": 1624,
  "\u0120With": 1625,
  "\u0120used": 1626,
  "\u0120body": 1627,
  "\u0120lim": 1628,
  "\u0120comprehensive": 1629,
  "\u0120history": 1630,
  "\u0120mathema": 1631,
  "20": 1632,
  "bs": 1633,
  "duce": 1634,
  "xim": 1635,
  "\u0120calculus": 1636,
  "'ll": 1637,
  "\u0120move": 1638,
  "Guideline": 1639,
  "\u0120common": 1640,
  "\u0120identif": 1641,
  "\u0120students": 1642,
  "\u0120saf": 1643,
  "\u0120skills": 1644,
  "\u0120techniques": 1645,
  "\u0120does": 1646,
  "\u0120allows": 1647,
  "angu": 1648,
  "\u0120present": 1649,
  "ots": 1650,
  "\u0120initi": 1651,
  "rol": 1652,
  "\u0120aut": 1653,
  "\u0120behav": 1654,
  "\u0120regard": 1655,
  "\u0120research": 1656,
  "\u0120factors": 1657,
  "\u0120emp": 1658,
  "\u0120sever": 1659,
  "ters": 1660,
  "\u0120<": 1661,
  "\u0120ques": 1662,
  "\u0120tem": 1663,
  "ilities": 1664,
  "\u0120aw": 1665,
  "tivity": 1666,
  "usiness": 1667,
  "lex": 1668,
  "\u0120respon": 1669,
  "\u0120stra": 1670,
  "\u0120Unit": 1671,
  "\u0120social": 1672,
  "iod": 1673,
  "\u0120among": 1674,
  "\u0120ret": 1675,
  "\u0120point": 1676,
  "\u0120Avoid": 1677,
  "orous": 1678,
  "nderstand": 1679,
  "\u0120They": 1680,
  "\u0120appear": 1681,
  "\u0120were": 1682,
  "\u0120cent": 1683,
  "\u0120further": 1684,
  "\u0120given": 1685,
  "\u0120better": 1686,
  "\u0120environ": 1687,
  "pportun": 1688,
  "\u0120Comp": 1689,
  "Be": 1690,
  "\u0120being": 1691,
  "\u0120correct": 1692,
  "\u0120important": 1693,
  "\u0120Im": 1694,
  "\u0120rele": 1695,
  "rep": 1696,
  "\u0120mus": 1697,
  "\u0120too": 1698,
  "\u0120contain": 1699,
  "Now": 1700,
  "\u0120several": 1701,
  "ended": 1702,
  "**:": 1703,
  "cle": 1704,
  "\u0120When": 1705,
  "\u0120individual": 1706,
  "ock": 1707,
  "\u0120Se": 1708,
  "tures": 1709,
  "\u0120introductory": 1710,
  "\u0120self": 1711,
  "ferences": 1712,
  "\u0120area": 1713,
  "\u0120learning": 1714,
  "ublic": 1715,
  "\u0120textbook": 1716,
  "igorous": 1717,
  "\u01209": 1718,
  "\u0120iss": 1719,
  "\u0120expressions": 1720,
  "\u0120\u010d\u010a": 1721,
  "just": 1722,
  "\u0120ey": 1723,
  "by": 1724,
  "\u0120reduc": 1725,
  "ually": 1726,
  "\u0120phys": 1727,
  "\u0120custom": 1728,
  "\u0120nar": 1729,
  "au": 1730,
  "tle": 1731,
  "\u0120Sc": 1732,
  "\u0120bal": 1733,
  "bra": 1734,
  "10": 1735,
  "lear": 1736,
  "\u0120av": 1737,
  "\u0120press": 1738,
  "anguage": 1739,
  "\u0120regular": 1740,
  "\u0120discus": 1741,
  "\u0120ben": 1742,
  "joy": 1743,
  "\u0120prior": 1744,
  "incip": 1745,
  "\u0120United": 1746,
  "\u0120activities": 1747,
  "\u0120encoura": 1748,
  "\u0120experiences": 1749,
  "\u0120good": 1750,
  "\u0120emo": 1751,
  "lied": 1752,
  "ier": 1753,
  "\u0120improve": 1754,
  "mon": 1755,
  "\u0120ful": 1756,
  "\u0120es": 1757,
  "\u0120anim": 1758,
  "\u0120cell": 1759,
  "ote": 1760,
  "\u0120occ": 1761,
  "\u0120terms": 1762,
  "ging": 1763,
  "\u0120States": 1764,
  "\u0120\u0120\u0120\u0120\u0120\u0120\u0120\u0120": 1765,
  "\u0120comb": 1766,
  "\u0120start": 1767,
  "abor": 1768,
  "\u0120Sp": 1769,
  "\u0120convers": 1770,
  "\u0120possible": 1771,
  "fer": 1772,
  "\u0120according": 1773,
  "\u0120class": 1774,
  "\u0120setting": 1775,
  "\u0120pric": 1776,
  "\u0120field": 1777,
  "\u0120div": 1778,
  "the": 1779,
  "\u0120support": 1780,
  "\u0120ang": 1781,
  "\u0120whether": 1782,
  "\u0120Consider": 1783,
  "\u0120cho": 1784,
  "tention": 1785,
  "\u0120fil": 1786,
  "plan": 1787,
  "\u0120opportun": 1788,
  "\u0120equation": 1789,
  "\u0120called": 1790,
  "\u0120elements": 1791,
  "--------------------------------": 1792,
  "\u0120technical": 1793,
  "ength": 1794,
  "ume": 1795,
  "onst": 1796,
  "\u0120areas": 1797,
  "\u0120mind": 1798,
  "\u0120minim": 1799,
  "pon": 1800,
  "der": 1801,
  "\u0120functions": 1802,
  "vices": 1803,
  "ash": 1804,
  "\u0120mag": 1805,
  "ges": 1806,
  "\u0120mean": 1807,
  "\u0120require": 1808,
  "\u0120infl": 1809,
  "elcome": 1810,
  "agement": 1811,
  "\u0120happ": 1812,
  "ected": 1813,
  "ires": 1814,
  "\u0120story": 1815,
  "\u0120module": 1816,
  "lying": 1817,
  "\u0120Make": 1818,
  "omm": 1819,
  "\u0120sum": 1820,
  "\u0120needed": 1821,
  "================": 1822,
  "ru": 1823,
  "\u0120become": 1824,
  "\u0120201": 1825,
  "\u0120prevent": 1826,
  "ulation": 1827,
  "rative": 1828,
  "raph": 1829,
  "\u0120ear": 1830,
  "\u0120De": 1831,
  "\u0120special": 1832,
  "\u0120ill": 1833,
  "\u0120instead": 1834,
  "\u0120squ": 1835,
  "ablish": 1836,
  "ify": 1837,
  "\u0120nat": 1838,
  "\u0120multiple": 1839,
  "\u0120cour": 1840,
  "\u0120fost": 1841,
  "\u0120avail": 1842,
  "\u0120Po": 1843,
  "text": 1844,
  "By": 1845,
  "adem": 1846,
  "\u0120Ac": 1847,
  "sequ": 1848,
  "\u0120experience": 1849,
  "\u0120rest": 1850,
  "ios": 1851,
  "\u0120appropri": 1852,
  "tically": 1853,
  "work": 1854,
  "\u0120est": 1855,
  "\u0120since": 1856,
  "\u0120best": 1857,
  "\u0120relationships": 1858,
  "\u0120hum": 1859,
  "ditions": 1860,
  "\u0120aff": 1861,
  "aling": 1862,
  "\u0120challenging": 1863,
  "\u0120address": 1864,
  "\u0120related": 1865,
  "\u0120z": 1866,
  "\u0120color": 1867,
  "ails": 1868,
  "\u0120items": 1869,
  "sc": 1870,
  "\u0120strong": 1871,
  "\u0120language": 1872,
  "vice": 1873,
  "\u0120leg": 1874,
  "\u0120concer": 1875,
  "\u0120situ": 1876,
  "dep": 1877,
  "\u0120points": 1878,
  "\u0120associ": 1879,
  "\u0120lo": 1880,
  "omes": 1881,
  "\u0120gre": 1882,
  "uals": 1883,
  "\u00e2\u0122\u0136": 1884,
  "\u0120format": 1885,
  "\u0120employ": 1886,
  "\u0120change": 1887,
  "ili": 1888,
  "ral": 1889,
  "ense": 1890,
  "ci": 1891,
  "\u0120because": 1892,
  "planation": 1893,
  "\u0120exist": 1894,
  "ilding": 1895,
  "ton": 1896,
  "\u0120regarding": 1897,
  "\u0120oper": 1898,
  "\u0120children": 1899,
  "\u0120must": 1900,
  "uture": 1901,
  "\u0120Em": 1902,
  "ale": 1903,
  "ysis": 1904,
  "\u0120needs": 1905,
  "tif": 1906,
  "\u0120practic": 1907,
  "\u0120names": 1908,
  "utions": 1909,
  "\u0120tre": 1910,
  "\u0120same": 1911,
  "\u0120characters": 1912,
  "\u0120explore": 1913,
  "itable": 1914,
  "Once": 1915,
  "\u0120practice": 1916,
  "\u0120tri": 1917,
  "\u0120bas": 1918,
  "\u0120deb": 1919,
  "rop": 1920,
  "\u0120integration": 1921,
  "\u0120som": 1922,
  "plic": 1923,
  "\u0120pres": 1924,
  "\u0120enjoy": 1925,
  "\u0120levels": 1926,
  "\u0120negative": 1927,
  "irm": 1928,
  "atch": 1929,
  "idd": 1930,
  "Unit": 1931,
  "\u0120explain": 1932,
  "\u0120role": 1933,
  "\u0120business": 1934,
  "\u0120obj": 1935,
  "\u0120star": 1936,
  "\u0120food": 1937,
  "\u0120orig": 1938,
  "ger": 1939,
  "\u0120met": 1940,
  "\u0120scen": 1941,
  "\u0120attention": 1942,
  "ane": 1943,
  "\u0120audience": 1944,
  "\u0120pati": 1945,
  "\u0120space": 1946,
  "\u0120dates": 1947,
  "\u0120Reg": 1948,
  "ator": 1949,
  "\u0120communication": 1950,
  "ements": 1951,
  "\u0120academ": 1952,
  "ections": 1953,
  "orm": 1954,
  "\u0120non": 1955,
  "\u0120much": 1956,
  "ump": 1957,
  "\u0120online": 1958,
  "\u0120Focus": 1959,
  "\u0120changes": 1960,
  "\u0120environment": 1961,
  "yn": 1962,
  "\u0120tip": 1963,
  "akes": 1964,
  "\u0120den": 1965,
  "\u0120ris": 1966,
  "ek": 1967,
  "ething": 1968,
  "\u0120period": 1969,
  "\u0120rather": 1970,
  "\u0120proof": 1971,
  "\u0120fre": 1972,
  "atterns": 1973,
  "\u0120ensuring": 1974,
  "\u0120short": 1975,
  "\u0120don": 1976,
  "\u0120tas": 1977,
  "\u0120Key": 1978,
  "kes": 1979,
  "\u0120imag": 1980,
  "\u0120total": 1981,
  "\u0120prim": 1982,
  "{\\": 1983,
  "\u0120against": 1984,
  "\u0120valu": 1985,
  "istic": 1986,
  "equ": 1987,
  "\u0120Engaging": 1988,
  "\u0120control": 1989,
  "\u0120streng": 1990,
  "med": 1991,
  "\u0120mathematical": 1992,
  "AAAA": 1993,
  "\u0120caus": 1994,
  "ring": 1995,
  "\u0120i": 1996,
  "\u0120hair": 1997,
  "be": 1998,
  "\u0120always": 1999,
  "\u0120been": 2000,
  "\u0120second": 2001,
  "\u0120Q": 2002,
  "depth": 2003,
  "\u0120something": 2004,
  "\u0120times": 2005,
  "\u0120look": 2006,
  "\u0120instance": 2007,
  "\u0120exer": 2008,
  "ats": 2009,
  "\u0120creating": 2010,
  "onents": 2011,
  "\u0120certain": 2012,
  ".\"": 2013,
  "\u0120public": 2014,
  "acks": 2015,
  "\u0120resources": 2016,
  "\u0120side": 2017,
  "lines": 2018,
  "__": 2019,
  "\u0120surf": 2020,
  "\u0120Set": 2021,
  "\u0120effici": 2022,
  "ancial": 2023,
  "aper": 2024,
  "olution": 2025,
  "ilar": 2026,
  "\u0120vol": 2027,
  "\u0120market": 2028,
  "io": 2029,
  "Conclusion": 2030,
  "\u0120benef": 2031,
  "osing": 2032,
  "\u0120bra": 2033,
  "\u0120hour": 2034,
  "ept": 2035,
  "\u0120obser": 2036,
  "ards": 2037,
  "\u0120prep": 2038,
  "\u0120come": 2039,
  "\u0120comfort": 2040,
  "\u0120At": 2041,
  "\u0120Choose": 2042,
  "\u0120clear": 2043,
  "\u0120optim": 2044,
  "\u0120narrative": 2045,
  "\u0120known": 2046,
  "\u0120account": 2047,
  "aces": 2048,
  "\u0120offer": 2049,
  "\u0120frac": 2050,
  "isc": 2051,
  "\u0120results": 2052,
  "\u0120made": 2053,
  "\u0120type": 2054,
  "orpor": 2055,
  "\u0120simply": 2056,
  "\u0120/": 2057,
  "\u0120dam": 2058,
  "\u0120reac": 2059,
  "\u0120offering": 2060,
  "\u0120graph": 2061,
  "ries": 2062,
  "\u0120tools": 2063,
  "\u0120patterns": 2064,
  "\u0120ed": 2065,
  "\u0120Prac": 2066,
  "\u0120questions": 2067,
  "\u0120liv": 2068,
  "\u0120share": 2069,
  "ditionally": 2070,
  "\u0120strategies": 2071,
  "\u0120behavior": 2072,
  "\u0120build": 2073,
  "\u0120place": 2074,
  "tual": 2075,
  "\u0120ef": 2076,
  "\u0120pi": 2077,
  "\u0120had": 2078,
  "\u0120Cont": 2079,
  "\u0120methods": 2080,
  "\u0120So": 2081,
  "\u0120lit": 2082,
  "\u0120available": 2083,
  "\u0120Rec": 2084,
  "Before": 2085,
  "\u0120home": 2086,
  "\u0120sym": 2087,
  "\u0120He": 2088,
  "aries": 2089,
  "ope": 2090,
  "iosity": 2091,
  "000": 2092,
  "times": 2093,
  "\u0120individuals": 2094,
  "\u0120ideas": 2095,
  "\u0120colle": 2096,
  "\u0120future": 2097,
  "\u0120types": 2098,
  "\u0120options": 2099,
  "icate": 2100,
  "\u0120lay": 2101,
  "avig": 2102,
  "\u0120critical": 2103,
  "):": 2104,
  "bility": 2105,
  "\u0120length": 2106,
  "\u0120academic": 2107,
  "\u0120systems": 2108,
  "\u0120maintaining": 2109,
  "\u0120cr": 2110,
  "\u0120sti": 2111,
  "\u0120Su": 2112,
  "any": 2113,
  "\u0120hy": 2114,
  "play": 2115,
  "\u0120conditions": 2116,
  "If": 2117,
  "\u0120relationship": 2118,
  "\u0120respect": 2119,
  "\u0120measure": 2120,
  "\u0120curiosity": 2121,
  "\u0120requires": 2122,
  "ank": 2123,
  "\u0120Applied": 2124,
  "ither": 2125,
  "\u0120result": 2126,
  "icro": 2127,
  "rip": 2128,
  "\u0120did": 2129,
  "\u0120gover": 2130,
  "inciples": 2131,
  "ological": 2132,
  "ished": 2133,
  "\u0120words": 2134,
  "\u0120Understand": 2135,
  "\u0120sw": 2136,
  "\u0120natural": 2137,
  "\u0120proofs": 2138,
  "\u0120additional": 2139,
  "\u0120local": 2140,
  "\u0120ones": 2141,
  "\u0120associated": 2142,
  "\u0120remember": 2143,
  "meric": 2144,
  "alk": 2145,
  "ample": 2146,
  "\u0120free": 2147,
  "\u0120insights": 2148,
  "echan": 2149,
  "ited": 2150,
  "\u0120Rigorous": 2151,
  "\u0120issues": 2152,
  "``": 2153,
  "sition": 2154,
  "\u0120enti": 2155,
  "wer": 2156,
  "\u0120demonst": 2157,
  "oms": 2158,
  "\u0120group": 2159,
  "\u0120Ph": 2160,
  "\u0120product": 2161,
  "\u0120challenges": 2162,
  "\u0120Cl": 2163,
  "\u0120beginning": 2164,
  "\u0120Try": 2165,
  "zing": 2166,
  "br": 2167,
  "\u0120family": 2168,
  "\u0120valuable": 2169,
  "ules": 2170,
  "\u0120trac": 2171,
  "oot": 2172,
  "\u0120adjust": 2173,
  "anti": 2174,
  "pective": 2175,
  "ening": 2176,
  "\u0120involves": 2177,
  "vant": 2178,
  "ition": 2179,
  "\u0120count": 2180,
  "\u0120piec": 2181,
  "\u0120experim": 2182,
  "\u0120left": 2183,
  "\u0120sal": 2184,
  "\u0120thought": 2185,
  "\u0120appropriate": 2186,
  "\u0120da": 2187,
  "\u0120Int": 2188,
  "\u0120similar": 2189,
  "\u0120opportunities": 2190,
  "\u0120pass": 2191,
  "\u0120dri": 2192,
  "As": 2193,
  "\u0120log": 2194,
  "ocum": 2195,
  "\u0120effectively": 2196,
  "\u0120fund": 2197,
  "aving": 2198,
  "\u0120net": 2199,
  "\u0120influ": 2200,
  "ode": 2201,
  "xt": 2202,
  "ches": 2203,
  "\u0120close": 2204,
  "lecting": 2205,
  "}}": 2206,
  "po": 2207,
  "Explanation": 2208,
  "ooking": 2209,
  "piration": 2210,
  "side": 2211,
  "\u0120express": 2212,
  "\u0120lines": 2213,
  "\u0120providing": 2214,
  "arget": 2215,
  "stead": 2216,
  "\u0120While": 2217,
  "learning": 2218,
  "\u0120economic": 2219,
  "fect": 2220,
  "\u0120trying": 2221,
  "\u0120analy": 2222,
  "\u0120complete": 2223,
  "\u0120via": 2224,
  "ov": 2225,
  "\u0120equal": 2226,
  "oh": 2227,
  "\u0120hig": 2228,
  "ously": 2229,
  "\u0120itself": 2230,
  "ian": 2231,
  "\u0120enough": 2232,
  "hers": 2233,
  "\u0120mar": 2234,
  "\u0120goals": 2235,
  "pects": 2236,
  "\u0120temper": 2237,
  "\u0120everyone": 2238,
  "\u0120Let": 2239,
  "\u0120polic": 2240,
  "\u0120quick": 2241,
  "\u0120materials": 2242,
  "clusions": 2243,
  "\u0120physical": 2244,
  "\u0120impact": 2245,
  "\u0120advice": 2246,
  "St": 2247,
  "\u0120Additionally": 2248,
  "\u0120Un": 2249,
  "dentif": 2250,
  "nds": 2251,
  "ises": 2252,
  "\u0120scenari": 2253,
  "\u0120engage": 2254,
  "\u0120Some": 2255,
  "\u0120straight": 2256,
  "ern": 2257,
  "lo": 2258,
  "\u0120everyday": 2259,
  "\u0120next": 2260,
  "\u0120problems": 2261,
  "\u0120increase": 2262,
  "\u0120meet": 2263,
  "\u0120skin": 2264,
  "\u0120draw": 2265,
  "\u0120align": 2266,
  "\u00e2\u012a": 2267,
  "\u0120near": 2268,
  "\u0120stat": 2269,
  "\u0120treat": 2270,
  "\u0120post": 2271,
  "ids": 2272,
  "\u0120name": 2273,
  "ecting": 2274,
  "omial": 2275,
  "\u0120subject": 2276,
  "\u0120continu": 2277,
  "\u0120numer": 2278,
  "\u0120formul": 2279,
  "\u0120leading": 2280,
  "\u0120pay": 2281,
  "\u0120Americ": 2282,
  "ones": 2283,
  "\u0120$\\": 2284,
  "titu": 2285,
  "\u0120conclusions": 2286,
  "\u0120significantly": 2287,
  "\u0120soft": 2288,
  "ffici": 2289,
  "isions": 2290,
  "\u0120inspiration": 2291,
  "avor": 2292,
  "ators": 2293,
  "\u0120er": 2294,
  "\u0120air": 2295,
  "\u0120mis": 2296,
  "\u0120Tr": 2297,
  "\u0120suitable": 2298,
  "omin": 2299,
  "\u0120sides": 2300,
  "thing": 2301,
  "\u0120features": 2302,
  "\u0120[": 2303,
  "\u0120run": 2304,
  "\u0120dig": 2305,
  "ouse": 2306,
  "\u0120large": 2307,
  "\u0120Ar": 2308,
  "\u0120hor": 2309,
  "\u0120trust": 2310,
  "This": 2311,
  "\u0120Wor": 2312,
  "\u0120away": 2313,
  "\u0120members": 2314,
  "\u0120law": 2315,
  "\u0120distrib": 2316,
  "\u0120things": 2317,
  "\u0120course": 2318,
  "orough": 2319,
  "\u0120incorpor": 2320,
  "\u0120smo": 2321,
  "ray": 2322,
  "\u0120goal": 2323,
  "\u0120accur": 2324,
  "\u0120position": 2325,
  "pect": 2326,
  "port": 2327,
  "ret": 2328,
  "\u0120write": 2329,
  "my": 2330,
  "irical": 2331,
  "\u0120formatting": 2332,
  "\u0120above": 2333,
  "\u0120Acc": 2334,
  "\u0120land": 2335,
  "\u0120occur": 2336,
  "\u0120sn": 2337,
  "\u0120frequ": 2338,
  "\u0120There": 2339,
  "\u0120illust": 2340,
  "\u0120directly": 2341,
  "\u0120traditional": 2342,
  "ware": 2343,
  "ilit": 2344,
  "\u0120professional": 2345,
  "\u0120minutes": 2346,
  "\u0120development": 2347,
  "ason": 2348,
  "ny": 2349,
  "\u0120financial": 2350,
  "eti": 2351,
  "iliar": 2352,
  "\u0120analysis": 2353,
  "resents": 2354,
  "rap": 2355,
  "\u0120flow": 2356,
  "otes": 2357,
  "ference": 2358,
  "\u0120previous": 2359,
  "aves": 2360,
  "$.": 2361,
  "\u0120Practice": 2362,
  "\u0120target": 2363,
  "right": 2364,
  "\u0120working": 2365,
  "\u0120performance": 2366,
  "ancing": 2367,
  "\u0120problem": 2368,
  "gebra": 2369,
  "ime": 2370,
  "\u0120journey": 2371,
  "\u0120products": 2372,
  "\u0120means": 2373,
  "mun": 2374,
  "\u0120conver": 2375,
  "\u0120\u0120\u0120\u0120\u0120\u0120\u0120": 2376,
  "vr": 2377,
  "me": 2378,
  "\u0120quality": 2379,
  "\u0120balance": 2380,
  "\u0120term": 2381,
  "\u0120jo": 2382,
  "alu": 2383,
  "tig": 2384,
  "\u0120here": 2385,
  "\u0120sci": 2386,
  "\u0120still": 2387,
  "\u0120makes": 2388,
  "\u0120represents": 2389,
  "\u0120mechan": 2390,
  "\u0120coll": 2391,
  "icial": 2392,
  "\u0120return": 2393,
  "omet": 2394,
  "leep": 2395,
  "\u0120altern": 2396,
  "lies": 2397,
  "\u0120inves": 2398,
  "\u0120yet": 2399,
  "\u0120desc": 2400,
  "arc": 2401,
  "plement": 2402,
  "\u0120works": 2403,
  "\u0120review": 2404,
  "ibility": 2405,
  "\u0120popular": 2406,
  "\u0120active": 2407,
  "ulations": 2408,
  "\u0120animals": 2409,
  "\u0120size": 2410,
  "\u0120either": 2411,
  "alls": 2412,
  "19": 2413,
  "\u0120Always": 2414,
  "\u0120gain": 2415,
  "heck": 2416,
  "\u0120provides": 2417,
  "\u0120onto": 2418,
  "\u0120Per": 2419,
  "\u0120aspects": 2420,
  "}\\": 2421,
  "\u0120trade": 2422,
  "ceed": 2423,
  "\u0120building": 2424,
  "\u0120recent": 2425,
  "\u0120required": 2426,
  "50": 2427,
  "\u0120base": 2428,
  "\u0120bi": 2429,
  "\u0120team": 2430,
  "\u0120Or": 2431,
  "\u0120bro": 2432,
  "//": 2433,
  "orts": 2434,
  "aintain": 2435,
  "ift": 2436,
  "\u0120sing": 2437,
  "\u0120mess": 2438,
  "\u0120intern": 2439,
  "urely": 2440,
  "\u0120200": 2441,
  "\u0120demand": 2442,
  "\u0120ensures": 2443,
  "ude": 2444,
  "\u0120someone": 2445,
  "\u0120Col": 2446,
  "\u0120daily": 2447,
  "\u0120once": 2448,
  "\u0120particip": 2449,
  "\u0120emb": 2450,
  "reci": 2451,
  "\u0120recogn": 2452,
  "\u0120sugg": 2453,
  "\u0120bo": 2454,
  "elling": 2455,
  "^{": 2456,
  "\u0120Sim": 2457,
  "ced": 2458,
  "\u0120evalu": 2459,
  "\u0120Regular": 2460,
  "\u0120entire": 2461,
  "\u0120abs": 2462,
  "\u0120Late": 2463,
  "ium": 2464,
  "\u0120structure": 2465,
  "ounter": 2466,
  "\u0120determine": 2467,
  "gen": 2468,
  "acy": 2469,
  "\u0120hours": 2470,
  "\u0120higher": 2471,
  "\u0120choose": 2472,
  "\u0120men": 2473,
  "\u0120etc": 2474,
  "\u0120depending": 2475,
  "welcome": 2476,
  "\u0120game": 2477,
  "pping": 2478,
  "\u0120plat": 2479,
  "\u0120dry": 2480,
  "\u0120rate": 2481,
  "\u0120corres": 2482,
  "\u0120advent": 2483,
  "\u0120ded": 2484,
  "\u0120mix": 2485,
  "\u0120util": 2486,
  "\u0120construc": 2487,
  "\u0120circ": 2488,
  "\u0120groups": 2489,
  "\u0120progress": 2490,
  "\u0120rout": 2491,
  "\u0120components": 2492,
  "olving": 2493,
  "ites": 2494,
  "ression": 2495,
  "\u0120cult": 2496,
  "\u0120invest": 2497,
  "\u0120pain": 2498,
  "$,": 2499,
  "ery": 2500,
  "\u0120addition": 2501,
  "earch": 2502,
  "amp": 2503,
  "\u0120cy": 2504,
  "\u0120mom": 2505,
  "\u0120LateX": 2506,
  "ann": 2507,
  "isms": 2508,
  "ming": 2509,
  "\u0120excess": 2510,
  "12": 2511,
  "\u0120Opt": 2512,
  "ists": 2513,
  "medi": 2514,
  "atives": 2515,
  "\u0120carefully": 2516,
  "\u0120title": 2517,
  "\u0120select": 2518,
  "ror": 2519,
  "An": 2520,
  "\u0120statis": 2521,
  "\u0120reflect": 2522,
  "\u0120purch": 2523,
  "Do": 2524,
  "\u0120model": 2525,
  "\u0120feed": 2526,
  "\u0120advanced": 2527,
  "\u0120interests": 2528,
  "\u0120costs": 2529,
  "\u0120paper": 2530,
  "\u0120surround": 2531,
  "iddle": 2532,
  "\u0120navig": 2533,
  "\u0120rece": 2534,
  "ologies": 2535,
  "\u0120identify": 2536,
  "ource": 2537,
  "\u0120decision": 2538,
  "\u0120Op": 2539,
  "\u0120diff": 2540,
  "Ch": 2541,
  "based": 2542,
  "\u012012": 2543,
  "\u0120stress": 2544,
  "angle": 2545,
  "\u0120original": 2546,
  "\u0120Ind": 2547,
  "\u0120community": 2548,
  "\u0120why": 2549,
  "\u0120arc": 2550,
  "epar": 2551,
  "ynam": 2552,
  "\u0120practices": 2553,
  "osen": 2554,
  "\u0120initial": 2555,
  "\u0120educ": 2556,
  "\u0120four": 2557,
  "\u0120cut": 2558,
  "ising": 2559,
  "\u0120webs": 2560,
  "\u0120consistent": 2561,
  "\u0120exciting": 2562,
  "oming": 2563,
  "atisf": 2564,
  "\u0120application": 2565,
  "unit": 2566,
  "\u0120One": 2567,
  "\u0120meaning": 2568,
  "\u0120Rep": 2569,
  "itor": 2570,
  "\u0120der": 2571,
  "ields": 2572,
  "\u0120govern": 2573,
  "\u0120becomes": 2574,
  "\u0120introduction": 2575,
  "\u012018": 2576,
  "ograph": 2577,
  "oph": 2578,
  "osed": 2579,
  "\u0120harm": 2580,
  "rame": 2581,
  "igure": 2582,
  "\u0120maxim": 2583,
  "\u0120Using": 2584,
  "\u0120inside": 2585,
  "\u0120surface": 2586,
  "sp": 2587,
  "\u0120More": 2588,
  "uting": 2589,
  "\u0120hard": 2590,
  "omen": 2591,
  "imal": 2592,
  "*:": 2593,
  "\u0120But": 2594,
  "\u0120Me": 2595,
  "ounts": 2596,
  "\u0120Des": 2597,
  "\u0120enhance": 2598,
  "\u0120check": 2599,
  "\u0120pare": 2600,
  "\u0120thorough": 2601,
  "\u0120sources": 2602,
  "\u0120years": 2603,
  "\u0120action": 2604,
  "oon": 2605,
  "reen": 2606,
  "\u0120increasing": 2607,
  "\u0120pressure": 2608,
  "ths": 2609,
  "aches": 2610,
  "aps": 2611,
  "dentify": 2612,
  "\u0120empirical": 2613,
  "resh": 2614,
  "\u0120guid": 2615,
  "iring": 2616,
  "oss": 2617,
  "\u0120pred": 2618,
  "omp": 2619,
  "\u0120scenarios": 2620,
  "eterm": 2621,
  "back": 2622,
  "\u0120low": 2623,
  "\u0120last": 2624,
  "\u0120transform": 2625,
  "\u0120Equ": 2626,
  "erson": 2627,
  "\u0120view": 2628,
  "\u0120human": 2629,
  "ordin": 2630,
  "\u0120Fun": 2631,
  "pite": 2632,
  "\u0120ten": 2633,
  "\u0120reduce": 2634,
  "\u0120starting": 2635,
  "\u0120hal": 2636,
  "\u0120fore": 2637,
  "ners": 2638,
  "itize": 2639,
  "\u0120professionals": 2640,
  "\u0120remains": 2641,
  "go": 2642,
  "\u0120findings": 2643,
  "\u0120perfect": 2644,
  "lection": 2645,
  "18": 2646,
  "\u0120docum": 2647,
  "\u0120radi": 2648,
  "\u0120bound": 2649,
  "\u0120adding": 2650,
  "\u0120cells": 2651,
  "\u0120contact": 2652,
  "\u0120bot": 2653,
  "asc": 2654,
  "\u0120Alex": 2655,
  "iss": 2656,
  "\u0120linear": 2657,
  "ero": 2658,
  "\u0120schol": 2659,
  "\u0120And": 2660,
  "\u0120visual": 2661,
  "\u0120connections": 2662,
  "\u0120involving": 2663,
  "\u0120cloth": 2664,
  "\u0120early": 2665,
  "\u0120{": 2666,
  "\u0120spe": 2667,
  "ee": 2668,
  "\u0120shape": 2669,
  "\u0120amount": 2670,
  "\u0120eye": 2671,
  "\u0120appreci": 2672,
  "egin": 2673,
  "\u0120tasks": 2674,
  "cles": 2675,
  "\u0120lower": 2676,
  "\u0120diverse": 2677,
  "\u0120bond": 2678,
  "\u0120path": 2679,
  "sh": 2680,
  "\u0120Create": 2681,
  "\u0120applying": 2682,
  "ightly": 2683,
  "\u0120On": 2684,
  "\u0120indust": 2685,
  "\u0120full": 2686,
  "\u0120expression": 2687,
  "\u0120relevant": 2688,
  "indow": 2689,
  "\u0120Maintain": 2690,
  "\u0120separ": 2691,
  "\u0120rates": 2692,
  "\u0120patience": 2693,
  "\u0120ground": 2694,
  "\u0120Fin": 2695,
  "\u0120poly": 2696,
  "\u0120nature": 2697,
  "\u0120satisf": 2698,
  "\u0120stay": 2699,
  "\u0120warm": 2700,
  "\u0120Add": 2701,
  "\u0120money": 2702,
  "time": 2703,
  "------------": 2704,
  "\u0120$$": 2705,
  "\u0120wa": 2706,
  "\u0120concerns": 2707,
  "\u0120commit": 2708,
  "\u0120organiz": 2709,
  "\u0120study": 2710,
  "\u0120having": 2711,
  "\u0120square": 2712,
  "atory": 2713,
  "\u0120successful": 2714,
  "\u0120ways": 2715,
  "\u0120processes": 2716,
  "urity": 2717,
  "\u0120contribute": 2718,
  "Why": 2719,
  "light": 2720,
  "ient": 2721,
  "\u0120nut": 2722,
  "\u0120final": 2723,
  "ounting": 2724,
  "ests": 2725,
  "pecial": 2726,
  "\u0120avoiding": 2727,
  "\u0120dynam": 2728,
  "\u0120seem": 2729,
  "tt": 2730,
  "\u0120safety": 2731,
  "ching": 2732,
  "\u0120Prep": 2733,
  "\u0120turn": 2734,
  "atic": 2735,
  "oration": 2736,
  "\u0120price": 2737,
  "\u0120constant": 2738,
  "\u0120solution": 2739,
  "ug": 2740,
  "\u0120finding": 2741,
  "\u0120range": 2742,
  "Ad": 2743,
  "\u0120speed": 2744,
  "\u0120formula": 2745,
  "forms": 2746,
  "\u0120>": 2747,
  "sistance": 2748,
  "\u0120taking": 2749,
  "\u0120New": 2750,
  "\u0120media": 2751,
  "\u0120recomm": 2752,
  "\u0120applications": 2753,
  "\u0120rules": 2754,
  "con": 2755,
  "\u0120forms": 2756,
  "\u0120That": 2757,
  "ident": 2758,
  "\u0120preferences": 2759,
  "versity": 2760,
  "head": 2761,
  "\u0120principles": 2762,
  "\u0120solutions": 2763,
  "\u0120healthy": 2764,
  "aste": 2765,
  "\u0120What": 2766,
  "\u0120focusing": 2767,
  "Let": 2768,
  "\u0120establish": 2769,
  "\u0120basic": 2770,
  "\u0120parts": 2771,
  "\u0120feelings": 2772,
  "\u0120bey": 2773,
  "\u0120beyond": 2774,
  "\u0120single": 2775,
  "\u0120.": 2776,
  "ape": 2777,
  "\u0120Once": 2778,
  "\u0120instruction": 2779,
  "\u0120evidence": 2780,
  "astic": 2781,
  ")^": 2782,
  "\u0120expect": 2783,
  "izes": 2784,
  "\u0120sun": 2785,
  "\u0120smooth": 2786,
  "\u0120indic": 2787,
  "\u0120phot": 2788,
  "\u0120emerg": 2789,
  "When": 2790,
  "(\\": 2791,
  "\u0120Develop": 2792,
  "\u0120mast": 2793,
  "\u0120chosen": 2794,
  "\u0120Man": 2795,
  ":*": 2796,
  "ele": 2797,
  "ched": 2798,
  "\u0120whole": 2799,
  "\u0120super": 2800,
  "\u0120safe": 2801,
  "yth": 2802,
  "qq": 2803,
  "\u0120chem": 2804,
  "ctional": 2805,
  "eness": 2806,
  "ably": 2807,
  "\u0120ge": 2808,
  "\u0120job": 2809,
  "\u0120investig": 2810,
  "\u0120hold": 2811,
  "arg": 2812,
  "\u0120services": 2813,
  "\u0120optimal": 2814,
  "\u0120Now": 2815,
  "\u0120toys": 2816,
  "apt": 2817,
  "ta": 2818,
  "entific": 2819,
  "\u0120typically": 2820,
  "\u0120gr": 2821,
  "pro": 2822,
  "nomial": 2823,
  "\u0120order": 2824,
  "\u0120System": 2825,
  "\u0120smaller": 2826,
  "\u0120lessons": 2827,
  "\u0120After": 2828,
  "\u0120regularly": 2829,
  "\u0120middle": 2830,
  "\u0120force": 2831,
  "ewis": 2832,
  "yl": 2833,
  "\u0120vide": 2834,
  "inking": 2835,
  "\u0120Mich": 2836,
  "\u0120settings": 2837,
  "ael": 2838,
  "\u0120sleep": 2839,
  "\u0120decisions": 2840,
  "\u0120du": 2841,
  "rt": 2842,
  "\u0120kind": 2843,
  "\u00c2\u00b0": 2844,
  "\u0120Dec": 2845,
  "\u0120Ref": 2846,
  "agine": 2847,
  "\u0120Par": 2848,
  "\u0120assess": 2849,
  "\u0120sound": 2850,
  "mis": 2851,
  "\u0120Mon": 2852,
  "\u0120fit": 2853,
  "imen": 2854,
  "\u0120Lewis": 2855,
  "dually": 2856,
  "\u0120case": 2857,
  "\u0120easy": 2858,
  "\u0120Happ": 2859,
  "\u0120think": 2860,
  "\u0120face": 2861,
  "\u0120deg": 2862,
  "\u0120him": 2863,
  "\u0120deriv": 2864,
  "\u0120walk": 2865,
  "\u0120takes": 2866,
  "\u0120input": 2867,
  "itation": 2868,
  "ene": 2869,
  "\u0120reach": 2870,
  "\u0120larger": 2871,
  "ird": 2872,
  "\u0120break": 2873,
  "\u0120categ": 2874,
  "\u0120exploring": 2875,
  "care": 2876,
  "\u0120details": 2877,
  "\u0120Michael": 2878,
  "\u0120obtain": 2879,
  "tise": 2880,
  "\u0120Sk": 2881,
  "\u0120interp": 2882,
  "alities": 2883,
  "ground": 2884,
  "\u0120below": 2885,
  "\u0120cul": 2886,
  "\u0120arg": 2887,
  "\u0120pat": 2888,
  "\u0120shared": 2889,
  "\u0120reve": 2890,
  "life": 2891,
  "\u0120purely": 2892,
  "\u0120illustrate": 2893,
  "\u0120researc": 2894,
  "\u0120facilit": 2895,
  "hib": 2896,
  "\u0120cause": 2897,
  "\u0120temperature": 2898,
  "ury": 2899,
  "rating": 2900,
  "\u0120quanti": 2901,
  "pr": 2902,
  "more": 2903,
  "\u0120interactions": 2904,
  "\u0120benefits": 2905,
  "pecific": 2906,
  "\u0120subt": 2907,
  "\u0120theore": 2908,
  "rup": 2909,
  "know": 2910,
  "\u0120college": 2911,
  "load": 2912,
  "mit": 2913,
  "\u0120increased": 2914,
  "\u0120say": 2915,
  "\u0120belie": 2916,
  "\u0120test": 2917,
  "\u0120management": 2918,
  "\u0120headlines": 2919,
  "oting": 2920,
  "aster": 2921,
  "\u0120later": 2922,
  "ole": 2923,
  "\u0120upd": 2924,
  "\u0120Bu": 2925,
  "ike": 2926,
  "su": 2927,
  "\u0120provided": 2928,
  "qrt": 2929,
  "\u0120Ass": 2930,
  "\u0120activity": 2931,
  "\u0120everything": 2932,
  "\u0120heat": 2933,
  "\u0120risk": 2934,
  "af": 2935,
  "\u0120coverage": 2936,
  "\u0120researchers": 2937,
  "\u0120search": 2938,
  "\u0120quickly": 2939,
  "\u0120least": 2940,
  "\u0120distin": 2941,
  "timately": 2942,
  "\u0120location": 2943,
  "\u0120event": 2944,
  "\u0120comes": 2945,
  "\u0120moving": 2946,
  "\u0120complexity": 2947,
  "imin": 2948,
  "\u0120intended": 2949,
  "\u0120great": 2950,
  "epend": 2951,
  "\u0120simpl": 2952,
  "\u0120Tra": 2953,
  "\u0120my": 2954,
  "\u0120properties": 2955,
  "gle": 2956,
  "\u0120state": 2957,
  "arily": 2958,
  "\u0120sharing": 2959,
  "\u0120statistical": 2960,
  "\u0120damage": 2961,
  "\u0120limit": 2962,
  "fficient": 2963,
  "\u0120frame": 2964,
  "\u0120fundam": 2965,
  "\u0120brow": 2966,
  "\u0120Exper": 2967,
  "tial": 2968,
  "min": 2969,
  "\u0120oil": 2970,
  ">>": 2971,
  "rel": 2972,
  "ict": 2973,
  "\u0120expertise": 2974,
  "bol": 2975,
  "\u0120easier": 2976,
  "\u0120slow": 2977,
  "rive": 2978,
  "\u0120favor": 2979,
  "'ve": 2980,
  "For": 2981,
  "\u0120scientific": 2982,
  "uter": 2983,
  "\u0120subst": 2984,
  "\u0120solid": 2985,
  "ulate": 2986,
  "hedule": 2987,
  "ighting": 2988,
  "\u0120approxim": 2989,
  "atively": 2990,
  "\u0120intric": 2991,
  "\u0120greater": 2992,
  "\u0120old": 2993,
  "\u0120extra": 2994,
  "stablish": 2995,
  "\u0120Gu": 2996,
  "\u0120Identify": 2997,
  "\u0120situations": 2998,
  "\u0120inn": 2999,
  "\u0120opp": 3000,
  "ands": 3001,
  "\u0120bar": 3002,
  "ouble": 3003,
  "\u0120`": 3004,
  "par": 3005,
  "\u0120colors": 3006,
  "porary": 3007,
  "\u0120hab": 3008,
  "\u012015": 3009,
  "\u0120Over": 3010,
  "\u0120arr": 3011,
  "\u0120track": 3012,
  "\u0120Research": 3013,
  "\u0120cool": 3014,
  "=\\": 3015,
  "ores": 3016,
  "\u0120manage": 3017,
  "\u0120proceed": 3018,
  "\u0120pieces": 3019,
  "rams": 3020,
  "\u0120prefer": 3021,
  "auti": 3022,
  "iety": 3023,
  "ener": 3024,
  "\u0120compared": 3025,
  "\u0120distance": 3026,
  "\u0120Bl": 3027,
  "ients": 3028,
  "cent": 3029,
  "pped": 3030,
  "arr": 3031,
  "ought": 3032,
  "\u0120comfortable": 3033,
  "iding": 3034,
  "\u0120solve": 3035,
  "\u00e2\u0122\u013f": 3036,
  "\u0120debates": 3037,
  "\u0120und": 3038,
  "\u0120true": 3039,
  "jects": 3040,
  "\u0120half": 3041,
  "iles": 3042,
  "\u0120models": 3043,
  "\u0120Follow": 3044,
  "hor": 3045,
  "sts": 3046,
  "\u0120weight": 3047,
  "\u0120hyd": 3048,
  "alcul": 3049,
  "erv": 3050,
  "\u0120ans": 3051,
  "\u0120dog": 3052,
  "\u0120pair": 3053,
  "\u0120ability": 3054,
  "\u0120Gra": 3055,
  "ified": 3056,
  "))": 3057,
  "\u0120Le": 3058,
  "\u0120Out": 3059,
  "ival": 3060,
  "bo": 3061,
  "Im": 3062,
  "\u0120diffic": 3063,
  "udget": 3064,
  "\u0120fractions": 3065,
  "\u0120past": 3066,
  "15": 3067,
  "\u0120cop": 3068,
  "\u0120attem": 3069,
  "\u0120priv": 3070,
  "\u0120variables": 3071,
  "\u0120factor": 3072,
  "\u0120careful": 3073,
  "\u0120box": 3074,
  "_{": 3075,
  "elves": 3076,
  "\u0120highly": 3077,
  "\u0120Exp": 3078,
  "ups": 3079,
  "\u0120gently": 3080,
  "\u0120able": 3081,
  "\u0120Ob": 3082,
  "forts": 3083,
  "\u0120accessible": 3084,
  "\u0120accordingly": 3085,
  "\u0120standard": 3086,
  "\u0120persist": 3087,
  "\u0120word": 3088,
  "comes": 3089,
  "\u0120production": 3090,
  "ends": 3091,
  "\u0120deeper": 3092,
  "not": 3093,
  "works": 3094,
  "orting": 3095,
  "\u0120emotional": 3096,
  "izon": 3097,
  "\u0120angle": 3098,
  "\u0120age": 3099,
  "pose": 3100,
  "\u0120bring": 3101,
  "\u0120defin": 3102,
  "\u0120surrounding": 3103,
  "met": 3104,
  "\u0120foundation": 3105,
  "\u0120five": 3106,
  "uine": 3107,
  "\u0120mir": 3108,
  "\u0120vary": 3109,
  "\u0120friendly": 3110,
  "iment": 3111,
  "iet": 3112,
  "\u0120cra": 3113,
  "\u0120cross": 3114,
  "like": 3115,
  "\u0120bott": 3116,
  "\u0120responsi": 3117,
  "\u0120behind": 3118,
  "let": 3119,
  "\u0120Moreover": 3120,
  "\u0120continue": 3121,
  "\u0120primary": 3122,
  "\u0120sequ": 3123,
  "\u0120users": 3124,
  "\u0120ask": 3125,
  "\u0120offers": 3126,
  "cep": 3127,
  "\u0120give": 3128,
  "\u0120involved": 3129,
  "\u0120Util": 3130,
  "\u0120actions": 3131,
  "\u0120situation": 3132,
  "\u0120structures": 3133,
  "\u0120efforts": 3134,
  "\u0120incorporating": 3135,
  "being": 3136,
  "\u0120requirements": 3137,
  "\u0120hon": 3138,
  "\u0120encouraging": 3139,
  "\u0120Mod": 3140,
  "\u0120Anal": 3141,
  "\u0120love": 3142,
  "oogle": 3143,
  "\u0120divid": 3144,
  "\u0120Is": 3145,
  ",\"": 3146,
  "\u0120resulting": 3147,
  "osure": 3148,
  "roll": 3149,
  "\u0120fru": 3150,
  "60": 3151,
  "inter": 3152,
  "\u0120mass": 3153,
  "\u0120existing": 3154,
  "\u0120Cle": 3155,
  "\u0120journal": 3156,
  "struc": 3157,
  "pecially": 3158,
  "\u0120Regularly": 3159,
  "encies": 3160,
  "ensi": 3161,
  "\u0120Guideline": 3162,
  "\u0120\u00e2\u0122\u013e": 3163,
  "phas": 3164,
  "\u0120confidence": 3165,
  "obal": 3166,
  "where": 3167,
  "\u0120competi": 3168,
  "\u0120Sec": 3169,
  "\u0120Don": 3170,
  "\u0120consum": 3171,
  "\u0120increases": 3172,
  "\u0120sent": 3173,
  "erful": 3174,
  "\u0120outcomes": 3175,
  "\u0120height": 3176,
  "\u0120creatures": 3177,
  "\u0120Pol": 3178,
  "\u0120immedi": 3179,
  "step": 3180,
  "\u0120doing": 3181,
  "\u0120Off": 3182,
  "ifying": 3183,
  "orn": 3184,
  "\u0120serve": 3185,
  "\u0120cat": 3186,
  "\u0120nutri": 3187,
  "forward": 3188,
  "\u0120lif": 3189,
  "\u0120emotions": 3190,
  "\u0120Each": 3191,
  "\u0120days": 3192,
  "\u0120thoughts": 3193,
  "hel": 3194,
  "\u0120note": 3195,
  "raction": 3196,
  "\u0120fundamental": 3197,
  "\u0120exercise": 3198,
  "\u0120Understanding": 3199,
  "\u0120tax": 3200,
  "ugg": 3201,
  "\u0120especially": 3202,
  "\u0120hol": 3203,
  "}$": 3204,
  "\u0120cred": 3205,
  "then": 3206,
  "\u0120appearance": 3207,
  "\u0120designed": 3208,
  "\u0120eyes": 3209,
  "\u0120straightforward": 3210,
  "racy": 3211,
  "\u0120exact": 3212,
  "\u0120Dis": 3213,
  "\u0120relax": 3214,
  "\u0120tur": 3215,
  "rations": 3216,
  "\u0120mental": 3217,
  "\u0120feedback": 3218,
  "\u0120Further": 3219,
  "\u0120conduc": 3220,
  "plications": 3221,
  "\u0120red": 3222,
  "\u0120expand": 3223,
  "enses": 3224,
  "\u0120collabor": 3225,
  "\u0120objects": 3226,
  "So": 3227,
  "\u0120mut": 3228,
  "\u0120($": 3229,
  "\u0120measures": 3230,
  "\u0120summ": 3231,
  "\u0120art": 3232,
  "math": 3233,
  "rated": 3234,
  "\u0120foot": 3235,
  "\u0120enables": 3236,
  "\u0120exten": 3237,
  "\u0120tran": 3238,
  "After": 3239,
  "\u0120slightly": 3240,
  "yles": 3241,
  "\u0120learners": 3242,
  "\u0120trading": 3243,
  "\u0120adventure": 3244,
  "\u0120whenever": 3245,
  "left": 3246,
  "\u0120functional": 3247,
  "\u0120deeply": 3248,
  "\u0120prote": 3249,
  "://": 3250,
  "\u0120room": 3251,
  "\u0120examination": 3252,
  "\u0120captiv": 3253,
  "\u0120underlying": 3254,
  "\u0120breath": 3255,
  "\u00e2\u0122\u0135": 3256,
  "tively": 3257,
  "ww": 3258,
  "\u012030": 3259,
  "iliarize": 3260,
  "olve": 3261,
  "\u0120context": 3262,
  "\u0120Instead": 3263,
  "\u0120distinct": 3264,
  "\u0120today": 3265,
  "\u0120implement": 3266,
  "\u0120imagin": 3267,
  "\u0120sho": 3268,
  "arking": 3269,
  "fact": 3270,
  "part": 3271,
  "\u0120learned": 3272,
  "esting": 3273,
  "\u0120user": 3274,
  "\u0120American": 3275,
  "ternal": 3276,
  "ourage": 3277,
  "\u0120estim": 3278,
  "sequently": 3279,
  "\u00e2\u0124": 3280,
  "\u0120effects": 3281,
  "verage": 3282,
  "\u0120company": 3283,
  "ishing": 3284,
  "</": 3285,
  "\u0120Present": 3286,
  "Using": 3287,
  "\u0120zero": 3288,
  "jor": 3289,
  "iter": 3290,
  "\u0120particularly": 3291,
  "\u0120promote": 3292,
  "\u0120travel": 3293,
  "\u0120card": 3294,
  "\u0120Find": 3295,
  "\u0120week": 3296,
  "\u0120approaches": 3297,
  "\u0120platforms": 3298,
  "\u0120playing": 3299,
  "oti": 3300,
  "\u0120blood": 3301,
  "ubs": 3302,
  "\u0120little": 3303,
  "tick": 3304,
  "abilities": 3305,
  "\u0120genuine": 3306,
  "\u0120snacks": 3307,
  "action": 3308,
  "\u0120calculate": 3309,
  "iny": 3310,
  "term": 3311,
  "ratic": 3312,
  "\u0120remo": 3313,
  "\u0120Qu": 3314,
  "entially": 3315,
  "iber": 3316,
  "\u0120games": 3317,
  "\u0120successfully": 3318,
  "\u0120discuss": 3319,
  "\u0120poli": 3320,
  "\u0120general": 3321,
  "illing": 3322,
  "\u0120Multi": 3323,
  "\u0120spark": 3324,
  "\u0120exploration": 3325,
  "\u0120tou": 3326,
  "\u0120feet": 3327,
  "\u0120table": 3328,
  "\u0120effort": 3329,
  "ops": 3330,
  "eat": 3331,
  "\u0120fresh": 3332,
  "\u0120Z": 3333,
  "bon": 3334,
  "\u0120plac": 3335,
  "\u0120trig": 3336,
  "\u0120numerous": 3337,
  "\u0120expectations": 3338,
  "\u0120sometimes": 3339,
  "\u0120innov": 3340,
  "\u0120cand": 3341,
  "\u0120Through": 3342,
  "\u0120minimize": 3343,
  "\u00c3\u00a9": 3344,
  "ponding": 3345,
  "\u0120service": 3346,
  "\u0120Fam": 3347,
  "\u0120specifically": 3348,
  "\u0120else": 3349,
  "\u0120studies": 3350,
  "\u0120cart": 3351,
  "\u0120conversations": 3352,
  "lier": 3353,
  "\u0120device": 3354,
  "\u0120ul": 3355,
  "\u0120Up": 3356,
  "\u0120identi": 3357,
  "\u0120economics": 3358,
  "\u0120Inter": 3359,
  "\u0120gather": 3360,
  "\u0120reducing": 3361,
  "\u0120describ": 3362,
  "omain": 3363,
  "\u0120series": 3364,
  "```": 3365,
  "\u0120lab": 3366,
  "\u0120Happy": 3367,
  "\u0120interactive": 3368,
  "\u0120rule": 3369,
  "\u0120planning": 3370,
  "\u0120living": 3371,
  "\u0120Proper": 3372,
  "\u0120big": 3373,
  "\u0120display": 3374,
  "\u0120discover": 3375,
  "\u0120experiments": 3376,
  "\u0120diag": 3377,
  "\u0120training": 3378,
  "\u0120volume": 3379,
  "\u0120horizon": 3380,
  "\u0120dr": 3381,
  "\u0120fostering": 3382,
  "nts": 3383,
  "\u0120rati": 3384,
  "\u0120X": 3385,
  "\u0120respective": 3386,
  "\u0120vir": 3387,
  "ticip": 3388,
  "Pro": 3389,
  "sqrt": 3390,
  "AAAAAAAA": 3391,
  "reg": 3392,
  "\u0120theories": 3393,
  "\u0120pow": 3394,
  "\u0120far": 3395,
  "\u0120customer": 3396,
  "plication": 3397,
  "hold": 3398,
  "\u0120motiv": 3399,
  "\u0120difference": 3400,
  "osp": 3401,
  "\u0120however": 3402,
  "oll": 3403,
  "hood": 3404,
  "year": 3405,
  "\u0120choices": 3406,
  "\u0120extract": 3407,
  "\u0120denomin": 3408,
  "\u0120forward": 3409,
  "\u0120Establish": 3410,
  "ares": 3411,
  "anging": 3412,
  "\u0120broad": 3413,
  "\u0120importance": 3414,
  "\u0120propor": 3415,
  "pper": 3416,
  "\u0120code": 3417,
  "\u0120output": 3418,
  "etermine": 3419,
  "\u0120outside": 3420,
  "\u0120isn": 3421,
  "ynt": 3422,
  "outh": 3423,
  "\u0120Ben": 3424,
  "\u0120She": 3425,
  "ativity": 3426,
  "\u0120accurate": 3427,
  "\u0120fel": 3428,
  "\u0120Tw": 3429,
  "\u0120moment": 3430,
  "ecessary": 3431,
  "\u0120Another": 3432,
  "htt": 3433,
  "\u0120matter": 3434,
  "\u0120micro": 3435,
  "igu": 3436,
  "hem": 3437,
  "\u0120mach": 3438,
  "\u0120ready": 3439,
  "irl": 3440,
  "ees": 3441,
  "\u0120boundaries": 3442,
  "\u0120government": 3443,
  "\u0120skill": 3444,
  "ification": 3445,
  "\u0120flex": 3446,
  "\u0120aiming": 3447,
  "ocate": 3448,
  "\u0120mirror": 3449,
  "\u0120corresponding": 3450,
  "\u0120Enc": 3451,
  "\u0120conven": 3452,
  "\u0120electr": 3453,
  "\u0120references": 3454,
  "\u0120Time": 3455,
  "\u0120heav": 3456,
  "pos": 3457,
  "\u0120Stay": 3458,
  "\u0120remove": 3459,
  "...": 3460,
  "\u0120few": 3461,
  "going": 3462,
  "istics": 3463,
  "\u0120Disc": 3464,
  "ectives": 3465,
  "\u0120Specific": 3466,
  "\u0120cleaning": 3467,
  "\u0120difficult": 3468,
  "\u0120relate": 3469,
  "\u0120poss": 3470,
  "\u0120added": 3471,
  "\u0120music": 3472,
  "\u0120alternative": 3473,
  "\u0120hands": 3474,
  "\u0120polynomial": 3475,
  "\u0120ir": 3476,
  "\u0120multiply": 3477,
  "\u0120imagine": 3478,
  "\u0120Start": 3479,
  "Section": 3480,
  "\u0120seeking": 3481,
  "\u0120phen": 3482,
  "\u0120devices": 3483,
  "ged": 3484,
  "ull": 3485,
  "\u0120scr": 3486,
  "\u0120Select": 3487,
  "pectives": 3488,
  "\u0120selecting": 3489,
  "\u0120Commun": 3490,
  "\u0120independ": 3491,
  "\u0120Google": 3492,
  "sy": 3493,
  "\u0120applies": 3494,
  "ah": 3495,
  "\u0120exerc": 3496,
  "valu": 3497,
  "\u0120ball": 3498,
  "ris": 3499,
  "\u0120younger": 3500,
  "\u0120Mark": 3501,
  "\u0120property": 3502,
  "\u0120unc": 3503,
  "\u0120bed": 3504,
  "uck": 3505,
  "\u0120Furthermore": 3506,
  "\u0120containing": 3507,
  "\u0120software": 3508,
  "amet": 3509,
  "\u0120emphas": 3510,
  "\u0120Expl": 3511,
  "\u0120Conf": 3512,
  "One": 3513,
  "\u0120involve": 3514,
  "\u0120movement": 3515,
  "\u0120establ": 3516,
  "ille": 3517,
  "\u0120email": 3518,
  "\u0120Lear": 3519,
  "\u0120strengthen": 3520,
  "\u0120angles": 3521,
  "eal": 3522,
  "\u0120ing": 3523,
  "alle": 3524,
  "infor": 3525,
  "\u0120variable": 3526,
  "\u0120brush": 3527,
  "\u0120going": 3528,
  "raw": 3529,
  "\u0120conflic": 3530,
  "\u0120rev": 3531,
  "\u0120click": 3532,
  "Al": 3533,
  "gar": 3534,
  "\u0120Pri": 3535,
  "\u0120adapt": 3536,
  "\u0120income": 3537,
  "\u0120connection": 3538,
  "\u0120exhib": 3539,
  "ream": 3540,
  "\u0120abilities": 3541,
  "\u0120quad": 3542,
  "NA": 3543,
  "oor": 3544,
  "ened": 3545,
  "\u0120vect": 3546,
  "ront": 3547,
  "\u0120navigate": 3548,
  "\u0120motion": 3549,
  "ultane": 3550,
  "Des": 3551,
  "\u0120methodologies": 3552,
  "\u0120Def": 3553,
  "rain": 3554,
  "\u0120Check": 3555,
  "\u0120intricate": 3556,
  "\u0120computer": 3557,
  "\u0120moist": 3558,
  "man": 3559,
  "\u0120Plan": 3560,
  "\u0120Num": 3561,
  "\u0120guidance": 3562,
  "\u0120organizations": 3563,
  "\u0120follows": 3564,
  "\u0120Therefore": 3565,
  "\u0120cook": 3566,
  "\u0120program": 3567,
  "ender": 3568,
  "\u0120promoting": 3569,
  "erve": 3570,
  "emporary": 3571,
  "\u0120forces": 3572,
  "\u0120informed": 3573,
  "\u0120colorful": 3574,
  "\u0120possess": 3575,
  "\u0120advant": 3576,
  "titude": 3577,
  "\u0120shows": 3578,
  "cy": 3579,
  "\u0120Jam": 3580,
  "\u0120document": 3581,
  "\u0120house": 3582,
  "vent": 3583,
  "\u0120All": 3584,
  "\u0120excessive": 3585,
  "\u0120budget": 3586,
  "\u0120keeping": 3587,
  "\u0120inequ": 3588,
  "\u0120heart": 3589,
  "\u0120players": 3590,
  "\u0120differences": 3591,
  "\u0120trends": 3592,
  "oday": 3593,
  "\u0120species": 3594,
  "\u0120decre": 3595,
  "rates": 3596,
  "athy": 3597,
  "\u0120Form": 3598,
  "30": 3599,
  "\u0120root": 3600,
  "ufact": 3601,
  "\u0120intro": 3602,
  "\u0120remaining": 3603,
  "enge": 3604,
  "\u0120Then": 3605,
  "\u0120thereby": 3606,
  "\u0120engagement": 3607,
  "\u0120center": 3608,
  "\u0120electron": 3609,
  "\u0120dise": 3610,
  "itive": 3611,
  "\u0120eth": 3612,
  "umb": 3613,
  "yd": 3614,
  "tier": 3615,
  "\u0120experienc": 3616,
  "\u0120Sm": 3617,
  "\u0120button": 3618,
  ");": 3619,
  "ipment": 3620,
  "\u0120Str": 3621,
  "\u0120sense": 3622,
  "iors": 3623,
  "\u0120technology": 3624,
  "\u0120powerful": 3625,
  "xy": 3626,
  "\u0120coordin": 3627,
  "\u0120pic": 3628,
  "ersonal": 3629,
  "\u0120Pay": 3630,
  "\u0120call": 3631,
  "\u0120labor": 3632,
  "eral": 3633,
  "\u0120shad": 3634,
  "\u0120Exam": 3635,
  "wh": 3636,
  "\u0120conclusion": 3637,
  "rit": 3638,
  "\u0120playful": 3639,
  "\u0120causing": 3640,
  "\u0120doesn": 3641,
  "\u0120perspectives": 3642,
  "\u0120Ear": 3643,
  "\u0120Appro": 3644,
  "\u0120signs": 3645,
  "\u0120Prepare": 3646,
  "orical": 3647,
  "\u0120recip": 3648,
  "\u0120algebra": 3649,
  "\u0120screen": 3650,
  "\u0120Comprehensive": 3651,
  "\u0120Apply": 3652,
  "\u0120Engage": 3653,
  "\u0120getting": 3654,
  "change": 3655,
  "\u0120earlier": 3656,
  "\u0120thoroughly": 3657,
  "hentic": 3658,
  "\u0120background": 3659,
  "\u0120topics": 3660,
  "\u0120Are": 3661,
  "aged": 3662,
  "\u0120reli": 3663,
  "though": 3664,
  "\u0120bottom": 3665,
  "argon": 3666,
  "\u0120put": 3667,
  "Find": 3668,
  "\u0120fair": 3669,
  "\u0120Sam": 3670,
  "place": 3671,
  "\u0120reduces": 3672,
  "onent": 3673,
  "ocks": 3674,
  "There": 3675,
  "\u0120major": 3676,
  "\u0120\u00c3": 3677,
  "\u0120subs": 3678,
  "\u0120Experiment": 3679,
  "\u0120operations": 3680,
  "ilarly": 3681,
  "mselves": 3682,
  "\u0120plants": 3683,
  "\u0120jargon": 3684,
  "\u0120core": 3685,
  "\u0120themselves": 3686,
  "inating": 3687,
  "Welcome": 3688,
  "Example": 3689,
  "\u0120Rel": 3690,
  "\u0120corner": 3691,
  "\u0120toward": 3692,
  "\u0120approachable": 3693,
  "\u0120plays": 3694,
  "rum": 3695,
  "\u0120Look": 3696,
  "\u0120knowledgeable": 3697,
  "\u0120prob": 3698,
  "Mz": 3699,
  "\u0120protect": 3700,
  "word": 3701,
  "\u0120attemp": 3702,
  "\u0120chemical": 3703,
  "\u0120vital": 3704,
  "\u0120Pre": 3705,
  "abling": 3706,
  "tis": 3707,
  "amed": 3708,
  "\u0120drawing": 3709,
  "\u0120routine": 3710,
  "\u0120exec": 3711,
  "\u0120states": 3712,
  "https": 3713,
  "\u0120firm": 3714,
  "\u0120circum": 3715,
  "\u0120established": 3716,
  "\u0120publication": 3717,
  "25": 3718,
  "\u0120observ": 3719,
  "\u0120First": 3720,
  "\u0120prec": 3721,
  "\u0120task": 3722,
  "\u0120object": 3723,
  "\u0120enable": 3724,
  "\u0120project": 3725,
  "\u0120wide": 3726,
  "vi": 3727,
  "\u0120shapes": 3728,
  "\u0120Since": 3729,
  "\u0120solving": 3730,
  "11": 3731,
  "acts": 3732,
  "\u0120books": 3733,
  "ils": 3734,
  "\u0120prompt": 3735,
  "\u0120ble": 3736,
  "\u0120Supp": 3737,
  "\u0120wond": 3738,
  "\u0120Guide": 3739,
  "\u0120domain": 3740,
  "land": 3741,
  "\u0120condition": 3742,
  "\u0120parties": 3743,
  "\u0120changing": 3744,
  "\u0120pas": 3745,
  "ales": 3746,
  "\u0120region": 3747,
  "\u0120slope": 3748,
  "\u0120website": 3749,
  "\u0120journals": 3750,
  "iver": 3751,
  "indows": 3752,
  "\u0120phenomen": 3753,
  "\u0120prices": 3754,
  "\u0120conversational": 3755,
  "\u0120Need": 3756,
  "\u0120approximately": 3757,
  "ressive": 3758,
  "\u0120counter": 3759,
  "aks": 3760,
  "\u0120live": 3761,
  "Instead": 3762,
  "bilities": 3763,
  "\u0120distribution": 3764,
  "\u0120image": 3765,
  "\u0120weak": 3766,
  "\u0120bur": 3767,
  "\u0120100": 3768,
  "\u0120Share": 3769,
  "\u0120longer": 3770,
  "\u0120rob": 3771,
  "aim": 3772,
  "\u0120compan": 3773,
  "\u0120highl": 3774,
  "\u0120rect": 3775,
  "\u0120sections": 3776,
  "\u0120store": 3777,
  "Try": 3778,
  "zz": 3779,
  "wise": 3780,
  "\u0120adop": 3781,
  "\u0120cartoon": 3782,
  "sych": 3783,
  "\u0120aware": 3784,
  "\u0120buy": 3785,
  "\u0120sets": 3786,
  ")\\": 3787,
  "\u0120\\*": 3788,
  "essions": 3789,
  "\u0120sensi": 3790,
  "stain": 3791,
  "othes": 3792,
  "\u0120cannot": 3793,
  "ractions": 3794,
  "\u0120concent": 3795,
  "gment": 3796,
  "\u0120foster": 3797,
  "Ph": 3798,
  "\u0120Today": 3799,
  "\u0120policy": 3800,
  "\u0120customers": 3801,
  "udd": 3802,
  "40": 3803,
  "\u0120scholarly": 3804,
  "ilt": 3805,
  "ithm": 3806,
  "\u0120looking": 3807,
  "\u0120policies": 3808,
  "\u0120modern": 3809,
  "\u0120usually": 3810,
  "\u0120geomet": 3811,
  "world": 3812,
  "\u0120pack": 3813,
  "\u0120imaginative": 3814,
  "\u0120ongoing": 3815,
  "================================": 3816,
  "\u0120education": 3817,
  "\u0120valid": 3818,
  "\u0120fully": 3819,
  "abric": 3820,
  "ensity": 3821,
  "\u0120favorite": 3822,
  "\u0120199": 3823,
  "ocial": 3824,
  "\u0120sparking": 3825,
  "\u0120manufact": 3826,
  "____": 3827,
  "ultaneously": 3828,
  "redients": 3829,
  "\u0120vers": 3830,
  "\u0120rot": 3831,
  "\u0120file": 3832,
  "\u0120(-": 3833,
  "\u0120reinfor": 3834,
  "\u0120efficiency": 3835,
  "\u0120external": 3836,
  "racting": 3837,
  "\u0120cos": 3838,
  "\u0120mechanisms": 3839,
  "inary": 3840,
  "bal": 3841,
  "\u0120located": 3842,
  "ifts": 3843,
  "MzMz": 3844,
  "\u0120Allow": 3845,
  "eting": 3846,
  "\u0120theory": 3847,
  "\u0120Never": 3848,
  "\u0120mor": 3849,
  "\u0120circle": 3850,
  "\u0120white": 3851,
  "aration": 3852,
  "\u0120population": 3853,
  "\u0120inj": 3854,
  "\u0120install": 3855,
  "\u0120ultimately": 3856,
  "\u0120dive": 3857,
  "\u0120fraction": 3858,
  "\u0120divide": 3859,
  "nding": 3860,
  "\u0120organization": 3861,
  "\u0120Tell": 3862,
  "\u0120disco": 3863,
  "\u0120pan": 3864,
  "\u0120idea": 3865,
  "\u0120cultural": 3866,
  "\u0120thus": 3867,
  "\u0120cheerful": 3868,
  "\u0120direction": 3869,
  "\u0120Not": 3870,
  "aming": 3871,
  "Rem": 3872,
  "\u0120responsible": 3873,
  "\u0120<<": 3874,
  "\u0120Sub": 3875,
  "uracy": 3876,
  "\u0120practicing": 3877,
  "\u0120Pr": 3878,
  "mission": 3879,
  "\u0120magical": 3880,
  "Pl": 3881,
  "\u0120behaviors": 3882,
  "\u0120global": 3883,
  "\u0120sustain": 3884,
  "\u0120liter": 3885,
  "\u0120Get": 3886,
  "\u0120entren": 3887,
  "ership": 3888,
  "use": 3889,
  "\u0120Specifically": 3890,
  "ony": 3891,
  "box": 3892,
  "\u0120potentially": 3893,
  "ags": 3894,
  "herent": 3895,
  "\u0120influence": 3896,
  "App": 3897,
  "\u0120parents": 3898,
  "\u0120Seek": 3899,
  "\u0120acqu": 3900,
  "\u0120listening": 3901,
  "ounds": 3902,
  "\u0120entrenched": 3903,
  "\u0120industry": 3904,
  "uff": 3905,
  "\u0120Our": 3906,
  "\u0120curve": 3907,
  "\u0120communities": 3908,
  "\u0120Consequently": 3909,
  "aut": 3910,
  "\u0120environmental": 3911,
  "\u0120six": 3912,
  "\u0120symbol": 3913,
  "board": 3914,
  "\u0120video": 3915,
  "\u0120jud": 3916,
  "\u0120page": 3917,
  "rix": 3918,
  "\u0120author": 3919,
  "\u0120nuc": 3920,
  "\u0120hot": 3921,
  "\u0120captivates": 3922,
  "urance": 3923,
  "\u0120reput": 3924,
  "\u0120gives": 3925,
  "\u0120tow": 3926,
  "align": 3927,
  "\u0120plant": 3928,
  "\u0120produce": 3929,
  "\u0120receiv": 3930,
  "\u0120Vol": 3931,
  "](": 3932,
  "nswer": 3933,
  "\u0120conversation": 3934,
  "\u0120Co": 3935,
  "brace": 3936,
  "\u0120dial": 3937,
  "\u0120exercises": 3938,
  "\u0120accurately": 3939,
  "\u0120ann": 3940,
  "\u0120risks": 3941,
  "icious": 3942,
  "\u0120readership": 3943,
  "\u0120gradually": 3944,
  "opic": 3945,
  "\u0120Car": 3946,
  "\u0120engine": 3947,
  "\u0120consistency": 3948,
  "olute": 3949,
  "\u0120reactions": 3950,
  "making": 3951,
  "\u0120Utilize": 3952,
  "\u0120demonstrate": 3953,
  "rm": 3954,
  "ormal": 3955,
  "\u0120never": 3956,
  "\u0120therap": 3957,
  "\u0120Am": 3958,
  "\u0120encourage": 3959,
  "\u0120clothing": 3960,
  "rees": 3961,
  "\u0120theoretical": 3962,
  "allel": 3963,
  "\u0120response": 3964,
  "\u0120Just": 3965,
  "\u0120dynamics": 3966,
  "\u0120muscle": 3967,
  "\u0120becoming": 3968,
  "\u0120cou": 3969,
  "anges": 3970,
  "\u0120gene": 3971,
  "\u0120string": 3972,
  "iversity": 3973,
  "\u0120digital": 3974,
  "\u0120stage": 3975,
  "tivate": 3976,
  "\u0120Micro": 3977,
  "\u0120stability": 3978,
  "bit": 3979,
  "\u0120question": 3980,
  "\u0120spread": 3981,
  "\u0120secure": 3982,
  "\u0120businesses": 3983,
  "Here": 3984,
  "ert": 3985,
  "\u0120Line": 3986,
  "\u0120chann": 3987,
  "reating": 3988,
  "\u0120Encourage": 3989,
  "\u0120Trans": 3990,
  "\u0120sales": 3991,
  "14": 3992,
  "\u0120prioritize": 3993,
  "\u0120World": 3994,
  "ned": 3995,
  "\u0120dimen": 3996,
  "\u0120technique": 3997,
  "orage": 3998,
  ")(": 3999,
  "umption": 4000,
  "\u0120Techn": 4001,
  "\u0120started": 4002,
  "\u0120stri": 4003,
  "\u0120healthcare": 4004,
  "\u0120proced": 4005,
  "\u0120security": 4006,
  "\u0120prop": 4007,
  "\u0120confirm": 4008,
  "\u0120alg": 4009,
  "\u0120styles": 4010,
  "\u0120fix": 4011,
  "\u0120gas": 4012,
  "\u0120ax": 4013,
  "\u0120absor": 4014,
  "Cl": 4015,
  "\u0120Med": 4016,
  "\u0120Organ": 4017,
  "tr": 4018,
  "II": 4019,
  "pid": 4020,
  "unch": 4021,
  "osite": 4022,
  "\u0120fields": 4023,
  "pond": 4024,
  "bles": 4025,
  "\u0120clos": 4026,
  "16": 4027,
  "\u0120frequently": 4028,
  "ised": 4029,
  "itten": 4030,
  "cd": 4031,
  "\u0120Typ": 4032,
  "\u0120la": 4033,
  "\u0120Hel": 4034,
  "\u0120sessions": 4035,
  "\u0120followed": 4036,
  "\u0120No": 4037,
  "\u0120capital": 4038,
  "First": 4039,
  "vity": 4040,
  "rors": 4041,
  "icon": 4042,
  "\u0120Prov": 4043,
  "\u0120save": 4044,
  "obb": 4045,
  "\u0120option": 4046,
  "\u0120dat": 4047,
  "\u0120accuracy": 4048,
  "\u0120consistently": 4049,
  "\u0120filled": 4050,
  "netic": 4051,
  "\u0120rational": 4052,
  "\u0120sole": 4053,
  "17": 4054,
  "\u0120novel": 4055,
  "angles": 4056,
  "\u0120\u00c3\u0139": 4057,
  "\u0120acid": 4058,
  "ells": 4059,
  "\u0120electric": 4060,
  "\u0120autom": 4061,
  "ellig": 4062,
  "\u0120\u00e2": 4063,
  "\u0120Pur": 4064,
  "\u0120delve": 4065,
  "\u0120strength": 4066,
  "\u0120named": 4067,
  "\u0120lesson": 4068,
  "alking": 4069,
  "\u0120kne": 4070,
  "itch": 4071,
  "\u0120addressing": 4072,
  "abol": 4073,
  "\u0120veget": 4074,
  "\u0120reading": 4075,
  "\u0120usage": 4076,
  "\u0120identity": 4077,
  "\u0120Att": 4078,
  "\u0120rights": 4079,
  "book": 4080,
  "\u0120dil": 4081,
  "bf": 4082,
  "ided": 4083,
  "\u0120pet": 4084,
  "\u0120acknow": 4085,
  "\u0120habits": 4086,
  "\u0120dark": 4087,
  "\u0120fing": 4088,
  ")=": 4089,
  "\u0120Phys": 4090,
  "\u0120capac": 4091,
  "\u0120Dem": 4092,
  "ython": 4093,
  "\u0120Cur": 4094,
  "\u0120recommend": 4095,
  "\u0120anti": 4096,
  "idden": 4097,
  "\u0120mutual": 4098,
  "\u0120Functions": 4099,
  "\u0120act": 4100,
  "tiveness": 4101,
  "\u0120manip": 4102,
  "\u0120Common": 4103,
  "\u0120Introduction": 4104,
  "fit": 4105,
  "\u0120From": 4106,
  "\u0120interpret": 4107,
  "Col": 4108,
  "idth": 4109,
  "\u0120choosing": 4110,
  "\u0120notice": 4111,
  "\u0120clim": 4112,
  "\u0120transport": 4113,
  "\u0120relative": 4114,
  "\u0120double": 4115,
  "\u0120Law": 4116,
  "\u0120discussions": 4117,
  "\u0120consequ": 4118,
  "active": 4119,
  "\u0120bonds": 4120,
  "\u0120running": 4121,
  "\u0120enabling": 4122,
  "\u0120detail": 4123,
  "quality": 4124,
  "\u0120hyp": 4125,
  "\u0120reason": 4126,
  "\u0120challenge": 4127,
  "\u0120source": 4128,
  "cos": 4129,
  "\u0120considering": 4130,
  "\u0120decimal": 4131,
  "\u0120sentence": 4132,
  "\u0120consult": 4133,
  "\u0120unn": 4134,
  "usion": 4135,
  "\u0120Setting": 4136,
  "\u0120vo": 4137,
  "uted": 4138,
  "\u0120thinking": 4139,
  "lement": 4140,
  "\u0120tend": 4141,
  "\u0120Comple": 4142,
  "titution": 4143,
  "\u0120objectives": 4144,
  "\u0120roles": 4145,
  "onses": 4146,
  "\u0120loss": 4147,
  "\u0120chances": 4148,
  "Fin": 4149,
  "\u0120connect": 4150,
  "\u0120piece": 4151,
  "\u0120goods": 4152,
  "\u0120animal": 4153,
  "sin": 4154,
  "\u0120stories": 4155,
  "icated": 4156,
  "ager": 4157,
  "\u0120bacter": 4158,
  "\u0120seek": 4159,
  "\u0120completely": 4160,
  "\u0120programs": 4161,
  "\u0120maximum": 4162,
  "\u0120fabric": 4163,
  "\u0120fall": 4164,
  "istry": 4165,
  "\u0120Bas": 4166,
  "\u012016": 4167,
  "hetic": 4168,
  "\u0120nu": 4169,
  "ivide": 4170,
  "\u0120culture": 4171,
  "\u0120Take": 4172,
  "\u0120movements": 4173,
  "\u0120Tim": 4174,
  "\u0120Thus": 4175,
  "\u0120immediately": 4176,
  "otal": 4177,
  "imals": 4178,
  "Pr": 4179,
  "\u0120exactly": 4180,
  "\u0120List": 4181,
  "set": 4182,
  "\u0120meaningful": 4183,
  "\u0120medical": 4184,
  "\u0120network": 4185,
  "\u0120Earth": 4186,
  "\u0120\u00e2\u012a": 4187,
  "\u0120Can": 4188,
  "\u0120loved": 4189,
  "\u0120fasc": 4190,
  "\u0120projects": 4191,
  "cept": 4192,
  "\u0120liqu": 4193,
  "rogen": 4194,
  "\u0120party": 4195,
  "tenance": 4196,
  "def": 4197,
  "\u0120phone": 4198,
  "onomic": 4199,
  "\u0120credit": 4200,
  "\u0120Prior": 4201,
  "\u0120supply": 4202,
  "\u0120extensive": 4203,
  "\u0120Consult": 4204,
  "\u0120vertical": 4205,
  "plac": 4206,
  "Rec": 4207,
  "\u0120improvement": 4208,
  "\u0120assistance": 4209,
  "\u0120enhancing": 4210,
  "\u0120simultaneously": 4211,
  "\u0120coe": 4212,
  "\u0120mindful": 4213,
  "roc": 4214,
  "\u0120cases": 4215,
  "ube": 4216,
  "\u0120Access": 4217,
  "\u0120Stud": 4218,
  "\u0120Place": 4219,
  "\u0120Clean": 4220,
  "ibri": 4221,
  "\u0120US": 4222,
  "inations": 4223,
  "\u0120cele": 4224,
  "oud": 4225,
  "atching": 4226,
  "lor": 4227,
  "\u0120ban": 4228,
  "eration": 4229,
  "\u0120honest": 4230,
  "\u0120rigorous": 4231,
  "\u0120matters": 4232,
  "str": 4233,
  "\u0120date": 4234,
  "\u0120refers": 4235,
  "\u0120book": 4236,
  "\u0120element": 4237,
  "\u0120average": 4238,
  "rene": 4239,
  "oint": 4240,
  "80": 4241,
  "\u0120developing": 4242,
  "\u0120host": 4243,
  "NT": 4244,
  "\u0120political": 4245,
  "ville": 4246,
  "\u0120Fact": 4247,
  "\u0120division": 4248,
  "\u0120resid": 4249,
  "\u0120collec": 4250,
  "\u0120Go": 4251,
  "anted": 4252,
  "\u0120transfer": 4253,
  "Op": 4254,
  "\u0120answer": 4255,
  "ilibri": 4256,
  "\u0120por": 4257,
  "irt": 4258,
  "\u0120authentic": 4259,
  "lege": 4260,
  "\u0120War": 4261,
  "ications": 4262,
  "\u0120requiring": 4263,
  "\u0120inches": 4264,
  "\u0120dress": 4265,
  "\u0120despite": 4266,
  "\u0120mil": 4267,
  "=\"": 4268,
  "eli": 4269,
  "ptoms": 4270,
  "\u0120efficient": 4271,
  "\u0120inherent": 4272,
  "mosp": 4273,
  "\u0120personality": 4274,
  "\u0120leads": 4275,
  "\u0120whereas": 4276,
  "\u0120managing": 4277,
  "\u0120leaving": 4278,
  "\u0120equival": 4279,
  "\u0120green": 4280,
  "\u0120chec": 4281,
  "\u0120Inst": 4282,
  "\u0120Val": 4283,
  "\u0120dealing": 4284,
  "\u0120Ser": 4285,
  "\u0120rapid": 4286,
  "\u0120Mo": 4287,
  "}$$": 4288,
  "\u0120assign": 4289,
  "\u0120opportunity": 4290,
  "\u0120implications": 4291,
  "\u0120periods": 4292,
  "\u0120restric": 4293,
  "\u0120egg": 4294,
  "osition": 4295,
  "\u0120Good": 4296,
  "\u0120gar": 4297,
  "\u0120\u00ce": 4298,
  "\u0120asking": 4299,
  "\u0120night": 4300,
  "Get": 4301,
  "(-": 4302,
  "\u0120dedication": 4303,
  "\u0120actual": 4304,
  "\u0120vel": 4305,
  "\u0120beauti": 4306,
  "\u0120robust": 4307,
  "\u0120fosters": 4308,
  "\u0120third": 4309,
  "\u0120characteristics": 4310,
  "\u0120capable": 4311,
  "\u0120ever": 4312,
  "engu": 4313,
  "\u0120roots": 4314,
  "\u0120creativity": 4315,
  "\u0120responses": 4316,
  "\u0120Familiarize": 4317,
  "\u0120Method": 4318,
  "\u0120lik": 4319,
  "\u0120message": 4320,
  "gi": 4321,
  "\u0120continuous": 4322,
  "\u0120particles": 4323,
  "\u0120legal": 4324,
  "Next": 4325,
  "\u0120tree": 4326,
  "\u0120solely": 4327,
  "odies": 4328,
  "\u0120examine": 4329,
  "\u0120mill": 4330,
  "\u0120official": 4331,
  "\u0120exposure": 4332,
  "\u0120closely": 4333,
  "\u0120carbon": 4334,
  "\u0120consequences": 4335,
  "\u0120algor": 4336,
  "eds": 4337,
  "\u0120layer": 4338,
  "\u0120nor": 4339,
  "ifies": 4340,
  "\u0120commitment": 4341,
  "\u0120bir": 4342,
  "ina": 4343,
  "\u0120helping": 4344,
  "\u0120includes": 4345,
  "\u0120caused": 4346,
  "\u0120quantity": 4347,
  "With": 4348,
  "\u0120web": 4349,
  "\u0120representing": 4350,
  "\u0120sil": 4351,
  "\u0120swe": 4352,
  "\u0120identifying": 4353,
  "\u00c2\u00b2": 4354,
  "And": 4355,
  "\u0120treatment": 4356,
  "sequent": 4357,
  "\u0120equipment": 4358,
  "\u0120bul": 4359,
  "\u0120ur": 4360,
  "\u012014": 4361,
  "\u0120useful": 4362,
  "\u0120carry": 4363,
  "ords": 4364,
  ")$": 4365,
  "Sc": 4366,
  "\u012011": 4367,
  "\u0120icon": 4368,
  "\u0120laws": 4369,
  "list": 4370,
  "\u0120#": 4371,
  "\u0120Imagine": 4372,
  "\u0120central": 4373,
  "fs": 4374,
  "Remember": 4375,
  "inks": 4376,
  "\u0120files": 4377,
  "\u0120dialog": 4378,
  "\u0120aspect": 4379,
  "\u0120Benny": 4380,
  "asure": 4381,
  "----------------------------": 4382,
  "ifications": 4383,
  "\u0120edge": 4384,
  "\u0120internal": 4385,
  "exp": 4386,
  "\u0120refer": 4387,
  "lation": 4388,
  "\u0120lies": 4389,
  "\u0120handling": 4390,
  "\u0120sav": 4391,
  "\u0120enhances": 4392,
  "\u0120season": 4393,
  "\u0120}": 4394,
  "\u0120affect": 4395,
  "cules": 4396,
  "\u0120black": 4397,
  "\u0120giving": 4398,
  "\u0120ingredients": 4399,
  "\u0120diss": 4400,
  "\u0120achieving": 4401,
  "\u0120analyze": 4402,
  "face": 4403,
  ",\\": 4404,
  "\u0120differen": 4405,
  "reneur": 4406,
  "\u0120During": 4407,
  "\u0120marketing": 4408,
  "\u0120Altern": 4409,
  "\u0120arrang": 4410,
  "\u0120perspective": 4411,
  "\u0120Pok": 4412,
  "\u0120camp": 4413,
  "\u0120menu": 4414,
  "\u0120patient": 4415,
  "\u0120hidden": 4416,
  "\u0120anx": 4417,
  "\u0120serves": 4418,
  "\u0120surfaces": 4419,
  "\u0120Part": 4420,
  "\u0120diet": 4421,
  "\u0120strategy": 4422,
  "\u0120protection": 4423,
  "quad": 4424,
  "\u0120separate": 4425,
  "Inter": 4426,
  "repreneur": 4427,
  "\u0120empathy": 4428,
  "\u0120\u0120\u0120\u0120\u0120\u0120\u0120\u0120\u0120\u0120\u0120": 4429,
  "\u0120triangle": 4430,
  "vey": 4431,
  "hic": 4432,
  "\u0120limits": 4433,
  "\u012017": 4434,
  "rable": 4435,
  "\u0120argum": 4436,
  "\u00e2\u0122\u00a2": 4437,
  "att": 4438,
  "\u0120war": 4439,
  "\u0120dedicated": 4440,
  "obbies": 4441,
  "way": 4442,
  "\u0120High": 4443,
  "\u0120examining": 4444,
  "At": 4445,
  "\u0120historical": 4446,
  "\u0120percent": 4447,
  "\u0120experiment": 4448,
  "\u0120parallel": 4449,
  "\u0120consideration": 4450,
  "\u0120sus": 4451,
  "\u0120Social": 4452,
  "\u0120issue": 4453,
  "\u0120necessit": 4454,
  "\u0120agre": 4455,
  "\u0120pursu": 4456,
  "\u0120reaction": 4457,
  "\u0120compati": 4458,
  "entle": 4459,
  "\u0120lives": 4460,
  "inning": 4461,
  "\u0120integr": 4462,
  "\u0120clearly": 4463,
  "\u0120port": 4464,
  "ompl": 4465,
  "\u0120storage": 4466,
  "\u0120efficiently": 4467,
  "\u0120atmosp": 4468,
  "\u0120occurs": 4469,
  "\u0120creative": 4470,
  "\u0120edges": 4471,
  "ilience": 4472,
  "\u0120reveal": 4473,
  "\u0120Bre": 4474,
  "\u0120prepared": 4475,
  "ensive": 4476,
  "\u0120Schedule": 4477,
  "\u0120bow": 4478,
  "\u0120cooking": 4479,
  "\u0120arch": 4480,
  "begin": 4481,
  "\u0120Determine": 4482,
  "\u0120roll": 4483,
  "\u0120pros": 4484,
  "\u012050": 4485,
  "ulating": 4486,
  "\u0120Work": 4487,
  "Final": 4488,
  "ont": 4489,
  "\u0120denominator": 4490,
  "\u0120ice": 4491,
  "\u0120correspond": 4492,
  "\u0120contemporary": 4493,
  "stances": 4494,
  "sitions": 4495,
  "hand": 4496,
  "\u0120molec": 4497,
  "\u0120defined": 4498,
  "\u0120ideal": 4499,
  "\u0120appreciation": 4500,
  "\u0120Char": 4501,
  "\u0120pattern": 4502,
  "\u0120mole": 4503,
  "\u0120multiplication": 4504,
  "\u0120won": 4505,
  "\u0120opin": 4506,
  "\u0120vector": 4507,
  "\u0120horizontal": 4508,
  "\u0120collect": 4509,
  "\u0120Monitor": 4510,
  "\u0120completing": 4511,
  "\u0120websites": 4512,
  "\u0120Their": 4513,
  "ler": 4514,
  "cing": 4515,
  "21": 4516,
  "\u0120wash": 4517,
  "\u0120charge": 4518,
  "\u0120fascinating": 4519,
  "odes": 4520,
  "\u0120Similarly": 4521,
  "\u0120veloc": 4522,
  "\u0120parent": 4523,
  "\u0120blue": 4524,
  "\u0120forming": 4525,
  "ether": 4526,
  "\u0120Inv": 4527,
  "onomet": 4528,
  "\u0120synt": 4529,
  "\u0120Eu": 4530,
  "\u0120preferred": 4531,
  "\u0120Open": 4532,
  "ilibrium": 4533,
  "\u0120categories": 4534,
  "\u0120Perform": 4535,
  "\u0120contra": 4536,
  "\u0120wood": 4537,
  "\u0120beautiful": 4538,
  "\u0120Answer": 4539,
  "\u0120Show": 4540,
  "\u0120written": 4541,
  "\u0120effect": 4542,
  "\u0120Sch": 4543,
  "ederal": 4544,
  "\u0120limited": 4545,
  "Me": 4546,
  "\u0120round": 4547,
  "\u0120soon": 4548,
  "\u0120Vis": 4549,
  "\u0120adequ": 4550,
  "room": 4551,
  "eks": 4552,
  "\u0120absolute": 4553,
  "\u0120degrees": 4554,
  "\u0120stret": 4555,
  "\u0120experienced": 4556,
  "\u0120compar": 4557,
  "\u0120Adjust": 4558,
  "asons": 4559,
  "\u0120yields": 4560,
  "\u0120row": 4561,
  "\u0120ahead": 4562,
  "\u0120determining": 4563,
  "\u0120country": 4564,
  "\u0120exchange": 4565,
  "Imagine": 4566,
  "\u0120Sur": 4567,
  "\u0120layers": 4568,
  "\u0120discip": 4569,
  "\u0120Recogn": 4570,
  "\u0120overw": 4571,
  "\u0120machine": 4572,
  "\u0120subsequent": 4573,
  "ork": 4574,
  "urer": 4575,
  "\u0120creates": 4576,
  "\u0120unnecessary": 4577,
  "\u0120fruits": 4578,
  "\u0120concerning": 4579,
  "\u0120Other": 4580,
  "asion": 4581,
  "ohn": 4582,
  "\u0120expon": 4583,
  "\u0120boo": 4584,
  "\u0120primarily": 4585,
  "\u0120partners": 4586,
  "\u0120likely": 4587,
  "\u0120shaping": 4588,
  "Sh": 4589,
  "\u0120Emp": 4590,
  "cdot": 4591,
  "\u0120mov": 4592,
  "\u00f0\u0141": 4593,
  "\u0120ord": 4594,
  "elligence": 4595,
  "\u0120symptoms": 4596,
  "\u0120ratio": 4597,
  "qqqq": 4598,
  "\u0120wellbeing": 4599,
  "\u0120Prof": 4600,
  "\u0120suggest": 4601,
  "venue": 4602,
  "iling": 4603,
  "ighb": 4604,
  "oles": 4605,
  "\u0120Conn": 4606,
  "\u0120fail": 4607,
  "\u0120promotes": 4608,
  "\u0120circumstances": 4609,
  "\u0120Prioritize": 4610,
  "\u0120investment": 4611,
  "\u0120critically": 4612,
  "\u0120relaxation": 4613,
  "osis": 4614,
  "bing": 4615,
  "\u0120agg": 4616,
  "\u0120purpose": 4617,
  "\u0120apart": 4618,
  "ians": 4619,
  "\u0120month": 4620,
  "enguin": 4621,
  "itiz": 4622,
  "co": 4623,
  "ndom": 4624,
  "\u012025": 4625,
  "\u0120Ag": 4626,
  "\u0120built": 4627,
  "ertif": 4628,
  "}{\\": 4629,
  "ocal": 4630,
  "\u0120atom": 4631,
  "\u0120wear": 4632,
  "\u0120Lim": 4633,
  "dom": 4634,
  "\u0120purchasing": 4635,
  "\u0120sequence": 4636,
  "\u0120balanced": 4637,
  "rial": 4638,
  "\u0120flexibility": 4639,
  "\u0120presence": 4640,
  "\u0120link": 4641,
  "\u0120Test": 4642,
  "\u0120Calcul": 4643,
  ")/": 4644,
  "iven": 4645,
  "\u0120growing": 4646,
  "\u0120appreciate": 4647,
  "bly": 4648,
  "\u0120Fe": 4649,
  "\u0120Offer": 4650,
  "stract": 4651,
  "avors": 4652,
  "\u0120Read": 4653,
  "\u0120improved": 4654,
  "minist": 4655,
  "\u0120accompl": 4656,
  "\u0120focused": 4657,
  "\u0120worth": 4658,
  "\u0120Care": 4659,
  "Input": 4660,
  "exts": 4661,
  "\u0120Mat": 4662,
  "amm": 4663,
  "\u0120enter": 4664,
  "\u0120hobbies": 4665,
  "\u0120brand": 4666,
  "\u0120wait": 4667,
  "\u0120Dep": 4668,
  "\u0120visit": 4669,
  "lick": 4670,
  "\u0120download": 4671,
  "aff": 4672,
  "\u0120fold": 4673,
  "\u0120inters": 4674,
  "\u0120resistance": 4675,
  "ains": 4676,
  "\u0120resilience": 4677,
  "\u0120excell": 4678,
  "\u0120Equations": 4679,
  "\u0120cup": 4680,
  "\u0120mist": 4681,
  "\u0120messages": 4682,
  "\u0120print": 4683,
  "eling": 4684,
  "\u0120reduced": 4685,
  "\u0120Two": 4686,
  "Finally": 4687,
  "\u0120scale": 4688,
  "\u0120confid": 4689,
  "rew": 4690,
  "\u0120cream": 4691,
  "\u0120leave": 4692,
  "tor": 4693,
  "\u0120dividing": 4694,
  "\u0120reflec": 4695,
  "Guidelines": 4696,
  "\u0120spaces": 4697,
  "\u0120Learn": 4698,
  "100": 4699,
  "\u0120cutting": 4700,
  "ffective": 4701,
  "\u0120analyzing": 4702,
  "\u0120vi": 4703,
  "\u0120ste": 4704,
  "\u0120influenc": 4705,
  "\u0120descrip": 4706,
  "ticipate": 4707,
  "\u0120frequency": 4708,
  "elihood": 4709,
  "\u0120fellow": 4710,
  "des": 4711,
  "urally": 4712,
  "clusive": 4713,
  "\u0120sell": 4714,
  "astly": 4715,
  "\u0120respond": 4716,
  "Se": 4717,
  "iction": 4718,
  "\u0120applied": 4719,
  "\u0120generate": 4720,
  "theta": 4721,
  "\u0120status": 4722,
  "\u0120push": 4723,
  "\u0120yield": 4724,
  "\u0120Fl": 4725,
  "\u0120har": 4726,
  "\u0120neut": 4727,
  "\u00cf\u0122": 4728,
  "\u0120attempting": 4729,
  "\u0120initially": 4730,
  "\u0120environments": 4731,
  "\u0120likelihood": 4732,
  "\u0120origin": 4733,
  "\u0120previously": 4734,
  "\u0120overwhel": 4735,
  "\u0120retur": 4736,
  "riting": 4737,
  "!\"": 4738,
  "ads": 4739,
  "\u0120errors": 4740,
  "\u0120gentle": 4741,
  "\u0120Play": 4742,
  "az": 4743,
  "13": 4744,
  "\u0120encounter": 4745,
  "\u0120interaction": 4746,
  "\u0120figure": 4747,
  "\u0120fluid": 4748,
  "\u0120strategic": 4749,
  "down": 4750,
  "\u0120pen": 4751,
  "\u0120glass": 4752,
  "ung": 4753,
  "\u0120join": 4754,
  "\u0120fish": 4755,
  "29": 4756,
  "coh": 4757,
  "\u0120facilitate": 4758,
  "\u0120interven": 4759,
  "\u0120scholars": 4760,
  "\u0120prevents": 4761,
  "\u0120outl": 4762,
  "\u0120fur": 4763,
  "\u0120teac": 4764,
  "\u0120markets": 4765,
  "rief": 4766,
  "\u0120myst": 4767,
  "\u0120molecules": 4768,
  "\u0120tiss": 4769,
  "\u0120dest": 4770,
  "cohol": 4771,
  "\u0120statement": 4772,
  "\u0120upper": 4773,
  "\u0120vac": 4774,
  "icit": 4775,
  "\u0120Bal": 4776,
  "\u0120choice": 4777,
  "\u0120countries": 4778,
  "\u0120Non": 4779,
  "pre": 4780,
  "\u0120recommended": 4781,
  "\u0120accept": 4782,
  "\u0120Ec": 4783,
  "\u0120arise": 4784,
  "\u0120formation": 4785,
  "\u0120constra": 4786,
  "ithms": 4787,
  "estyle": 4788,
  "\u0120Strateg": 4789,
  "\u0120normal": 4790,
  "\u0120unw": 4791,
  "optional": 4792,
  "\u0120strengths": 4793,
  "\u0120Inc": 4794,
  "\u0120communicate": 4795,
  "\u0120society": 4796,
  "rope": 4797,
  "\u0120cam": 4798,
  "\u0120city": 4799,
  "augh": 4800,
  "\u0120liquid": 4801,
  "\u0120plans": 4802,
  "ucid": 4803,
  "rag": 4804,
  "\u0120science": 4805,
  "ogether": 4806,
  "\u0120insp": 4807,
  "\u0120foods": 4808,
  "\u0120aimed": 4809,
  "\u0120neighb": 4810,
  "200": 4811,
  "izz": 4812,
  "\u0120reference": 4813,
  "\u0120faced": 4814,
  "raft": 4815,
  "\u0120flat": 4816,
  "\u0120muscles": 4817,
  "\u0120properly": 4818,
  "\u0120feeling": 4819,
  "\u0120varying": 4820,
  "\u0120vehic": 4821,
  "ocol": 4822,
  "\u0120continued": 4823,
  "rant": 4824,
  "\u0120evaluate": 4825,
  "ER": 4826,
  "\u0120twice": 4827,
  "\u0120Cap": 4828,
  "\u0120moisture": 4829,
  "\u0120pu": 4830,
  "\u0120Applic": 4831,
  "\u0120feature": 4832,
  "\u0120Review": 4833,
  "\u0120receive": 4834,
  "\u0120stim": 4835,
  "\u0120consumption": 4836,
  "Understand": 4837,
  "arp": 4838,
  "\u0120literature": 4839,
  "\u0120Ver": 4840,
  "\u0120elimin": 4841,
  "dy": 4842,
  "\u0120strugg": 4843,
  "eck": 4844,
  "\u0120Ide": 4845,
  "akers": 4846,
  "\u0120equivalent": 4847,
  "\u0120tap": 4848,
  ".'": 4849,
  "\u0120leaves": 4850,
  "\u0120rich": 4851,
  "\u0120enth": 4852,
  "\u0120maintenance": 4853,
  "\u0120Te": 4854,
  "\u0120Dif": 4855,
  "ipped": 4856,
  "\u0120spending": 4857,
  "nesses": 4858,
  "\u0120stronger": 4859,
  "Principles": 4860,
  "\u0120equals": 4861,
  "ognitive": 4862,
  "Ac": 4863,
  ".)": 4864,
  "\u0120meals": 4865,
  "\u0120makeup": 4866,
  "\u0120channels": 4867,
  "\u0120decided": 4868,
  "\u0120institu": 4869,
  "\u0120fear": 4870,
  "asts": 4871,
  "soft": 4872,
  "friend": 4873,
  "aby": 4874,
  "\u0120worry": 4875,
  "\u0120Evalu": 4876,
  "icking": 4877,
  "rick": 4878,
  "cer": 4879,
  "\u0120Contin": 4880,
  "\u0120selection": 4881,
  "off": 4882,
  "\u0120claim": 4883,
  "oop": 4884,
  "aken": 4885,
  "\u0120quadratic": 4886,
  "\u0120summary": 4887,
  "\u0120definition": 4888,
  "While": 4889,
  "\u0120investigation": 4890,
  "roup": 4891,
  "\u0120encourages": 4892,
  "ivil": 4893,
  "\u0120ep": 4894,
  "\u0120relig": 4895,
  "\u0120stick": 4896,
  "\u0120board": 4897,
  "erc": 4898,
  "\u0120array": 4899,
  "rack": 4900,
  "\u0120dele": 4901,
  "ford": 4902,
  "aterials": 4903,
  "ript": 4904,
  "\u0120calm": 4905,
  "\u0120town": 4906,
  "\u0120fig": 4907,
  "\u012060": 4908,
  "\u0120showc": 4909,
  "\u0120Topic": 4910,
  "\u0120Examples": 4911,
  "\u0120alongside": 4912,
  "\u0120Design": 4913,
  "\u0120proceeding": 4914,
  "\u0120schedule": 4915,
  "\u0120happens": 4916,
  "\u012013": 4917,
  "\u0120prepare": 4918,
  "ums": 4919,
  "-\\": 4920,
  "aid": 4921,
  "\u0120\\(": 4922,
  "xygen": 4923,
  "\u0120faster": 4924,
  "\u0120Less": 4925,
  "mar": 4926,
  "axis": 4927,
  "\u0120af": 4928,
  "\u0120regions": 4929,
  "\u0120Health": 4930,
  "\u0120elucid": 4931,
  "\u0120release": 4932,
  "\u0120Analysis": 4933,
  "\u0120generally": 4934,
  "\u0120improving": 4935,
  "oli": 4936,
  "\u0120mid": 4937,
  "\u0120landsc": 4938,
  "\u0120random": 4939,
  "\u0120adjustments": 4940,
  "\u0120contributes": 4941,
  "\u0120quantities": 4942,
  "\u0120expan": 4943,
  "\u0120manufacturer": 4944,
  "umes": 4945,
  "\u0120reson": 4946,
  "\u0120months": 4947,
  "\u0120Python": 4948,
  "name": 4949,
  "\u0120Begin": 4950,
  "\u0120correctly": 4951,
  "\u0120statements": 4952,
  "inder": 4953,
  "rehension": 4954,
  "\u0120expenses": 4955,
  "iology": 4956,
  "\u0120Personal": 4957,
  "\u0120dead": 4958,
  "\u0120sugar": 4959,
  "\u0120traits": 4960,
  "\u0120penc": 4961,
  "\u0120documents": 4962,
  "\u0120proteins": 4963,
  "ployment": 4964,
  "\u0120Finally": 4965,
  "actions": 4966,
  "\u0120accum": 4967,
  "order": 4968,
  "\u0120Red": 4969,
  "--------------------": 4970,
  "\u0120Ev": 4971,
  "\u0120contributing": 4972,
  "ancy": 4973,
  "lim": 4974,
  "\u0120handle": 4975,
  "\u0120indicate": 4976,
  "\u0120advanc": 4977,
  "\u0120moves": 4978,
  "\u0120standards": 4979,
  "ingly": 4980,
  "\u0120calculations": 4981,
  "\u0120Mac": 4982,
  "\u0120touch": 4983,
  "urt": 4984,
  "\u0120Life": 4985,
  "\u0120contains": 4986,
  "\u0120records": 4987,
  "\u0120Integ": 4988,
  "\u0120Volume": 4989,
  "\u0120uns": 4990,
  "Sk": 4991,
  "\u0120productivity": 4992,
  "ias": 4993,
  "\u0120spir": 4994,
  "\u0120slowly": 4995,
  "\u0120diving": 4996,
  "\u0120comprom": 4997,
  "Cons": 4998,
  "\u0120regulations": 4999,
  "\u0120algebraic": 5000,
  "\u0120phenomena": 5001,
  "\u0120Also": 5002,
  "\u0120closer": 5003,
  "\u0120item": 5004,
  "\u0120princip": 5005,
  "ogen": 5006,
  "\u0120psych": 5007,
  "\u0120reward": 5008,
  "\u012024": 5009,
  "\u0120resource": 5010,
  "}^{": 5011,
  "\u0120satisfaction": 5012,
  "\u0120mastering": 5013,
  "\u0120tab": 5014,
  "ball": 5015,
  "Em": 5016,
  "\u0120fast": 5017,
  "\u0120companies": 5018,
  "\u0120excellent": 5019,
  "\u0120platform": 5020,
  "cel": 5021,
  "\u0120Ed": 5022,
  "\u0120connecting": 5023,
  "\u0120acknowled": 5024,
  "\u0120inner": 5025,
  "\u0120partner": 5026,
  "\u0120anxiety": 5027,
  "\u0120locations": 5028,
  "\u0120uni": 5029,
  "\u0120electrons": 5030,
  "\u0120match": 5031,
  "irms": 5032,
  "\u0120connected": 5033,
  "\u0120transition": 5034,
  "\u0120tack": 5035,
  "\u0120attend": 5036,
  "\u0120vs": 5037,
  "\u0120tang": 5038,
  "vals": 5039,
  "\u0120sizes": 5040,
  "\u0120quan": 5041,
  "\u0120Europe": 5042,
  "\u0120velocity": 5043,
  "\u0120vib": 5044,
  "\u0120physics": 5045,
  "\u0120sched": 5046,
  "\u0120causes": 5047,
  "\u0120reaching": 5048,
  "Bu": 5049,
  "\u0120Ge": 5050,
  "ams": 5051,
  "\u0120waves": 5052,
  "uses": 5053,
  "\u0120networks": 5054,
  "\u0120soap": 5055,
  "\u0120attrib": 5056,
  "\u0120uses": 5057,
  "\u0120accel": 5058,
  "Re": 5059,
  "\u0120sample": 5060,
  "\u0120appears": 5061,
  "\u0120mac": 5062,
  "\u0120dimensions": 5063,
  "inomial": 5064,
  "\u0120positions": 5065,
  "\u0120exponential": 5066,
  "\u0120girl": 5067,
  "Com": 5068,
  "\u0120Like": 5069,
  "azing": 5070,
  "\u0120depend": 5071,
  "\u0120Before": 5072,
  "rim": 5073,
  "\u0120adequate": 5074,
  "\u0120substanti": 5075,
  "\u0120newly": 5076,
  "\u0120purchase": 5077,
  "\u0120evenly": 5078,
  "\u0120breathing": 5079,
  "\u0120capabilities": 5080,
  "\u0120goes": 5081,
  "eter": 5082,
  "tually": 5083,
  "\u0120weather": 5084,
  "vis": 5085,
  "ysi": 5086,
  "ocation": 5087,
  "\u0120block": 5088,
  "\u0120Gather": 5089,
  "\u0120compl": 5090,
  "\u0120overl": 5091,
  "\u0120thick": 5092,
  "\u0120happiness": 5093,
  "\u0120introduce": 5094,
  "\u0120competition": 5095,
  "\u0120Squ": 5096,
  "\u0120wise": 5097,
  "\u0120Friend": 5098,
  "\u0120Struc": 5099,
  "\u0120heavy": 5100,
  "\u0120comprehension": 5101,
  "\u0120imm": 5102,
  "lig": 5103,
  "\u0120governing": 5104,
  "\u0120aren": 5105,
  "icy": 5106,
  "\u0120probability": 5107,
  "brate": 5108,
  "\u0120benefit": 5109,
  "\u0120unders": 5110,
  "\u0120demonstrates": 5111,
  "\u0120sensitive": 5112,
  "\u0120colum": 5113,
  "\u0120Sammy": 5114,
  "\u0120apps": 5115,
  "75": 5116,
  "\u0120performing": 5117,
  "\u0120Prog": 5118,
  "------------------------------------": 5119,
  "\u0120done": 5120,
  "\u0120led": 5121,
  "formation": 5122,
  "\u0120Pe": 5123,
  "\u0120cards": 5124,
  "\u0120Power": 5125,
  "\u0120gard": 5126,
  "\u0120spot": 5127,
  "overy": 5128,
  "\u0120\\\\": 5129,
  "\u0120accounting": 5130,
  "\u0120delicious": 5131,
  "itions": 5132,
  "\u0120measurements": 5133,
  "arant": 5134,
  "\u0120opposite": 5135,
  "\u0120batter": 5136,
  "\u0120Skills": 5137,
  "\u0120career": 5138,
  "\u0120increasingly": 5139,
  "check": 5140,
  "reme": 5141,
  "\u0120version": 5142,
  "\u0120Cost": 5143,
  "\u0120gets": 5144,
  "\u0120capacity": 5145,
  "45": 5146,
  "\u0120insight": 5147,
  "\u0120limitations": 5148,
  "\u0120sufficient": 5149,
  "\u0120kn": 5150,
  "\u0120ment": 5151,
  "onge": 5152,
  "\u0120temperatures": 5153,
  "\u012040": 5154,
  "\u0120speaking": 5155,
  "\u0120decor": 5156,
  "\u0120enjoyable": 5157,
  "\u0120disease": 5158,
  "\u0120front": 5159,
  "\u0120actively": 5160,
  "Context": 5161,
  "\u0120Face": 5162,
  "\u0120brain": 5163,
  "\u0120window": 5164,
  "\u0120decimals": 5165,
  "iteria": 5166,
  "\u0120cash": 5167,
  "\u0120significance": 5168,
  "\u0120legs": 5169,
  "ls": 5170,
  "\u0120atoms": 5171,
  "vere": 5172,
  "\u0120Hist": 5173,
  "\u0120sens": 5174,
  "yses": 5175,
  "\u0120wanted": 5176,
  "\u0120threat": 5177,
  "\u0120cycle": 5178,
  "ophistic": 5179,
  "\u0120evaluating": 5180,
  "It": 5181,
  "\u0120Explanation": 5182,
  "\u0120Note": 5183,
  "\u0120atmosphere": 5184,
  "outs": 5185,
  "\u0120enthus": 5186,
  "ades": 5187,
  "ato": 5188,
  "\u0120Although": 5189,
  "\u0120tiny": 5190,
  "------------------------": 5191,
  "www": 5192,
  "\u0120accounts": 5193,
  "\u0120amb": 5194,
  "\u0120nucle": 5195,
  "\u0120adhere": 5196,
  "\u0120accessories": 5197,
  "\u0120degree": 5198,
  "onomics": 5199,
  "\u0120unf": 5200,
  "\u0120accomplish": 5201,
  "ae": 5202,
  "uly": 5203,
  "\u0120recommendations": 5204,
  "Who": 5205,
  "\u0120sophistic": 5206,
  "\u0120constit": 5207,
  "\u0120memory": 5208,
  "crib": 5209,
  "\u0120Min": 5210,
  "mathbf": 5211,
  "\u0120Press": 5212,
  "\u0120consid": 5213,
  "\u0120Provide": 5214,
  "\u0120international": 5215,
  "\u0120student": 5216,
  "otic": 5217,
  "\u0120broader": 5218,
  "poses": 5219,
  "ommod": 5220,
  "\u0120Di": 5221,
  "\u0120recognizing": 5222,
  "\u0120equilibrium": 5223,
  "\u0120Implement": 5224,
  "\u0120ends": 5225,
  "\u0120possi": 5226,
  "\u0120designs": 5227,
  "\u0120width": 5228,
  "\u0120convert": 5229,
  "\u0120Gener": 5230,
  "\u0120collaboration": 5231,
  "\u0120confident": 5232,
  "\u0120Pok\u00c3\u00a9": 5233,
  "\u0120selected": 5234,
  "racing": 5235,
  "ows": 5236,
  "utive": 5237,
  "\u0120medium": 5238,
  "\u0120transl": 5239,
  "ashion": 5240,
  "\u0120curious": 5241,
  "\u0120Alternatively": 5242,
  "\u0120maximize": 5243,
  "\u0120Fr": 5244,
  "\u0120amounts": 5245,
  "\u0120characterized": 5246,
  "\u0120predic": 5247,
  "ticul": 5248,
  "\u0120Ins": 5249,
  "\u0120invent": 5250,
  "\u0120naturally": 5251,
  "\u0120anything": 5252,
  "ison": 5253,
  "En": 5254,
  "\u0120Ab": 5255,
  "\u0120Produc": 5256,
  "\u0120supporting": 5257,
  "assion": 5258,
  "\u0120private": 5259,
  "\u0120evolution": 5260,
  "\u0120dynamic": 5261,
  "\u0120Analy": 5262,
  "\u0120shoes": 5263,
  "\u0120bank": 5264,
  "\u0120interval": 5265,
  "Ii": 5266,
  "\u0120discussion": 5267,
  "\u0120moments": 5268,
  "\u0120wish": 5269,
  "ster": 5270,
  "\u0120photos": 5271,
  "\u0120Well": 5272,
  "\u0120Dist": 5273,
  "He": 5274,
  "pare": 5275,
  "ded": 5276,
  "atically": 5277,
  "\u0120Sl": 5278,
  "\u0120happy": 5279,
  "ults": 5280,
  "\u0120Mus": 5281,
  "tes": 5282,
  "\u0120esc": 5283,
  "erge": 5284,
  "\u0120define": 5285,
  "\u0120powers": 5286,
  "\u0120compare": 5287,
  "\u0120instrum": 5288,
  "\u0120Stand": 5289,
  "\u0120warr": 5290,
  "Cont": 5291,
  "AAAAAAAAAAAAAAAA": 5292,
  "\u0120tables": 5293,
  "\u0120profile": 5294,
  "\u0120fu": 5295,
  "\u0120meeting": 5296,
  "But": 5297,
  "auty": 5298,
  "\u0120derivative": 5299,
  "\u0120Great": 5300,
  "\u0120mas": 5301,
  "\u0120appropriately": 5302,
  "\u0120aest": 5303,
  "\u0120peace": 5304,
  "Understanding": 5305,
  "\u0120Cent": 5306,
  "\u0120representation": 5307,
  "'(": 5308,
  "\u0120drop": 5309,
  "\u0120immun": 5310,
  ".*": 5311,
  "\u0120forget": 5312,
  "\u0120$(": 5313,
  "umin": 5314,
  "\u0120exhibit": 5315,
  "ingu": 5316,
  "pe": 5317,
  "\u0120complement": 5318,
  "ilos": 5319,
  "\u0120diagn": 5320,
  "\u0120taste": 5321,
  "\u0120discussing": 5322,
  "\u0120Right": 5323,
  "\u0120oxygen": 5324,
  "22": 5325,
  "\u0120procedures": 5326,
  "\u0120waste": 5327,
  "onic": 5328,
  "\u0120Log": 5329,
  "\u0120drive": 5330,
  "\u0120texture": 5331,
  "\u0120anyone": 5332,
  "\u0120opt": 5333,
  "\u0120multiplying": 5334,
  "\u0120denotes": 5335,
  "\u0120paramet": 5336,
  "\u0120promptly": 5337,
  "\u0120weeks": 5338,
  "\u0120slic": 5339,
  "\u0120fulf": 5340,
  "\u0120Both": 5341,
  "\u0120sem": 5342,
  "tural": 5343,
  "\u0120phase": 5344,
  "\u0120analyses": 5345,
  "\u0120regardless": 5346,
  "\u0120intelligence": 5347,
  "\u0120pairs": 5348,
  "\u0120sand": 5349,
  "\u0120became": 5350,
  "\u0120belong": 5351,
  "\u0120showing": 5352,
  "\u0120realm": 5353,
  "point": 5354,
  "\u0120symmet": 5355,
  "\u0120vegetables": 5356,
  "\u0120discovered": 5357,
  "\u0120Water": 5358,
  "\u0120alcohol": 5359,
  "\u0120employing": 5360,
  "+\\": 5361,
  "\u0120holding": 5362,
  "employment": 5363,
  "\u0120component": 5364,
  "\u0120classes": 5365,
  "\u0120recognize": 5366,
  "\u0120variations": 5367,
  "\u0120lifestyle": 5368,
  "asting": 5369,
  "\u0120observe": 5370,
  "\u0120incorporate": 5371,
  "\u0120applicable": 5372,
  "\u0120Sw": 5373,
  "\u0120candid": 5374,
  "\u0120preser": 5375,
  "\u0120Aut": 5376,
  "\u0120reputable": 5377,
  "\u0120implementing": 5378,
  "\u0120ou": 5379,
  "\u0120isol": 5380,
  "\u0120intr": 5381,
  "\u0120inequality": 5382,
  "\u0120functionality": 5383,
  "AT": 5384,
  "\u0120tension": 5385,
  "\u0120wall": 5386,
  "\u0120advantage": 5387,
  "\u0120therm": 5388,
  "\u0120privacy": 5389,
  "\u0120formal": 5390,
  "\u0120perp": 5391,
  "\u0120Business": 5392,
  "\u0120request": 5393,
  "\u0120Gl": 5394,
  "\u0120Sol": 5395,
  "\u0120Requ": 5396,
  "\u0120Prot": 5397,
  "\u0120combined": 5398,
  "\u0120alle": 5399,
  "\u0120videos": 5400,
  "\u0120certif": 5401,
  "\u0120appe": 5402,
  "\u0120considered": 5403,
  "\u0120plane": 5404,
  "\u0120sports": 5405,
  "\u0120record": 5406,
  "\u0120Build": 5407,
  "College": 5408,
  "\u0120realistic": 5409,
  "\\_{": 5410,
  "arithm": 5411,
  "On": 5412,
  "ography": 5413,
  "\u0120whose": 5414,
  "\u0120organized": 5415,
  "Ar": 5416,
  "\u0120pick": 5417,
  "\u0120figures": 5418,
  "\u0120Real": 5419,
  "\u0120thin": 5420,
  "\u0120sex": 5421,
  "AR": 5422,
  "\u0120America": 5423,
  "?\"": 5424,
  "\u0120lemon": 5425,
  "\u0120identified": 5426,
  "\u0120dialogue": 5427,
  "\u0120selling": 5428,
  "Comp": 5429,
  "OS": 5430,
  "39": 5431,
  "\u0120constraints": 5432,
  "\u0120Multiply": 5433,
  "\u0120motivation": 5434,
  "elta": 5435,
  "appro": 5436,
  "\u0120decide": 5437,
  "rust": 5438,
  "\u0120amazing": 5439,
  "\u0120monitor": 5440,
  "coming": 5441,
  "\u0120employees": 5442,
  "\u0120hom": 5443,
  "ighter": 5444,
  "expected": 5445,
  "\u0120Custom": 5446,
  "\u0120notes": 5447,
  "\u0120configu": 5448,
  "\u0120accommod": 5449,
  "ND": 5450,
  "uss": 5451,
  "plit": 5452,
  "\u0120taken": 5453,
  "\u0120capture": 5454,
  "\u0120joy": 5455,
  "\u0120Saf": 5456,
  "\u0120trees": 5457,
  "\u0120Af": 5458,
  "\u0120preference": 5459,
  "\u0120contrast": 5460,
  "ieties": 5461,
  "\u0120bodies": 5462,
  "\u0120purposes": 5463,
  "\u0120protein": 5464,
  "Ab": 5465,
  "\u0120responsibility": 5466,
  "\u0120entrepreneur": 5467,
  "\u0120Know": 5468,
  "\u0120198": 5469,
  "\u0120administ": 5470,
  "\u0120suppor": 5471,
  "onomy": 5472,
  "De": 5473,
  "\u0120breaking": 5474,
  "\u0120minimal": 5475,
  "\u0120Max": 5476,
  "ption": 5477,
  "ux": 5478,
  "apping": 5479,
  "\u0120frameworks": 5480,
  "\u0120repe": 5481,
  "\u0120Obser": 5482,
  "\u0120paint": 5483,
  "\u0120Graph": 5484,
  "\u0120lasting": 5485,
  "\u0120boost": 5486,
  "\u0120meticul": 5487,
  "\u0120Building": 5488,
  "\u0120driving": 5489,
  "<<": 5490,
  "\u0120song": 5491,
  "\u0120qualities": 5492,
  "\u0120lic": 5493,
  "metic": 5494,
  "\u0120operating": 5495,
  "\u0120According": 5496,
  "ait": 5497,
  "ault": 5498,
  "\u0120blocks": 5499,
  "\u0120fine": 5500,
  "\u0120places": 5501,
  "\u0120diversity": 5502,
  "\u0120infin": 5503,
  "24": 5504,
  "\u0120Ro": 5505,
  "\u0120opinions": 5506,
  "\u0120answ": 5507,
  "\u0120lived": 5508,
  "\u0120qual": 5509,
  "\u0120Gradually": 5510,
  "\u0120od": 5511,
  "\u0120criteria": 5512,
  "\u0120ri": 5513,
  "\u0120looks": 5514,
  "\u0120gold": 5515,
  "ived": 5516,
  "\u0120alter": 5517,
  "\u0120Elect": 5518,
  "\u0120gratitude": 5519,
  "\u0120processing": 5520,
  "\u0120Sun": 5521,
  "\u0120datas": 5522,
  "free": 5523,
  "\u0120represented": 5524,
  "\u0120loose": 5525,
  "ompass": 5526,
  "\u0120AP": 5527,
  "ading": 5528,
  "\u0120trusted": 5529,
  "\u0120undersc": 5530,
  "\u0120subtle": 5531,
  "\u0120conflicts": 5532,
  "\u0120cognitive": 5533,
  "\u0120feels": 5534,
  "arsh": 5535,
  "\u0120fire": 5536,
  "\u0120formed": 5537,
  "\u0120Algebra": 5538,
  "ervation": 5539,
  "orrow": 5540,
  "\u0120incred": 5541,
  "\u0120\u0120\u0120\u0120\u0120": 5542,
  "ken": 5543,
  "\u0120economy": 5544,
  "\u0120guarant": 5545,
  "\u0120said": 5546,
  "\u0120unexpected": 5547,
  "\u0120specialized": 5548,
  "\u0120nearby": 5549,
  "\u0120Intern": 5550,
  "\u0120expressed": 5551,
  "\u0120Address": 5552,
  "iform": 5553,
  "\u0120doll": 5554,
  "\u0120sin": 5555,
  "log": 5556,
  "\u0120interesting": 5557,
  "\u0120geometric": 5558,
  "\u0120mathematics": 5559,
  "\u0120encompass": 5560,
  "\u0120password": 5561,
  "\u0120brief": 5562,
  "Our": 5563,
  "rat": 5564,
  "ention": 5565,
  "\u0120Expon": 5566,
  "\u0120master": 5567,
  "itig": 5568,
  "ultural": 5569,
  "ectiveness": 5570,
  "\u0120ethical": 5571,
  "\u0120Despite": 5572,
  "\u0120Consist": 5573,
  "ario": 5574,
  "\u0120expressing": 5575,
  "\u0120Jamie": 5576,
  "\u0120miles": 5577,
  "\u0120rise": 5578,
  "\u0120integral": 5579,
  "\u0120resolution": 5580,
  "ubl": 5581,
  "\u0120highlighting": 5582,
  "\u0120visible": 5583,
  "IiIi": 5584,
  "\u0120utilizing": 5585,
  "\u0120mob": 5586,
  "\u0120beliefs": 5587,
  "ulated": 5588,
  "\u0120Have": 5589,
  "\u0120measurement": 5590,
  "\u0120measuring": 5591,
  "\u0120dilig": 5592,
  "\u0120cold": 5593,
  "oin": 5594,
  "\u0120observed": 5595,
  "\u0120occasion": 5596,
  "\u0120Windows": 5597,
  "\u0120Support": 5598,
  "oman": 5599,
  "\u0120matrix": 5600,
  "arian": 5601,
  "\u0120Cour": 5602,
  "\u0120participate": 5603,
  "known": 5604,
  "gers": 5605,
  "\u0120mention": 5606,
  "Int": 5607,
  "\u0120Ul": 5608,
  "\u0120profit": 5609,
  "udden": 5610,
  "\u0120alone": 5611,
  "illed": 5612,
  "\u0120secre": 5613,
  "ran": 5614,
  "\u0120consists": 5615,
  "une": 5616,
  "ese": 5617,
  "\u0120treats": 5618,
  "Add": 5619,
  "\u0120jump": 5620,
  "\u0120mixed": 5621,
  "rolling": 5622,
  "\u0120profici": 5623,
  "aly": 5624,
  ")}": 5625,
  "\u0120report": 5626,
  "\u0120Data": 5627,
  "\u0120testing": 5628,
  "\u0120Vari": 5629,
  "\u0120rub": 5630,
  "\u0120dream": 5631,
  "ressions": 5632,
  "eries": 5633,
  "\u0120payment": 5634,
  "\u0120bacteria": 5635,
  "\u0120educational": 5636,
  "\u0120domin": 5637,
  "\u0120familiar": 5638,
  "idge": 5639,
  "\u0120soil": 5640,
  "\u0120voice": 5641,
  "\u0120viol": 5642,
  "num": 5643,
  "rics": 5644,
  "Choose": 5645,
  "\u0120acknowledging": 5646,
  "\u0120impacts": 5647,
  "\u0120bright": 5648,
  "\u0120Initi": 5649,
  "\u0120otherwise": 5650,
  "\u0120indicating": 5651,
  "\u0120reliable": 5652,
  "\u0120shifts": 5653,
  "\u0120reasons": 5654,
  "unte": 5655,
  "\u0120Store": 5656,
  "\u0120Settings": 5657,
  "\u0120spots": 5658,
  "\u0120news": 5659,
  "\u0120Penguin": 5660,
  "\u0120Explore": 5661,
  "\u0120objective": 5662,
  "\u0120meditation": 5663,
  "aign": 5664,
  "\u0120sod": 5665,
  "rict": 5666,
  "\u0120dish": 5667,
  "\u0120Net": 5668,
  "\u0120updates": 5669,
  "umptions": 5670,
  "\u0120beauty": 5671,
  "\u0120Back": 5672,
  "\u0120arti": 5673,
  "\u0120eating": 5674,
  "\u0120positively": 5675,
  "\u0120Pok\u00c3\u00a9mon": 5676,
  "\u0120notation": 5677,
  "\u0120mood": 5678,
  "\u0120Physics": 5679,
  "\u0120Such": 5680,
  "\u0120Yourself": 5681,
  "\u0120century": 5682,
  "\u0120Repeat": 5683,
  "\u0120alike": 5684,
  "\u0120site": 5685,
  "*}": 5686,
  "\u0120Apple": 5687,
  "\u0120syn": 5688,
  "\u0120copy": 5689,
  "tices": 5690,
  "\u0120interact": 5691,
  "lessly": 5692,
  "\u0120collection": 5693,
  "\u0120cauti": 5694,
  "\u0120spend": 5695,
  "\u0120fer": 5696,
  "Un": 5697,
  "Since": 5698,
  "\u0120utilize": 5699,
  "\u0120advancements": 5700,
  "\u0120dispar": 5701,
  "\u0120fruit": 5702,
  "\u0120attrac": 5703,
  "\u0120metal": 5704,
  "\u0120highlight": 5705,
  "\u0120Ne": 5706,
  "\u0120tal": 5707,
  "tition": 5708,
  "\u0120Pat": 5709,
  "versely": 5710,
  "\u0120minimum": 5711,
  "\u0120sharp": 5712,
  "\u0120Timmy": 5713,
  "\u0120buying": 5714,
  "\u0120breaks": 5715,
  "\u0120dro": 5716,
  "\u0120Cal": 5717,
  "\u0120regist": 5718,
  "unting": 5719,
  "atom": 5720,
  "\u0120_": 5721,
  "\u0120confidently": 5722,
  "\u0120adds": 5723,
  "\u0120Function": 5724,
  "\u0120eggs": 5725,
  "\u0120seam": 5726,
  "\u0120Process": 5727,
  "\u0120Embrace": 5728,
  "inent": 5729,
  "\u0120kids": 5730,
  "\u0120Enter": 5731,
  "\u0120earning": 5732,
  "\u0120Systems": 5733,
  "\u0120distractions": 5734,
  "\u0120wants": 5735,
  "\u0120Sally": 5736,
  "\u0120locate": 5737,
  "\u0120\u00e2\u012b": 5738,
  "\u0120shed": 5739,
  "\u0120Act": 5740,
  "\u0120alignment": 5741,
  "\u0120stages": 5742,
  "plicated": 5743,
  "\u0120Cho": 5744,
  "\u0120seconds": 5745,
  "orable": 5746,
  "priate": 5747,
  "\u0120hit": 5748,
  "Or": 5749,
  "\u0120Aim": 5750,
  "\u0120Many": 5751,
  "\u0120critic": 5752,
  "\u0120alternatives": 5753,
  "\u0120Assess": 5754,
  "Life": 5755,
  "\u0120aid": 5756,
  "\u0120advantages": 5757,
  "ava": 5758,
  "words": 5759,
  "\u0120guideline": 5760,
  "\u0120affecting": 5761,
  "\u0120minimizing": 5762,
  "\u0120transportation": 5763,
  "\u0120knowing": 5764,
  "\u0120seeds": 5765,
  "\u0120explicit": 5766,
  "\u0120barri": 5767,
  "\u0120wind": 5768,
  "\u0120DNA": 5769,
  "\u0120arm": 5770,
  "\u0120serving": 5771,
  "\u0120returns": 5772,
  "ffic": 5773,
  "\u0120container": 5774,
  "\u0120indicates": 5775,
  "\u0120creation": 5776,
  "\u0120listen": 5777,
  "\u0120studying": 5778,
  "\u0120comput": 5779,
  "\u0120baking": 5780,
  "ishes": 5781,
  "hesis": 5782,
  "\u0120II": 5783,
  "\u0120Most": 5784,
  "\u0120kindness": 5785,
  "Sub": 5786,
  "\u0120independent": 5787,
  "\u0120sounds": 5788,
  "\u0120fill": 5789,
  "\u0120comparing": 5790,
  "erate": 5791,
  "\u0120Hair": 5792,
  "\u0120interview": 5793,
  "hering": 5794,
  "matic": 5795,
  "\u0120women": 5796,
  "\u0120Cor": 5797,
  "\u0120picture": 5798,
  "\u0120lack": 5799,
  "\u0120Down": 5800,
  "ithmetic": 5801,
  "\u0120gender": 5802,
  "\u0120thoughtful": 5803,
  "\u0120persistence": 5804,
  "\u0120integer": 5805,
  "\u0120discom": 5806,
  "\u0120Number": 5807,
  "Use": 5808,
  "\u0120clothes": 5809,
  "\u0120differenti": 5810,
  "sitive": 5811,
  "\u0120dance": 5812,
  "\u0120ease": 5813,
  "\u0120craf": 5814,
  "\u0120availability": 5815,
  "\u0120proportional": 5816,
  "\u0120magnetic": 5817,
  "\u0120awareness": 5818,
  "\u0120Adding": 5819,
  "\u0120lat": 5820,
  "\u0120Change": 5821,
  "\u0120disrup": 5822,
  "\u0120calculated": 5823,
  "\u0120Basic": 5824,
  "\u0120Comb": 5825,
  "\u0120Mr": 5826,
  "\u0120Bet": 5827,
  "ula": 5828,
  "\u0120climate": 5829,
  "gra": 5830,
  "\u0120eight": 5831,
  "\u0120elev": 5832,
  "\u0120Animal": 5833,
  "\u0120injury": 5834,
  "overn": 5835,
  "iner": 5836,
  "\u0120mouth": 5837,
  "\u0120hope": 5838,
  "\u0120libr": 5839,
  "\u0120Microsoft": 5840,
  "\u0120currently": 5841,
  "lease": 5842,
  "\u0120discomfort": 5843,
  "rich": 5844,
  "\u0120operation": 5845,
  "\u0120chain": 5846,
  "\u0120baby": 5847,
  "\u0120ion": 5848,
  "\u0120depends": 5849,
  "\u0120contributions": 5850,
  "\u0120wave": 5851,
  "acking": 5852,
  "\u0120reviews": 5853,
  "\u0120flo": 5854,
  "dig": 5855,
  "Sim": 5856,
  "nam": 5857,
  "\u0120Account": 5858,
  "aur": 5859,
  "timate": 5860,
  "\u0120Ang": 5861,
  "\u0120pul": 5862,
  "ipe": 5863,
  "\u0120shift": 5864,
  "\u0120plot": 5865,
  "izations": 5866,
  "airs": 5867,
  "\u0120derived": 5868,
  "que": 5869,
  "\u0120plastic": 5870,
  "\u0120standing": 5871,
  "\u0120graphs": 5872,
  "\u0120variety": 5873,
  "\u0120entertain": 5874,
  "\u0120fixed": 5875,
  "\u0120sophisticated": 5876,
  "ye": 5877,
  "\u0120Numbers": 5878,
  "uctu": 5879,
  "\u0120forest": 5880,
  "\u0120populations": 5881,
  "\u0120scienti": 5882,
  "\u0120effectiveness": 5883,
  "\u0120spect": 5884,
  "rown": 5885,
  "oves": 5886,
  "\u0120Club": 5887,
  "\u0120seemingly": 5888,
  "\u0120observations": 5889,
  "\u00ce\u00b8": 5890,
  "\u0120Relations": 5891,
  "\u0120Example": 5892,
  "\u0120exists": 5893,
  "\u0120Listen": 5894,
  "\u0120expansion": 5895,
  "\u0120guess": 5896,
  "\u0120late": 5897,
  "\u0120adhe": 5898,
  "roid": 5899,
  "\u0120developments": 5900,
  "\u0120supplies": 5901,
  "\u0120compatibility": 5902,
  "\u0120lighting": 5903,
  "requ": 5904,
  "\u0120Whe": 5905,
  "\u0120outd": 5906,
  "\u0120concentration": 5907,
  "\">": 5908,
  "\u0120funds": 5909,
  "oyal": 5910,
  "\u0120ow": 5911,
  "\u0120Linear": 5912,
  "Gener": 5913,
  "\u0120axis": 5914,
  "\u0120smart": 5915,
  "\u0120achievements": 5916,
  "ulner": 5917,
  "\u0120cups": 5918,
  "zy": 5919,
  "\u0120Self": 5920,
  "\u0120preparation": 5921,
  "\u0120themes": 5922,
  "\u0120pun": 5923,
  "\u0120cong": 5924,
  "itoring": 5925,
  "\u0120facing": 5926,
  "body": 5927,
  "![": 5928,
  "ellec": 5929,
  "\u0120pal": 5930,
  "\u0120fashion": 5931,
  "vable": 5932,
  "\u0120facial": 5933,
  "....": 5934,
  "\u0120adventures": 5935,
  "\u0120substantial": 5936,
  "entials": 5937,
  "\u0120firms": 5938,
  "\u0120Coll": 5939,
  "Phone": 5940,
  "pha": 5941,
  "\u0120Having": 5942,
  "\u0120checking": 5943,
  "\u0120stars": 5944,
  "\u0120subtracting": 5945,
  "\u0120cues": 5946,
  "\u0120responsibilities": 5947,
  "\u0120Inf": 5948,
  "\u0120molecular": 5949,
  "\u0120Pric": 5950,
  "\u0120innovation": 5951,
  "\u0120Afric": 5952,
  "intercept": 5953,
  "\u0120entry": 5954,
  "\u0120Docum": 5955,
  "\u0120preventing": 5956,
  "\u0120assumptions": 5957,
  "\u0120Intro": 5958,
  "Another": 5959,
  "crip": 5960,
  "AP": 5961,
  "bl": 5962,
  "ana": 5963,
  "\u0120scrut": 5964,
  "\u0120removing": 5965,
  "\u0120Respect": 5966,
  "\u0120competitive": 5967,
  "zed": 5968,
  "iving": 5969,
  "\u0120magic": 5970,
  "orders": 5971,
  "\u0120combinations": 5972,
  "\u0120habit": 5973,
  "\u0120fem": 5974,
  "\u0120opening": 5975,
  "\u0120finger": 5976,
  "\u0120Think": 5977,
  "alled": 5978,
  "\u0120Space": 5979,
  "etary": 5980,
  "iance": 5981,
  "\u0120quiet": 5982,
  "\u0120Limit": 5983,
  "\u0120Pot": 5984,
  "\u0120Click": 5985,
  "\u0120revenue": 5986,
  "vert": 5987,
  "\u0120improvements": 5988,
  "\u0120triangles": 5989,
  "imming": 5990,
  "\u0120Treat": 5991,
  "\u0120tac": 5992,
  "uries": 5993,
  "\u0120Invest": 5994,
  "\u0120farm": 5995,
  "\u0120Mag": 5996,
  "\u0120suit": 5997,
  "\u0120safely": 5998,
  "\u0120convey": 5999,
  "\u0120regul": 6000,
  "\u0120math": 6001,
  "\u0120truly": 6002,
  "\u0120Techniques": 6003,
  "\u0120afford": 6004,
  "rete": 6005,
  "\u0120Ask": 6006,
  "\u0120developed": 6007,
  "\u0120came": 6008,
  "\u0120assist": 6009,
  "\u0120deliver": 6010,
  "ara": 6011,
  "etch": 6012,
  "\u0120circles": 6013,
  "\u0120floor": 6014,
  "\u0120predict": 6015,
  "\u0120Its": 6016,
  "\u0120Lay": 6017,
  "ulture": 6018,
  "MzMzMzMz": 6019,
  "\u0120ample": 6020,
  "\u0120Poly": 6021,
  "\u0120absorb": 6022,
  "\u0120fluctu": 6023,
  "date": 6024,
  "\u0120consumer": 6025,
  "\u0120peers": 6026,
  "\u0120visually": 6027,
  "\u0120May": 6028,
  "\u0120virtual": 6029,
  "\u0120Evaluate": 6030,
  "\u0120tell": 6031,
  "eled": 6032,
  "itter": 6033,
  "\u0120mistakes": 6034,
  "\u0120artif": 6035,
  "\u0120citiz": 6036,
  "\u0120bag": 6037,
  "\u0120demands": 6038,
  "Reg": 6039,
  "\u0120actually": 6040,
  "amin": 6041,
  "\u0120Hand": 6042,
  "\u0120completed": 6043,
  "\u0120toy": 6044,
  "sum": 6045,
  "roph": 6046,
  "\u0120organizational": 6047,
  "\u0120surv": 6048,
  "\u0120coordinate": 6049,
  "giene": 6050,
  "\u0120stable": 6051,
  "\u0120theme": 6052,
  "\u0120emerging": 6053,
  "\u0120national": 6054,
  "\u0120arms": 6055,
  "\u0120Reflect": 6056,
  "ilosoph": 6057,
  "\u0120stop": 6058,
  "\u0120ju": 6059,
  "\u0120charges": 6060,
  "\u0120salt": 6061,
  "\u0120rough": 6062,
  "agers": 6063,
  "\u00e2\u012a\u0134": 6064,
  "\u0120Draw": 6065,
  "DP": 6066,
  "\u0120Next": 6067,
  "Meet": 6068,
  "\u0120narrow": 6069,
  "\u0120tall": 6070,
  "\u0120structural": 6071,
  "\u0120School": 6072,
  "inse": 6073,
  "These": 6074,
  "\u0120divided": 6075,
  "\u0120speak": 6076,
  "stac": 6077,
  "\u0120waiting": 6078,
  "print": 6079,
  "Creating": 6080,
  "\u0120neck": 6081,
  "\u0120tests": 6082,
  "\u0120Being": 6083,
  "such": 6084,
  "\u0120Found": 6085,
  "\u0120equipped": 6086,
  "ooper": 6087,
  "\u0120promo": 6088,
  "\u0120recall": 6089,
  "\u0120poll": 6090,
  "\u0120Nor": 6091,
  "\u0120Energy": 6092,
  "uce": 6093,
  "\u0120craft": 6094,
  "\u0120versati": 6095,
  "VV": 6096,
  "\u0120Financial": 6097,
  "\u0120Mathema": 6098,
  "\u0120unless": 6099,
  "----------------------------------------": 6100,
  "\u0120enhanced": 6101,
  "ector": 6102,
  "\u0120outer": 6103,
  "\u0120bon": 6104,
  "\u0120nuanced": 6105,
  "\u0120eat": 6106,
  "\u0120manageable": 6107,
  "\u0120talk": 6108,
  "hest": 6109,
  "NTU": 6110,
  "\u0120Pres": 6111,
  "\u0120produced": 6112,
  "\u0120conflict": 6113,
  "\u0120negoti": 6114,
  "\u0120\u00c2": 6115,
  "\u0120stores": 6116,
  "uality": 6117,
  "\u0120tape": 6118,
  "key": 6119,
  "\u0120supports": 6120,
  "\u0120smoothly": 6121,
  "\u0120spent": 6122,
  "rie": 6123,
  "\u0120theorem": 6124,
  "uccess": 6125,
  "\u0120lengths": 6126,
  "\u0120Remove": 6127,
  "\u0120rad": 6128,
  "\u0120Br": 6129,
  "\u0120cm": 6130,
  "\u0120extended": 6131,
  "\u0120inequalities": 6132,
  "\u0120pricing": 6133,
  "\u0120scenario": 6134,
  "\u0120Interest": 6135,
  "gs": 6136,
  "$$\\": 6137,
  "ket": 6138,
  "\u0120humans": 6139,
  "\u0120rock": 6140,
  "\u0120dust": 6141,
  "\u0120gear": 6142,
  "\u0120expected": 6143,
  "\u0120amid": 6144,
  "\u0120curves": 6145,
  "\u0120curren": 6146,
  "\u0120campaign": 6147,
  "\u0120construction": 6148,
  "\u0120\u0120\u010d\u010a": 6149,
  "\u0120Cul": 6150,
  "\u0120mel": 6151,
  "\u0120unwanted": 6152,
  "Set": 6153,
  "Optional": 6154,
  "\u0120spirit": 6155,
  "eu": 6156,
  "\u0120197": 6157,
  "\u0120suff": 6158,
  "\u0120supportive": 6159,
  "orem": 6160,
  "\u0120deli": 6161,
  "\u0120vulner": 6162,
  "\u0120began": 6163,
  "estions": 6164,
  "---|": 6165,
  "irc": 6166,
  "uests": 6167,
  "\u0120birth": 6168,
  "\u0120squares": 6169,
  "\u0120Mix": 6170,
  "\u0120feat": 6171,
  "\u0120player": 6172,
  "\u0120constructive": 6173,
  "\u0120shel": 6174,
  "oses": 6175,
  "\u0120meal": 6176,
  "\u0120John": 6177,
  "ifting": 6178,
  "holders": 6179,
  "\u0120bags": 6180,
  "\u0120instances": 6181,
  "\u0120friendship": 6182,
  "\u0120signals": 6183,
  "enty": 6184,
  "\u0120Mar": 6185,
  "\u0120percentage": 6186,
  "\u0120stream": 6187,
  "\u0120combining": 6188,
  "\u0120duration": 6189,
  "}^": 6190,
  "angular": 6191,
  "\u0120Mean": 6192,
  "\u0120genetic": 6193,
  "\u0120History": 6194,
  "\u0120rewarding": 6195,
  "\u0120Sn": 6196,
  "\u0120Double": 6197,
  "\u0120insurance": 6198,
  "aint": 6199,
  "\u0120joining": 6200,
  "\u0120fees": 6201,
  "\u0120perce": 6202,
  "\u0120foreign": 6203,
  "\u0120iden": 6204,
  "long": 6205,
  "\u0120ende": 6206,
  "\u0120arri": 6207,
  "\u0120shown": 6208,
  "\u0120interrup": 6209,
  "fficients": 6210,
  "bre": 6211,
  "pace": 6212,
  "top": 6213,
  "\u0120Neg": 6214,
  "\u0120organic": 6215,
  "\u0120stead": 6216,
  "Figure": 6217,
  "urb": 6218,
  "\u0120played": 6219,
  "\u0120organisms": 6220,
  "\u0120strengthens": 6221,
  "\u0120Mem": 6222,
  "\u0120institutions": 6223,
  "\u0120Post": 6224,
  "\u0120park": 6225,
  "\u0120portion": 6226,
  "\u0120extreme": 6227,
  "\u0120Management": 6228,
  "gments": 6229,
  "\u0120replac": 6230,
  "\u0120archit": 6231,
  "ourse": 6232,
  "\u0120persistent": 6233,
  "90": 6234,
  "\u0120remind": 6235,
  "\u0120hous": 6236,
  "\u0120---": 6237,
  "ipl": 6238,
  "\u0120mobile": 6239,
  "*,": 6240,
  "23": 6241,
  "\u0120walls": 6242,
  "\u0120colon": 6243,
  "bar": 6244,
  "ellow": 6245,
  "\u0120prem": 6246,
  "\u0120cot": 6247,
  "ached": 6248,
  "ographic": 6249,
  "tract": 6250,
  "versi": 6251,
  "\u0120clar": 6252,
  "ilies": 6253,
  "However": 6254,
  "\u0120technological": 6255,
  "och": 6256,
  "\u0120catch": 6257,
  "ratulations": 6258,
  "icular": 6259,
  "\u0120Move": 6260,
  "uming": 6261,
  "\u0120Control": 6262,
  "\u0120Grow": 6263,
  "\u0120memories": 6264,
  "\u0120concise": 6265,
  "tionally": 6266,
  "\u0120momentum": 6267,
  "\u0120occup": 6268,
  "\u0120Pers": 6269,
  "\u0120scal": 6270,
  "\u0120Install": 6271,
  "\u0120Prom": 6272,
  "\u0120adj": 6273,
  "\u0120rewards": 6274,
  "\u0120Facebook": 6275,
  "erms": 6276,
  "\u0120distances": 6277,
  "\u0120turns": 6278,
  "\u0120Every": 6279,
  "\u0120contexts": 6280,
  "mark": 6281,
  "isp": 6282,
  "\u0120Navig": 6283,
  "\u0120stock": 6284,
  "solving": 6285,
  "\u0120transitions": 6286,
  "Delta": 6287,
  "\u0120ratios": 6288,
  "\u0120compound": 6289,
  "\u0120transformations": 6290,
  "\u0120membr": 6291,
  "\u0120leadership": 6292,
  "\u0120yog": 6293,
  "new": 6294,
  "lean": 6295,
  "\u0120federal": 6296,
  "\u0120obstac": 6297,
  "cement": 6298,
  "\u0120extend": 6299,
  "rench": 6300,
  "\u0120tight": 6301,
  "\u0120transpare": 6302,
  "\u0120willing": 6303,
  "Consider": 6304,
  "\u0120workers": 6305,
  "\u0120internet": 6306,
  "throp": 6307,
  "||": 6308,
  "\u0120Proble": 6309,
  "ette": 6310,
  "rome": 6311,
  "oted": 6312,
  "\u0120attach": 6313,
  "}.": 6314,
  "tra": 6315,
  "\u0120uniform": 6316,
  "\u0120band": 6317,
  "\u0120Impro": 6318,
  "\u0120tackle": 6319,
  "Calcul": 6320,
  "\u0120polynomials": 6321,
  "utter": 6322,
  "\u0120freed": 6323,
  "hav": 6324,
  "\u0120rh": 6325,
  "vision": 6326,
  "\u0120Tool": 6327,
  "\u0120iPhone": 6328,
  "\u0120rely": 6329,
  "\u0120staying": 6330,
  "enario": 6331,
  "\u0120framework": 6332,
  "\u0120participants": 6333,
  "\u0120rectangle": 6334,
  "Bec": 6335,
  "\u0120mitig": 6336,
  "undred": 6337,
  "\u0120wire": 6338,
  "\u0120Element": 6339,
  "\u0120principle": 6340,
  "osph": 6341,
  "\u0120wild": 6342,
  "\u0120credi": 6343,
  "\u0120Matter": 6344,
  "\u0120precision": 6345,
  "\u0120vent": 6346,
  "\u0120preserving": 6347,
  "\u0120appeal": 6348,
  "char": 6349,
  "col": 6350,
  "\u0120household": 6351,
  "\u0120Ret": 6352,
  "],": 6353,
  ")\",": 6354,
  "\u0120fant": 6355,
  "\u0120Together": 6356,
  "\u0120really": 6357,
  "antic": 6358,
  "\u0120sunlight": 6359,
  "\u0120damp": 6360,
  "\u0120magnit": 6361,
  "ley": 6362,
  "\u0120category": 6363,
  "\u0120recognition": 6364,
  "\u0120combination": 6365,
  "\u0120innovative": 6366,
  "Res": 6367,
  "Interactive": 6368,
  "\u0120Recognize": 6369,
  "onometric": 6370,
  "rK": 6371,
  "\u0120seen": 6372,
  "\u0120cookies": 6373,
  "\u0120Structure": 6374,
  "\u0120Bra": 6375,
  "\u0120poor": 6376,
  "ipping": 6377,
  "\u0120routines": 6378,
  "\u0120Divide": 6379,
  "\u0120harmful": 6380,
  "\u0120mere": 6381,
  "\u0120saw": 6382,
  "\u0120Suppose": 6383,
  "digit": 6384,
  "\u0120neutral": 6385,
  "\u0120describe": 6386,
  "\u0120Attend": 6387,
  "\u0120respectful": 6388,
  "fered": 6389,
  "\u0120placing": 6390,
  "\u0120technologies": 6391,
  "link": 6392,
  "Abstract": 6393,
  "\u0120Save": 6394,
  "\u0120pep": 6395,
  "points": 6396,
  "\u0120electrical": 6397,
  "\u0120healing": 6398,
  "tivities": 6399,
  "\u0120ranging": 6400,
  "\u0120attending": 6401,
  "endicular": 6402,
  "ipp": 6403,
  "\u0120Position": 6404,
  "Tr": 6405,
  "anning": 6406,
  "\u0120offered": 6407,
  "\u0120diseases": 6408,
  "wide": 6409,
  "\u0120intervals": 6410,
  "\u0120uncertain": 6411,
  "\u0120puzz": 6412,
  "ky": 6413,
  "Pre": 6414,
  "\u0120flavor": 6415,
  "\u0120respectively": 6416,
  "\u0120exponents": 6417,
  "\u0120outlined": 6418,
  "atural": 6419,
  "\u0120holds": 6420,
  "\u0120identical": 6421,
  "\u0120underp": 6422,
  "\u0120transformation": 6423,
  "AS": 6424,
  "\u0120Soft": 6425,
  "alse": 6426,
  ")**": 6427,
  "\u0120argue": 6428,
  "\u0120Second": 6429,
  "olved": 6430,
  "\u0120mode": 6431,
  "\u0120inflation": 6432,
  "\u0120tissue": 6433,
  "anting": 6434,
  "Ins": 6435,
  "\u0120walking": 6436,
  "\u0120lost": 6437,
  "\u0120integrity": 6438,
  "\u0120suits": 6439,
  "\u00e2\u0124\u0124": 6440,
  "\u0120aside": 6441,
  "\u0120inverse": 6442,
  "ellectual": 6443,
  "roec": 6444,
  "\u0120compute": 6445,
  "\u0120susp": 6446,
  "\u0120discussed": 6447,
  "\u0120towel": 6448,
  "\u0120stands": 6449,
  "\u0120Sum": 6450,
  "tile": 6451,
  "\u0120participating": 6452,
  ".**": 6453,
  "taining": 6454,
  "\u0120Dire": 6455,
  "\u0120corpor": 6456,
  "\u0120satisfied": 6457,
  "\u0120subtraction": 6458,
  "].": 6459,
  "\u0120industries": 6460,
  "\u0120noise": 6461,
  "\u0120mer": 6462,
  "\u0120nose": 6463,
  "\u0120powder": 6464,
  "\u0120worksh": 6465,
  "\u0120assets": 6466,
  "\u0120vast": 6467,
  "\u0120cautious": 6468,
  "\u0120TV": 6469,
  "\u0120member": 6470,
  "ried": 6471,
  "\u0120integers": 6472,
  "CT": 6473,
  "\u0120weaknesses": 6474,
  "hemistry": 6475,
  "\u0120explo": 6476,
  "\\)": 6477,
  "\u0120Break": 6478,
  "\u0120flowers": 6479,
  "gest": 6480,
  "uit": 6481,
  "niture": 6482,
  "\u0120Express": 6483,
  "\u0120immediate": 6484,
  "\u0120sam": 6485,
  "\u0120navigating": 6486,
  "\u0120Type": 6487,
  "\u0120tex": 6488,
  "\u0120coefficients": 6489,
  "\u0120delicate": 6490,
  "\u0120quar": 6491,
  "\u0120vision": 6492,
  "\u0120analytical": 6493,
  "\u0120error": 6494,
  "\u0120tast": 6495,
  "\u012090": 6496,
  "ino": 6497,
  "\u0120secret": 6498,
  "\u0120composition": 6499,
  "\u0120starts": 6500,
  "\u0120hydrogen": 6501,
  "\u0120designated": 6502,
  "\u0120refine": 6503,
  "\u0120teams": 6504,
  "ES": 6505,
  "most": 6506,
  "\u0120Star": 6507,
  "\u0120orient": 6508,
  "\u0120eventually": 6509,
  "\u0120producing": 6510,
  "\u0120Needed": 6511,
  "\u0120Cong": 6512,
  "udes": 6513,
  "\u0120Pop": 6514,
  "\u0120guests": 6515,
  "*.": 6516,
  "\u0120centered": 6517,
  "\u0120fewer": 6518,
  "lish": 6519,
  "\u0120Why": 6520,
  "\u0120chest": 6521,
  "\u0120liber": 6522,
  "\u0120pressing": 6523,
  "\u0120Rational": 6524,
  "enth": 6525,
  "\u0120My": 6526,
  "\u0120tick": 6527,
  "\u0120dirt": 6528,
  "\u0120bowl": 6529,
  "\u00c2\u00ae": 6530,
  "vironment": 6531,
  "\u0120bene": 6532,
  "\u0120hyper": 6533,
  "acing": 6534,
  "feren": 6535,
  "\u0120affected": 6536,
  "uth": 6537,
  "\u0120bath": 6538,
  "otyp": 6539,
  "\u0120&=": 6540,
  "\u0120investing": 6541,
  "\u0120gaps": 6542,
  "\u01202018": 6543,
  "\u0120deal": 6544,
  "\u0120engaged": 6545,
  "lam": 6546,
  "\u0120got": 6547,
  "\u0120Observe": 6548,
  "\u0120delivery": 6549,
  "\u0120recovery": 6550,
  "\u0120conversion": 6551,
  "\u0120radius": 6552,
  "\u0120marked": 6553,
  "attle": 6554,
  "allow": 6555,
  "\u0120Enjoy": 6556,
  "\u0120overwhelming": 6557,
  "\u0120Met": 6558,
  "\u0120beneficial": 6559,
  "\u0120highlights": 6560,
  "\u0120Det": 6561,
  "\u0120simplify": 6562,
  "\u0120contro": 6563,
  "\u0120Whether": 6564,
  "\u0120introduced": 6565,
  "\u0120adap": 6566,
  "Start": 6567,
  "backs": 6568,
  "\u0120chick": 6569,
  "\u0120imper": 6570,
  "\u0120sold": 6571,
  "\u0120jus": 6572,
  "\u0120Clear": 6573,
  "\u0120letter": 6574,
  "Solve": 6575,
  "\u0120lips": 6576,
  "\u0120Applying": 6577,
  "acies": 6578,
  "\u0120rac": 6579,
  "venues": 6580,
  "}$.": 6581,
  "\u0120exclusive": 6582,
  "\u0120butter": 6583,
  "OU": 6584,
  "\u0120prove": 6585,
  "\u0120numerator": 6586,
  "\u0120notable": 6587,
  "\u0120embark": 6588,
  "\u0120suggests": 6589,
  "\u0120blog": 6590,
  "\u0120demonstrating": 6591,
  "\u0120million": 6592,
  "\u0120polar": 6593,
  "lets": 6594,
  "\u0120electronic": 6595,
  "\u0120targeted": 6596,
  "Select": 6597,
  "\u0120turning": 6598,
  "tex": 6599,
  "\u0120restrictions": 6600,
  "\u0120acting": 6601,
  "\u0120Dr": 6602,
  "ietal": 6603,
  "BC": 6604,
  "ament": 6605,
  "\u0120segment": 6606,
  "anks": 6607,
  "\u0120mixture": 6608,
  "\u0120sustainable": 6609,
  "working": 6610,
  "mo": 6611,
  "\u0120investigations": 6612,
  "onal": 6613,
  "\u01202017": 6614,
  "ED": 6615,
  "\u0120employed": 6616,
  "\u0120watch": 6617,
  "\u0120modeling": 6618,
  "\u0120engineering": 6619,
  "\u0120coefficient": 6620,
  "\u0120regulation": 6621,
  "\u0120summar": 6622,
  "\u0120algorithms": 6623,
  "rows": 6624,
  "\u0120amidst": 6625,
  "inting": 6626,
  "\u0120Ultimately": 6627,
  "\u0120devi": 6628,
  "\u0120Theorem": 6629,
  "cient": 6630,
  "\u0120collective": 6631,
  "\u0120posture": 6632,
  "\u0120calls": 6633,
  "\u0120matches": 6634,
  "\u0120Refrain": 6635,
  "\u0120painting": 6636,
  "\u0120therapy": 6637,
  "\u0120Profession": 6638,
  "\u0120Title": 6639,
  "\u0120Bec": 6640,
  "\u0120hero": 6641,
  "ancies": 6642,
  "},": 6643,
  "umps": 6644,
  "\u0120intensity": 6645,
  "\u0120Level": 6646,
  "Divide": 6647,
  "\u0120passion": 6648,
  "\u0120entirely": 6649,
  "\u0120index": 6650,
  "while": 6651,
  "\u0120clicking": 6652,
  "\u0120complicated": 6653,
  "}(": 6654,
  "\u0120finish": 6655,
  "\u0120treatments": 6656,
  "rest": 6657,
  "emble": 6658,
  "\u0120consumers": 6659,
  "\u0120Theory": 6660,
  "\u0120race": 6661,
  "cepts": 6662,
  "\u00e2\u0124\u0123": 6663,
  "\u0120installation": 6664,
  "\"\"": 6665,
  "\u0120decrease": 6666,
  "\u0120Body": 6667,
  "\u0120Under": 6668,
  "\u0120clubs": 6669,
  "opes": 6670,
  "\u0120fat": 6671,
  "\u0120Home": 6672,
  "\u0120employment": 6673,
  "\u0120beneath": 6674,
  "\u0120manual": 6675,
  "\u0120grade": 6676,
  "\u0120grasp": 6677,
  "era": 6678,
  "\u0120subjects": 6679,
  "\u0120corresponds": 6680,
  "})": 6681,
  "\u0120Leg": 6682,
  "\u0120took": 6683,
  "\u0120lights": 6684,
  "\u0120keeps": 6685,
  "\u0120Phot": 6686,
  "\u0120allowed": 6687,
  "\u0120advances": 6688,
  "\u0120vehicle": 6689,
  "\u0120enthusias": 6690,
  "\u0120asym": 6691,
  "\u0120excit": 6692,
  "ney": 6693,
  "tify": 6694,
  "\u0120cater": 6695,
  "sional": 6696,
  "\u0120courses": 6697,
  "\u0120Necessary": 6698,
  "\u0120traffic": 6699,
  "aph": 6700,
  "\u0120coordinates": 6701,
  "\u0120societal": 6702,
  "\u0120monitoring": 6703,
  "\u0120arrangements": 6704,
  "\u0120savings": 6705,
  "lock": 6706,
  "\u0120sat": 6707,
  "\u0120emphasizing": 6708,
  "\u0120letters": 6709,
  "{(": 6710,
  "\u0120aims": 6711,
  "\u0120circular": 6712,
  "ocking": 6713,
  "\u0120garden": 6714,
  "\u0120Helps": 6715,
  "\u0120utility": 6716,
  "\u0120acts": 6717,
  "\u0120attract": 6718,
  "Determine": 6719,
  "\u0120equally": 6720,
  "havior": 6721,
  "\u0120eliminate": 6722,
  "\u0120obstacles": 6723,
  "\u0120nic": 6724,
  "\u0120Sign": 6725,
  "\u0120workshops": 6726,
  "\u0120lean": 6727,
  "agram": 6728,
  "tors": 6729,
  "\u0120incon": 6730,
  "\u0120defining": 6731,
  "\u0120Help": 6732,
  "\u0120openly": 6733,
  "\u0120Confirm": 6734,
  "\u0120acids": 6735,
  "\u0120cultures": 6736,
  "\u0120believe": 6737,
  "ai": 6738,
  "\u0120Online": 6739,
  "\u0120asser": 6740,
  "\u0120combine": 6741,
  "\u0120\u0120\u0120\u0120\u0120\u0120\u0120\u0120\u0120\u0120\u0120\u0120\u0120\u0120\u0120\u0120": 6742,
  "rs": 6743,
  "\u0120Information": 6744,
  "\u0120suggestions": 6745,
  "tious": 6746,
  "\u0120Master": 6747,
  "\u0120citizens": 6748,
  "\u0120civil": 6749,
  "\u0120browser": 6750,
  "\u0120scientists": 6751,
  "fl": 6752,
  "\u0120reflects": 6753,
  "\u0120tun": 6754,
  "\u0120pencil": 6755,
  "\u0120circul": 6756,
  "\u0120realized": 6757,
  "\u0120(\\": 6758,
  "\u0120disp": 6759,
  "orize": 6760,
  "\u0120hundred": 6761,
  "\u0120cultivate": 6762,
  "\u0120Liber": 6763,
  "theless": 6764,
  "\u0120National": 6765,
  "house": 6766,
  "\u0120experimental": 6767,
  "\u0120movie": 6768,
  "\u0120establishing": 6769,
  "\u0120Balance": 6770,
  "string": 6771,
  "net": 6772,
  "\u0120Adv": 6773,
  "ushes": 6774,
  "uman": 6775,
  "water": 6776,
  "\u0120submit": 6777,
  "plify": 6778,
  "\u0120verify": 6779,
  "\u0120Che": 6780,
  "ief": 6781,
  "\u0120entering": 6782,
  "\u0120Define": 6783,
  "\u0120milest": 6784,
  "\u0120sites": 6785,
  "\u0120missing": 6786,
  "hyd": 6787,
  "iences": 6788,
  "\u0120protective": 6789,
  "\u0120algorithm": 6790,
  "\u0120flour": 6791,
  "dentifying": 6792,
  "\u0120preparing": 6793,
  "\u0120update": 6794,
  "\u0120Complete": 6795,
  "\u0120Document": 6796,
  "\u0120minor": 6797,
  "\u0120mission": 6798,
  "\u0120mentioned": 6799,
  "apes": 6800,
  "\u0120Communication": 6801,
  "\u0120bill": 6802,
  "\u0120outfit": 6803,
  "ongevity": 6804,
  "\u0120Spe": 6805,
  "\u0120pages": 6806,
  "\u0120harsh": 6807,
  "ister": 6808,
  "tains": 6809,
  "\u0120Value": 6810,
  "na": 6811,
  "\u0120density": 6812,
  "inded": 6813,
  "agues": 6814,
  "\u0120logarithm": 6815,
  "\u0120digit": 6816,
  "\u0120received": 6817,
  "ON": 6818,
  "64": 6819,
  "otor": 6820,
  "\u0120gau": 6821,
  "\u0120kit": 6822,
  "\u0120piv": 6823,
  "\u0120arguments": 6824,
  "\u0120universe": 6825,
  "Dec": 6826,
  "\u0120pizz": 6827,
  "\u0120featuring": 6828,
  "\u0120replace": 6829,
  "ka": 6830,
  "\u0120Rad": 6831,
  "\u0120Her": 6832,
  "()": 6833,
  "weight": 6834,
  "\u0120Cultivate": 6835,
  "\u0120begins": 6836,
  "\u0120friendships": 6837,
  "\u0120volunte": 6838,
  "cut": 6839,
  "\u0120quite": 6840,
  "png": 6841,
  "\u0120tooth": 6842,
  "\u0120gloves": 6843,
  "tire": 6844,
  "\u0120Period": 6845,
  "oly": 6846,
  "\u0120schools": 6847,
  "dx": 6848,
  "\u0120inventory": 6849,
  "\u0120longevity": 6850,
  "}=": 6851,
  "opy": 6852,
  "\u0120reflection": 6853,
  "\u0120Participate": 6854,
  "\u0120acceleration": 6855,
  "Per": 6856,
  "\u0120Air": 6857,
  "\u0120Success": 6858,
  "omestic": 6859,
  "\u012045": 6860,
  "ounters": 6861,
  "tage": 6862,
  "understand": 6863,
  "\u0120earn": 6864,
  "\u0120fitness": 6865,
  "\u0120helped": 6866,
  "\u0120Even": 6867,
  "\u0120Long": 6868,
  "ilitary": 6869,
  "Su": 6870,
  "\u0120labeled": 6871,
  "\u0120adhering": 6872,
  "\u0120mechanics": 6873,
  "anger": 6874,
  "\u0120argument": 6875,
  "\u0120visibility": 6876,
  "bb": 6877,
  "\u0120pull": 6878,
  "\u0120shopping": 6879,
  "\u0120lightly": 6880,
  "\u0120integrating": 6881,
  "antum": 6882,
  "\u0120English": 6883,
  "SE": 6884,
  "antly": 6885,
  "\u0120commonly": 6886,
  "\u0120payments": 6887,
  "\u0120morning": 6888,
  "idents": 6889,
  "\u0120Oper": 6890,
  "rig": 6891,
  "\u0120determination": 6892,
  "\u01202016": 6893,
  "\u0120taxes": 6894,
  "\u0120didn": 6895,
  "CA": 6896,
  "\u0120Word": 6897,
  "\u0120jobs": 6898,
  "\u0120landscape": 6899,
  "athe": 6900,
  "\u0120severe": 6901,
  "\u0120Java": 6902,
  "range": 6903,
  "\u0120discourse": 6904,
  "PS": 6905,
  "\u0120maturity": 6906,
  "\u0120lip": 6907,
  "\u0120publ": 6908,
  "sis": 6909,
  "\u0120wealth": 6910,
  "\u0120credibility": 6911,
  "\u0120preserve": 6912,
  "\u0120perpendicular": 6913,
  "\u0120denominators": 6914,
  "\u0120Dry": 6915,
  "\u0120Bo": 6916,
  "\u0120versus": 6917,
  "\u0120influencing": 6918,
  "kary": 6919,
  "\u0120Class": 6920,
  "flow": 6921,
  "\u0120updated": 6922,
  "--------------------------------------------": 6923,
  "\u0120Meas": 6924,
  "\u01202015": 6925,
  "\u0120participation": 6926,
  "artment": 6927,
  "\u0120People": 6928,
  "tivating": 6929,
  "\u0120marg": 6930,
  "plo": 6931,
  "\u0120embracing": 6932,
  "ailing": 6933,
  "\u0120Market": 6934,
  "regate": 6935,
  "\u0120marginal": 6936,
  "\u0120expanding": 6937,
  "\u0120dev": 6938,
  "\u0120leaders": 6939,
  "\u0120nutrients": 6940,
  "\u0120loyal": 6941,
  "\u0120compassion": 6942,
  "\u0120families": 6943,
  "\u0120Rule": 6944,
  "\u0120possibilities": 6945,
  "\u0120modifications": 6946,
  "\u0120His": 6947,
  "\u0120correl": 6948,
  "\u0120debris": 6949,
  "\u0120Da": 6950,
  "\u0120excitement": 6951,
  "\u0120bol": 6952,
  "\u0120held": 6953,
  "titute": 6954,
  "\u0120rotation": 6955,
  "\u0120fingers": 6956,
  "\u0120wearing": 6957,
  "\u0120indeed": 6958,
  "\u0120shares": 6959,
  "Eng": 6960,
  "(\"": 6961,
  "\u0120aligns": 6962,
  "\u0120forth": 6963,
  "Despite": 6964,
  "irts": 6965,
  "\u0120boxes": 6966,
  "\u0120sequences": 6967,
  ",'": 6968,
  "ML": 6969,
  "\u0120layout": 6970,
  "\u0120strict": 6971,
  "\u0120decl": 6972,
  "\u0120firmly": 6973,
  "fortable": 6974,
  "\u0120tracking": 6975,
  "\u0120alt": 6976,
  "\u0120cooper": 6977,
  "\u0120inten": 6978,
  "ogene": 6979,
  "\u0120complexities": 6980,
  "\u0120brings": 6981,
  "ewel": 6982,
  "\u0120determined": 6983,
  "rical": 6984,
  "\u0120ca": 6985,
  "\u0120cars": 6986,
  "\u0120saying": 6987,
  "\u0120coins": 6988,
  "\u0120happen": 6989,
  "\u0120upward": 6990,
  "\u0120Cri": 6991,
  "\u0120chance": 6992,
  "titative": 6993,
  "\u0120Area": 6994,
  "\u0120trick": 6995,
  "\u0120appoint": 6996,
  "\u0120burn": 6997,
  "\u0120directions": 6998,
  "From": 6999,
  "\u0120memorable": 7000,
  "\u0120meets": 7001,
  "\u0120influences": 7002,
  "\u0120timel": 7003,
  "\u0120provider": 7004,
  "\u0120battery": 7005,
  "\u0120optimize": 7006,
  "Generate": 7007,
  "fun": 7008,
  "\u0120borrow": 7009,
  "\u0120hygiene": 7010,
  "\u0120sudden": 7011,
  "\u0120haz": 7012,
  "\u0120editing": 7013,
  "\u0120vit": 7014,
  "osystem": 7015,
  "\u012080": 7016,
  "\u0120interface": 7017,
  "\u0120debt": 7018,
  "[^": 7019,
  "\u0120dogs": 7020,
  "vb": 7021,
  "\u0120Learning": 7022,
  "\u0120weap": 7023,
  "alax": 7024,
  "\u0120facilitating": 7025,
  "\u0120iron": 7026,
  "\u0120Approach": 7027,
  "\u0120pets": 7028,
  "\u0120answers": 7029,
  "\u0120audio": 7030,
  "tian": 7031,
  "ethe": 7032,
  "\u0120democ": 7033,
  "Tube": 7034,
  "\u0120Educ": 7035,
  "acent": 7036,
  "\u0120cas": 7037,
  "\u0120considerations": 7038,
  "\u0120ham": 7039,
  "\u0120Nevertheless": 7040,
  "\u0120rapidly": 7041,
  "unt": 7042,
  "\u0120presented": 7043,
  "plies": 7044,
  "\u0120vibrant": 7045,
  "\u0120parabol": 7046,
  "\u0120artificial": 7047,
  "\u0120radiation": 7048,
  "\u0120solar": 7049,
  "\u0120intervention": 7050,
  "\u0120loop": 7051,
  "vec": 7052,
  "\u0120enthusiasm": 7053,
  "\u0120arithmetic": 7054,
  "^{-": 7055,
  "\u0120El": 7056,
  "oding": 7057,
  "\u0120meticulously": 7058,
  "\u0120horse": 7059,
  "\u0120underpinning": 7060,
  "\u0120evaluation": 7061,
  "\u0120religious": 7062,
  "\u0120Communicate": 7063,
  "rist": 7064,
  "\u0120fluctuations": 7065,
  "28": 7066,
  "\u0120symbols": 7067,
  "\u0120felt": 7068,
  "\u0120reass": 7069,
  "tally": 7070,
  "\u0120Conversely": 7071,
  "\u0120chat": 7072,
  "\u0120explored": 7073,
  "\u0120Govern": 7074,
  "ev": 7075,
  "\u0120Section": 7076,
  "OR": 7077,
  "\u0120paid": 7078,
  "\u0120Chall": 7079,
  "\u0120presentation": 7080,
  "\u0120Future": 7081,
  "\u01202019": 7082,
  "\u0120uncover": 7083,
  "\u0120asked": 7084,
  "\u0120ecosystem": 7085,
  "\u0120furniture": 7086,
  "\u0120magnitude": 7087,
  "\u0120diligently": 7088,
  "Lastly": 7089,
  "\u0120Collabor": 7090,
  "\u0120hear": 7091,
  "\u0120judgment": 7092,
  "\u0120disag": 7093,
  "\u0120completion": 7094,
  "\u0120Measure": 7095,
  "\u0120mild": 7096,
  "\u0120rom": 7097,
  "\u0120doc": 7098,
  "\u0120saving": 7099,
  "\u0120gaming": 7100,
  "\u0120worldwide": 7101,
  "\u0120knew": 7102,
  "\u0120screw": 7103,
  "\u0120articles": 7104,
  "\u0120negatively": 7105,
  "\u0120brown": 7106,
  "\u0120strive": 7107,
  "\u0120Discuss": 7108,
  "\u0120charged": 7109,
  "oub": 7110,
  "\u0120column": 7111,
  "\u0120incredible": 7112,
  "\u0120appealing": 7113,
  "\u0120seven": 7114,
  "ashes": 7115,
  "\u0120drying": 7116,
  "\u0120Strategies": 7117,
  "\u0120City": 7118,
  "\u0120obtained": 7119,
  "cling": 7120,
  "}=\\": 7121,
  "\u0120numerical": 7122,
  "\u0120territ": 7123,
  "\u0120generated": 7124,
  "\u0120immune": 7125,
  "org": 7126,
  "\u0120accep": 7127,
  "\u0120constitu": 7128,
  "$)": 7129,
  "\u0120discrep": 7130,
  "ban": 7131,
  "eles": 7132,
  "arent": 7133,
  "\u0120largest": 7134,
  "style": 7135,
  "itate": 7136,
  "cean": 7137,
  "fol": 7138,
  "\u0120Model": 7139,
  "\u0120intu": 7140,
  "cribe": 7141,
  "\u0120symmetry": 7142,
  "\u0120Trade": 7143,
  "\u0120intim": 7144,
  "\u0120regulatory": 7145,
  "oxide": 7146,
  "\u0120marks": 7147,
  "\u0120reveals": 7148,
  "\u0120placed": 7149,
  "\u0120proposed": 7150,
  "\u0120Stre": 7151,
  "ste": 7152,
  "\u0120fa": 7153,
  "\u0120Scenario": 7154,
  "\u0120formulas": 7155,
  "\u0120Dress": 7156,
  "\u0120therefore": 7157,
  "\u0120Matters": 7158,
  "ffee": 7159,
  "\u0120==": 7160,
  "\u0120sweet": 7161,
  "\u0120fo": 7162,
  "\u0120affects": 7163,
  "\u0120gravity": 7164,
  "\u0120Environment": 7165,
  "\u0120specified": 7166,
  "\u0120older": 7167,
  "\u0120compounds": 7168,
  "ercise": 7169,
  "\u0120differently": 7170,
  "Solving": 7171,
  "\u0120signal": 7172,
  "\u0120hypothes": 7173,
  "\u0120cub": 7174,
  "\u0120schedules": 7175,
  "IN": 7176,
  "\u0120interested": 7177,
  "\u0120segments": 7178,
  "\u0120refining": 7179,
  "\u0120went": 7180,
  "\u0120Accounting": 7181,
  "ticed": 7182,
  "used": 7183,
  "\u0120corners": 7184,
  "\u0120triggers": 7185,
  "\u0120personalized": 7186,
  "\u0120Connect": 7187,
  "\u0120Analyze": 7188,
  "\u0120cotton": 7189,
  "fidence": 7190,
  "70": 7191,
  "mic": 7192,
  "\u0120promp": 7193,
  "\u0120emerged": 7194,
  "AD": 7195,
  "\u0120intense": 7196,
  "add": 7197,
  "\u0120Effective": 7198,
  "phone": 7199,
  "minded": 7200,
  "\u0120map": 7201,
  "adow": 7202,
  "tification": 7203,
  "Given": 7204,
  "\u0120stake": 7205,
  "\u0120decay": 7206,
  "\u0120rare": 7207,
  "\u0120phenomenon": 7208,
  "\u0120teachers": 7209,
  "\u0120extrac": 7210,
  "\u0120fro": 7211,
  "rought": 7212,
  "Thus": 7213,
  "apan": 7214,
  "\u0120fantastic": 7215,
  "\u0120Girl": 7216,
  "\u0120receiving": 7217,
  "\u0120authenticity": 7218,
  "\u0120classic": 7219,
  "cious": 7220,
  "\u0120mindfulness": 7221,
  "\u0120partial": 7222,
  "\u0120washing": 7223,
  "turing": 7224,
  "\u0120react": 7225,
  "ured": 7226,
  "\u0120Journ": 7227,
  "\u0120stem": 7228,
  "\u0120Positive": 7229,
  "\u0120colleagues": 7230,
  "AC": 7231,
  "\u0120criticism": 7232,
  "\u0120bone": 7233,
  "\u0120Light": 7234,
  "\u0120Name": 7235,
  "\u0120recur": 7236,
  "\u0120shades": 7237,
  "\u0120nutrition": 7238,
  "\u0120architect": 7239,
  "\u0120tom": 7240,
  "olar": 7241,
  "\u0120nuances": 7242,
  "ergies": 7243,
  "\u0120freedom": 7244,
  "gl": 7245,
  "{{": 7246,
  "\u0120Growth": 7247,
  "\u0120embrace": 7248,
  "position": 7249,
  "ascular": 7250,
  "\u0120Super": 7251,
  "oster": 7252,
  "\u0120panel": 7253,
  "\")": 7254,
  "td": 7255,
  "\u0120filter": 7256,
  "\u0120speech": 7257,
  "omb": 7258,
  "\u0120transactions": 7259,
  "\u0120iP": 7260,
  "unning": 7261,
  "\u0120seems": 7262,
  "\u0120loves": 7263,
  "Therefore": 7264,
  "erb": 7265,
  "rary": 7266,
  "&=": 7267,
  "etheless": 7268,
  "\u0120pit": 7269,
  "inner": 7270,
  "anches": 7271,
  "\u0120familiarize": 7272,
  "\u0120geometry": 7273,
  "\u0120lens": 7274,
  "Finding": 7275,
  "\u0120interpretation": 7276,
  "\u0120vill": 7277,
  "Thought": 7278,
  "suit": 7279,
  "ship": 7280,
  "\u0120teach": 7281,
  "ronic": 7282,
  "\u0120fuel": 7283,
  "\u0120wet": 7284,
  "\u0120infection": 7285,
  "\u0120office": 7286,
  "\u0120switch": 7287,
  "\u0120profound": 7288,
  "eding": 7289,
  "\u0120enfor": 7290,
  "36": 7291,
  "\u0120nails": 7292,
  "\u0120manif": 7293,
  "\u0120YouTube": 7294,
  "\u0120talking": 7295,
  "rot": 7296,
  "aneous": 7297,
  "\u0120horizontally": 7298,
  "\u0120Goals": 7299,
  "\u0120reasoning": 7300,
  "\u0120accomp": 7301,
  "\u0120Food": 7302,
  "\u0120Small": 7303,
  "\u0120lemonade": 7304,
  "imensional": 7305,
  "Wor": 7306,
  "\u0120norms": 7307,
  "ferent": 7308,
  "\u0120noticed": 7309,
  "\u0120crafting": 7310,
  "\u0120Us": 7311,
  "\u0120widely": 7312,
  "\u0120Professional": 7313,
  "Recent": 7314,
  "\u0120Incre": 7315,
  "\u0120Germ": 7316,
  "\u0120securely": 7317,
  "\u0120chemistry": 7318,
  "night": 7319,
  "\u0120Har": 7320,
  "structions": 7321,
  "\u0120door": 7322,
  "\u0120Given": 7323,
  "\u0120Lesson": 7324,
  "\u0120stored": 7325,
  "\u0120Polynomial": 7326,
  "\u0120Figure": 7327,
  "\\*": 7328,
  "32": 7329,
  "HE": 7330,
  "\u0120barriers": 7331,
  "ht": 7332,
  "\u0120Join": 7333,
  "\u0120revealing": 7334,
  "\u0120exh": 7335,
  "osses": 7336,
  "\u0120flavors": 7337,
  "\u0120enjoying": 7338,
  "Which": 7339,
  "\u0120copies": 7340,
  "\u0120Sal": 7341,
  "ewelry": 7342,
  "\u0120Preparation": 7343,
  "\u0120datab": 7344,
  "}}{": 7345,
  "plays": 7346,
  "\u0120Solving": 7347,
  "\u0120thr": 7348,
  "\u0120relatively": 7349,
  "\u0120pig": 7350,
  "\u0120tele": 7351,
  "\u0120described": 7352,
  "\u0120tactics": 7353,
  "\u0120conv": 7354,
  "emb": 7355,
  "\u0120physi": 7356,
  "\u0120annual": 7357,
  "Identify": 7358,
  "\u0120included": 7359,
  "direct": 7360,
  "\u0120planet": 7361,
  "\u0120Character": 7362,
  "\u0120worked": 7363,
  "\u0120happened": 7364,
  "acting": 7365,
  "\u0120designing": 7366,
  "\u0120shade": 7367,
  "\u0120intellectual": 7368,
  "\u0120posts": 7369,
  "\u0120Color": 7370,
  "\u0120steady": 7371,
  "\u0120couns": 7372,
  "\u0120yellow": 7373,
  "related": 7374,
  "Your": 7375,
  "\u0120observing": 7376,
  "\u0120Study": 7377,
  "\u0120bus": 7378,
  "\u0120train": 7379,
  "\u0120compet": 7380,
  "\u0120entities": 7381,
  "Where": 7382,
  "ectors": 7383,
  "\u0120adjusting": 7384,
  "\u0120arrive": 7385,
  "\u0120adver": 7386,
  "\u0120coat": 7387,
  "Def": 7388,
  "\u0120attempt": 7389,
  "\u0120gam": 7390,
  "\u0120fol": 7391,
  "\u0120observation": 7392,
  "atoes": 7393,
  "\u0120demonstrated": 7394,
  "\u0120debate": 7395,
  "ln": 7396,
  "Cong": 7397,
  "ml": 7398,
  "romag": 7399,
  "\u0120estimate": 7400,
  "otient": 7401,
  "\u0120Day": 7402,
  "oe": 7403,
  "\u0120threats": 7404,
  "\u0120independence": 7405,
  "\u0120aligned": 7406,
  "ission": 7407,
  "LE": 7408,
  "\u0120suppose": 7409,
  "\u0120plate": 7410,
  "\u0120trip": 7411,
  "\u0120evolving": 7412,
  "\u0120practition": 7413,
  "ceal": 7414,
  "**.": 7415,
  "\u0120measured": 7416,
  "\u0120road": 7417,
  "tish": 7418,
  "\u0120Clearly": 7419,
  "\u0120passions": 7420,
  "\u0120dishes": 7421,
  "cont": 7422,
  "hemical": 7423,
  "Expl": 7424,
  "\u0120bind": 7425,
  "Acc": 7426,
  "\u0120domains": 7427,
  "35": 7428,
  "\u0120grace": 7429,
  "\u0120Advent": 7430,
  "\u0120vectors": 7431,
  "ID": 7432,
  "\u0120Upon": 7433,
  "\u0120Black": 7434,
  "ocolate": 7435,
  "Trans": 7436,
  "\u0120Fore": 7437,
  "\u0120Trig": 7438,
  "\u0120generating": 7439,
  "\u0120library": 7440,
  "\u0120raise": 7441,
  "\u0120chrom": 7442,
  "\u0120suggesting": 7443,
  "\u0120bad": 7444,
  "igration": 7445,
  "\u0120tempor": 7446,
  "iration": 7447,
  "\u0120trou": 7448,
  "Dis": 7449,
  "\u0120Rev": 7450,
  "\u0120sac": 7451,
  "\u0120ple": 7452,
  "\u0120conduct": 7453,
  "\u0120Group": 7454,
  "veness": 7455,
  "level": 7456,
  "\u0120allevi": 7457,
  "\u0120raised": 7458,
  "disc": 7459,
  "qqqqqqqq": 7460,
  "ashing": 7461,
  "\u0120harmony": 7462,
  "\u0120unemployment": 7463,
  "\u0120cher": 7464,
  "\u0120bases": 7465,
  "\u0120intake": 7466,
  "\u0120controlling": 7467,
  "\u0120derivatives": 7468,
  "\u0120raw": 7469,
  "\u0120neighbor": 7470,
  "\u0120frust": 7471,
  "\u0120towels": 7472,
  "\u0120yoga": 7473,
  "\u0120passing": 7474,
  "\u0120vertex": 7475,
  "\u0120military": 7476,
  "worth": 7477,
  "\u0120celebrate": 7478,
  "haps": 7479,
  "ker": 7480,
  "\u0120Materials": 7481,
  "endit": 7482,
  "\u0120prime": 7483,
  "\u0120interior": 7484,
  "\u0120paths": 7485,
  "\u0120Cat": 7486,
  "\u0120wrong": 7487,
  "\u0120distingu": 7488,
  "\u0120teacher": 7489,
  "\u0120heavily": 7490,
  "\u0120repeated": 7491,
  "\u0120scene": 7492,
  "\u0120Demonst": 7493,
  "\u0120introducing": 7494,
  "pection": 7495,
  "dt": 7496,
  "\u0120Rate": 7497,
  "\u0120score": 7498,
  "\u0120parameters": 7499,
  "gn": 7500,
  "\u0120legis": 7501,
  "Alex": 7502,
  "\u0120doors": 7503,
  "\u0120death": 7504,
  "LS": 7505,
  "\u0120continues": 7506,
  "\u0120North": 7507,
  "sia": 7508,
  "\u0120milestones": 7509,
  "do": 7510,
  "\u0120heard": 7511,
  "\u0120induc": 7512,
  "\u0120Creating": 7513,
  "\u0120Manage": 7514,
  "\\[": 7515,
  "illi": 7516,
  "\u0120disciplines": 7517,
  "etit": 7518,
  "\u0120blend": 7519,
  "\u0120computing": 7520,
  "\u0120King": 7521,
  "ulf": 7522,
  "\u0120expert": 7523,
  "\u0120Employ": 7524,
  "\u0120Final": 7525,
  "\u0120Gently": 7526,
  "\u0120combat": 7527,
  "\u0120...": 7528,
  "\u0120enem": 7529,
  "\u0120constitutes": 7530,
  "Ind": 7531,
  "\u0120highest": 7532,
  "\u0120interpre": 7533,
  "ideo": 7534,
  "\u0120flexible": 7535,
  "\u0120reinforce": 7536,
  "\u0120controversi": 7537,
  "\u0120Fill": 7538,
  "\u0120thing": 7539,
  "\u0120unknown": 7540,
  "500": 7541,
  "\u0120checks": 7542,
  "bor": 7543,
  "orter": 7544,
  "\u0120percep": 7545,
  "atomy": 7546,
  "\u0120ours": 7547,
  "\u0120sought": 7548,
  "\u0120Writing": 7549,
  "\u0120La": 7550,
  "\u0120purchases": 7551,
  "\u0120integrals": 7552,
  "RL": 7553,
  "\u01202014": 7554,
  "\u0120milk": 7555,
  "\u0120codes": 7556,
  "\u0120rew": 7557,
  "asy": 7558,
  "++": 7559,
  "\u0120setup": 7560,
  "\u0120attempts": 7561,
  "\u0120compelling": 7562,
  "\u0120perfectly": 7563,
  "\u0120Complex": 7564,
  "irable": 7565,
  "\u0120initiatives": 7566,
  "\u0120graphing": 7567,
  "using": 7568,
  "uler": 7569,
  "\u0120International": 7570,
  "\u0120South": 7571,
  "ellular": 7572,
  "27": 7573,
  "pirations": 7574,
  "\u0120Factors": 7575,
  "\u0120Cr": 7576,
  "\u0120calculation": 7577,
  "\u0120inconsist": 7578,
  "Sp": 7579,
  "\u0120disapp": 7580,
  "\u0120aesthetic": 7581,
  "\u0120Liberty": 7582,
  "\u0120Japan": 7583,
  "wo": 7584,
  "uli": 7585,
  "\u0120Bar": 7586,
  "\u0120differ": 7587,
  "\u0120progressive": 7588,
  "\u0120repeat": 7589,
  "\u0120serious": 7590,
  "\u0120BC": 7591,
  "\u0120Applications": 7592,
  "\u0120candidates": 7593,
  "\u0120reflecting": 7594,
  "Over": 7595,
  "ometric": 7596,
  "ece": 7597,
  "\u0120philosoph": 7598,
  "\u0120vertically": 7599,
  "Algebra": 7600,
  "ued": 7601,
  "\u0120gall": 7602,
  "nes": 7603,
  "ervous": 7604,
  "\u0120Choosing": 7605,
  "urch": 7606,
  "\u0120meters": 7607,
  "\u0120regional": 7608,
  "\u0120crow": 7609,
  "\u0120hairst": 7610,
  "\u0120GDP": 7611,
  "\u0120feas": 7612,
  "\u0120biological": 7613,
  "othe": 7614,
  "\u0120chicken": 7615,
  "\u0120mentors": 7616,
  "CO": 7617,
  "\u0120bit": 7618,
  "\u0120banks": 7619,
  "\u0120linked": 7620,
  "mat": 7621,
  "\u0120pin": 7622,
  "\u0120inch": 7623,
  "\u0120Style": 7624,
  "\u0120radio": 7625,
  "\u0120diver": 7626,
  "\u0120branches": 7627,
  "\u0120Navigate": 7628,
  "\u0120adults": 7629,
  "\u0120ox": 7630,
  "\u0120coming": 7631,
  "\u0120faces": 7632,
  "\u0120misunderstand": 7633,
  "\u0120mal": 7634,
  "eros": 7635,
  "sub": 7636,
  "ercial": 7637,
  "erves": 7638,
  "\u0120apple": 7639,
  "TP": 7640,
  "sm": 7641,
  "boxed": 7642,
  "\u0120monthly": 7643,
  "\u0120folder": 7644,
  "\u0120mount": 7645,
  "\u0120shell": 7646,
  "chie": 7647,
  "\u0120surpr": 7648,
  "\u0120authority": 7649,
  "abil": 7650,
  "/>": 7651,
  "\u0120installed": 7652,
  "----------------------------------": 7653,
  "\u0120Emo": 7654,
  "\u0120gained": 7655,
  "even": 7656,
  "\u0120mul": 7657,
  "Materials": 7658,
  "\u0120spray": 7659,
  "\u0120commercial": 7660,
  "\u0120emphasize": 7661,
  "\u0120Vir": 7662,
  "\u0120load": 7663,
  "\u0120movies": 7664,
  "\u0120temporary": 7665,
  "ncy": 7666,
  "\u0120gram": 7667,
  "\u0120Stat": 7668,
  "\u0120Del": 7669,
  "\u0120identification": 7670,
  "\u0120nuclear": 7671,
  "\u0120perceived": 7672,
  "\u0120CO": 7673,
  "\u0120Options": 7674,
  "\u0120secrets": 7675,
  "________": 7676,
  "\u0120thous": 7677,
  "\u0120experiencing": 7678,
  "\u0120oblig": 7679,
  "\u0120Module": 7680,
  "\u0120Carefully": 7681,
  "\u0120staff": 7682,
  "\u0120Adop": 7683,
  "\u0120documentation": 7684,
  "eted": 7685,
  "\u0120attacks": 7686,
  "\u0120Rest": 7687,
  "\u0120deciding": 7688,
  "\u0120improves": 7689,
  "Through": 7690,
  "\u0120Physical": 7691,
  "65": 7692,
  "\u0120grains": 7693,
  "\u0120Visit": 7694,
  "\u0120adjacent": 7695,
  "\u0120bub": 7696,
  "\u0120summer": 7697,
  "\u0120visiting": 7698,
  "\u0120membrane": 7699,
  "ocy": 7700,
  "Graph": 7701,
  "mates": 7702,
  "\u0120Recent": 7703,
  "\u0120gathering": 7704,
  "\u0120Application": 7705,
  "tistic": 7706,
  "\u0120discrepancies": 7707,
  "\u0120gauge": 7708,
  "\u0120watching": 7709,
  "New": 7710,
  "\u0120automatically": 7711,
  "\":": 7712,
  "\u0120gro": 7713,
  "erious": 7714,
  "\u0120nit": 7715,
  "\u0120definitions": 7716,
  "\u0120signifies": 7717,
  "apers": 7718,
  "eta": 7719,
  "odynam": 7720,
  "fits": 7721,
  "\u0120Pati": 7722,
  "\u0120quantitative": 7723,
  "\u0120coping": 7724,
  "\u0120drawn": 7725,
  "Real": 7726,
  "umber": 7727,
  "\u0120Rout": 7728,
  "\u0120rain": 7729,
  "\u0120About": 7730,
  "\u0120resist": 7731,
  "\u0120blank": 7732,
  "CH": 7733,
  "\u0120Cut": 7734,
  "\u0120covering": 7735,
  "\u0120actionable": 7736,
  "\u0120obtaining": 7737,
  "\u0120prolong": 7738,
  "aining": 7739,
  "\u0120targets": 7740,
  "\u0120Display": 7741,
  "\u0120rib": 7742,
  "\u0120finance": 7743,
  "\u0120Math": 7744,
  "\u0120uncom": 7745,
  "\u0120pil": 7746,
  "\u0120sheet": 7747,
  "\u0120ap": 7748,
  "inegar": 7749,
  "gement": 7750,
  "\u0120nail": 7751,
  "\u0120Hyd": 7752,
  ".\u00e2\u0122\u013f": 7753,
  "fac": 7754,
  "Name": 7755,
  "\u0120prominent": 7756,
  "ppy": 7757,
  "\u0120divis": 7758,
  "\u0120HT": 7759,
  "\u0120weigh": 7760,
  "\u0120Product": 7761,
  "\u0120investments": 7762,
  "sue": 7763,
  "\u0120rush": 7764,
  "iscal": 7765,
  "gal": 7766,
  "\u0128\u0134": 7767,
  "cluding": 7768,
  "dimensional": 7769,
  "\u0120ownership": 7770,
  "structure": 7771,
  "\u0120bottle": 7772,
  "mathrm": 7773,
  "\u0120loan": 7774,
  "friendly": 7775,
  "\u0120Marketing": 7776,
  "\u0120French": 7777,
  "\u0120Cy": 7778,
  "\u0120comments": 7779,
  "\u0120Americans": 7780,
  "\u0120balls": 7781,
  "\u0120Within": 7782,
  "\u0120Bri": 7783,
  "\u0120Chris": 7784,
  "\u0120emerge": 7785,
  "\u0120generation": 7786,
  "\u0120Points": 7787,
  "\u0120Happiness": 7788,
  "\u0120Strong": 7789,
  "\u0120metabol": 7790,
  "\u0120Sometimes": 7791,
  "\u0120discovery": 7792,
  "\u0120coffee": 7793,
  "cons": 7794,
  "\u0120fram": 7795,
  "\u0120textures": 7796,
  "\u0120Nonetheless": 7797,
  "\u0120swimming": 7798,
  "\u0120encounters": 7799,
  "\u0120reputation": 7800,
  "heses": 7801,
  "iation": 7802,
  "\u0120versions": 7803,
  "\u0120180": 7804,
  "jective": 7805,
  "\u0120clin": 7806,
  "ierarch": 7807,
  "\u0120placement": 7808,
  "\u0120practitioners": 7809,
  "zym": 7810,
  "\u0120European": 7811,
  "\u0120binomial": 7812,
  "\u0120glue": 7813,
  "\u0120computational": 7814,
  "\u0120filling": 7815,
  "\u0120Ess": 7816,
  "\u0120chemicals": 7817,
  "\u0120substances": 7818,
  "Congratulations": 7819,
  "\u0120ions": 7820,
  "\u0120execution": 7821,
  "\u0120Notably": 7822,
  "\u0120Price": 7823,
  "\u0120shoulders": 7824,
  "\u0120reaches": 7825,
  "\u0120wikiHow": 7826,
  "\u0120closed": 7827,
  "\u0120Behavior": 7828,
  "fty": 7829,
  "\u0120deadlines": 7830,
  "\u0120tells": 7831,
  "\u0120genuinely": 7832,
  "\u0120lighter": 7833,
  "\u0120diges": 7834,
  "\u0120pool": 7835,
  "\u0120simpler": 7836,
  "\u0120paying": 7837,
  "\u0120Appropriate": 7838,
  "\u0120weekly": 7839,
  "\u0120intricacies": 7840,
  "\u0120conventions": 7841,
  "\u0120brands": 7842,
  "\u0120repeti": 7843,
  "ameter": 7844,
  "\u0120carrying": 7845,
  "amount": 7846,
  "RO": 7847,
  "\u0120stro": 7848,
  "\u0120Continu": 7849,
  "\u0120reality": 7850,
  "\u0120aspirations": 7851,
  "\u0120birds": 7852,
  "\u0120congru": 7853,
  "gence": 7854,
  "\u0120Import": 7855,
  "\u0120oils": 7856,
  "\u0120Hy": 7857,
  "\u0120manipulation": 7858,
  "\u0120interplay": 7859,
  "ype": 7860,
  "\u0120advoc": 7861,
  "\u0120dru": 7862,
  "\u0120factoring": 7863,
  "\u0120:": 7864,
  "lections": 7865,
  "\u0120failure": 7866,
  "\u0120ped": 7867,
  "\u0120knows": 7868,
  "\u0120neu": 7869,
  "Equ": 7870,
  "\u0120centers": 7871,
  "\u0120compromise": 7872,
  "\u0120adopting": 7873,
  "CD": 7874,
  "\u0120clients": 7875,
  "\u0120eleg": 7876,
  "\u0120metrics": 7877,
  "\u0120pressures": 7878,
  "\u0120converting": 7879,
  "\u0120Lastly": 7880,
  "\u0120proportions": 7881,
  "\u0120searching": 7882,
  "\u0120Sym": 7883,
  "izer": 7884,
  "\u0120voltage": 7885,
  "\u0120wis": 7886,
  "\u0120cohe": 7887,
  "\u0120accommodate": 7888,
  "\u0120attractive": 7889,
  "\u0120Fire": 7890,
  "\u0120configurations": 7891,
  "\u0120yours": 7892,
  "\u0120providers": 7893,
  "\u0120king": 7894,
  "\u0120ly": 7895,
  "\u0120collected": 7896,
  "\u0120proficiency": 7897,
  "0000": 7898,
  "\u0120profits": 7899,
  "anch": 7900,
  "\u0120extending": 7901,
  "terior": 7902,
  "\u0120ranges": 7903,
  "\u0120proportion": 7904,
  "\u0120domestic": 7905,
  "\u0120Wi": 7906,
  "\u0120discipline": 7907,
  "\u0120endeavors": 7908,
  "67": 7909,
  "pling": 7910,
  "\u0120electro": 7911,
  "\u0120necessitating": 7912,
  "da": 7913,
  "\u0120windows": 7914,
  "icating": 7915,
  "\u0120drag": 7916,
  "\u0120Properties": 7917,
  "\u0120ancient": 7918,
  "\u0120session": 7919,
  "icine": 7920,
  "\u0120minute": 7921,
  "\u0120attributes": 7922,
  "\u0120famous": 7923,
  "\u0120finished": 7924,
  "\u0120Android": 7925,
  "\u0120subtract": 7926,
  "\u0120inh": 7927,
  "\u0120orientation": 7928,
  "63": 7929,
  "\u0120outline": 7930,
  "mas": 7931,
  "\u0120basket": 7932,
  "Par": 7933,
  "onometry": 7934,
  "mediate": 7935,
  "\u0120excep": 7936,
  "\u0120agree": 7937,
  "}$,": 7938,
  "\u0120lift": 7939,
  "\u0120spo": 7940,
  "\u0120relying": 7941,
  "organ": 7942,
  "\u0120adm": 7943,
  "rimination": 7944,
  "\u0120periodically": 7945,
  "\u0120split": 7946,
  "\u0120secondary": 7947,
  "\u0120contract": 7948,
  "\u0120depos": 7949,
  "\u0120confusion": 7950,
  "\u0120hinder": 7951,
  "\u0120Excel": 7952,
  "\u0120Active": 7953,
  "\u0120achieved": 7954,
  "\u0120pursuing": 7955,
  "het": 7956,
  "\u0120compr": 7957,
  "\u0120identities": 7958,
  "\u0120retail": 7959,
  "---|---|": 7960,
  "\u01202020": 7961,
  "\u0120cleans": 7962,
  "\u0120controls": 7963,
  "\u0120unlike": 7964,
  "Develop": 7965,
  "\u0120assume": 7966,
  "hero": 7967,
  "\u0120ID": 7968,
  "\u0120attached": 7969,
  "\u0120distribute": 7970,
  "\u0120upwards": 7971,
  "\u0120command": 7972,
  "\u0120elastic": 7973,
  "\u0120agreement": 7974,
  "\u0120Game": 7975,
  "obe": 7976,
  "\u0120rows": 7977,
  "oved": 7978,
  "\u0120Secure": 7979,
  "Organ": 7980,
  "\u0120pounds": 7981,
  "\u0120competit": 7982,
  "\u0120opens": 7983,
  "\u0120delves": 7984,
  "\u0120cuts": 7985,
  "storm": 7986,
  "\u0120finally": 7987,
  "\u0120Gen": 7988,
  "\u0120Hold": 7989,
  "\u0120meat": 7990,
  "\u0120achievable": 7991,
  "\u0120entertainment": 7992,
  ")-": 7993,
  "\u0120investors": 7994,
  "tiqu": 7995,
  "\u0120counting": 7996,
  "\u0120protecting": 7997,
  "\u0120removal": 7998,
  "\u0120hormon": 7999,
  "\u0120permission": 8000,
  "anes": 8001,
  "abel": 8002,
  "\u0120Locate": 8003,
  "anguages": 8004,
  "\u0120Only": 8005,
  "\u0120dimin": 8006,
  "isk": 8007,
  "\u0120neither": 8008,
  "\u0120cloud": 8009,
  "\u0120brought": 8010,
  "\u0120File": 8011,
  "\u0120jewelry": 8012,
  "\u0120outdoor": 8013,
  "\u0120particle": 8014,
  "}_{": 8015,
  "\u0120Respon": 8016,
  "rability": 8017,
  "\u0120Terms": 8018,
  "\u0120injuries": 8019,
  "\u0120artists": 8020,
  "oning": 8021,
  "issions": 8022,
  "ateral": 8023,
  "\u0120Following": 8024,
  "ented": 8025,
  "gent": 8026,
  "\u0120bread": 8027,
  "\u0120Indeed": 8028,
  "\u0120Among": 8029,
  "\u0120plenty": 8030,
  "ommy": 8031,
  "\u0120Between": 8032,
  "\u0120containers": 8033,
  "\u0120although": 8034,
  "illa": 8035,
  "\u0120warmth": 8036,
  "98": 8037,
  "\u0120accomplishments": 8038,
  "\u0120basics": 8039,
  "opol": 8040,
  "\u0120exceed": 8041,
  "ressing": 8042,
  "lows": 8043,
  "ears": 8044,
  "cription": 8045,
  "\u0120statistics": 8046,
  "\u0120soda": 8047,
  "\u0120Equation": 8048,
  "\u0120inspire": 8049,
  ")]": 8050,
  "\u0120sort": 8051,
  "\u0120generations": 8052,
  "\u0120rig": 8053,
  "\u0120rent": 8054,
  "\u0120holes": 8055,
  "NS": 8056,
  "Clean": 8057,
  "\u0120recipe": 8058,
  "\u0120claims": 8059,
  "ials": 8060,
  "\u0120interacting": 8061,
  "\u0120empty": 8062,
  "\u0120rating": 8063,
  "edge": 8064,
  "\u0120Changes": 8065,
  "\u0120God": 8066,
  "\u0120knees": 8067,
  "\u0120sky": 8068,
  "\u0120mechanical": 8069,
  "\u0120usern": 8070,
  "\u0120experts": 8071,
  "\u0120gains": 8072,
  "Setting": 8073,
  "\u0120sensitivity": 8074,
  "\u0120reduction": 8075,
  "$:": 8076,
  "orrect": 8077,
  "\u0120societies": 8078,
  "\u0120Tem": 8079,
  "\u0120wonderful": 8080,
  "\u0120send": 8081,
  "ping": 8082,
  "\u0120adaptability": 8083,
  "\u0120physically": 8084,
  "\u0120digits": 8085,
  "\u0120runs": 8086,
  "\u0120bird": 8087,
  "plied": 8088,
  "\u0120styl": 8089,
  "aware": 8090,
  "\u0120adult": 8091,
  "\u0120facts": 8092,
  "\u0120veter": 8093,
  "\u0120Policy": 8094,
  "\u0120organizing": 8095,
  "\u0120Bel": 8096,
  ")*": 8097,
  "\u0120infinite": 8098,
  "ountered": 8099,
  "ordinate": 8100,
  "\u00ef\u00b8": 8101,
  "\u0120accompan": 8102,
  "\u0120positivity": 8103,
  "\u0120latest": 8104,
  "\u0120joint": 8105,
  "\u0120misunderstandings": 8106,
  "\u0120Potential": 8107,
  "Is": 8108,
  "}}\\": 8109,
  "ummy": 8110,
  "\u0120substitution": 8111,
  "idity": 8112,
  "\u0120pizza": 8113,
  "\u0120teen": 8114,
  "\u0120shop": 8115,
  "\u0120repair": 8116,
  "\u0120focuses": 8117,
  "embly": 8118,
  "\u0120frag": 8119,
  "\u0120default": 8120,
  "\u0120Statis": 8121,
  "AAAAAAAAAAAAAAAAAAAAAAAAAAAAAAAA": 8122,
  "\u0120Wait": 8123,
  "ielding": 8124,
  "\u0120fra": 8125,
  "\u0120perman": 8126,
  "\u0120adherence": 8127,
  "\u0120stic": 8128,
  "\u0120encountered": 8129,
  "ticing": 8130,
  "\u0120conservation": 8131,
  "\u0120scar": 8132,
  "versal": 8133,
  "\u0120homes": 8134,
  "\u0120agents": 8135,
  "\u0120wisely": 8136,
  "\u0120capturing": 8137,
  "parts": 8138,
  "\u0120Organize": 8139,
  "33": 8140,
  "\u0120Ideally": 8141,
  "\u0120ram": 8142,
  "\u0120discount": 8143,
  "\u0120transparency": 8144,
  "IV": 8145,
  "\u0120collecting": 8146,
  "\u0120teeth": 8147,
  "\u0120representations": 8148,
  "\u0120sexual": 8149,
  "rational": 8150,
  "\u0120York": 8151,
  "\u0120Activity": 8152,
  "which": 8153,
  "\u0120rapport": 8154,
  "\u0120hydro": 8155,
  "\u0120industrial": 8156,
  "cell": 8157,
  "\u0120film": 8158,
  "\u0120cleaner": 8159,
  "ohns": 8160,
  "\u0120distributions": 8161,
  "oroughly": 8162,
  "\u0120earnings": 8163,
  "}_": 8164,
  "vit": 8165,
  "\u0120British": 8166,
  "\u0120Pursuit": 8167,
  "\u0120radical": 8168,
  ")$,": 8169,
  "inetic": 8170,
  "\u0120rhyth": 8171,
  "\u0120scales": 8172,
  "\u0120Media": 8173,
  "\u0120expensive": 8174,
  "\u0120peak": 8175,
  "\u0120sy": 8176,
  "\u0120modify": 8177,
  "\u0120attack": 8178,
  "\u0120reliability": 8179,
  "Care": 8180,
  "\u0120ven": 8181,
  "oops": 8182,
  "\u0120quantum": 8183,
  "\u01202013": 8184,
  "rehe": 8185,
  "iff": 8186,
  "\u0120trigonometric": 8187,
  "\u0120Compare": 8188,
  "\u0120warrant": 8189,
  "\u0120healthier": 8190,
  "\u0120ourselves": 8191,
  "PT": 8192,
  "\u0120dx": 8193,
  "----------": 8194,
  "\u0120bacterial": 8195,
  "ricular": 8196,
  "estures": 8197,
  "\u0120Aud": 8198,
  "\u0120procedure": 8199,
  "\u0120Continue": 8200,
  "\u0120Cre": 8201,
  "ooting": 8202,
  "wear": 8203,
  "\u0120pivotal": 8204,
  "09": 8205,
  "\u0120renew": 8206,
  "\u0120couple": 8207,
  "SS": 8208,
  "\u0120Conclusion": 8209,
  "\u0120Ques": 8210,
  "vance": 8211,
  "\u0120controlled": 8212,
  "\u0120accessibility": 8213,
  "\u0120hes": 8214,
  "\u0120elucidate": 8215,
  "vas": 8216,
  "idation": 8217,
  "epl": 8218,
  "\u0120knife": 8219,
  "\u0120caution": 8220,
  "\u0120moistur": 8221,
  "\u0120era": 8222,
  "\u0120atomic": 8223,
  "\u0120descriptions": 8224,
  "rots": 8225,
  "\u0120PC": 8226,
  "\u0120loans": 8227,
  "\u0120Explain": 8228,
  "\u0120falls": 8229,
  "\u0120dear": 8230,
  "\u0120recording": 8231,
  "\u0120Speak": 8232,
  "\u0120oven": 8233,
  "\u0120remark": 8234,
  "\u0120implies": 8235,
  "\u012021": 8236,
  "\u0120equality": 8237,
  "\u0120biases": 8238,
  "\u0120wit": 8239,
  "\u0120paramount": 8240,
  "othing": 8241,
  "\u0120sqrt": 8242,
  "aught": 8243,
  "see": 8244,
  "ynthesis": 8245,
  "\u0120construct": 8246,
  "\u0120electricity": 8247,
  "\u0120harness": 8248,
  "infty": 8249,
  "\u0120Language": 8250,
  "\u0120employee": 8251,
  "wood": 8252,
  "\u0120Age": 8253,
  "\u0120slices": 8254,
  "\u0120Recall": 8255,
  "\u0120pushing": 8256,
  "fulness": 8257,
  "\u0120agric": 8258,
  ")$.": 8259,
  "ordination": 8260,
  "\u0120cryst": 8261,
  "\u0120atten": 8262,
  "\u0120earth": 8263,
  "Begin": 8264,
  "\u0120templ": 8265,
  "\u0120gift": 8266,
  "\u0120fi": 8267,
  "\u0120reports": 8268,
  "\u0120sea": 8269,
  "Fi": 8270,
  "Keep": 8271,
  "Prep": 8272,
  "\u0120lots": 8273,
  "\u0120exac": 8274,
  "\u0120court": 8275,
  "OT": 8276,
  "ensation": 8277,
  "estern": 8278,
  "\u0120meetings": 8279,
  "\u0120niche": 8280,
  "\u0120audiences": 8281,
  "egu": 8282,
  "\u0120\u00e2\u012b\u012a": 8283,
  "arrow": 8284,
  "sec": 8285,
  "\u0120reciproc": 8286,
  "\u0120explicitly": 8287,
  "ticians": 8288,
  "\u0120URL": 8289,
  "ello": 8290,
  "\u0120YOU": 8291,
  "\u0120currency": 8292,
  "\u0120exacerb": 8293,
  "\u0120scre": 8294,
  "\u0120entries": 8295,
  "\u0120Download": 8296,
  "\u0120motor": 8297,
  "irrel": 8298,
  "\u0120Calculate": 8299,
  "\u0120profiles": 8300,
  "riction": 8301,
  "\u0120displac": 8302,
  "\u0120implementation": 8303,
  "\u0120denote": 8304,
  "\u0120removed": 8305,
  "\u0120nation": 8306,
  "\u0120Ent": 8307,
  "\u0120links": 8308,
  "\u01202021": 8309,
  "Have": 8310,
  "\u0120reporting": 8311,
  "idesp": 8312,
  "liers": 8313,
  "\u0120Imp": 8314,
  "\u0120uncomfortable": 8315,
  "\u0120emails": 8316,
  "\u0120referred": 8317,
  "\u0120romantic": 8318,
  "\u0120hiding": 8319,
  "\u0120losing": 8320,
  "uum": 8321,
  "\u0120University": 8322,
  "\u0120difficulty": 8323,
  "\u0120songs": 8324,
  "\u0120contrac": 8325,
  ":_": 8326,
  "Ed": 8327,
  "\u0120flows": 8328,
  "\u0120guides": 8329,
  "\u0120intentions": 8330,
  "Ass": 8331,
  "\u0120lose": 8332,
  "\u0120counterparts": 8333,
  "idespread": 8334,
  "Table": 8335,
  "\u0120Poli": 8336,
  "\u0120displays": 8337,
  "\u0120lung": 8338,
  ")+": 8339,
  "\u0120Deb": 8340,
  "\u0120nuts": 8341,
  "\u0120label": 8342,
  "ohnson": 8343,
  "romagnetic": 8344,
  "\u0120tends": 8345,
  "------------------------------": 8346,
  "\u0120daunting": 8347,
  "\u0120mysterious": 8348,
  "Gra": 8349,
  "\u0120overly": 8350,
  "\u0120stuff": 8351,
  "\u0120shoulder": 8352,
  "\u0120pictures": 8353,
  "\u0120stretch": 8354,
  "redit": 8355,
  "\u0120fulfilling": 8356,
  "stim": 8357,
  "\u0120rectangular": 8358,
  "\u0120avenues": 8359,
  "\u0120bold": 8360,
  "\u0120Free": 8361,
  "\u0120perm": 8362,
  "\u0120Expressions": 8363,
  "\u0120Purch": 8364,
  "\u0120Maintaining": 8365,
  "\u0120allocation": 8366,
  "nic": 8367,
  "Place": 8368,
  "\u0120Cele": 8369,
  "\u0120raising": 8370,
  "verbal": 8371,
  "ardro": 8372,
  "onds": 8373,
  "\u0120releasing": 8374,
  "\u0120bedtime": 8375,
  "\u0120Card": 8376,
  "\u0120versatile": 8377,
  "\u0120verbal": 8378,
  "\u0120pace": 8379,
  "\u0120released": 8380,
  "\u0120Stick": 8381,
  "No": 8382,
  "oral": 8383,
  "\u0120ears": 8384,
  "\u0120hierarch": 8385,
  "\u0120sunny": 8386,
  "\u0120inputs": 8387,
  "\u0120alleviate": 8388,
  "\u0120languages": 8389,
  "\u0120concrete": 8390,
  "imeter": 8391,
  "\u0120widespread": 8392,
  "\u0120eyel": 8393,
  "\u0120fabrics": 8394,
  "\u0120mixing": 8395,
  "\u0120China": 8396,
  "\u0120Multiplying": 8397,
  "\u0120club": 8398,
  "\u0120tank": 8399,
  "\u0120chocolate": 8400,
  "\u0120presents": 8401,
  "\u0120surroundings": 8402,
  "\u0120conducive": 8403,
  "Work": 8404,
  "arks": 8405,
  "click": 8406,
  "\u0120dried": 8407,
  "\u0120Tou": 8408,
  "\u0120exch": 8409,
  "\u0120beforehand": 8410,
  "\u0120conventional": 8411,
  "lity": 8412,
  "\u0120cats": 8413,
  "\u0120colored": 8414,
  "\u0120disparities": 8415,
  "\u0120Div": 8416,
  "chen": 8417,
  "\u0120fats": 8418,
  "\u0120comprehe": 8419,
  "\u0120strain": 8420,
  "\u0120celebr": 8421,
  "Exp": 8422,
  "\u0120existence": 8423,
  "\u0120handy": 8424,
  "\u0120reverse": 8425,
  "\u0120calculating": 8426,
  "tons": 8427,
  "neg": 8428,
  "\u0120buildup": 8429,
  "More": 8430,
  "\u0120Ele": 8431,
  "\u0120arising": 8432,
  "\u0120separately": 8433,
  "\u0120differential": 8434,
  "\u0120conve": 8435,
  "Follow": 8436,
  "\u0120render": 8437,
  "\u0120vinegar": 8438,
  "\u0120compatible": 8439,
  "\u0120Eth": 8440,
  "ossible": 8441,
  "\u0120committed": 8442,
  "Skr": 8443,
  "ho": 8444,
  "jection": 8445,
  "\u012028": 8446,
  "\u0120Christ": 8447,
  "ested": 8448,
  "Man": 8449,
  "athered": 8450,
  "\u0120neighborhood": 8451,
  "\u0120Id": 8452,
  "\u0120independently": 8453,
  "\u0120manufacturing": 8454,
  "\u0120stakeholders": 8455,
  "\u0120cycles": 8456,
  "\u0120dict": 8457,
  "\u0120gestures": 8458,
  "tituting": 8459,
  "\u0120Verify": 8460,
  "\u0120loyalty": 8461,
  "\u0120bonding": 8462,
  "anas": 8463,
  "\u0120considerable": 8464,
  "\u0120feeding": 8465,
  "\u0120pose": 8466,
  "\u0120parentheses": 8467,
  "\u0120securing": 8468,
  "\u0120leader": 8469,
  "\u0120hardware": 8470,
  "avery": 8471,
  "\u0120vic": 8472,
  "\u0120bones": 8473,
  "\u0120struggle": 8474,
  "urturing": 8475,
  "\u0120managers": 8476,
  "\u0120shorter": 8477,
  "48": 8478,
  "\u0120revolution": 8479,
  "\u0120motions": 8480,
  "iday": 8481,
  "\u0120Activities": 8482,
  "\u0120treating": 8483,
  "\u0120Improve": 8484,
  "\u0120Exercise": 8485,
  "orporate": 8486,
  "\u0120mother": 8487,
  "\u0120classical": 8488,
  "\u0120Turn": 8489,
  "\u0120enrich": 8490,
  "\u0120exponent": 8491,
  "\u0120Tri": 8492,
  "ricks": 8493,
  "\u0120assessment": 8494,
  "yling": 8495,
  "\u0120Demand": 8496,
  "\u0120composed": 8497,
  "\u0120Network": 8498,
  "\u0120periodic": 8499,
  "\u0120dataset": 8500,
  "\u0120regression": 8501,
  "\u0120Meanwhile": 8502,
  "\u0120asp": 8503,
  "\u0120Square": 8504,
  "\u0120Of": 8505,
  "\u0120downward": 8506,
  "\u0120organize": 8507,
  "\u0120boy": 8508,
  "\u0120($\\": 8509,
  "\u0120plus": 8510,
  "issors": 8511,
  "posal": 8512,
  "\u0120camera": 8513,
  "wing": 8514,
  "\u0120datasets": 8515,
  "hesi": 8516,
  "can": 8517,
  "\u0120couldn": 8518,
  "\u0120Who": 8519,
  "etermining": 8520,
  "xic": 8521,
  "\u0120description": 8522,
  "\u0120'\u00f0\u0141": 8523,
  "\u0120determin": 8524,
  "\u0120facilitates": 8525,
  "\u0120Current": 8526,
  "\u0120scores": 8527,
  "\u0120vehicles": 8528,
  "\u0120displayed": 8529,
  "\u0120necessitates": 8530,
  "\u0120van": 8531,
  "confidence": 8532,
  "\u0120competing": 8533,
  "\u0120desire": 8534,
  "\u0120foundational": 8535,
  "\u0120saved": 8536,
  "\u0120wisdom": 8537,
  "\u0120kid": 8538,
  "\u0120happening": 8539,
  "urrent": 8540,
  "\u0120danger": 8541,
  "conn": 8542,
  "iratory": 8543,
  "\u0120Contact": 8544,
  "World": 8545,
  "\u0120tangent": 8546,
  "\u0120Sharing": 8547,
  "\u0120assessing": 8548,
  "\u0120pH": 8549,
  "Design": 8550,
  "\u0120chlor": 8551,
  "\u0120upcoming": 8552,
  "\u0120showcase": 8553,
  "\u0120machines": 8554,
  "\u012036": 8555,
  "\u0120molecule": 8556,
  "\u0120Lo": 8557,
  "\u0120ign": 8558,
  "\u0120spati": 8559,
  "\u0120overview": 8560,
  "zen": 8561,
  "aylor": 8562,
  "ague": 8563,
  "zon": 8564,
  "\u0120tub": 8565,
  "\u0120moral": 8566,
  "\u0120subsc": 8567,
  "\u0120Natural": 8568,
  "\u0120interpersonal": 8569,
  "Draw": 8570,
  "uits": 8571,
  "\u0120ast": 8572,
  "\u0120politics": 8573,
  "List": 8574,
  "\u0120Abs": 8575,
  "\u0120Enh": 8576,
  "\u0120Development": 8577,
  "\u0120scrutin": 8578,
  "\u0120builds": 8579,
  "\u0120positioning": 8580,
  "\u0120Thought": 8581,
  "\u0120infra": 8582,
  "isit": 8583,
  "value": 8584,
  "AM": 8585,
  "\u0120Cir": 8586,
  "\u0120rewrite": 8587,
  "\u0120thanks": 8588,
  "\u0120elig": 8589,
  "\u0120enjoyment": 8590,
  "\u0120$<<": 8591,
  "\u0120\u00f0\u0141": 8592,
  "ardrobe": 8593,
  "aters": 8594,
  "\u0120Ste": 8595,
  "\u0120indicators": 8596,
  ".$$": 8597,
  "img": 8598,
  "\u0120spin": 8599,
  "\u0120neat": 8600,
  "================================================": 8601,
  "\u0120Different": 8602,
  "IiIiIiIi": 8603,
  "\u0120Hor": 8604,
  "\u0120predictions": 8605,
  "\u0120Healthy": 8606,
  "anged": 8607,
  "party": 8608,
  "\u0120aggressive": 8609,
  "\u0120excited": 8610,
  "\u0120conceal": 8611,
  "\u0120Land": 8612,
  "?'.": 8613,
  "usive": 8614,
  "\u0120losses": 8615,
  "agraph": 8616,
  "\u0120inflamm": 8617,
  "\u0120CD": 8618,
  "\u0120Labor": 8619,
  "\u0120changed": 8620,
  "\u0120timing": 8621,
  "\u0120seal": 8622,
  "born": 8623,
  "\u0120empow": 8624,
  "\u0120absorption": 8625,
  "edding": 8626,
  "\u0120emergency": 8627,
  "\u0120fibers": 8628,
  "=-": 8629,
  "\u0120transmission": 8630,
  "\u0120Associ": 8631,
  "Proper": 8632,
  "\u0120White": 8633,
  "itations": 8634,
  "\u0120Tools": 8635,
  "\u0120Early": 8636,
  "\u0120frequent": 8637,
  "\u0120gathered": 8638,
  "\u0120Total": 8639,
  "\u0120Soci": 8640,
  "\u0120casual": 8641,
  "\u0120cities": 8642,
  "faceted": 8643,
  "\u0120manually": 8644,
  "\u0120lists": 8645,
  "\u0120encouragement": 8646,
  "lecular": 8647,
  "alpha": 8648,
  "\u0120occasionally": 8649,
  "folio": 8650,
  "\u0120Public": 8651,
  "\u0120rice": 8652,
  "\u0120Point": 8653,
  "\u0120governments": 8654,
  "partial": 8655,
  "length": 8656,
  "\u0120Construc": 8657,
  "bu": 8658,
  "\u0120Perfect": 8659,
  "Take": 8660,
  "\u0120consisting": 8661,
  "\u0120reached": 8662,
  "titudes": 8663,
  "bound": 8664,
  "\u0120cast": 8665,
  "obby": 8666,
  "\u0120restaur": 8667,
  "44": 8668,
  "\u0120mastery": 8669,
  "\u0120biology": 8670,
  "aired": 8671,
  "\u0120pals": 8672,
  "igen": 8673,
  "\u0120East": 8674,
  "ologists": 8675,
  "\u0120adopt": 8676,
  "\u0120snow": 8677,
  "oids": 8678,
  "\u0120dw": 8679,
  "ticle": 8680,
  "\u0120releases": 8681,
  "\u0120cellular": 8682,
  "\u0120Direct": 8683,
  "\u0120wra": 8684,
  "utri": 8685,
  "\u0120Music": 8686,
  "Subtract": 8687,
  "\u0120Pet": 8688,
  "\u0120interpretations": 8689,
  "\u0120slide": 8690,
  "\u0120shifting": 8691,
  "\u0120backgrounds": 8692,
  "\u0120Budget": 8693,
  "\u0120kil": 8694,
  "\u0120perf": 8695,
  "\u0120covers": 8696,
  "\u0120carb": 8697,
  "itors": 8698,
  "\u012035": 8699,
  "\u0120State": 8700,
  "\u0120damaging": 8701,
  "\u0120Ama": 8702,
  "\u0120remarkable": 8703,
  "\u0120thread": 8704,
  "\u0120fan": 8705,
  "\u0120abstract": 8706,
  "\u0120diameter": 8707,
  "`.": 8708,
  "\u0120dietary": 8709,
  "\u0120cake": 8710,
  "\u0120extant": 8711,
  "\u0120Depending": 8712,
  "\u0120tissues": 8713,
  "\u0120campaigns": 8714,
  "\u0120Again": 8715,
  "\u0120phosph": 8716,
  "ugging": 8717,
  "\u0120decreases": 8718,
  "========================================": 8719,
  "\u0120Count": 8720,
  "\u0120traditions": 8721,
  "\u0120disagre": 8722,
  "\u0120artwork": 8723,
  "\u0120spanning": 8724,
  "\u0120attitude": 8725,
  "plicity": 8726,
  "\u0120Allocate": 8727,
  "\u0120hips": 8728,
  "\u0120ring": 8729,
  "aughter": 8730,
  "\u0120beloved": 8731,
  "\u0120stit": 8732,
  "uters": 8733,
  "\u0120juice": 8734,
  "\u0120Special": 8735,
  "emon": 8736,
  "\u0120Solution": 8737,
  "cknow": 8738,
  "She": 8739,
  "phones": 8740,
  "dual": 8741,
  "\u0120overcome": 8742,
  "\u0120functioning": 8743,
  "\u0120complementary": 8744,
  "Multi": 8745,
  "\u0120->": 8746,
  "arithms": 8747,
  "\u0120ench": 8748,
  "\u012027": 8749,
  "\u0120twist": 8750,
  "\u0120mini": 8751,
  "\u0120Video": 8752,
  "\u0120bringing": 8753,
  "with": 8754,
  "\u0120allocate": 8755,
  "\u0120specializing": 8756,
  "\u0120traject": 8757,
  "tising": 8758,
  "\u0120disorders": 8759,
  "\u0120Property": 8760,
  "\u0120navigation": 8761,
  "\u0120safegu": 8762,
  "\u0120pathways": 8763,
  "\u0120interviews": 8764,
  "\u0120gifts": 8765,
  "\u0120Exponential": 8766,
  "olf": 8767,
  "\u0120harmon": 8768,
  "\u0120assignments": 8769,
  "\u0120fans": 8770,
  "umer": 8771,
  "\u0120speeds": 8772,
  "\u0120detection": 8773,
  "\u0120Friends": 8774,
  "\u0120African": 8775,
  "\u0120visualize": 8776,
  "\u012070": 8777,
  "\u0120targeting": 8778,
  "\u0120username": 8779,
  "Having": 8780,
  "\u0120package": 8781,
  "\u0120protocol": 8782,
  "elfare": 8783,
  "\u0120strings": 8784,
  "\u0120uncertainty": 8785,
  "\u0120desk": 8786,
  "\u0120lock": 8787,
  "\u0120aesthe": 8788,
  "\u012075": 8789,
  "\u0120labels": 8790,
  "\u0120circuit": 8791,
  "\u0120Economic": 8792,
  "\u0120Base": 8793,
  "\u0120pron": 8794,
  "\u0120End": 8795,
  "\u0120sib": 8796,
  "\u0120mindset": 8797,
  "\u0120Utilizing": 8798,
  "\u0120HTML": 8799,
  "case": 8800,
  "Solution": 8801,
  "\u0120Mass": 8802,
  "vantages": 8803,
  "\u0120emotionally": 8804,
  "\u0120passed": 8805,
  "\u0120concern": 8806,
  "\u0120retention": 8807,
  "\u0120advance": 8808,
  "\u0120promising": 8809,
  "\u0120glance": 8810,
  "\u0120deepen": 8811,
  "\u0120turned": 8812,
  "gue": 8813,
  "Applying": 8814,
  "\u0120\u0120\u0120\u0120\u0120\u0120": 8815,
  "\u0120artistic": 8816,
  "\u0120pollution": 8817,
  "Qu": 8818,
  "\u0120grab": 8819,
  "bell": 8820,
  "\u0120distress": 8821,
  "\u0120damaged": 8822,
  "':": 8823,
  "\u0120detailing": 8824,
  "ecraft": 8825,
  "\u0120thrive": 8826,
  "\u0120station": 8827,
  "\u0120Notice": 8828,
  "\u0120Lever": 8829,
  "\u0120greatly": 8830,
  "riving": 8831,
  "\u0120formats": 8832,
  "\u0120columns": 8833,
  "\u0120arbit": 8834,
  "\u0120Mind": 8835,
  "\u0120lever": 8836,
  "missions": 8837,
  "\u0120feasible": 8838,
  "\u0120Sleep": 8839,
  "\u0120cultivating": 8840,
  "\u0120bun": 8841,
  "\u0120glasses": 8842,
  "earing": 8843,
  "ok": 8844,
  "otion": 8845,
  "\u0120static": 8846,
  "awareness": 8847,
  "\u0120economies": 8848,
  "\u0120compliance": 8849,
  "\u0120equity": 8850,
  "During": 8851,
  "rices": 8852,
  "\u0120variation": 8853,
  "\u0120photo": 8854,
  "\u0120Av": 8855,
  "\u0120flash": 8856,
  "\u0120Quality": 8857,
  "\u0120discoveries": 8858,
  "\u0120typical": 8859,
  "\u0120Thoroughly": 8860,
  "\u0120Software": 8861,
  "eem": 8862,
  "sian": 8863,
  "\u0120College": 8864,
  "\u0120false": 8865,
  "poon": 8866,
  "\u0120drinks": 8867,
  "\u0120fulfill": 8868,
  "\u0120House": 8869,
  "\u0120relevance": 8870,
  "\u0120credentials": 8871,
  "\u0120consume": 8872,
  "\u0120Main": 8873,
  "\u0120briefly": 8874,
  "\u0120tour": 8875,
  "\u0120musical": 8876,
  "99": 8877,
  "\u0120(\"": 8878,
  "ersion": 8879,
  "\u0120mechanism": 8880,
  "uling": 8881,
  "\u0120guarantees": 8882,
  "\u0120remote": 8883,
  "Are": 8884,
  "kele": 8885,
  "\u0120spr": 8886,
  "\u0120recy": 8887,
  "atches": 8888,
  "\u0120manager": 8889,
  "\u0120acknowledge": 8890,
  "\u0120Distrib": 8891,
  "\u0120thumb": 8892,
  "\u0120bridge": 8893,
  "\u0120win": 8894,
  "\u0120broken": 8895,
  "arding": 8896,
  "\u0120circulation": 8897,
  "\u0120unsure": 8898,
  "\u0120maybe": 8899,
  "ometry": 8900,
  "\u0120tens": 8901,
  "ucose": 8902,
  "\u0120durability": 8903,
  "\u0120constants": 8904,
  "\u0120Negative": 8905,
  "ugs": 8906,
  "\u0120Cross": 8907,
  "\u0120strange": 8908,
  "John": 8909,
  "ref": 8910,
  "\u0120dollars": 8911,
  "\u0120necessarily": 8912,
  "\u0120varies": 8913,
  "\u0120miss": 8914,
  "\u0120heter": 8915,
  "\u0120Local": 8916,
  "\u0120fertil": 8917,
  "\u0120bak": 8918,
  "\u0120meant": 8919,
  "\u0120requests": 8920,
  "\u0120scrub": 8921,
  "\u0120throw": 8922,
  "edia": 8923,
  "rays": 8924,
  "\u0120Child": 8925,
  "comp": 8926,
  "\u0120Subt": 8927,
  "ogram": 8928,
  "\u0120teas": 8929,
  "\u0120Green": 8930,
  "\u0120setbacks": 8931,
  "\u0120Without": 8932,
  "scale": 8933,
  "rance": 8934,
  "\u0120jack": 8935,
  "\u0120superior": 8936,
  "\u0120destination": 8937,
  "\u0120Surround": 8938,
  "oke": 8939,
  "\u0120priorities": 8940,
  "\u0120expanded": 8941,
  "iments": 8942,
  "\u0120presenting": 8943,
  "urities": 8944,
  "\u0120interventions": 8945,
  "\u0120pencils": 8946,
  "\u0120sustainability": 8947,
  "\u0120enzym": 8948,
  "Establish": 8949,
  "\u0120orb": 8950,
  "Ob": 8951,
  "\u0120hypothesis": 8952,
  "\u0120exposed": 8953,
  "data": 8954,
  "\u0120Government": 8955,
  "\u0120fits": 8956,
  "\u0120guiding": 8957,
  "tism": 8958,
  "\u0120depression": 8959,
  "\u0120tea": 8960,
  "\u0120explained": 8961,
  "\u0120pepper": 8962,
  "\u0120definite": 8963,
  "\u0120seamless": 8964,
  "Throughout": 8965,
  "\u0120buck": 8966,
  "orean": 8967,
  "\u0120cheese": 8968,
  "\u0120President": 8969,
  "\u0120(*": 8970,
  "\u01202000": 8971,
  "\u0120Mechan": 8972,
  "\u0120multifaceted": 8973,
  "\u0120Relationships": 8974,
  "\u0120gun": 8975,
  "\u0120manipulate": 8976,
  "\u0120Optim": 8977,
  "\u0120AB": 8978,
  "\u00c3\u0142": 8979,
  "\u0120popularity": 8980,
  "\u0120views": 8981,
  "ders": 8982,
  "\u00e2\u0123": 8983,
  "imes": 8984,
  "\u0120basis": 8985,
  "\u0120maintains": 8986,
  "\u0120orders": 8987,
  "\u0120sto": 8988,
  "ulties": 8989,
  "\u0120laun": 8990,
  "\u0120Supply": 8991,
  "brid": 8992,
  "\u0120strip": 8993,
  "\u0120Dog": 8994,
  "\u0120Adventure": 8995,
  "enny": 8996,
  "\u0120Bro": 8997,
  "ymakers": 8998,
  "\u0120gap": 8999,
  "\u0120Give": 9000,
  "\u0120genes": 9001,
  "\u0120involvement": 9002,
  "\u0120rectangles": 9003,
  "\u0120substance": 9004,
  "\u0120stain": 9005,
  "\u0120owner": 9006,
  "amps": 9007,
  "\u0120samples": 9008,
  "Disc": 9009,
  "\u0120India": 9010,
  "Supp": 9011,
  "how": 9012,
  "ulates": 9013,
  "ulting": 9014,
  "illy": 9015,
  "istance": 9016,
  "\u0120detect": 9017,
  "\u0120shadows": 9018,
  "\u0120q": 9019,
  "\u0120angular": 9020,
  "Micro": 9021,
  "iers": 9022,
  "\u0120coordination": 9023,
  "\u0120resonate": 9024,
  "\u0120wasn": 9025,
  "IS": 9026,
  "Mon": 9027,
  "\u0120Calculus": 9028,
  "\u0120Addition": 9029,
  "\u0120limiting": 9030,
  "\u0120configuration": 9031,
  "oul": 9032,
  "\u0120galax": 9033,
  "\u0120${": 9034,
  "\u0120countless": 9035,
  "\u0120expendit": 9036,
  "\u0120strategically": 9037,
  "draw": 9038,
  "\u0120query": 9039,
  "\u0120Remain": 9040,
  "\u0120reviewing": 9041,
  "\u0120Smith": 9042,
  "My": 9043,
  "\u0120Link": 9044,
  "\u0120Watch": 9045,
  "\u0120inspired": 9046,
  "\u0120bear": 9047,
  "\u0120illumin": 9048,
  "brush": 9049,
  "\u0120accountability": 9050,
  "\u0120odd": 9051,
  "tible": 9052,
  "arn": 9053,
  "\u0120seed": 9054,
  "\u0120estimated": 9055,
  "\u0120entrepreneurs": 9056,
  "\u0120Lead": 9057,
  "\\\\": 9058,
  "levant": 9059,
  "\u0120Hab": 9060,
  "apor": 9061,
  "\u0120Opportun": 9062,
  "\u0120instruments": 9063,
  "\u0120consuming": 9064,
  "\u0120channel": 9065,
  "\u0120Journal": 9066,
  "RE": 9067,
  "\u0120incenti": 9068,
  "stream": 9069,
  "itim": 9070,
  "\u0120Human": 9071,
  "\u0120dreams": 9072,
  "abul": 9073,
  "duct": 9074,
  "\u0120accumulation": 9075,
  "onn": 9076,
  "\u0120former": 9077,
  "\u0120Obtain": 9078,
  "\u0120dimension": 9079,
  "\u0120initiate": 9080,
  "aws": 9081,
  "}+": 9082,
  "\u0120welfare": 9083,
  "\u0120nurturing": 9084,
  "\u0120Run": 9085,
  "\u0120magn": 9086,
  "\u0120\u00cf\u0122": 9087,
  "Le": 9088,
  "\u0120disparate": 9089,
  "ysrK": 9090,
  "\u0120Trust": 9091,
  "Some": 9092,
  "\u0120heightened": 9093,
  "ividing": 9094,
  "\u0120touching": 9095,
  "\u0120keys": 9096,
  ")}{": 9097,
  "\u0120competitors": 9098,
  "qK": 9099,
  "aser": 9100,
  "\u0120agreements": 9101,
  "((": 9102,
  "nel": 9103,
  "urable": 9104,
  "\u0120tones": 9105,
  "\u0120examines": 9106,
  "\u0120Union": 9107,
  "\u0120server": 9108,
  "\u0120promise": 9109,
  "\u0120wheel": 9110,
  "\u0120dominant": 9111,
  "\u0120apparent": 9112,
  "\u0120denoted": 9113,
  "\u0120networking": 9114,
  "\u0120overnight": 9115,
  "Building": 9116,
  "\u0120Eff": 9117,
  "\u0120cooperation": 9118,
  "bert": 9119,
  "\u0120matching": 9120,
  "\u0120Johnson": 9121,
  "\u0120squee": 9122,
  "\u0120Ext": 9123,
  "\u0120recently": 9124,
  "Time": 9125,
  "lands": 9126,
  "oper": 9127,
  "atin": 9128,
  "\u0120Table": 9129,
  "ecutive": 9130,
  "IC": 9131,
  "\u0120winter": 9132,
  "Ensure": 9133,
  "\u0120forg": 9134,
  "\u0120grass": 9135,
  "\u0120traveling": 9136,
  "\u0120Aff": 9137,
  "\u0120logarithmic": 9138,
  "IT": 9139,
  "till": 9140,
  "\u0120complications": 9141,
  "\u0120served": 9142,
  "cast": 9143,
  "cks": 9144,
  "\u0120simplifies": 9145,
  "\u0120ocean": 9146,
  "\u0120reinforces": 9147,
  "base": 9148,
  "\u0120comfortably": 9149,
  "\u0120portions": 9150,
  "\u0120drain": 9151,
  "ruit": 9152,
  "\u0120relaxed": 9153,
  "VD": 9154,
  "\u0120nervous": 9155,
  "\u0120gases": 9156,
  "\u0120wrap": 9157,
  "\u0120Search": 9158,
  "lings": 9159,
  "she": 9160,
  "Analy": 9161,
  "\u0120cooked": 9162,
  "\u0120Congress": 9163,
  "\u0120obligations": 9164,
  "\u0120cere": 9165,
  "vari": 9166,
  "\u0120keywords": 9167,
  "\u0120counsel": 9168,
  "\u0120Feed": 9169,
  "\u0120squared": 9170,
  "\u0120escal": 9171,
  "\u0120mobility": 9172,
  "\u0120estimates": 9173,
  "\u0120grand": 9174,
  "MzMzMzMzMzMzMzMz": 9175,
  "oors": 9176,
  "\u0120unlock": 9177,
  "\u0120500": 9178,
  "\u0120confirmation": 9179,
  "\u0120millions": 9180,
  "\u0120shall": 9181,
  "\u0120female": 9182,
  "\u0120Tommy": 9183,
  "extual": 9184,
  "\u0120Recomm": 9185,
  "\u0120Indust": 9186,
  "ives": 9187,
  "\u0120//": 9188,
  "\u0120Safety": 9189,
  "\u0120Courses": 9190,
  "sters": 9191,
  "\u0120stains": 9192,
  "\u0120Practicing": 9193,
  "\u0120Newton": 9194,
  "array": 9195,
  "\u0120Gre": 9196,
  "agon": 9197,
  "\u0120compromising": 9198,
  "\u0120vess": 9199,
  "\u0120asympt": 9200,
  "\u0120Men": 9201,
  "\u012032": 9202,
  "jo": 9203,
  "\u0120perhaps": 9204,
  "\u0120Finding": 9205,
  "aligned": 9206,
  "vascular": 9207,
  "======": 9208,
  "\u0120falling": 9209,
  "\u0120eager": 9210,
  "\u0120survival": 9211,
  "roductive": 9212,
  "\u0120Problem": 9213,
  "\u0120carrots": 9214,
  "\u0120delivering": 9215,
  "\u0120AD": 9216,
  "hat": 9217,
  "\u0120intersection": 9218,
  "\u0120anthrop": 9219,
  "\u0120fly": 9220,
  "riage": 9221,
  "\u0120stretching": 9222,
  "\u0120genres": 9223,
  "\u0120interpreting": 9224,
  "Regular": 9225,
  "orph": 9226,
  "imination": 9227,
  "\u0120parad": 9228,
  "\u0120Recognizing": 9229,
  "\u0120parabola": 9230,
  "\u0120acquired": 9231,
  "\u0120garments": 9232,
  "\u0120tough": 9233,
  "\u0120voc": 9234,
  "\u0120Inequ": 9235,
  "\u0120landscapes": 9236,
  "vitational": 9237,
  "\u0120Comm": 9238,
  "\u0120ft": 9239,
  "\u0120calend": 9240,
  "plicate": 9241,
  "agn": 9242,
  "\u0120sket": 9243,
  "\u0120cu": 9244,
  "\u0120photograph": 9245,
  "casts": 9246,
  "\u0120sle": 9247,
  "plifying": 9248,
  "\u0120battle": 9249,
  "\u0120sentences": 9250,
  "\u0120texts": 9251,
  "\u0120nutrient": 9252,
  "Elect": 9253,
  "\u0120manifest": 9254,
  "\u0120displaying": 9255,
  "\u0120shaped": 9256,
  "\u0120elucidating": 9257,
  "\u0120max": 9258,
  "\u0120agencies": 9259,
  "\u0120activation": 9260,
  "Mod": 9261,
  "\u0120quotient": 9262,
  "\u0120Quad": 9263,
  "rad": 9264,
  "\u0120Acknow": 9265,
  "\u0120Text": 9266,
  "\u0120pret": 9267,
  "\u0120depic": 9268,
  "\u0120Progress": 9269,
  "\u0120continuity": 9270,
  "\u0120spring": 9271,
  "sized": 9272,
  "Emp": 9273,
  "\u0120wal": 9274,
  "\u0120jumping": 9275,
  "\u0120deck": 9276,
  "\u0120intrigu": 9277,
  "\u0120medicine": 9278,
  "\u0120Solve": 9279,
  "\u0120Steps": 9280,
  "made": 9281,
  "\u0120Operations": 9282,
  "\u0120programming": 9283,
  "karyotic": 9284,
  "ounc": 9285,
  "\u0120earned": 9286,
  "\u0120associations": 9287,
  "\u0120Orig": 9288,
  "\u0120Tre": 9289,
  "veled": 9290,
  "\u0120grip": 9291,
  "\u0120contacts": 9292,
  "\u0120affirm": 9293,
  "itizing": 9294,
  "\u0120Patience": 9295,
  "bur": 9296,
  "ott": 9297,
  "ander": 9298,
  "Based": 9299,
  "LC": 9300,
  "from": 9301,
  "\u0120Federal": 9302,
  "\u0120precisely": 9303,
  "\u0120pert": 9304,
  "\u0120rolling": 9305,
  "\u0120Webs": 9306,
  "\u0120Types": 9307,
  "\u0120hazards": 9308,
  "Effective": 9309,
  "\u0120residue": 9310,
  "uing": 9311,
  "\u0120talents": 9312,
  "\u0120Decide": 9313,
  "\u0120Party": 9314,
  "\u0120spatial": 9315,
  "kin": 9316,
  "\u0120recept": 9317,
  "\u0120captivating": 9318,
  "\u0120discrimination": 9319,
  "\u0120nur": 9320,
  "\u0120distinc": 9321,
  "zero": 9322,
  "\u0120impression": 9323,
  "ectivity": 9324,
  "\u0120strands": 9325,
  "\u0120elimination": 9326,
  "cium": 9327,
  "\u0120difficulties": 9328,
  "Class": 9329,
  "\u0120executing": 9330,
  "\u0120unus": 9331,
  "\u0120cardio": 9332,
  "\u0120mitigate": 9333,
  "\u0120flu": 9334,
  "\u0120synthesi": 9335,
  "\u0120cable": 9336,
  "\u0120Standard": 9337,
  "\u0120wage": 9338,
  "\u0120Bring": 9339,
  "\u0120separation": 9340,
  "matrix": 9341,
  "\u0120timely": 9342,
  "atigue": 9343,
  "\u0120Fund": 9344,
  "isy": 9345,
  "\u0120AND": 9346,
  "\u0120truth": 9347,
  "\u0120Works": 9348,
  "\u0120Lessons": 9349,
  "\u0120vig": 9350,
  "\u0120desirable": 9351,
  "zer": 9352,
  "\u0120bought": 9353,
  "\u0120Content": 9354,
  "yes": 9355,
  "\u0120antib": 9356,
  "hing": 9357,
  "\u0120sine": 9358,
  "\u0120Pass": 9359,
[...]
